<s>	0
</s>	0
<unk>	0
<pad>	0
<rn>	0
▁the	-2.77369
,	-3.32673
▁of	-3.45255
▁to	-3.52515
▁and	-3.68807
.	-3.90246
▁in	-3.93307
▁that	-4.17994
▁a	-4.19674
▁is	-4.21782
▁for	-4.60628
▁I	-4.61369
▁on	-4.73967
▁be	-4.83167
▁this	-4.84851
▁we	-4.88159
s	-4.93362
▁are	-5.03192
▁have	-5.07747
▁it	-5.11713
▁not	-5.12375
▁as	-5.19116
▁with	-5.19286
▁which	-5.22811
▁European	-5.26693
▁The	-5.36156
▁will	-5.38246
▁by	-5.39487
▁has	-5.50934
▁Mr	-5.66675
▁an	-5.80822
▁at	-5.82552
▁would	-5.83185
▁also	-5.84528
▁should	-5.88469
ing	-5.92969
▁-	-5.93855
▁from	-5.93899
▁We	-5.9472
▁all	-5.95068
▁our	-5.96269
▁must	-5.97281
▁but	-6.02144
▁Commission	-6.04587
▁been	-6.05699
▁It	-6.16258
▁can	-6.17783
▁President,	-6.19667
▁was	-6.22001
▁you	-6.22196
▁Member	-6.22497
▁more	-6.24104
▁or	-6.25382
▁do	-6.29133
▁its	-6.29333
▁their	-6.30573
ed	-6.32023
▁like	-6.32545
▁there	-6.33224
▁very	-6.36495
▁In	-6.38629
▁This	-6.40381
▁these	-6.43278
▁they	-6.46355
▁one	-6.49426
▁Parliament	-6.50834
▁report	-6.51648
▁who	-6.52737
▁Union	-6.53129
▁Council	-6.55655
▁other	-6.55738
▁about	-6.55767
▁what	-6.57219
▁need	-6.5751
▁so	-6.58446
d	-6.59664
▁EU	-6.60805
▁States	-6.63224
▁my	-6.63748
▁new	-6.65086
▁only	-6.66347
▁important	-6.66375
▁no	-6.68434
▁us	-6.68509
:	-6.70041
▁because	-6.70784
▁if	-6.7119
▁time	-6.76765
▁people	-6.77267
▁up	-6.77498
▁am	-6.77792
▁	-6.7933
▁out	-6.8154
?	-6.81746
▁countries	-6.82819
▁such	-6.82921
ly	-6.83572
▁support	-6.83724
▁take	-6.8476
▁make	-6.84874
▁Europe	-6.86092
▁into	-6.87494
▁between	-6.88386
▁those	-6.89054
▁now	-6.92491
-	-6.95511
▁when	-6.96031
▁therefore	-6.96118
▁some	-6.97128
▁any	-6.98252
▁being	-6.98919
's	-7.00048
▁political	-7.00779
▁policy	-7.01057
▁made	-7.01819
'	-7.0201
▁were	-7.02815
▁work	-7.03779
;	-7.04657
▁economic	-7.047
▁than	-7.04783
▁believe	-7.05452
s.	-7.06047
▁say	-7.08945
▁fact	-7.09256
▁many	-7.12184
▁against	-7.12229
▁first	-7.14668
▁social	-7.16427
▁think	-7.1812
s,	-7.18323
▁That	-7.19267
▁way	-7.20369
▁proposal	-7.20452
▁just	-7.21246
▁rights	-7.22069
▁Committee	-7.22175
▁s	-7.22178
▁human	-7.22889
▁order	-7.24886
▁point	-7.26199
▁debate	-7.26658
▁right	-7.27509
▁want	-7.27602
▁cannot	-7.2886
▁two	-7.2949
▁As	-7.30113
▁same	-7.30367
▁does	-7.30653
▁had	-7.30773
▁even	-7.30796
▁me	-7.30848
▁them	-7.31469
▁public	-7.33021
▁most	-7.33468
▁could	-7.33485
▁national	-7.35653
▁question	-7.35677
▁good	-7.37276
▁where	-7.37879
▁over	-7.37957
▁already	-7.38153
▁under	-7.38175
▁financial	-7.38176
▁much	-7.3819
▁part	-7.38689
▁clear	-7.38752
▁said	-7.38987
▁measures	-7.3913
er	-7.39767
▁development	-7.39867
▁see	-7.40067
▁–	-7.40068
▁use	-7.40271
y	-7.40385
▁within	-7.4104
▁still	-7.42368
▁how	-7.42615
▁President	-7.43062
▁well	-7.43148
▁common	-7.43467
▁situation	-7.43589
▁There	-7.44091
▁both	-7.44533
▁particular	-7.44607
▁issue	-7.44711
▁here	-7.44743
▁view	-7.45098
▁Mrs	-7.45142
▁your	-7.45346
al	-7.46162
▁agreement	-7.46224
▁However,	-7.46846
▁possible	-7.46974
▁hope	-7.47202
▁ensure	-7.48329
▁vote	-7.49478
▁A	-7.49614
)	-7.49661
▁market	-7.49808
▁taken	-7.50467
▁international	-7.50489
▁too	-7.51569
▁Community	-7.52378
▁his	-7.52544
▁able	-7.52681
n	-7.52778
▁he	-7.53074
▁own	-7.53264
▁why	-7.56251
▁last	-7.56853
▁put	-7.56997
▁number	-7.58198
▁know	-7.58324
▁end	-7.58333
e	-7.58412
▁may	-7.59017
▁means	-7.59396
▁case	-7.60777
▁energy	-7.60981
▁without	-7.62069
▁through	-7.62273
▁place	-7.62957
▁today	-7.63302
▁however	-7.63423
▁cooperation	-7.63859
▁future	-7.64453
▁If	-7.64598
▁gentlemen,	-7.64745
▁information	-7.6601
▁country	-7.66559
▁citizens	-7.6696
▁Madam	-7.67075
▁particularly	-7.67594
t	-7.67964
▁give	-7.68574
▁'	-7.68652
▁years	-7.68665
▁great	-7.68694
▁before	-7.69331
▁legal	-7.69786
▁Commissioner	-7.70422
▁action	-7.7065
▁regard	-7.7141
▁given	-7.71583
▁rapporteur	-7.72452
▁respect	-7.74281
▁necessary	-7.74376
▁far	-7.74977
▁favour	-7.75548
▁directive	-7.7609
▁thank	-7.76471
▁then	-7.76779
▁world	-7.76953
▁whether	-7.77042
▁system	-7.77207
▁role	-7.77436
▁problems	-7.77459
▁ladies	-7.77857
▁protection	-7.7789
▁budget	-7.78441
▁set	-7.78842
▁United	-7.78959
▁further	-7.79418
▁security	-7.79726
▁since	-7.79903
▁position	-7.80352
▁behalf	-7.8055
r	-7.8236
▁terms	-7.82407
▁next	-7.82859
▁problem	-7.83545
▁certain	-7.83641
▁agree	-7.84193
▁Members	-7.851
▁issues	-7.85353
▁process	-7.85414
▁come	-7.85458
▁different	-7.85975
▁area	-7.86105
▁framework	-7.86644
▁help	-7.86716
▁amendments	-7.86829
▁present	-7.86896
▁adopted	-7.87099
▁trade	-7.87286
▁better	-7.87575
▁again	-7.88156
▁For	-7.88467
▁areas	-7.88828
▁matter	-7.89641
▁level	-7.90527
▁ask	-7.90649
▁wish	-7.90927
▁continue	-7.91132
▁needs	-7.91313
▁Commissioner,	-7.91369
▁basis	-7.91394
▁House	-7.91471
▁What	-7.91723
▁proposals	-7.91811
▁women	-7.92624
▁But	-7.92861
es	-7.93196
▁aid	-7.94226
▁after	-7.94927
▁group	-7.94971
▁long	-7.95177
▁rules	-7.95262
▁programme	-7.95886
▁year	-7.95951
▁resolution	-7.96026
▁result	-7.9612
▁done	-7.96521
▁going	-7.97647
▁welcome	-7.98052
▁working	-7.98435
▁three	-7.99016
▁towards	-7.99143
▁few	-7.99147
▁progress	-7.99159
▁Union.	-7.99902
▁Treaty	-8.00243
▁sector	-8.00251
▁something	-8.00369
▁voted	-8.00643
in	-8.00729
▁principle	-8.01445
▁health	-8.01505
▁go	-8.02334
▁decision	-8.02495
o	-8.02838
▁current	-8.0311
▁change	-8.03419
▁provide	-8.03843
▁including	-8.05005
▁down	-8.05321
▁specific	-8.05632
▁(	-8.05654
▁proposed	-8.0567
▁opportunity	-8.0594
▁re	-8.06505
▁really	-8.06633
▁shall	-8.06658
▁find	-8.06745
▁increase	-8.06786
▁state	-8.06892
▁did	-8.06954
▁second	-8.07309
▁On	-8.0734
▁State	-8.07667
▁real	-8.08377
▁forward	-8.08395
▁general	-8.08929
▁law	-8.09109
▁used	-8.09286
▁whole	-8.09341
▁especially	-8.09523
▁during	-8.09609
▁every	-8.09803
se	-8.10594
▁subject	-8.10907
▁institutions	-8.11291
▁become	-8.11594
▁clearly	-8.11806
▁environmental	-8.12325
▁Group	-8.1292
▁No	-8.12956
▁importance	-8.13005
▁greater	-8.13072
▁serious	-8.13331
▁reason	-8.13399
▁research	-8.13453
▁concerned	-8.13464
▁quite	-8.13516
▁million	-8.13668
re	-8.13869
▁approach	-8.14367
▁conditions	-8.14384
▁account	-8.14541
ation	-8.14717
▁course	-8.14822
▁rather	-8.1489
▁fundamental	-8.14993
▁least	-8.15173
▁de	-8.15181
▁Presidency	-8.15608
c	-8.1628
▁hand	-8.16333
’s	-8.16655
▁services	-8.16796
▁They	-8.16817
l	-8.16884
▁access	-8.17137
▁call	-8.17541
▁small	-8.17597
▁essential	-8.17739
▁course,	-8.17747
▁always	-8.17905
▁legislation	-8.17985
▁deal	-8.18075
▁get	-8.182
▁attention	-8.18359
▁.	-8.18404
▁effective	-8.18437
▁difficult	-8.18472
▁internal	-8.18551
▁making	-8.18646
▁States.	-8.19248
▁These	-8.19377
▁S	-8.19488
▁achieve	-8.19489
▁together	-8.19628
or	-8.19631
▁Europe.	-8.19744
▁third	-8.19822
▁once	-8.2004
▁another	-8.20107
▁major	-8.2022
▁At	-8.20246
▁regulation	-8.20559
▁Commission's	-8.20751
▁employment	-8.20963
m	-8.20995
▁based	-8.21902
▁implementation	-8.21992
▁taking	-8.22016
▁government	-8.22355
▁back	-8.22418
▁democratic	-8.22474
p	-8.22584
▁positive	-8.23845
▁various	-8.23888
▁efforts	-8.23942
▁So	-8.24176
▁responsibility	-8.24223
▁safety	-8.24443
▁high	-8.24591
▁strategy	-8.24646
▁policies	-8.25437
▁free	-8.25444
▁reform	-8.25622
▁each	-8.25809
▁negotiations	-8.25902
▁crisis	-8.26283
▁less	-8.26819
▁example,	-8.27414
▁allow	-8.27471
▁yet	-8.27819
▁while	-8.28258
▁industry	-8.28389
▁Government	-8.28929
▁transport	-8.2904
▁global	-8.29214
▁food	-8.29406
▁consider	-8.29473
▁look	-8.29549
▁concerns	-8.29703
▁full	-8.29905
g	-8.30006
▁itself	-8.30018
b	-8.30093
▁power	-8.30283
▁EUR	-8.30561
▁To	-8.30771
▁single	-8.30813
▁report.	-8.31041
▁authorities	-8.31722
▁having	-8.31805
▁resources	-8.31892
▁her	-8.32212
▁opinion	-8.32263
▁large	-8.32707
▁freedom	-8.32781
▁interests	-8.33065
ic	-8.33755
▁things	-8.33971
▁step	-8.342
▁Lisbon	-8.3477
▁accept	-8.35143
▁best	-8.35689
▁1	-8.35722
▁money	-8.35837
/	-8.35995
▁quality	-8.36001
▁amendment	-8.36269
▁democracy	-8.36492
▁majority	-8.36617
▁main	-8.37107
▁regions	-8.37135
▁fully	-8.37505
st	-8.37593
▁form	-8.378
▁dialogue	-8.37973
▁un	-8.37999
▁simply	-8.38163
▁following	-8.38194
▁often	-8.38278
▁certainly	-8.38545
▁recent	-8.38668
en	-8.39005
▁States,	-8.39044
able	-8.39053
▁bring	-8.39258
▁agricultural	-8.39469
a	-8.39873
▁extremely	-8.40289
▁countries.	-8.40356
▁committee	-8.40501
▁aware	-8.40688
▁create	-8.40796
▁objective	-8.40925
th	-8.40979
▁risk	-8.41129
▁points	-8.41155
▁control	-8.41278
it	-8.41313
▁Article	-8.41818
▁growth	-8.42223
▁improve	-8.42504
ers	-8.42729
▁start	-8.42884
▁funds	-8.43143
▁fight	-8.43251
▁understand	-8.43481
▁Parliament,	-8.43507
▁competition	-8.4354
▁involved	-8.4355
▁And	-8.43792
▁open	-8.44061
▁might	-8.44266
▁C	-8.44355
▁peace	-8.44415
f	-8.44462
▁developing	-8.4465
▁impact	-8.44686
▁actually	-8.44832
ur	-8.44945
▁companies	-8.45023
▁products	-8.45093
▁Union,	-8.45256
▁interest	-8.4558
▁regional	-8.45826
▁example	-8.46058
▁Court	-8.4631
▁available	-8.46475
▁economy	-8.47015
▁Let	-8.4711
▁appropriate	-8.47151
▁meeting	-8.47266
▁society	-8.47353
▁procedure	-8.47367
▁indeed	-8.47504
▁report,	-8.47575
ity	-8.47647
▁climate	-8.4787
▁You	-8.48182
▁environment	-8.48192
▁force	-8.48325
▁Finally	-8.48566
▁concern	-8.48665
▁let	-8.48795
▁decisions	-8.49022
▁currently	-8.49076
▁policy.	-8.49133
▁solution	-8.492
▁concerning	-8.49318
▁production	-8.49488
ment	-8.50094
▁relations	-8.5014
!	-8.50153
▁objectives	-8.50429
ar	-8.50627
▁education	-8.50638
▁it.	-8.50662
▁individual	-8.50947
▁responsible	-8.51662
▁agreements	-8.51733
▁Europe,	-8.51962
▁period	-8.51972
▁key	-8.51993
▁feel	-8.52013
le	-8.52295
▁promote	-8.52661
▁text	-8.52879
▁children	-8.52958
i	-8.52982
▁data	-8.53256
▁euro	-8.53373
▁thing	-8.54093
k	-8.54097
▁standards	-8.54182
▁management	-8.54219
▁initiative	-8.54391
▁lack	-8.54445
▁members	-8.54498
▁kind	-8.54744
▁With	-8.55179
▁plan	-8.55261
▁doing	-8.55455
il	-8.55672
ri	-8.55941
▁mentioned	-8.56099
▁prevent	-8.56547
▁cases	-8.56755
▁local	-8.56877
▁tax	-8.56931
▁principles	-8.56934
▁Commission,	-8.5706
at	-8.57181
▁states	-8.57277
h	-8.57923
’	-8.58378
▁Parliament's	-8.58467
▁draft	-8.58505
▁countries,	-8.58749
▁congratulate	-8.59078
▁commitment	-8.59207
▁though	-8.5925
▁Council,	-8.59308
▁questions	-8.59581
▁act	-8.59726
▁benefit	-8.5979
▁special	-8.6008
▁regards	-8.60352
ra	-8.60518
▁idea	-8.60528
▁final	-8.60603
▁Affairs	-8.60676
▁life	-8.60716
▁enlargement	-8.60757
▁Turkey	-8.60865
▁among	-8.60954
▁funding	-8.61057
▁joint	-8.61308
▁line	-8.61537
▁longer	-8.61581
▁young	-8.61629
▁My	-8.61872
▁significant	-8.61924
▁them.	-8.62336
▁aim	-8.62501
▁field	-8.62547
el	-8.62912
▁writing.	-8.62987
▁although	-8.63008
▁true	-8.63018
▁little	-8.63467
▁mean	-8.63514
▁compromise	-8.63908
▁due	-8.63912
▁sure	-8.64194
▁legislative	-8.64224
▁ago	-8.6445
▁results	-8.64462
▁strong	-8.64491
▁nothing	-8.64589
▁excellent	-8.64617
▁all,	-8.64791
▁provided	-8.64958
▁context	-8.64968
▁governments	-8.65265
▁sustainable	-8.65433
▁foreign	-8.65931
▁perhaps	-8.65961
▁include	-8.65972
▁E	-8.65976
▁lead	-8.66024
▁Amendment	-8.66133
ch	-8.66141
▁guarantee	-8.66196
▁Directive	-8.66463
▁labour	-8.66497
▁remain	-8.66506
▁nuclear	-8.6694
▁speak	-8.67057
an	-8.67459
li	-8.67559
▁above	-8.67873
▁Parliament.	-8.68032
▁play	-8.6807
▁Commission.	-8.68157
▁workers	-8.68192
▁regarding	-8.6857
▁pay	-8.68731
▁programmes	-8.69013
▁agreed	-8.69122
▁aspects	-8.69193
-in-Office	-8.69375
▁consumer	-8.69586
▁civil	-8.69984
▁words	-8.70281
▁themselves	-8.70391
▁consumers	-8.70416
▁seen	-8.70453
▁communication	-8.70564
▁needed	-8.7069
▁several	-8.71048
est	-8.71091
▁relation	-8.71104
▁response	-8.71116
2	-8.71245
▁addition	-8.71257
▁business	-8.71311
▁reasons	-8.71313
▁contribution	-8.71367
4	-8.71383
▁months	-8.71594
▁Convention	-8.71864
▁Our	-8.71877
ion	-8.71949
▁parties	-8.72276
▁apply	-8.72488
▁share	-8.72756
▁costs	-8.72855
▁projects	-8.72919
▁matters	-8.72967
▁comes	-8.73053
▁f	-8.73123
▁upon	-8.73194
▁makes	-8.73269
ive	-8.73311
▁achieved	-8.73887
▁discussion	-8.73973
▁mention	-8.74141
▁technical	-8.74393
▁groups	-8.744
▁priority	-8.74618
▁crucial	-8.74622
▁move	-8.74704
▁others	-8.74743
3	-8.74746
▁Minister	-8.74849
▁war	-8.75256
▁investment	-8.75384
▁mind	-8.75472
▁enough	-8.75474
▁she	-8.7566
▁adopt	-8.75685
▁actions	-8.75714
▁him	-8.76023
▁One	-8.76136
▁protect	-8.76338
te	-8.76362
▁seems	-8.76452
▁activities	-8.76472
▁draw	-8.7663
▁000	-8.76675
▁existing	-8.76938
▁pleased	-8.76985
▁colleagues	-8.76988
▁provisions	-8.7704
▁request	-8.77089
▁accession	-8.77201
▁effect	-8.77243
▁voting	-8.77268
▁off	-8.78053
▁reports	-8.78492
▁stability	-8.78559
▁short	-8.78717
▁Secondly,	-8.78798
▁UN	-8.78808
▁balance	-8.78826
▁ourselves	-8.78897
▁service	-8.79019
▁changes	-8.79236
▁reduce	-8.79265
▁express	-8.79342
lo	-8.79397
▁close	-8.79502
▁Union's	-8.79695
▁soon	-8.79734
▁moment	-8.7975
▁cultural	-8.79869
▁develop	-8.79927
▁region	-8.79972
▁water	-8.80096
ism	-8.80329
▁until	-8.80381
5	-8.80426
▁creation	-8.80429
▁cohesion	-8.80507
▁assistance	-8.80533
▁basic	-8.80719
▁F	-8.80804
▁sense	-8.80925
▁everyone	-8.81018
▁never	-8.81312
ist	-8.81472
▁value	-8.81847
▁solidarity	-8.81863
▁carried	-8.82119
▁transparency	-8.82254
7	-8.82291
▁rule	-8.82613
▁saying	-8.82912
▁statement	-8.82914
6	-8.82973
▁5	-8.83041
▁military	-8.83101
▁show	-8.83155
▁consequences	-8.83229
▁tabled	-8.83334
▁10	-8.8339
▁increased	-8.83426
▁asked	-8.8354
▁equal	-8.83638
▁T	-8.83887
▁increasing	-8.83911
▁held	-8.83973
▁answer	-8.84014
▁application	-8.84033
▁relating	-8.84033
▁farmers	-8.84222
et	-8.84252
▁item	-8.84344
▁regulations	-8.84589
▁keep	-8.84856
▁namely	-8.84901
▁training	-8.84922
on	-8.85064
▁All	-8.85242
▁meet	-8.85308
▁project	-8.8532
▁When	-8.85364
▁p	-8.85395
▁pressure	-8.85744
▁required	-8.85753
▁integration	-8.85845
▁‘	-8.85851
▁fishing	-8.8612
▁future.	-8.86201
▁everything	-8.8628
ness	-8.86299
▁policy,	-8.86517
▁job	-8.86685
▁presented	-8.86785
▁face	-8.86842
▁c	-8.86871
▁thus	-8.87096
▁Thank	-8.87148
▁population	-8.87389
▁opportunities	-8.87391
8	-8.87503
▁doubt	-8.87528
▁jobs	-8.87555
▁G	-8.87731
▁instruments	-8.88102
▁billion	-8.88124
▁throughout	-8.88172
▁B	-8.88291
ate	-8.88318
▁package	-8.88376
▁12	-8.88475
▁instrument	-8.88589
▁review	-8.88798
▁nature	-8.88829
▁live	-8.88904
▁external	-8.89271
1	-8.8932
▁found	-8.89351
▁budgetary	-8.89488
▁systems	-8.89809
▁6	-8.89919
▁potential	-8.90018
▁called	-8.9018
▁demand	-8.90198
▁address	-8.90294
▁waste	-8.90749
▁around	-8.90881
▁road	-8.909
▁values	-8.91081
▁movement	-8.91279
▁tell	-8.91397
▁prepared	-8.91445
▁criteria	-8.91486
ci	-8.91606
▁Party	-8.91685
▁decided	-8.91688
▁initiatives	-8.92175
▁2	-8.92352
▁market.	-8.9245
▁Fund	-8.92465
▁Russia	-8.9262
▁success	-8.92848
▁task	-8.92853
▁violence	-8.93235
ce	-8.93515
ro	-8.9355
▁previous	-8.93598
I	-8.93609
▁focus	-8.9367
▁agenda	-8.93688
ul	-8.9382
▁cost	-8.93972
▁reached	-8.93997
ary	-8.93999
▁procedures	-8.94213
▁China	-8.94217
▁establish	-8.94326
▁raised	-8.94421
▁expressed	-8.94584
▁effort	-8.947
ta	-8.94743
▁monitoring	-8.94841
▁document	-8.94867
▁vital	-8.9497
▁term	-8.95003
▁challenges	-8.95039
▁markets	-8.95058
▁across	-8.95092
▁He	-8.95348
▁times	-8.95402
▁experience	-8.95524
as	-8.95598
T	-8.95612
▁talking	-8.95625
▁elections	-8.95684
▁four	-8.95764
▁Therefore,	-8.95765
▁amount	-8.95808
▁implement	-8.95959
u	-8.95963
▁using	-8.96165
▁illegal	-8.96173
▁light	-8.96348
▁enable	-8.96477
▁expect	-8.9677
▁try	-8.97062
▁reach	-8.97227
▁private	-8.97307
▁powers	-8.9738
▁fisheries	-8.97563
▁fellow	-8.97563
▁per	-8.97613
▁included	-8.97683
▁fair	-8.9775
▁practice	-8.97925
▁past	-8.9806
▁turn	-8.98114
▁stress	-8.98167
▁dis	-8.9823
▁French	-8.98266
▁reduction	-8.98413
▁absolutely	-8.9848
▁poverty	-8.9849
▁quickly	-8.98509
me	-8.98652
▁organisations	-8.98679
▁add	-8.98874
▁requirements	-8.98924
▁conflict	-8.99021
▁established	-8.99063
▁nor	-8.99098
ma	-8.99117
▁presidency	-8.9924
▁strengthen	-8.99267
▁talk	-8.99481
▁Council.	-8.99542
▁recently	-8.99593
▁victims	-8.99695
▁outside	-8.99702
▁e	-8.99878
▁coming	-8.99915
▁years.	-8.99925
▁20	-9.00168
▁agriculture	-9.00195
▁France	-9.00265
▁price	-9.00329
▁Conference	-9.00378
ut	-9.00513
ting	-9.00519
▁five	-9.00608
▁7	-9.00686
▁day	-9.01088
▁additional	-9.01093
▁Development	-9.01116
▁3	-9.01143
▁note	-9.0125
▁week	-9.01302
▁effects	-9.01493
ated	-9.01503
▁direct	-9.01581
▁19	-9.01635
A	-9.01678
▁structural	-9.01859
▁begin	-9.01883
▁completely	-9.01913
▁remind	-9.02111
▁supported	-9.02147
us	-9.02204
▁11	-9.02514
▁brought	-9.02666
▁ever	-9.02999
▁rights.	-9.03117
ating	-9.03135
▁content	-9.03174
▁giving	-9.03276
▁list	-9.03324
▁treatment	-9.03331
▁motion	-9.03418
▁model	-9.03533
vi	-9.03535
▁cause	-9.03691
▁thanks	-9.03744
▁15	-9.03927
▁encourage	-9.03991
ed.	-9.04072
▁K	-9.04229
▁care	-9.04251
id	-9.0431
F	-9.04315
▁summit	-9.0442
▁time.	-9.04451
▁avoid	-9.04501
▁extent	-9.04564
▁December	-9.0486
▁Republic	-9.05023
▁businesses	-9.05073
▁year.	-9.05085
▁took	-9.05248
▁8	-9.05289
▁received	-9.05309
▁priorities	-9.05316
▁US	-9.05391
▁possibility	-9.05393
▁reforms	-9.05402
▁applied	-9.05408
▁Nations	-9.05425
▁representatives	-9.05476
▁date	-9.05481
▁heard	-9.05581
ly,	-9.0565
▁along	-9.05825
▁ensuring	-9.05825
▁almost	-9.06005
▁coordination	-9.06139
▁approved	-9.06214
▁community	-9.06228
▁years,	-9.06278
▁Agreement	-9.06409
▁Firstly	-9.06449
▁stage	-9.06535
z	-9.06565
▁relevant	-9.06575
▁EU's	-9.06595
▁proper	-9.06831
▁you,	-9.06834
▁hard	-9.06848
▁ten	-9.06892
C	-9.06919
▁either	-9.06945
▁natural	-9.06965
▁combat	-9.07158
▁Of	-9.07254
▁assessment	-9.07301
▁discussed	-9.0736
▁discuss	-9.07395
▁criminal	-9.07466
▁behind	-9.07481
▁creating	-9.07498
▁Furthermore	-9.07527
▁confidence	-9.0762
▁living	-9.07679
la	-9.07682
▁ban	-9.07688
▁away	-9.07723
▁practical	-9.07793
▁connection	-9.07987
▁side	-9.08029
▁offer	-9.08073
▁lot	-9.08203
▁sitting	-9.08261
▁left	-9.08411
▁competitiveness	-9.08438
▁air	-9.08523
▁adoption	-9.08555
▁Bank	-9.08611
▁9	-9.08721
▁level.	-9.0912
▁men	-9.09364
▁innovation	-9.09412
▁May	-9.09477
▁Europe's	-9.09662
S	-9.09869
▁events	-9.10005
▁discussions	-9.10158
▁British	-9.10173
▁guidelines	-9.10196
▁capacity	-9.10256
▁parliamentary	-9.1031
▁Rights	-9.10542
▁year,	-9.10758
im	-9.10868
isation	-9.10884
▁remains	-9.10898
ne	-9.11123
▁%	-9.11201
▁b	-9.1124
▁world.	-9.1134
▁Regulation	-9.11365
▁receive	-9.11408
▁stop	-9.11804
▁scope	-9.11824
▁old	-9.12046
▁huge	-9.12205
▁immigration	-9.12249
▁challenge	-9.12332
▁non-	-9.12345
▁defence	-9.12412
▁Ireland	-9.12426
▁days	-9.12812
▁(DE)	-9.12828
▁rate	-9.12984
▁capital	-9.13023
▁family	-9.13165
▁considered	-9.13276
▁levels	-9.13302
▁discrimination	-9.13318
▁affected	-9.13564
▁despite	-9.13664
un	-9.13859
▁humanitarian	-9.13863
ant	-9.13881
▁return	-9.13929
▁aimed	-9.13932
▁contribute	-9.13976
▁takes	-9.14564
▁Central	-9.14751
▁International	-9.14768
▁personal	-9.14774
▁message	-9.14859
▁rights,	-9.14875
▁precisely	-9.14899
▁difficulties	-9.14985
▁t	-9.15007
▁justice	-9.15019
na	-9.15162
▁First	-9.15215
▁trying	-9.15245
▁decide	-9.15296
▁implemented	-9.15304
▁O	-9.1531
▁six	-9.15489
▁supply	-9.15554
▁Economic	-9.15571
▁efficiency	-9.15703
P	-9.1571
▁M	-9.15784
▁carry	-9.15895
▁shown	-9.15956
▁media	-9.15966
▁June	-9.16083
▁today.	-9.16115
▁instead	-9.16182
'.	-9.16206
▁Justice	-9.16216
▁culture	-9.16234
▁regime	-9.16253
ent	-9.16276
▁partnership	-9.16299
ir	-9.16345
ry	-9.16348
▁reference	-9.16367
▁developed	-9.16396
▁central	-9.16506
▁produce	-9.16688
▁partners	-9.16696
▁honourable	-9.16774
▁dealing	-9.16882
▁maintain	-9.16902
▁active	-9.16916
▁World	-9.17113
▁accordance	-9.17132
▁beginning	-9.17137
▁half	-9.17147
▁institutional	-9.17209
▁providing	-9.17214
▁technology	-9.17269
ance	-9.17383
▁total	-9.17513
is	-9.17641
▁citizens.	-9.17713
▁oil	-9.1774
▁benefits	-9.17921
9	-9.17997
▁improving	-9.1807
▁scientific	-9.18138
▁according	-9.18159
▁work.	-9.18165
▁asylum	-9.18205
▁P	-9.18338
▁administrative	-9.18358
▁reading	-9.18452
▁committed	-9.18478
▁purpose	-9.18686
▁death	-9.18711
▁wrong	-9.18986
▁speech	-9.19001
▁conclusions	-9.19054
▁home	-9.19158
▁co	-9.19203
▁Germany	-9.1923
▁stand	-9.19267
▁goes	-9.19339
▁consideration	-9.19372
▁allowed	-9.19419
▁propose	-9.1948
▁created	-9.19717
▁successful	-9.19797
▁origin	-9.19883
▁independent	-9.1991
▁Social	-9.20096
▁minimum	-9.20168
▁status	-9.20202
▁goods	-9.20293
▁comments	-9.20338
ia	-9.2054
▁emissions	-9.20591
▁considerable	-9.20656
▁forces	-9.2068
▁provides	-9.20759
▁crime	-9.20793
▁provision	-9.21075
▁prices	-9.21125
▁unemployment	-9.21136
▁measure	-9.21217
▁accepted	-9.21229
▁Israel	-9.21457
▁Now	-9.21458
▁sectors	-9.21497
▁WTO	-9.21538
▁rightly	-9.21541
▁poor	-9.21633
▁strategic	-9.21643
▁area.	-9.21823
▁implementing	-9.21947
▁exchange	-9.21996
▁participation	-9.22046
▁opinion,	-9.22086
▁knowledge	-9.2213
▁colleague	-9.2224
▁rest	-9.22348
▁unfortunately	-9.22538
▁Re	-9.22633
▁stated	-9.22671
▁rural	-9.2268
▁possible.	-9.22724
▁promoting	-9.22822
age	-9.22857
▁calls	-9.23008
▁4	-9.23084
▁respond	-9.23163
▁referred	-9.2318
ter	-9.23275
▁"	-9.23309
▁specifically	-9.23397
▁closely	-9.2344
▁similar	-9.23443
▁overall	-9.23475
▁German	-9.23705
▁Group.	-9.23894
▁regret	-9.2403
▁seriously	-9.24065
▁issue.	-9.24389
▁forms	-9.24414
less	-9.24431
▁reality	-9.24528
▁remember	-9.24571
▁beyond	-9.24805
▁history	-9.2495
ck	-9.25003
▁know,	-9.25056
▁long-term	-9.25131
▁process.	-9.25239
▁complete	-9.2534
ll	-9.25407
de	-9.25448
▁country,	-9.25548
▁East	-9.25668
▁urgent	-9.2573
▁introduction	-9.2573
▁industrial	-9.25866
▁solutions	-9.25948
▁met	-9.2618
▁Human	-9.26224
▁Kosovo	-9.2626
O	-9.26284
▁urge	-9.26301
ti	-9.26422
▁directly	-9.26449
▁here.	-9.26456
rs	-9.26476
▁requires	-9.26592
ise	-9.2661
▁expenditure	-9.26663
▁correct	-9.26798
▁Today	-9.26903
▁finally	-9.26969
▁financing	-9.27023
▁study	-9.27124
ver	-9.27155
▁Mediterranean	-9.27198
ling	-9.27209
▁annual	-9.27236
▁wanted	-9.27309
▁conference	-9.27328
▁border	-9.27356
▁influence	-9.27365
to	-9.27395
▁follow	-9.27396
R	-9.2745
▁police	-9.27699
▁leave	-9.27808
D	-9.27856
▁plans	-9.27882
▁useful	-9.2796
▁aspect	-9.28101
▁steps	-9.28102
▁hold	-9.28171
▁Irish	-9.2837
ous	-9.28548
▁product	-9.28804
▁equality	-9.28856
▁comment	-9.29142
▁setting	-9.29298
▁W	-9.29323
▁myself	-9.29328
▁event	-9.29445
▁views	-9.295
▁name	-9.29526
▁tomorrow	-9.29528
M	-9.29544
▁January	-9.29593
▁introduce	-9.29593
▁intended	-9.29626
▁Summit	-9.2965
▁join	-9.29723
▁outcome	-9.29726
▁activity	-9.29729
▁effectively	-9.29823
▁sufficient	-9.29972
▁commitments	-9.30005
▁entire	-9.30052
▁How	-9.30073
▁sort	-9.3009
▁represent	-9.30117
▁demands	-9.30354
▁damage	-9.30379
▁closed.	-9.30416
▁party	-9.30452
▁export	-9.30577
▁paid	-9.3062
▁con	-9.30818
▁comprehensive	-9.30831
▁words,	-9.30888
▁direction	-9.3106
▁gas	-9.31096
▁duty	-9.3135
▁paragraph	-9.31469
▁efficient	-9.31548
▁country.	-9.31591
▁terrorism	-9.31633
▁highly	-9.31649
▁speaking	-9.31656
▁bodies	-9.31678
▁conclude	-9.31726
▁spirit	-9.31736
▁anything	-9.31814
ot	-9.31832
▁Greece	-9.31872
▁competitive	-9.31882
x	-9.31894
▁concept	-9.32161
▁refer	-9.32167
no	-9.32325
▁animal	-9.32361
▁led	-9.32392
▁fund	-9.32527
▁properly	-9.32611
▁rise	-9.32696
▁ambitious	-9.32708
▁genuine	-9.32777
▁yesterday	-9.32864
▁trust	-9.32884
▁higher	-9.32905
▁medium-sized	-9.32923
ty	-9.33041
▁represents	-9.33205
▁limited	-9.33222
▁supporting	-9.33253
▁shows	-9.33388
▁discussing	-9.33537
▁Although	-9.33552
E	-9.33566
▁car	-9.336
▁broad	-9.33633
▁known	-9.33691
▁increasingly	-9.33851
▁conclusion	-9.33882
▁former	-9.33915
▁Rules	-9.33938
▁chance	-9.34051
▁authority	-9.34176
▁caused	-9.342
▁establishing	-9.34257
▁Unfortunately	-9.34442
▁language	-9.3448
▁opposition	-9.34502
▁whom	-9.3452
▁dimension	-9.34521
▁calling	-9.34647
▁people.	-9.34778
▁weeks	-9.34843
▁improved	-9.35021
▁hear	-9.35052
▁achieving	-9.351
▁early	-9.3512
▁ways	-9.35215
▁Ma	-9.35318
▁word	-9.35393
▁type	-9.35593
▁By	-9.35596
▁press	-9.35601
▁emphasise	-9.35616
om	-9.35629
▁limit	-9.35696
▁market,	-9.35775
▁An	-9.3584
▁happened	-9.36035
co	-9.36109
▁organisation	-9.36123
▁threat	-9.36191
02	-9.36334
▁strengthening	-9.36566
▁reducing	-9.36612
▁candidate	-9.36649
▁Minutes	-9.36673
▁Security	-9.36713
▁thought	-9.36808
▁13	-9.36831
▁produced	-9.36846
go	-9.36852
▁obviously	-9.3688
▁infrastructure	-9.3694
▁Since	-9.36999
▁risks	-9.37076
▁EU.	-9.37138
▁sector.	-9.37351
▁send	-9.37403
▁require	-9.37422
▁De	-9.37689
pp	-9.37715
▁failure	-9.3776
▁later	-9.37762
▁Green	-9.37774
▁March	-9.37852
▁low	-9.3791
v	-9.37933
▁gives	-9.37935
▁convinced	-9.37958
▁aims	-9.38121
▁establishment	-9.3816
▁building	-9.38185
▁currency	-9.38229
▁law.	-9.38231
▁statements	-9.38542
▁unacceptable	-9.38562
▁producers	-9.38588
▁Moreover	-9.38666
▁union	-9.38852
▁looking	-9.38861
▁read	-9.3897
responsibilities	-9.38975
▁Foreign	-9.39038
▁25	-9.39103
▁cut	-9.39136
▁enormous	-9.39163
▁enterprises	-9.39245
▁analysis	-9.39246
ad	-9.39301
▁land	-9.39336
▁recognise	-9.39513
▁debate.	-9.39607
▁Euro	-9.397
▁monetary	-9.39853
▁member	-9.39899
▁combating	-9.39943
▁balanced	-9.39991
▁animals	-9.4008
▁sometimes	-9.40147
▁recognition	-9.40189
▁us.	-9.40236
▁appeal	-9.40442
▁earlier	-9.40463
▁2000	-9.40494
▁so-called	-9.40547
▁concrete	-9.40653
▁staff	-9.40654
▁alternative	-9.40816
▁dangerous	-9.40914
▁constructive	-9.4108
mo	-9.41158
▁m	-9.41178
▁acceptable	-9.41249
▁(FR)	-9.41311
▁elements	-9.41408
ha	-9.41439
▁Spanish	-9.41524
▁becoming	-9.41547
▁entirely	-9.41553
▁American	-9.41583
▁Some	-9.41662
▁contrary	-9.41673
▁Brussels	-9.41748
▁firstly	-9.41786
▁thinking	-9.41952
▁facing	-9.41996
▁prevention	-9.42033
▁Romania	-9.42043
▁delegation	-9.42066
▁relationship	-9.42134
▁voice	-9.42144
▁After	-9.42187
▁ground	-9.4219
▁introduced	-9.42208
▁developments	-9.4222
▁Russian	-9.42232
tra	-9.42351
▁understanding	-9.42353
▁commercial	-9.42445
▁negative	-9.42489
ful	-9.42683
▁Nevertheless	-9.42834
▁Internet	-9.42899
▁cross-border	-9.43028
▁consensus	-9.43072
▁reduced	-9.43089
▁1999	-9.43134
▁documents	-9.43436
▁pointed	-9.43469
▁differences	-9.43474
▁flexibility	-9.43528
/20	-9.43591
ial	-9.43625
ag	-9.43681
▁mandate	-9.43702
▁fear	-9.43806
▁raise	-9.43995
ru	-9.44038
▁perspective	-9.44082
▁repeat	-9.44119
▁asking	-9.44137
▁liberalisation	-9.44144
▁network	-9.44328
▁build	-9.44403
00	-9.44471
▁critical	-9.44495
▁recommendations	-9.44555
▁age	-9.44578
▁September	-9.44578
▁30	-9.44614
▁instance	-9.44711
▁happen	-9.44713
▁complex	-9.44746
▁sources	-9.44835
▁probably	-9.44842
▁morning	-9.44909
▁added	-9.44933
▁forget	-9.44964
▁Spain	-9.45019
▁closer	-9.45162
▁14	-9.45278
▁explain	-9.45293
▁Indeed	-9.45373
▁transparent	-9.45398
▁lives	-9.45564
mp	-9.45634
▁else	-9.45706
ised	-9.45746
▁child	-9.45793
▁America	-9.45816
▁body	-9.45817
▁method	-9.45851
▁intervention	-9.46001
ies	-9.46083
▁sound	-9.46128
▁South	-9.46241
▁networks	-9.46319
▁Italian	-9.46376
▁wants	-9.46504
ally	-9.46551
▁Environment	-9.46624
▁strongly	-9.46779
▁applies	-9.46847
▁Ukraine	-9.46895
▁exactly	-9.47025
▁Do	-9.47123
▁fall	-9.47155
▁seek	-9.47337
ca	-9.47423
L	-9.47425
▁methods	-9.47443
▁Palestinian	-9.47566
▁renewable	-9.47641
▁attempt	-9.47767
▁exist	-9.47802
▁November	-9.47933
▁company	-9.47933
▁drawn	-9.47993
▁mechanisms	-9.48039
▁st	-9.48044
▁system.	-9.48048
▁sanctions	-9.48161
▁bear	-9.48301
▁discharge	-9.48343
▁development.	-9.48576
▁Iraq	-9.48705
▁credit	-9.48755
▁person	-9.48764
▁burden	-9.48773
▁extend	-9.48902
▁UK	-9.48941
tic	-9.4897
▁mechanism	-9.49015
▁Constitution	-9.49112
▁reply	-9.49123
▁laid	-9.49129
▁laws	-9.49147
ol	-9.49252
▁fraud	-9.49261
▁parts	-9.49286
▁dealt	-9.49318
▁opening	-9.49364
▁improvement	-9.49558
▁Ministers	-9.49612
▁practices	-9.49647
▁refugees	-9.49687
▁ex	-9.4971
▁institution	-9.49722
▁submitted	-9.4975
▁heart	-9.49846
▁MEPs	-9.49903
▁Paper	-9.49959
s'	-9.50001
▁agencies	-9.50001
▁exercise	-9.50027
ising	-9.50123
▁happy	-9.50397
▁seem	-9.5056
▁borders	-9.50575
▁expression	-9.50575
▁Ladies	-9.50583
▁future,	-9.50654
▁choice	-9.50797
▁addressed	-9.50801
▁degree	-9.50841
▁rapporteurs	-9.50988
▁defend	-9.51
▁targets	-9.51194
).	-9.51216
▁informed	-9.51282
▁governance	-9.51312
▁people,	-9.51358
▁Why	-9.51384
▁says	-9.5143
▁integrated	-9.51495
▁18	-9.51591
▁desire	-9.51671
▁putting	-9.51749
▁ideas	-9.51795
▁level,	-9.51879
▁Even	-9.51885
▁Programme	-9.519
▁came	-9.51958
▁simple	-9.52097
▁big	-9.52133
d.	-9.52184
con	-9.52245
▁definition	-9.52271
▁evidence	-9.52279
▁table	-9.52398
▁consultation	-9.5243
▁growing	-9.52504
▁immediately	-9.52517
▁Middle	-9.52541
ve	-9.52556
▁managed	-9.52592
sh	-9.52704
▁Kingdom	-9.52732
w	-9.52834
▁operation	-9.52931
▁obligations	-9.52941
▁fish	-9.52955
▁contains	-9.52958
▁unable	-9.52971
▁2003	-9.52984
▁sensitive	-9.5312
▁October	-9.5321
▁mutual	-9.53294
▁organised	-9.53319
led	-9.53348
em	-9.53449
▁sea	-9.53543
▁ahead	-9.53594
▁administration	-9.53627
▁intention	-9.53782
▁Prime	-9.53792
▁parliaments	-9.53904
▁situation.	-9.53935
▁comply	-9.54064
▁Strategy	-9.54174
▁mainly	-9.54191
▁Democrats	-9.54256
▁rejected	-9.54359
▁Trade	-9.5437
▁standard	-9.54839
▁merely	-9.54989
▁alone	-9.55092
▁proposal.	-9.551
▁easy	-9.55147
%	-9.55179
▁resolve	-9.55201
▁leaders	-9.55439
▁Iran	-9.55491
▁reject	-9.55555
▁Health	-9.55588
▁directives	-9.55622
▁sign	-9.55624
▁Charter	-9.55637
▁leading	-9.55762
ities	-9.55846
▁signed	-9.55924
▁Agency	-9.55932
▁2002	-9.56103
▁technologies	-9.56105
▁safe	-9.56129
▁promotion	-9.5613
▁continuing	-9.56154
▁travel	-9.56169
▁Chamber	-9.56179
▁Africa	-9.56209
▁office	-9.56319
▁Turkish	-9.56352
ted	-9.56457
▁disaster	-9.5651
man	-9.56568
▁V	-9.56583
▁advantage	-9.56707
B	-9.56945
ence	-9.57073
▁Amsterdam	-9.57097
▁thousands	-9.57101
▁persons	-9.57149
ill	-9.57221
▁impossible	-9.57322
▁problem.	-9.5739
▁elected	-9.57506
▁speed	-9.57663
▁debt	-9.57823
ge	-9.57845
▁cover	-9.57982
▁Amendments	-9.57994
▁lost	-9.58034
▁substantial	-9.58066
▁figures	-9.58082
ts	-9.58132
▁structure	-9.5815
▁adequate	-9.58186
▁Many	-9.58319
▁attitude	-9.58324
▁related	-9.58333
▁recommendation	-9.5842
▁guarantees	-9.58445
▁independence	-9.58478
▁traffic	-9.58928
▁appear	-9.58929
▁ought	-9.59011
▁told	-9.59025
▁totally	-9.59078
▁well.	-9.59133
▁includes	-9.59191
▁campaign	-9.59218
ian	-9.59218
▁speakers	-9.59421
▁intend	-9.59602
▁worked	-9.59794
▁resolutions	-9.59796
▁visit	-9.59814
cu	-9.59844
"	-9.59917
▁income	-9.59968
▁wishes	-9.59994
▁payments	-9.6015
▁16	-9.60258
▁(The	-9.60263
▁target	-9.60391
▁subsidiarity	-9.60392
▁matter.	-9.60493
▁economies	-9.60495
▁African	-9.60522
▁failed	-9.60555
am	-9.60583
▁endorse	-9.60599
▁way,	-9.60619
▁secure	-9.60702
▁now,	-9.6082
▁Schengen	-9.60831
▁inter	-9.60833
▁delay	-9.60883
▁evaluation	-9.61038
he	-9.61108
▁them,	-9.61119
▁grateful	-9.61271
▁territory	-9.61506
▁SMEs	-9.61555
▁lower	-9.61629
▁membership	-9.61722
é	-9.61766
do	-9.6184
▁Pact	-9.61904
▁linked	-9.61934
▁Monetary	-9.6195
▁treaty	-9.61983
▁positions	-9.6207
▁highlight	-9.6216
▁element	-9.62171
▁bringing	-9.62213
▁attack	-9.62217
▁affairs	-9.62222
▁2001	-9.62278
▁obvious	-9.62286
▁families	-9.62369
▁trafficking	-9.62454
▁way.	-9.62539
▁rates	-9.62572
▁2004	-9.62601
▁17	-9.62633
▁2020	-9.62638
▁involvement	-9.62652
▁involving	-9.62685
▁tackle	-9.62742
ine	-9.62783
min	-9.6284
▁actual	-9.62853
▁Structural	-9.62896
▁opposed	-9.62926
▁original	-9.63001
▁Cyprus	-9.63055
▁goal	-9.63092
▁Policy	-9.63154
▁getting	-9.6324
▁decision-making	-9.63247
va	-9.63247
▁Roma	-9.63275
com	-9.63372
▁Portugal	-9.63612
▁facilitate	-9.63665
▁finance	-9.6371
▁truly	-9.63772
▁areas.	-9.6378
▁us,	-9.63783
▁enter	-9.6387
▁immediate	-9.63959
▁official	-9.64062
▁ready	-9.64248
▁weapons	-9.64309
▁crisis.	-9.64328
▁disease	-9.64353
ors	-9.64407
▁faced	-9.64478
▁Council's	-9.64577
▁plenary	-9.64601
▁proceed	-9.64678
▁(PL)	-9.64843
▁session	-9.6487
▁happening	-9.64892
▁law,	-9.64893
ish	-9.64894
▁election	-9.65139
ke	-9.65174
pe	-9.65259
▁tourism	-9.65493
▁drugs	-9.65514
▁talks	-9.65556
▁protecting	-9.65615
▁greatest	-9.65909
▁referendum	-9.65981
▁forced	-9.66018
▁imp	-9.66148
▁Poland	-9.6615
▁recognised	-9.6622
▁2007	-9.6633
▁acts	-9.66369
▁issues.	-9.66683
▁followed	-9.66709
▁controls	-9.6671
▁D	-9.66714
▁starting	-9.66881
▁diversity	-9.66884
▁adopting	-9.66931
▁North	-9.66989
land	-9.67003
▁professional	-9.67125
▁Belarus	-9.67125
▁granted	-9.67165
▁seeking	-9.67285
▁counter	-9.67343
▁round	-9.67344
▁run	-9.67359
G	-9.67424
▁interesting	-9.67459
di	-9.67517
▁ability	-9.67521
▁conduct	-9.6753
▁lines	-9.67562
▁danger	-9.67607
▁board	-9.67645
▁bad	-9.6766
▁July	-9.67685
▁shared	-9.67694
ho	-9.67776
▁27	-9.67797
▁sides	-9.67923
▁legislation.	-9.67977
▁range	-9.68034
▁gender	-9.68046
▁involve	-9.68174
▁bilateral	-9.68269
▁letter	-9.68304
▁Funds	-9.68403
ability	-9.68534
▁debates	-9.68598
▁reflect	-9.68656
▁serve	-9.68677
▁covered	-9.68782
▁mobility	-9.68799
▁carefully	-9.68806
▁minorities	-9.6883
▁anti-	-9.68908
ex	-9.68929
▁Sweden	-9.68939
▁question.	-9.68987
▁v	-9.69019
▁factor	-9.69085
▁late	-9.69242
▁society.	-9.69332
▁suffering	-9.69441
▁competence	-9.69512
▁signal	-9.69518
▁Public	-9.69559
▁vehicles	-9.6965
▁Thirdly,	-9.69677
▁Budget	-9.69699
▁substances	-9.69856
▁monitor	-9.69921
▁Nos	-9.69952
▁designed	-9.69954
▁globalisation	-9.69972
▁record	-9.7006
▁credibility	-9.70125
▁criticism	-9.70175
▁detailed	-9.70223
▁manage	-9.70242
bi	-9.70284
▁presence	-9.70324
▁proposing	-9.70353
▁Affairs,	-9.70396
▁citizens,	-9.70428
▁affect	-9.70563
▁Greek	-9.70638
▁subsidies	-9.70669
▁path	-9.70716
▁communities	-9.7084
▁inform	-9.70841
▁thereby	-9.7094
▁While	-9.71067
▁pollution	-9.71067
▁too.	-9.71198
▁detail	-9.71282
▁worth	-9.71291
▁changed	-9.71362
▁Bulgaria	-9.71437
▁House.	-9.71543
▁suggest	-9.71571
▁d	-9.71573
▁floor	-9.71613
▁budget.	-9.71712
os	-9.71775
▁Swedish	-9.71786
▁(S	-9.7192
▁Italy	-9.71923
▁circumstances	-9.71929
▁judicial	-9.71941
▁50	-9.72127
▁head	-9.72318
▁structures	-9.72345
▁naturally	-9.72396
▁month	-9.72407
▁traditional	-9.72418
▁harmonisation	-9.72423
▁spent	-9.72481
▁L	-9.72521
▁impose	-9.72531
▁series	-9.72541
▁insist	-9.72554
per	-9.72571
▁Barroso	-9.72598
N	-9.72638
▁emphasis	-9.72763
▁separate	-9.72804
▁binding	-9.72831
▁meetings	-9.72832
▁participate	-9.72851
▁Auditors	-9.7286
▁2009	-9.72897
▁arms	-9.729
▁votes	-9.72925
▁modern	-9.72982
▁consistent	-9.73036
▁supports	-9.73097
ure	-9.73203
▁firm	-9.73228
▁approval	-9.73311
▁anyone	-9.73357
▁minority	-9.73485
▁hours	-9.73495
▁consumption	-9.73533
▁agreement.	-9.73879
ably	-9.73926
▁representative	-9.73965
▁General	-9.73975
▁St	-9.7405
▁crisis,	-9.74074
▁committees	-9.74082
▁economy.	-9.74112
▁Eastern	-9.74123
▁initial	-9.74133
▁Sea	-9.74137
▁mo	-9.74147
ly.	-9.74253
▁situations	-9.7436
▁oral	-9.74361
▁expected	-9.74406
▁Be	-9.74416
▁taxation	-9.74453
▁region.	-9.74455
▁causes	-9.74471
▁directive.	-9.74509
▁transfer	-9.74547
▁reasonable	-9.7477
▁improvements	-9.74781
▁April	-9.74864
▁2005	-9.74883
▁planning	-9.75003
ni	-9.7507
▁continues	-9.75088
▁Rule	-9.75091
▁peaceful	-9.7513
▁manner	-9.75168
▁Energy	-9.75192
▁otherwise	-9.75222
▁2008	-9.75284
▁institutions.	-9.75316
▁option	-9.75387
▁obtain	-9.75398
▁then,	-9.75522
▁declaration	-9.75712
op	-9.75738
▁employees	-9.75786
▁House,	-9.75794
▁source	-9.75843
▁gain	-9.75883
▁environment.	-9.76147
▁worse	-9.76147
▁gave	-9.76155
▁limits	-9.76412
▁man	-9.76462
▁obligation	-9.76462
▁Question	-9.7658
▁solve	-9.76581
king	-9.7661
▁operate	-9.76628
pro	-9.76641
▁nations	-9.76644
▁amongst	-9.76649
▁wonder	-9.76889
▁lose	-9.76892
▁Such	-9.77015
vo	-9.77035
▁religious	-9.77062
▁collective	-9.77098
▁R	-9.77199
▁pass	-9.77225
▁Only	-9.77226
▁recovery	-9.77236
▁arrangements	-9.77236
▁entry	-9.77245
▁glad	-9.77248
▁maximum	-9.77276
and	-9.77281
▁goals	-9.77346
▁rapid	-9.77351
▁citizen	-9.77363
▁terrorist	-9.77458
▁Treaty.	-9.7747
▁relative	-9.77489
▁decisive	-9.77581
▁1998	-9.77653
▁problems.	-9.77671
▁regulatory	-9.77746
▁neither	-9.77826
-s	-9.77879
▁immigrants	-9.77897
ig	-9.7796
ard	-9.77992
pa	-9.78005
res	-9.78019
▁easier	-9.78041
▁domestic	-9.78102
▁lies	-9.78196
ning	-9.78224
▁h	-9.78237
▁acknowledge	-9.7824
▁Po	-9.78276
▁compensation	-9.78287
▁started	-9.78394
▁phase	-9.7841
▁Ro	-9.78478
▁Those	-9.78503
one	-9.78572
nd	-9.78612
▁politicians	-9.78644
▁encouraging	-9.78688
▁sent	-9.78948
▁whilst	-9.78967
▁link	-9.79068
▁factors	-9.79109
▁demonstrate	-9.79166
▁Socialist	-9.79184
▁concerned.	-9.79318
▁La	-9.79334
▁fail	-9.79417
▁generally	-9.79451
▁rail	-9.79536
▁abuse	-9.79582
▁pre	-9.79605
▁services.	-9.79606
▁Agriculture	-9.79808
▁States'	-9.79823
▁vote.	-9.79947
▁politics	-9.79994
▁Commission’s	-9.80018
▁From	-9.80027
▁Czech	-9.80122
▁Yet	-9.80346
▁Research	-9.80373
▁programme.	-9.80398
▁scale	-9.80468
▁permanent	-9.8048
▁Legal	-9.80499
▁grounds	-9.80527
▁attacks	-9.8065
▁moving	-9.80656
▁occasion	-9.80778
▁legitimate	-9.80877
▁flexible	-9.81004
▁system,	-9.8103
iv	-9.81069
▁material	-9.81131
▁delighted	-9.81162
▁banks	-9.81236
▁appears	-9.81322
▁Western	-9.8148
▁constitutional	-9.81513
▁welfare	-9.81639
▁action.	-9.81644
▁enjoy	-9.81791
▁Co	-9.81825
▁imposed	-9.81872
▁(Applause)	-9.81933
▁lay	-9.82123
▁cooperation.	-9.82149
),	-9.82149
▁Market	-9.82311
▁partner	-9.82315
▁H	-9.82427
▁equally	-9.82455
▁compliance	-9.82535
▁approve	-9.826
▁migration	-9.82761
▁construction	-9.82768
▁appropriations	-9.82871
▁restrictions	-9.82904
▁cooperate	-9.82922
▁requirement	-9.82956
▁capable	-9.8296
▁inclusion	-9.83051
ring	-9.83058
▁seven	-9.83071
▁Israeli	-9.83112
ious	-9.83175
end	-9.83236
▁contributions	-9.83237
▁languages	-9.83442
▁visa	-9.83705
▁fine	-9.83733
▁continent	-9.83754
▁forthcoming	-9.8383
▁learn	-9.84009
▁area,	-9.84081
▁freedoms	-9.84145
▁clarify	-9.84189
▁confirm	-9.84241
▁payment	-9.84245
▁Copenhagen	-9.84287
▁negotiating	-9.84287
▁experts	-9.84319
▁wide	-9.84338
▁constitution	-9.84354
▁proposes	-9.84363
▁count	-9.84379
▁Strasbourg	-9.84418
▁spending	-9.84469
ner	-9.84535
▁Stability	-9.84621
lu	-9.8463
▁strict	-9.8463
▁People'	-9.84654
▁services,	-9.84689
▁interested	-9.84713
tion	-9.84727
▁guaranteed	-9.84742
▁NATO	-9.84746
ud	-9.84747
▁vision	-9.84844
▁issue,	-9.84857
▁sexual	-9.84954
▁tobacco	-9.85042
▁Afghanistan	-9.85108
▁Netherlands	-9.85108
▁today's	-9.85128
▁conflicts	-9.85132
▁crimes	-9.8514
▁safeguard	-9.85215
way	-9.85233
▁(PT)	-9.8524
▁numerous	-9.8524
▁evening	-9.85272
▁po	-9.85282
▁personally	-9.85405
sion	-9.8546
▁placed	-9.85466
ical	-9.8547
ac	-9.85596
▁truth	-9.85704
▁helping	-9.85717
▁Consumer	-9.85803
▁resolved	-9.85863
▁Mo	-9.85898
▁operations	-9.85946
▁fighting	-9.85995
▁peoples	-9.86005
▁allowing	-9.86012
▁labelling	-9.86041
▁Luxembourg	-9.86136
ns	-9.86206
▁comp	-9.86244
▁fulfil	-9.86265
▁mass	-9.86404
▁customs	-9.86567
▁ACP	-9.86604
▁trading	-9.86604
03	-9.86667
po	-9.867
▁Action	-9.86731
▁existence	-9.86748
▁realise	-9.86781
▁suffer	-9.86812
▁pension	-9.86861
▁examine	-9.86937
▁base	-9.87084
▁likely	-9.87125
▁defined	-9.87137
▁effectiveness	-9.87218
▁voluntary	-9.87242
▁diseases	-9.8725
sa	-9.87312
▁distribution	-9.87343
▁technological	-9.87377
▁work,	-9.87505
U	-9.87526
▁Agenda	-9.87546
ding	-9.8761
▁continued	-9.87623
▁ultimately	-9.87698
▁1997	-9.87721
▁investments	-9.87724
▁scheme	-9.87737
▁Croatia	-9.87782
▁demonstrated	-9.87841
▁mission	-9.87952
▁support.	-9.87991
▁New	-9.88163
▁strategies	-9.8819
▁centre	-9.88194
▁functioning	-9.88216
▁associated	-9.88414
▁assure	-9.88446
▁tasks	-9.88457
▁II	-9.8847
▁Head	-9.88483
▁via	-9.88497
▁Another	-9.88531
▁remarks	-9.88653
▁ECU	-9.88671
ization	-9.88672
▁People	-9.88695
▁process,	-9.88709
▁Balkans	-9.88762
▁written	-9.88772
um	-9.8883
▁opinions	-9.88844
▁According	-9.88928
▁Vice-President	-9.88941
▁space	-9.89078
men	-9.89132
ba	-9.89182
▁overcome	-9.8925
▁universal	-9.8925
hi	-9.89294
▁Baltic	-9.89319
▁Framework	-9.89319
▁maritime	-9.89319
▁Mar	-9.89421
▁average	-9.89595
▁honour	-9.89641
▁tried	-9.89897
▁purposes	-9.89927
▁Lastly	-9.90024
▁invest	-9.90058
▁condemn	-9.90067
mi	-9.90126
▁revision	-9.90148
▁exists	-9.902
▁normal	-9.9023
▁claim	-9.9025
▁operators	-9.90263
▁Austria	-9.9027
▁policies.	-9.90297
▁involves	-9.90341
▁India	-9.9035
▁Ombudsman	-9.90356
▁wine	-9.90401
▁industry.	-9.90423
▁occasions	-9.90432
▁disasters	-9.90448
0	-9.90503
▁High	-9.90568
▁contained	-9.9059
▁Not	-9.90636
▁protected	-9.90767
▁USA	-9.90769
▁entitled	-9.90774
▁appreciate	-9.90791
▁Portuguese	-9.90844
▁Le	-9.90921
▁fuel	-9.90991
▁ethnic	-9.91054
▁proportion	-9.91075
▁awareness	-9.91083
▁primarily	-9.91124
▁succeed	-9.912
ak	-9.91217
ight	-9.91235
▁di	-9.91258
▁import	-9.91293
▁concluded	-9.91396
▁Budgets	-9.91406
▁corruption	-9.91443
ual	-9.91444
che	-9.91449
▁justified	-9.9156
▁difference	-9.916
▁brief	-9.91623
▁define	-9.91691
▁contact	-9.91736
▁substance	-9.91774
▁millions	-9.9181
▁Commissioners	-9.91879
▁feed	-9.91885
ub	-9.91898
▁so.	-9.91936
▁electronic	-9.9211
▁officials	-9.92122
▁test	-9.92143
si	-9.92145
▁development,	-9.92149
▁dignity	-9.92216
ative	-9.92246
▁prove	-9.92293
▁pro	-9.92333
▁statistics	-9.92856
▁Treaty,	-9.93102
▁Despite	-9.93213
▁prepare	-9.93318
▁Treaties	-9.9332
▁passed	-9.93393
▁clause	-9.9351
▁Chinese	-9.93535
▁rich	-9.93607
▁Dutch	-9.93715
▁allocated	-9.93716
▁court	-9.93802
▁played	-9.93887
▁penalty	-9.93897
▁extended	-9.93902
▁Organisation	-9.93931
▁pursue	-9.94009
▁formal	-9.94014
ten	-9.94035
▁violations	-9.94094
▁Al	-9.94132
▁individuals	-9.94132
▁amounts	-9.94141
▁firmly	-9.94325
▁temporary	-9.94328
ions	-9.94368
▁impression	-9.94436
▁democracy.	-9.94471
▁loss	-9.94477
ng	-9.9452
▁nevertheless	-9.94545
▁w	-9.94711
▁February	-9.94799
▁emergency	-9.94799
be	-9.94827
▁examples	-9.94848
▁whatever	-9.94896
▁(IT)	-9.95017
▁closed	-9.95095
▁treated	-9.95142
▁context,	-9.95147
▁Given	-9.95163
▁itself.	-9.95316
gu	-9.9544
▁Financial	-9.95456
▁obstacles	-9.95458
-up	-9.95503
▁100	-9.95515
▁got	-9.95564
▁code	-9.95565
▁Georgia	-9.95603
▁spoke	-9.95624
▁vulnerable	-9.95639
▁unless	-9.95685
▁farming	-9.95743
▁CAP	-9.95749
▁te	-9.9576
▁Perhaps	-9.95785
▁ministers	-9.95842
▁planned	-9.95872
▁please	-9.95917
▁imports	-9.95925
▁industries	-9.96153
▁place.	-9.96175
▁passengers	-9.96254
▁sub	-9.96255
▁Can	-9.9648
▁latter	-9.96488
▁excessive	-9.96522
▁extension	-9.96633
▁recall	-9.96633
▁measures.	-9.96667
▁Assembly	-9.96707
▁processes	-9.96818
▁holding	-9.96819
▁requested	-9.96888
▁taxes	-9.96964
▁somewhat	-9.96967
▁Here	-9.97234
▁moral	-9.97306
▁offers	-9.97394
▁realistic	-9.97394
▁citizens'	-9.97615
▁agency	-9.97675
▁gone	-9.97683
▁preparing	-9.97712
▁change.	-9.97969
▁compared	-9.97978
▁1996	-9.98097
ping	-9.98105
▁allows	-9.98275
▁exclusion	-9.98275
▁property	-9.98448
▁secondly	-9.98628
▁highest	-9.98671
▁check	-9.98675
▁Fundamental	-9.98728
▁undoubtedly	-9.98803
▁happens	-9.98806
▁wait	-9.98806
▁Prodi	-9.98922
▁g	-9.99009
▁resources.	-9.99083
▁insurance	-9.99107
▁constantly	-9.9912
▁spoken	-9.9916
▁unfair	-9.99182
ward	-9.99226
▁works	-9.99249
▁advance	-9.99261
▁preventing	-9.99283
▁behaviour	-9.99296
mon	-9.99301
ice	-9.99378
▁operational	-9.99387
ber	-9.9945
▁considering	-9.99581
▁Transport	-9.99602
▁Hungarian	-9.99639
gen	-9.99694
▁extra	-9.99757
der	-9.99778
ification	-9.99807
▁urgently	-9.99841
▁NGOs	-9.99919
▁drawing	-9.99924
▁21	-9.99925
▁version	-9.99999
▁pillar	-10.0002
▁fishermen	-10.0002
▁hands	-10.0016
▁Because	-10.0021
▁expectations	-10.003
▁latest	-10.004
▁now.	-10.004
▁assist	-10.0043
▁paper	-10.0045
▁fiscal	-10.0048
nt	-10.0049
▁duties	-10.0064
▁stronger	-10.0064
que	-10.0067
▁protest	-10.0071
▁relates	-10.0073
▁codecision	-10.0075
▁important.	-10.0079
▁Pa	-10.0085
▁function	-10.0089
▁introducing	-10.0094
▁applying	-10.0096
▁details	-10.0102
▁precise	-10.011
▁knows	-10.0116
▁Alliance	-10.0118
▁association	-10.0119
▁studies	-10.0122
▁courage	-10.0125
▁ratification	-10.0129
▁determined	-10.013
▁resolution.	-10.0132
▁historic	-10.0135
▁resolution,	-10.0141
▁described	-10.0145
▁regular	-10.0151
▁quotas	-10.0151
▁announced	-10.0152
▁sensible	-10.0164
ates	-10.0165
▁prosperity	-10.0168
▁keeping	-10.0184
▁products.	-10.0191
▁proceedings	-10.0196
▁choose	-10.0203
▁Report	-10.0204
▁supervision	-10.0207
▁tool	-10.0209
▁react	-10.0217
▁Asia	-10.0232
▁near	-10.0245
▁multilateral	-10.0258
▁contain	-10.0259
▁patent	-10.0262
▁operating	-10.027
ap	-10.0275
ists	-10.0289
our	-10.0292
▁deliver	-10.0294
▁top	-10.0295
▁ch	-10.0303
▁exploitation	-10.0319
▁confirmed	-10.0319
▁arguments	-10.033
▁welcomed	-10.0332
▁Dur	-10.034
▁procedure.	-10.0343
▁convergence	-10.0345
▁represented	-10.0346
▁strengthened	-10.0352
▁barriers	-10.0352
▁self-	-10.0358
▁stocks	-10.0361
▁Fisheries	-10.0365
▁coordinated	-10.0367
▁assume	-10.037
▁conciliation	-10.0373
▁40	-10.0376
▁la	-10.038
▁urgency	-10.0381
▁types	-10.0386
▁submit	-10.0387
▁kept	-10.0401
▁minutes	-10.0427
V	-10.043
tri	-10.0438
▁CO2	-10.044
▁timetable	-10.0441
▁double	-10.0457
▁briefly	-10.0464
terinstitutional	-10.0465
▁intends	-10.0465
▁maintaining	-10.0467
▁case.	-10.0476
▁debating	-10.0477
▁uniform	-10.0477
▁interpretation	-10.0481
▁largest	-10.0489
▁front	-10.0498
▁constitute	-10.0501
▁24	-10.0503
▁Then	-10.0506
▁Ca	-10.0508
line	-10.0513
▁nation	-10.0517
▁23	-10.0521
▁sovereignty	-10.0525
▁White	-10.0529
▁largely	-10.0529
sp	-10.0531
ie	-10.0532
01	-10.0534
▁coherent	-10.0549
▁innovative	-10.0549
▁equipment	-10.055
▁published	-10.0553
▁leadership	-10.0562
▁condition	-10.0571
▁More	-10.0573
▁Group,	-10.0584
▁Protection	-10.0586
▁N	-10.0592
ou	-10.0598
▁plant	-10.06
▁assess	-10.0603
▁transition	-10.0614
▁electricity	-10.0614
▁van	-10.0627
▁ongoing	-10.0635
▁port	-10.0636
▁finding	-10.0641
▁clean	-10.0646
▁conclusion,	-10.0656
▁Instead	-10.0663
▁ra	-10.0672
ov	-10.0674
▁Employment	-10.0679
▁dependent	-10.0686
▁Nor	-10.0689
▁undertaken	-10.0691
▁direction.	-10.0706
▁U	-10.071
▁materials	-10.0724
▁room	-10.0729
▁done.	-10.0735
▁perfectly	-10.0735
▁Constitutional	-10.0751
▁identity	-10.0753
▁united	-10.0754
ster	-10.0764
▁significantly	-10.077
▁Con	-10.0772
▁offered	-10.0775
▁restructuring	-10.0778
▁school	-10.078
▁Or	-10.0783
▁regions.	-10.0785
▁argument	-10.0789
▁contracts	-10.0791
▁felt	-10.0795
▁careful	-10.0805
▁amending	-10.0809
▁shadow	-10.0815
▁learning	-10.0816
▁Serbia	-10.0817
▁enhance	-10.0825
▁2006	-10.0826
▁Pakistan	-10.0828
ab	-10.0848
▁absence	-10.0849
▁22	-10.0853
▁accounts	-10.0873
▁Under	-10.0874
▁concentrate	-10.088
▁determination	-10.0882
▁politically	-10.0888
▁mis	-10.0888
ow	-10.0889
▁valuable	-10.0891
▁understood	-10.0895
▁territorial	-10.0903
▁Europeans	-10.0906
▁patients	-10.0913
▁EC	-10.0914
▁stable	-10.0914
▁en	-10.0915
▁endeavour	-10.092
▁parliament	-10.0924
▁(NL)	-10.0924
▁again.	-10.0933
▁piece	-10.0938
▁waiting	-10.0945
▁genuinely	-10.0947
red	-10.0947
▁rapporteur.	-10.0958
▁wealth	-10.0962
son	-10.0966
▁changing	-10.0983
▁situation,	-10.0994
▁brings	-10.1001
▁listen	-10.1005
ph	-10.1006
▁proved	-10.1008
▁medical	-10.1008
▁qualified	-10.1017
▁fields	-10.1023
-based	-10.1024
▁adapt	-10.1025
▁Commission'	-10.1031
▁actively	-10.105
▁heading	-10.1068
▁cars	-10.1072
▁difficulty	-10.1074
▁accidents	-10.1079
▁figure	-10.1088
▁release	-10.1091
mit	-10.1099
▁jobs.	-10.1102
▁legally	-10.1111
▁ago.	-10.1125
▁re-	-10.1126
W	-10.1129
▁contract	-10.1129
ship	-10.1135
▁significance	-10.1136
▁highlighted	-10.1147
▁supposed	-10.1147
▁deficit	-10.1147
▁point.	-10.1151
▁break	-10.1157
▁amended	-10.1158
ff	-10.1168
▁disposal	-10.1188
▁tragic	-10.1188
mb	-10.12
',	-10.1203
cing	-10.1207
▁vessels	-10.1209
▁protection.	-10.1212
▁extensive	-10.1214
fe	-10.1214
▁employment.	-10.1216
▁speaker	-10.1218
▁(A5-	-10.1218
▁answers	-10.1223
▁VAT	-10.1235
▁negotiation	-10.1238
▁sport	-10.1245
▁stock	-10.1248
▁inadequate	-10.1248
▁applicant	-10.1253
▁Sa	-10.1261
ran	-10.1266
▁Protocol	-10.127
▁Control	-10.1279
▁satisfactory	-10.1279
▁neighbours	-10.1284
▁referring	-10.1284
und	-10.1313
▁Cooperation	-10.1314
▁Representative	-10.1314
▁driving	-10.1314
▁Last	-10.1333
▁Austrian	-10.1346
▁Bo	-10.135
▁settlement	-10.1357
▁primary	-10.1362
ized	-10.1367
▁sustainability	-10.1371
▁Parliament’s	-10.1372
▁Thursday	-10.1379
▁remove	-10.1381
▁J	-10.1384
ect	-10.139
▁apart	-10.1397
▁preparation	-10.1405
▁West	-10.1407
fin	-10.1408
▁destruction	-10.141
▁Internal	-10.1414
▁eight	-10.1416
▁negotiations.	-10.142
cl	-10.1422
▁boost	-10.1423
▁absolute	-10.1426
unt	-10.1431
▁position.	-10.1431
▁Food	-10.1432
▁size	-10.1435
ntergovernmental	-10.1435
▁milk	-10.1437
▁Latin	-10.1437
▁Finland	-10.1441
▁Bosnia	-10.1446
▁drug	-10.1446
European	-10.1452
▁region,	-10.1456
▁Once	-10.1461
su	-10.1469
▁daily	-10.1472
H	-10.1479
bo	-10.148
▁one.	-10.1481
ments	-10.1489
▁Before	-10.149
▁identify	-10.149
▁grant	-10.1494
▁places	-10.1501
▁fruit	-10.1502
▁resulting	-10.1517
96	-10.152
▁Time	-10.1521
over	-10.1525
od	-10.1531
▁saw	-10.1541
▁suggested	-10.1541
▁dispute	-10.1543
▁television	-10.1543
▁stay	-10.1544
▁le	-10.1545
▁Where	-10.1548
▁stake	-10.1554
▁religion	-10.1561
▁someone	-10.1566
▁Ba	-10.1569
fi	-10.1575
▁neighbouring	-10.1577
▁determine	-10.1587
ven	-10.1592
▁protocol	-10.1597
▁built	-10.1602
▁seeing	-10.1602
▁Rights,	-10.1605
▁century	-10.1607
▁leads	-10.1618
tro	-10.162
▁Northern	-10.162
ory	-10.1624
▁investigation	-10.1632
▁retain	-10.1633
▁satisfied	-10.1633
▁meat	-10.1634
▁Procedure	-10.1641
▁ma	-10.1641
▁medicines	-10.1647
▁exports	-10.1662
▁dynamic	-10.1674
ell	-10.1676
▁historical	-10.1681
▁prior	-10.1689
▁urban	-10.1692
▁depend	-10.1694
▁Britain	-10.1696
▁users	-10.1696
▁Common	-10.1697
ite	-10.1699
▁playing	-10.1703
▁legislation,	-10.1704
▁wider	-10.1708
▁elsewhere	-10.1719
▁zone	-10.1727
▁1.	-10.1728
▁team	-10.1743
▁life.	-10.1748
ger	-10.1751
▁geographical	-10.1751
▁GDP	-10.1751
▁speeches	-10.1751
▁agenda.	-10.1753
▁security.	-10.1756
▁spread	-10.1766
▁addressing	-10.1767
▁p.m.	-10.1768
▁Safety	-10.1769
ile	-10.1771
oc	-10.1773
io	-10.1781
▁approach.	-10.1781
▁opposite	-10.1783
▁undermine	-10.1788
▁sales	-10.179
▁friends	-10.1793
ction	-10.1808
▁accident	-10.1813
▁indicated	-10.1813
▁Are	-10.1815
▁problem,	-10.1817
▁sufficiently	-10.1844
▁possibly	-10.1847
▁Regional	-10.1848
▁reaction	-10.185
ler	-10.1853
▁treat	-10.1853
▁massive	-10.1854
▁meant	-10.1856
▁obliged	-10.1856
▁External	-10.1856
▁previously	-10.1862
▁Without	-10.1862
▁Ra	-10.1863
▁maintained	-10.1875
▁greatly	-10.1879
▁transitional	-10.1891
▁strength	-10.1892
▁background	-10.1893
▁bank	-10.1894
ton	-10.1897
▁plants	-10.1899
▁bit	-10.1904
▁trial	-10.1905
▁Consequently,	-10.1915
▁identified	-10.1921
mer	-10.1922
au	-10.1931
ize	-10.1936
▁moreover	-10.1941
▁ones	-10.1943
▁topic	-10.1953
ations	-10.197
▁oppose	-10.1972
▁becomes	-10.1973
▁noted	-10.198
ms	-10.1983
▁500	-10.1984
▁forward.	-10.1985
05	-10.1989
▁1995	-10.1996
▁running	-10.1997
▁prisoners	-10.1999
▁compulsory	-10.2
▁aviation	-10.2
▁competent	-10.2001
▁requests	-10.2001
▁Thus	-10.2005
▁arrest	-10.2009
▁links	-10.2019
▁considers	-10.2019
ier	-10.203
j	-10.203
▁secret	-10.2038
▁Europol	-10.2043
▁prospect	-10.2049
▁possibilities	-10.2052
cy	-10.2054
▁Liberal	-10.2055
▁generation	-10.2055
▁couple	-10.2055
▁enforcement	-10.2058
▁himself	-10.2061
▁hearing	-10.2067
▁suffered	-10.2071
▁Kyoto	-10.2075
▁post	-10.208
▁afternoon	-10.208
▁chosen	-10.2082
▁spend	-10.2082
▁societies	-10.2085
▁programmes.	-10.2087
▁gr	-10.209
▁options	-10.2094
▁BSE	-10.2094
▁Belgian	-10.2094
▁launched	-10.2095
▁stands	-10.2099
▁affects	-10.2102
▁willing	-10.2119
▁intervene	-10.2128
▁reconstruction	-10.2128
▁diplomatic	-10.2132
▁partly	-10.2133
▁thanking	-10.2133
up	-10.2135
▁deserves	-10.2149
▁attempts	-10.2154
▁Having	-10.2156
tor	-10.2161
▁intellectual	-10.2165
▁strategy.	-10.2166
▁implications	-10.217
▁species	-10.217
▁imagine	-10.2175
▁completed	-10.2178
▁sum	-10.2179
▁conducted	-10.2183
▁chairman	-10.2185
▁successfully	-10.2186
▁afford	-10.2187
▁Christian	-10.2188
pt	-10.2191
▁proof	-10.2194
▁carrying	-10.2203
▁Li	-10.2214
▁believes	-10.2215
▁gap	-10.2227
▁women.	-10.2244
▁went	-10.2255
▁complicated	-10.2263
▁National	-10.2266
▁belief	-10.227
▁Nice	-10.2272
▁extreme	-10.2294
▁rules.	-10.2295
▁meaning	-10.2299
▁spite	-10.2299
▁Will	-10.2303
▁helped	-10.2304
▁sorry	-10.2304
▁slow	-10.2305
▁representation	-10.2313
▁poorest	-10.2314
▁guaranteeing	-10.2318
ator	-10.2319
▁markets.	-10.2322
▁facilities	-10.2328
▁Fa	-10.2334
▁PPE-DE	-10.2338
▁skills	-10.234
▁Danish	-10.2348
we	-10.235
▁ratified	-10.2352
▁tragedy	-10.2352
▁mistake	-10.2355
▁Hungary	-10.2357
▁replace	-10.2359
▁definitely	-10.2361
fer	-10.2364
▁occur	-10.2366
▁surely	-10.2374
▁debated	-10.2377
▁seeks	-10.2381
▁ports	-10.2382
▁Plan	-10.2392
▁waters	-10.2396
▁ca	-10.2399
for	-10.24
▁admit	-10.2405
ec	-10.241
▁whereby	-10.241
les	-10.2411
rate	-10.2413
▁southern	-10.2416
▁issued	-10.2424
▁worldwide	-10.2425
▁fit	-10.2426
int	-10.2427
▁schemes	-10.2427
▁openness	-10.2429
▁heavy	-10.243
▁2010	-10.245
▁authorities.	-10.2461
▁constant	-10.2468
▁liberal	-10.2472
▁sugar	-10.2479
▁exception	-10.2486
▁Union’s	-10.2488
▁sets	-10.2492
da	-10.2496
▁Subject	-10.2499
▁etc.	-10.2499
▁Democrats)	-10.2505
▁prospects	-10.2507
▁respected	-10.2509
▁audit	-10.2514
▁withdraw	-10.2518
▁green	-10.2518
▁division	-10.2519
▁(Christian	-10.2519
mm	-10.2521
▁proposals.	-10.2529
▁aid.	-10.2533
▁purely	-10.2536
▁advertising	-10.2543
▁cities	-10.2546
▁murder	-10.2561
▁basis.	-10.2561
▁Barcelona	-10.2563
▁part-session	-10.2568
▁harm	-10.2572
▁terrorism.	-10.2577
▁reiterate	-10.2577
▁Mi	-10.258
ay	-10.2581
’.	-10.2587
▁Ex	-10.2587
▁save	-10.2601
▁out.	-10.2604
▁solely	-10.2608
▁Home	-10.2611
▁quote	-10.2613
▁warning	-10.2614
ants	-10.2622
▁points.	-10.2622
▁Partnership	-10.2627
▁deserve	-10.263
▁harmful	-10.2633
port	-10.2634
▁register	-10.264
▁Belgium	-10.2642
▁whole.	-10.2645
▁prefer	-10.265
▁cooperation,	-10.2651
▁Polish	-10.2652
▁sphere	-10.2657
▁unanimously	-10.2661
▁worst	-10.2667
ert	-10.2672
▁blood	-10.2672
ga	-10.268
▁freedom,	-10.2682
▁centres	-10.2683
▁worrying	-10.2686
▁day,	-10.269
▁producing	-10.2705
▁profit	-10.2707
▁easily	-10.2707
▁foremost	-10.2707
▁intentions	-10.2709
▁bi	-10.2711
(	-10.2716
▁ha	-10.2722
▁...	-10.2723
▁phenomenon	-10.2728
▁tools	-10.2732
▁governing	-10.274
▁Korea	-10.2745
▁players	-10.2749
▁Ha	-10.2752
du	-10.2752
▁demanding	-10.2755
▁ideal	-10.2756
▁enabling	-10.2763
▁recommend	-10.2763
▁budgets	-10.2769
▁standards.	-10.2774
▁Does	-10.2776
▁hundreds	-10.2777
▁Japan	-10.2778
▁objectives.	-10.2784
▁Socialists	-10.2784
▁opened	-10.2796
▁stressed	-10.2801
▁achievement	-10.2803
av	-10.2806
▁extending	-10.281
▁hit	-10.2817
▁heritage	-10.2819
▁healthy	-10.282
▁together.	-10.2826
▁essentially	-10.2828
ens	-10.2837
tergovernmental	-10.2841
▁allocation	-10.2844
ble	-10.2846
▁acting	-10.2858
▁Policy,	-10.286
▁correctly	-10.2867
▁Both	-10.2867
▁proud	-10.287
▁thorough	-10.2874
▁profits	-10.2877
▁bound	-10.2885
▁systems.	-10.2886
▁depends	-10.2887
▁Growth	-10.289
▁li	-10.2893
▁rapidly	-10.2903
▁31	-10.2909
▁advice	-10.2915
▁amendments.	-10.2918
▁resources,	-10.292
▁crises	-10.2921
▁powerful	-10.2922
▁(ES)	-10.2926
tal	-10.2929
▁house	-10.2929
▁considerably	-10.293
lic	-10.2933
▁Left	-10.2941
▁26	-10.2951
cent	-10.2954
▁launch	-10.2956
▁clarity	-10.2967
▁savings	-10.297
ible	-10.2973
▁claims	-10.2979
▁schools	-10.298
▁prison	-10.2985
▁faith	-10.2987
▁picture	-10.2987
▁shape	-10.2993
lin	-10.2997
▁refuse	-10.2998
▁pensions	-10.3009
▁performance	-10.3009
▁feeling	-10.301
▁advantages	-10.3012
▁reliable	-10.3013
ging	-10.3013
▁rational	-10.3013
á	-10.3024
▁core	-10.3027
▁Pro	-10.303
▁willingness	-10.3031
▁promised	-10.3036
V)	-10.3037
ified	-10.3038
▁revenue	-10.306
▁environmentally	-10.3064
▁perform	-10.3065
▁facts	-10.3067
▁charges	-10.3069
▁Cuba	-10.3069
▁2.	-10.3081
▁experienced	-10.3085
▁decades	-10.3086
▁deals	-10.3088
▁remaining	-10.3091
▁others.	-10.3097
▁solution.	-10.3098
▁granting	-10.3101
set	-10.3105
▁alcohol	-10.3107
▁manufacturers	-10.3113
▁ignore	-10.3114
▁focused	-10.3119
▁threats	-10.312
▁arise	-10.3121
▁bureaucracy	-10.3133
▁favourable	-10.3141
▁reinforce	-10.3142
all	-10.3144
▁regrettable	-10.3149
▁suitable	-10.315
▁tomorrow.	-10.3154
▁physical	-10.3159
▁passenger	-10.3161
▁competition.	-10.3165
▁deep	-10.3165
▁refers	-10.3177
▁encouraged	-10.318
▁numbers	-10.3182
▁engage	-10.3183
ka	-10.319
▁practice.	-10.3196
▁ECB	-10.3197
▁den	-10.3202
▁paying	-10.3203
the	-10.3204
▁mark	-10.3207
▁declared	-10.3209
▁considerations	-10.3212
▁example.	-10.3215
▁Vi	-10.323
▁products,	-10.3231
vis	-10.3233
▁applicable	-10.3244
▁na	-10.3246
▁texts	-10.3249
▁carbon	-10.3249
▁weight	-10.3252
▁cuts	-10.3252
▁enlargement.	-10.3255
▁contributed	-10.3259
▁State.	-10.3263
▁doubts	-10.3264
▁modified	-10.3265
▁certainty	-10.3265
04	-10.3266
bu	-10.327
▁article	-10.3271
▁emphasised	-10.3274
▁entered	-10.3274
-related	-10.3275
▁reflected	-10.3278
▁convention	-10.3282
▁legitimacy	-10.3291
▁enough.	-10.3294
▁months.	-10.3296
rea	-10.3307
▁wording	-10.3313
▁Just	-10.3313
▁Macedonia	-10.3318
▁ecological	-10.3329
side	-10.3332
▁biggest	-10.3334
▁unnecessary	-10.3334
▁succeeded	-10.3338
▁Car	-10.3339
▁justify	-10.3349
▁violation	-10.3353
▁themselves.	-10.3358
▁conditions.	-10.3359
▁i.e.	-10.3366
▁affecting	-10.3383
▁Commissioner.	-10.3386
▁28	-10.3387
▁eastern	-10.3398
▁undertakings	-10.3404
▁Act	-10.3405
▁k	-10.3409
▁2011	-10.3415
▁Arab	-10.3424
▁regulation.	-10.3429
▁increases	-10.344
▁evident	-10.3441
▁island	-10.3441
▁She	-10.345
▁Denmark	-10.3452
act	-10.3453
▁rapporteur's	-10.3454
hor	-10.3461
▁Russia,	-10.3464
▁summer	-10.3477
▁negotiated	-10.3479
▁commit	-10.348
▁health.	-10.3487
▁radical	-10.3487
▁whereas	-10.3488
▁restore	-10.3496
▁vast	-10.3498
ient	-10.3499
▁beef	-10.3499
▁constitutes	-10.3512
▁Over	-10.352
ever	-10.3521
qui	-10.3529
▁simplification	-10.3534
ack	-10.3534
▁consequence	-10.3535
▁20%	-10.3536
▁permit	-10.3537
▁removed	-10.3548
▁terrorism,	-10.3553
▁block	-10.3554
▁necessary.	-10.3556
▁leader	-10.3556
▁buy	-10.3562
▁card	-10.3566
▁reservations	-10.3572
▁quota	-10.3575
▁utmost	-10.3583
▁torture	-10.3594
▁reaching	-10.3594
▁offering	-10.3597
▁threshold	-10.3599
▁lo	-10.3604
ain	-10.3605
▁image	-10.3605
▁competences	-10.3608
▁healthcare	-10.361
▁greenhouse	-10.361
▁presenting	-10.3611
lar	-10.3611
right	-10.3612
▁Slovakia	-10.3617
▁regulate	-10.362
▁sake	-10.3621
ron	-10.3622
▁deeply	-10.3622
▁Van	-10.3623
par	-10.3631
▁sought	-10.3631
▁explanation	-10.3631
▁Culture	-10.3632
▁trans	-10.3635
▁science	-10.3638
▁Parliamentary	-10.3645
▁eye	-10.3648
▁ruling	-10.3654
▁supplementary	-10.3655
▁Authority	-10.366
▁afraid	-10.366
ries	-10.3661
▁insufficient	-10.3663
▁incorporated	-10.3667
▁Rur	-10.3671
▁Civil	-10.3676
ned	-10.3677
▁ships	-10.3679
▁things,	-10.3687
▁29	-10.3691
▁regarded	-10.3704
▁Any	-10.3708
▁conviction	-10.3715
▁fast	-10.3718
▁cancer	-10.3719
▁chain	-10.3727
▁negotiate	-10.3727
▁train	-10.3734
▁Maastricht	-10.3737
▁200	-10.3738
▁citizenship	-10.374
▁country's	-10.3742
▁communications	-10.3743
▁everybody	-10.3749
▁airlines	-10.3755
pi	-10.376
▁Ar	-10.3769
ide	-10.377
▁respective	-10.3776
▁children.	-10.3778
▁ill	-10.3796
▁battle	-10.3799
▁watch	-10.3799
▁Da	-10.38
▁Joint	-10.3816
▁fairly	-10.3818
▁information.	-10.3833
▁net	-10.3836
▁eliminate	-10.3836
▁Second	-10.3842
ris	-10.3843
▁consumers.	-10.3844
▁charge	-10.3846
▁groups,	-10.3847
▁women's	-10.3855
▁obtained	-10.3857
▁weak	-10.386
▁authorities,	-10.3863
▁forum	-10.3868
▁courts	-10.3875
▁wage	-10.3876
▁racism	-10.3877
▁targeted	-10.3883
▁transport,	-10.3883
▁blame	-10.3889
▁leaving	-10.3894
▁firms	-10.3897
▁raising	-10.3901
▁smaller	-10.3904
▁Follow	-10.3906
▁Berlin	-10.3906
▁(RO)	-10.3911
▁(Parliament	-10.3917
▁red	-10.3918
▁responsibility.	-10.3919
▁preserve	-10.3927
▁ethical	-10.3934
▁excluded	-10.3935
▁object	-10.3936
▁clarification	-10.3945
▁shift	-10.3945
▁struggle	-10.3968
▁EU’s	-10.3968
▁incentives	-10.3974
▁(EL)	-10.3974
▁inflation	-10.3974
▁interests.	-10.399
ev	-10.3998
▁Association	-10.4002
▁unique	-10.4003
▁aside	-10.4003
lan	-10.4004
tu	-10.4005
▁fire	-10.4008
▁involved.	-10.4014
▁ordinary	-10.402
▁fleet	-10.402
▁abandon	-10.402
▁treaties	-10.4026
▁flag	-10.4031
ath	-10.4044
▁Tourism	-10.4054
▁assurance	-10.4054
▁electoral	-10.406
▁employers	-10.4067
▁60	-10.4075
ped	-10.4087
▁credible	-10.4094
▁tests	-10.41
▁Europe’s	-10.4101
▁Industry	-10.4106
▁disabled	-10.4106
▁Se	-10.4115
▁necessarily	-10.4117
▁Yugoslavia	-10.4118
▁armed	-10.412
▁revised	-10.4124
▁showing	-10.4146
ach	-10.4146
▁familiar	-10.4146
▁combined	-10.415
▁medium	-10.4152
▁terrible	-10.4158
▁bureaucratic	-10.4158
▁pact	-10.4159
work	-10.4166
▁amend	-10.4167
▁jointly	-10.4168
▁outstanding	-10.4175
▁o	-10.4178
▁Zimbabwe	-10.4181
▁pleasure	-10.4187
ct	-10.4188
▁declarations	-10.4191
▁surprised	-10.4191
▁shortcomings	-10.4199
▁suggestions	-10.4199
▁yes	-10.4204
ers.	-10.4213
▁tonnes	-10.4222
▁eyes	-10.4229
▁applications	-10.4245
▁n	-10.4258
▁trend	-10.4259
▁declare	-10.426
▁Di	-10.4261
if	-10.4271
▁exceptional	-10.4275
▁examined	-10.4281
ld	-10.4281
▁repeatedly	-10.4286
▁complaints	-10.4298
▁grow	-10.4308
▁reflects	-10.4308
▁a.m.	-10.431
▁world's	-10.4318
▁Well	-10.4321
▁agreements.	-10.4321
▁valid	-10.4324
▁sad	-10.4325
▁undertake	-10.4331
▁Russia.	-10.4331
▁exploit	-10.4339
▁nearly	-10.4343
▁Bureau	-10.4345
▁underline	-10.4346
lt	-10.4349
▁poll	-10.435
gra	-10.4358
eg	-10.4377
▁authorisation	-10.4382
▁opt	-10.4387
▁attend	-10.439
▁hopes	-10.4394
▁drafting	-10.4399
▁stance	-10.4401
▁transport.	-10.4416
▁Presidency.	-10.4417
▁expressing	-10.4421
▁foundations	-10.4422
▁broader	-10.4423
▁term.	-10.4426
▁honest	-10.4434
▁funds.	-10.4437
▁digital	-10.4446
▁unemployed	-10.4446
▁creates	-10.4452
▁progress.	-10.4452
ration	-10.4453
part	-10.4456
▁suspended	-10.446
▁foster	-10.4464
▁Therefore	-10.4476
ition	-10.4477
tre	-10.4478
▁educational	-10.4479
▁presentation	-10.4485
▁belong	-10.4485
▁transactions	-10.449
▁bearing	-10.4493
▁deadline	-10.4498
▁turned	-10.4501
lecommunications	-10.4502
▁biodiversity	-10.4506
▁marketing	-10.4507
▁widespread	-10.4512
▁ambition	-10.4518
▁percentage	-10.4518
▁pl	-10.452
▁success.	-10.4521
▁news	-10.4523
▁fresh	-10.4536
▁intensive	-10.4536
▁satisfaction	-10.4536
▁hardly	-10.4537
▁borders.	-10.4541
▁economically	-10.4548
pos	-10.4555
▁par	-10.4565
qua	-10.4565
▁students	-10.4571
▁ratify	-10.4572
▁preparations	-10.458
▁invite	-10.4588
▁organise	-10.4589
▁PSE	-10.4591
▁Me	-10.4594
▁below	-10.4598
-in	-10.4599
▁Burma	-10.4603
▁expense	-10.4606
▁fewer	-10.4607
▁relate	-10.4611
▁fourth	-10.4613
▁Moldova	-10.4615
▁committee.	-10.4619
▁War	-10.4621
▁beings	-10.4624
▁liability	-10.4628
▁warmly	-10.4631
▁penalties	-10.4639
▁restrict	-10.4645
▁disagree	-10.4655
ue	-10.4657
▁Free	-10.4658
▁none	-10.4658
20	-10.4661
▁matters.	-10.4666
▁tough	-10.4667
▁unity	-10.4681
▁tackling	-10.4682
▁groups.	-10.4683
▁buildings	-10.4683
▁resulted	-10.4689
▁checks	-10.469
▁Br	-10.4697
▁coordinate	-10.4697
▁repeated	-10.4706
▁night	-10.4707
▁minute	-10.4709
▁abolition	-10.4719
▁civilian	-10.4722
▁demonstrates	-10.4724
▁unfortunate	-10.4725
▁safety.	-10.4726
▁airports	-10.4727
▁Ne	-10.4735
▁track	-10.4737
▁programmes,	-10.474
▁design	-10.474
▁Yes	-10.4746
▁losses	-10.4749
▁category	-10.4756
▁transatlantic	-10.4762
▁jobs,	-10.4773
▁respects	-10.4777
▁th	-10.4782
ves	-10.4796
▁rely	-10.4801
▁uncertainty	-10.4805
▁restricted	-10.4806
▁enhanced	-10.481
▁workers,	-10.4815
▁became	-10.4817
▁br	-10.482
▁Islamic	-10.482
10	-10.4823
▁forest	-10.4835
▁Clearly	-10.4836
▁lessons	-10.4838
▁city	-10.4846
▁touch	-10.4853
▁door	-10.4853
▁widely	-10.4855
▁flow	-10.486
▁Geneva	-10.4861
▁Albania	-10.4861
▁falls	-10.4864
▁welcomes	-10.4867
▁dictatorship	-10.4867
98	-10.487
▁indicate	-10.4877
▁processing	-10.4878
▁occurred	-10.4886
▁author	-10.489
▁English	-10.4892
▁chair	-10.4897
▁Morocco	-10.4898
▁qualifications	-10.4898
▁condemned	-10.4898
pen	-10.4899
▁candidates	-10.4899
▁delays	-10.4902
▁gradually	-10.4902
▁ship	-10.4902
▁informal	-10.4903
▁earn	-10.4905
▁army	-10.4907
▁expensive	-10.4911
▁aircraft	-10.4917
▁force.	-10.4927
▁EMU	-10.493
▁regulated	-10.4931
▁deny	-10.4933
▁subjects	-10.4935
▁game	-10.4937
▁railway	-10.4937
tar	-10.4938
▁coast	-10.4944
▁reserve	-10.4945
▁explained	-10.4946
▁logical	-10.4947
▁youth	-10.4952
▁Gaza	-10.4955
▁health,	-10.4962
▁Lithuania	-10.4965
▁lie	-10.4967
▁extraordinary	-10.4967
▁35	-10.4968
▁notice	-10.4969
▁distinction	-10.497
▁past.	-10.4971
▁collaboration	-10.4973
▁Presidents	-10.4975
▁receiving	-10.498
▁unacceptable.	-10.4985
▁demographic	-10.4986
▁nationals	-10.4993
▁larger	-10.4996
▁unanimous	-10.5007
▁suggestion	-10.5009
▁drafted	-10.5015
▁Ho	-10.5015
▁freely	-10.5016
▁ceiling	-10.5018
▁nonetheless	-10.5018
99	-10.5018
▁Rome	-10.5027
▁causing	-10.503
▁manner.	-10.5037
dge	-10.5047
▁regardless	-10.5052
▁sovereign	-10.5055
▁outset	-10.5056
▁needed.	-10.5057
▁results.	-10.5063
▁character	-10.5067
▁appointment	-10.5074
▁procurement	-10.5087
▁indicators	-10.5088
▁failing	-10.5103
▁kinds	-10.5104
▁reflection	-10.5106
▁co-	-10.5113
▁acquis	-10.5113
▁raw	-10.5118
▁Obviously	-10.5119
▁undertaking	-10.5122
▁parents	-10.5132
▁symbol	-10.5134
▁minister	-10.5134
▁turning	-10.5138
▁incorporate	-10.5143
▁promises	-10.515
▁hence	-10.515
▁listened	-10.5153
▁promise	-10.5156
▁concentration	-10.5164
▁exert	-10.5172
▁covers	-10.5173
▁field.	-10.5173
▁Pre	-10.5178
▁bar	-10.518
▁elderly	-10.5183
▁reality.	-10.5187
▁Investment	-10.519
▁activities.	-10.5191
▁strike	-10.5194
▁engaged	-10.5194
▁lasting	-10.5196
-year	-10.5197
▁subject.	-10.5197
▁Per	-10.5199
▁Palestinians	-10.521
▁observed	-10.5215
▁comparison	-10.5222
▁Other	-10.5223
▁financed	-10.5224
ign	-10.5226
▁money.	-10.5229
▁section	-10.5235
▁Syria	-10.5235
▁well-	-10.5238
▁Office	-10.5241
▁dossier	-10.5241
▁push	-10.5249
▁began	-10.5249
tter	-10.5253
▁predict	-10.5255
▁severe	-10.5256
▁basically	-10.5265
▁Most	-10.5267
ral	-10.527
rn	-10.527
50	-10.5271
▁journalists	-10.5285
▁tribute	-10.5287
▁questions.	-10.53
▁motions	-10.5302
▁noise	-10.5311
dy	-10.5316
▁beneficial	-10.5319
▁transit	-10.532
▁killed	-10.532
▁breach	-10.5322
▁necessity	-10.5332
▁emphasize	-10.5339
▁advanced	-10.5352
▁tomorrow,	-10.5356
▁terrorists	-10.536
▁congratulations	-10.5365
▁spring	-10.5365
▁Union'	-10.5365
▁shares	-10.5365
▁Nonetheless	-10.5372
ee	-10.5373
▁moment.	-10.5376
▁territories	-10.5378
ini	-10.5386
▁objections	-10.5391
▁reading.	-10.5392
ook	-10.5402
▁win	-10.5408
▁circumstances,	-10.5412
▁approaches	-10.5417
ep	-10.5418
▁Gu	-10.5425
▁Na	-10.543
▁periods	-10.5434
▁abstained	-10.5435
▁viable	-10.5445
▁elections.	-10.5448
▁collection	-10.5453
▁supplement	-10.5456
▁Iraqi	-10.5464
▁deaths	-10.5468
▁commend	-10.5468
▁past,	-10.5469
▁alter	-10.5471
▁parallel	-10.5477
▁pilot	-10.5477
▁supplies	-10.5477
▁said.	-10.5482
▁catch	-10.5482
ust	-10.5488
▁generations	-10.5493
ink	-10.5493
cal	-10.5494
old	-10.5497
▁Parliament'	-10.5499
▁frequently	-10.5503
▁search	-10.5503
▁motor	-10.5504
▁approach,	-10.5514
ade	-10.5518
tan	-10.5524
▁Brazil	-10.553
▁solid	-10.553
▁1990	-10.553
▁workers.	-10.554
▁prevented	-10.5543
▁Declaration	-10.5543
ther	-10.5548
ming	-10.5548
▁Chechnya	-10.555
▁compatible	-10.555
▁troops	-10.555
▁tend	-10.5556
6/	-10.5556
▁nobody	-10.5557
▁promoted	-10.5567
▁contradiction	-10.5567
▁sending	-10.5569
▁Year	-10.557
▁drivers	-10.5571
▁noon.	-10.5571
▁IGC	-10.5577
▁rejection	-10.5578
▁sincerely	-10.5587
▁pursued	-10.5589
▁Soviet	-10.559
rit	-10.5591
lla	-10.5593
den	-10.5596
▁accurate	-10.5597
▁Libya	-10.5597
▁arising	-10.5598
des	-10.5603
▁finances	-10.5611
▁j	-10.5612
▁ro	-10.5623
▁rigorous	-10.5624
▁importantly	-10.5625
▁dumping	-10.563
▁contacts	-10.5634
▁Centre	-10.5637
▁finish	-10.5643
ple	-10.5649
▁crime.	-10.565
▁emerging	-10.5657
▁looked	-10.5668
▁Every	-10.567
▁clearer	-10.5673
ity.	-10.5674
ey	-10.5683
ritten	-10.5684
▁Canada	-10.5684
▁text.	-10.5686
dis	-10.5686
▁accompanied	-10.5691
▁project.	-10.5692
▁vehicle	-10.5696
ew	-10.5697
▁shortly	-10.5697
uff	-10.57
▁moved	-10.5704
▁president	-10.5711
▁OLAF	-10.5711
▁congratulating	-10.5711
ny	-10.5712
▁follows	-10.5714
▁observation	-10.5715
▁Decision	-10.5718
▁Ga	-10.5724
▁stage.	-10.5724
▁progressive	-10.5726
▁day.	-10.5726
▁friend	-10.5735
▁approximately	-10.5736
▁collapse	-10.5745
▁growth.	-10.5745
▁observe	-10.5747
▁alongside	-10.5754
▁associations	-10.5756
leg	-10.5758
▁Egypt	-10.5758
▁decline	-10.5766
▁divided	-10.5767
▁London	-10.5773
▁accessible	-10.5776
ological	-10.5779
▁banking	-10.578
ze	-10.578
▁exclusively	-10.5782
▁enlarged	-10.5783
▁label	-10.5785
▁Americans	-10.5788
▁birth	-10.58
▁principal	-10.58
▁keen	-10.58
▁talked	-10.5812
▁Ko	-10.5813
▁cheap	-10.5821
▁0	-10.5821
7/	-10.5823
▁marine	-10.5828
97	-10.5829
▁compete	-10.5829
▁populations	-10.5832
▁simplify	-10.5835
▁dead	-10.5837
30	-10.5843
▁judgment	-10.5847
▁efficiently	-10.5853
▁President.	-10.5853
▁apparent	-10.5854
▁systems,	-10.5864
▁Great	-10.5869
istic	-10.587
▁route	-10.5879
▁harmonised	-10.588
▁Labour	-10.5889
▁surveillance	-10.5889
▁chemical	-10.5889
▁respect.	-10.589
▁purchase	-10.5896
▁Like	-10.5897
▁Go	-10.5903
▁occupation	-10.5903
▁prevail	-10.5904
▁yourself	-10.5917
▁northern	-10.5924
▁strictly	-10.5928
▁2013	-10.5932
▁defending	-10.5932
▁Statute	-10.5938
▁listening	-10.5946
▁forests	-10.5948
▁2000,	-10.5958
▁companies.	-10.596
▁Pri	-10.596
▁friendly	-10.5966
▁Their	-10.5972
atory	-10.5988
▁postal	-10.5988
▁Education	-10.5993
▁resource	-10.5997
▁crops	-10.5999
▁underlying	-10.6001
▁conventions	-10.6006
▁1994	-10.6007
▁Objective	-10.6007
▁statute	-10.6007
▁disappointed	-10.601
▁suit	-10.6012
▁revolution	-10.6014
▁trans-European	-10.6014
▁experiencing	-10.6021
▁Petitions	-10.6028
▁distinguish	-10.6028
▁rising	-10.6028
▁coherence	-10.6035
▁distance	-10.6035
▁begun	-10.6035
▁Women	-10.604
by	-10.6042
▁Otherwise	-10.6042
▁invent	-10.6043
▁stations	-10.6045
▁quarter	-10.6049
▁unanimity	-10.6049
▁post-	-10.6056
▁decision.	-10.606
izing	-10.6063
▁surrounding	-10.6064
▁computer	-10.607
▁tradition	-10.6072
own	-10.6075
ast	-10.6075
▁choices	-10.6076
▁marked	-10.6081
▁loans	-10.6082
▁tangible	-10.6084
▁match	-10.6099
wards	-10.6103
▁Cohesion	-10.6105
▁jurisdiction	-10.6105
▁stem	-10.6108
▁stick	-10.6113
▁Reform	-10.6113
use	-10.6114
out	-10.6116
▁sharing	-10.612
▁achieved.	-10.6127
▁mere	-10.6129
▁neighbourhood	-10.6134
▁interest.	-10.6134
▁Service	-10.6149
▁justification	-10.6154
▁Atlantic	-10.6155
▁decent	-10.6159
▁consulted	-10.6159
▁Finnish	-10.6162
▁host	-10.6163
▁trade.	-10.6168
▁volume	-10.6169
▁argue	-10.6169
▁drive	-10.6173
▁desirable	-10.6176
gue	-10.6181
▁absurd	-10.6183
▁3.	-10.6188
▁Palestine	-10.6205
▁Turkey.	-10.6205
▁victim	-10.6208
-20	-10.621
ese	-10.6211
▁Communist	-10.6212
▁usual	-10.6218
▁threatened	-10.6219
▁Ta	-10.6219
▁(E	-10.6223
ctor	-10.6231
▁directed	-10.6234
▁consult	-10.6235
▁conservation	-10.624
▁dream	-10.624
val	-10.6241
▁traditions	-10.6246
▁attract	-10.6248
▁Two	-10.6256
▁pursuan	-10.6262
▁puts	-10.6264
▁integration.	-10.6265
▁sex	-10.6267
▁connected	-10.6268
▁genetically	-10.6269
▁nine	-10.627
▁closure	-10.6276
▁differ	-10.6277
▁permitted	-10.6277
):	-10.6279
▁employ	-10.6281
▁cod	-10.6281
▁unit	-10.6285
▁period.	-10.629
▁replaced	-10.6291
hy	-10.6292
ez	-10.6292
▁San	-10.6293
lli	-10.6293
▁emission	-10.6294
▁standing	-10.63
▁respecting	-10.63
▁quick	-10.6301
▁Jo	-10.6303
▁forgotten	-10.6305
▁follow-up	-10.6307
▁acceptance	-10.6308
▁sight	-10.6313
▁procedural	-10.6319
▁gather	-10.6319
▁wise	-10.6329
▁refused	-10.6333
▁campaigns	-10.6339
▁excuse	-10.6341
▁poverty.	-10.6347
▁Single	-10.6348
▁margin	-10.6353
▁examination	-10.6355
▁Your	-10.6357
of	-10.6364
bit	-10.6366
▁integrity	-10.6377
▁residence	-10.6377
▁pr	-10.6379
▁root	-10.638
▁confusion	-10.6384
▁praise	-10.6384
▁se	-10.6387
▁defining	-10.6399
(A4-	-10.6399
▁alternatives	-10.6408
▁perspectives	-10.641
ria	-10.6416
▁Allow	-10.6423
ib	-10.6425
▁impetus	-10.6428
▁mobile	-10.6428
▁sit	-10.6436
▁rid	-10.6447
▁chapter	-10.6448
▁categories	-10.645
▁controversial	-10.645
▁consequently	-10.6455
▁initiative.	-10.6455
▁joined	-10.6456
▁ob	-10.6457
▁lacking	-10.6458
▁confident	-10.6463
▁weaken	-10.6464
▁observers	-10.6464
▁Lo	-10.6466
hold	-10.6488
▁generate	-10.6493
▁Defence	-10.6494
▁equivalent	-10.6494
▁textile	-10.65
▁south	-10.6501
▁raises	-10.6502
▁lend	-10.6505
▁uphold	-10.6505
▁finally,	-10.6507
▁C5-	-10.6508
▁bomb	-10.6511
▁characteristics	-10.6513
▁dramatic	-10.6515
▁Information	-10.6516
▁contributing	-10.6516
▁Z	-10.6521
▁worthy	-10.6523
(2)	-10.6524
▁helpful	-10.6532
▁reasons.	-10.6536
fully	-10.6537
▁popular	-10.6538
▁unions	-10.6543
▁Regarding	-10.6545
▁soil	-10.6546
▁roads	-10.6551
-Mediterranean	-10.6552
▁imposing	-10.6552
fa	-10.6552
▁persuade	-10.656
nn	-10.6562
ip	-10.6562
▁illustrate	-10.6567
▁resumed	-10.6574
▁reconciliation	-10.6582
▁length	-10.6591
▁Africa.	-10.6593
▁customer	-10.6595
▁expansion	-10.6597
▁Com	-10.6599
▁slightly	-10.6601
ju	-10.6611
▁(debate)	-10.6611
▁projects.	-10.6613
▁remark	-10.6614
med	-10.6619
▁timely	-10.6619
▁(HU	-10.6619
▁exceed	-10.662
▁showed	-10.663
▁destroy	-10.6637
▁missing	-10.6641
▁warm	-10.6642
▁rating	-10.6651
▁Ka	-10.6655
▁Criminal	-10.6656
▁short-term	-10.6656
▁housing	-10.6656
row	-10.6656
▁migrants	-10.6658
ug	-10.666
▁estimated	-10.6661
▁energy.	-10.6662
▁System	-10.6663
▁scrutiny	-10.6663
▁hoped	-10.667
gent	-10.6677
▁Day	-10.6679
og	-10.6681
▁population.	-10.6689
▁arrive	-10.6691
▁accordingly	-10.6691
pol	-10.6696
▁interim	-10.6697
▁unilateral	-10.6698
▁En	-10.6698
▁preventive	-10.6699
▁systematic	-10.67
▁highlights	-10.6707
▁disregard	-10.6708
▁i	-10.6716
▁withdrawal	-10.6725
▁convince	-10.6725
▁multi	-10.6729
▁50%	-10.6733
▁coastal	-10.6738
▁whatsoever	-10.6738
▁signing	-10.6743
▁funded	-10.6744
▁distributed	-10.6746
▁class	-10.6747
9/	-10.6747
▁farms	-10.6749
▁perfect	-10.6749
▁Italy,	-10.6749
▁Friday	-10.6768
▁Solidarity	-10.6768
▁preliminary	-10.6768
▁Malta	-10.6776
▁costs.	-10.678
▁contrast	-10.6783
▁execution	-10.6783
▁managing	-10.6783
▁judge	-10.6791
▁subsequent	-10.6792
▁advocate	-10.6795
▁fill	-10.6796
▁divide	-10.6797
▁describe	-10.6798
▁organizations	-10.6804
▁subsequently	-10.6805
80	-10.6809
▁Who	-10.6816
▁solidarity.	-10.6819
▁joining	-10.682
▁Monday	-10.6821
▁items	-10.6825
▁thousand	-10.6828
▁integrate	-10.6837
▁Please	-10.6844
PA	-10.685
▁controlled	-10.6851
▁plays	-10.6856
▁emerge	-10.6859
▁violent	-10.6859
▁resistance	-10.686
nu	-10.687
▁publish	-10.6875
▁investors	-10.6876
▁control.	-10.6882
atch	-10.6884
▁300	-10.6887
▁railways	-10.6889
▁ambitions	-10.689
outermost	-10.6897
▁notably	-10.6898
▁achievements	-10.6904
▁Muslim	-10.6913
▁discipline	-10.6913
▁parties.	-10.6914
▁Si	-10.6914
▁Africa,	-10.6914
▁adverse	-10.692
▁convey	-10.6928
▁destroyed	-10.6928
reg	-10.6929
▁profound	-10.6936
▁sentence	-10.6944
▁envisaged	-10.6948
▁justice.	-10.6948
▁grave	-10.6951
▁losing	-10.6951
▁inside	-10.696
▁bl	-10.6961
igh	-10.6968
gan	-10.6971
▁importance.	-10.6972
gg	-10.6972
▁Dublin	-10.6974
▁woman	-10.6974
▁Latvia	-10.6974
▁agrees	-10.6975
▁restrictive	-10.6984
▁mental	-10.6984
▁representing	-10.6995
▁Doha	-10.6995
▁August	-10.6997
▁imported	-10.7003
▁consent	-10.7005
▁million.	-10.702
▁participating	-10.702
▁universities	-10.702
car	-10.702
▁regularly	-10.7024
▁foundation	-10.7033
EC	-10.7042
▁exchanges	-10.7042
▁formula	-10.7043
▁banned	-10.7045
air	-10.7053
▁error	-10.7058
▁inhabitants	-10.7059
ify	-10.706
▁Tunisia	-10.7076
▁va	-10.7077
▁solved	-10.7081
▁Wednesday	-10.7082
▁map	-10.7083
▁fixed	-10.7084
▁infringement	-10.7091
▁customers	-10.7105
▁Sudan	-10.7105
wa	-10.7106
▁correspond	-10.711
▁safeguarding	-10.7113
▁chemicals	-10.7113
▁complement	-10.7116
▁eventually	-10.7125
▁cross	-10.7126
▁humanity	-10.7136
▁super	-10.7136
▁gained	-10.7142
▁providers	-10.7144
▁hundred	-10.7147
-free	-10.7152
back	-10.716
▁fa	-10.7166
▁Democratic	-10.7167
▁die	-10.7173
▁2009.	-10.7179
▁(H	-10.7181
▁Lebanon	-10.7184
▁blind	-10.7184
▁flows	-10.7185
▁either.	-10.7187
▁attach	-10.719
▁pretext	-10.7192
▁covering	-10.7195
▁founded	-10.7196
▁criteria.	-10.7198
▁expertise	-10.7216
▁exceptions	-10.722
▁tolerance	-10.7223
▁pe	-10.7225
▁assessments	-10.7235
▁Similarly	-10.7239
put	-10.7243
art	-10.7244
▁stimulate	-10.7247
lle	-10.7249
ang	-10.725
▁abroad	-10.7255
▁adjust	-10.726
▁values.	-10.7261
▁tourist	-10.7262
▁mandatory	-10.7263
▁mistakes	-10.7266
/EC	-10.7269
▁gross	-10.7286
▁2000.	-10.7294
▁executive	-10.7294
-0	-10.7296
▁Citizens'	-10.7298
▁stringent	-10.731
▁hour	-10.7316
▁reaffirm	-10.7318
▁(C	-10.7323
▁monitored	-10.7325
▁disputes	-10.7327
ki	-10.7335
▁Women's	-10.7337
▁priority.	-10.7349
▁warrant	-10.7351
▁opinion.	-10.7353
▁reductions	-10.7353
wi	-10.7358
▁Solana	-10.7382
▁supervisory	-10.7382
▁investigations	-10.7384
▁fails	-10.7389
har	-10.7389
▁freight	-10.739
ons	-10.7392
▁fires	-10.7393
08	-10.74
▁implemented.	-10.74
▁Hence	-10.7401
▁sell	-10.7402
▁micro	-10.7406
▁display	-10.7414
▁resolving	-10.7414
▁anniversary	-10.7422
▁black	-10.7422
▁surprise	-10.7424
▁2010.	-10.7425
▁account.	-10.7426
▁ignored	-10.7427
ering	-10.7428
▁coal	-10.7432
▁states.	-10.7434
▁acknowledged	-10.7434
form	-10.7434
▁another.	-10.7435
▁assets	-10.744
▁ho	-10.744
▁taxpayers	-10.7447
▁cultures	-10.7448
▁containing	-10.7452
▁El	-10.7452
▁older	-10.7453
▁Bi	-10.7453
▁ALDE	-10.7454
▁stakeholders	-10.7454
▁consistency	-10.7454
▁mountain	-10.7462
▁pursuing	-10.7462
▁registration	-10.7462
▁Fi	-10.7468
▁experiences	-10.747
▁north	-10.7471
▁sale	-10.7474
▁adhere	-10.7478
mar	-10.7489
ire	-10.7494
ess	-10.7495
▁Inter	-10.7496
▁Patten	-10.7503
rum	-10.7508
▁Services	-10.751
vel	-10.7511
▁straight	-10.7511
▁brutal	-10.7511
ea	-10.7514
▁dangers	-10.7515
▁evaluate	-10.7516
▁sincere	-10.7516
▁albeit	-10.7519
▁complain	-10.7522
lia	-10.7525
▁decisions.	-10.7532
▁EIB	-10.7535
▁2012	-10.7536
▁Ms	-10.755
▁organic	-10.7554
▁abuses	-10.7554
▁Third	-10.7558
▁cent	-10.7561
▁experiment	-10.7576
▁10%	-10.7581
▁Chairman	-10.7585
▁reported	-10.7588
▁wages	-10.7588
las	-10.7589
van	-10.7597
▁fears	-10.7597
▁Community's	-10.7598
▁invited	-10.7604
▁signs	-10.7612
▁engine	-10.7617
▁actors	-10.7618
▁outlined	-10.7623
▁imperative	-10.7625
▁reverse	-10.7625
n-governmental	-10.7625
▁visited	-10.7627
▁reveal	-10.7631
ear	-10.7634
▁suggests	-10.7635
▁Romanian	-10.7639
▁accountability	-10.7642
SA	-10.7642
▁prompt	-10.7647
▁Could	-10.765
AC	-10.7653
▁furthermore	-10.7658
▁farm	-10.766
1999	-10.7663
▁fifteen	-10.7666
▁variety	-10.7666
▁functions	-10.7668
matic	-10.7673
▁accepting	-10.7677
▁sold	-10.7679
▁proven	-10.7688
▁(Rule	-10.7691
▁female	-10.7691
▁employed	-10.7691
▁movements	-10.7691
▁meantime	-10.7692
lf	-10.7694
▁shortage	-10.7698
▁scandal	-10.7698
▁prime	-10.7699
▁attractive	-10.7701
ene	-10.7702
▁Liberals	-10.7703
▁wind	-10.7703
▁prerequisite	-10.7708
▁incentive	-10.7716
▁investigate	-10.7718
▁delegations	-10.7721
▁criterion	-10.7724
▁denied	-10.7724
▁refugee	-10.7732
▁Estonia	-10.7741
▁immunity	-10.7741
rant	-10.7746
▁features	-10.7747
▁adult	-10.7749
▁recover	-10.7751
▁effect.	-10.7755
▁borders,	-10.7758
▁fuels	-10.7764
▁Convention.	-10.7765
▁cast	-10.7766
▁modernisation	-10.7769
▁consolidation	-10.7774
▁pharmaceutical	-10.7774
▁sports	-10.7776
▁procedures.	-10.7777
▁recital	-10.7782
▁third-country	-10.7783
▁tonight	-10.7791
▁answered	-10.7793
▁fifth	-10.7807
▁sympathy	-10.7807
▁gradual	-10.7811
▁habit	-10.7825
▁usually	-10.7829
▁falling	-10.7829
▁slaughter	-10.7832
▁infrastructures	-10.784
▁explanations	-10.7842
▁autonomy	-10.7849
▁voters	-10.7851
cle	-10.7853
▁concludes	-10.7856
▁detention	-10.7858
▁visible	-10.7866
▁wave	-10.7866
▁distort	-10.7872
▁maintenance	-10.7874
▁closing	-10.7875
▁accounting	-10.7876
ham	-10.7881
▁indication	-10.7886
▁except	-10.7889
K	-10.7891
▁Ashton	-10.7891
▁communicate	-10.7891
uc	-10.7898
▁learned	-10.79
▁production.	-10.7902
▁cutting	-10.7905
▁regimes	-10.7905
▁civilisation	-10.7909
ans	-10.7912
▁looks	-10.7919
▁productive	-10.793
▁fate	-10.7943
▁Un	-10.7944
▁exclude	-10.7949
▁feature	-10.7953
▁adaptation	-10.7959
▁sectors.	-10.7962
▁priorities.	-10.7962
ivity	-10.7966
▁OSCE	-10.7967
▁storage	-10.7967
her	-10.7975
]	-10.7976
▁trouble	-10.7976
▁bio	-10.7981
▁false	-10.7984
▁disastrous	-10.7993
▁Cor	-10.7993
▁80	-10.7994
▁enforce	-10.7995
so	-10.7998
▁endorsed	-10.8001
▁consistently	-10.8002
▁location	-10.8004
▁corresponding	-10.8005
▁badly	-10.8006
▁hopefully	-10.8008
▁PPE	-10.801
▁week.	-10.8013
▁virtually	-10.8014
lock	-10.8014
▁released	-10.8015
▁Millennium	-10.8019
▁concern.	-10.802
▁renewed	-10.802
fu	-10.8023
▁peace.	-10.8024
▁GMOs	-10.8024
▁appointed	-10.8025
ES	-10.8029
▁substantially	-10.803
▁sites	-10.8032
▁federal	-10.8033
▁Nigeria	-10.8044
▁surplus	-10.8044
▁Iranian	-10.8047
▁adequately	-10.8049
▁Above	-10.8053
▁offices	-10.8059
▁wall	-10.8062
▁recognises	-10.8065
az	-10.8065
▁examining	-10.807
ick	-10.8075
▁died	-10.8075
▁entering	-10.8077
▁seat	-10.8078
▁Naturally	-10.8078
▁airport	-10.8086
▁conscience	-10.8087
▁essence	-10.8087
▁productivity	-10.8088
▁models	-10.8092
▁stages	-10.8097
(1)	-10.8098
▁partners.	-10.8109
▁Greens	-10.8111
▁Annex	-10.8113
▁statistical	-10.8121
long	-10.8123
▁halt	-10.8131
▁intelligent	-10.8139
▁backing	-10.814
▁(EC)	-10.8147
▁1992	-10.8147
▁scientists	-10.8147
▁ageing	-10.8148
▁mother	-10.8151
▁Scotland	-10.8156
▁privacy	-10.8156
▁cope	-10.816
▁inquiry	-10.8165
▁flood	-10.8166
▁observations	-10.8169
za	-10.817
▁platform	-10.8173
▁inspection	-10.8176
▁borne	-10.8178
-out	-10.8183
▁apparently	-10.8183
▁art	-10.8188
▁damaging	-10.8191
▁sacrifice	-10.8191
▁emerged	-10.8191
▁acted	-10.8193
▁bill	-10.8197
▁Colombia	-10.8208
▁Schulz	-10.8217
▁du	-10.8219
▁ne	-10.822
▁await	-10.8225
▁Verheugen	-10.8226
▁pre-	-10.823
▁Fischler	-10.8234
▁journey	-10.8234
▁socio-economic	-10.8234
▁Slovenia	-10.8237
▁devoted	-10.8241
turn	-10.8241
▁satellite	-10.8243
chi	-10.8248
▁initially	-10.8249
▁focusing	-10.8249
cies	-10.8255
ency	-10.8256
▁planet	-10.8257
▁completion	-10.826
▁heads	-10.8261
▁overlook	-10.8269
CO	-10.8277
▁everywhere	-10.8279
▁tolerate	-10.8284
▁Albanian	-10.8286
▁Timor	-10.8287
▁relations.	-10.8293
▁clauses	-10.8293
▁visas	-10.8294
▁safeguards	-10.8294
▁over-	-10.8296
▁accord	-10.8303
▁definitive	-10.8304
▁far-reaching	-10.8304
▁programming	-10.8304
oli	-10.8309
▁handling	-10.8318
▁compromises	-10.8326
▁bus	-10.8331
▁socialist	-10.8345
▁avoided	-10.8353
▁consultations	-10.8358
▁hospital	-10.8366
▁names	-10.837
▁consolidate	-10.8375
▁enables	-10.8375
▁MEP	-10.8377
ecretary-General	-10.8379
▁exclusive	-10.838
▁(vote)	-10.8384
▁Congo	-10.8385
▁title	-10.8392
▁mentioned.	-10.8402
06	-10.8407
ound	-10.8408
▁Switzerland	-10.841
▁minor	-10.8412
▁lives.	-10.8422
▁effectively.	-10.8423
▁helps	-10.8424
▁Whilst	-10.8428
▁translation	-10.8428
▁leaves	-10.8429
▁Santer	-10.8429
▁story	-10.8429
▁tackled	-10.8435
▁resort	-10.8437
nce	-10.8443
▁silence	-10.8446
▁expert	-10.8454
comprehensible	-10.8455
▁precondition	-10.8455
▁Brok	-10.8455
▁embargo	-10.8455
▁organisations.	-10.8458
▁China.	-10.8459
▁'the	-10.8459
▁Stockholm	-10.8464
▁criminals	-10.8464
▁annex	-10.8464
▁Procedure.	-10.8465
▁repression	-10.8473
▁arrived	-10.8475
▁liked	-10.8476
▁lobby	-10.8481
lit	-10.8481
▁Tibet	-10.849
▁struck	-10.849
▁recommended	-10.8492
▁mobilise	-10.8499
▁satisfy	-10.8499
▁Y	-10.85
▁2006,	-10.8502
▁testing	-10.8503
▁generous	-10.8508
▁inappropriate	-10.8508
ari	-10.8515
▁punishment	-10.8524
▁Du	-10.853
▁workers'	-10.8535
▁precautionary	-10.8536
▁reserves	-10.8538
▁accused	-10.8539
▁persist	-10.8553
▁cycle	-10.8553
▁paragraphs	-10.8561
▁sums	-10.8564
▁answer.	-10.8565
ifying	-10.8566
▁deficits	-10.8575
▁autumn	-10.858
▁Liberties	-10.8598
▁explicitly	-10.8599
▁mar	-10.8601
wo	-10.8607
▁Europe'	-10.8607
▁prohibit	-10.8613
▁desired	-10.8614
▁violence.	-10.8614
▁subsid	-10.8616
▁Tampere	-10.8617
▁write	-10.8617
ifies	-10.8619
▁manufacture	-10.8621
▁responses	-10.8621
▁fought	-10.8626
▁detect	-10.8627
▁tighten	-10.8629
▁compromise.	-10.8639
▁vocational	-10.8644
▁45	-10.8644
▁Rights.	-10.8654
▁exemption	-10.8656
▁director	-10.8656
▁continuation	-10.8662
uring	-10.8663
▁era	-10.8664
▁personnel	-10.8665
▁His	-10.8667
▁fault	-10.8671
▁irregularities	-10.8671
▁collect	-10.8679
▁middle	-10.868
▁simplified	-10.868
▁soldiers	-10.868
EU	-10.8681
▁council	-10.8689
▁sections	-10.869
▁clo	-10.8691
▁enabled	-10.8698
▁component	-10.8699
▁alone.	-10.8701
▁notion	-10.8711
▁east	-10.8718
▁pick	-10.8718
▁transparency.	-10.8722
▁orientation	-10.8726
▁enshrined	-10.8729
▁fundamentally	-10.8729
▁repercussions	-10.8735
▁book	-10.8737
ya	-10.8746
▁football	-10.8753
2000	-10.8755
▁30%	-10.8756
▁disadvantaged	-10.8758
▁gl	-10.8758
ties	-10.8769
▁Would	-10.8772
▁fulfilled	-10.8774
▁abstain	-10.8774
▁Su	-10.878
▁partnerships	-10.8791
▁harmonise	-10.8793
▁linguistic	-10.8799
▁shipping	-10.88
▁wherever	-10.8803
▁cease	-10.8809
▁Globalisation	-10.8809
gi	-10.8813
▁community.	-10.8821
▁fashion	-10.8827
▁inequalities	-10.8827
▁democratisation	-10.8837
▁delivered	-10.8843
-off	-10.8846
▁seekers	-10.8846
▁transform	-10.8849
▁meets	-10.8849
▁bridge	-10.8855
▁speculation	-10.8855
▁adapted	-10.8864
▁scenario	-10.8864
▁exposed	-10.8869
▁anti	-10.887
▁pace	-10.8874
▁laying	-10.8885
▁criticise	-10.8886
▁eat	-10.8891
▁qua	-10.8891
medicinal	-10.8892
▁removal	-10.8892
▁film	-10.8892
▁innocent	-10.8892
▁respected.	-10.8894
▁patient	-10.8898
▁resist	-10.8901
▁horizontal	-10.8902
▁detriment	-10.8902
/EEC	-10.8903
▁survive	-10.8911
▁pipeline	-10.8911
▁dictator	-10.892
▁vegetable	-10.892
▁lifelong	-10.8922
ko	-10.8923
log	-10.8927
▁Special	-10.8929
▁recognize	-10.8932
15	-10.8933
▁requirements.	-10.8936
▁participants	-10.8938
▁strive	-10.8939
▁warn	-10.8939
▁pain	-10.8941
▁initiated	-10.8942
▁Ad	-10.8947
▁parliamentarian	-10.8948
ja	-10.8948
▁logic	-10.8951
▁Helsinki	-10.8958
▁presidential	-10.8959
07	-10.8961
kin	-10.8961
▁(CS	-10.8962
▁attached	-10.8964
▁flights	-10.8966
▁ownership	-10.8967
▁radio	-10.8973
▁ideological	-10.8976
▁preparatory	-10.8976
▁sole	-10.8978
▁interpret	-10.8979
▁terror	-10.898
▁shame	-10.8981
▁alleged	-10.8986
▁won	-10.8991
▁combine	-10.8999
▁mine	-10.9
▁90	-10.9002
hand	-10.9004
ai	-10.9007
▁2007.	-10.9008
K)	-10.901
▁narrow	-10.9014
▁drop	-10.9014
▁transferred	-10.9015
like	-10.9017
▁merge	-10.9021
▁twice	-10.9023
▁saving	-10.9027
▁obstacle	-10.9032
▁ensured	-10.9033
▁Olympic	-10.9052
▁compensate	-10.9052
▁'no'	-10.9052
▁multiannual	-10.9061
▁dependence	-10.9063
▁2010,	-10.9065
▁inevitably	-10.908
▁reassure	-10.908
▁enterprise	-10.9082
▁overwhelming	-10.9083
▁openly	-10.9084
▁assured	-10.9086
▁37	-10.9089
sol	-10.909
▁Everyone	-10.909
ean	-10.9091
▁witness	-10.9092
placing	-10.9098
▁democratically	-10.9101
▁disappear	-10.9103
▁constraints	-10.9109
▁forestry	-10.911
▁ga	-10.9117
▁alarming	-10.9118
▁potentially	-10.912
▁facility	-10.9128
▁persecution	-10.9128
ef	-10.9133
▁stricter	-10.9136
▁precedent	-10.9137
▁dollar	-10.9137
▁Institute	-10.9147
▁killing	-10.9148
▁Bar	-10.9151
▁fallen	-10.9157
▁4.	-10.9163
▁embark	-10.9166
▁tape	-10.9166
▁conflict.	-10.9167
▁privilege	-10.9171
▁hunger	-10.9176
▁pledge	-10.9176
▁Procedure,	-10.9177
▁vary	-10.9181
-friendly	-10.9185
▁pressing	-10.9186
▁race	-10.9188
▁2008.	-10.9189
EA	-10.9192
-wide	-10.9194
▁foodstuffs	-10.9195
▁abortion	-10.9195
▁40%	-10.9196
▁modest	-10.9197
▁applaud	-10.9204
▁appalling	-10.9204
▁organ	-10.921
▁B5-	-10.9214
▁incident	-10.9225
table	-10.9229
fo	-10.9231
▁concessions	-10.9232
▁twenty	-10.9233
▁attain	-10.9233
▁80%	-10.9234
▁levels.	-10.9235
▁year's	-10.9238
▁2004.	-10.9238
▁draftsman	-10.9243
▁comparable	-10.9253
▁monopoly	-10.9253
▁creative	-10.9253
▁originally	-10.926
▁1993	-10.9262
▁wholeheartedly	-10.9265
▁USD	-10.9268
▁Youth	-10.9269
▁characterised	-10.9273
point	-10.9274
▁AIDS	-10.9282
▁Fourthly	-10.9287
▁Islam	-10.9288
▁page	-10.929
▁transposition	-10.9291
▁organization	-10.9295
▁remote	-10.9301
▁Paris	-10.9303
cor	-10.9305
▁appreciation	-10.9311
▁constituency	-10.9311
▁western	-10.932
▁systematically	-10.9321
▁(I	-10.9322
TA	-10.9324
▁Code	-10.9326
▁own-initiative	-10.933
▁reconcile	-10.933
▁serves	-10.9331
▁Federal	-10.934
▁composition	-10.935
▁decade	-10.935
dent	-10.935
▁outline	-10.935
▁socially	-10.9351
▁errors	-10.9351
▁irrespective	-10.9369
▁Iraq.	-10.9373
▁hot	-10.9379
▁high-quality	-10.938
▁large-scale	-10.938
▁assessing	-10.9383
▁stating	-10.9384
▁Algeria	-10.9387
▁inspections	-10.9397
▁enterprises.	-10.9397
▁70	-10.9398
▁adjustment	-10.9399
▁conditional	-10.9401
▁GUE/NGL	-10.9408
rk	-10.9409
▁hazardous	-10.9409
▁East.	-10.9415
▁researchers	-10.9415
-C	-10.9417
▁Among	-10.9418
▁Cypriot	-10.9418
▁deciding	-10.9418
▁prejudice	-10.9418
▁findings	-10.9424
▁announcement	-10.9425
▁biofuels	-10.9425
J	-10.9426
▁practically	-10.9433
▁broadly	-10.944
▁Mexico	-10.9448
▁survival	-10.9448
▁tremendous	-10.9448
ull	-10.9448
▁automatically	-10.9448
ina	-10.9449
▁Ireland.	-10.9449
▁stopped	-10.945
▁donors	-10.9456
▁workplace	-10.9456
bor	-10.9461
▁discover	-10.9464
stream	-10.9467
▁Vienna	-10.9467
▁hinder	-10.9467
▁earthquake	-10.9467
▁thoroughly	-10.9467
▁Brussels.	-10.9472
▁producer	-10.9474
ana	-10.9475
▁refusal	-10.9477
▁Greens/	-10.948
▁criticised	-10.9484
▁Also,	-10.9486
▁islands	-10.9487
▁owe	-10.9492
▁complied	-10.9497
▁recorded	-10.95
▁interference	-10.9507
▁circumstances.	-10.9507
nes	-10.9512
ban	-10.9513
í	-10.9517
▁escape	-10.9517
▁Bush	-10.9518
▁remained	-10.9522
▁wished	-10.9524
▁emissions.	-10.9528
▁xenophobia	-10.9537
▁Galileo	-10.9547
▁disabilities	-10.9547
▁posts	-10.955
▁telling	-10.9558
▁prices.	-10.9559
▁travelling	-10.956
▁Law	-10.9569
uch	-10.9571
▁Taiwan	-10.9576
▁retirement	-10.9577
▁demanded	-10.9582
▁manifest	-10.9586
▁tuna	-10.9586
▁worried	-10.9586
EN	-10.9592
▁Har	-10.9595
▁professionals	-10.9596
▁Resolution	-10.9606
▁unemployment.	-10.9607
▁guilty	-10.9608
▁routes	-10.9611
▁decrease	-10.9616
▁in-depth	-10.9616
▁recycling	-10.9616
▁Hamas	-10.9616
▁remarkable	-10.9619
rac	-10.9621
▁channels	-10.9628
▁writing	-10.9629
▁Saddam	-10.9636
▁publication	-10.9646
▁countries'	-10.9647
▁pillars	-10.9647
▁blue	-10.9647
▁relocation	-10.9647
▁2006.	-10.965
▁reports.	-10.9656
▁atmosphere	-10.9657
▁delicate	-10.9657
▁wake	-10.9657
AR	-10.9663
▁Kurdish	-10.9667
▁coordinating	-10.9667
▁Martin	-10.9667
▁lesson	-10.9667
▁remit	-10.9674
▁plain	-10.9677
▁bottom	-10.9687
▁gentlemen	-10.969
▁notes	-10.9691
▁ended	-10.9693
▁assessed	-10.9694
▁genocide	-10.9697
▁unprecedented	-10.9697
▁strange	-10.9697
ric	-10.9702
▁indirect	-10.9706
▁offences	-10.971
▁internationally	-10.9713
▁comitology	-10.9717
▁topical	-10.9723
▁advise	-10.9723
▁solutions.	-10.9724
▁lists	-10.9725
▁split	-10.9727
▁circle	-10.9737
▁trap	-10.9737
gram	-10.9737
▁victory	-10.9739
▁marks	-10.9748
▁formally	-10.9751
▁minds	-10.9753
▁deadlines	-10.9762
▁zero	-10.9768
▁mu	-10.9774
▁jeopardise	-10.9778
▁Bu	-10.9778
▁demonstration	-10.978
▁scheduled	-10.9789
▁authorised	-10.9797
▁missions	-10.9809
▁civilians	-10.981
▁camps	-10.9812
▁career	-10.9815
▁survey	-10.9829
▁everyday	-10.9829
▁Verts/ALE	-10.9839
▁moratorium	-10.9839
70	-10.9842
▁construct	-10.9846
▁incidents	-10.9847
▁foot	-10.9855
▁town	-10.9855
▁addresses	-10.9857
+	-10.986
▁relief	-10.986
▁analyse	-10.9863
▁commun	-10.9866
▁suspend	-10.9867
▁combination	-10.987
▁invitation	-10.987
▁reminded	-10.9875
▁audiovisual	-10.988
▁protectionism	-10.9886
19	-10.9886
▁Far	-10.9895
▁Man	-10.9895
▁empty	-10.9901
▁suspect	-10.9902
▁arrangement	-10.9905
▁specialist	-10.9907
▁obtaining	-10.9908
▁condemnation	-10.9909
▁Black	-10.9911
▁legislator	-10.9911
▁depth	-10.9911
▁estimates	-10.9916
▁genetic	-10.9921
▁remedy	-10.9921
▁criticisms	-10.9924
jo	-10.9927
▁homes	-10.9928
▁isolation	-10.9932
▁vague	-10.9932
▁neighbour	-10.9935
▁bases	-10.9936
▁subjected	-10.9941
▁presents	-10.9946
▁underpin	-10.9953
▁happen.	-10.9957
▁consist	-10.9959
place	-10.9962
▁beneficiaries	-10.9963
▁topics	-10.9968
▁realised	-10.9971
▁tender	-10.9973
▁facilitating	-10.9973
▁withdrawn	-10.9974
▁Ri	-10.998
▁entail	-10.998
Q	-10.9983
▁passport	-10.9985
▁avoiding	-10.9991
▁Vietnam	-10.9994
▁Federation	-11.0004
▁heavily	-11.0004
▁pragmatic	-11.0004
▁banana	-11.0008
▁Turkey's	-11.0011
let	-11.0013
▁workforce	-11.0015
▁references	-11.0017
▁21st	-11.0021
▁immigration.	-11.0028
▁Should	-11.0036
▁diverse	-11.0036
▁grants	-11.0038
-General	-11.0039
▁father	-11.0047
▁govern	-11.005
▁Democrat	-11.0051
-w	-11.0055
▁Wi	-11.0055
▁abolish	-11.0057
▁Through	-11.0067
▁artificial	-11.0067
▁privatisation	-11.0067
han	-11.0069
▁Asian	-11.007
▁onto	-11.0075
▁exempt	-11.0075
ily	-11.0077
▁born	-11.0083
▁passing	-11.0083
pan	-11.0093
hen	-11.0093
▁throw	-11.0094
▁Baroness	-11.0099
▁benchmark	-11.0099
▁arrested	-11.0099
▁p.m.)	-11.0101
ges	-11.0108
▁contributes	-11.0117
▁wonderful	-11.0117
▁alliance	-11.012
▁[	-11.0121
▁disadvantage	-11.0123
▁Christians	-11.0124
▁exist.	-11.0128
▁returned	-11.0128
▁dear	-11.0134
▁pesticides	-11.0137
▁plea	-11.0139
▁Hague	-11.0141
▁arises	-11.0144
▁Congress	-11.0151
▁Te	-11.0153
▁Sch	-11.016
▁anywhere	-11.0165
cip	-11.0166
▁400	-11.0171
▁clarified	-11.0172
▁(FI	-11.0172
▁instability	-11.0173
▁Constitution.	-11.0173
▁dare	-11.0173
▁ultimate	-11.0178
eu	-11.0178
▁32	-11.0179
▁floods	-11.0181
▁modification	-11.0183
▁telephone	-11.0183
▁love	-11.0189
▁Ni	-11.0189
▁Each	-11.0197
ren	-11.0203
▁self-employed	-11.0204
▁endanger	-11.0204
▁integral	-11.0215
▁Air	-11.0224
▁tight	-11.0225
▁Perspective	-11.0225
▁irresponsible	-11.0225
▁quo	-11.0232
▁phrase	-11.0236
▁2005.	-11.0246
▁2007-2013	-11.0247
▁tri	-11.0254
▁Ukrainian	-11.0257
▁punish	-11.026
▁consists	-11.026
▁devote	-11.026
gar	-11.0265
▁indicates	-11.0267
▁solving	-11.0272
▁fo	-11.0273
▁input	-11.0273
▁posed	-11.0282
▁reviewed	-11.0283
▁corporate	-11.029
light	-11.0294
▁stresses	-11.0296
▁accelerate	-11.03
-A	-11.0309
▁articles	-11.031
▁Kinnock	-11.0311
▁quantity	-11.0311
▁Lu	-11.032
▁dual	-11.0321
ception	-11.0322
▁Secretary	-11.0327
▁responding	-11.0329
▁transfers	-11.0334
▁reinforced	-11.0338
▁thirdly	-11.0339
▁towns	-11.034
▁EP	-11.0342
▁envisage	-11.0348
▁governed	-11.0352
▁gases	-11.0353
▁Apart	-11.0353
▁calm	-11.0354
▁(LT	-11.0365
▁Madrid	-11.0365
▁indispensable	-11.0365
▁monopolies	-11.0365
▁investing	-11.0371
▁affair	-11.0371
▁aspirations	-11.0374
▁para	-11.0378
▁database	-11.0386
▁disparities	-11.0386
▁attempting	-11.0403
▁toxic	-11.0408
▁abolished	-11.0413
▁registered	-11.0413
▁normally	-11.0415
▁convincing	-11.0419
▁website	-11.0419
▁witnessed	-11.0419
▁expand	-11.0423
▁Caucasus	-11.043
▁livestock	-11.043
▁Ab	-11.0434
dvisory	-11.0441
▁assembly	-11.0441
▁sustained	-11.0449
▁smoking	-11.0452
▁isolated	-11.0457
▁Hu	-11.0458
▁fee	-11.0459
▁recognising	-11.0462
▁removing	-11.0462
▁donor	-11.0464
▁inevitable	-11.0473
▁Haiti	-11.0474
▁CFSP	-11.0484
▁Confedera	-11.0484
▁Monti	-11.0492
▁guide	-11.0492
▁served	-11.0509
▁recession	-11.0517
▁availability	-11.0517
40	-11.0519
▁symbolic	-11.0525
▁backward	-11.0527
▁relationships	-11.0528
▁Democracy	-11.0528
▁democracies	-11.0528
▁enthusiasm	-11.0528
▁York	-11.0539
▁identification	-11.0539
▁transnational	-11.055
▁Nordic	-11.0555
▁euros	-11.0556
▁unlike	-11.0561
▁non	-11.0561
▁totalitarian	-11.0562
▁trends	-11.0568
▁problematic	-11.0572
▁merit	-11.0578
▁lowest	-11.0581
▁philosophy	-11.0583
ü	-11.0594
▁inequality	-11.0594
▁institute	-11.0599
▁rare	-11.06
▁whenever	-11.0603
lam	-11.0608
ular	-11.0611
▁mix	-11.0618
▁strikes	-11.062
drew	-11.0625
▁follows:	-11.0637
▁Montenegro	-11.0638
▁adding	-11.0647
▁question:	-11.0648
▁ones.	-11.0651
▁courageous	-11.0652
▁poorer	-11.0654
▁Blair	-11.0661
▁surprising	-11.0661
▁biological	-11.0672
▁emphasises	-11.0673
▁G20	-11.0674
-S	-11.0692
▁Neighbourhood	-11.0694
▁intelligence	-11.0694
▁caught	-11.0694
▁Dis	-11.0703
▁Slovak	-11.0703
▁incomes	-11.0705
▁securing	-11.0705
▁footing	-11.0711
▁energies	-11.0716
▁underestimate	-11.0716
▁Against	-11.0718
▁seize	-11.0718
▁enjoyed	-11.0719
bb	-11.0723
nder	-11.0727
▁cells	-11.0735
▁cow	-11.0736
▁illegally	-11.0736
▁'a	-11.0748
je	-11.0748
ology	-11.0754
▁differently	-11.076
▁Quite	-11.0761
sign	-11.0766
6%	-11.0766
▁expenses	-11.0766
mann	-11.0768
▁dioxide	-11.0772
▁immense	-11.0772
▁disagreement	-11.0777
▁steel	-11.0784
-P	-11.0787
CC	-11.0791
▁claimed	-11.0792
▁95	-11.0792
▁Arctic	-11.0795
▁demonstrating	-11.0795
▁cite	-11.0802
▁Directorate	-11.0803
▁commission	-11.0805
▁gratitude	-11.0806
▁manufacturing	-11.0806
▁resolution)	-11.0807
▁pull	-11.0808
▁interpreted	-11.0809
▁complexity	-11.0811
▁assert	-11.0819
▁preference	-11.0819
▁confront	-11.0821
▁interventions	-11.0826
▁ecosystem	-11.0829
▁occupied	-11.0829
▁disappointment	-11.0841
2006	-11.0843
▁store	-11.0844
▁maybe	-11.0845
▁earmarked	-11.0845
▁multinational	-11.085
▁dairy	-11.0851
▁yield	-11.0851
▁Eurostat	-11.0853
but	-11.0859
▁appeared	-11.086
▁Ch	-11.086
▁frankly	-11.086
▁cattle	-11.0863
▁Frontex	-11.0863
▁advances	-11.0874
▁threatening	-11.0876
▁focuses	-11.0882
▁limiting	-11.0885
▁techniques	-11.0886
▁1%	-11.0892
▁pose	-11.0893
▁conceal	-11.0897
▁Kong	-11.0897
▁pays	-11.0908
▁repair	-11.0908
▁extremist	-11.0908
▁premium	-11.0908
▁Prize	-11.0909
▁hide	-11.0909
state	-11.091
ik	-11.0916
▁36	-11.0916
▁von	-11.0925
▁Until	-11.0931
▁encouragement	-11.0935
▁handled	-11.0937
▁requiring	-11.0942
▁reproductive	-11.0945
▁concluding	-11.0954
ude	-11.0958
aries	-11.0959
▁confirms	-11.0964
▁broken	-11.0967
▁Mu	-11.0977
▁reward	-11.0985
ski	-11.0986
ium	-11.0988
▁affirm	-11.0988
▁swift	-11.0994
ically	-11.0997
▁outbreak	-11.1
▁33	-11.1004
▁safer	-11.1007
▁Neither	-11.1011
▁Kar	-11.1031
▁misunderstand	-11.1032
▁warming	-11.1032
▁licence	-11.1033
25	-11.1034
▁Peace	-11.1034
▁Hong	-11.1035
▁doors	-11.104
▁shop	-11.104
▁century.	-11.1043
▁preferred	-11.1047
ctive	-11.1048
▁Indonesia	-11.1049
/01	-11.1051
▁flu	-11.1052
▁displaced	-11.1057
▁licences	-11.1059
▁burdens	-11.106
▁concepts	-11.1064
▁tariff	-11.1067
▁Process	-11.1069
▁Yesterday	-11.1069
▁electorate	-11.1069
▁quantities	-11.1069
▁cooperative	-11.1069
▁patents	-11.108
▁transmission	-11.1081
▁indirectly	-11.1082
▁petition	-11.109
▁abandoned	-11.1102
▁rhetoric	-11.1104
▁Za	-11.1109
▁Sha	-11.1109
▁initiate	-11.1111
ek	-11.1115
12	-11.1115
▁explore	-11.1115
▁file	-11.1125
▁Conciliation	-11.1127
▁veto	-11.1139
vol	-11.1144
▁elimination	-11.115
▁delayed	-11.1158
▁continuous	-11.116
▁postponed	-11.1169
▁fleets	-11.117
▁believed	-11.1173
▁doctors	-11.1174
▁48	-11.1181
▁clear:	-11.1182
▁Ecofin	-11.1185
▁suspension	-11.1185
▁multinationals	-11.1187
▁exploited	-11.1192
4%	-11.1197
▁Afghan	-11.1197
▁speaker)	-11.1201
▁Part	-11.1205
▁player	-11.1205
▁sustain	-11.1208
▁conjunction	-11.1209
▁aiming	-11.121
▁explicit	-11.1221
▁Hussein	-11.1221
▁penalise	-11.1222
▁continent.	-11.1224
▁messages	-11.1225
▁regulating	-11.1232
▁determining	-11.1232
▁organized	-11.1233
▁dedicated	-11.1235
▁secondary	-11.1237
▁switch	-11.1244
▁signals	-11.1249
▁violated	-11.1255
▁positively	-11.1261
▁roots	-11.1265
▁denounce	-11.1268
▁judiciary	-11.1268
▁publicly	-11.1279
▁mid-term	-11.128
▁reconsider	-11.128
▁suspicion	-11.128
▁teachers	-11.1283
▁expressly	-11.1286
▁Milosevic	-11.1291
▁children's	-11.1297
▁sectoral	-11.1299
tric	-11.13
▁driven	-11.13
▁charter	-11.1315
stitution	-11.1322
▁invested	-11.1323
▁calculation	-11.1327
▁Rather	-11.1328
▁weaknesses	-11.133
▁destination	-11.1339
▁club	-11.1339
60	-11.1341
▁update	-11.1345
▁holiday	-11.1363
11	-11.1364
▁devise	-11.1367
▁enforced	-11.1369
▁cat	-11.1383
▁interfere	-11.1387
▁Adjustment	-11.1387
▁Communication	-11.1387
▁river	-11.1387
▁appoint	-11.139
▁cre	-11.1392
low	-11.1395
▁interaction	-11.1399
▁bold	-11.1401
▁Cuban	-11.1401
▁150	-11.1405
▁skill	-11.1407
▁pity	-11.1409
▁Chancellor	-11.1411
▁convert	-11.1411
▁controlling	-11.1413
▁derogation	-11.1415
▁understandable	-11.1421
net	-11.1421
▁deplore	-11.1423
▁feasible	-11.1423
▁flight	-11.1425
▁complaint	-11.1431
▁OECD	-11.1447
▁Certainly	-11.1449
▁Pi	-11.1451
▁harmonization	-11.1459
▁preservation	-11.1459
▁generated	-11.146
▁Relations	-11.1471
▁broadcasting	-11.1472
▁faster	-11.1472
▁exact	-11.1474
▁celebrate	-11.1483
▁conscious	-11.1483
▁violate	-11.1484
▁objection	-11.1488
-M	-11.1491
▁scrap	-11.1495
▁Beijing	-11.1507
law	-11.1513
▁coordinator	-11.1531
▁integrating	-11.1531
▁sharp	-11.1531
▁banning	-11.1536
▁separation	-11.1543
▁spectrum	-11.1543
▁urged	-11.1549
▁profile	-11.1555
▁renewal	-11.156
▁X	-11.1561
▁radioactive	-11.1568
▁copyright	-11.1568
▁traceability	-11.1568
▁Balkan	-11.1571
▁adjustments	-11.1571
▁moves	-11.1571
▁establishes	-11.1576
▁soft	-11.1578
▁implies	-11.158
▁pluralism	-11.158
▁compliment	-11.158
▁IMF	-11.158
▁Council’s	-11.1582
▁cap	-11.1587
▁excess	-11.159
▁author.	-11.1591
▁Cambodia	-11.1592
▁specified	-11.1592
▁'f	-11.1598
(CNS)	-11.1604
▁Ru	-11.161
▁simplifying	-11.1626
▁Ja	-11.1627
▁roll	-11.1631
▁selection	-11.1634
▁unified	-11.1634
▁drinking	-11.1638
▁threaten	-11.1638
▁medicine	-11.1639
▁DG	-11.1644
▁agents	-11.1645
▁belonging	-11.1646
▁kill	-11.1651
▁censure	-11.1653
▁Goals	-11.1653
▁white	-11.1654
▁concentrated	-11.1661
▁fat	-11.1661
▁online	-11.1661
▁discriminate	-11.1665
▁manoeuvre	-11.1665
▁Board	-11.1667
▁Mari	-11.1676
hood	-11.1676
▁years'	-11.1681
▁minors	-11.1682
▁Thanks	-11.1685
▁encourages	-11.1686
▁deliberately	-11.1687
▁acquire	-11.1687
▁entrepreneurs	-11.169
▁cornerstone	-11.169
▁selling	-11.1693
▁Freedoms	-11.1694
▁Area	-11.1695
umb	-11.1699
▁marginal	-11.1705
▁enhancing	-11.1715
▁psychological	-11.1715
▁prop	-11.1715
▁units	-11.1721
▁imbalances	-11.1722
▁Sever	-11.1723
▁station	-11.1727
▁Communities	-11.1727
▁burn	-11.1728
▁deregulation	-11.1729
▁Laeken	-11.174
▁rebuild	-11.174
▁weekend	-11.1757
time	-11.1757
gon	-11.1758
▁spare	-11.1758
▁suppliers	-11.176
▁venture	-11.1764
▁acquired	-11.1767
▁Industrial	-11.1772
▁ties	-11.1773
▁transformation	-11.1773
▁substantive	-11.1777
▁university	-11.1777
▁Iceland	-11.1777
position	-11.1788
▁Climate	-11.1789
▁eligible	-11.1789
▁coalition	-11.179
▁runs	-11.1795
▁demonstrations	-11.1799
▁Working	-11.1803
▁render	-11.1805
▁echo	-11.1808
▁defended	-11.1809
▁rejecting	-11.181
▁tension	-11.1811
▁identifying	-11.1813
▁painful	-11.1814
▁donation	-11.1815
▁wh	-11.1817
▁confine	-11.1825
▁Washington	-11.1827
▁fragile	-11.1827
▁mobilisation	-11.1827
▁protein	-11.1827
▁cruel	-11.1827
▁sheep	-11.183
▁Dr	-11.1835
▁Freedom	-11.1835
▁broadcast	-11.1838
▁components	-11.1839
▁Frattini	-11.1839
▁Swoboda	-11.1839
eva	-11.1841
read	-11.1844
▁34	-11.1847
▁sadly	-11.185
▁compare	-11.185
▁Darfur	-11.1852
▁analyses	-11.1852
▁famous	-11.1852
▁luck	-11.1852
▁refrain	-11.1852
▁specify	-11.1852
▁supranational	-11.1852
▁SIS	-11.1854
▁wars	-11.1857
▁rigid	-11.1864
▁wide-ranging	-11.1864
▁Political	-11.1864
▁intolerable	-11.1864
▁iron	-11.1865
▁proactive	-11.1877
rat	-11.1887
▁zones	-11.1894
▁fe	-11.1898
▁engagement	-11.1899
▁Comp	-11.19
▁arisen	-11.1902
▁circulation	-11.1902
▁macroeconomic	-11.1902
▁postpone	-11.1903
▁2015	-11.1903
▁'I	-11.1905
▁Men	-11.1907
hr	-11.1914
▁domain	-11.1914
▁Guinea	-11.1914
▁odd	-11.1914
fall	-11.1918
▁momentum	-11.192
▁approving	-11.1927
▁cautious	-11.1927
▁practise	-11.1927
▁Michel	-11.1927
▁Forum	-11.1928
▁faces	-11.1936
tur	-11.1936
ker	-11.1947
▁Work	-11.1949
▁girls	-11.195
▁Moscow	-11.1952
▁Organization	-11.1952
▁assumption	-11.1952
▁unsatisfactory	-11.1952
▁intense	-11.1952
▁diplomacy	-11.1953
▁Anyone	-11.1954
▁Indian	-11.1955
7%	-11.1957
▁salaries	-11.1965
▁Tra	-11.1965
▁arm	-11.197
▁Danube	-11.1978
▁eliminating	-11.1978
▁earth	-11.1978
▁consolidated	-11.1978
▁stabilisation	-11.1983
▁Chair	-11.199
▁responded	-11.1991
▁pensioners	-11.1993
▁deprived	-11.1995
▁holds	-11.1995
▁blow	-11.1995
▁backed	-11.1998
▁tensions	-11.1998
▁bananas	-11.2
▁spot	-11.2003
▁derogations	-11.2011
mission	-11.2015
RA	-11.2026
▁guidance	-11.2028
▁located	-11.2028
▁tabling	-11.2028
▁cofinancing	-11.2029
▁fulfilling	-11.2032
▁entails	-11.2032
▁Pack	-11.2034
▁autonomous	-11.2035
▁packaging	-11.2041
▁rescue	-11.2041
2003	-11.2054
▁Paragraph	-11.2054
▁smooth	-11.2056
▁owners	-11.2062
▁detrimental	-11.2067
▁retail	-11.2067
▁defeat	-11.2067
▁Round	-11.2069
▁formulated	-11.207
▁administrations	-11.2075
▁village	-11.208
▁hoping	-11.208
▁3%	-11.2082
pass	-11.2083
8%	-11.2086
▁preserving	-11.2092
▁existed	-11.2099
▁neutral	-11.2101
▁airline	-11.2108
▁seats	-11.2111
▁unite	-11.2112
▁meaningful	-11.2116
▁explanatory	-11.2118
▁harsh	-11.2118
▁Tibetan	-11.2119
▁cloning	-11.2119
▁60%	-11.212
▁Regions	-11.2121
▁42	-11.2121
▁revealed	-11.2122
▁guard	-11.2125
▁underlined	-11.2128
▁sensitivity	-11.2131
▁undermining	-11.2131
▁optimistic	-11.2131
▁seemed	-11.2139
cro	-11.2142
▁Barnier	-11.2144
▁offence	-11.2148
▁25%	-11.2148
DC	-11.215
ö	-11.2157
national	-11.2159
▁exacerbate	-11.217
▁dictate	-11.217
▁lawyers	-11.217
▁ministerial	-11.2171
hir	-11.2173
▁advocates	-11.2175
ulation	-11.2185
til	-11.2188
▁pig	-11.2189
▁grown	-11.2195
▁knew	-11.2196
▁del	-11.2196
▁Tuesday	-11.2209
▁enrich	-11.2209
▁suppress	-11.2209
▁residents	-11.2209
▁wild	-11.2209
▁reactions	-11.221
▁depending	-11.2218
▁Has	-11.222
▁REACH	-11.2222
▁organising	-11.2223
▁definite	-11.2224
▁swiftly	-11.2228
▁preferences	-11.2234
▁Palacio	-11.2235
▁Basque	-11.2235
▁fishery	-11.2235
▁scene	-11.2235
▁newspaper	-11.2242
▁exemptions	-11.2246
▁continuity	-11.2248
▁worthwhile	-11.2248
▁align	-11.2248
▁officially	-11.2258
▁hypocrisy	-11.2261
▁typical	-11.2261
worth	-11.2262
▁bears	-11.2266
▁settle	-11.2269
▁subsidy	-11.2269
▁mines	-11.2269
-making	-11.2273
▁summary	-11.2275
▁Equality	-11.2277
▁leg	-11.228
▁blocked	-11.2282
▁accountable	-11.2284
▁insecurity	-11.2285
impl	-11.2286
▁Christmas	-11.2287
▁Poettering	-11.2287
▁software	-11.2287
▁delivery	-11.2293
▁indications	-11.2294
▁suddenly	-11.2295
▁eco	-11.2297
▁marking	-11.23
pproval	-11.2307
▁learnt	-11.2318
▁misleading	-11.2318
▁disappointing	-11.2319
▁smoke	-11.2326
▁knowledge-based	-11.2329
▁mutually	-11.2333
▁Bolkestein	-11.2339
▁issuing	-11.234
▁alarm	-11.2341
▁noticed	-11.2346
▁Concerning	-11.2352
▁vigilant	-11.2352
▁dismiss	-11.2353
▁bid	-11.2358
active	-11.2365
▁pursuit	-11.2366
▁breed	-11.2366
▁55	-11.2366
▁contradict	-11.2371
▁listed	-11.2378
▁prosecution	-11.2379
▁senior	-11.2379
▁worker	-11.2379
▁tariffs	-11.2381
▁Pen	-11.2391
▁recipient	-11.2392
▁caution	-11.2392
▁65	-11.2393
▁heat	-11.2394
▁proves	-11.2402
▁capacities	-11.2405
▁Han	-11.2405
▁distortions	-11.2407
▁attended	-11.241
▁breaches	-11.2412
▁apologise	-11.2418
▁arbitrary	-11.2418
▁refusing	-11.2418
emp	-11.2431
▁College	-11.2432
▁tendency	-11.2432
▁infringements	-11.2432
▁expresses	-11.2433
▁mercury	-11.2445
▁carriers	-11.2451
▁handle	-11.2452
▁intensify	-11.2458
▁books	-11.2463
▁premature	-11.2472
▁frontiers	-11.2475
▁Serbian	-11.2479
▁Gender	-11.2485
▁injustice	-11.2485
▁transportation	-11.2495
▁pre-accession	-11.2498
▁chief	-11.2512
▁ECHO	-11.2512
▁propaganda	-11.2512
▁twelve	-11.2512
▁accomplish	-11.2512
▁modernise	-11.2514
▁distinct	-11.2519
taking	-11.2519
▁restriction	-11.2524
▁catastrophe	-11.2525
▁redundancies	-11.2525
▁Islands	-11.2525
▁streets	-11.2532
▁moderate	-11.2539
▁merits	-11.2545
▁irre	-11.2549
▁God	-11.2552
▁scandalous	-11.2553
▁judges	-11.2555
▁capabilities	-11.2565
▁awaiting	-11.2565
▁thoughts	-11.2566
▁wholly	-11.2566
▁partial	-11.2576
▁Fifth	-11.2579
hop	-11.258
▁misuse	-11.2581
ica	-11.2584
▁disability	-11.2585
▁vaccine	-11.2592
▁complementary	-11.2594
▁fruitful	-11.2597
▁gaps	-11.2601
▁weapon	-11.2604
▁deterioration	-11.2606
▁household	-11.2606
▁Commissioner's	-11.2618
teroperability	-11.2619
▁'yes'	-11.2619
▁opponents	-11.2621
▁Pe	-11.2624
▁Yugoslav	-11.2631
▁III	-11.2638
TS	-11.2639
▁However	-11.2641
▁machine	-11.2645
▁incorrect	-11.2646
▁advocated	-11.2647
▁biotechnology	-11.2648
▁officers	-11.2652
mark	-11.2653
▁lengthy	-11.2657
▁devastating	-11.266
▁excise	-11.266
▁shut	-11.266
▁high-level	-11.2662
▁Val	-11.2664
▁condemning	-11.2667
▁da	-11.2667
▁counterfeiting	-11.2668
▁judgement	-11.2668
▁successes	-11.267
▁teach	-11.2672
▁undermined	-11.2672
ibility	-11.2676
▁adapting	-11.2676
▁obstruct	-11.2687
▁virtue	-11.2687
▁massacre	-11.2687
▁Much	-11.2692
▁definitions	-11.2692
lay	-11.2692
head	-11.2696
▁mixed	-11.2699
▁Mugabe	-11.2701
▁Next	-11.2701
▁taxpayers'	-11.2703
▁Herzegovina	-11.2714
▁redundant	-11.2714
▁unambiguous	-11.2714
▁Trans	-11.2715
▁pave	-11.2716
▁prohibition	-11.2716
▁realities	-11.2718
-B	-11.2719
disproportionate	-11.2723
▁nationality	-11.2726
▁Surely	-11.2728
▁formed	-11.2736
rop	-11.2739
▁structured	-11.2741
▁contradictory	-11.2742
▁Bulgarian	-11.2743
▁rape	-11.2749
▁5%	-11.275
▁automatic	-11.2755
▁centuries	-11.2755
▁inspectors	-11.2756
▁crew	-11.2756
▁bigger	-11.2758
even	-11.2758
cer	-11.2763
▁Small	-11.2769
▁certificate	-11.2769
▁sooner	-11.2772
▁accus	-11.2776
▁academic	-11.2783
▁inclusive	-11.2783
▁indigenous	-11.2783
▁evil	-11.2783
▁profession	-11.2795
▁Qu	-11.2797
▁operates	-11.28
▁privileged	-11.2803
▁broaden	-11.2805
▁allies	-11.281
▁frequent	-11.2811
▁38	-11.2815
▁-B4-0	-11.2824
▁ineffective	-11.2824
▁Southern	-11.2824
▁grip	-11.2825
▁loud	-11.2825
▁'in	-11.2829
▁constituents	-11.2833
▁buying	-11.2835
▁geared	-11.2835
▁memory	-11.2838
Europe	-11.2838
▁stabilise	-11.2852
ret	-11.2865
▁liberalise	-11.2866
▁43	-11.2867
▁exhaust	-11.2878
▁Ver	-11.2891
▁Natura	-11.2893
▁penal	-11.2897
▁teaching	-11.2906
hu	-11.2908
▁finger	-11.2909
▁cold	-11.2913
▁champion	-11.2921
▁behave	-11.2921
▁judgments	-11.2922
▁hostage	-11.2923
▁permits	-11.2928
▁channel	-11.2932
▁Questions	-11.2933
è	-11.2935
▁robust	-11.2935
▁authors	-11.2938
▁proportionality	-11.2949
▁insult	-11.2949
▁seriousness	-11.2955
▁shock	-11.2959
▁coins	-11.2975
▁competitors	-11.2977
▁trigger	-11.2977
▁acute	-11.2977
▁correction	-11.298
▁assent	-11.2981
▁alert	-11.2981
▁absent	-11.2991
▁conventional	-11.3003
▁homosexual	-11.3005
▁incompatible	-11.3005
▁breath	-11.3005
group	-11.3008
▁discovered	-11.3009
▁winner	-11.3021
bl	-11.3021
▁Conservative	-11.3023
▁seas	-11.3029
▁Cotonou	-11.3033
▁belongs	-11.3037
▁departments	-11.304
13	-11.3042
▁deliberations	-11.3047
▁epidemic	-11.3047
▁excessively	-11.3049
▁restricting	-11.3052
▁certification	-11.3062
▁organs	-11.3064
▁slowly	-11.3066
▁highlighting	-11.3075
▁schedule	-11.3075
▁vitally	-11.3077
▁tested	-11.3084
▁hitherto	-11.309
▁CE	-11.3094
human	-11.3096
▁1991	-11.3104
▁liberty	-11.3104
▁minimal	-11.3104
▁continually	-11.3108
▁Her	-11.311
▁allowances	-11.3115
▁costly	-11.3117
▁Azerbaijan	-11.3118
▁well-known	-11.3118
▁sentences	-11.3121
▁reception	-11.3122
▁Aid	-11.3125
▁limitations	-11.3125
▁Together	-11.3132
▁lift	-11.3141
▁contamination	-11.3147
▁description	-11.3147
▁reunification	-11.3147
char	-11.3151
▁Mon	-11.3152
▁ideology	-11.3161
▁well-being	-11.3161
▁wood	-11.3161
▁awarded	-11.3162
▁Pan	-11.317
▁differing	-11.317
▁imperialist	-11.3175
▁ridiculous	-11.3175
▁weakness	-11.3175
▁Chile	-11.3176
Y	-11.3178
-level	-11.3182
▁cheaper	-11.3188
▁premise	-11.319
▁Finance	-11.319
▁attitudes	-11.3191
▁newspapers	-11.3195
▁allocate	-11.3203
▁plus	-11.3207
▁equ	-11.3209
▁textiles	-11.3212
▁feelings	-11.3215
▁70%	-11.3219
▁75	-11.3224
▁charged	-11.3229
▁Sakharov	-11.3233
▁Fortunately	-11.3247
▁Turning	-11.3247
▁expecting	-11.3248
▁site	-11.3255
▁Accordingly	-11.326
▁embryo	-11.3261
▁tunnel	-11.3261
▁unclear	-11.3261
▁prostitution	-11.3262
95	-11.3266
▁reformed	-11.3268
▁Putin	-11.3276
▁pro-	-11.3278
▁Norway	-11.3278
▁mad	-11.3282
▁poses	-11.329
▁interrupt	-11.329
▁sub-	-11.3296
▁reinforcing	-11.3305
▁hamper	-11.3305
▁classification	-11.3306
▁returning	-11.3306
▁season	-11.3311
▁Global	-11.3318
▁quantitative	-11.3319
▁liberalization	-11.3321
ssed	-11.3323
▁disarmament	-11.3334
▁recourse	-11.3334
▁boundaries	-11.3334
▁murdered	-11.334
crat	-11.3341
▁papers	-11.3344
▁diminish	-11.3348
▁reputation	-11.3348
▁trialogue	-11.3348
▁frank	-11.3351
ough	-11.3354
▁revise	-11.336
9%	-11.3361
▁translated	-11.3362
▁cooperating	-11.3363
▁predecessor	-11.3363
▁Media	-11.3363
▁intent	-11.3363
▁hunt	-11.3365
▁Sport	-11.3371
▁Mercosur	-11.3377
▁eurozone	-11.3377
▁incapable	-11.3377
▁scourge	-11.3377
000	-11.3379
▁deeper	-11.338
▁ruin	-11.338
▁tele	-11.3382
▁severely	-11.339
▁anybody	-11.3392
▁1989	-11.3392
▁pending	-11.3393
▁supporters	-11.3398
n-discrimination	-11.3399
▁viewpoint	-11.3401
▁assumed	-11.3403
▁countryside	-11.3405
▁aggressive	-11.3407
▁substitute	-11.3407
▁formulate	-11.3408
etting	-11.3415
▁consume	-11.3416
▁Chernobyl	-11.3421
▁Whether	-11.3421
▁impunity	-11.3421
▁collected	-11.343
▁Par	-11.3431
▁Seventh	-11.3436
▁impartial	-11.3436
▁laundering	-11.3436
▁Gra	-11.3438
▁petitions	-11.3439
▁recognized	-11.3447
▁gesture	-11.3451
spir	-11.3452
▁qualitative	-11.3465
▁pen	-11.3479
▁Posselt	-11.348
▁drought	-11.348
▁maternity	-11.348
▁regulator	-11.3489
▁drastic	-11.3494
▁Meanwhile	-11.3495
▁fatal	-11.3497
cultural	-11.3497
▁profitable	-11.3502
▁possess	-11.3502
IS	-11.3506
▁argued	-11.3509
▁promising	-11.351
▁silent	-11.351
OP	-11.351
ó	-11.3511
▁breaking	-11.3511
cum	-11.3514
▁resident	-11.3514
▁fell	-11.3516
▁Further	-11.3524
▁pornography	-11.3524
▁Title	-11.3524
▁launching	-11.3541
▁Equal	-11.3548
▁administer	-11.3554
▁forecasts	-11.3555
iz	-11.3555
berg	-11.3564
▁eradicate	-11.3569
▁stood	-11.3569
▁organisms	-11.3569
▁ingredients	-11.3569
▁retained	-11.3569
gri	-11.3574
▁CFP	-11.3584
▁UEN	-11.3584
2004	-11.3599
▁cigarette	-11.3599
▁mainstreaming	-11.3599
▁self-determin	-11.3599
▁capitalist	-11.3599
▁appropriately	-11.3601
▁elect	-11.3606
mber	-11.3613
▁Personally	-11.3614
ung	-11.3615
▁municipal	-11.3629
▁Euratom	-11.3629
▁liberties	-11.3629
▁finished	-11.3631
▁crossing	-11.3634
▁entirety	-11.3636
▁Three	-11.3644
▁punished	-11.3645
▁Customs	-11.3659
▁olive	-11.3659
▁likewise	-11.3659
bon	-11.3662
aff	-11.367
▁pattern	-11.3674
▁ticket	-11.3674
▁recommends	-11.3676
▁modes	-11.3678
▁participated	-11.3678
▁simpler	-11.3684
▁fossil	-11.3689
▁clothing	-11.3689
▁Sahara	-11.3689
▁prize	-11.3692
▁fairer	-11.3694
▁'A	-11.3702
▁tactic	-11.3704
▁commerce	-11.3719
DA)	-11.3725
▁fix	-11.3731
▁technically	-11.3733
▁guiding	-11.3734
▁90%	-11.3735
ution	-11.3743
▁formation	-11.3745
▁anticipate	-11.3746
▁Foundation	-11.3749
▁storm	-11.3749
take	-11.3751
▁exposure	-11.3764
▁vaccination	-11.3764
▁installations	-11.3765
▁ease	-11.3766
▁drink	-11.3768
▁worry	-11.3768
ami	-11.3771
▁'p	-11.3775
▁gold	-11.3778
▁hearings	-11.3779
▁breast	-11.3779
▁subscribe	-11.3779
▁entities	-11.3779
▁pushing	-11.378
▁prohibited	-11.3784
▁lifting	-11.3792
45	-11.3793
▁Venezuela	-11.3794
▁excellence	-11.3794
▁prudent	-11.3794
▁box	-11.3794
▁expire	-11.3795
▁missed	-11.3795
▁fan	-11.3796
▁judged	-11.3797
▁guided	-11.3798
▁(M	-11.3805
▁activists	-11.381
▁mistaken	-11.3811
▁conducting	-11.3817
▁Watson	-11.3825
▁injured	-11.3825
▁abide	-11.3825
▁master	-11.3826
▁settled	-11.3832
▁ruled	-11.3834
upreme	-11.384
▁MEDA	-11.384
war	-11.3843
▁insisted	-11.3843
▁Ben	-11.385
▁Network	-11.3856
▁dismantling	-11.3856
▁admitted	-11.3865
▁harmonising	-11.3871
▁secretariat	-11.3871
▁viability	-11.3871
▁attempted	-11.3875
▁threatens	-11.3876
▁destroying	-11.3879
▁Again	-11.3884
▁install	-11.3886
▁departure	-11.3886
▁guardian	-11.3887
▁bull	-11.3892
▁prisons	-11.3896
▁shipyard	-11.3902
▁Russia's	-11.3902
▁relevance	-11.3917
▁inherent	-11.3917
▁duration	-11.3917
▁measured	-11.3924
▁underlines	-11.3926
▁hoc	-11.3927
▁600	-11.3938
▁identical	-11.3948
▁province	-11.3948
▁grasp	-11.3948
▁deemed	-11.3948
▁accusations	-11.3948
▁multi-	-11.3951
▁imbalance	-11.3954
▁professions	-11.3955
-fi	-11.3957
▁VI	-11.396
▁welcoming	-11.3963
▁nice	-11.3965
▁distortion	-11.3965
▁confronted	-11.3975
▁uncertain	-11.3978
▁nutrition	-11.3979
▁opposing	-11.3979
▁wrote	-11.3979
▁Good	-11.398
▁Sixth	-11.398
▁chose	-11.3989
▁Conservatives	-11.399
▁hatred	-11.3994
win	-11.3999
▁mothers	-11.4005
▁austerity	-11.401
▁striking	-11.401
▁unusual	-11.401
▁colour	-11.401
▁touched	-11.4012
▁100%	-11.4013
▁peripheral	-11.4025
▁alleviate	-11.4025
▁marriage	-11.4025
▁separately	-11.404
▁bond	-11.4041
▁oblige	-11.4043
14	-11.4048
▁Australia	-11.4056
▁Ethiopia	-11.4056
▁discriminatory	-11.4056
▁diversification	-11.4056
▁supplied	-11.4056
▁veterinary	-11.4056
▁opt-out	-11.4057
▁re-establish	-11.4071
▁sick	-11.4071
▁Sarkozy	-11.4072
▁grand	-11.4074
▁informing	-11.4075
▁spreading	-11.4084
▁diploma	-11.4087
▁precedence	-11.4088
▁unrealistic	-11.4088
▁dominant	-11.4088
▁globalised	-11.409
▁arrange	-11.4101
▁Peter	-11.4105
▁partially	-11.4119
▁somewhere	-11.4124
▁altogether	-11.4135
▁Support	-11.4135
▁Gulf	-11.4135
▁G8	-11.4136
▁blocking	-11.4148
▁parameters	-11.4151
▁attaches	-11.4158
▁appreciated	-11.4159
▁Erika	-11.4166
▁translate	-11.4167
▁promptly	-11.4171
▁prerogative	-11.4182
▁reopen	-11.4182
fish	-11.4184
▁pride	-11.4199
▁perception	-11.42
▁neglect	-11.4201
▁Innovation	-11.4214
▁exemplary	-11.4214
▁extradition	-11.4214
▁phenomena	-11.4214
▁communist	-11.4215
▁chapters	-11.4217
▁replacing	-11.4219
▁85	-11.4229
▁thrust	-11.423
▁ILO	-11.423
▁coexistence	-11.423
18	-11.4238
▁discretion	-11.4246
▁clash	-11.4246
▁illusion	-11.4246
▁precarious	-11.4261
wer	-11.4264
▁deepening	-11.4267
▁decommissioning	-11.4268
▁emphasising	-11.4277
▁Gothenburg	-11.4277
▁applause	-11.4277
▁antibiotic	-11.4277
terror	-11.4282
▁sentenced	-11.4293
▁perpetrators	-11.4294
▁replacement	-11.4307
-T	-11.4309
▁cosmetic	-11.4309
▁impressive	-11.4309
▁plenty	-11.4309
▁proliferation	-11.4309
▁relax	-11.4309
cha	-11.4315
3%	-11.4317
▁transposed	-11.432
▁Taliban	-11.4325
▁brain	-11.4326
▁small-scale	-11.4327
▁waiver	-11.4329
▁Govern	-11.4338
rect	-11.4341
▁airspace	-11.4341
▁Galicia	-11.4342
▁reactors	-11.4344
-use	-11.4356
▁prescribe	-11.4358
▁rigour	-11.4358
pers	-11.4359
▁industrialised	-11.4365
▁independently	-11.4365
▁Slovenian	-11.4369
▁sun	-11.4373
▁accede	-11.4374
▁panel	-11.4374
▁redress	-11.4374
▁anticipated	-11.4377
▁racist	-11.439
▁rush	-11.439
gging	-11.4402
▁provisional	-11.4405
▁relaunch	-11.4406
-de	-11.441
regional	-11.4411
burg	-11.4413
▁Wallström	-11.4422
▁pan-European	-11.4422
▁dark	-11.4422
▁dozen	-11.4423
▁incidentally	-11.4423
▁anyway	-11.4435
▁'The	-11.4438
▁cultivation	-11.4438
▁encompass	-11.4438
▁inter-	-11.4439
▁confined	-11.444
Maritime	-11.4443
▁cur	-11.4452
▁additives	-11.4455
▁extract	-11.4459
graph	-11.4463
▁Korean	-11.4465
▁migratory	-11.4471
▁Reding	-11.4477
▁announce	-11.4477
▁disappeared	-11.4478
▁Environmental	-11.4486
▁John	-11.4487
▁restoring	-11.4487
▁loophole	-11.4503
▁sophisticated	-11.4503
▁shameful	-11.4512
▁legislate	-11.452
▁negotiator	-11.452
▁equipped	-11.452
uck	-11.4523
▁delivering	-11.453
▁exercising	-11.4536
▁preferential	-11.4536
▁steer	-11.4537
▁trip	-11.4541
▁stone	-11.4545
▁taxpayer	-11.4548
▁comfort	-11.4553
▁purchasing	-11.4553
▁virus	-11.4553
▁repressive	-11.4553
▁permission	-11.4554
▁confused	-11.4566
▁frame	-11.4569
inter	-11.4569
▁(COM(	-11.4569
▁44	-11.4573
▁challenging	-11.4585
▁prominent	-11.4585
▁resume	-11.4586
▁cash	-11.4588
▁Jerusalem	-11.4602
productive	-11.4603
▁Initiative	-11.4618
▁creativity	-11.4618
▁paramount	-11.4618
▁unresolved	-11.4618
▁deliberate	-11.4622
▁counterfeit	-11.4625
▁strongest	-11.463
▁accompanying	-11.4632
▁secured	-11.4634
▁Johannesburg	-11.4635
▁currencies	-11.4635
DA	-11.4639
-time	-11.4642
▁Sri	-11.4651
▁Somalia	-11.4651
▁pit	-11.4655
▁List	-11.4667
▁maxim	-11.4668
▁unwilling	-11.4668
▁exceptionally	-11.4672
▁crop	-11.4673
▁renew	-11.4676
▁'C	-11.4678
▁England	-11.4685
▁incorporating	-11.4685
▁Angola	-11.4685
▁motivated	-11.469
▁unconditional	-11.4701
▁harassment	-11.4702
▁deposit	-11.4705
▁differentiate	-11.4707
▁expanding	-11.4708
▁ski	-11.4713
▁witnessing	-11.4714
-to-	-11.4717
▁Eurojust	-11.4718
▁Lanka	-11.4718
▁Monitoring	-11.4718
▁Change	-11.4718
▁screening	-11.4718
▁safeguarded	-11.4719
▁speedy	-11.4724
▁15%	-11.4726
▁aquaculture	-11.4735
▁colonial	-11.4735
▁mining	-11.4735
▁gene	-11.4739
▁encounter	-11.4747
▁exercised	-11.475
▁linking	-11.4758
▁upheld	-11.4768
▁phone	-11.4768
▁ratio	-11.4783
▁Caribbean	-11.4785
▁EDF	-11.4785
▁contributor	-11.4785
▁dependency	-11.4786
▁submitting	-11.479
bra	-11.4795
▁Lomé	-11.4802
▁adjourned	-11.4802
▁restored	-11.4802
▁prioritise	-11.4802
▁emphatically	-11.4802
▁disadvantages	-11.4806
▁cross-	-11.4818
▁Nobody	-11.4819
▁salary	-11.4819
▁entity	-11.4819
▁imm	-11.4821
▁stipulates	-11.4822
▁gaining	-11.483
▁exceeded	-11.4833
▁Business	-11.4835
▁reciprocity	-11.4835
▁'European	-11.4836
▁successive	-11.4839
aw	-11.484
▁investigated	-11.4848
▁surface	-11.4852
S)	-11.4862
▁wisdom	-11.4869
▁alive	-11.487
▁optimism	-11.4871
▁eliminated	-11.4875
▁stipulat	-11.488
▁Jarzembowski	-11.4886
▁branch	-11.4886
▁livelihood	-11.4886
▁signatures	-11.4886
▁overcoming	-11.4886
entrepreneurship	-11.4898
▁pushed	-11.4899
▁assisting	-11.49
▁250	-11.4901
▁Erasmus	-11.4903
▁duty-free	-11.4905
▁barrier	-11.4906
▁street	-11.4911
▁Corbett	-11.492
▁mouth	-11.492
▁presidencies	-11.492
▁vessel	-11.492
▁Have	-11.4925
▁unification	-11.493
▁regain	-11.4937
▁journalist	-11.4943
▁infringe	-11.4952
▁COM	-11.4954
▁defect	-11.4955
▁rebel	-11.4956
▁Europe-wide	-11.4956
▁sanction	-11.4971
▁hectare	-11.4971
▁oppression	-11.4973
▁deployment	-11.4974
▁duly	-11.4976
▁Very	-11.4979
hip	-11.4983
ssing	-11.4987
▁volunteer	-11.4988
▁anxious	-11.4989
▁rank	-11.4989
▁multiple	-11.4989
▁persistent	-11.499
▁curb	-11.4991
▁enact	-11.4992
▁Tak	-11.4993
▁afterwards	-11.4997
.5%	-11.4999
▁oppress	-11.5004
▁copy	-11.5005
▁elite	-11.5006
▁owing	-11.5006
ught	-11.5006
▁Unless	-11.5008
▁39	-11.5008
▁Four	-11.501
▁affordable	-11.5014
▁confrontation	-11.5021
▁instruct	-11.5022
▁Nuclear	-11.5023
▁Japanese	-11.5024
▁passive	-11.5032
▁arrival	-11.504
▁deficiencies	-11.504
▁evolution	-11.504
▁insofar	-11.504
▁servants	-11.504
▁142)	-11.504
▁modify	-11.504
▁2%	-11.5043
-on	-11.5043
word	-11.5047
▁insert	-11.5051
▁Sunday	-11.5057
▁radiation	-11.5057
▁TV	-11.5063
▁Dan	-11.5069
▁'S	-11.507
▁splendid	-11.5075
▁Nothing	-11.5075
▁emergence	-11.5075
▁conversion	-11.5075
▁fairness	-11.5075
▁Nazi	-11.5078
some	-11.5081
▁utterly	-11.5082
▁simultaneously	-11.5082
▁hypocritical	-11.5092
▁PHARE	-11.5109
▁absorb	-11.5109
▁hidden	-11.5109
▁pricing	-11.5109
▁Besides	-11.5109
▁custom	-11.5117
▁obligatory	-11.5144
▁prosperous	-11.5144
▁C6-	-11.5144
▁sporting	-11.5144
▁democrat	-11.515
▁boats	-11.515
count	-11.5152
▁thrown	-11.5152
▁inspired	-11.5154
▁straightforward	-11.5161
▁Tri	-11.5168
▁standardisation	-11.5169
▁tomorrow's	-11.5176
▁EGF	-11.5179
▁music	-11.518
▁'re	-11.5183
miss	-11.5184
▁120	-11.5184
▁designation	-11.5188
lon	-11.5195
▁evaluating	-11.5196
▁pronounce	-11.5196
▁restoration	-11.5196
▁Games	-11.5196
▁'m	-11.5199
▁unlikely	-11.52
ED	-11.521
▁protectionist	-11.5222
▁coup	-11.5224
▁coincide	-11.5231
▁command	-11.5231
▁ethics	-11.5231
▁trace	-11.5231
▁recruitment	-11.5233
▁updated	-11.5242
-building	-11.5249
▁Vitorino	-11.5249
▁rehabilitation	-11.5249
▁managers	-11.5255
▁lawyer	-11.5266
▁ASEAN	-11.5267
▁machinery	-11.5268
▁weaker	-11.5268
rov	-11.5271
lessness	-11.528
▁attribute	-11.5284
▁thirty	-11.5284
▁proportionate	-11.5291
▁politician	-11.5292
▁educate	-11.5302
▁verify	-11.5302
▁coverage	-11.5309
▁co-operation	-11.532
▁decentralised	-11.532
▁'co	-11.5332
ä	-11.5337
▁repeal	-11.5337
▁Sometimes	-11.5337
develop	-11.5341
▁occupational	-11.5355
▁Armenia	-11.5355
▁shipbuilding	-11.5355
▁dramatically	-11.5357
print	-11.5357
▁vigorously	-11.5368
▁Oomen-Ruijten	-11.5373
▁Spring	-11.5373
▁imprisoned	-11.5373
▁disappearance	-11.5375
▁dogma	-11.5379
▁pure	-11.539
▁signature	-11.5391
▁incredibly	-11.5391
▁navigation	-11.5391
▁Pacific	-11.5391
▁petrol	-11.5391
▁classes	-11.5399
▁Annual	-11.5408
▁prolong	-11.5409
house	-11.5417
new	-11.5421
▁HIV	-11.5426
▁Liikanen	-11.5426
▁blatant	-11.5426
▁uranium	-11.5426
▁summarise	-11.5426
▁perceived	-11.5435
▁neglected	-11.5441
▁accommodate	-11.5444
▁lifted	-11.5454
▁damaged	-11.5456
▁ignoring	-11.5462
▁prosecutor	-11.5462
▁Chad	-11.5464
▁assistants	-11.5464
▁nationalism	-11.5471
▁risen	-11.5474
▁smuggling	-11.548
▁transplant	-11.548
▁Min	-11.5487
▁evaluated	-11.5488
▁camp	-11.5494
▁TACIS	-11.5498
▁Costa	-11.5498
ternal	-11.5502
▁Lukashenko	-11.5516
▁allegations	-11.5516
▁frustration	-11.5516
▁rough	-11.5516
▁distress	-11.5516
▁selected	-11.552
▁fundamentalism	-11.5525
▁bombing	-11.5526
▁GM	-11.5529
▁Cancún	-11.5534
▁Lehne	-11.5534
▁unjustified	-11.5535
▁summ	-11.5536
▁dominated	-11.5542
▁observer	-11.5548
▁ELDR	-11.5553
▁drift	-11.5553
▁self	-11.5555
▁run-up	-11.5556
▁cure	-11.5559
▁print	-11.5564
▁Up	-11.5564
▁League	-11.5571
▁portfolio	-11.5571
▁timing	-11.5571
▁democrats	-11.5574
(3)	-11.5577
n't	-11.5578
▁goodwill	-11.5589
▁suicide	-11.5589
▁Water	-11.5589
▁select	-11.5599
▁consulting	-11.5601
q	-11.5607
▁Berlusconi	-11.5607
▁completing	-11.5607
▁quiet	-11.5607
▁horse	-11.5607
▁abolishing	-11.5616
zz	-11.5616
▁saved	-11.5622
▁Cohn-Bendit	-11.5625
▁Jean	-11.5626
▁(the	-11.5637
▁eleven	-11.5644
▁score	-11.5645
▁contempt	-11.5662
▁beautiful	-11.5662
▁corridor	-11.5662
▁devices	-11.5662
▁millennium	-11.5662
▁Workers	-11.5665
▁Progress	-11.5679
▁commence	-11.568
▁Socrates	-11.568
▁poultry	-11.568
▁authoritarian	-11.5681
▁comprise	-11.5681
▁checked	-11.5681
▁Scientific	-11.5699
▁conservative	-11.5699
▁retention	-11.5699
▁selective	-11.57
▁stipulated	-11.5701
▁forgetting	-11.5709
▁reasonably	-11.5717
▁Agricultural	-11.5717
▁advocating	-11.5717
▁breakthrough	-11.5717
▁concerted	-11.5717
▁consolidating	-11.5717
▁landscape	-11.5717
▁Drug	-11.5717
▁deadlock	-11.5718
▁Director	-11.5719
▁700	-11.5723
-oriented	-11.5736
▁forefront	-11.5736
▁trained	-11.5736
▁dying	-11.5736
NA	-11.5743
col	-11.575
dict	-11.5752
▁contractual	-11.5756
▁disturbing	-11.5761
▁rain	-11.5769
▁frontier	-11.577
round	-11.577
▁Enlargement	-11.5773
▁Ferrero-Waldner	-11.5773
▁GSP	-11.5773
▁dubious	-11.5773
▁hygiene	-11.5773
▁imprisonment	-11.5773
▁weather	-11.5773
▁Mann	-11.5781
▁suspected	-11.5788
▁Böge	-11.5791
▁striving	-11.5791
▁smart	-11.5791
▁admission	-11.5791
▁tree	-11.5792
OS	-11.5793
▁occurring	-11.5793
▁permanently	-11.5803
▁stepping	-11.5822
-day	-11.5827
▁gallery	-11.5828
▁piracy	-11.5828
▁proclaim	-11.5828
▁assuming	-11.5828
▁resign	-11.5828
▁flying	-11.5829
▁Langen	-11.5833
▁kilometres	-11.5835
▁inspect	-11.5844
▁reiterated	-11.5848
1%	-11.5857
▁eve	-11.5864
▁confirmation	-11.5865
▁Belarusian	-11.587
▁formulation	-11.587
▁postponement	-11.5871
tabilisation	-11.5877
2%	-11.5877
▁Guantánamo	-11.5884
▁embrace	-11.5884
RE	-11.5887
▁Burmese	-11.5903
▁imposition	-11.5903
▁urging	-11.5903
▁realize	-11.5906
▁disturb	-11.5914
▁Mauritania	-11.5922
▁overview	-11.5922
▁competing	-11.5922
▁spell	-11.5922
▁Ju	-11.5925
▁preserved	-11.5928
ney	-11.5931
▁harder	-11.594
▁motive	-11.5941
tti	-11.5944
▁basin	-11.5949
▁derive	-11.5951
▁pointless	-11.5958
▁incredible	-11.596
▁incurred	-11.596
▁reap	-11.5962
▁disrupt	-11.5966
▁centralised	-11.5969
▁male	-11.5975
▁conform	-11.5978
▁gambling	-11.5978
▁cereals	-11.5979
▁49	-11.598
▁flee	-11.5985
▁validity	-11.5988
▁fortunately	-11.5995
-minded	-11.5997
▁replied	-11.5997
▁studied	-11.5997
▁unequal	-11.5997
▁pretend	-11.5997
-of-	-11.5998
▁46	-11.6005
▁theoretical	-11.6016
▁fool	-11.6018
▁41	-11.6025
▁800	-11.6032
▁communautaire	-11.6035
▁Barón	-11.6036
▁brave	-11.6036
nd/or	-11.6038
▁47	-11.6047
face	-11.6052
2009	-11.6055
▁window	-11.6075
▁scarcely	-11.6079
▁chaos	-11.6093
▁eradication	-11.6093
▁readiness	-11.6093
▁stimulating	-11.6093
▁Lamy	-11.6093
▁discard	-11.6093
▁expanded	-11.6097
▁liable	-11.6101
▁catches	-11.6103
ón	-11.611
▁deployed	-11.6111
▁bottle	-11.6112
▁Accession	-11.6113
▁carries	-11.6115
▁Cha	-11.6125
—	-11.6131
▁lobbyists	-11.6132
▁Harbour	-11.615
▁lorries	-11.615
▁provoke	-11.615
▁Section	-11.6152
▁encountered	-11.6155
▁analysed	-11.6164
▁allowance	-11.6164
▁weakened	-11.6165
▁shocking	-11.6167
▁Opportunities	-11.617
▁PNR	-11.617
▁Scottish	-11.617
▁(B5-	-11.617
▁Schmid	-11.617
▁part-time	-11.6177
▁radically	-11.6179
▁scr	-11.6181
▁detained	-11.6189
▁timber	-11.6189
▁vis-à-vis	-11.6189
▁sentiment	-11.6189
▁unilaterally	-11.6196
▁capitalism	-11.6207
▁Particular	-11.6208
▁proving	-11.6208
▁honesty	-11.6227
▁compatibility	-11.6228
▁dismantle	-11.6228
▁neoliberal	-11.6228
▁barely	-11.6228
▁coin	-11.6229
EM	-11.6234
▁Tu	-11.6234
▁driver	-11.6239
▁prevailing	-11.6243
▁minimise	-11.6243
▁underway	-11.6244
CA	-11.6245
▁corrupt	-11.6245
▁Thessaloniki	-11.6247
▁comparative	-11.6247
▁replies	-11.6247
▁serving	-11.6247
▁visibility	-11.6247
▁handicap	-11.6247
▁internet	-11.6248
▁reserved	-11.6251
▁Citizens	-11.6257
▁Whatever	-11.626
▁temptation	-11.6266
▁infection	-11.6266
▁walk	-11.6267
▁federalist	-11.6272
stitut	-11.6274
▁equip	-11.6284
▁Bangemann	-11.6286
▁mankind	-11.6286
▁loyal	-11.6286
▁illness	-11.6287
▁Instrument	-11.6305
▁Professor	-11.6305
▁unknown	-11.6305
▁submission	-11.6306
▁undemocratic	-11.6308
▁calculated	-11.6313
09	-11.6314
▁occupying	-11.6323
▁Madeira	-11.6325
▁aggression	-11.6325
▁ascertain	-11.6325
▁tune	-11.6326
▁seal	-11.6343
▁roadmap	-11.6345
▁geopolitical	-11.6345
▁architecture	-11.6345
▁slip	-11.6347
▁accessibility	-11.6349
▁deepen	-11.6356
▁loan	-11.6359
▁Crespo	-11.6364
▁Ministry	-11.6364
▁emotional	-11.6365
▁chocolate	-11.6384
▁tanker	-11.6384
▁taught	-11.6384
▁appearance	-11.6392
▁phasing	-11.6404
▁reliability	-11.6404
▁Rehn	-11.6404
▁distant	-11.6404
▁drain	-11.6404
▁Wall	-11.6409
▁Right	-11.6417
▁estimate	-11.642
▁bloc	-11.6421
▁Executive	-11.6423
▁analysing	-11.6423
▁conversation	-11.6423
▁secrecy	-11.6423
▁Everything	-11.6427
▁hang	-11.6427
▁committing	-11.6428
PE	-11.6429
ux	-11.6429
▁Ten	-11.6436
▁slavery	-11.6444
▁farmer	-11.6453
▁Swiss	-11.6463
▁Chapter	-11.6463
▁derived	-11.6466
▁Rwanda	-11.6483
▁empower	-11.6483
▁SME	-11.6485
▁commissioner	-11.6485
▁transaction	-11.6498
▁capita	-11.65
▁emotion	-11.6502
▁Administration	-11.6503
▁shareholders	-11.6503
▁load	-11.6506
▁diet	-11.6507
▁delete	-11.6519
▁Quartet	-11.6523
▁diagnosis	-11.6523
▁offensive	-11.6523
▁insight	-11.6531
DE	-11.6542
▁herself	-11.6543
▁hormone	-11.6543
▁intolerance	-11.6543
economic	-11.6551
à	-11.6563
▁Which	-11.6563
▁discourage	-11.6563
▁expulsion	-11.6563
▁fabric	-11.6563
▁horror	-11.6563
▁equity	-11.6568
▁recruit	-11.6581
▁quoted	-11.6585
▁pet	-11.6589
▁tries	-11.6593
▁Independent	-11.6594
▁Catholic	-11.6603
▁attentive	-11.6603
▁day-to-day	-11.6603
▁prosecute	-11.6603
bro	-11.6617
ix	-11.6618
tomic	-11.6623
▁Jacques	-11.6623
▁evolve	-11.6623
▁imminent	-11.6623
▁legislature	-11.6623
▁advent	-11.6623
▁Sadly	-11.6624
▁readmission	-11.6625
▁countless	-11.6629
▁functional	-11.6634
value	-11.6637
▁forecast	-11.6642
▁pretty	-11.6643
▁artists	-11.6645
▁compound	-11.6645
▁confidentiality	-11.6646
▁unjust	-11.6663
▁commodity	-11.6664
▁patience	-11.6664
▁sceptical	-11.6664
▁worries	-11.6664
▁Sharon	-11.6664
▁Front	-11.6684
▁Refugee	-11.6704
▁indicating	-11.6704
▁motorway	-11.6706
▁standpoint	-11.6706
▁perpetrated	-11.6711
▁sixth	-11.6712
▁honestly	-11.6724
▁condolences	-11.6725
▁milestone	-11.6725
▁corner	-11.6745
▁peacekeeping	-11.6747
PS	-11.6747
▁pool	-11.675
raw	-11.6753
▁52	-11.6759
DP	-11.6765
▁dreadful	-11.6766
▁earliest	-11.6766
▁eligibility	-11.6766
▁restraint	-11.6766
▁slogan	-11.6766
▁imply	-11.6774
▁secular	-11.6786
▁Barrot	-11.6786
▁blackmail	-11.6786
▁extremism	-11.6786
people	-11.6795
ER	-11.6796
range	-11.6802
-minute	-11.6807
▁Robert	-11.6807
▁Statement	-11.6811
90	-11.6812
▁slight	-11.6827
▁Delegation	-11.6827
▁Kurds	-11.6827
▁persecuted	-11.6836
▁desperate	-11.6837
▁passage	-11.6854
board	-11.686
itarian	-11.686
▁IND/DEM	-11.6868
▁dissemination	-11.6868
▁engaging	-11.6868
▁incorporation	-11.6868
▁invoke	-11.6869
▁engineering	-11.6869
▁Take	-11.687
guard	-11.688
▁reluctant	-11.6889
▁responsibly	-11.6889
▁employee	-11.6894
▁Moroccan	-11.691
▁Herman	-11.6915
▁defenders	-11.6919
▁biometric	-11.6931
▁concentrating	-11.6931
▁excluding	-11.6931
▁occurrence	-11.6931
▁auction	-11.6931
▁ballot	-11.6931
▁designated	-11.6935
-and-	-11.6948
▁duplication	-11.6955
▁five-year	-11.6955
▁nowhere	-11.696
power	-11.6965
▁Competition	-11.6972
▁ceasefire	-11.6972
▁outlook	-11.6972
▁David	-11.6972
▁revising	-11.6972
▁methodology	-11.6974
▁trick	-11.6974
ON	-11.6974
▁Algerian	-11.6977
▁bitter	-11.6978
▁Paul	-11.698
▁preferable	-11.6982
▁craft	-11.6993
▁Nepal	-11.6993
▁Stalin	-11.6993
▁lagging	-11.6994
▁leap	-11.6995
▁Georg	-11.7013
n-proliferation	-11.7014
▁Fontaine	-11.7014
▁indicative	-11.7035
▁somehow	-11.7035
discrimination	-11.7035
▁wound	-11.7036
▁visitors	-11.7041
▁Technology	-11.7056
▁mortality	-11.7056
▁shaping	-11.7056
▁capability	-11.7057
▁unequivocal	-11.7063
▁possession	-11.7068
▁cell	-11.7071
▁growers	-11.7072
▁harmony	-11.7077
▁regrettably	-11.7077
▁unreasonable	-11.7077
▁shocked	-11.7086
▁authorise	-11.7087
▁specialised	-11.7095
▁Children	-11.7099
▁levy	-11.712
▁overseas	-11.712
▁migrant	-11.7136
▁choosing	-11.7141
▁tragedies	-11.7141
▁seminar	-11.7141
▁square	-11.7141
▁vigorous	-11.7147
▁Bangladesh	-11.7162
▁invasion	-11.7162
▁paint	-11.7164
▁mid-	-11.7166
terior	-11.7167
▁stepped	-11.7171
ñ	-11.7184
▁McCreevy	-11.7184
▁Seville	-11.7184
▁bought	-11.7184
▁chamber	-11.7184
▁equitable	-11.7184
▁motivation	-11.7184
▁verification	-11.7184
▁Annan	-11.7184
▁stamp	-11.7184
▁Also	-11.7188
▁deleted	-11.7188
▁factories	-11.719
▁sudden	-11.7192
▁utilise	-11.7205
▁hesitate	-11.7205
▁leak	-11.7207
▁transferr	-11.7216
▁disgraceful	-11.7222
▁investigating	-11.7226
▁medium-term	-11.7226
▁somebody	-11.7226
▁struggling	-11.7226
-class	-11.7248
▁catastrophic	-11.7248
▁know-how	-11.7248
▁updating	-11.7248
▁limitation	-11.7251
▁forgive	-11.7252
▁resolutely	-11.7259
-party	-11.726
▁Bonino	-11.7269
▁González	-11.7269
▁cancel	-11.7269
▁capture	-11.7269
Community	-11.7279
▁unreserved	-11.7291
▁Delors	-11.7291
▁Florence	-11.7291
▁tied	-11.7291
▁mediation	-11.7298
▁hydro	-11.7312
▁Dimension	-11.7312
▁Malmström	-11.7312
▁congestion	-11.7312
▁nowadays	-11.7312
▁borrow	-11.7312
▁unlawful	-11.7312
▁omission	-11.7313
▁weakest	-11.7319
▁feet	-11.7324
▁Burundi	-11.7334
▁stimulus	-11.7334
▁poison	-11.7334
▁shore	-11.7335
▁Applause	-11.7356
▁Yemen	-11.7356
▁groundwater	-11.7357
democratic	-11.7364
▁biomass	-11.7378
▁facilitation	-11.7378
▁expel	-11.7378
▁Sir	-11.7384
▁protective	-11.7387
▁charging	-11.7399
▁contaminated	-11.7399
▁macro-economic	-11.7399
▁nonsense	-11.7399
▁up-to-date	-11.7399
▁inspiration	-11.7399
▁Egyptian	-11.7402
▁electrical	-11.7411
▁Anti-	-11.742
▁Category	-11.7421
▁inconsistent	-11.7421
▁interconnection	-11.7421
▁José	-11.7421
▁personality	-11.743
▁Management	-11.7443
▁wheel	-11.7443
▁Medina	-11.7443
▁Berg	-11.7447
▁Cox	-11.7449
▁commendable	-11.7451
▁(SL)	-11.7465
▁WHO	-11.7465
▁controversy	-11.7465
▁deteriorate	-11.7465
▁brand	-11.7467
▁wip	-11.7469
well	-11.7471
▁neutrality	-11.7473
▁Bay	-11.7478
▁Arafat	-11.7487
▁divorce	-11.7487
▁roll-call	-11.7487
▁None	-11.7487
▁instructions	-11.7488
▁advised	-11.7496
▁1.5	-11.7496
-state	-11.7496
▁53	-11.7499
water	-11.7502
with	-11.7504
▁Azores	-11.7509
▁Church	-11.7509
▁Wogau	-11.7531
▁reciprocal	-11.7531
▁overlap	-11.7531
▁ball	-11.7551
▁enemy	-11.7553
▁harvest	-11.7553
▁non-EU	-11.7556
▁offset	-11.756
financing	-11.7563
▁Jordan	-11.7575
▁Kazakhstan	-11.7575
▁Velzen	-11.7575
▁cancellation	-11.7575
▁lifestyle	-11.7575
▁EU-Russia	-11.7575
▁flourish	-11.7575
▁Product	-11.7576
▁75%	-11.7576
▁gear	-11.7581
▁Saudi	-11.7598
▁childcare	-11.7598
▁generating	-11.7598
▁long-standing	-11.7598
▁stretch	-11.7598
▁eager	-11.7598
▁rarely	-11.76
▁disgrace	-11.7602
▁advertise	-11.762
▁Lulling	-11.762
▁misery	-11.762
▁Consider	-11.762
▁resignation	-11.7626
▁breakdown	-11.7642
▁uncontrolled	-11.7642
▁inflict	-11.7642
▁qualify	-11.7642
▁egg	-11.7645
▁continuously	-11.7645
script	-11.7646
▁km	-11.7655
▁Rio	-11.7657
ij	-11.7662
▁Belgrade	-11.7665
▁abstention	-11.7665
▁auspices	-11.7665
▁licensing	-11.7665
▁measuring	-11.7665
▁classified	-11.7666
▁student	-11.7668
▁illnesses	-11.7669
▁foreseen	-11.7669
▁refuge	-11.7678
▁barr	-11.7682
▁Certain	-11.7683
▁smoothly	-11.7684
▁Tribunal	-11.7687
▁feasibility	-11.7687
▁varied	-11.7687
▁polluter	-11.7687
▁assigned	-11.7687
▁Cast	-11.7693
▁LIFE	-11.7709
▁ozone	-11.7709
▁client	-11.7709
▁decree	-11.7709
▁ocean	-11.7709
▁Byrne	-11.7709
▁Countries	-11.7732
▁GNP	-11.7732
▁Merkel	-11.7732
▁dynamism	-11.7732
▁contest	-11.7732
▁Lithuanian	-11.7739
▁Mandelson	-11.7755
▁temperature	-11.7755
▁verdict	-11.7755
▁conformity	-11.7758
▁bone	-11.7763
▁deeds	-11.7772
▁Oostlander	-11.7777
▁arguing	-11.7777
▁atrocities	-11.7777
▁allocating	-11.7777
▁tongue	-11.7778
▁connect	-11.7784
▁convenience	-11.78
▁tuberculosis	-11.78
▁generic	-11.78
▁fragmentation	-11.7801
▁2014	-11.7802
▁alien	-11.7802
▁Cologne	-11.7823
-down	-11.7823
▁130	-11.7823
013	-11.7827
▁54	-11.783
▁entrusted	-11.7832
▁operator	-11.7838
▁(BG)	-11.7845
▁Chechen	-11.7845
▁aforementioned	-11.7845
▁broadband	-11.7845
▁harmonious	-11.7845
▁hesitation	-11.7845
▁readily	-11.7847
–	-11.7857
▁interpreters	-11.7857
▁desperately	-11.7858
▁reinforcement	-11.7863
▁Mulder	-11.7868
▁ambassador	-11.7868
▁cotton	-11.7868
▁one-sided	-11.7868
▁rectify	-11.7868
▁employer	-11.7871
development	-11.7883
▁Society	-11.7891
▁statutory	-11.7891
▁harmonize	-11.7891
social	-11.7903
▁unequivocally	-11.7907
▁Uzbekistan	-11.7914
▁college	-11.7914
▁fifty	-11.7914
▁headquarters	-11.7914
▁referenda	-11.7914
▁lament	-11.7916
▁admittedly	-11.7926
▁disruption	-11.7929
▁Prestige	-11.7937
▁Rothley	-11.7937
▁arriving	-11.7937
▁Inquiry	-11.7937
▁lapse	-11.7937
▁EPP	-11.7939
▁dig	-11.7943
▁besides	-11.7943
contract	-11.7949
▁rotat	-11.7953
▁Obama	-11.796
▁Poverty	-11.796
▁Technological	-11.796
▁inhumane	-11.796
▁maize	-11.7962
▁Prosecutor	-11.7983
▁legacy	-11.7983
▁pandemic	-11.7983
▁Legislat	-11.7983
▁renationalis	-11.7985
▁Equally	-11.7985
▁winter	-11.7987
▁Recently	-11.7989
road	-11.7995
▁temporarily	-11.8006
▁mineral	-11.8007
▁manufacturer	-11.8016
▁rose	-11.8027
▁quest	-11.8027
▁concur	-11.8028
(INI)	-11.8029
▁potato	-11.8029
▁diesel	-11.8029
▁sail	-11.803
▁supervise	-11.803
ware	-11.8066
▁Post	-11.8067
▁civilised	-11.807
▁specifications	-11.807
▁Tunisian	-11.8071
▁obsolete	-11.8076
▁Voting	-11.8076
▁acquisition	-11.8077
▁intra-	-11.8083
▁1.2	-11.8093
▁Former	-11.8096
▁finalised	-11.8096
▁combining	-11.8099
▁influx	-11.8099
▁reimbursement	-11.8099
▁speculative	-11.8099
▁bulk	-11.8099
▁flat	-11.8111
-product	-11.8113
▁Lin	-11.8115
▁Measures	-11.8123
▁149)	-11.8123
▁Overall	-11.8124
▁Life	-11.8125
▁fulfilment	-11.8137
▁evasion	-11.8146
▁backdrop	-11.8146
▁labelled	-11.8149
▁worsening	-11.8151
▁reside	-11.8161
▁Lama	-11.8165
▁deploy	-11.8167
▁reservation	-11.8167
▁dwell	-11.817
▁coach	-11.8174
▁deprive	-11.8187
▁South-East	-11.8193
▁sponsor	-11.8193
▁gift	-11.8193
▁Evans	-11.8194
▁bread	-11.8195
▁fragmented	-11.8203
▁Currently	-11.8209
lav	-11.8212
▁Official	-11.8217
▁symptom	-11.8217
▁south-east	-11.8217
▁unchanged	-11.8217
▁Something	-11.8217
▁blockade	-11.8218
▁executed	-11.8224
▁Canary	-11.8226
▁interview	-11.8241
▁injuries	-11.8241
▁strain	-11.8241
▁associate	-11.8251
▁boat	-11.8256
book	-11.8262
▁assertion	-11.8264
▁Nielson	-11.8264
▁carcinogen	-11.8264
media	-11.8276
▁Cardiff	-11.8288
▁modulation	-11.8288
▁11.30	-11.8288
▁eventual	-11.8305
flat	-11.8306
▁beneficiary	-11.8312
▁dioxin	-11.8312
▁synergies	-11.8312
▁pioneer	-11.8312
▁slightest	-11.8314
▁foreseeable	-11.8314
▁profitability	-11.8315
crib	-11.8328
▁Juncker	-11.8336
▁Kenya	-11.8336
▁foot-and-mouth	-11.8336
▁Kyi	-11.8336
▁Tax	-11.8339
▁ECR	-11.8345
▁Tomorrow	-11.836
▁UCLAF	-11.836
▁streamline	-11.836
š	-11.836
▁spiral	-11.836
▁Nobel	-11.836
▁edge	-11.8366
▁precaution	-11.8383
▁Alzheimer's	-11.8384
▁landfill	-11.8384
▁remuneration	-11.8384
▁set-aside	-11.8384
▁dropped	-11.8385
▁immigrant	-11.84
▁cynical	-11.8408
▁juncture	-11.8408
▁troika	-11.8408
▁polluting	-11.8408
▁nomination	-11.8408
▁Sudanese	-11.8409
▁aspire	-11.8414
present	-11.8418
front	-11.8431
▁Coelho	-11.8432
▁precious	-11.8432
▁superfluous	-11.8432
▁demonstrators	-11.8457
▁entitlement	-11.8457
▁automotive	-11.8481
▁outrageous	-11.8482
▁confuse	-11.8486
producing	-11.8494
▁militari	-11.8505
▁curtail	-11.8505
▁Bourlanges	-11.8505
▁dilemma	-11.8505
▁shot	-11.8505
▁coincidence	-11.8505
▁department	-11.8517
▁CIA	-11.853
▁securities	-11.853
▁sulphur	-11.853
▁giant	-11.853
▁self-regulation	-11.853
▁characteristic	-11.8538
▁Randzio-Plath	-11.8554
▁Roth-Behrendt	-11.8554
▁escalation	-11.8554
▁literally	-11.8554
▁‘no’	-11.8554
▁Wales	-11.8554
▁unrest	-11.8555
▁republic	-11.8556
▁exhaustive	-11.8557
▁convene	-11.8582
▁Fourth	-11.8591
▁Bösch	-11.8603
▁extraordinarily	-11.8603
▁vacuum	-11.8603
▁glass	-11.8603
▁Suu	-11.8606
▁deduct	-11.8607
▁inspire	-11.8622
▁Côte	-11.8628
▁addiction	-11.8628
▁intimidation	-11.8628
▁insistence	-11.8634
▁modernising	-11.8634
▁virtual	-11.8642
▁Dialogue	-11.8652
▁acknowledging	-11.8652
▁categorical	-11.8652
▁cohesive	-11.8652
▁incumbent	-11.8652
▁infected	-11.8652
▁restructure	-11.8654
▁classic	-11.8661
service	-11.8666
plan	-11.8673
▁Supervisor	-11.8677
▁destructive	-11.8677
▁exchanging	-11.8677
▁rethink	-11.8677
▁undesirable	-11.8677
▁contravene	-11.8702
▁self-evident	-11.8702
▁Combat	-11.8703
▁hazard	-11.8726
▁Schreyer	-11.8727
▁Sustainable	-11.8727
▁blank	-11.8727
▁forward-looking	-11.8727
▁incineration	-11.8727
▁likelihood	-11.8727
▁stories	-11.8727
▁talent	-11.8727
▁corporations	-11.8727
▁Castro	-11.8728
▁friendship	-11.8729
▁liquidity	-11.873
under	-11.8736
▁buses	-11.8737
▁Recent	-11.875
▁Ankara	-11.8752
▁Ortega	-11.8752
▁Temporary	-11.8752
▁redistribution	-11.8752
action	-11.876
▁Jan	-11.8767
▁liquid	-11.8773
▁Bear	-11.8775
▁foresee	-11.8775
▁surround	-11.8776
▁ECOFIN	-11.8777
▁Secretariat	-11.8777
▁residue	-11.8777
▁boycott	-11.8777
▁Armenian	-11.8777
▁cancelled	-11.8778
▁transpose	-11.8786
ç	-11.8802
▁Dalai	-11.8802
▁dividing	-11.8802
▁stupid	-11.8802
▁traffickers	-11.8802
▁Data	-11.8807
▁beforehand	-11.8814
▁freeze	-11.882
▁Uganda	-11.8827
▁populated	-11.8827
▁Aviation	-11.8827
▁right-wing	-11.8827
▁revive	-11.8827
▁ancient	-11.8827
▁Aung	-11.8837
political	-11.8841
▁observing	-11.8852
▁overdue	-11.8852
▁arose	-11.8853
▁Indonesian	-11.8871
▁Valencia	-11.8877
▁e-mail	-11.8877
▁malaria	-11.8877
▁district	-11.8877
▁famine	-11.8877
▁redefin	-11.8877
▁depriv	-11.8902
▁frozen	-11.8903
▁incomplete	-11.8903
▁satisfactorily	-11.8903
▁tsunami	-11.8903
▁Sierra	-11.8903
▁subordinate	-11.8903
▁Karas	-11.8906
-the-	-11.8912
▁Border	-11.8928
▁Incidentally	-11.8928
▁Ultimately	-11.8928
▁delegated	-11.8928
▁parental	-11.8928
▁unexpected	-11.8928
▁pertain	-11.8928
▁Athens	-11.8928
▁Port	-11.8938
▁optimis	-11.8951
esumption	-11.8954
▁Canadian	-11.8954
▁ambiguous	-11.8954
▁asbestos	-11.8954
▁commodities	-11.8954
▁elaborate	-11.8954
▁observance	-11.8954
▁stopping	-11.8961
▁EU-US	-11.8979
▁circumvent	-11.8979
▁cluster	-11.8979
▁incidence	-11.8979
▁manipulation	-11.8979
▁yourselves	-11.8979
X	-11.8988
▁Chirac	-11.9005
▁Nabucco	-11.9005
▁relieve	-11.9005
▁salmon	-11.9005
▁Faced	-11.9005
▁curious	-11.9005
▁liberalising	-11.9009
path	-11.9009
▁incur	-11.901
▁HIV/AIDS	-11.903
▁confiscat	-11.903
change	-11.9044
▁synergy	-11.9056
▁enthusiastic	-11.9062
▁GMO	-11.9067
connect	-11.9071
▁routine	-11.9082
▁Unlike	-11.9082
plication	-11.9106
▁bankrupt	-11.9107
▁predominant	-11.9108
▁Adam	-11.9129
▁Daphne	-11.9134
▁Prevention	-11.9134
▁calendar	-11.9134
▁frequency	-11.9134
▁mitigate	-11.9134
▁conferred	-11.9134
▁pro-European	-11.9134
▁twin	-11.9135
duct	-11.9155
▁Rübig	-11.9159
▁enforcing	-11.9159
▁envoy	-11.9159
▁pupils	-11.9159
▁varies	-11.9162
▁memorandum	-11.9186
▁tribunal	-11.9186
▁unstable	-11.9186
▁Basel	-11.9186
▁electric	-11.9195
▁Radical	-11.9212
▁cost-effective	-11.9212
▁knock	-11.9212
▁surrender	-11.9212
▁(A6-	-11.9212
▁racial	-11.9212
▁fortunate	-11.9215
008	-11.9218
▁(Applause	-11.9232
▁screen	-11.9238
-Herzegovina	-11.9238
▁chairmen	-11.924
▁dragg	-11.9254
▁explosive	-11.9264
▁sweep	-11.9264
▁referral	-11.9268
▁Arabia	-11.9286
▁paradoxical	-11.9287
▁Amnesty	-11.929
▁Presidencies	-11.929
▁anxiety	-11.929
▁barbaric	-11.929
▁mutilation	-11.929
▁Six	-11.9295
▁refine	-11.9299
▁irregular	-11.9316
▁Universal	-11.9317
▁unaware	-11.9317
▁churches	-11.932
▁metres	-11.9326
▁slave	-11.9342
▁Likewise	-11.9343
▁d'Ivoire	-11.9343
▁diversify	-11.9343
▁Bali	-11.9348
ransatlantic	-11.9369
▁outrage	-11.9369
▁exciting	-11.937
▁explosion	-11.937
007	-11.9377
▁tendencies	-11.9396
▁unavoidable	-11.9396
▁Journal	-11.9423
▁Lebanese	-11.9423
▁SWIFT	-11.9423
▁supermarket	-11.9423
▁unnecessarily	-11.9423
▁strand	-11.9423
▁assassination	-11.9429
▁Maybe	-11.9432
▁confidential	-11.9449
▁Scandinavia	-11.945
▁chicken	-11.9477
▁imagination	-11.9477
▁signatories	-11.9477
▁Mont	-11.9477
ique	-11.9479
▁resolute	-11.949
▁ECSC	-11.9503
▁Fifteen	-11.9503
▁intensified	-11.9503
▁pregnant	-11.9503
▁taste	-11.9504
▁Staff	-11.9504
▁ACP-EU	-11.953
▁Florenz	-11.953
▁Wynn	-11.953
▁advisable	-11.953
▁discrepancies	-11.953
▁disorder	-11.953
▁illicit	-11.953
▁uncertainties	-11.9531
▁Rocard	-11.9557
▁Seattle	-11.9557
▁celebrating	-11.9557
▁celebration	-11.9557
▁fraudulent	-11.9557
▁justifiable	-11.9557
▁timeframe	-11.9557
▁Lord	-11.9557
▁Dimas	-11.9558
▁style	-11.9558
▁2050	-11.9562
▁Additional	-11.9585
▁confusing	-11.9585
▁inefficient	-11.9585
▁undertook	-11.9585
▁boy	-11.9585
▁drastically	-11.9586
▁Vigo	-11.9589
▁turnover	-11.9592
parliamentary	-11.96
▁enlighten	-11.9612
▁Eritrea	-11.9612
▁hierarchy	-11.9612
▁pre-empt	-11.9612
▁variation	-11.9612
version	-11.9635
001	-11.9646
▁Kashmir	-11.9666
▁University	-11.9666
▁Verhofstadt	-11.9666
▁approximation	-11.9666
▁deplorable	-11.9666
▁feedingstuffs	-11.9666
▁unsustainable	-11.9666
▁Coordinat	-11.9666
▁grey	-11.9668
▁homeland	-11.9676
▁depleted	-11.9694
▁utter	-11.971
▁indicator	-11.9717
▁Admittedly	-11.9721
▁Leonardo	-11.9721
▁stabilising	-11.9721
▁Patent	-11.9721
-year-old	-11.9721
▁tyre	-11.9722
ocracy	-11.9724
▁angle	-11.9727
/21	-11.9743
▁Cross	-11.9749
▁honey	-11.9749
▁plight	-11.9755
▁Region	-11.9765
▁Child	-11.9776
▁Berès	-11.9776
▁solemn	-11.9776
▁policing	-11.9776
▁superior	-11.9776
▁shake	-11.9776
▁shelter	-11.9776
▁bankruptcy	-11.9777
▁reintegration	-11.9777
(5)	-11.9782
▁emit	-11.9784
Nordic	-11.9793
▁Ossetia	-11.9804
▁recast	-11.9804
▁rice	-11.9804
determin	-11.9805
▁waiv	-11.9807
keeper	-11.9813
▁Argentina	-11.9832
▁FYROM	-11.9832
▁balancing	-11.9832
▁optimum	-11.9832
▁resumption	-11.9832
▁mature	-11.9832
-track	-11.9832
▁flagrant	-11.9833
▁Kaliningrad	-11.986
▁Singapore	-11.986
▁Transparency	-11.986
▁esteem	-11.986
▁high-speed	-11.986
▁repatriation	-11.986
▁shipowners	-11.986
▁discredit	-11.986
▁rival	-11.986
▁divert	-11.986
▁outdated	-11.986
▁anchor	-11.986
▁indulge	-11.986
▁hole	-11.9866
▁Cap	-11.987
keeping	-11.9874
-efficient	-11.9888
▁Abkhazia	-11.9888
▁Blokland	-11.9888
▁Lamfalussy	-11.9888
▁automobile	-11.9888
▁criticize	-11.9888
▁deaf	-11.9888
▁multilingualism	-11.9888
▁six-month	-11.9888
▁native	-11.989
▁denial	-11.9892
▁reinstate	-11.9916
▁Hautala	-11.9916
▁confess	-11.9916
▁Broek	-11.9944
▁Saturday	-11.9944
▁destiny	-11.9944
▁federation	-11.9944
▁transmitted	-11.9944
▁kick	-11.9945
▁horizon	-11.9971
▁Guatemala	-11.9972
▁Movement	-11.9972
▁convicted	-11.9972
▁detainees	-11.9972
▁expectancy	-11.9972
▁husband	-11.9972
▁overhaul	-11.9972
-style	-11.9972
▁Mitchell	-12
▁decoupling	-12
▁resettlement	-12
▁travellers	-12
▁Malaysia	-12.0028
▁indifferent	-12.0028
▁steady	-12.0028
▁voluntarily	-12.0028
▁brother	-12.0028
▁Sky	-12.0028
▁distribute	-12.0029
▁dam	-12.0035
▁Almunia	-12.0057
▁Cashman	-12.0057
▁criticising	-12.0057
▁doctrine	-12.0057
▁preceded	-12.0057
▁no-one	-12.0057
▁Wallis	-12.0058
▁attendance	-12.0062
▁ETA	-12.0062
▁oversee	-12.0064
▁unfounded	-12.0085
▁complies	-12.0085
▁Capital	-12.0114
▁Regrettably	-12.0114
▁irreversible	-12.0114
compensatory	-12.0114
▁suppose	-12.0129
▁Sterckx	-12.0143
▁Institutions	-12.0143
▁geo	-12.0167
▁pertinent	-12.0171
▁chronic	-12.0171
▁freezing	-12.0171
▁laugh	-12.0172
▁constituent	-12.018
election	-12.0181
▁Lannoye	-12.02
▁ambiguity	-12.02
▁dedication	-12.02
▁deteriorating	-12.02
▁harbour	-12.02
▁pleasant	-12.02
▁broker	-12.0225
▁Oslo	-12.0229
▁Based	-12.023
▁intercultural	-12.023
balance	-12.0247
▁despair	-12.0258
▁e-commerce	-12.0258
▁vicious	-12.0258
▁Leinen	-12.0258
▁paradox	-12.0262
▁exile	-12.0269
▁avail	-12.0284
▁qualification	-12.0287
▁Aznar	-12.0287
▁Feira	-12.0287
▁baby	-12.0287
▁disseminate	-12.0287
▁ranging	-12.0287
▁Honour	-12.0287
▁entrepreneurial	-12.0287
lateral	-12.0307
avier	-12.031
▁Jewish	-12.0316
▁catalogue	-12.0316
▁influenza	-12.0316
▁two-thirds	-12.0316
▁violating	-12.0316
▁Guarantee	-12.0316
employ	-12.0334
▁Assistance	-12.0345
▁equilibrium	-12.0345
▁impasse	-12.0345
▁tissue	-12.0345
▁missile	-12.0345
▁zu	-12.0346
-scale	-12.037
▁destined	-12.0375
▁impressed	-12.0375
▁provocation	-12.0375
▁vigilance	-12.0375
▁Cairo	-12.0375
▁jail	-12.0375
decentralisation	-12.0375
▁unused	-12.0375
▁desertification	-12.0375
▁Asylum	-12.0404
▁cultivate	-12.0404
▁mortgage	-12.0404
▁Doyle	-12.0404
ão	-12.0404
▁Elles	-12.0406
-risk	-12.0408
/22	-12.0413
▁mafia	-12.0434
▁timescale	-12.0434
▁occupy	-12.0437
regulation	-12.0449
9/2001	-12.0455
▁Almost	-12.0463
▁climatic	-12.0463
▁denominator	-12.0463
▁flout	-12.0463
▁illustration	-12.0463
▁miracle	-12.0463
▁qualities	-12.0463
▁Bowis	-12.0463
▁artistic	-12.0464
judicial	-12.0481
▁Hopefully	-12.0493
▁catalyst	-12.0493
▁pluralist	-12.0493
▁reluctance	-12.0493
▁Progressive	-12.0496
▁counteract	-12.0496
-growing	-12.0523
▁Baringdorf	-12.0523
▁divergence	-12.0523
▁mobilising	-12.0523
▁passionate	-12.0523
▁scrutinise	-12.0523
▁interfering	-12.0523
▁spill	-12.0523
▁Throughout	-12.0523
▁Bonn	-12.0525
▁Violence	-12.0553
▁accumulate	-12.0553
▁inadmissible	-12.0553
▁comprising	-12.0553
▁Senate	-12.0553
▁joy	-12.0553
▁arouse	-12.0554
▁enlarge	-12.0565
▁McKenna	-12.0583
▁generosity	-12.0583
▁inclined	-12.0583
▁notwithstanding	-12.0583
▁overnight	-12.0583
▁mode	-12.0603
▁Lampedusa	-12.0613
▁Prague	-12.0613
▁accommodation	-12.0613
▁contemporary	-12.0613
▁heartfelt	-12.0613
▁jeopardising	-12.0613
▁seafarers	-12.0613
▁fierce	-12.0613
▁brake	-12.0613
▁Poles	-12.0616
private	-12.0631
where	-12.0632
▁Graefe	-12.0643
▁Speaking	-12.0643
▁[COM(200	-12.0643
▁collaborate	-12.0643
▁intermediate	-12.0643
▁obesity	-12.0643
▁synthetic	-12.0643
▁composed	-12.0643
▁inquiries	-12.0643
▁5.30	-12.0643
▁inviting	-12.0643
dependent	-12.066
▁Brittan	-12.0673
▁GATT	-12.0673
▁GBP	-12.0673
▁Police	-12.0673
▁acceding	-12.0673
▁aeroplane	-12.0673
▁cyber	-12.0673
▁fluctuations	-12.0673
▁spur	-12.0673
▁dispens	-12.0674
▁hostile	-12.0675
▁confer	-12.0678
▁rob	-12.0688
▁obscure	-12.0703
▁Animal	-12.0703
▁oversight	-12.0704
▁avert	-12.071
▁expose	-12.0717
▁assault	-12.0734
▁circulate	-12.0734
▁ignorance	-12.0734
▁intensity	-12.0734
▁volatility	-12.0734
▁intervening	-12.0734
▁left-wing	-12.0734
▁video	-12.0734
▁Martín	-12.0734
▁upgrade	-12.0734
▁Needles	-12.0735
▁church	-12.076
▁Access	-12.0762
▁Alexander	-12.0764
▁grassroots	-12.0764
▁marginalised	-12.0766
▁awful	-12.0767
-designate	-12.0795
-sharing	-12.0795
▁Fischer	-12.0795
▁deforestation	-12.0795
▁reconciling	-12.0795
▁unhappy	-12.0795
Various	-12.0796
▁midst	-12.0799
(4)	-12.0804
▁Thailand	-12.0825
▁allotted	-12.0825
▁impede	-12.0837
▁conduc	-12.0839
▁NGO	-12.0846
▁batteries	-12.0856
▁magnificent	-12.0856
▁Eurodac	-12.0856
▁annum	-12.0856
▁ashamed	-12.0857
▁consign	-12.0859
▁accompany	-12.0861
▁guideline	-12.0875
▁Senegal	-12.0887
▁Collins	-12.0887
▁Draft	-12.0887
▁Experience	-12.0887
▁ever-increasing	-12.0887
▁repetition	-12.0887
▁rocket	-12.0887
▁(A4-03	-12.0887
-hour	-12.0887
▁ENP	-12.0887
▁Specifically	-12.0887
▁indignation	-12.0918
▁tropical	-12.0918
▁derivatives	-12.0918
▁taboo	-12.0918
-specific	-12.0949
▁2000-2006	-12.0949
▁co-decision	-12.0949
▁suffice	-12.0949
▁shopping	-12.095
▁preach	-12.0952
▁Things	-12.098
▁bureau	-12.098
▁erosion	-12.098
▁identifies	-12.098
▁postponing	-12.098
▁cinema	-12.098
▁scoreboard	-12.098
▁Parties	-12.0983
operative	-12.101
▁Recommendation	-12.1011
▁authentic	-12.1011
▁dignified	-12.1011
▁disciplinary	-12.1011
▁laudable	-12.1011
▁presuppose	-12.1011
▁undeclared	-12.1011
▁presume	-12.1011
▁Theato	-12.1012
▁Lange	-12.1036
▁Gebhardt	-12.1043
▁Pirker	-12.1043
▁Racism	-12.1043
▁identities	-12.1043
▁scepticism	-12.1043
▁filter	-12.1043
▁peculiar	-12.1074
troductory	-12.1074
▁improper	-12.1074
▁manipulate	-12.1074
▁non-existent	-12.1074
▁relocate	-12.1074
▁remedies	-12.1074
▁tantamount	-12.1074
▁undeniable	-12.1074
▁Špidla	-12.1074
▁injury	-12.1074
▁hydrogen	-12.1075
▁stuck	-12.1076
▁Haug	-12.1076
▁perceive	-12.1091
n-discriminatory	-12.1106
▁Duisenberg	-12.1106
▁emergencies	-12.1106
▁much-needed	-12.1106
▁short-sighted	-12.1106
▁variable	-12.1106
▁admire	-12.1106
▁militarisation	-12.1106
▁upcoming	-12.1106
▁Warrant	-12.1107
EX	-12.1112
▁dominate	-12.1124
▁Jackson	-12.1137
▁describing	-12.1137
▁devastated	-12.1137
▁steadily	-12.1137
▁well-balanced	-12.1137
▁Training	-12.1137
▁Conduct	-12.1138
▁supplier	-12.1149
EEC)	-12.1166
▁Arrest	-12.1169
▁Between	-12.1169
▁Transnistria	-12.1169
▁degradation	-12.1169
▁Institutional	-12.1169
▁channelled	-12.1171
▁populist	-12.1201
▁therapeutic	-12.1201
▁unlimited	-12.1201
▁differentiation	-12.1201
▁Ludford	-12.1233
▁Recital	-12.1233
▁Technical	-12.1233
▁misgivings	-12.1233
▁neo-liberal	-12.1233
▁tempted	-12.1233
▁triumph	-12.1233
▁cleansing	-12.1234
source	-12.1251
government	-12.1253
▁Rompuy	-12.1265
▁declining	-12.1265
▁irrelevant	-12.1265
▁aftermath	-12.1265
▁tiny	-12.1265
▁accompli	-12.1296
▁architect	-12.1296
▁ASEM	-12.1297
▁School	-12.1297
▁aggravate	-12.1297
▁fantastic	-12.1297
▁twenty-first	-12.1297
▁hiding	-12.1297
▁Level	-12.1299
▁Nassauer	-12.1329
▁Philippines	-12.1329
▁brilliant	-12.1329
▁gulf	-12.1329
▁Ferber	-12.1329
▁contend	-12.1329
▁Zaire	-12.133
▁grain	-12.1331
▁Haarder	-12.1362
▁logistics	-12.1362
▁proximity	-12.1362
▁sleep	-12.1362
-generation	-12.1362
-sector	-12.1365
▁advancing	-12.1394
▁prescription	-12.1394
▁re-examine	-12.1394
▁upgrading	-12.1394
▁crack	-12.1394
▁moderation	-12.1395
▁Salafranca	-12.1427
▁globe	-12.1427
▁horrific	-12.1427
▁motto	-12.1427
▁rebate	-12.1427
▁orphan	-12.1427
jection	-12.1455
▁Cultural	-12.1459
▁decision-makers	-12.1459
▁disguise	-12.146
▁strip	-12.146
▁betray	-12.146
▁minimis	-12.1466
▁Revolution	-12.1492
▁Terrorism	-12.1492
▁complementarity	-12.1492
▁reimburs	-12.1492
▁Twenty	-12.1492
▁constrain	-12.1524
▁afflict	-12.1525
▁Méndez	-12.1525
▁clinical	-12.1525
▁tailored	-12.1525
▁halv	-12.153
▁Savary	-12.1558
▁Tajani	-12.1558
▁absorption	-12.1558
▁energetic	-12.1558
▁lunch	-12.1558
▁pregnancy	-12.1558
▁concise	-12.1558
▁Mission	-12.1558
▁civic	-12.1558
▁adherence	-12.1559
▁consequent	-12.1569
personnel	-12.158
▁Functioning	-12.1591
▁utilisation	-12.1591
▁segment	-12.1591
▁gangs	-12.1592
culture	-12.1613
▁retire	-12.1623
▁SOLVIT	-12.1624
▁believing	-12.1624
▁indifference	-12.1624
▁lorry	-12.1624
▁unsafe	-12.1624
▁greet	-12.1625
▁wellbeing	-12.1625
▁Gibraltar	-12.1658
▁deterrent	-12.1658
▁grass-roots	-12.1658
▁shoot	-12.1658
▁(GA	-12.1658
▁Grossetête	-12.1691
▁subsidiary	-12.1691
▁unduly	-12.1691
▁Gradin	-12.1703
▁broke	-12.1724
▁contemplate	-12.1725
▁backbone	-12.1725
▁crude	-12.1725
▁Hughes	-12.1758
▁Izquierdo	-12.1758
▁mistrust	-12.1758
▁vulnerability	-12.1758
▁Wolf	-12.1758
▁Multi	-12.1759
▁evade	-12.1759
▁loose	-12.1759
mentioned	-12.1781
▁Competitiveness	-12.1792
▁Turkmenistan	-12.1792
▁achievable	-12.1792
▁frustrate	-12.1792
▁mismanagement	-12.1792
▁multi-annual	-12.1792
▁Basically	-12.1792
▁Jews	-12.1792
capacity	-12.1815
▁eminent	-12.1826
-speaking	-12.1826
▁Ambassador	-12.1826
▁ESDP	-12.1826
▁Review	-12.1826
▁implicit	-12.1826
▁situated	-12.1826
▁spectacular	-12.1826
▁deportation	-12.1826
▁Clinton	-12.186
▁fingerprints	-12.186
▁non-compliance	-12.186
▁concede	-12.186
▁indiscriminate	-12.1882
business	-12.1883
▁enemies	-12.1894
▁indebted	-12.1894
▁junta	-12.1894
▁trivial	-12.1894
▁sweet	-12.1894
▁Howitt	-12.1894
▁concession	-12.19
▁cereal	-12.1927
▁Buitenweg	-12.1929
▁Crowley	-12.1929
▁Either	-12.1929
▁crystal	-12.1929
▁unregulated	-12.1929
▁flawed	-12.1929
▁trail	-12.1929
-market	-12.1934
▁critics	-12.1963
▁dissatisfaction	-12.1963
▁militia	-12.1963
▁ΕU	-12.1963
▁1988	-12.1963
▁Experts	-12.1997
▁Morillon	-12.1997
▁Reconstruction	-12.1997
▁recycle	-12.1997
▁overriding	-12.1997
▁Communism	-12.2032
▁PVC	-12.2032
▁genital	-12.2032
▁erode	-12.2032
▁bail	-12.2032
stein	-12.2041
▁cocoa	-12.2067
▁gravity	-12.2067
▁negligence	-12.2067
▁Strip	-12.2067
▁plunder	-12.2067
▁Andersson	-12.2102
▁luxury	-12.2102
▁Farmers	-12.2102
▁Position	-12.2102
▁disarm	-12.2102
▁rub	-12.2103
▁profess	-12.2134
ymmetric	-12.2136
▁Colleagues	-12.2137
▁Operation	-12.2137
▁disclosure	-12.2137
▁intrinsic	-12.2137
location	-12.2142
effect	-12.216
▁drama	-12.2171
▁Klaus	-12.2172
▁Language	-12.2172
▁Trichet	-12.2172
▁audience	-12.2172
▁insignificant	-12.2172
▁tripartite	-12.2172
▁Flynn	-12.2172
▁Monnet	-12.2172
▁technique	-12.2205
▁Frassoni	-12.2207
▁astonishing	-12.2207
▁Martens	-12.2207
▁reintroduce	-12.2242
▁Dührkop	-12.2242
▁Edinburgh	-12.2242
▁Ocean	-12.2242
▁calculating	-12.2242
▁magnitude	-12.2242
▁nitrate	-12.2242
▁receipt	-12.2242
▁detract	-12.2242
▁Minsk	-12.2242
▁vested	-12.2242
▁infant	-12.2253
-American	-12.2278
▁Maghreb	-12.2278
▁Veterinar	-12.2278
▁abduction	-12.2278
▁arrogance	-12.2278
▁crash	-12.2278
▁defensive	-12.2278
▁distributing	-12.2278
▁libraries	-12.2278
▁unpleasant	-12.2278
▁activate	-12.2278
­	-12.2313
▁Contrary	-12.2313
▁History	-12.2313
▁abilities	-12.2313
▁abstract	-12.2313
▁economist	-12.2313
▁Fatuzzo	-12.2349
▁García	-12.2349
▁decreasing	-12.2349
▁unthinkable	-12.2349
▁Department	-12.2349
▁entertain	-12.2349
▁spark	-12.2349
▁superpower	-12.2349
▁kilo	-12.2351
-month	-12.2355
▁isolate	-12.2369
▁trauma	-12.2385
▁Alpine	-12.2385
▁Welcome	-12.2385
▁case-by-case	-12.2385
▁expiry	-12.2385
▁gratifying	-12.2385
▁scarce	-12.241
▁duplicat	-12.2416
▁maturity	-12.2421
▁preamble	-12.2421
▁shield	-12.2421
▁timid	-12.2421
▁regenerat	-12.2421
▁domination	-12.2421
Member	-12.2445
▁Company	-12.2457
▁Napolitano	-12.2457
▁Stream	-12.2457
▁UNHCR	-12.2457
▁intermodal	-12.2457
▁ESF	-12.2457
▁monies	-12.2457
field	-12.2482
▁FAO	-12.2493
▁anti-dumping	-12.2493
▁cumbersome	-12.2493
▁liaison	-12.2493
▁reproduction	-12.2493
▁Thyssen	-12.2493
▁bolster	-12.2493
▁Airbus	-12.2493
▁deletion	-12.2493
-owned	-12.2493
▁declaring	-12.2529
▁embryonic	-12.2529
▁Lamassoure	-12.2529
▁lecture	-12.2529
▁Kallas	-12.2529
resident	-12.2552
▁CITES	-12.2566
▁Mechanism	-12.2566
▁happily	-12.2566
▁wife	-12.2566
▁wreck	-12.2566
▁continual	-12.2591
▁deregulat	-12.2601
▁Situation	-12.2603
▁crush	-12.2603
▁initiating	-12.2603
▁disposed	-12.2603
▁fusion	-12.2603
▁geographic	-12.2603
▁(which	-12.2639
▁Schroedter	-12.2639
▁Sjöstedt	-12.2639
▁coffee	-12.2639
▁flame	-12.2639
▁Mobil	-12.264
”	-12.2676
▁Deputy	-12.2676
▁Habsburg	-12.2676
▁Recovery	-12.2676
▁anticipation	-12.2676
▁free-trade	-12.2676
▁renounce	-12.2676
▁unfavourable	-12.2676
▁unfold	-12.2676
-run	-12.2688
č	-12.2713
▁Dupuis	-12.2713
▁Future	-12.2713
▁Mozambique	-12.2713
▁admiration	-12.2713
▁cheque	-12.2713
ń	-12.2713
▁recipe	-12.2713
▁annoy	-12.2714
▁nominal	-12.2714
▁Vote	-12.2718
▁Baghdad	-12.275
▁leisure	-12.275
▁permissible	-12.275
▁deceive	-12.275
▁dispel	-12.275
Euro	-12.2766
▁rapprochement	-12.2788
▁reproach	-12.2788
▁verbal	-12.2788
▁notorious	-12.2788
▁Adopt	-12.2788
▁magic	-12.2788
▁Burg	-12.2788
▁Kyrgyzstan	-12.2825
▁censorship	-12.2825
▁destabilise	-12.2825
▁sympathetic	-12.2825
▁roaming	-12.2825
▁standstill	-12.2825
▁mercy	-12.2825
▁jump	-12.2825
▁12.00	-12.2826
(COD)]	-12.2863
▁Cunha	-12.2863
▁Implementation	-12.2863
▁Trakatellis	-12.2863
▁discrepancy	-12.2863
▁meanwhile	-12.2863
▁IMO	-12.2863
▁Kosovar	-12.2901
▁Proposal	-12.2901
▁Schröder	-12.2901
▁corps	-12.2901
▁prestige	-12.2901
▁reassess	-12.2901
▁superficial	-12.2901
▁tired	-12.2901
▁veal	-12.2901
public	-12.2923
▁Christ	-12.2938
▁empire	-12.2938
▁evolving	-12.2938
▁specifies	-12.2938
▁transcend	-12.2938
▁settling	-12.2938
▁cabotage	-12.2976
▁unwanted	-12.2976
▁mixture	-12.2976
▁revisit	-12.2976
▁Earth	-12.2976
▁1986	-12.2976
▁apologies	-12.3015
▁ceremony	-12.3015
▁laboratories	-12.3015
▁xenophobic	-12.3015
▁Breyer	-12.3053
▁Hatzidakis	-12.3053
▁correlation	-12.3053
▁landmines	-12.3053
▁relies	-12.3053
▁surge	-12.3053
▁desert	-12.3091
(COD)).	-12.3091
▁Goebbels	-12.3091
▁photograph	-12.3091
▁presumably	-12.3091
▁yardstick	-12.3091
1/2001	-12.3092
▁invaluable	-12.313
▁tireless	-12.313
▁uprising	-12.313
lving	-12.3143
respect	-12.3157
▁Lancker	-12.3169
▁Piebalgs	-12.3169
▁Sellafield	-12.3169
▁Turks	-12.3169
▁vertical	-12.3169
▁invalid	-12.3169
▁terminal	-12.3169
▁(EGF)	-12.3208
▁Eurosceptic	-12.3208
▁Helms-Burton	-12.3208
▁eco-label	-12.3208
▁influential	-12.3208
▁stagnation	-12.3208
▁tanks	-12.3208
▁umbrella	-12.3208
▁Lucas	-12.3208
▁aspiration	-12.3212
makers	-12.3219
▁Platform	-12.3247
▁Tomlinson	-12.3247
▁custody	-12.3247
▁eradicating	-12.3247
▁revival	-12.3247
▁stigma	-12.3247
▁Fraga	-12.3286
▁envelope	-12.3286
▁residing	-12.3286
▁portray	-12.3286
▁transposing	-12.3286
▁resembl	-12.3286
▁fibre	-12.3286
▁outgoing	-12.3286
Director-General	-12.3292
▁Eurobarometer	-12.3325
▁Lambert	-12.3325
▁Tannock	-12.3325
▁appraisal	-12.3325
▁daughter	-12.3325
technology	-12.3353
▁Giscard	-12.3365
▁S&D	-12.3365
▁acquiring	-12.3365
▁restaurant	-12.3365
▁smuggle	-12.3365
▁unsuccessful	-12.3365
▁'No	-12.3371
▁earmark	-12.3385
▁(Loud	-12.3404
▁Cappato	-12.3404
▁Nicaragua	-12.3404
▁Quaestors	-12.3404
▁Rapporteur	-12.3404
▁embarrassing	-12.3404
▁inconceivable	-12.3404
▁logistical	-12.3404
▁multifunctional	-12.3404
▁reassuring	-12.3404
▁uncover	-12.3405
▁appropriation	-12.3428
labour-intensive	-12.3428
-quality	-12.3442
aladministration	-12.3444
▁Increasing	-12.3444
▁forbidden	-12.3444
▁lobbies	-12.3444
▁unscrupulous	-12.3444
▁1985	-12.3444
▁Traffic	-12.3444
▁bonus	-12.3444
▁overshadow	-12.3484
▁volcan	-12.3484
▁Sacconi	-12.3484
▁horrendous	-12.3484
▁inalienable	-12.3484
▁interdependence	-12.3484
▁unrestricted	-12.3484
▁Colom	-12.3524
▁Marín	-12.3524
▁McCarthy	-12.3524
▁disparity	-12.3524
▁infectious	-12.3524
▁Munich	-12.3525
▁grass	-12.3525
▁franc	-12.3527
▁carrier	-12.3546
cqu	-12.3549
▁Buzek	-12.3565
▁Guidelines	-12.3565
▁random	-12.3565
▁plastic	-12.3565
▁hurt	-12.3565
lvency	-12.3566
▁inject	-12.3581
▁Genoa	-12.3605
▁Kauppi	-12.3605
▁Wurtz	-12.3605
▁liberation	-12.3605
▁reassurance	-12.3605
▁endorsing	-12.3606
ú	-12.3646
▁Belder	-12.3646
▁Fernand	-12.3646
▁Mexican	-12.3646
▁Turmes	-12.3646
▁twenty-five	-12.3646
▁Effective	-12.3646
▁dirty	-12.3646
▁fortune	-12.3646
responsibility	-12.3675
▁Istanbul	-12.3687
▁Maltese	-12.3687
▁episode	-12.3687
▁underground	-12.3687
▁Warsaw	-12.3687
▁Staes	-12.3687
competitive	-12.3715
-China	-12.3728
▁Holland	-12.3728
▁Katiforis	-12.3728
▁Nicholson	-12.3728
▁Strategic	-12.3728
▁Unemployment	-12.3728
▁salute	-12.3728
▁nominated	-12.3728
▁undue	-12.3728
▁amazed	-12.3728
▁Essen	-12.3728
▁Provid	-12.3728
ography	-12.3752
▁Correction	-12.3769
▁ERDF	-12.3769
▁Maij-Weggen	-12.3769
▁apparatus	-12.3769
▁observatory	-12.3769
▁unbalanced	-12.3769
▁‘yes’	-12.3769
▁teeth	-12.3769
▁sterling	-12.3769
▁revert	-12.377
▁Diamantopoulou	-12.381
▁MEDIA	-12.381
▁Observatory	-12.381
▁Philip	-12.381
▁announcing	-12.381
▁offshore	-12.381
▁persuasion	-12.381
▁reorganisation	-12.381
▁speculators	-12.381
▁Disease	-12.3852
▁Eurocontrol	-12.3852
▁accuracy	-12.3852
▁clarifies	-12.3852
▁henceforth	-12.3852
▁stereotypes	-12.3852
▁perverse	-12.3852
▁harness	-12.3852
▁plunge	-12.3852
▁pesticide	-12.3867
crimination	-12.3892
▁Respect	-12.3893
▁astonished	-12.3893
▁cost-benefit	-12.3893
▁editor	-12.3893
▁thirteen	-12.3893
▁truck	-12.3893
▁clever	-12.3893
▁flesh	-12.3893
▁verified	-12.3893
▁inaugura	-12.3893
▁joke	-12.3893
▁unleash	-12.3935
▁Dell'Alba	-12.3935
▁guarantor	-12.3935
▁legitimise	-12.3935
▁sub-Sahara	-12.3935
▁Election	-12.3935
▁MPs	-12.3936
▁wholesale	-12.3937
▁politic	-12.3973
▁Congratulations	-12.3977
▁Zealand	-12.3977
▁flexicurity	-12.3977
▁pedestrian	-12.3977
▁utiliz	-12.3977
▁vigour	-12.3977
▁Lakes	-12.3977
▁EEAS	-12.4019
▁Seppänen	-12.4019
▁Solbes	-12.4019
▁Uruguay	-12.4019
▁distrust	-12.4019
▁falsified	-12.4019
▁lodged	-12.4019
▁mirror	-12.4019
▁rejoice	-12.4019
▁upheaval	-12.4019
▁Space	-12.4019
▁doubling	-12.4019
▁biogas	-12.4019
▁cutbacks	-12.4019
▁devot	-12.4025
▁enshrine	-12.4048
▁(COM(97)	-12.4062
▁Rasmussen	-12.4062
▁Renault	-12.4062
▁intermediaries	-12.4062
▁misguided	-12.4062
▁opportune	-12.4062
▁Maaten	-12.4062
▁corpor	-12.4102
▁Administrative	-12.4104
▁Bavaria	-12.4104
▁Catalan	-12.4104
▁Chichester	-12.4104
▁Especially	-12.4104
▁Gollnisch	-12.4104
▁Jensen	-12.4104
▁Madagascar	-12.4104
▁cease-fire	-12.4104
▁inflexible	-12.4104
▁devising	-12.4104
▁aegis	-12.4104
▁B7-	-12.4105
structure	-12.4132
flexi	-12.4134
▁Guantanamo	-12.4147
▁disclose	-12.4147
▁hurdle	-12.4147
▁insecure	-12.4147
▁philosophical	-12.4147
▁fourteen	-12.4147
▁Louis	-12.4148
-established	-12.4151
▁deriv	-12.4161
▁biotechnolog	-12.4184
▁provocative	-12.419
-military	-12.419
djournment	-12.419
▁Gaddafi	-12.419
▁conceivable	-12.419
▁justifiably	-12.419
▁boom	-12.419
sufficient	-12.4198
▁monopolis	-12.4233
▁Bertens	-12.4233
▁Eurobonds	-12.4233
▁haulage	-12.4233
▁longer-term	-12.4233
▁courtesy	-12.4233
▁calculate	-12.426
ultiannual	-12.4276
▁Channel	-12.4276
▁Simpson	-12.4276
▁bizarre	-12.4276
▁privatise	-12.4276
▁rectified	-12.4276
▁flavour	-12.4276
▁nightmare	-12.4276
▁spokesman	-12.4276
▁induce	-12.4277
▁distract	-12.4278
▁0.5	-12.4317
▁macro-financi	-12.432
▁Alavanos	-12.432
▁Building	-12.432
▁Galeote	-12.432
▁communicating	-12.432
▁laboratory	-12.432
▁nurses	-12.432
▁sensibly	-12.432
▁squander	-12.432
▁sympathise	-12.432
▁unpaid	-12.432
▁unquestionably	-12.432
▁dismay	-12.432
▁1987	-12.432
▁simultaneous	-12.4345
▁Immigration	-12.4364
▁Kroes	-12.4364
▁Reference	-12.4364
▁Ribeiro	-12.4364
▁Schuman	-12.4364
▁efficacy	-12.4364
▁unpunished	-12.4364
▁varieties	-12.4364
▁Flanders	-12.4364
-driven	-12.4364
▁greed	-12.4364
nterim	-12.4385
▁entrust	-12.4389
-life	-12.4389
sexual	-12.439
▁EU-Africa	-12.4407
▁UNESCO	-12.4407
▁co-legislator	-12.4407
▁credentials	-12.4407
▁erupt	-12.4407
▁jungle	-12.4407
▁requisite	-12.4407
▁simplistic	-12.4407
▁raft	-12.4407
▁optimal	-12.4407
▁versa	-12.4408
ş	-12.4451
n-Proliferation	-12.4451
▁EBRD	-12.4451
▁Gallagher	-12.4451
▁Railway	-12.4451
▁commensurate	-12.4451
▁convenient	-12.4451
▁eloquent	-12.4451
▁inconsistencies	-12.4451
-funded	-12.4451
▁boast	-12.4451
▁carpet	-12.4452
▁Rossa	-12.4452
-type	-12.4452
Israel	-12.4484
▁Caudron	-12.4496
▁Mundus	-12.4496
▁TRIPS	-12.4496
▁dishonest	-12.4496
▁enlarging	-12.4496
▁unforeseen	-12.4496
▁ICAO	-12.4496
Television	-12.454
wareness-raising	-12.454
▁Busquin	-12.454
▁Developing	-12.454
▁LEADER	-12.454
▁constituencies	-12.454
▁embassies	-12.454
▁peace-keeping	-12.454
▁perpetuate	-12.454
▁veritable	-12.454
▁lump	-12.454
▁0.7%	-12.454
▁semi-	-12.4542
-intensive	-12.4559
(a)	-12.4569
▁lur	-12.4573
▁Linkohr	-12.4585
▁Precisely	-12.4585
▁Rhine	-12.4585
▁Varela	-12.4585
▁Voluntary	-12.4585
▁admissible	-12.4585
▁contravention	-12.4585
▁default	-12.4585
▁hesitant	-12.4585
▁ferry	-12.4585
▁vein	-12.4585
▁B6-	-12.4585
-hearted	-12.463
▁Closure	-12.463
▁INTERREG	-12.463
▁low-carbon	-12.463
▁munitions	-12.463
▁Abbas	-12.463
industrial	-12.4639
▁motivate	-12.4659
self-sufficiency	-12.4675
▁(Rapporteur	-12.4675
▁Budapest	-12.4675
▁arrogant	-12.4675
▁redeploy	-12.4675
▁stolen	-12.4675
▁stubborn	-12.4675
▁well-founded	-12.4675
▁case-law	-12.4675
▁'You	-12.4675
▁expedit	-12.4675
▁Equator	-12.472
▁(B4-	-12.472
▁Already	-12.472
▁Deprez	-12.472
▁Hänsch	-12.472
▁Lagendijk	-12.472
▁discontinu	-12.472
▁reiterating	-12.472
▁Manuel	-12.472
▁Ahern	-12.472
▁Opel	-12.472
▁boil	-12.472
citizen	-12.4754
▁ACTA	-12.4765
▁Congolese	-12.4765
▁Davies	-12.4765
▁Peijs	-12.4765
▁babies	-12.4765
▁cadmium	-12.4765
▁elephant	-12.4765
▁holistic	-12.4765
▁monument	-12.4765
▁practicable	-12.4765
▁savage	-12.4765
▁trample	-12.4765
▁Naples	-12.4765
▁severity	-12.4765
▁Tobin	-12.4765
▁Promot	-12.4766
▁victor	-12.4805
ł	-12.4811
▁commemorate	-12.4811
▁Regulator	-12.4811
▁combustion	-12.4811
▁crux	-12.4811
▁degrading	-12.4811
▁interlocutor	-12.4811
▁pivotal	-12.4811
▁redouble	-12.4811
▁reversal	-12.4811
▁self-interest	-12.4811
▁meagre	-12.4811
▁gauge	-12.4811
access	-12.4845
▁Müller	-12.4857
▁SAVE	-12.4857
▁Tajikistan	-12.4857
▁armaments	-12.4857
▁levies	-12.4857
▁recreational	-12.4857
▁scarcity	-12.4857
▁Ramos	-12.4857
▁drag	-12.4875
▁Wijsenbeek	-12.4903
▁irrational	-12.4903
▁streamlining	-12.4903
▁terminology	-12.4903
▁Kohl	-12.4903
Z	-12.4938
ć	-12.4949
▁(COM(96)	-12.4949
▁Bolivia	-12.4949
▁Frankly	-12.4949
▁accumulation	-12.4949
▁geography	-12.4949
▁juvenile	-12.4949
▁primacy	-12.4949
▁deputy	-12.4949
▁dementia	-12.4949
▁consular	-12.4949
▁stifle	-12.4949
▁guilt	-12.499
▁UKIP	-12.4996
▁exploration	-12.4996
▁influencing	-12.4996
▁revitalise	-12.4996
▁shrink	-12.4996
▁untenable	-12.4996
▁reunit	-12.4998
▁Kabul	-12.5043
▁accelerating	-12.5043
▁d'Estaing	-12.5043
▁diamond	-12.5043
▁paedophile	-12.5043
▁Project	-12.5043
-defined	-12.509
▁Facility	-12.509
▁Nowadays	-12.509
▁Paasilinna	-12.509
▁analytical	-12.509
▁attributable	-12.509
▁complicity	-12.509
▁hauliers	-12.509
▁opium	-12.509
▁wheat	-12.509
▁Liberia	-12.509
▁cheat	-12.5098
▁complicate	-12.5119
current	-12.5128
▁(SMEs)	-12.5137
▁Pensioners	-12.5137
▁Tindemans	-12.5137
▁adequacy	-12.5137
▁authoritative	-12.5137
▁conclusive	-12.5137
▁descend	-12.5137
▁enquiry	-12.5137
▁unbundling	-12.5137
▁undeniably	-12.5137
▁EIT	-12.5137
▁Fiji	-12.5137
-maker	-12.514
ampton	-12.5141
▁wholehearted	-12.517
▁apprentice	-12.5184
▁Andalusia	-12.5184
▁Brenner	-12.5184
▁Gargani	-12.5184
▁Lynne	-12.5184
▁Montreal	-12.5184
▁Norwegian	-12.5184
▁Spencer	-12.5184
▁measurable	-12.5184
▁persuasive	-12.5184
▁starvation	-12.5184
▁1979	-12.5184
▁Blue	-12.5184
▁instigate	-12.5184
▁skilful	-12.5184
conditio	-12.5196
▁Hezbollah	-12.5232
▁Major	-12.5232
▁bovine	-12.5232
▁homophobia	-12.5232
▁suffrage	-12.5232
▁Army	-12.5232
▁pause	-12.5232
▁Meeting	-12.5232
▁bury	-12.5232
ermanent	-12.5235
▁Papayannakis	-12.528
▁cyanide	-12.528
▁imperfect	-12.528
▁ruthless	-12.528
▁triangle	-12.528
▁vicinity	-12.528
▁twofold	-12.528
▁fortress	-12.528
0/98	-12.5282
▁López	-12.5328
▁MAI	-12.5328
▁Monterrey	-12.5328
▁Thomas	-12.5328
▁admirable	-12.5328
▁behaving	-12.5328
▁fully-fledged	-12.5328
▁plague	-12.5328
▁preceding	-12.5328
▁precision	-12.5328
▁relentless	-12.5328
▁Hitler	-12.5328
▁blacklist	-12.5328
▁deep-sea	-12.5328
▁Sarajevo	-12.5376
▁VOTE	-12.5376
▁counsel	-12.5376
▁diabetes	-12.5376
▁immoral	-12.5376
▁incitement	-12.5376
▁inconvenience	-12.5376
▁questionnaire	-12.5376
▁resounding	-12.5376
▁scapegoat	-12.5376
▁ITER	-12.5376
8/2001	-12.5376
ß	-12.5424
▁(Article	-12.5424
▁Diamandouros	-12.5424
▁Ottawa	-12.5424
▁inconsistency	-12.5424
▁inherited	-12.5424
▁eighteen	-12.5424
▁pump	-12.5425
▁retreat	-12.5425
▁pirate	-12.5425
energy	-12.5462
sensitive	-12.5462
▁Schüssel	-12.5473
▁Subcommittee	-12.5473
▁Trans-European	-12.5473
▁appliances	-12.5473
▁compromising	-12.5473
▁emigration	-12.5473
▁footwear	-12.5473
▁intensification	-12.5473
▁omitted	-12.5473
▁renovation	-12.5473
8/97	-12.5515
▁Campania	-12.5522
▁anticipating	-12.5522
▁atypical	-12.5522
▁bureaucrats	-12.5522
▁depressing	-12.5522
▁legislating	-12.5522
▁less-favoured	-12.5522
▁obsession	-12.5522
▁paralysis	-12.5522
▁populism	-12.5522
▁prudence	-12.5522
▁terribly	-12.5522
▁EFD	-12.5522
▁visual	-12.5522
▁Crime	-12.5522
▁spoil	-12.5522
▁'polluter	-12.5572
▁Account	-12.5572
▁Cresson	-12.5572
▁Garriga	-12.5572
▁Macao	-12.5572
▁Purvis	-12.5572
▁URBAN	-12.5572
▁elapsed	-12.5572
▁humiliation	-12.5572
▁literature	-12.5572
▁reprehensible	-12.5572
▁slowdown	-12.5572
▁polite	-12.5572
▁dilute	-12.5572
▁Large	-12.5572
eligious	-12.5581
▁Current	-12.5589
enthusiastically	-12.561
▁apportion	-12.5621
▁Fukushima	-12.5621
▁accustomed	-12.5621
▁compatriot	-12.5621
▁fertiliser	-12.5621
▁vitamin	-12.5621
▁vodka	-12.5621
▁Bonde	-12.5621
▁Moura	-12.5621
▁drown	-12.5621
7/2001	-12.5621
▁arsenal	-12.5671
▁complications	-12.5671
▁devastation	-12.5671
▁illiteracy	-12.5671
▁magazine	-12.5671
▁tractors	-12.5671
▁Steel	-12.5671
▁glaring	-12.5671
0/97	-12.5673
Russia	-12.5709
▁'green	-12.5721
▁Beyond	-12.5721
▁Borrell	-12.5721
▁Casaca	-12.5721
▁Gröner	-12.5721
▁bogg	-12.5721
▁exploring	-12.5721
▁fauna	-12.5721
▁outweigh	-12.5721
▁repayment	-12.5721
▁unanswered	-12.5721
▁leaf	-12.5721
▁shark	-12.5721
-stay	-12.5721
▁1967	-12.5721
8/98	-12.5722
nuclear	-12.576
bbreviate	-12.5771
▁-B4-1	-12.5771
▁Honduras	-12.5771
▁paternity	-12.5771
▁relinquish	-12.5771
2/2001	-12.5772
▁scrupulous	-12.5822
▁Discussion	-12.5822
▁Eurovignette	-12.5822
▁Explanations	-12.5822
▁Fabre-Aubrespy	-12.5822
▁Pérez	-12.5822
▁destabilising	-12.5822
▁guerrilla	-12.5822
▁hostilities	-12.5822
▁inefficiency	-12.5822
▁interconnected	-12.5822
▁midnight	-12.5822
▁receptive	-12.5822
5/98	-12.5823
▁co-ordinat	-12.5826
▁Chemical	-12.5872
▁Remember	-12.5872
▁lucrative	-12.5872
▁ministries	-12.5872
▁prevalent	-12.5872
▁1976	-12.5872
3/98	-12.5873
▁revolv	-12.5873
▁149(8))	-12.5923
▁Echelon	-12.5923
▁Liechtenstein	-12.5923
▁NUTS	-12.5923
▁inadequacy	-12.5923
▁jeopardy	-12.5923
▁nitrogen	-12.5923
▁segregation	-12.5923
▁swept	-12.5923
▁tandem	-12.5923
▁on-going	-12.5923
▁slots	-12.5923
1/98	-12.5924
▁Accord	-12.5948
eviating	-12.5949
ncreased	-12.5974
-commercial	-12.5975
▁Cederschiöld	-12.5975
▁abducted	-12.5975
▁conserve	-12.5975
▁exponential	-12.5975
▁extinction	-12.5975
▁hungry	-12.5975
▁judging	-12.5975
▁unbridled	-12.5975
▁unhealthy	-12.5975
▁crossroads	-12.5975
▁sacred	-12.5975
▁extradite	-12.5975
▁colonis	-12.5976
3/97	-12.5976
legislative	-12.6015
▁entrench	-12.6026
▁Bjerregaard	-12.6026
▁Bologna	-12.6026
▁Figueiredo	-12.6026
▁Schmitt	-12.6026
▁Troika	-12.6026
▁buried	-12.6026
▁crazy	-12.6026
▁pragmatism	-12.6026
▁1975	-12.6026
▁biofuel	-12.6041
▁Specific	-12.6077
▁NAFO	-12.6078
▁Pursu	-12.6078
▁Quality	-12.6078
▁encroach	-12.6078
▁spontaneous	-12.6078
▁Science	-12.6078
▁thwart	-12.6078
▁verge	-12.6078
▁utopia	-12.613
▁Curtain	-12.613
▁EAGGF	-12.613
▁GNI	-12.613
▁Kiev	-12.613
▁Pinochet	-12.613
▁Söderman	-12.613
▁cessation	-12.613
▁fodder	-12.613
▁least-developed	-12.613
▁man-made	-12.613
▁misunderstood	-12.613
▁pessimistic	-12.613
▁sanitation	-12.613
▁turmoil	-12.613
▁unjustifiable	-12.613
▁insolvency	-12.613
ologists	-12.6139
mplementing	-12.6152
3/2001	-12.6157
▁Frankfurt	-12.6182
▁Important	-12.6182
▁Srebrenica	-12.6182
▁atmospheric	-12.6182
▁conscientious	-12.6182
▁starving	-12.6182
▁testimony	-12.6182
▁separatist	-12.6182
▁void	-12.6182
▁psycho	-12.6183
6/2001	-12.6183
2/98	-12.6184
State	-12.6185
origin	-12.6227
ccupied	-12.6235
▁Enterprise	-12.6235
▁satisfies	-12.6235
▁scanners	-12.6235
▁Pronk	-12.6235
-country	-12.6237
0/2001	-12.6238
▁Immunities	-12.6288
▁Passenger	-12.6288
▁asylum-seekers	-12.6288
▁diagnose	-12.6288
▁hindrance	-12.6288
▁sensitivities	-12.6288
▁Establish	-12.6288
4/98	-12.6288
5/2001	-12.6289
▁Ferreira	-12.6341
ė	-12.6666
°	-12.6777
&	-12.6946
$	-12.706
ø	-12.7117
ê	-12.735
ă	-12.7589
ő	-12.8606
ï	-12.8673
[	-13.0031
ë	-13.1811
Å	-13.1997
â	-13.288
Á	-13.2983
ľ	-13.3849
É	-13.443
Ι	-13.4796
Ó	-13.4796
ž	-13.4921
ę	-13.5176
ô	-13.5571
ý	-13.5706
ğ	-13.5706
ň	-13.5982
•	-13.6123
=	-13.6558
Α	-13.6858
å	-13.7012
Τ	-13.7168
Ç	-13.7327
−	-13.7652
ś	-13.7989
―	-13.8161
·	-13.8336
ū	-13.8882
Í	-13.9863
“	-14.1422
Č	-14.1666
ī	-14.2706
Μ	-14.3269
‘	-14.3552
Ô	-14.4501
_	-14.5179
Ε	-14.5179
Ï	-14.6292
æ	-14.6692
@	-14.7543
Ν	-14.7997
а	-14.8474
ò	-14.8474
⁄	-14.8474
Ü	-14.8974
ì	-14.8974
\	-14.95
ã	-15.064
μ	-15.0644
ź	-15.0644
Ì	-15.1269
е	-15.1935
ο	-15.1935
Ο	-15.265
о	-15.265
õ	-15.265
ą	-15.3419
*	-15.4252
Κ	-15.5161
Ρ	-15.5161
т	-15.5161
ρ	-15.5161
р	-15.6161
ě	-15.6161
ı	-15.6161
œ	-15.6161
н	-15.7272
ù	-15.7273
ǎ	-15.7273
в	-15.8523
ż	-15.8523
и	-15.8523
α	-15.8523
с	-15.8523
τ	-15.9951
ε	-15.9951
к	-16.1618
©	-16.1618
ķ	-16.1618
β	-16.1618
§	-16.1618
ι	-16.1618
д	-16.3618
ν	-16.3618
л	-16.3618
έ	-16.3618
χ	-16.3618
м	-16.6118
κ	-16.6118
ǐ	-16.6118
ά	-16.6118
ή	-16.6118
δ	-16.6118
й	-16.6118
ί	-16.6118
ш	-16.6118
з	-16.6118
ņ	-16.9451
я	-16.9451
і	-16.9451
λ	-16.9451
ч	-16.9451
η	-17.4451
Ý	-17.4451
ů	-17.4451
Ú	-17.4451
ș	-17.4451
ď	-17.4451
đ	-17.4451
ē	-17.4451
Ģ	-17.4451
ų	-17.4451
ς	-17.4451
ώ	-17.4451
ъ	-17.4451
ā	-17.4451
σ	-17.4451
ό	-17.4451
у	-17.4451
ь	-17.4451
υ	-17.4451
г	-18.4414
б	-18.4415
Н	-18.4416
М	-18.4417
̊	-18.4418
ʻ	-18.4419
Ř	-18.442
Î	-18.4421
п	-18.4422
Υ	-18.4423
Ż	-18.4424
Ľ	-18.4425
`	-18.4426
π	-18.4427
Ê	-18.4428
>	-18.4429
ť	-18.443
¡	-18.4431
Β	-18.4432
Ł	-18.4433
Ş	-18.4434
Đ	-18.4435
Ś	-18.4436
Â	-18.4437
î	-18.4438
Ø	-18.4439
́	-18.444
û	-18.4441
Ž	-18.4442
ř	-18.4443
ţ	-18.4444
€	-18.4445
Ő	-18.4446
Ţ	-18.4447
£	-18.4448
#	-18.4449
Ö	-18.445
À	-18.4451
Ä	-18.4451
ō	-18.4451
<	-18.4451
|	-18.4451
«	-18.4451
±	-18.4451
»	-18.4451
Ð	-18.4451
Ù	-18.4451
ð	-18.4451
÷	-18.4451
þ	-18.4451
Ć	-18.4451
İ	-18.4451
ŵ	-18.4451
ǔ	-18.4451
γ	-18.4451
ω	-18.4451
Є	-18.4451
А	-18.4451
Д	-18.4451
Ñ	-18.4451
ĉ	-18.4451
ύ	-18.4451
Š	-18.4451
Π	-18.4451
φ	-18.4451
О	-18.4451
