<s>	0
</s>	0
<unk>	0
<pad>	0
s	-3.25639
▁de	-3.59794
,	-3.68642
.	-4.02228
▁�	-4.26751
e	-4.29835
▁la	-4.41553
▁	-4.41614
▁et	-4.66617
▁le	-4.78324
▁en	-4.93735
▁:	-4.99167
)	-5.01501
▁du	-5.04965
r	-5.05048
▁des	-5.22759
▁les	-5.2711
▁est	-5.30465
▁|	-5.46954
▁?	-5.47052
▁-	-5.50141
�	-5.50803
t	-5.52998
-	-5.56152
▁un	-5.57466
a	-5.59406
▁a	-5.59996
▁par	-5.63593
o	-5.64334
▁(	-5.64618
▁une	-5.66451
y	-5.7342
i	-5.78998
▁dans	-5.79294
▁Le	-5.8712
c	-5.87634
n	-5.90669
d	-5.92664
▁au	-5.95177
▁La	-5.95654
es	-5.98546
▁pour	-6.00777
er	-6.00958
▁A	-6.02958
u	-6.03558
▁sur	-6.09448
▁qui	-6.11731
re	-6.18761
nt	-6.23101
l	-6.24754
▁l'	-6.26943
le	-6.30284
▁que	-6.30797
▁the	-6.31431
in	-6.32113
▁S	-6.32119
▁in	-6.33045
▁1	-6.35218
▁se	-6.35258
s,	-6.35494
ment	-6.3716
m	-6.37526
▁il	-6.3904
▁Il	-6.43452
ra	-6.44062
al	-6.4624
▁2	-6.47137
:	-6.476
▁ou	-6.50956
▁of	-6.52125
>	-6.54018
▁son	-6.546
▁plus	-6.55092
te	-6.56014
▁avec	-6.56062
▁18	-6.56725
f	-6.57728
p	-6.58494
ne	-6.59254
▁<	-6.60288
ant	-6.61218
▁sa	-6.61601
s.	-6.63498
g	-6.63976
]]	-6.65079
ur	-6.66858
▁Les	-6.68042
▁sont	-6.70202
an	-6.70327
▁3	-6.70578
en	-6.70699
on	-6.70988
#	-6.71259
us	-6.7326
ro	-6.75791
▁re	-6.75872
/	-6.7706
k	-6.77472
),	-6.78216
x	-6.78409
it	-6.79421
z	-6.79966
▁E	-6.81077
ar	-6.81128
la	-6.81753
▁En	-6.82624
A	-6.83199
).	-6.84495
ation	-6.84908
▁pas	-6.85132
▁C	-6.86009
na	-6.86055
?	-6.86295
▁[[	-6.86459
il	-6.86511
or	-6.87802
▁ne	-6.88071
li	-6.89049
is	-6.89115
"	-6.90949
▁6	-6.92471
▁4	-6.92502
me	-6.93693
h	-6.94685
'	-6.94866
S	-6.96207
el	-6.96346
ie	-6.96697
▁ce	-6.97022
ta	-6.98771
▁d�	-6.99486
▁d'	-7.00075
▁P	-7.02165
de	-7.02426
▁B	-7.0249
▁F	-7.02613
C	-7.02646
ter	-7.0283
▁m	-7.03969
▁aux	-7.06412
▁Portail	-7.06417
▁5	-7.06607
b	-7.06748
▁T	-7.07843
ri	-7.07932
ma	-7.08118
th	-7.09007
w	-7.09105
D	-7.09337
▁con	-7.09402
ing	-7.10287
▁I	-7.11205
▁and	-7.11326
P	-7.1133
ent	-7.11866
▁comme	-7.13346
▁D	-7.1339
v	-7.14002
r�	-7.1414
▁K	-7.14929
di	-7.15032
▁De	-7.15553
at	-7.1593
▁The	-7.15961
▁to	-7.162
to	-7.16262
▁r�	-7.16813
ir	-7.16891
ed	-7.17449
t�	-7.17709
▁;	-7.18467
lo	-7.1932
M	-7.2075
che	-7.21587
�e	-7.21709
E	-7.22255
▁7	-7.22407
ch	-7.22918
▁"	-7.23205
T	-7.2351
I	-7.24124
▁0	-7.24674
▁d'un	-7.25193
co	-7.25498
▁article	-7.25587
▁l'a	-7.27115
▁O	-7.27279
R	-7.27727
ce	-7.28293
vi	-7.28593
ci	-7.28595
▁G	-7.29093
ge	-7.29169
▁�t�	-7.29468
2	-7.3009
1	-7.3047
▁ses	-7.30842
▁Re	-7.31126
que	-7.32043
▁France	-7.3214
no	-7.32694
va	-7.33034
▁17	-7.3339
▁Cet	-7.33464
l�	-7.33702
age	-7.33732
▁d'une	-7.33812
ck	-7.34289
ve	-7.34327
B	-7.36657
ique	-7.39782
ga	-7.39849
F	-7.39856
it�	-7.40843
▁deux	-7.4124
▁M	-7.4222
▁8	-7.42297
ine	-7.42335
19	-7.42605
ff	-7.42711
ca	-7.43203
st	-7.43503
eur	-7.43566
▁fait	-7.44008
mi	-7.44028
sse	-7.44488
L	-7.44643
da	-7.44709
▁R	-7.45448
ia	-7.45716
▁N	-7.47581
aux	-7.47625
▁Ma	-7.47833
et	-7.47839
▁concernant	-7.47907
man	-7.4818
▁mais	-7.48641
▁9	-7.49174
▁Vous	-7.4938
go	-7.49481
▁connaissances	-7.50029
▁on	-7.50295
au	-7.50922
▁pouvez	-7.50928
▁W	-7.51125
▁Sa	-7.51237
▁entre	-7.51347
▁partager	-7.51376
▁vos	-7.51455
▁fut	-7.51683
ion	-7.51869
H	-7.5189
ry	-7.5191
▁(Comment	-7.5216
am�liorant.	-7.52241
ni	-7.52468
ou	-7.52494
ti	-7.52688
ly	-7.52702
O	-7.5272
son	-7.5277
▁�bauche	-7.53016
▁10	-7.53348
▁cette	-7.53461
do	-7.5358
N	-7.5374
e,	-7.54181
ton	-7.54344
op	-7.54345
mo	-7.5572
�s	-7.57595
▁pro	-7.5879
▁In	-7.59148
ad	-7.59289
ba	-7.59296
3	-7.60125
ul	-7.61252
▁m�me	-7.61716
▁L'	-7.62281
G	-7.63101
ement	-7.63716
▁16	-7.63992
▁Al	-7.64629
▁Ba	-7.65205
▁elle	-7.65299
ard	-7.65377
▁15	-7.65733
gi	-7.65934
um	-7.65954
tre	-7.66343
▁nom	-7.66713
ver	-7.67422
▁d'a	-7.67989
▁Ro	-7.68232
▁ont	-7.69315
▁aussi	-7.69873
|	-7.70029
ka	-7.70312
▁di	-7.70447
be	-7.70878
▁Pa	-7.71558
▁Mar	-7.71562
▁ville	-7.71634
▁(19	-7.71678
▁qu'il	-7.71681
▁Ra	-7.71817
▁�tait	-7.71856
▁Vi	-7.7194
▁Elle	-7.72065
▁?).	-7.72126
▁12	-7.72239
▁n�	-7.72514
iste	-7.73507
im	-7.73639
ait	-7.73799
▁leur	-7.74361
▁lui	-7.745
▁Mo	-7.74602
ol	-7.75874
▁Con	-7.76268
00	-7.76696
V	-7.77598
▁Me	-7.77803
5	-7.78133
▁V	-7.78271
▁sans	-7.78332
▁Ar	-7.78892
▁Ca	-7.7908
hi	-7.79308
id	-7.79592
ance	-7.79681
nd	-7.79726
▁Co	-7.79811
▁Bo	-7.79823
0	-7.79957
▁Li	-7.8039
▁l'�	-7.80399
aire	-7.80424
4	-7.80558
pe	-7.80787
mp	-7.81678
▁Lo	-7.81878
▁14	-7.82024
lle	-7.82218
▁Se	-7.8279
18	-7.83645
ic	-7.84206
ke	-7.84434
▁ex	-7.84451
10	-7.8467
▁commune	-7.84809
▁�tre	-7.84956
▁11	-7.85125
bi	-7.85151
▁sous	-7.85157
▁13	-7.85178
les	-7.85282
▁dont	-7.85425
ac	-7.85666
▁p	-7.85754
m�	-7.86199
ence	-7.86776
vo	-7.86791
ale	-7.87087
e.	-7.87099
tes	-7.87101
if	-7.87221
]	-7.87453
ll	-7.87528
(	-7.8781
▁Au	-7.8789
ten	-7.87938
▁peut	-7.88367
ng	-7.88539
▁o�	-7.88841
▁20	-7.88938
tra	-7.88974
▁H	-7.89025
▁L	-7.89204
U	-7.89216
un	-7.89521
▁partie	-7.89584
ot	-7.89649
▁Un	-7.89712
▁Ce	-7.89741
▁si	-7.90182
ron	-7.90358
▁Car	-7.91216
lin	-7.91565
▁Cette	-7.91915
▁pr�	-7.91924
▁y	-7.92147
qui	-7.92996
▁fran�ais	-7.93259
;	-7.93345
▁2007	-7.94043
po	-7.94201
▁Ha	-7.94455
▁Po	-7.94508
▁Jean	-7.95075
v�	-7.95281
▁He	-7.95894
▁Pour	-7.96138
ha	-7.96185
▁fin	-7.96817
j	-7.9714
▁tour	-7.97283
▁tr�s	-7.97434
▁ma	-7.97704
sion	-7.97918
▁alors	-7.9823
isme	-7.98362
▁On	-7.98448
▁19	-7.9877
20	-7.9902
▁Mi	-7.99542
der	-8.00317
tin	-8.00336
▁U	-8.00579
�t	-8.00673
ut	-8.00864
▁mars	-8.01013
▁ca	-8.01016
▁premier	-8.01528
▁1999	-8.01892
ign	-8.01993
▁San	-8.02056
chi	-8.02113
▁2006	-8.02762
as	-8.0282
mb	-8.03024
land	-8.03147
▁2000	-8.03234
c�	-8.03258
▁monde	-8.03933
▁groupe	-8.04039
n�	-8.04278
▁co	-8.04505
▁premi�re	-8.04661
▁contre	-8.04859
's	-8.04897
▁Be	-8.05137
▁�galement	-8.05179
▁is	-8.05618
pa	-8.05948
con	-8.06
gue	-8.06666
-19	-8.06944
▁ainsi	-8.07166
▁Ho	-8.07279
min	-8.07937
▁li	-8.08007
▁si�cle	-8.08052
lu	-8.08205
▁d'�	-8.08269
8	-8.08322
▁d'A	-8.08446
▁Na	-8.08591
▁No	-8.08832
▁2001	-8.08863
▁Paris	-8.09036
ure	-8.09044
able	-8.09048
50	-8.0913
▁Cha	-8.09257
▁apr�s	-8.09292
▁do	-8.0934
tro	-8.09688
▁ra	-8.09691
▁J	-8.0981
ier	-8.10153
11	-8.10271
ux	-8.11004
▁for	-8.11047
▁mai	-8.11459
▁r�gion	-8.11464
▁Par	-8.11484
tte	-8.11638
g�	-8.12171
▁politique	-8.12551
▁fa	-8.12618
▁Pays	-8.1289
elle	-8.13012
ive	-8.13067
6	-8.13097
▁an	-8.13391
est	-8.13455
▁Du	-8.13485
▁tout	-8.13552
▁Di	-8.13607
30	-8.13723
am	-8.13772
▁2005	-8.13907
▁d	-8.14357
▁Si	-8.146
tant	-8.14826
▁mort	-8.14961
tique	-8.15132
14	-8.15339
ide	-8.1535
▁Ta	-8.15513
�es	-8.15889
▁be	-8.15954
du	-8.16112
ud	-8.16254
ction	-8.16314
[	-8.16364
ch�	-8.16385
▁puis	-8.16586
ig	-8.16637
▁Man	-8.16797
▁comp	-8.16807
▁car	-8.17238
rent	-8.17366
▁Pi	-8.17541
▁voir	-8.18188
▁depuis	-8.18278
tu	-8.18301
qua	-8.18438
port	-8.19066
ian	-8.19211
ho	-8.19253
▁l'A	-8.1973
ner	-8.19809
▁2004	-8.20131
40	-8.20143
▁po	-8.20185
▁vers	-8.20293
ki	-8.2035
d�	-8.20428
pi	-8.20568
]],	-8.20589
15	-8.20655
cu	-8.20859
K	-8.2093
io	-8.21144
▁000	-8.21263
sh	-8.21554
ru	-8.21697
▁bien	-8.21697
vent	-8.21855
os	-8.21905
▁ann�es	-8.21908
▁X	-8.2205
▁Saint-	-8.22466
ite	-8.22868
▁�tats-Unis	-8.22945
▁2002	-8.23006
ile	-8.23059
▁pays	-8.23081
▁c	-8.23153
17	-8.2329
▁film	-8.23324
▁or	-8.23859
13	-8.24048
�re	-8.24145
12	-8.24185
▁encore	-8.24224
rie	-8.2451
▁Ju	-8.24726
▁Jo	-8.24832
▁juin	-8.24849
gu	-8.25435
%	-8.25665
''	-8.26122
ko	-8.26196
wa	-8.26481
▁Ga	-8.26676
▁Liens	-8.26692
ille	-8.26692
▁f	-8.27269
▁Dans	-8.27533
▁ces	-8.27551
J	-8.27604
▁vie	-8.27757
▁Bu	-8.28171
▁*	-8.28223
▁Ja	-8.28502
cha	-8.28723
▁cours	-8.28739
▁Bar	-8.28984
7	-8.29337
▁Hu	-8.29431
▁C'est	-8.29456
ler	-8.29604
▁g	-8.29613
W	-8.29686
▁trois	-8.29829
eau	-8.29886
▁septembre	-8.30025
em	-8.30056
▁bi	-8.301
ran	-8.30278
60	-8.30499
oc	-8.30515
ina	-8.30728
▁lors	-8.3092
▁plusieurs	-8.31239
▁II	-8.31329
▁Fa	-8.31348
mon	-8.31596
▁v	-8.31687
▁An	-8.31764
mar	-8.31928
▁Nord	-8.31933
es,	-8.32074
▁Pro	-8.32213
�n	-8.32644
ise	-8.32736
val	-8.32746
▁Son	-8.32791
▁Z	-8.33057
ez	-8.33196
tation	-8.33438
ger	-8.336
ois	-8.33737
▁Ka	-8.34043
▁avant	-8.34201
▁/	-8.3424
▁Ri	-8.34437
▁janvier	-8.34517
▁g�n�ral	-8.3486
ord	-8.34867
▁l'in	-8.34971
bo	-8.35124
▁To	-8.35133
ang	-8.35209
▁Do	-8.35354
▁Lu	-8.35403
▁So	-8.35605
▁bo	-8.35682
▁2003	-8.35695
▁fran�aise	-8.35902
ty	-8.3604
ations	-8.36234
▁al	-8.36343
per	-8.36471
ts	-8.36512
▁25	-8.36837
▁forme	-8.36841
25	-8.36872
44	-8.37188
▁partir	-8.3722
▁M�	-8.3731
pp	-8.37322
ill	-8.37639
tt	-8.37904
qu�	-8.37942
▁place	-8.37984
▁avril	-8.38016
(s)	-8.3814
16	-8.3825
▁22	-8.38379
mes	-8.3838
ville	-8.38532
▁Pe	-8.38579
▁21	-8.38636
ix	-8.38665
▁Ni	-8.3875
za	-8.38995
▁externes	-8.39236
▁ans	-8.39308
▁per	-8.39414
▁octobre	-8.39624
▁30	-8.39868
▁Mont	-8.39932
▁grand	-8.40051
▁Une	-8.40447
aient	-8.40452
▁Je	-8.40732
▁temps	-8.40788
mer	-8.40809
▁Liste	-8.40907
▁Gu	-8.41009
tri	-8.41109
bre	-8.41625
od	-8.41625
▁juillet	-8.41644
and	-8.4191
▁fois	-8.41941
▁autres	-8.4198
nce	-8.42002
05	-8.42074
▁m�	-8.42102
▁1990	-8.42167
ien	-8.42307
▁24	-8.42468
▁Val	-8.42759
es.	-8.42872
tor	-8.42901
▁n'est	-8.4299
▁Te	-8.43088
ue	-8.43123
9	-8.43326
ient	-8.4345
03	-8.43477
▁Da	-8.43562
▁famille	-8.43616
▁s�rie	-8.43849
▁articles	-8.43869
▁d�cembre	-8.44022
▁faire	-8.44116
80	-8.44144
▁Su	-8.44191
▁ao�t	-8.44504
nes	-8.44755
▁novembre	-8.44801
▁avait	-8.44802
09	-8.44955
▁population	-8.44974
▁peu	-8.45085
02	-8.45126
&quot;	-8.45299
▁Histoire	-8.45303
om	-8.45373
64	-8.45446
p�	-8.45745
▁sou	-8.45887
90	-8.45965
56	-8.46005
eux	-8.46147
pt	-8.46321
▁tous	-8.46443
▁w	-8.46466
▁Parti	-8.46599
don	-8.46626
▁man	-8.46646
65	-8.46665
▁Code	-8.46809
70	-8.46829
ano	-8.46926
ze	-8.47016
▁2008	-8.47139
sta	-8.47213
lan	-8.47227
▁1er	-8.47564
21	-8.47611
}}}	-8.47699
▁com	-8.4793
58	-8.47971
ire	-8.47994
45	-8.48136
04	-8.48136
sa	-8.48213
▁New	-8.48302
hu	-8.48329
66	-8.48614
▁�quipe	-8.48844
▁23	-8.49168
▁(18	-8.49227
▁Louis	-8.49286
▁page	-8.49341
▁Bi	-8.49352
▁R�	-8.49406
▁1998	-8.49601
-1	-8.50007
▁Ne	-8.50286
▁port	-8.50493
▁guerre	-8.50493
ja	-8.50516
▁Or	-8.50641
▁donc	-8.50677
lon	-8.50704
use	-8.50808
07	-8.50808
▁site	-8.50973
▁projet	-8.50993
vers	-8.50998
59	-8.51199
▁Pierre	-8.51243
ienne	-8.51251
▁d�but	-8.51265
48	-8.51322
▁no	-8.51358
cher	-8.51359
ya	-8.51623
▁cas	-8.51681
53	-8.51717
▁Per	-8.51729
▁va	-8.52036
ab	-8.52577
▁(S	-8.52638
57	-8.5269
art	-8.52952
lie	-8.53059
▁plan	-8.5309
▁Ru	-8.53132
▁titre	-8.5334
ven	-8.5339
ist	-8.53491
▁non	-8.53865
▁f�vrier	-8.53914
ologie	-8.53936
tal	-8.53982
▁[	-8.5418
ais	-8.54193
75	-8.54283
ag	-8.54285
▁trouve	-8.54383
tic	-8.54389
ateur	-8.545
teur	-8.54673
54	-8.54746
tion	-8.54944
22	-8.54956
72	-8.54957
▁&	-8.55321
33	-8.55328
dic	-8.55402
77	-8.55586
cul	-8.55745
▁Ver	-8.55879
▁inter	-8.56501
▁so	-8.56582
61	-8.56628
▁d�c	-8.57221
08	-8.5728
▁Com	-8.57387
▁Mon	-8.57416
ette	-8.57422
78	-8.57427
06	-8.57581
ther	-8.57639
31	-8.57687
▁sol	-8.57708
▁musique	-8.57812
▁Y	-8.57888
h�	-8.57932
47	-8.57964
▁d�partement	-8.58019
nc	-8.58329
�r	-8.58463
27	-8.58588
isation	-8.5859
urs	-8.58647
▁nombre	-8.58701
28	-8.58881
26	-8.58995
bli	-8.59115
89	-8.59235
24	-8.59485
35	-8.59517
62	-8.59592
ade	-8.59669
▁1962	-8.59669
dy	-8.59689
i�re	-8.59731
▁Cor	-8.59744
23	-8.59792
▁28	-8.59847
▁Gi	-8.59892
�me	-8.59929
▁Ko	-8.60181
▁(C	-8.60251
▁roi	-8.60307
▁Go	-8.60535
▁grande	-8.60554
▁but	-8.60662
63	-8.61034
rou	-8.6112
▁Ti	-8.61155
55	-8.61156
ana	-8.61161
▁ch	-8.61254
43	-8.61367
▁26	-8.61412
01	-8.61448
car	-8.61454
▁situ�e	-8.61467
▁pri	-8.61607
▁Saint	-8.61626
▁ta	-8.61673
▁Grand	-8.61691
▁{{{	-8.61736
▁Gra	-8.61748
up	-8.61784
▁s'	-8.61877
ak	-8.62032
▁by	-8.62128
ins	-8.62253
ld	-8.62271
▁Population	-8.62334
46	-8.62376
bu	-8.62583
ap	-8.62705
ture	-8.6288
▁droit	-8.62946
mis	-8.63003
36	-8.63025
ales	-8.6312
tur	-8.63186
dia	-8.63186
rait	-8.63279
▁km�	-8.63299
ate	-8.633
▁27	-8.63358
71	-8.63404
ley	-8.6362
99	-8.63673
▁Tra	-8.63872
onne	-8.63945
▁with	-8.64062
▁soit	-8.64124
41	-8.64215
▁mo	-8.64327
52	-8.64328
▁avoir	-8.64438
▁n'a	-8.64455
vant	-8.64509
39	-8.64715
lier	-8.64758
ub	-8.64776
42	-8.64839
ster	-8.64963
▁ci	-8.65007
88	-8.65018
▁lieu	-8.65079
▁ad	-8.65309
X	-8.65438
▁Paul	-8.65654
38	-8.65686
▁leurs	-8.65715
29	-8.65832
▁(A	-8.65867
ex	-8.66171
▁fi	-8.662
▁El	-8.66213
▁ligne	-8.66267
▁nationale	-8.66276
37	-8.66348
92	-8.66362
[1]	-8.66405
▁jeu	-8.66413
▁Chi	-8.66531
▁moins	-8.66547
49	-8.66656
85	-8.66747
93	-8.66829
▁fonction	-8.6702
▁%	-8.6718
▁notamment	-8.67227
34	-8.67393
▁not	-8.67701
tta	-8.67913
▁(P	-8.67978
▁Charles	-8.68093
94	-8.6812
▁me	-8.68231
iques	-8.68237
51	-8.68288
ice	-8.68391
▁mar	-8.68515
eurs	-8.6855
91	-8.68696
▁ga	-8.68722
▁pi	-8.68761
▁dis	-8.69205
...	-8.69227
ns	-8.69318
▁c'est	-8.69334
▁Sch	-8.69372
67	-8.69383
▁p.	-8.69404
hy	-8.6944
=	-8.6945
ica	-8.69481
men	-8.69539
mont	-8.69544
gen	-8.69671
▁Tour	-8.6976
▁John	-8.69808
ach	-8.69897
res	-8.69912
▁Des	-8.70252
▁s�	-8.70252
▁suite	-8.70263
▁Mor	-8.70308
95	-8.70494
ris	-8.70518
▁1997	-8.70582
ber	-8.70607
▁Paris,	-8.70775
▁Wa	-8.70778
ble	-8.70852
aires	-8.71214
▁Bra	-8.71238
tan	-8.71317
▁at	-8.71333
-S	-8.71338
76	-8.71453
▁ba	-8.7148
▁syst�me	-8.71507
▁na	-8.71585
je	-8.71651
�ne	-8.71663
serv	-8.71813
ens	-8.71899
he	-8.71931
▁e	-8.72011
by	-8.72143
tier	-8.7218
ple	-8.72377
▁km	-8.72386
▁=	-8.724
▁b	-8.726
▁29	-8.7274
xe	-8.72759
ante	-8.72769
▁1996	-8.72811
▁habitants	-8.72837
▁ha	-8.72864
ay	-8.72995
▁!	-8.73031
83	-8.73357
▁pendant	-8.73625
▁that	-8.73629
96	-8.73685
▁point	-8.73739
isse	-8.73855
▁parti	-8.74049
▁R�gion	-8.74065
86	-8.74187
▁was	-8.74398
▁quelques	-8.74426
ov	-8.74453
▁St	-8.74489
▁autre	-8.74548
32	-8.74767
▁1995	-8.74768
fa	-8.74829
▁Vo	-8.74981
Y	-8.7524
▁selon	-8.75271
▁dernier	-8.75413
ph	-8.75436
▁celle	-8.75503
tel	-8.75608
97	-8.7583
98	-8.75861
▁Robert	-8.75941
zi	-8.75985
▁D�	-8.7607
b�	-8.76132
une	-8.76228
▁Apr�s	-8.76391
▁Col	-8.76403
istes	-8.76462
vis	-8.76715
▁joueur	-8.76868
▁app	-8.77241
▁comptes	-8.77369
▁as	-8.77514
▁1982	-8.77584
han	-8.77625
▁s'a	-8.77678
84	-8.77811
ole	-8.77844
82	-8.77904
73	-8.77964
▁communes	-8.78081
ino	-8.78317
81	-8.78384
we	-8.78404
ration	-8.78459
fi	-8.78463
▁reste	-8.78537
87	-8.78652
par	-8.78659
enne	-8.78898
68	-8.79096
nk	-8.7912
▁st	-8.79165
▁Superficie	-8.79208
▁homonymes	-8.79253
the	-8.79385
▁doubles	-8.79438
dre	-8.79489
▁hab.	-8.79772
uf	-8.79774
▁1968	-8.80247
▁vi	-8.80274
▁jour	-8.80275
▁fils	-8.80356
venir	-8.80511
</	-8.80589
▁su	-8.80623
▁souvent	-8.80787
▁tra	-8.80808
▁Canton	-8.80829
▁doit	-8.80883
74	-8.80966
_	-8.80999
ai	-8.81181
ric	-8.81301
lement	-8.81314
▁''	-8.81478
act	-8.8152
▁part	-8.81544
▁Her	-8.8156
▁exemple	-8.81723
des	-8.81942
▁imp	-8.82175
ow	-8.8239
ous	-8.82405
▁d'in	-8.82558
ral	-8.82617
�te	-8.82648
▁g�	-8.8265
▁officiel	-8.82726
tif	-8.82944
uc	-8.83029
ution	-8.83071
▁(�	-8.83075
bra	-8.8309
▁Fi	-8.83313
79	-8.83383
▁l�	-8.83801
�l	-8.83835
ria	-8.83929
▁club	-8.83932
▁Cal	-8.84058
▁Sud	-8.84093
ham	-8.8416
ines	-8.84275
one	-8.84298
tch	-8.84393
▁vo	-8.84565
▁Che	-8.84587
my	-8.84646
rio	-8.84688
ban	-8.84694
▁pa	-8.8477
q	-8.84878
▁national	-8.84906
▁d'E	-8.84919
69	-8.84989
ible	-8.8504
bert	-8.85119
rit	-8.85179
die	-8.8533
▁+	-8.85332
▁ro	-8.85362
▁Ki	-8.85436
▁Fe	-8.8553
▁1994	-8.85567
▁Can	-8.85672
▁Canada	-8.85704
end	-8.85748
ore	-8.85751
▁Michel	-8.85814
▁saison	-8.85832
▁village	-8.8588
▁lo	-8.8601
arch	-8.86173
ara	-8.86582
▁Site	-8.86718
▁(1	-8.86814
van	-8.86865
▁1975	-8.86982
▁gra	-8.87003
form	-8.87048
ons	-8.87076
euse	-8.87107
▁petit	-8.87522
oir	-8.87568
▁Hi	-8.8763
▁am�ricain	-8.87655
▁nouveau	-8.87681
vin	-8.87778
▁travail	-8.87831
▁permet	-8.87842
bel	-8.87858
▁pr�s	-8.87903
▁cha	-8.87951
▁province	-8.87987
-2	-8.88059
▁vol	-8.88196
fu	-8.8825
den	-8.88315
tz	-8.88401
▁Sp	-8.88558
nie	-8.88566
gent	-8.88598
▁Bri	-8.8861
▁Fran�ois	-8.8862
stre	-8.88687
▁Densit�	-8.89009
▁d'autres	-8.89032
▁Communes	-8.89132
let	-8.89369
non	-8.89411
ren	-8.89424
our	-8.89437
▁1993	-8.8947
▁public	-8.89613
uve	-8.89851
▁1991	-8.89938
▁l'ex	-8.89967
zo	-8.89985
▁sp	-8.90181
▁sera	-8.90273
▁nombreux	-8.90281
▁devient	-8.90283
pression	-8.90307
▁anglais	-8.90364
▁dit	-8.90429
▁porte	-8.90473
ob	-8.90521
-B	-8.90527
▁(en	-8.90672
pos	-8.90701
▁im	-8.90707
r�e	-8.90731
▁ju	-8.90759
ges	-8.90938
�n�	-8.9099
▁Sur	-8.9106
▁Ch	-8.91074
▁Har	-8.91308
ight	-8.91387
cal	-8.9143
▁Bou	-8.91553
▁pu	-8.91554
ose	-8.91698
▁l'un	-8.91725
▁fr	-8.91991
▁type	-8.92025
ers	-8.92025
net	-8.92068
▁�crit	-8.92134
bb	-8.92207
▁Italie	-8.92226
▁III	-8.92292
▁livre	-8.92402
ok	-8.92408
▁Jacques	-8.92579
▁1992	-8.92583
▁match	-8.92696
cri	-8.92805
▁from	-8.92821
pri	-8.92905
▁h�	-8.92933
ity	-8.92999
▁gouvernement	-8.93001
▁pouvoir	-8.93008
▁Sou	-8.93351
▁(B	-8.93455
▁Nom	-8.93543
▁centre	-8.93634
▁connu	-8.9364
▁all	-8.93649
▁Ge	-8.93672
vel	-8.93714
▁jusqu'�	-8.93845
lli	-8.93877
iens	-8.93963
▁Arrondissement	-8.94205
▁For	-8.94267
▁it	-8.94307
lla	-8.9434
cteur	-8.94472
ssa	-8.94558
▁(en)	-8.94726
bourg	-8.94735
gna	-8.94974
▁classique	-8.95059
▁mot	-8.95262
nu	-8.95281
▁31	-8.95333
▁roman	-8.95344
▁nouvelle	-8.95467
▁Am	-8.95588
duc	-8.95633
nom	-8.95743
▁Tri	-8.95793
ji	-8.95827
▁cou	-8.95854
▁langue	-8.96102
▁Ier	-8.96114
▁donn�es	-8.9615
can	-8.96159
▁Gar	-8.96176
▁football	-8.96221
gan	-8.96282
▁Mais	-8.96282
▁(D	-8.96294
vre	-8.96301
▁Wi	-8.96368
▁quatre	-8.96552
nn	-8.96626
-A	-8.96628
▁Fo	-8.96628
▁sub	-8.96658
▁he	-8.96675
▁Cour	-8.96813
▁l'histoire	-8.96903
▁trans	-8.97175
▁ho	-8.97205
▁fer	-8.97226
iers	-8.97308
cent	-8.97367
▁nord	-8.97409
rin	-8.97421
ants	-8.9748
▁militaire	-8.97509
▁long	-8.97587
lique	-8.97606
▁toute	-8.97678
▁chef	-8.97701
n�e	-8.9771
▁n	-8.978
▁Notes	-8.97828
fer	-8.97886
log	-8.98003
▁t	-8.98033
▁chez	-8.98034
▁d'or	-8.98133
pre	-8.98184
▁diff�rents	-8.98367
▁M.	-8.98406
-18	-8.98457
▁k	-8.98554
▁bas	-8.98575
▁tard	-8.98578
▁Ad	-8.98593
nant	-8.98715
ies	-8.98731
pha	-8.98804
▁Ke	-8.9891
▁l'�tat	-8.9893
ule	-8.9905
ort	-8.99076
ah	-8.99182
-P	-8.99371
▁toujours	-8.99387
cle	-8.99548
▁Ci	-8.99561
▁Char	-8.9958
▁R�publique	-8.99603
▁min	-8.99643
▁ancien	-8.9971
▁cor	-8.9978
▁ab	-8.99813
▁cet	-8.99834
pin	-8.99993
ker	-9.00057
▁r�le	-9.00373
].	-9.00526
ik	-9.00527
ath	-9.0057
ndre	-9.00649
▁pre	-9.00726
ions	-9.00927
▁fond	-9.00974
ft	-9.01013
▁Fu	-9.01017
▁Bre	-9.01031
▁soci�t�	-9.01166
▁50	-9.01243
▁exp	-9.01268
yn	-9.01357
�tre	-9.01426
it�s	-9.01429
▁Sal	-9.01532
▁s'est	-9.01603
▁d�s	-9.01678
▁ar	-9.0177
▁base	-9.01883
▁N�	-9.01911
line	-9.01969
ches	-9.02027
▁Ber	-9.02062
ologique	-9.02077
▁l'O	-9.02099
▁compte	-9.02209
berg	-9.02259
▁Coupe	-9.0229
ative	-9.02515
▁(M	-9.02522
-L	-9.02561
▁Ex	-9.02618
▁hab./km�	-9.02641
▁P�	-9.02752
▁niveau	-9.02788
▁1980	-9.02897
ste	-9.02919
▁Ve	-9.03016
▁Port	-9.03074
▁Guerre	-9.03091
▁We	-9.03125
mat	-9.03136
▁cour	-9.03213
▁p�re	-9.03273
▁terme	-9.03467
▁sud	-9.03472
▁are	-9.03474
cur	-9.03753
▁qu'elle	-9.0386
▁nous	-9.0392
▁France.	-9.03925
▁main	-9.04039
▁Bro	-9.04061
pro	-9.04065
▁Sha	-9.04124
id�	-9.04229
▁version	-9.04292
ny	-9.04296
ect	-9.04296
]].	-9.04368
▁1989	-9.04377
rant	-9.04382
▁Cas	-9.04464
▁�taient	-9.04464
▁chaque	-9.04531
▁tu	-9.04564
▁da	-9.0462
mor	-9.04729
▁100	-9.05042
▁Nombre	-9.05098
iv	-9.05134
▁l'E	-9.05163
▁sc	-9.05382
▁Cla	-9.05488
▁pr�sident	-9.05519
pu	-9.0562
ves	-9.05649
▁B�	-9.05716
gh	-9.05727
�c	-9.05761
▁ru	-9.05798
com	-9.05942
▁celui	-9.06005
▁rapport	-9.06033
▁Date	-9.06046
itude	-9.06221
▁tant	-9.06387
▁Club	-9.06412
▁peuvent	-9.0646
ski	-9.06475
fe	-9.06508
▁1988	-9.06514
",	-9.06545
lais	-9.06773
dan	-9.0691
har	-9.06959
bri	-9.06961
▁G�ographie	-9.07116
spect	-9.07133
lia	-9.0715
▁bar	-9.07162
wi	-9.07309
▁L'a	-9.07338
yer	-9.07464
lect	-9.0761
▁certains	-9.0762
gg	-9.07659
▁visite	-9.07729
-sur-	-9.07847
ky	-9.07852
olo	-9.07885
▁Prix	-9.08064
▁Qu�bec	-9.08158
▁mon	-9.08188
▁Article	-9.08203
ici	-9.08253
ug	-9.08286
und	-9.08413
Q	-9.08424
�d	-9.08445
▁section	-9.0849
▁canton	-9.08494
!	-9.08509
Z	-9.08515
▁York	-9.08559
▁utilis�	-9.0865
ront	-9.08657
nel	-9.08757
▁postal	-9.08776
▁Altitude	-9.08857
col	-9.0901
▁Bas	-9.09058
▁nomm�	-9.09181
▁loi	-9.09254
naire	-9.09299
▁(R	-9.09334
▁Maire	-9.09343
ori	-9.09394
tit	-9.09397
▁terre	-9.09414
ani	-9.09423
-M	-9.09496
cer	-9.09502
ast	-9.09554
▁joue	-9.09745
▁toutes	-9.09776
▁Administration	-9.09785
▁Martin	-9.09809
▁fille	-9.09867
mme	-9.09878
▁Pu	-9.09908
hor	-9.10028
ich	-9.10056
alit�	-9.10143
▁tel	-9.10208
ces	-9.1029
▁Ces	-9.1029
tr�	-9.10392
ell	-9.10523
▁Mer	-9.10697
fo	-9.10711
tent	-9.10731
La	-9.10881
▁p�riode	-9.10967
▁auto	-9.11089
▁fu	-9.11155
ting	-9.11191
000	-9.11209
▁acc	-9.11221
-de-	-9.1124
▁mont	-9.11254
ju	-9.11347
▁(TV)	-9.11639
▁ministre	-9.11639
▁album	-9.119
▁travers	-9.11977
nne	-9.12107
idae	-9.12461
yl	-9.12536
uel	-9.12543
ib	-9.12694
▁situ�	-9.12701
▁sport	-9.12771
▁raison	-9.12818
▁ni	-9.12832
▁Mu	-9.12916
▁combat	-9.13113
▁Titre	-9.13156
▁&quot;	-9.13196
▁mal	-9.13223
??	-9.13279
ium	-9.1328
iz	-9.13333
bat	-9.13347
ef	-9.13519
▁sens	-9.13538
aud	-9.13563
▁mer	-9.13566
▁o	-9.13586
▁code	-9.13805
ura	-9.13898
▁recherche	-9.13904
▁tri	-9.13973
▁seul	-9.1405
▁Genre	-9.1415
▁furent	-9.14155
*	-9.14207
▁finale	-9.14272
ult	-9.14296
▁David	-9.14478
cy	-9.14642
▁Mal	-9.14684
bin	-9.14756
mit	-9.1478
▁assez	-9.14886
lot	-9.14898
▁ann�e	-9.15127
agne	-9.15251
▁(T	-9.15295
▁Cu	-9.15357
fin	-9.15508
ques	-9.15573
▁personnage	-9.15644
dou	-9.15645
ace	-9.15662
▁l'on	-9.15769
▁rep	-9.15864
▁eu	-9.1589
▁libre	-9.15904
aut	-9.15929
nement	-9.1609
▁Ed	-9.16164
▁Sta	-9.16292
▁*[[	-9.1634
cho	-9.16394
plo	-9.16426
▁Bur	-9.16449
dit	-9.16515
▁homme	-9.16614
▁mouvement	-9.16671
▁�tant	-9.16724
ong	-9.16788
page	-9.17137
gr�	-9.17141
cro	-9.1718
▁ayant	-9.17183
▁Henri	-9.17316
ical	-9.17637
all	-9.17646
▁cin�ma	-9.17658
▁P�riode	-9.17806
is�	-9.17901
▁D�mographie	-9.181
nder	-9.18109
▁�volution	-9.18194
▁Belgique	-9.18198
ius	-9.18207
tar	-9.18267
▁corps	-9.18325
▁1986	-9.18388
▁ren	-9.18427
nde	-9.18434
▁mois	-9.18456
-D	-9.1847
lic	-9.18671
ime	-9.1871
▁Championnat	-9.18727
ola	-9.188
▁art	-9.18812
nal	-9.18814
ss�	-9.18926
cour	-9.18934
▁ils	-9.18962
▁jours	-9.19068
▁Suisse	-9.19088
▁points	-9.19172
shi	-9.19262
▁pr�sent	-9.19351
▁historique	-9.19385
▁William	-9.19559
▁Marie	-9.19618
▁ensuite	-9.1965
▁texte	-9.1966
�que	-9.19695
▁service	-9.19735
gar	-9.1986
dition	-9.19877
stro	-9.19918
▁Ville	-9.19938
tti	-9.19945
▁Ben	-9.20012
▁Mandat	-9.20018
▁Va	-9.20082
▁Ser	-9.20104
▁Art	-9.20105
▁pou	-9.20178
tter	-9.20276
▁Biographie	-9.20334
nais	-9.20342
The	-9.20369
▁production	-9.20415
ification	-9.20432
▁1981	-9.20438
len	-9.20446
way	-9.20449
▁rec	-9.20586
ari	-9.20741
▁War	-9.20792
ages	-9.20869
▁can	-9.20961
ini	-9.20983
tis	-9.21099
tain	-9.21166
▁Q	-9.21176
her	-9.21182
pr�s	-9.21259
▁mondiale	-9.21284
ling	-9.21379
▁(17	-9.21452
ition	-9.21627
�rent	-9.21643
▁p�	-9.21669
ables	-9.21674
▁important	-9.21701
ish	-9.21876
▁d'Ar	-9.21968
assi	-9.21983
▁40	-9.2207
xi	-9.22105
▁Wikip�dia	-9.22173
▁noir	-9.22178
▁L'�	-9.22268
gal	-9.22375
'''	-9.2239
▁personnes	-9.22452
aine	-9.22516
▁environ	-9.22711
▁(L	-9.2272
▁total	-9.2279
▁Cap	-9.22799
[[	-9.22835
nis	-9.22965
▁FC	-9.2298
▁1987	-9.23026
▁1970	-9.23118
▁Communaut�	-9.23132
gre	-9.23157
▁syn	-9.23268
▁petite	-9.23287
off	-9.2333
▁Fre	-9.23349
▁cause	-9.23358
▁face	-9.23367
▁Mag	-9.23419
ku	-9.23509
venu	-9.23512
▁liste	-9.23561
▁ISBN	-9.2358
bor	-9.2361
▁Ya	-9.2361
▁d'I	-9.23613
ek	-9.23641
▁hommes	-9.23657
▁femme	-9.23718
▁D�partement	-9.23753
out	-9.23822
▁H�	-9.2393
▁aujourd'hui	-9.23943
▁afin	-9.24026
las	-9.24087
tien	-9.24339
+	-9.24418
mm	-9.24466
lay	-9.24483
▁Jan	-9.24558
▁Luc	-9.24582
▁Tom	-9.24623
▁r�alis�	-9.24625
▁ch�teau	-9.2473
▁nombreuses	-9.2473
▁maison	-9.24771
▁je	-9.24827
▁XV	-9.24915
tour	-9.24965
▁d'O	-9.25123
▁l'�quipe	-9.25183
▁mise	-9.2526
▁s'�	-9.25341
nch	-9.25362
▁produit	-9.25521
▁coup	-9.25645
lant	-9.25679
▁route	-9.25684
▁construit	-9.25746
▁Pri	-9.25784
▁L�	-9.25911
(en)	-9.25916
▁propre	-9.26064
mand	-9.26165
illon	-9.2633
lor	-9.26371
bon	-9.26402
ary	-9.26421
nier	-9.26522
▁membres	-9.26822
▁J.	-9.26875
i�	-9.26936
▁Bel	-9.27001
▁My	-9.27061
▁Min	-9.27105
igne	-9.27147
▁cr�ation	-9.27303
ami	-9.27394
▁c�t�	-9.27395
▁fr�re	-9.2757
kin	-9.27573
▁zone	-9.27671
▁commun	-9.27715
▁sorti	-9.27787
cre	-9.2781
t�r	-9.27987
▁R�f�rence	-9.27994
▁existe	-9.27996
▁Ter	-9.28005
▁Fin	-9.2803
bus	-9.28041
▁?S	-9.28074
nelle	-9.28076
▁Tu	-9.28123
▁Cou	-9.28145
itaire	-9.28216
▁cr�	-9.28235
▁Mc	-9.28342
▁beaucoup	-9.28358
pan	-9.28363
▁appel�	-9.28412
�a	-9.28451
▁successifs	-9.28504
▁derni�re	-9.28546
▁ve	-9.28598
vie	-9.28608
erie	-9.28624
ira	-9.28642
▁d'origine	-9.28794
▁jeune	-9.2887
▁Japon	-9.28893
▁1984	-9.28957
oire	-9.28967
▁l'en	-9.28969
uch	-9.29048
▁construction	-9.29123
▁membre	-9.29198
▁si�cle,	-9.29268
▁men	-9.29299
▁moyen	-9.29308
oli	-9.29355
[3]	-9.29427
▁em	-9.29432
▁lu	-9.29436
mber	-9.29447
-R	-9.29556
▁col	-9.29562
mann	-9.29619
▁sc�ne	-9.29622
text	-9.29639
▁c�l�bre	-9.29672
▁Thi	-9.29696
▁1985	-9.29736
oul	-9.29756
▁simple	-9.29795
▁c�	-9.29809
▁territoire	-9.29819
cra	-9.29827
▁ob	-9.29863
▁d'Al	-9.29878
tiques	-9.30024
▁genre	-9.30046
▁Europe	-9.3033
▁l'ann�e	-9.30346
ieux	-9.30405
▁pr�sente	-9.30409
id>	-9.30436
▁fort	-9.3048
▁original	-9.30525
▁Rome	-9.30564
ida	-9.30589
▁b�	-9.306
ulaire	-9.30634
jou	-9.30762
▁ver	-9.30793
▁(G	-9.30917
ui	-9.31027
▁donn�	-9.31043
▁carri�re	-9.31062
▁durant	-9.31093
time	-9.31102
▁his	-9.31164
laire	-9.31172
▁�conomique	-9.31339
▁m�tres	-9.31339
▁date	-9.31351
▁LINEA	-9.31488
dra	-9.31541
dge	-9.3166
lien	-9.31687
▁cinq	-9.31688
▁All	-9.3174
illa	-9.31803
▁==	-9.31841
▁Sar	-9.31854
▁Mac	-9.3196
▁bande	-9.31975
▁�ditions	-9.32052
cou	-9.32164
elles	-9.32216
tern	-9.3229
▁deuxi�me	-9.32331
ted	-9.32354
▁mis	-9.32362
▁d�mographique	-9.3239
rac	-9.32451
jo	-9.32528
▁Sc	-9.32555
▁Qualit�	-9.32662
gne	-9.3268
til	-9.32722
▁1983	-9.32748
side	-9.32753
2007	-9.32762
▁r�f�rences	-9.3278
▁Russie	-9.32807
gra	-9.3283
▁d�veloppement	-9.32863
ita	-9.3297
▁Han	-9.33058
tru	-9.33115
▁l'im	-9.33137
▁succ�s	-9.33149
-G	-9.33168
▁Bon	-9.33218
▁Philippe	-9.33221
dor	-9.33378
vier	-9.33421
▁Is	-9.33431
▁domaine	-9.33568
▁comte	-9.33685
▁partage	-9.33716
▁rue	-9.33894
tive	-9.33907
mission	-9.3391
▁fo	-9.33978
▁si�ge	-9.34015
-3	-9.34064
uit	-9.34221
�ri	-9.34225
�r�	-9.34249
og	-9.34331
sso	-9.34405
lation	-9.34499
ries	-9.34623
rom	-9.34773
▁m�di	-9.34907
ama	-9.34939
ial	-9.34981
▁Van	-9.35031
▁britannique	-9.35066
▁t�te	-9.35195
▁cro	-9.35221
ute	-9.35342
▁Allemagne	-9.35378
▁Pre	-9.35457
▁Latitude	-9.35535
▁�pisode	-9.35543
-F	-9.35637
�ro	-9.35667
▁cap	-9.35677
▁vis	-9.35711
nger	-9.35773
▁ri	-9.35782
▁chanson	-9.35964
-6	-9.3599
cte	-9.35996
clu	-9.36085
bar	-9.36211
▁1960	-9.36219
-C	-9.36258
table	-9.36278
▁mesure	-9.36289
▁faut	-9.36409
fond	-9.36594
▁?B	-9.36666
issement	-9.36739
matique	-9.36757
▁S�	-9.36815
[2]	-9.36832
hen	-9.36868
▁IV	-9.36953
pla	-9.37014
▁donne	-9.37028
▁Identit�	-9.37144
▁milieu	-9.37181
▁Pr�	-9.37223
▁Longitude	-9.37229
▁Terre	-9.37263
tto	-9.37332
ert	-9.37343
▁Voir	-9.37381
▁??	-9.37674
▁L'A	-9.37743
".	-9.37757
▁acteur	-9.37767
-T	-9.3781
▁technique	-9.3789
▁pratique	-9.37899
▁trop	-9.37985
▁d'H	-9.37994
▁Toutes	-9.38016
▁haut	-9.38114
din	-9.38131
▁National	-9.38202
▁(The	-9.38225
▁enfants	-9.38239
▁particulier	-9.38378
▁l'�glise	-9.38418
▁pi�ce	-9.38542
▁45	-9.38631
▁met	-9.38643
▁prend	-9.38668
▁~	-9.38679
▁certain	-9.38777
ding	-9.38786
fort	-9.38812
▁Bal	-9.38818
▁Air	-9.38862
▁retenu	-9.38863
range	-9.38899
▁l'�le	-9.39036
▁d'ex	-9.39182
▁cu	-9.39469
▁effet	-9.39507
mun	-9.3956
▁???	-9.39586
rain	-9.39621
ense	-9.39707
▁rencontre	-9.39711
ney	-9.39779
sch	-9.39974
▁Andr�	-9.40049
▁Ab	-9.40049
▁parfois	-9.40118
}}	-9.4015
▁35	-9.40164
ographie	-9.40175
▁Joseph	-9.40198
▁(3	-9.40229
voir	-9.40264
▁France,	-9.40298
▁1979	-9.4047
▁poss�de	-9.40525
▁Cro	-9.40591
[1].	-9.40614
▁th	-9.40619
▁prix	-9.4069
cide	-9.40699
▁cri	-9.40708
tom	-9.40717
▁publi�	-9.40772
▁?M	-9.40927
ctor	-9.40956
▁x	-9.40993
▁Beau	-9.41037
▁(F	-9.41107
uvr	-9.41112
▁victoire	-9.41141
▁gr�ce	-9.41142
▁Chine	-9.4115
▁Richard	-9.41201
phon	-9.41293
▁division	-9.41307
th�	-9.41367
tat	-9.41376
▁1971	-9.41421
▁possible	-9.41554
▁valeur	-9.41571
▁maires	-9.41619
resse	-9.4166
▁n'	-9.41671
▁laquelle	-9.41684
▁lettres	-9.41697
▁vid�o	-9.41714
▁�cole	-9.41719
▁(1999)	-9.41804
▁?)	-9.42063
2006	-9.42072
zz	-9.42081
▁Bru	-9.42219
�on	-9.42279
▁millions	-9.42361
▁jamais	-9.42426
▁Comp	-9.42492
▁Pan	-9.42523
▁l'�poque	-9.42552
▁Vol	-9.42598
▁poste	-9.42738
▁?C	-9.42769
▁meilleur	-9.42799
▁1977	-9.42857
▁arm	-9.42865
▁correspond	-9.42886
-O	-9.43015
temp	-9.43033
▁large	-9.4308
sser	-9.43096
ning	-9.43253
ateurs	-9.43291
ip	-9.43407
cip	-9.4342
▁retrouve	-9.43475
▁Za	-9.43476
▁premiers	-9.43502
gli	-9.43506
ring	-9.43514
▁rend	-9.43587
▁vit	-9.436
▁surtout	-9.43607
▁Pont	-9.43633
▁Gui	-9.43646
cier	-9.43681
▁King	-9.43734
▁Fer	-9.43756
▁Tur	-9.43792
ros	-9.43838
▁You	-9.43842
▁second	-9.43847
▁allemand	-9.43869
phe	-9.43969
▁1978	-9.43989
▁Conseil	-9.44
▁interne	-9.44074
▁issu	-9.44171
▁Pla	-9.44273
▁1972	-9.44362
-H	-9.44387
▁Ste	-9.44475
▁d�taill�	-9.44481
▁World	-9.44535
rique	-9.44574
▁formation	-9.44675
usse	-9.44775
ella	-9.44804
▁�lu	-9.44805
poli	-9.44827
▁bu	-9.44934
mou	-9.45018
▁1976	-9.45162
▁demande	-9.4517
▁culture	-9.45175
&gt;	-9.45219
▁Comme	-9.45245
ome	-9.45349
▁Parcour	-9.45398
▁six	-9.45477
▁Fla	-9.45514
▁bon	-9.45518
▁r�seau	-9.45545
p�ri	-9.45574
▁Marc	-9.45722
▁tir	-9.45803
▁It	-9.45882
▁position	-9.45882
▁'	-9.459
mour	-9.4595
▁(de	-9.46149
▁ami	-9.46218
▁Mas	-9.46265
ern	-9.46297
▁Super	-9.46333
oth	-9.4635
▁(N	-9.46426
▁passe	-9.4643
comp	-9.46465
uk	-9.46483
ER	-9.46517
ente	-9.46586
▁bataille	-9.46608
▁moment	-9.46626
ssin	-9.46672
▁suivante	-9.467
▁?(19	-9.46844
▁(?	-9.46912
i�me	-9.46953
▁George	-9.46954
▁Camp	-9.46966
▁Gro	-9.46981
▁gu	-9.47046
ick	-9.47073
▁importante	-9.47077
▁seconde	-9.47083
ond	-9.47088
atif	-9.47122
leur	-9.47181
▁Est/	-9.47212
i�res	-9.47232
ave	-9.47375
▁Ger	-9.47441
▁Bernard	-9.47464
▁Hol	-9.47465
▁Tre	-9.47501
▁seule	-9.47534
▁(2	-9.47562
▁d'An	-9.47571
▁2e	-9.47635
▁couleur	-9.4771
▁XIXe	-9.47783
▁aide	-9.47875
▁commence	-9.47902
▁which	-9.47959
▁voie	-9.47966
▁bois	-9.48049
▁Wal	-9.4807
ppe	-9.48086
▁mode	-9.48106
▁connues.	-9.48133
▁consid�r�	-9.48136
gou	-9.48238
main	-9.48261
▁relation	-9.48332
▁style	-9.4836
▁sortie	-9.48431
▁Del	-9.48538
alis	-9.48587
▁(ou	-9.48646
▁bat	-9.48659
▁multi	-9.4866
▁60	-9.48765
▁d'�tre	-9.48841
ives	-9.48906
formation	-9.48909
▁s'agit	-9.49113
▁US	-9.49137
cia	-9.4918
nique	-9.4923
▁�tudes	-9.49242
hr	-9.49348
vision	-9.49426
▁retour	-9.49459
pen	-9.49479
▁chant	-9.49605
llo	-9.49647
▁1973	-9.49665
▁cr��	-9.49679
pon	-9.49718
&lt;	-9.49739
▁char	-9.49821
▁1974	-9.49894
▁cla	-9.49909
atrice	-9.49913
▁Cri	-9.50062
▁personne	-9.50076
l�e	-9.50247
▁Province	-9.50325
▁l'I	-9.5035
▁plupart	-9.50419
.com	-9.50425
-E	-9.50527
▁coll	-9.50561
▁�tat	-9.50607
▁transport	-9.50779
▁direction	-9.50804
▁Bor	-9.50861
uff	-9.5092
ures	-9.50925
▁Famille	-9.5105
▁Tro	-9.51118
▁(n�	-9.51324
pos�	-9.51402
▁Lieux	-9.5141
univers	-9.51425
met	-9.51452
old	-9.51497
▁(H	-9.51526
ault	-9.5164
▁seulement	-9.51668
mine	-9.51765
▁fit	-9.51789
▁suivant	-9.51905
court	-9.51905
�le	-9.51974
ature	-9.52036
▁principale	-9.52091
▁court	-9.52124
▁Qua	-9.52157
▁ceux	-9.52213
▁She	-9.52244
▁bord	-9.52281
iel	-9.52289
ret	-9.5233
▁l'arm�e	-9.52331
▁James	-9.52336
▁Th�	-9.52448
issant	-9.52559
�o	-9.52571
▁go	-9.52574
teurs	-9.52592
▁(E	-9.52609
hum	-9.52689
▁bal	-9.52736
▁Claude	-9.52749
▁utilise	-9.52751
iser	-9.52772
▁rouge	-9.52783
▁Dan	-9.52816
t�re	-9.52822
▁am	-9.5283
▁mod�le	-9.52849
cin	-9.52865
▁reconnu	-9.52886
▁monuments	-9.5293
▁font	-9.53023
dent	-9.53189
▁charge	-9.53225
In	-9.53261
▁And	-9.53265
ev	-9.5328
▁Sto	-9.53384
-V	-9.53398
▁t�l�	-9.53445
mbo	-9.53488
▁participe	-9.53495
gues	-9.53571
▁d�j�	-9.53592
▁sources	-9.53615
▁Nu	-9.53634
phy	-9.53639
▁Villa	-9.53651
struct	-9.53787
ung	-9.53893
▁quand	-9.53959
▁?uvres	-9.53996
▁Trans	-9.54002
▁d'eau	-9.54023
▁s'en	-9.54031
ep	-9.54052
uelle	-9.54075
▁Michael	-9.54098
ES	-9.54133
▁music	-9.54166
ON	-9.54203
▁rou	-9.54218
n�s	-9.54283
era	-9.54355
▁Ses	-9.54376
▁Pra	-9.54409
▁Que	-9.5442
fran�aise,	-9.54424
▁Cam	-9.54475
-N	-9.54652
▁travaux	-9.54662
▁Peter	-9.54683
▁32	-9.54866
gon	-9.549
duction	-9.55127
ides	-9.55164
▁devant	-9.55195
iale	-9.55202
▁d'en	-9.55235
az	-9.5529
bou	-9.55307
▁Wo	-9.55319
▁?A	-9.55382
▁l'�cole	-9.55421
▁d�p	-9.55478
▁Autres	-9.55513
ie,	-9.55528
sol	-9.55583
IN	-9.5559
▁Georges	-9.55592
▁d�fini	-9.55593
▁classe	-9.55623
AS	-9.55735
ym	-9.55753
▁Qui	-9.55756
▁probl�me	-9.558
▁conseil	-9.55832
▁propose	-9.55859
▁moyenne	-9.55894
nia	-9.55958
▁Chan	-9.55973
quant	-9.56055
▁Ku	-9.56104
▁33	-9.56129
▁championnat	-9.56139
▁sujets	-9.56159
▁Don	-9.56242
hin	-9.5629
▁autour	-9.56311
kh	-9.56338
▁Mou	-9.56582
▁d'ar	-9.56714
▁l'article	-9.56768
▁qu'un	-9.56787
▁blanc	-9.56839
▁mani�re	-9.56868
▁double	-9.56903
l�g	-9.56952
▁prince	-9.57012
2005	-9.57063
▁Mari	-9.57099
l�ve	-9.57127
▁Mat	-9.57131
▁th�	-9.57134
▁?????	-9.57152
▁contr�le	-9.57195
flu	-9.57216
▁f�	-9.57254
▁Espagne	-9.57345
▁li�es	-9.57346
▁Fri	-9.5737
low	-9.57422
▁semble	-9.57454
▁populaire	-9.57532
bes	-9.57548
▁Franc	-9.57616
▁Centre	-9.57652
▁ans,	-9.57664
is�e	-9.57683
▁nu	-9.57738
▁chemin	-9.57781
lly	-9.57809
▁(le	-9.57817
tage	-9.57851
▁Depuis	-9.57912
▁(V	-9.57912
▁sous-	-9.57976
qu'	-9.58001
▁m�re	-9.58054
▁peuple	-9.58122
▁diff�rentes	-9.58262
▁courant	-9.58269
▁vue	-9.58273
g�ne	-9.58292
▁pr�c�dent	-9.58312
tus	-9.58325
▁quartier	-9.58361
▁nom.	-9.58365
ase	-9.58368
iti	-9.58371
▁Monte	-9.58423
▁fil	-9.58441
arc	-9.58466
ith	-9.58509
▁Dis	-9.58681
▁Shi	-9.58814
yo	-9.58829
▁Thomas	-9.58851
▁marque	-9.58922
gno	-9.59025
▁mission	-9.59038
▁documents	-9.59057
▁d'indications	-9.59097
▁international	-9.59162
graph	-9.59164
�rie	-9.59171
▁Gau	-9.59227
gie	-9.59249
▁Gen	-9.59298
▁(I	-9.5932
▁Personnalit�s	-9.59344
euil	-9.59385
ula	-9.59403
mond	-9.59424
▁inconnu	-9.59443
mma	-9.59452
▁�poque	-9.59647
▁litt�rature	-9.59691
▁ancienne	-9.59705
▁question	-9.59717
rich	-9.59794
t�e	-9.59899
▁J.-C.	-9.59989
▁�glise	-9.59991
▁Ol	-9.59994
]]''	-9.60014
ifi�	-9.60027
▁Daniel	-9.6006
▁Tor	-9.60061
nov	-9.601
▁Br�sil	-9.60188
▁gauche	-9.6019
▁auteur	-9.60206
▁activit�	-9.6034
ili	-9.60348
▁devenu	-9.60412
▁Nov	-9.6043
iano	-9.60483
▁Ou	-9.60521
▁grands	-9.60569
ated	-9.60578
▁th��tre	-9.6065
ram	-9.60654
▁dessin	-9.60695
▁1961	-9.60735
▁sh	-9.6078
▁Pr�sident	-9.60788
Intercommunalit�	-9.60788
▁Ordre	-9.6084
chant	-9.60842
▁station	-9.60914
▁comt�	-9.60924
▁Inter	-9.61054
▁(4	-9.6106
-17	-9.61064
vol	-9.6108
&amp;	-9.61184
▁Star	-9.61189
nda	-9.61215
▁communaut�	-9.6124
▁Sol	-9.61345
mba	-9.61375
▁200	-9.61377
▁sein	-9.61483
▁</	-9.6156
▁voyage	-9.61595
▁�lections	-9.61668
▁physique	-9.61674
ances	-9.61692
▁Insee	-9.617
▁civil	-9.61757
▁cit�	-9.61763
▁Er	-9.61796
-4	-9.61873
hol	-9.61888
lig	-9.62
ngle	-9.62012
▁am�ricaine	-9.62019
-5	-9.62165
▁Hy	-9.6236
mal	-9.62413
▁#	-9.62427
burg	-9.6253
▁travaille	-9.62535
AN	-9.62555
fait	-9.62606
▁Cer	-9.62607
�ration	-9.62613
▁propos	-9.62729
▁Classification	-9.62814
▁district	-9.62837
oise	-9.62848
▁1948	-9.62868
king	-9.62894
▁...	-9.62906
▁gen	-9.62937
▁Disney	-9.63081
▁Ligue	-9.63081
tienne	-9.6312
▁d�signe	-9.63213
m�tre	-9.63282
aison	-9.63291
gy	-9.63357
lou	-9.63361
▁34	-9.63363
▁l'an	-9.63391
▁West	-9.63408
▁carte	-9.63452
for	-9.63468
bit	-9.63577
▁vert	-9.63581
mination	-9.63614
▁proche	-9.63643
g�e	-9.63787
▁fe	-9.63802
ata	-9.63927
rage	-9.63998
▁1967	-9.64041
zzo	-9.64106
▁passage	-9.64182
▁compagnie	-9.64205
gard	-9.64427
▁Fran�ais	-9.64464
▁internationale	-9.645
pit	-9.64614
▁(mini	-9.64616
▁Ven	-9.64671
▁cela	-9.64719
▁si�cle.	-9.64786
ill�	-9.64825
cule	-9.64902
▁structure	-9.64987
▁Guy	-9.65004
tention	-9.65028
▁jou�	-9.65031
anne	-9.65065
rien	-9.65237
▁certaines	-9.65238
▁TV)	-9.65263
▁80	-9.65293
▁Royaume-Uni	-9.653
hou	-9.6531
▁Rh	-9.65361
th�se	-9.65404
phi	-9.6553
quet	-9.65534
tions	-9.65572
▁Albert	-9.65626
▁g�n�ralement	-9.65655
▁Anne	-9.65657
▁At	-9.65707
▁seigneur	-9.65723
▁1950	-9.65732
IS	-9.65774
mir	-9.65779
action	-9.65794
▁Gri	-9.6586
▁Premier	-9.65884
▁Arm	-9.65926
▁aurait	-9.65988
▁mu	-9.66027
▁qu'	-9.66138
▁sujet	-9.66183
▁d�put�	-9.66197
ri�re	-9.66229
▁organ	-9.66261
▁Cra	-9.6634
quel	-9.66428
▁V�	-9.6646
▁g�n�rale	-9.66626
▁rivi�re	-9.66673
gro	-9.667
field	-9.66823
▁(maxi)	-9.66833
2004	-9.66843
ford	-9.66844
▁Christian	-9.67023
▁Petit	-9.67058
▁(ISBN	-9.671
▁?P	-9.67253
▁Nor	-9.67278
▁troisi�me	-9.67291
p�t	-9.67402
▁38	-9.67562
▁mou	-9.6757
▁Rou	-9.67617
▁Ren	-9.6762
▁Bla	-9.67633
▁1969	-9.67636
▁consul	-9.67642
▁repris	-9.67668
▁r�sultat	-9.67689
▁Fra	-9.67801
▁D'	-9.67879
▁Tar	-9.67964
▁radio	-9.67998
▁fa�on	-9.68003
▁vous	-9.68018
▁Gre	-9.68023
stan	-9.68025
ph�	-9.68062
▁Londres	-9.68125
▁pat	-9.68157
ZZ	-9.68173
▁comprend	-9.68243
▁confi	-9.68257
cor	-9.68345
▁minutes	-9.68391
▁parmi	-9.68408
▁r�pertorie	-9.68444
util	-9.6847
▁jeux	-9.68482
del	-9.68493
▁Cho	-9.68501
▁camp	-9.6851
-et-	-9.68566
▁d'homonymie	-9.68606
tres	-9.68628
cord	-9.68674
-8	-9.68705
atoire	-9.68718
▁l'aide	-9.68731
jet	-9.68746
l'	-9.68845
▁90	-9.68901
▁force	-9.68911
▁programme	-9.68945
fra	-9.68981
▁has	-9.68991
▁saint	-9.69004
▁italien	-9.69011
▁av.	-9.69015
▁Classe	-9.6904
well	-9.69108
▁1964	-9.69159
vil	-9.69206
▁utilis�e	-9.69364
▁Pat	-9.69476
lage	-9.69489
kov	-9.69515
▁voix	-9.69534
▁accord	-9.6958
mini	-9.69594
▁Plan	-9.69609
▁critique	-9.69609
▁36	-9.69685
zu	-9.69698
▁forte	-9.69717
▁droite	-9.69772
gri	-9.69829
▁utilisa	-9.69853
▁val	-9.69932
▁?uvre	-9.69983
fran�ais	-9.70019
uz	-9.70033
▁48	-9.70076
▁Hor	-9.70211
olf	-9.70325
▁repr�sente	-9.70356
position	-9.70435
▁pont	-9.70452
▁Mur	-9.70509
▁principal	-9.70554
▁municipalit�	-9.70562
▁test	-9.70572
▁1966	-9.70582
▁sociale	-9.70618
win	-9.70621
▁traduction	-9.7065
▁Fiche	-9.7067
▁pass�	-9.70744
AT	-9.70777
▁Win	-9.70789
ost	-9.7082
▁Ch�teau	-9.7086
▁1953	-9.7091
amp	-9.70934
issent	-9.70978
▁Zo	-9.70988
▁Ly	-9.71046
ico	-9.71058
▁Premi�re	-9.71076
▁scientifique	-9.71132
▁d'abord	-9.71132
b�r	-9.71149
▁have	-9.71298
ally	-9.71361
▁bra	-9.71365
ode	-9.71506
▁(a	-9.71585
▁Frank	-9.71598
ttes	-9.71668
▁esp�ces	-9.71671
▁d'�tat	-9.71681
▁direct	-9.71683
▁form	-9.71685
▁Mai	-9.71715
▁compos�	-9.71732
▁europ�enne	-9.71742
▁Ainsi	-9.71748
▁biologie	-9.71772
▁??????????	-9.71822
▁Bill	-9.71825
▁mod	-9.71827
▁habit	-9.71832
▁Avec	-9.71976
onn�	-9.72102
▁Men	-9.72114
▁l'est	-9.7214
▁also	-9.72151
chev	-9.72153
▁success	-9.72167
▁Christ	-9.72187
rum	-9.72375
▁choisi	-9.72391
▁cent	-9.72404
▁russe	-9.72443
▁l'origine	-9.72475
▁47	-9.72478
▁ouvert	-9.72501
dam	-9.72516
tim	-9.72518
taire	-9.7252
▁Cast	-9.72521
bla	-9.72532
nat	-9.72574
onyme	-9.72618
▁Gal	-9.72678
▁500	-9.72679
▁cependant	-9.72701
▁montagne	-9.72722
ize	-9.72754
Le	-9.72806
▁(s�rie	-9.72944
▁d'Europe	-9.72946
organ	-9.73074
zza	-9.73111
▁Love	-9.73148
▁Sam	-9.73172
▁Roger	-9.73231
▁Palmar�s	-9.73324
▁f�minin	-9.73325
▁divers	-9.73345
aille	-9.73382
▁publique	-9.73438
▁Ag	-9.73471
▁champ	-9.73506
▁Ze	-9.73642
h�r	-9.73674
▁D�c	-9.73747
▁qu'une	-9.73748
▁70	-9.73754
▁ordre	-9.73763
▁�crivain	-9.73837
[4]	-9.73841
▁b�timent	-9.73894
▁Sho	-9.73973
▁Cent	-9.74009
▁viol	-9.74012
▁l'autre	-9.74069
▁moderne	-9.74099
▁ja	-9.74131
▁l'art	-9.74139
▁femmes	-9.74195
bro	-9.74227
cht	-9.74231
-9	-9.74233
▁lance	-9.74255
▁1965	-9.74301
▁�tape	-9.74363
stein	-9.74368
▁serait	-9.74411
▁Ren�	-9.74435
▁s�lection	-9.7455
▁Montr�al	-9.74583
▁fou	-9.74602
▁[[S	-9.74607
▁(16	-9.74623
▁Victor	-9.74666
ello	-9.74686
udi	-9.74708
▁disponible	-9.74986
▁kg	-9.75023
▁???????	-9.75032
▁soci	-9.75047
▁43	-9.75096
▁Bibliographie	-9.7516
cept	-9.75182
▁�tabli	-9.75214
▁Mil	-9.7526
▁City	-9.75295
▁trou	-9.75349
▁avaient	-9.75447
▁1956	-9.75457
▁Pays-Bas	-9.75509
vain	-9.75553
▁37	-9.75586
▁franc	-9.7562
▁rock	-9.75678
▁situation	-9.7574
▁lorsque	-9.75963
▁ind�pendant	-9.75973
▁re�u	-9.75996
appel	-9.76009
▁Gr�ce	-9.76032
▁cadre	-9.76189
hon	-9.76222
ssent	-9.76238
gin	-9.76254
▁46	-9.76254
lip	-9.76423
long	-9.76425
▁Lou	-9.7643
iller	-9.76501
pic	-9.76519
▁Champion	-9.7655
▁Rock	-9.76553
ball	-9.7656
▁Est	-9.76622
▁42	-9.76769
▁Ph	-9.76784
▁pied	-9.76818
dri	-9.76842
▁charg�	-9.76867
vern	-9.76964
▁Selon	-9.76966
▁naissance	-9.7697
▁49	-9.76978
▁Press	-9.77026
▁May	-9.77067
▁ma�tre	-9.77228
▁Et	-9.77301
wer	-9.77304
�tude	-9.77327
▁professeur	-9.77443
group	-9.77488
▁lequel	-9.7752
▁1940	-9.7755
▁th�orie	-9.77622
gor	-9.77667
▁capitale	-9.7774
▁collection	-9.7781
▁Dar	-9.77873
▁International	-9.77921
▁r�uni	-9.78009
▁Web	-9.78078
▁plu	-9.78105
▁1945	-9.78164
▁caract�res	-9.78179
▁jusqu'en	-9.78216
▁44	-9.78226
scription	-9.78304
hal	-9.7833
AR	-9.78393
▁actuel	-9.78417
▁telle	-9.78472
rier	-9.78478
▁Carl	-9.78517
▁Black	-9.78535
▁Pic	-9.78562
▁pr�sence	-9.78562
dom	-9.78617
▁Dia	-9.78618
▁�dition	-9.78651
▁social	-9.78652
▁tribu	-9.78652
▁clo	-9.78658
▁this	-9.78709
▁etc.	-9.78751
[2].	-9.78828
chet	-9.78847
▁sort	-9.78878
▁Haute	-9.78918
▁Maurice	-9.78963
▁G�	-9.7898
▁directeur	-9.78984
Al	-9.78986
▁vrai	-9.79078
hard	-9.79114
▁�pouse	-9.79118
▁suivi	-9.79119
▁Rob	-9.79121
▁t�l�vision	-9.79125
▁bri	-9.79138
▁Langue	-9.79208
▁(voir	-9.79279
part	-9.7931
▁Gall	-9.79347
▁Para	-9.79376
▁'''	-9.79501
face	-9.79516
▁prendre	-9.7952
▁(U	-9.79555
Autriche	-9.79603
2001	-9.79623
▁Naissance	-9.7978
fect	-9.79785
▁individu	-9.7984
tie	-9.79865
▁Sport	-9.79883
▁Lors	-9.80028
▁constitue	-9.80083
day	-9.80187
▁histoire	-9.80217
▁Bien	-9.80248
▁collect	-9.80289
▁disc	-9.80333
▁prise	-9.80417
▁Gor	-9.80508
▁eux	-9.80511
ifi	-9.80547
▁1936	-9.80561
▁objet	-9.80582
wan	-9.80591
▁supp	-9.80594
▁nouvelles	-9.80608
▁d�fense	-9.80632
feuille	-9.80681
clair	-9.80691
▁tradition	-9.807
▁montre	-9.80705
▁Cre	-9.80747
▁M�daille	-9.80755
▁Park	-9.80771
▁1959	-9.80817
▁R�f�rences	-9.80829
▁Ob	-9.80839
▁cm	-9.8089
▁Qu	-9.80891
▁majeur	-9.8094
ism	-9.8094
dio	-9.80999
▁Grande	-9.8101
▁1963	-9.81051
▁l'eau	-9.81066
lio	-9.81074
▁ensemble	-9.81123
▁contient	-9.81187
▁Roman	-9.81192
yant	-9.81208
▁Santa	-9.81215
-en-	-9.81244
liv	-9.81256
▁1958	-9.81375
fici	-9.81389
▁rang	-9.81453
▁r�f�rence	-9.81459
▁Pen	-9.81468
▁sept	-9.81508
change	-9.81511
▁Pol	-9.81515
▁journal	-9.81532
▁C�	-9.81537
ati	-9.81542
▁Soci�t�	-9.81554
ame	-9.81623
osa	-9.81644
▁ti	-9.81645
hom	-9.81687
▁Alex	-9.81848
▁Spi	-9.81947
▁continue	-9.81973
▁espagnol	-9.81991
▁lui-m�me	-9.81999
bell	-9.82005
▁Cr�	-9.82043
ving	-9.82043
▁n�cessaire	-9.82049
▁ans.	-9.82091
▁l'ordre	-9.82127
▁servi	-9.82148
2000	-9.82149
▁plai	-9.82161
▁grandes	-9.82184
2008	-9.82204
▁Jeux	-9.82232
-Ba	-9.82253
AC	-9.82277
▁commercial	-9.82297
2002	-9.82298
▁priv�	-9.8236
▁R�gne	-9.82525
▁Red	-9.82588
▁Maria	-9.82648
ulation	-9.82729
▁fla	-9.82746
▁peintre	-9.82753
prise	-9.82819
==	-9.82854
▁Lin	-9.82899
zer	-9.82956
▁Dom	-9.83004
▁Plus	-9.83009
▁change	-9.83049
▁march�	-9.8308
▁were	-9.83095
▁chinois	-9.83173
▁dessin�e	-9.83243
zon	-9.83249
eille	-9.83318
▁nature	-9.83335
▁mil	-9.83405
zy	-9.83546
▁Marcel	-9.83551
SA	-9.83559
▁rare	-9.8363
voy	-9.83639
▁cal	-9.83641
row	-9.83654
▁surface	-9.83657
plication	-9.83732
aye	-9.83844
vert	-9.83956
▁pr�cis	-9.83975
(fr)	-9.84012
▁plein	-9.84012
▁campagne	-9.84065
institut	-9.84072
agon	-9.84101
▁l'ensemble	-9.84116
▁mill�naire	-9.84116
▁principe	-9.84116
▁d�cide	-9.84142
▁Carri�re	-9.84162
▁Kar	-9.84175
▁d'argent	-9.84198
▁App	-9.84239
▁associ�	-9.84243
mobil	-9.84276
▁Mel	-9.84404
▁actrice	-9.84498
right	-9.8458
▁rapidement	-9.84613
▁mettre	-9.84668
nic	-9.84676
▁Saison	-9.84724
gel	-9.84743
▁?T	-9.84757
▁sp�cial	-9.84772
▁Dieu	-9.84779
▁troupes	-9.84945
tha	-9.84989
▁signe	-9.85002
▁professionnel	-9.85016
▁Sources	-9.85048
volution	-9.85128
▁catholique	-9.85134
▁D�s	-9.85187
logie	-9.85231
mus	-9.85267
▁rugby	-9.85327
▁Musique	-9.85343
▁1944	-9.85349
-7	-9.85386
▁qualit�	-9.85455
st�r	-9.85496
▁longue	-9.85502
▁Deux	-9.85524
▁(O	-9.85543
ward	-9.85561
▁compl�te	-9.85592
▁[[A	-9.85597
▁Angleterre	-9.85613
chen	-9.85624
▁action	-9.8566
▁b?	-9.85687
▁1954	-9.85709
▁arm�e	-9.85716
illi	-9.85932
ken	-9.85996
▁gros	-9.86003
▁riche	-9.86007
ough	-9.86015
▁ouvrage	-9.86034
▁Sil	-9.86067
▁l'Universit�	-9.86228
▁Su�de	-9.8623
▁nuit	-9.86234
abilit�	-9.86278
▁taille	-9.86397
▁faible	-9.86504
bour	-9.86522
von	-9.8657
▁1952	-9.86604
venant	-9.86691
acc	-9.86734
isant	-9.8674
▁Eu	-9.86757
gui	-9.86791
▁jo	-9.86842
▁Sigles	-9.86877
▁Dur	-9.86907
▁figure	-9.87011
pul	-9.87088
▁Op	-9.87094
▁d'art	-9.8711
▁Smith	-9.87142
▁(J	-9.87166
▁meurt	-9.87178
▁heures	-9.87205
particuli�rement	-9.8721
▁Var	-9.87236
▁s'il	-9.87264
▁haute	-9.8738
▁latin	-9.87384
-le-	-9.87386
▁van	-9.87504
Com	-9.87661
bal	-9.87679
CA	-9.87738
▁principalement	-9.87768
▁italienne	-9.87828
▁Division	-9.87834
▁�v�nements	-9.87844
analyse	-9.87871
▁(fr)	-9.87966
▁pe	-9.88006
tsu	-9.88022
▁Moyen	-9.88082
▁faisant	-9.88087
teau	-9.88097
▁multim�dia	-9.88121
▁Groupe	-9.88138
▁Lyon	-9.88169
▁Afrique	-9.88187
▁1946	-9.88242
▁gri	-9.8831
▁personnel	-9.88414
lice	-9.88437
nois	-9.88466
▁r�gle	-9.88564
▁Flor	-9.88631
▁August	-9.88647
▁Nicolas	-9.88794
▁garde	-9.8888
▁salle	-9.88884
▁l'une	-9.889
▁[[C	-9.88965
▁dix	-9.88971
▁l'U	-9.8899
▁Comt�	-9.88995
▁vitesse	-9.8905
▁Stade	-9.89151
-K	-9.89231
▁Meilleur	-9.8925
▁marqu�	-9.8926
▁footballeur	-9.89283
▁fourni	-9.89337
igny	-9.89406
oni	-9.89452
▁Jack	-9.89526
OS	-9.89541
▁mm	-9.89549
▁Prince	-9.89559
-Ro	-9.89589
am�ricain	-9.89603
▁Open	-9.89622
cycl	-9.8964
▁Bob	-9.89647
cup	-9.89647
cade	-9.89656
▁pal	-9.89673
mper	-9.89714
�ge	-9.89721
▁super	-9.89722
jan	-9.89728
itz	-9.89897
zar	-9.899
▁commerce	-9.89931
▁d�taill�e	-9.89935
▁other	-9.89979
assa	-9.89999
▁Ban	-9.90034
nait	-9.90158
▁�les	-9.90169
▁Champ	-9.9017
▁?(en)	-9.90181
▁naturelle	-9.90272
▁Album	-9.90387
▁royaume	-9.90454
▁Type	-9.90457
▁qu'on	-9.90553
2003	-9.9064
▁chose	-9.90719
▁trait�	-9.90924
▁Commons	-9.90931
▁XXe	-9.90937
▁Of	-9.91098
euses	-9.91147
▁39	-9.91202
ndi	-9.91245
▁services	-9.91255
▁State	-9.91271
▁Ham	-9.91301
fri	-9.91391
bot	-9.91535
▁Tr�	-9.91547
▁bas�	-9.91552
▁web	-9.91622
II	-9.91641
traction	-9.91654
▁Serbie	-9.91677
▁Yo	-9.91703
▁Monde	-9.91712
�tablissement	-9.91721
▁Bay	-9.91722
▁Source	-9.9177
▁(5	-9.91783
▁train	-9.91806
▁????????	-9.91833
crit	-9.91855
▁japonais	-9.91881
▁Mark	-9.91903
▁Miss	-9.91916
gur	-9.91936
▁1957	-9.92017
▁support	-9.92045
▁jeunes	-9.92078
▁crois	-9.92107
embre	-9.92112
▁remporte	-9.92155
▁feu	-9.92158
gu�	-9.92161
▁limite	-9.92214
▁�l�ments	-9.92241
▁d�veloppe	-9.92258
�d�	-9.92276
▁accept	-9.92303
▁VI	-9.9233
▁�lev�	-9.92351
▁signifie	-9.92361
▁http://www.	-9.92414
▁volume	-9.92439
ambi	-9.92478
icien	-9.92483
▁Historique	-9.92499
▁R�g	-9.92557
lain	-9.92596
heim	-9.92631
.com/	-9.92679
▁m�decine	-9.92707
▁limit	-9.92735
▁colon	-9.92766
▁Science	-9.92776
▁sang	-9.92829
}	-9.92852
▁Roche	-9.92852
▁source	-9.92962
▁qu'�	-9.92969
place	-9.93071
▁�tats	-9.93097
▁von	-9.93128
Mar	-9.93149
tran	-9.93265
ception	-9.93295
▁personnalit�	-9.93328
▁battue	-9.9333
▁sciences	-9.93343
spir	-9.93428
hn	-9.93499
▁pen	-9.93593
wood	-9.9361
joint	-9.93617
aceae	-9.93643
▁52	-9.93675
▁tombe	-9.93685
fil	-9.937
▁Die	-9.93741
▁effet,	-9.93745
▁m�thode	-9.93745
▁Localisation	-9.93746
▁Land	-9.9389
▁CD	-9.93902
▁techniques	-9.93985
▁American	-9.9401
lim	-9.94061
▁cherche	-9.94079
▁f�d�ral	-9.94095
▁terrain	-9.94097
ouche	-9.94125
aliste	-9.94202
▁produits	-9.94237
ussi	-9.94244
▁europ�en	-9.94309
▁actuellement	-9.94317
▁Alain	-9.94368
▁Point	-9.9449
▁r�alisateur	-9.94586
▁Pologne	-9.94656
▁lutte	-9.9469
▁1955	-9.94717
▁L.	-9.94721
▁propri�t�	-9.94797
▁organis�	-9.94798
▁Australie	-9.94818
ignon	-9.94886
cker	-9.94915
▁''[[	-9.94969
▁bonne	-9.9505
▁juge	-9.95075
▁41	-9.95089
▁d'acc	-9.95106
rate	-9.95285
▁lit	-9.95353
▁1930	-9.95361
▁voit	-9.95508
▁Cy	-9.95564
▁conna�t	-9.95691
▁Mad	-9.95764
▁d�part	-9.9583
▁concert	-9.95867
▁centrale	-9.95886
▁champion	-9.95936
f�r	-9.95979
pper	-9.9601
▁District	-9.96022
▁d�velopp�	-9.96073
▁Portugal	-9.96073
▁Mus	-9.96134
gua	-9.96295
▁anti	-9.96352
▁l'homme	-9.96366
logue	-9.96457
▁vient	-9.96558
▁1939	-9.96559
blo	-9.96814
▁Jim	-9.96861
▁chacun	-9.96868
▁l'or	-9.96923
▁Guillaume	-9.96932
▁bienvenue	-9.96933
▁connue	-9.96935
▁origine	-9.96948
▁Ken	-9.97145
▁Princip	-9.97149
▁l'Italie	-9.97149
▁poly	-9.97176
▁futur	-9.97197
▁s'in	-9.97204
▁vide,	-9.97367
▁Simon	-9.97387
pend	-9.97436
▁mus�e	-9.97456
▁appel�e	-9.97505
▁pol	-9.9751
▁informations	-9.97522
▁fond�e	-9.97538
▁d�cor	-9.97556
rand	-9.97565
▁repr�sentant	-9.97578
)|	-9.97582
▁contemporain	-9.97583
▁intitul�	-9.97583
▁appara�t	-9.97583
▁attaque	-9.9773
▁(15	-9.97826
�dition	-9.97867
▁candidat	-9.97873
aga	-9.97963
cio	-9.97999
▁fond�	-9.98035
▁[[Category:	-9.98091
▁inf�rieur	-9.98091
ssage	-9.98105
▁fronti�re	-9.98143
▁moteur	-9.98198
▁vin	-9.98242
▁(???	-9.98261
▁nouveaux	-9.98285
▁incompl�te.	-9.9831
▁Henry	-9.98384
▁diffus	-9.98396
▁Gold	-9.98414
▁constitu�	-9.9849
▁respect	-9.98534
▁l'�ge	-9.98546
▁Long	-9.98586
ator	-9.9861
affi	-9.98625
lev	-9.98668
▁chasse	-9.98673
▁51	-9.9868
▁Ang	-9.98684
▁municipal	-9.98695
▁XVIIIe	-9.98748
nou	-9.98796
press	-9.98799
▁Maison	-9.98887
▁circonscription	-9.98897
▁for�t	-9.98905
▁principaux	-9.98968
▁55	-9.98974
▁gare	-9.9898
▁destin�	-9.99028
▁Mol	-9.99041
▁Cat	-9.99108
▁puissance	-9.99132
▁Consult�	-9.99189
▁Island	-9.99304
▁l'ouest	-9.99337
▁entreprises	-9.99387
▁appel	-9.99444
revision	-9.99499
▁1914	-9.9955
▁University	-9.99567
▁cre	-9.9962
[5]	-9.99637
▁�v�que	-9.9965
▁qu'en	-9.99683
▁maire	-9.99694
▁mari	-9.99699
Ch	-9.99743
▁01	-9.99761
▁bro	-9.99795
▁(1)	-9.99884
▁bout	-9.99892
▁d'apr�s	-9.99896
pol	-9.99931
▁vall�e	-9.99942
▁r�alise	-9.99972
▁{{	-9.9999
▁comp�tition	-10
▁relative	-10
▁(W	-10.0001
quin	-10.0001
▁Cependant,	-10.0002
▁tandis	-10.0008
▁l'album	-10.0009
▁mati�re	-10.0016
view	-10.0025
p�re	-10.0026
via	-10.0029
▁mandat	-10.0032
▁profit	-10.0033
▁1947	-10.0037
ory	-10.0037
▁trait	-10.004
▁plut�t	-10.0045
▁presse	-10.005
▁mag	-10.0058
▁Far	-10.0061
urg	-10.0066
http://	-10.0067
▁conduit	-10.0068
▁1920	-10.0071
▁(Source	-10.0082
ouverture	-10.0085
labor	-10.0087
contributor	-10.009
▁perdu	-10.0106
▁devint	-10.0109
▁vu	-10.011
▁sto	-10.0115
tron	-10.0118
▁local	-10.012
▁forces	-10.0124
mble	-10.0129
▁image	-10.0131
▁Chronologie	-10.0135
m�nage	-10.0141
▁some	-10.0159
▁1949	-10.0171
▁Fort	-10.0174
▁aucun	-10.0182
FA	-10.0184
vic	-10.0185
▁Pou	-10.0192
▁300	-10.0192
▁jusqu'au	-10.0195
asso	-10.0202
▁Dra	-10.0205
▁Mus�e	-10.0207
▁pan	-10.0211
illy	-10.0216
▁difficile	-10.0218
▁Olympiques	-10.022
▁resta	-10.0222
▁Act	-10.0224
cens	-10.0231
psych	-10.0233
▁400	-10.0234
▁v�ritable	-10.0241
▁[[M	-10.0247
▁num�ro	-10.0248
▁pierre	-10.0249
▁(Le	-10.0251
appa	-10.0253
▁document	-10.0262
ologue	-10.0263
▁navire	-10.0264
vaient	-10.0278
▁c?ur	-10.0294
▁�tudiant	-10.0302
▁Boy	-10.0303
▁Royal	-10.0304
▁caract�ristique	-10.0309
▁gestion	-10.0325
▁esp�ce	-10.0327
▁r�gne	-10.0333
▁Gard	-10.034
zan	-10.0341
vy	-10.0341
▁d'im	-10.0359
▁final	-10.036
pho	-10.0369
▁convention	-10.0371
▁atteint	-10.0372
BC	-10.0373
mul	-10.0373
▁Seconde	-10.0373
▁Neu	-10.0377
▁Esp	-10.0378
▁d'entre	-10.0379
▁form�	-10.0383
▁maladie	-10.0386
▁allemande	-10.0386
▁d�c�d�	-10.0388
▁1951	-10.0392
▁photo	-10.0401
pli	-10.042
jon	-10.0423
g�nie	-10.0425
work	-10.0425
▁continu	-10.0427
▁Blue	-10.0428
▁n'y	-10.0431
EN	-10.0442
▁ban	-10.0453
▁who	-10.0454
▁===	-10.0456
nay	-10.0459
▁Lang	-10.0465
▁non-	-10.0465
▁R�volution	-10.0466
▁Phil	-10.0467
▁Vainqueur	-10.0479
-Marie	-10.0493
ona	-10.0495
nny	-10.0497
▁Steve	-10.0499
ss�e	-10.0503
▁th�me	-10.0504
▁arrive	-10.0511
▁Nouvelle	-10.0518
▁Fil	-10.052
pid	-10.0523
...)	-10.0528
▁XIII	-10.0536
▁Ann�es	-10.0537
mmer	-10.0537
▁permettant	-10.0544
istique	-10.0546
bul	-10.0555
▁l'universit�	-10.0557
▁cy	-10.0566
SC	-10.0566
vance	-10.0573
▁Rang	-10.0579
▁course	-10.0582
ffre	-10.0582
loi	-10.0586
▁[[B	-10.059
▁Dur�e	-10.0593
▁1942	-10.0595
-Ma	-10.0598
▁mur	-10.0603
▁disque	-10.0604
▁majorit�	-10.061
ombre	-10.0612
▁fusion	-10.0614
▁tournoi	-10.062
▁Tan	-10.0621
▁emb	-10.0625
▁eut	-10.0626
tical	-10.063
▁Jos�	-10.0634
▁Stra	-10.0639
▁God	-10.0641
▁Tout	-10.0644
▁Yu	-10.0644
▁Sainte-	-10.0649
▁li�	-10.0649
▁their	-10.0649
▁Ur	-10.0657
▁PS	-10.0663
▁Non	-10.0665
▁cha�ne	-10.0666
▁locale	-10.067
�vre	-10.0677
▁concept	-10.0678
▁conditions	-10.0679
▁quitte	-10.068
▁Mill	-10.0684
▁lettre	-10.0685
RA	-10.0685
ttle	-10.0693
▁conseiller	-10.0704
▁Pendant	-10.0716
elli	-10.0718
oxy	-10.0724
▁passer	-10.0724
▁Rod	-10.0728
▁post	-10.0734
▁ajout	-10.0745
▁Raymond	-10.0747
▁religion	-10.0755
▁voisin	-10.0764
▁cr��e	-10.0765
▁Fab	-10.077
▁Dam	-10.0771
▁??????	-10.0779
▁Finale	-10.0782
▁obtient	-10.0787
▁Will	-10.079
▁humain	-10.0792
▁Berlin	-10.0802
dium	-10.0807
▁�toile	-10.0812
▁North	-10.0816
▁Abd	-10.082
▁donner	-10.082
▁Dal	-10.0835
▁semaine	-10.0838
▁contenu	-10.0844
▁�diteur	-10.0846
▁peinture	-10.0847
assemb	-10.0849
▁s�curit�	-10.0852
▁esp	-10.0855
▁Inde	-10.0863
hl	-10.0864
▁secteur	-10.0876
dique	-10.0886
-d'	-10.089
▁Statut	-10.0892
▁calcul	-10.0899
▁mention	-10.0904
▁vivant	-10.0907
▁cru	-10.0911
▁sup�rieur	-10.0911
▁D'autres	-10.0917
▁record	-10.0924
▁l'Union	-10.0925
▁g�ographique	-10.0926
▁vingt	-10.0927
▁arabe	-10.0927
▁Music	-10.0929
▁Euro	-10.0929
▁c'est-�-dire	-10.0933
▁doivent	-10.0933
-16	-10.0935
habit	-10.0937
nard	-10.0942
▁Stan	-10.0946
▁Tha	-10.0952
bol	-10.0959
▁Hall	-10.0965
j�	-10.0966
▁dirig�	-10.0974
▁officielle	-10.0977
▁Julie	-10.098
▁sorte	-10.0982
▁retrait	-10.0993
▁1935	-10.0998
▁administrative	-10.0998
rite	-10.1001
▁Game	-10.1005
▁Votr	-10.101
▁exist	-10.1016
▁situe	-10.1017
▁quant	-10.1026
▁normal	-10.1026
▁l'auto	-10.1037
▁dire	-10.1038
landais	-10.1045
▁�lectrique	-10.1048
▁libert�	-10.1048
▁risque	-10.105
glio	-10.1051
class	-10.1067
▁op�ration	-10.107
▁c�te	-10.1074
▁soutien	-10.1075
▁d'expression	-10.1075
▁Acc	-10.1076
▁Bretagne	-10.1081
▁Nico	-10.1081
actu	-10.1083
vrier	-10.1086
▁1938	-10.1087
▁had	-10.1089
▁Sun	-10.109
hab	-10.1091
space	-10.1102
▁(6	-10.1109
▁bleu	-10.111
▁fleur	-10.1111
▁d'Or	-10.1113
▁L�on	-10.1113
▁Dou	-10.112
▁TV	-10.1124
▁Stu	-10.1129
morph	-10.1132
▁Film	-10.1141
▁quelque	-10.1147
grad	-10.1149
▁Public	-10.1155
▁(par	-10.1156
clam	-10.1165
▁But	-10.1169
▁Brun	-10.1169
nomie	-10.1177
ographique	-10.1179
ssant	-10.1194
▁descend	-10.1209
▁Distribution	-10.1214
▁savoir	-10.1216
ology	-10.1221
▁F�d�ration	-10.1222
▁Tal	-10.1233
▁her	-10.1239
US	-10.124
▁Batt	-10.1244
▁celui-ci	-10.1247
▁r�giment	-10.1251
▁?G	-10.1251
▁(K	-10.126
▁1937	-10.1271
▁Auto	-10.1271
▁sup�rieure	-10.1278
▁G�n�ral	-10.1281
▁sy	-10.1282
▁pur	-10.1287
▁loin	-10.1301
-12	-10.1306
vienne	-10.1306
▁Roi	-10.1307
▁caract�re	-10.1312
hydr	-10.1313
▁Radio	-10.1315
▁revue	-10.1324
▁presque	-10.1324
▁1943	-10.1331
▁mariage	-10.1343
▁Alexandre	-10.135
▁fondateur	-10.1363
▁journaliste	-10.1366
▁occidental	-10.1366
▁aucune	-10.1366
bru	-10.1369
▁l'In	-10.1373
▁Cher	-10.1374
EC	-10.1379
▁m�moire	-10.1391
▁romaine	-10.1394
▁finalement	-10.1401
▁more	-10.1406
▁about	-10.1409
▁Ancien	-10.1418
▁vir	-10.1425
▁r�gime	-10.1431
▁Entre	-10.1446
▁pape	-10.145
▁coupe	-10.1458
▁Patrick	-10.146
▁po�te	-10.1463
▁Haut	-10.1463
▁etc.)	-10.1465
cell	-10.1466
anda	-10.1467
▁Pin	-10.1474
▁Dor	-10.1475
▁pilote	-10.1478
▁donna	-10.1485
▁Rose	-10.149
.fr	-10.1493
▁hockey	-10.1503
▁grec	-10.1504
▁naturel	-10.1506
-la-	-10.152
▁Ram	-10.1531
▁instrument	-10.1534
▁INSEE[1])	-10.1537
▁cho	-10.155
▁rien	-10.1551
▁basse	-10.1551
▁remplace	-10.1555
▁Laurent	-10.1556
▁Vic	-10.1561
norm	-10.1566
▁Festival	-10.1572
▁Th��tre	-10.1574
▁1941	-10.1614
▁dispose	-10.1617
▁Kan	-10.162
▁1932	-10.1621
▁Cur	-10.1624
▁1931	-10.1633
▁Bruxelles	-10.1633
▁Lieu	-10.1634
ister	-10.1636
▁Bern	-10.1642
▁[[P	-10.1651
▁police	-10.1657
▁doute	-10.1657
&lt;br&gt;	-10.1659
▁belge	-10.166
▁Production	-10.1664
▁machine	-10.1668
▁Zi	-10.1669
▁Belle	-10.1672
▁d�couverte	-10.1672
nica	-10.1673
▁complexe	-10.1677
NE	-10.1678
▁protection	-10.1679
▁capacit�	-10.1686
▁Am�rique	-10.1686
▁Ouest	-10.1691
istance	-10.1696
quo	-10.1698
▁kilom�tres	-10.1703
▁mono	-10.1704
▁ferme	-10.1705
Australie	-10.1709
▁statut	-10.1721
▁plac�	-10.1721
▁Finlande	-10.173
issi	-10.1751
▁G�rard	-10.1756
▁Bell	-10.1756
glia	-10.1765
▁Records	-10.1766
▁patron	-10.1769
▁communication	-10.1769
▁central	-10.1775
▁Milan	-10.1778
▁"S	-10.1785
▁acte	-10.1785
▁remplac�	-10.1792
▁ailleurs	-10.1792
RE	-10.1799
▁cur	-10.1799
▁Rio	-10.1802
▁plat	-10.1802
▁voiture	-10.1804
▁diff�rent	-10.1808
▁Antoine	-10.1809
▁S�rie	-10.1816
▁XIV	-10.1818
[6]	-10.1818
▁Post	-10.1826
g�n	-10.1828
▁Dun	-10.1835
▁gaz	-10.1836
▁l'auteur	-10.1836
▁veut	-10.1837
Argentine	-10.1837
▁rejoint	-10.1842
corp	-10.1843
stig	-10.1843
▁Membre	-10.1844
▁somme	-10.1849
▁South	-10.1871
▁Ten	-10.1874
▁via	-10.1876
▁compositeur	-10.1881
▁fondation	-10.1884
ibilit�	-10.189
▁perd	-10.1891
▁Anti	-10.1892
▁actuelle	-10.1894
▁[http://www.	-10.19
▁tu�	-10.1912
Site	-10.1917
▁Day	-10.1917
▁Angeles	-10.1923
▁Jean-Pierre	-10.1926
▁besoin	-10.1926
▁first	-10.1926
▁Ch�	-10.1942
key	-10.1944
▁tente	-10.1957
▁consid�re	-10.1962
▁d�pend	-10.1968
▁l'Al	-10.1979
▁Animalia	-10.1983
▁Time	-10.1985
d�tail	-10.2
scen	-10.2
▁Glo	-10.2015
▁canon	-10.2015
-Saint-	-10.2015
▁appr	-10.2017
▁effect	-10.2018
▁Max	-10.2027
▁malgr�	-10.2028
▁Union	-10.203
▁conflit	-10.2034
▁(Ma	-10.2034
▁Marseille	-10.2034
▁re�oit	-10.2043
▁d�crit	-10.2045
para	-10.2047
homme	-10.2048
▁�conomie	-10.2051
▁cat�gorie	-10.2052
▁PC	-10.2055
▁L'in	-10.2055
▁consomm	-10.2062
▁traitement	-10.2068
coup	-10.2069
OR	-10.2069
▁suc	-10.207
▁1934	-10.2078
▁Washington	-10.208
▁choix	-10.2091
▁Sen	-10.2095
▁l'Allemagne	-10.2098
▁Filmographie	-10.2099
▁musicien	-10.2099
▁humaine	-10.2102
pl�	-10.2114
▁bassin	-10.2123
▁6-4	-10.2127
▁pense	-10.2129
▁association	-10.2135
▁reprend	-10.2137
▁continent	-10.2144
▁initial	-10.2155
▁class�	-10.2158
▁notre	-10.2159
▁River	-10.2164
r�f.	-10.2166
▁Sim	-10.2167
▁essai	-10.2169
▁XVIIe	-10.2172
tten	-10.2174
▁????	-10.2176
▁**	-10.2179
▁danger	-10.2184
▁Berg	-10.2188
▁d�fend	-10.22
▁huit	-10.22
alisme	-10.2201
▁l'Acad�mie	-10.2204
comment>	-10.2218
▁chanteur	-10.2224
histori	-10.2227
▁Ann�e	-10.2233
▁r�alisation	-10.2234
▁paix	-10.2237
222	-10.225
asco	-10.225
Mont	-10.225
▁litt�raire	-10.2255
▁longtemps	-10.2255
▁romain	-10.2255
ugh	-10.2258
▁com�die	-10.2276
▁mineur	-10.2276
▁compris	-10.2278
AL	-10.2291
trice	-10.2292
▁vend	-10.2293
centr	-10.2296
▁producteur	-10.2298
▁f�te	-10.2306
▁rapide	-10.2313
▁signal	-10.2313
▁enfin	-10.2318
gine	-10.2318
▁Fred	-10.2319
▁consacr�	-10.232
▁d'ailleurs	-10.232
▁Bourg	-10.2321
m�ne	-10.2326
▁tenu	-10.2327
▁(2)	-10.2328
▁four	-10.2328
▁meilleure	-10.233
aventure	-10.2332
▁distinct	-10.2333
▁obtenu	-10.2339
▁vide	-10.2339
▁micro	-10.2341
adapt	-10.2345
▁(La	-10.2345
▁Hill	-10.2346
▁puissant	-10.2347
▁Ministre	-10.2348
▁distance	-10.2352
IC	-10.2354
-W	-10.2366
▁D�but	-10.2367
▁(avec	-10.2367
▁Imp	-10.2369
-La	-10.2375
▁been	-10.2376
▁�l�ment	-10.2378
▁Tableau	-10.2379
▁Nam	-10.2383
▁cl�	-10.2394
▁glace	-10.2396
▁souhait	-10.2396
100	-10.24
OM	-10.2414
o�de	-10.2423
▁1926	-10.2423
▁aliment	-10.2426
activ	-10.2431
▁temp�rature	-10.2433
ship	-10.2436
▁Power	-10.2439
▁Institut	-10.244
▁Fr�d�ric	-10.2443
▁chapelle	-10.2443
▁Bataille	-10.2443
ensis	-10.2446
▁dirige	-10.2446
▁juste	-10.2451
▁R�sultat	-10.2452
▁major	-10.2455
strat	-10.2461
culture	-10.2462
▁vente	-10.2466
▁r�serve	-10.2473
▁contraire	-10.2474
▁1933	-10.248
▁Fr�	-10.248
▁suit	-10.2488
▁communiste	-10.25
▁organisation	-10.2513
▁publication	-10.2513
▁seront	-10.252
bach	-10.252
isson	-10.2522
▁tableau	-10.2523
▁Si�ge	-10.2523
▁victime	-10.2538
▁facile	-10.2541
▁Certains	-10.2547
▁Maroc	-10.2548
▁Green	-10.2549
magn	-10.2554
▁Out	-10.256
▁Tru	-10.2562
▁Pap	-10.2568
▁Bour	-10.2571
▁cr�e	-10.2575
▁moiti�	-10.2576
Indian	-10.2585
▁Big	-10.2589
▁Gou	-10.2592
▁typ	-10.2593
vu	-10.2595
▁United	-10.2596
cart	-10.26
▁LNH	-10.2605
▁d�cision	-10.2605
▁longueur	-10.261
▁Puis	-10.2623
▁l'int�rieur	-10.2624
▁exploit	-10.2626
▁Livre	-10.263
▁math�matique	-10.2634
▁chambre	-10.2634
▁Football	-10.2645
▁([[	-10.2646
▁Maur	-10.265
▁1928	-10.2652
▁VII	-10.2654
▁hors	-10.2657
▁Trois	-10.2658
▁philosophie	-10.2663
▁responsable	-10.2663
firm	-10.2663
▁150	-10.2669
plan	-10.267
1999	-10.267
▁n�cessaire]	-10.2672
fon	-10.268
▁Force	-10.268
▁Synopsis	-10.2682
neau	-10.2683
▁Castel	-10.2687
▁publie	-10.2693
▁Vienne	-10.2698
▁prison	-10.2702
▁rendre	-10.2718
roche	-10.2719
mier	-10.2726
▁Clo	-10.2728
chy	-10.2731
▁religieux	-10.2731
▁branche	-10.2731
▁l'inter	-10.2733
Alexandr	-10.2736
EL	-10.2741
▁Gabriel	-10.2741
vage	-10.2742
▁changement	-10.2748
▁Coordonn�es	-10.275
▁d�truit	-10.2751
▁s?ur	-10.2751
▁www.	-10.277
▁l'occasion	-10.277
▁6-3	-10.2779
Jean	-10.2781
Atlanti	-10.2792
▁secret	-10.28
▁compos�e	-10.2807
username>	-10.2809
▁maintenant	-10.2809
▁Gh	-10.2811
▁d'U	-10.2815
▁command	-10.283
▁hauteur	-10.2833
ssel	-10.2836
▁lumi�re	-10.2839
▁climat	-10.284
▁Service	-10.2849
▁chiffre	-10.2859
▁l'Empire	-10.2865
thor	-10.2871
▁Parlement	-10.2872
strict	-10.2881
▁directement	-10.2887
\	-10.2888
▁urbain	-10.2888
▁contrat	-10.2898
▁religieuse	-10.2898
▁jardin	-10.2908
{{	-10.2914
▁complet	-10.2916
Saint	-10.2918
▁phase	-10.2919
puis	-10.2926
▁devait	-10.2927
chan	-10.2927
▁participa	-10.2927
▁limitrophes	-10.2928
▁distingue	-10.2928
▁lieux	-10.2938
▁artistique	-10.2939
▁Blanc	-10.2941
IT	-10.2942
▁id�e	-10.295
▁1925	-10.2952
chou	-10.2954
vocat	-10.2955
▁�trang�re	-10.2958
▁gagne	-10.2962
▁1924	-10.2977
▁amour	-10.2977
▁traduit	-10.2978
▁mieux	-10.2983
▁(7	-10.2987
▁contra	-10.2991
▁White	-10.2995
▁language	-10.2998
▁Embranchement	-10.2998
▁l'op�rateur	-10.2999
▁employ�	-10.3008
?uvre	-10.3023
▁1912	-10.3025
▁progress	-10.3033
▁sommet	-10.3033
▁permettent	-10.3034
▁Sept	-10.3035
▁1911	-10.3039
▁l'Europe	-10.3045
▁sovi�tique	-10.3058
▁vote	-10.3059
▁Tim	-10.3061
▁diverses	-10.3072
▁masse	-10.3073
veille	-10.3075
▁fan	-10.3076
▁d�sormais	-10.3078
▁l'espace	-10.3078
▁Romain	-10.3079
▁cr�er	-10.3086
▁influence	-10.3088
Book	-10.3097
version	-10.31
▁Durant	-10.3102
▁�d.	-10.3106
▁inscrit	-10.312
bl�	-10.3122
▁1929	-10.3127
▁Hal	-10.3127
▁capitaine	-10.3149
▁regroupe	-10.3152
▁royale	-10.3156
▁Loire	-10.3161
▁repr�sentation	-10.3163
▁Serge	-10.3167
▁taux	-10.3167
▁belle	-10.317
▁attend	-10.317
house	-10.3174
bonne	-10.3174
dale	-10.3178
▁Culture	-10.318
▁G�n	-10.3182
▁comporte	-10.3188
▁Scott	-10.319
▁pr�sent�	-10.3198
▁secr�taire	-10.32
▁fr�quent	-10.32
▁votre	-10.3201
arque	-10.321
▁diff�rence	-10.321
▁l'objet	-10.321
▁used	-10.3216
▁solution	-10.3219
▁antique	-10.3226
▁L'E	-10.3227
▁over	-10.3229
▁Corn	-10.3238
▁co�t	-10.3244
tivit�	-10.3249
▁pourrait	-10.3263
▁Mort	-10.327
▁r�pond	-10.3274
France	-10.328
▁d�mon	-10.3291
▁parents	-10.3292
▁contact	-10.3293
slav	-10.3299
▁Jules	-10.3299
▁totalit�	-10.3301
▁recueil	-10.3303
▁1921	-10.3305
▁assure	-10.3305
▁Thu	-10.331
▁compl�ter	-10.3312
▁$	-10.3319
back	-10.3322
RI	-10.3323
▁Toulouse	-10.3334
▁quotidien	-10.3334
▁permis	-10.3345
▁Live	-10.3355
▁calendrier	-10.3355
▁commande	-10.3357
m�trage	-10.3358
m�re	-10.3362
===	-10.3372
cession	-10.3372
▁front	-10.3373
-du-	-10.3373
▁logiciel	-10.3375
▁Cru	-10.3376
�lection	-10.3379
▁Gon	-10.3382
▁esc	-10.3387
▁?Le	-10.3391
▁Universit�	-10.3393
▁Band	-10.3394
▁Bois	-10.3395
-Co	-10.3401
▁Direct	-10.3403
▁r�cit	-10.3405
▁grave	-10.341
grand	-10.3411
clav	-10.3416
1993	-10.343
licit	-10.3432
▁1918	-10.3438
▁(2005)	-10.3439
▁d'avoir	-10.3439
▁Four	-10.344
▁Chris	-10.344
▁r�alit�	-10.3444
{	-10.3445
▁1927	-10.3448
▁[[Image:	-10.3448
▁probablement	-10.3448
▁dimension	-10.3448
▁fleuve	-10.3448
▁Adam	-10.3449
celle	-10.3452
▁Jones	-10.3453
band	-10.347
▁Francis	-10.3473
▁n'ont	-10.348
▁altern	-10.3489
▁(ext.)	-10.349
▁m�decin	-10.3501
-Ca	-10.3502
lumin	-10.3506
▁Kat	-10.3511
migr	-10.3516
URSS	-10.3522
▁concerne	-10.3522
▁officier	-10.3522
▁XVIe	-10.3522
▁rappel	-10.3526
tari	-10.3535
Cha	-10.3536
▁Nationalit�	-10.3539
▁Anna	-10.3542
▁proximit�	-10.3554
viv	-10.3555
▁most	-10.3555
▁Rich	-10.3555
L'	-10.3559
▁espace	-10.356
▁difficult	-10.3564
▁socialiste	-10.3567
▁vont	-10.3571
▁Life	-10.3575
▁statistique	-10.3575
▁1919	-10.3575
▁composition	-10.3579
▁blanche	-10.3579
-Mar	-10.358
▁sul	-10.3582
▁C�te	-10.3582
▁[[G	-10.3587
▁Cor�e	-10.3604
▁Moscou	-10.3607
▁noble	-10.3618
▁reine	-10.3623
▁Ul	-10.3626
▁repr�sent�	-10.3628
africain	-10.3631
light	-10.3631
▁tend	-10.3636
▁d�mocratique	-10.3639
▁active	-10.3642
▁Tous	-10.3647
▁souverain	-10.365
▁install�	-10.3654
1997	-10.3654
▁suisse	-10.3657
▁marche	-10.3659
alisation	-10.3666
book	-10.3667
ni�re	-10.3669
▁R�compenses	-10.3671
▁O'	-10.3672
▁Caract�ristique	-10.3682
▁jazz	-10.3683
gramme	-10.3689
▁rive	-10.3689
▁ph�nom�ne	-10.3692
▁Angel	-10.3697
gress	-10.37
▁Chicago	-10.3703
▁Award	-10.3711
▁standard	-10.3714
[7]	-10.3714
▁Classement	-10.3715
▁{	-10.3716
▁t�l�vis�e	-10.3725
▁Place	-10.3733
▁McC	-10.3734
▁partiellement	-10.3736
▁Fou	-10.3736
▁than	-10.3741
uillet	-10.3743
▁d'Espagne	-10.3746
▁Parmi	-10.3748
tout	-10.3751
install	-10.3757
▁D�c�s	-10.376
▁Fau	-10.3764
LE	-10.3766
▁Philip	-10.3766
illard	-10.3771
1990	-10.3775
▁Sab	-10.3776
▁Association	-10.3777
.html	-10.378
alys	-10.378
▁Hongrie	-10.3781
▁such	-10.3782
▁l'Assembl�e	-10.3789
▁Journal	-10.3791
▁sant�	-10.3795
▁offre	-10.3796
ouille	-10.3798
▁trouva	-10.3798
▁Mexique	-10.38
life	-10.381
▁ext�rieur	-10.3811
▁Quelques	-10.3811
▁essentiellement	-10.3812
▁regard	-10.3827
tang	-10.3829
▁agricole	-10.3833
▁two	-10.3833
ington	-10.3836
etto	-10.3836
▁East	-10.3839
▁pr�vu	-10.386
▁piano	-10.3865
lette	-10.3868
▁propri�taire	-10.3876
▁toutefois	-10.3877
▁Wood	-10.3894
▁annuel	-10.3894
▁Fond	-10.3902
▁l'ancien	-10.3906
▁�tranger	-10.391
▁qu'a	-10.3912
▁Night	-10.3913
▁Top	-10.3914
▁classement	-10.3916
▁mat�riel	-10.392
FC	-10.393
▁r�volution	-10.3932
▁langage	-10.3933
▁eaux	-10.3938
▁m�tro	-10.3938
▁Christophe	-10.3939
▁lib�ral	-10.3943
▁autonome	-10.3943
film	-10.3956
▁Quand	-10.3956
▁you	-10.3956
commun	-10.396
▁Command	-10.396
▁gouverneur	-10.3964
▁technologie	-10.3988
▁guitare	-10.3998
diction	-10.4011
▁Divers	-10.402
▁tourn�e	-10.4025
▁conclu	-10.4032
▁suffi	-10.4032
▁(2006)	-10.4043
▁Cela	-10.4047
telli	-10.4048
▁Vau	-10.4051
▁demi-	-10.4053
bout	-10.4057
▁1913	-10.4061
▁mauvais	-10.4064
▁Num�ro	-10.4064
▁Empire	-10.4078
▁Mike	-10.4083
▁mondial	-10.4089
▁Pop	-10.409
▁oriental	-10.4098
▁Brown	-10.4098
▁maritime	-10.4099
▁Noir	-10.411
▁secondaire	-10.4112
▁Notre-Dame	-10.412
▁Ball	-10.4131
▁po�me	-10.4139
1998	-10.4151
mph	-10.4151
▁gla	-10.4152
▁2001-2008	-10.4154
▁conserve	-10.4154
▁Total	-10.4167
▁symp	-10.4169
▁peine	-10.4176
▁Gentil�	-10.4176
▁g�n�ration	-10.4176
▁jaune	-10.418
▁m�daille	-10.4187
▁arr�t�	-10.4201
▁sp�cifique	-10.4205
▁�lectronique	-10.4211
▁justice	-10.4221
▁application	-10.4221
▁disparu	-10.4222
▁Turquie	-10.4222
▁envoy�	-10.4225
▁Juan	-10.4225
▁Exp	-10.4232
▁Front	-10.4244
▁accompagn�	-10.4244
▁system	-10.4244
▁s'�tend	-10.4245
III	-10.4252
▁Bordeaux	-10.4255
▁House	-10.4256
m�trique	-10.4257
▁possibilit�	-10.4267
1994	-10.4271
▁Tower	-10.4272
▁effectu�	-10.4279
▁Denis	-10.4282
n't	-10.4284
▁interdit	-10.4287
source	-10.429
▁fruit	-10.4295
▁traditionnelle	-10.4297
▁studio	-10.4301
d�pendance	-10.4311
▁1917	-10.4321
▁(2004)	-10.4325
▁l'�conomie	-10.4333
▁Roumanie	-10.4335
▁Thr	-10.4335
▁March	-10.434
▁couple	-10.4342
▁termine	-10.4343
▁science	-10.4344
▁d'Angleterre	-10.4355
▁Fernand	-10.4358
▁(France)	-10.4359
hall	-10.4362
▁Victoire	-10.4393
▁r�gionale	-10.4395
▁avion	-10.4397
enberg	-10.4399
▁enfant	-10.4404
6-0	-10.4404
▁m�ta	-10.4408
▁originaire	-10.4412
▁Jour	-10.4424
▁Gen�ve	-10.4427
▁d�faite	-10.444
▁crise	-10.4443
▁franchi	-10.4443
▁Dominique	-10.445
▁historien	-10.4452
▁Lion	-10.4454
▁ennemi	-10.4461
▁noter	-10.4462
▁rayon	-10.4464
▁only	-10.4466
▁Danemark	-10.4474
world	-10.4474
▁journ�e	-10.4481
▁lanc�	-10.4481
▁magazine	-10.4485
▁1900	-10.4486
▁bronze	-10.4497
▁Dictionnaire	-10.4508
▁Chambre	-10.4509
▁uniquement	-10.451
▁localit�	-10.4516
▁refuse	-10.4521
▁trouv�	-10.4528
▁Mala	-10.4529
▁connaissance	-10.4531
cr�te	-10.4535
ggio	-10.4537
▁Jeanne	-10.4538
▁l�g�re	-10.4544
▁6-2	-10.4546
▁Norv�ge	-10.4555
▁Brian	-10.4557
▁High	-10.4563
trop	-10.4565
▁statue	-10.4567
▁S�lection	-10.4576
▁professionnelle	-10.4578
▁Sc�nario	-10.4579
▁n'en	-10.4579
▁bureau	-10.4579
▁colonie	-10.4588
▁poids	-10.4592
▁processus	-10.46
▁cons�quence	-10.4602
▁minist�re	-10.4602
▁Matt	-10.461
▁(homonymie)	-10.4614
▁dynastie	-10.4614
1992	-10.4614
▁Vincent	-10.4614
▁nourri	-10.4626
▁l'Institut	-10.4631
▁plan�te	-10.4637
▁l�gislative	-10.4637
▁peut-�tre	-10.4649
▁largement	-10.465
▁rendu	-10.4654
▁Fondation	-10.4661
▁psycho	-10.4663
town	-10.4671
▁Erreur	-10.4673
▁flor	-10.4678
▁automobile	-10.4685
ference	-10.4687
ful	-10.47
▁Californie	-10.4708
▁Formule	-10.471
▁sp�cialis�	-10.4718
▁d�roule	-10.4721
▁palais	-10.473
▁Arthur	-10.4732
▁condition	-10.4733
LA	-10.4736
▁XXI	-10.4743
▁heure	-10.4748
▁Enfin	-10.475
▁chute	-10.4753
.A.	-10.4755
▁inspir�	-10.4757
▁compose	-10.4757
▁temple	-10.4757
▁paroisse	-10.4757
m�trie	-10.4763
▁Wall	-10.4767
▁celle-ci	-10.4768
▁favori	-10.4768
▁prisonnier	-10.4769
▁r�forme	-10.477
▁affect	-10.4781
▁Bull	-10.4786
agin	-10.4788
Histoire	-10.4794
▁notion	-10.4798
▁Central	-10.4798
History	-10.4816
▁morceau	-10.4828
▁commenc�	-10.4831
▁quantit�	-10.4834
▁collaboration	-10.484
▁l�gende	-10.484
▁cellule	-10.484
▁superficie	-10.484
▁stade	-10.4841
▁anti-	-10.4842
▁pay	-10.4847
▁1915	-10.485
▁Francisco	-10.486
▁v�hicule	-10.4864
▁Madrid	-10.4876
▁bless�	-10.4876
▁Cr�ation	-10.4887
▁m�tal	-10.4897
▁Edward	-10.4915
▁bateau	-10.4918
▁r�action	-10.4918
500	-10.493
▁cycle	-10.4933
▁Wikimedia	-10.4937
▁int�r�t	-10.4937
▁Eric	-10.4942
Allemand	-10.4945
▁p�t	-10.4946
▁Giovanni	-10.4949
▁piste	-10.4949
▁s'installe	-10.4949
▁Wolf	-10.4955
▁jeunesse	-10.496
▁Napol�on	-10.4961
▁binominal	-10.4973
▁occupe	-10.4973
▁l'empereur	-10.4986
▁Strasbourg	-10.501
vari	-10.501
▁d'information	-10.5014
▁nucl�aire	-10.5022
▁r�sistance	-10.5023
▁�tudie	-10.5023
1988	-10.5034
▁Lorraine	-10.5035
▁enseigne	-10.5035
▁Commission	-10.504
▁animaux	-10.5047
▁Catherine	-10.5059
▁photographie	-10.5072
▁R�alisation	-10.5074
▁name	-10.508
Angleterre	-10.5081
.org	-10.5083
▁maximale	-10.5084
▁timbre	-10.5084
▁foi	-10.5092
▁symbole	-10.5096
▁VIII	-10.51
▁vendu	-10.5102
▁single	-10.5118
▁Yves	-10.5119
▁diffusion	-10.5119
▁marchand	-10.5121
▁varie	-10.5125
ities	-10.5131
kha	-10.5133
OU	-10.5138
▁1916	-10.5138
▁800	-10.5147
pouvant	-10.5157
▁S�o	-10.5163
▁entend	-10.5165
▁Mode	-10.5166
▁Internet	-10.5174
▁puisque	-10.5178
-Ch	-10.5182
▁pouvait	-10.5183
1995	-10.5187
▁occup�	-10.5195
▁format	-10.5202
▁festival	-10.5208
issa	-10.5211
▁exception	-10.5215
▁annonce	-10.5221
▁d'�t�	-10.5221
▁Karl	-10.5228
▁commandant	-10.5228
phal	-10.5229
mocrat	-10.5237
▁correct	-10.5243
▁XIIe	-10.5246
▁Malgr�	-10.525
▁yeux	-10.5253
▁German	-10.5258
1989	-10.527
▁m�canique	-10.5271
▁lyc�e	-10.5271
▁League	-10.5272
▁Movie	-10.5275
▁trace	-10.5277
▁qu'au	-10.528
▁spectacle	-10.5283
▁London	-10.5283
shire	-10.5286
▁imm�diat	-10.5296
▁canal	-10.5297
▁soient	-10.5312
1991	-10.5314
▁No�l	-10.5317
▁Luxembourg	-10.5321
▁Pha	-10.5329
▁Longueur	-10.5334
▁1923	-10.5345
▁circuit	-10.5346
▁r�publicain	-10.5346
▁lourd	-10.5348
▁commission	-10.5353
▁Ligne	-10.5362
▁poisson	-10.5363
▁IX	-10.5387
▁fixe	-10.5395
&	-10.5407
hem	-10.5407
▁l'Est	-10.5408
▁Wild	-10.5415
[8]	-10.5423
▁Lille	-10.5426
▁h�ros	-10.543
▁Pyr�n�es	-10.5435
▁Unicode	-10.5435
▁Championship	-10.5436
f�rence	-10.5436
▁C�sar	-10.5437
▁adapt�	-10.544
iformes	-10.5442
▁n'�tait	-10.5448
�quivalent	-10.5448
▁prot�ge	-10.5452
1-0	-10.5453
▁capable	-10.5453
▁perte	-10.5457
imprim	-10.5457
▁College	-10.5461
▁�volue	-10.5461
▁monument	-10.5462
▁Oct	-10.5471
▁Great	-10.5472
▁d�couvre	-10.5474
▁permettre	-10.5475
▁Nav	-10.5476
1996	-10.5485
▁client	-10.5487
???????	-10.5488
▁cheval	-10.5489
mbert	-10.5494
▁America	-10.5495
▁Hong	-10.5497
▁Plusieurs	-10.5499
▁modification	-10.5515
▁pose	-10.5517
▁fortement	-10.5519
[9]	-10.5525
▁alli�	-10.553
▁Poly	-10.5535
�pisode	-10.5548
box	-10.555
agnol	-10.5553
▁d�couvert	-10.5558
▁Constitution	-10.5564
▁d'Italie	-10.5564
▁int�rieur	-10.5577
▁d'environ	-10.5577
Prix	-10.5577
▁d�bit	-10.5581
Paris	-10.5587
▁would	-10.559
2-0	-10.5601
▁(voix)	-10.5603
New	-10.5604
1986	-10.5612
▁D�fense	-10.5616
▁a�rienne	-10.5616
▁arbre	-10.5617
▁usage	-10.5636
▁l'?uvre	-10.5641
▁masculin	-10.5642
▁faisait	-10.5642
▁Palais	-10.5648
▁biblioth�que	-10.5655
▁olympique	-10.5655
▁arriv�	-10.5655
▁op.	-10.5674
▁demeure	-10.5675
musulman	-10.5681
option	-10.5681
▁Chaque	-10.5682
▁mari�	-10.5683
▁message	-10.5685
▁r�ussi	-10.5686
▁r�elle	-10.569
▁citoyen	-10.5694
▁sc�nariste	-10.5707
▁Lorsque	-10.5709
ophil	-10.5709
▁Lind	-10.571
▁chance	-10.571
▁visible	-10.5713
1981	-10.5719
▁pauvre	-10.5721
▁r�duit	-10.5721
▁joua	-10.5725
▁derri�re	-10.5725
Michel	-10.5738
▁revenu	-10.5742
▁Kong	-10.5751
▁arrondissement	-10.576
▁lorsqu'il	-10.576
▁Street	-10.576
UN	-10.5761
tract	-10.5768
▁Olivier	-10.5773
▁manque	-10.578
▁liaison	-10.5782
▁Format	-10.5796
▁Alfred	-10.58
▁Discographie	-10.58
▁accident	-10.58
▁tch�que	-10.58
▁number	-10.5802
.C.	-10.5808
▁simplement	-10.5809
▁indique	-10.5818
▁construire	-10.5826
▁Sortie	-10.5826
▁1910	-10.5828
▁d�di�	-10.5836
▁Aujourd'hui	-10.584
▁Quart	-10.5842
▁p�che	-10.5844
▁dirigeant	-10.585
▁vieux	-10.5853
known	-10.5853
dorf	-10.5853
pulsion	-10.5859
ifier	-10.586
path	-10.5868
▁l'architecture	-10.587
1980	-10.5874
▁vivre	-10.5875
▁Description	-10.5884
▁1922	-10.5885
▁when	-10.5887
▁Liber	-10.5892
▁navigateur	-10.5893
▁objectif	-10.5893
ographe	-10.5903
▁Johnson	-10.5905
▁d'Am�rique	-10.5906
▁enregistr�	-10.5906
▁ITIS	-10.5906
▁leader	-10.5907
▁appelle	-10.5911
▁l'Espagne	-10.592
▁couvert	-10.592
▁modern	-10.5931
▁particuli�re	-10.5932
▁condamn�	-10.5933
▁parlementaire	-10.5933
▁marine	-10.5943
▁"Le	-10.5945
▁animal	-10.5947
▁Petr	-10.5949
▁Young	-10.595
▁royal	-10.5953
▁culturel	-10.5959
▁enti�rement	-10.5959
Nouvelle-Z�lande	-10.596
▁Droit	-10.5961
▁l'industrie	-10.5964
▁universitaire	-10.5974
▁star	-10.598
▁explique	-10.598
▁Anton	-10.5984
franc	-10.5991
1983	-10.5992
▁participation	-10.5993
XX	-10.5994
▁Conseiller	-10.5995
▁Univers	-10.5998
▁couronne	-10.601
▁norme	-10.601
▁philosophe	-10.6014
interpr�te	-10.6014
▁t�t	-10.6017
▁con�u	-10.602
▁comportement	-10.6023
▁1/4	-10.6032
▁Nantes	-10.6034
▁Irlande	-10.6041
▁apparition	-10.6041
▁performance	-10.6041
▁Walter	-10.6041
▁conserv�	-10.6043
▁canadien	-10.6045
▁2008-2014	-10.6055
▁qualifi�	-10.6055
▁remport�	-10.6055
▁particip�	-10.6055
▁grecque	-10.6058
▁pp.	-10.6065
▁bloc	-10.6068
▁d'honneur	-10.6068
▁Bourgogne	-10.6068
▁divis�	-10.607
▁1906	-10.6081
▁sign�	-10.6084
▁d'o�	-10.6091
▁Master	-10.6091
▁coll�ge	-10.6097
▁froid	-10.6098
▁Hard	-10.6107
pop	-10.6108
▁Isra�l	-10.6109
▁Jacob	-10.611
▁pr�tre	-10.6116
▁Alors	-10.6123
nico	-10.6133
▁Simpson	-10.6137
▁culte	-10.614
▁Form	-10.6148
▁dollars	-10.615
▁appareil	-10.615
▁after	-10.6153
▁d�sir	-10.6158
▁nouvel	-10.616
▁r�ussit	-10.6164
▁revient	-10.6165
▁race	-10.6178
▁(�tats-Unis)	-10.6178
▁g�n�raux	-10.6178
▁tient	-10.6191
▁sc�nario	-10.6192
▁faveur	-10.6192
▁term	-10.6198
▁conf�rence	-10.6201
▁cardinal	-10.6206
English	-10.6206
▁popular	-10.6219
▁capital	-10.6221
Paul	-10.6235
▁Company	-10.6247
▁sert	-10.625
▁pens�e	-10.6262
mettre	-10.627
▁Math	-10.6281
1982	-10.6283
.org/	-10.6288
▁renomm�	-10.6289
▁juif	-10.6297
▁l'�ducation	-10.6303
▁facteur	-10.6305
▁op�ra	-10.6306
Occident	-10.6316
▁British	-10.633
▁Route	-10.6344
▁num�rique	-10.6344
▁parall�le	-10.6344
▁Tony	-10.6345
▁distribution	-10.6347
▁Spring	-10.635
▁�l�ves	-10.6352
▁vaste	-10.6354
▁Palm	-10.6357
ophone	-10.6358
▁Boston	-10.6362
▁Rosa	-10.6366
▁state	-10.637
▁tennis	-10.6373
▁Manuel	-10.6382
▁administratif	-10.6387
▁volont�	-10.6387
▁Nancy	-10.6387
▁Suivi	-10.6387
▁s�par�	-10.6387
wick	-10.639
▁conception	-10.6392
▁million	-10.6408
ivit�	-10.6413
brun	-10.6417
▁Castell	-10.6421
▁basket-ball	-10.6429
▁informatique	-10.6429
▁entreprise	-10.6432
▁techn	-10.6433
▁Johann	-10.6444
▁Rouge	-10.6446
▁L'ex	-10.6454
allemand	-10.6456
▁DVD	-10.6457
▁r�daction	-10.6457
▁Couleurs	-10.6457
▁(2003)	-10.6458
▁extrait	-10.6471
▁arri�re	-10.6476
▁r�f�re	-10.6479
▁Sous-classe	-10.6485
▁divin	-10.6487
▁arr�t	-10.6491
▁plateau	-10.6495
▁Torre	-10.6498
▁Grande-Bretagne	-10.65
▁Harry	-10.6503
▁poursuit	-10.6504
▁Croix	-10.6508
▁Maxim	-10.6515
▁r�glement	-10.6523
▁passant	-10.6527
Ukrain	-10.653
champ	-10.6531
George	-10.6539
▁quatri�me	-10.6542
▁conservation	-10.6544
head	-10.6562
▁parisien	-10.6563
▁Cup	-10.6564
1987	-10.6569
▁Toutefois	-10.6571
▁Antonio	-10.6577
direct	-10.6579
▁l'arriv�e	-10.6585
born	-10.659
worth	-10.6601
▁abandon	-10.6602
▁Taille	-10.661
▁chevalier	-10.6613
histoire	-10.6626
▁Version	-10.6631
phor	-10.6632
1970	-10.6632
▁nul	-10.664
▁Comit�	-10.6646
▁endroit	-10.6657
▁wallon	-10.6658
▁(2002)	-10.6658
▁l'ancienne	-10.6661
▁remonte	-10.6666
▁Asie	-10.6666
▁d'histoire	-10.6666
▁Pr�c�d�	-10.6672
▁concours	-10.6673
▁violon	-10.6684
▁Jackson	-10.6684
▁d�finition	-10.6684
▁quasi	-10.6686
▁industrielle	-10.6687
▁officiellement	-10.6697
▁R�alisateur	-10.6701
▁contraint	-10.6703
ologiste	-10.6708
▁culturelle	-10.6708
▁preuve	-10.6708
entra�neur	-10.6713
▁1901	-10.6714
▁Good	-10.6717
▁Roll	-10.6721
absolu	-10.6721
▁l'existence	-10.6729
▁exp�rience	-10.673
▁l'organisation	-10.673
▁provoque	-10.673
1978	-10.6733
▁Origine	-10.6734
▁financi�re	-10.6744
▁d�riv�	-10.6744
▁Pascal	-10.6745
▁Dragon	-10.6746
▁Personnages	-10.6759
▁mat�riau	-10.6759
1979	-10.6762
▁d�mission	-10.6764
photograph	-10.677
▁int�gr�	-10.6773
▁km/h	-10.6773
▁retourne	-10.6783
▁years	-10.6788
▁Juifs	-10.679
▁Anglais	-10.679
▁S�nat	-10.6795
▁Bank	-10.6802
▁variable	-10.6803
▁Circ	-10.6803
▁commandement	-10.6805
▁lesquels	-10.6809
▁l'�lection	-10.6811
▁comptait	-10.6818
mori	-10.682
▁Tunisie	-10.6832
▁proc�s	-10.6836
▁chr�tienne	-10.6847
▁Girl	-10.6849
industrie	-10.6857
dynamique	-10.6861
▁System	-10.6861
▁l'utilisation	-10.6861
▁permanent	-10.6862
spiration	-10.6866
▁vainqueur	-10.6876
▁chapitre	-10.6876
▁J�sus	-10.6876
▁rose	-10.6889
▁botanique	-10.6891
▁r�ponse	-10.6891
▁engag�	-10.6894
▁industriel	-10.6906
▁d'hiver	-10.6906
motion	-10.6909
▁Chordata	-10.6921
▁tentative	-10.6921
Australia	-10.6921
▁Galerie	-10.6923
▁Arab	-10.6925
▁chanteuse	-10.6928
▁touche	-10.6938
▁Little	-10.6943
▁Jean-Claude	-10.695
▁r�volutionnaire	-10.6952
▁centaine	-10.6953
▁pr�nom	-10.6957
teint	-10.6961
▁extr�me	-10.6965
▁vaisseau	-10.6968
▁v�rifi	-10.6978
▁Jordan	-10.698
▁gueules	-10.701
xml:	-10.701
▁�quip�	-10.701
feld	-10.7016
▁between	-10.7025
▁occasion	-10.7025
▁exclu	-10.7025
1985	-10.7026
▁Dark	-10.7026
▁retire	-10.703
▁1/2	-10.7034
architecture	-10.7036
▁ressources	-10.704
▁muni	-10.7052
▁Royaume	-10.7055
▁locaux	-10.7055
▁rejet	-10.7059
Henri	-10.7067
▁commen�a	-10.7077
▁Rouen	-10.7077
▁massif	-10.7083
▁Savoie	-10.7085
valuation	-10.7086
title>	-10.7087
parti	-10.7091
▁1908	-10.7099
IUCN	-10.71
▁Gouvernement	-10.71
▁patrimoine	-10.71
▁imp�rial	-10.71
▁ferm�	-10.7111
▁<title>	-10.7114
▁Dream	-10.7115
▁para�t	-10.7126
▁(Ch	-10.713
▁process	-10.7133
istic	-10.7135
▁Suite	-10.7146
1984	-10.7148
▁Composition	-10.7151
▁Gilles	-10.7166
▁Plat	-10.7175
▁(+version(en))	-10.7176
▁composant	-10.7176
▁couche	-10.7177
▁Studio	-10.7177
▁banque	-10.7187
▁chimique	-10.7191
▁will	-10.7193
▁apprend	-10.72
▁juridique	-10.7206
▁satellite	-10.7206
▁(2001)	-10.7208
▁d'autre	-10.7208
▁terrestre	-10.7215
▁colonne	-10.7218
Z</ti	-10.7221
▁<timestamp>200	-10.7222
mestamp>	-10.7222
▁Politique	-10.7222
▁School	-10.7222
▁flotte	-10.7222
▁Group	-10.7224
▁r�guli�rement	-10.7235
▁l'abbaye	-10.7237
▁people	-10.7237
▁s�jour	-10.7237
▁*[http://www.	-10.7252
▁d'Afrique	-10.7252
▁Mr.	-10.7253
▁Barcelone	-10.7267
▁augmente	-10.7268
1973	-10.727
▁nage	-10.728
▁discussion	-10.7283
▁vari�t�	-10.7288
▁oiseaux	-10.7298
▁m�tier	-10.7301
▁retrouv�	-10.7314
▁l'Ouest	-10.7314
▁Capital	-10.7315
[10]	-10.733
▁entr�e	-10.7332
▁constant	-10.7337
▁d�cid�	-10.7341
▁(2000)	-10.7346
▁fabrication	-10.736
▁fid�le	-10.736
▁Dr.	-10.7372
▁universit�	-10.7376
&amp;nbsp;	-10.7391
▁human	-10.7393
▁entra�ne	-10.7394
Canada	-10.74
▁manifestation	-10.7407
▁(2007)	-10.7408
▁�dit�	-10.7415
▁Jean-Paul	-10.7422
▁high	-10.7423
▁General	-10.7423
villa	-10.7427
▁brut	-10.7438
▁Corporation	-10.7438
▁protestant	-10.7438
▁County	-10.7438
▁g�ographie	-10.7444
▁Bertrand	-10.7453
▁soleil	-10.7455
ordinateur	-10.7455
▁Saint-Jean	-10.7458
▁solaire	-10.7467
▁portugais	-10.7469
▁suffisamment	-10.7469
▁d'ann�e	-10.7469
▁cercle	-10.747
3-0	-10.7472
▁attribu�	-10.75
▁d'infanterie	-10.75
▁l'Ordre	-10.75
▁Aucun	-10.7507
▁croix	-10.751
▁Si�cle	-10.7516
▁chaud	-10.7518
▁formule	-10.7521
album	-10.7522
production	-10.753
▁cath�drale	-10.7532
▁monast�re	-10.7532
ruption	-10.7534
▁remarquable	-10.7548
▁rempli	-10.7548
▁argent	-10.7559
▁Emil	-10.7562
??????	-10.7563
Architecture	-10.7563
▁l'id�e	-10.7565
▁Team	-10.7571
▁acquis	-10.7577
▁Greg	-10.7578
▁Gilbert	-10.7579
▁Monsieur	-10.7595
▁po�sie	-10.7595
▁R�sum�	-10.7611
▁chien	-10.7619
article	-10.762
quill	-10.7628
▁revend	-10.7636
▁l'�nergie	-10.7643
▁rest�	-10.7664
▁vaut	-10.7665
meuble	-10.7665
▁Venise	-10.7667
-les-	-10.7671
▁Lombard	-10.7675
▁discours	-10.7675
filmographiques.	-10.7676
▁pr�tend	-10.7679
▁�lectro	-10.7681
�galit�	-10.7685
▁n�erlandais	-10.7691
▁Museum	-10.7691
▁emploi	-10.7691
▁Nouveau	-10.7692
▁Colli	-10.7693
▁Score	-10.7701
▁papier	-10.7707
▁breton	-10.7708
�quation	-10.7713
▁sp�cialiste	-10.7721
omys	-10.7721
▁d�clare	-10.7724
Esp	-10.7728
migration	-10.7735
▁Directeur	-10.7736
▁rejoindre	-10.7739
▁Davis	-10.7744
vocation	-10.7753
▁d'interrogation	-10.7755
▁Temple	-10.7755
▁traditionnel	-10.7766
▁organise	-10.7766
▁effectue	-10.7766
▁tube	-10.7771
▁termina	-10.7771
▁discipline	-10.7771
▁interpr�t�	-10.7771
'apr�s	-10.7784
▁Congr�s	-10.7788
▁disposition	-10.7793
▁l'Afrique	-10.7803
scope	-10.7807
▁docteur	-10.7808
▁Windows	-10.782
▁talent	-10.7821
▁proposition	-10.7822
▁environnement	-10.7825
▁project	-10.7827
▁canadienne	-10.7831
▁Troisi�me	-10.7837
▁anim�	-10.7839
▁Toronto	-10.7852
▁primaire	-10.7869
▁abandonn�	-10.7869
pr�sident	-10.7881
[11]	-10.7886
▁elle-m�me	-10.7889
▁r�publique	-10.7901
▁r�sidence	-10.7901
▁quoi	-10.7906
▁tort	-10.7909
▁contexte	-10.7918
▁Finaliste	-10.792
▁appartenant	-10.7934
▁Saint-Ma	-10.7937
▁Li�ge	-10.7945
▁Stephen	-10.795
▁dizaine	-10.795
▁Somme	-10.7952
▁tendance	-10.7962
▁Producteur	-10.7967
▁appartient	-10.7967
▁remarque	-10.7967
▁apparu	-10.7969
▁????????????	-10.797
script	-10.7975
▁Compagnie	-10.7983
▁succ�de	-10.7983
▁fichier	-10.8
▁�tendu	-10.8001
▁Second	-10.8011
▁Tournoi	-10.8016
1977	-10.8016
▁D�cennie	-10.8016
▁juive	-10.803
▁Diffusion	-10.8049
▁Joueur	-10.805
▁Sant'	-10.8052
doubl	-10.8055
r�gul	-10.8062
▁sauvage	-10.8066
▁Texas	-10.8066
.htm	-10.808
▁Normandie	-10.8083
▁introduit	-10.8083
mettant	-10.8092
▁v�cu	-10.8101
▁<id>1	-10.8101
▁soumis	-10.811
▁(carr�s	-10.8116
▁recensement	-10.8116
Charles	-10.8117
▁d'�tudes	-10.8117
▁fonctionnement	-10.8125
▁r�parti	-10.8126
Fran�ois	-10.8132
▁Sous-embr	-10.8133
▁reconna�t	-10.8149
▁adversaire	-10.815
▁mourut	-10.815
▁<#50	-10.815
▁(dont	-10.8153
1967	-10.8166
▁d'identit�	-10.8166
▁fr�quence	-10.8166
▁00"	-10.8169
▁Clark	-10.8169
1975	-10.8183
▁d'Allemagne	-10.8183
▁obtenir	-10.8183
▁occupa	-10.8183
▁show	-10.8189
.jpg	-10.82
▁Database	-10.82
▁Donald	-10.82
▁laiss�	-10.8204
▁honor	-10.8204
▁d�cret	-10.8208
▁tonnes	-10.8221
▁potentiel	-10.8234
▁financier	-10.8234
▁L'�glise	-10.8251
▁adopt�	-10.8251
▁pair	-10.8254
▁Story	-10.8259
▁Florence	-10.826
▁r�volte	-10.8268
▁croissance	-10.8268
▁Johnny	-10.8279
▁n�anmoins	-10.8284
▁volontaire	-10.8284
▁T�l�	-10.8289
▁Bulgarie	-10.8301
▁ferroviaire	-10.8301
1968	-10.831
▁sentiment	-10.8319
▁Secret	-10.8336
▁affirme	-10.8336
sexuel	-10.8338
▁nomination	-10.8344
1976	-10.8352
▁polonais	-10.8353
▁ing�nieur	-10.8353
▁even	-10.8361
▁parcours	-10.8362
▁distribu	-10.8366
▁acqu	-10.837
▁consacre	-10.837
▁raconte	-10.8371
FFF	-10.8375
▁<#32	-10.8387
▁Gustav	-10.8388
▁Colombie	-10.8396
▁�lectoral	-10.8404
▁soutenu	-10.8405
▁destruction	-10.8405
glob	-10.8414
▁similaire	-10.8421
▁suppl�mentaire	-10.8421
▁Revue	-10.8422
▁Andrea	-10.8424
▁ant�rieur	-10.8439
▁Collection	-10.8439
▁irr	-10.8452
▁intellectuel	-10.8456
▁l'environnement	-10.8456
▁milliards	-10.8456
▁Chevalier	-10.8456
▁Voyage	-10.8456
▁plaque	-10.8457
▁invit�	-10.8458
▁transforme	-10.8458
Association	-10.8459
ovi?	-10.8477
▁phil	-10.8481
▁S�n�gal	-10.8491
1974	-10.8491
▁Stefan	-10.8493
▁l'esprit	-10.8508
▁l'entr�e	-10.8508
▁dimanche	-10.8525
Olympique	-10.8538
Grand	-10.8539
▁J�rusalem	-10.8543
▁linguistique	-10.8543
▁disput�	-10.8543
▁d�sign�	-10.8543
▁r�v�le	-10.8544
http://www.	-10.8545
▁exposition	-10.8555
charge	-10.8558
▁Photographie	-10.8578
▁modifi�	-10.858
▁abrite	-10.8587
▁d'int�r�t	-10.8595
▁Monument	-10.8596
▁d'auto	-10.86
Histori	-10.8605
▁accueilli	-10.8613
▁militant	-10.8613
▁vigne	-10.8622
▁Ferdinand	-10.863
▁Montpellier	-10.863
▁l'entreprise	-10.863
▁n'avait	-10.863
▁Vitesse	-10.8631
▁called	-10.8631
▁lecture	-10.8633
▁effort	-10.8648
Organisation	-10.8648
▁Town	-10.8649
▁Borg	-10.8663
▁revanche	-10.8666
▁sacr�	-10.8672
▁Cin�ma	-10.8683
List	-10.87
▁Syst�me	-10.8701
▁produire	-10.8701
▁Alpes	-10.8708
▁monnaie	-10.8719
▁gar�on	-10.8719
stitu�	-10.8728
▁l'Internet	-10.8736
▁data	-10.8742
John	-10.8753
▁l'association	-10.8754
▁Thierry	-10.8754
▁contenant	-10.8754
▁prot�g�	-10.8754
▁Gaston	-10.8757
▁nazi	-10.8764
▁Sous-famille	-10.8772
▁responsabilit�	-10.8772
▁(1998)	-10.8774
ouvrir	-10.8778
▁civilisation	-10.8779
▁familial	-10.879
▁baseball	-10.8794
▁transformation	-10.8795
é	-10.8808
(fr+en)	-10.8808
▁STS-	-10.8808
▁titulaire	-10.8808
▁radical	-10.8808
▁tr�ne	-10.8809
autrichien	-10.8811
▁touristique	-10.8816
▁spatial	-10.8826
▁r�serv�	-10.8828
▁investi	-10.8828
▁Cinq	-10.8839
▁possession	-10.8844
▁enti�re	-10.8853
▁�viter	-10.8866
▁Ferrari	-10.888
▁douze	-10.888
▁gardien	-10.8883
▁patient	-10.8888
▁through	-10.8898
▁francophone	-10.8898
[12]	-10.8899
▁Vall�e	-10.8909
point	-10.8915
▁Society	-10.8916
▁Donn�es	-10.8916
▁Oscar	-10.8918
▁Lewis	-10.8925
▁marquis	-10.8935
▁lib�ration	-10.8952
catalogue	-10.8952
-des-	-10.8953
~	-10.8961
▁l'enseignement	-10.897
▁maximum	-10.897
▁printemps	-10.897
br�silien	-10.897
▁hommage	-10.897
▁Tokyo	-10.897
▁produis	-10.8971
▁l'ind�pendance	-10.8974
Islam	-10.899
▁Madame	-10.8991
▁constat	-10.8994
▁develop	-10.9008
1969	-10.9008
▁transmission	-10.9013
Arm�nie	-10.9022
▁engage	-10.9028
▁racine	-10.9029
▁Minist�re	-10.9043
align=&quot;	-10.9062
▁Fontaine	-10.9062
▁empereur	-10.9062
▁proportion	-10.9062
flex	-10.9063
▁utile	-10.9065
▁d'Ivoire	-10.908
▁chimie	-10.908
▁l'op�ra	-10.9083
▁deviendra	-10.9098
▁concentration	-10.9098
▁Barbara	-10.9099
▁m�lange	-10.9099
▁reconnaissance	-10.9101
pyr	-10.9102
▁Versailles	-10.9117
▁Racing	-10.9118
▁natural	-10.9118
command	-10.9118
Universit	-10.9123
▁promotion	-10.9123
▁Animal	-10.913
invest	-10.9134
▁l'empire	-10.9135
▁drapeau	-10.9135
▁Social	-10.914
▁menace	-10.9145
fensive	-10.9148
▁comp�tence	-10.9154
▁Municipalit�	-10.9162
▁br�l	-10.9162
▁Cat�gorie	-10.9172
▁Affaires	-10.9173
▁Deuxi�me	-10.9175
▁Alg�rie	-10.9191
▁r�cemment	-10.921
▁L�gion	-10.921
▁Coll�ge	-10.9228
▁r�cente	-10.9231
▁Rennes	-10.9246
▁Renaissance	-10.9247
▁suivre	-10.9247
▁termin�	-10.9266
▁global	-10.9268
▁irlandais	-10.9285
▁conqu�te	-10.9285
▁(comme	-10.9289
▁efficace	-10.9303
▁dipl�me	-10.9303
▁Exemple	-10.9322
▁graphique	-10.9323
▁Photo	-10.9324
▁profession	-10.9339
▁Sous-ordre	-10.9341
▁sud-est	-10.9341
articul	-10.9343
▁exp�dition	-10.9344
▁erreur	-10.936
l'administration	-10.9379
▁musc	-10.9388
Litt�rature	-10.9398
▁fondamental	-10.9398
▁bataillon	-10.9398
▁d�clar�	-10.9398
▁d�sert	-10.9412
r�gion	-10.9415
▁(1/32)	-10.9417
famille	-10.9432
▁d'enfant	-10.9436
ground	-10.9441
Chinois	-10.945
S�bastien	-10.9455
▁Commentaire	-10.9456
▁Church	-10.9474
▁rapproche	-10.9493
▁t�moin	-10.9493
▁junior	-10.9493
▁illustra	-10.9493
|thumb|	-10.9493
▁where	-10.9493
▁parvient	-10.9495
▁Taylor	-10.9512
▁Mouvement	-10.9512
acad�mi	-10.9513
▁Double	-10.9517
▁Gallimard	-10.9532
▁conscience	-10.9532
▁(pour	-10.9533
▁adulte	-10.9552
▁Samuel	-10.9555
Christ	-10.9559
▁M�moire	-10.957
▁opposition	-10.957
▁Eug�ne	-10.9572
▁Down	-10.9574
osph�re	-10.9575
▁l'actuel	-10.9578
▁Monaco	-10.959
▁Africa	-10.9591
▁Year	-10.9591
▁Hydro	-10.9593
▁fix�	-10.9595
▁milliers	-10.9609
▁Saint-Pierre	-10.9611
▁approche	-10.9612
▁cimeti�re	-10.9628
▁batterie	-10.9628
▁Andrew	-10.9629
▁Justice	-10.9667
▁horaire	-10.9668
▁NCBI	-10.9687
▁oppos�	-10.9687
▁garanti	-10.9691
▁coop�r	-10.9691
▁atteindre	-10.9706
▁nord-ouest	-10.9706
▁appliqu�	-10.9706
▁Activit�	-10.9707
▁Soleil	-10.9707
▁Cycl	-10.9721
▁l'usage	-10.9727
▁transform�	-10.9746
▁Blanche	-10.975
▁conservateur	-10.9752
▁Jean-Louis	-10.9765
▁Pacifique	-10.9765
▁au-dessus	-10.9765
▁D�put�	-10.9765
▁minimale	-10.9765
▁chronique	-10.9765
▁hydro	-10.9781
▁Grenoble	-10.9785
Taxonomy	-10.9785
Encyclop	-10.9786
▁b�n�ficie	-10.9805
▁a�roport	-10.9805
▁rassemble	-10.9805
▁Hommes	-10.9806
▁entour�	-10.9818
ological	-10.9823
▁Convention	-10.9825
▁trafic	-10.9825
▁modifie	-10.9842
▁Celui-ci	-10.9844
▁l'�tranger	-10.9844
▁Adventure	-10.9844
▁variante	-10.9844
▁�pousa	-10.9845
▁mar�chal	-10.9864
▁phrase	-10.9864
▁include	-10.9864
August	-10.9867
burn	-10.9875
▁cousin	-10.9882
▁constitutionnel	-10.9884
▁UMP	-10.9884
▁r�partition	-10.9887
▁cr�dit	-10.99
Amsterdam	-10.9904
▁surnomm�	-10.9904
arbitr	-10.9906
▁program	-10.9909
sexual	-10.9919
▁scolaire	-10.9924
▁apporte	-10.9932
▁essentiel	-10.9943
▁v�rit�	-10.9944
▁r�guli�re	-10.9947
▁d�passe	-10.9947
@	-10.9964
▁Pr�fixe	-10.9964
▁Volume	-10.9965
▁�cosse	-10.9968
▁syndrome	-10.9984
▁laboratoire	-10.9984
apprenti	-10.9985
▁ISO	-10.9985
▁logement	-10.9985
▁trente	-10.9985
Oxford	-10.9987
▁�gyptien	-11.0005
▁m�di�val	-11.0005
▁s'engage	-11.0005
▁colonial	-11.0013
▁nord-est	-11.0025
▁apparent	-11.0025
pace="preserve">	-11.0034
▁Profession	-11.0045
▁lieutenant	-11.0045
▁Vierge	-11.0046
Pierre	-11.0056
??????????	-11.0058
existence	-11.0061
▁enqu�te	-11.0064
▁dioc�se	-11.0065
▁su�dois	-11.0065
▁constitua	-11.0065
▁Earth	-11.0066
▁conserva	-11.0085
▁L'�quipe	-11.0086
▁pourquoi	-11.0086
▁accueille	-11.0106
�le-de-France	-11.0106
Auvergne	-11.0106
▁s�pare	-11.0111
▁converti	-11.0114
▁Marguerite	-11.0126
▁Saint-Martin	-11.0126
▁Jean-Fran�ois	-11.0147
▁brigade	-11.0147
▁�tudi�	-11.0147
mettent	-11.0165
quisition	-11.0167
▁judiciaire	-11.0167
▁fa�ade	-11.0168
▁Psych	-11.0168
▁pr�pare	-11.0177
▁Bourbon	-11.018
▁p�nal	-11.0187
▁provisoire	-11.0188
▁t�l�phonique	-11.0188
▁pr�sidentielle	-11.0188
▁ch?ur	-11.0188
▁Sc�nariste	-11.0208
▁Certaines	-11.0208
▁Beno�t	-11.0209
▁Yougoslavie	-11.0229
▁christianisme	-11.0229
▁cabinet	-11.0229
▁extension	-11.0229
▁cuisine	-11.0229
▁�nergie	-11.0229
▁Georg	-11.0244
▁mobile	-11.0248
▁usine	-11.0249
▁minimum	-11.025
▁spectateur	-11.0251
▁partenaire	-11.0252
Econom	-11.0259
▁physi	-11.0262
▁St�phane	-11.027
▁Major	-11.0271
fontaine	-11.0287
&amp;ndash;	-11.0291
▁strat�gie	-11.0291
▁auparavant	-11.0291
▁Munich	-11.0291
▁Seigneur	-11.0291
▁Jusqu'	-11.0292
▁licence	-11.0292
▁gagn�	-11.0312
▁adopte	-11.0315
▁esprit	-11.0316
▁dominant	-11.0333
▁Program	-11.0335
▁d�couvrir	-11.0335
▁general	-11.0338
-Joseph	-11.0354
▁accessible	-11.0354
▁Chelem	-11.0354
▁�clat	-11.0357
▁�v�nement	-11.0358
▁Benjamin	-11.0375
▁Vertebrata	-11.0375
▁sud-ouest	-11.0375
▁s�nateur	-11.0375
▁Sydney	-11.0396
▁favorable	-11.0396
▁avanc�	-11.0396
▁Classic	-11.0397
▁autoris�	-11.0397
▁voulu	-11.0397
-m�me	-11.0397
instrument	-11.0404
▁pr�f�re	-11.0407
▁consid�rable	-11.0407
▁Provence	-11.0417
ography	-11.0434
▁Gouverneur	-11.0438
▁sculpture	-11.0438
▁Taxon	-11.0442
$	-11.0446
▁propag	-11.0465
▁australien	-11.048
▁d�finitivement	-11.048
▁mythologie	-11.048
▁l'agriculture	-11.0501
▁proc�dure	-11.0501
▁prennent	-11.0501
▁Ernest	-11.0502
▁G�orgie	-11.0522
▁rencontr�	-11.0522
▁r�compense	-11.0522
▁example	-11.0522
▁dramatique	-11.0522
▁reli�	-11.0533
▁�gypte	-11.0544
▁Douglas	-11.0544
▁variation	-11.0545
▁contribue	-11.0565
▁semi-	-11.0568
Philippe	-11.0575
▁alphab�tique	-11.0586
▁lesquelles	-11.0586
▁s'�tait	-11.0586
▁chevaux	-11.0587
▁Canadien	-11.0587
▁d'Orl�ans	-11.0629
▁obligatoire	-11.0629
▁dispute	-11.063
▁progressivement	-11.0651
▁Saint-�tienne	-11.0651
▁oct	-11.066
aujourd'hui	-11.0662
▁ma�trise	-11.0672
▁classification	-11.0672
▁liquide	-11.0672
▁circulation	-11.0715
▁manuscrit	-11.0715
▁Rivi�re	-11.0716
▁r�put�	-11.0716
▁(1997)	-11.0717
▁repr�senta	-11.0731
▁recommandations	-11.0737
-Jo	-11.0742
oulou	-11.0746
▁illustr�	-11.0759
▁restaurant	-11.0759
▁circon	-11.078
666667	-11.0781
▁Anthony	-11.0781
▁lendemain	-11.0781
▁Croatie	-11.0781
Apollo	-11.0782
American	-11.0794
▁l'honneur	-11.0802
▁cycliste	-11.0803
▁Isabelle	-11.0824
▁pinyin	-11.0824
▁fusil	-11.0831
R�publicain	-11.0846
▁affluent	-11.0846
▁annonc�	-11.0846
▁importance	-11.0846
▁transfert	-11.0846
▁int�gre	-11.0846
▁�douard	-11.0847
▁consider	-11.0848
▁envahi	-11.085
▁n'existe	-11.0868
Jacques	-11.0883
▁Mountain	-11.089
▁R�union	-11.089
▁Colomb	-11.0905
▁profondeur	-11.0912
▁peint	-11.0922
▁spirituel	-11.0935
▁g�n�tique	-11.0935
▁densit�	-11.0938
ez-vous	-11.0958
▁noyau	-11.0959
▁R�partition	-11.0979
▁?0M	-11.098
▁observe	-11.0982
▁orthodoxe	-11.1001
▁�preuves	-11.1001
encontre	-11.1015
▁rattach�	-11.1023
▁orchestre	-11.1024
▁l'influence	-11.1024
▁assur�	-11.1024
▁l'ext�rieur	-11.1046
▁d�faut	-11.1046
▁origin	-11.1068
▁bourgeois	-11.1068
▁government	-11.1068
▁Mickey	-11.1068
▁d�barque	-11.1068
▁sous-marin	-11.1068
▁Utilis	-11.1071
Origin	-11.1086
▁c�r�monie	-11.1091
▁l'Am�rique	-11.1091
STAT	-11.1091
▁Entra�neur	-11.1113
▁century	-11.1114
asiatique	-11.1128
▁Patrimoine	-11.1136
▁proc�d�	-11.1136
▁substance	-11.1136
▁femelle	-11.1136
▁Drapeau	-11.1159
▁product	-11.1172
▁f�d�ration	-11.1181
▁policier	-11.1181
-Ja	-11.1197
▁chef-lieu	-11.1204
▁d'exploitation	-11.1204
▁blessure	-11.1204
-l�s-	-11.122
▁hectares	-11.1227
▁d�signa	-11.1242
▁emp�che	-11.125
▁Pedro	-11.1252
▁jusque	-11.1252
▁science-fiction	-11.1272
▁l'absence	-11.1272
▁l'�criture	-11.1272
▁cyclisme	-11.1273
▁tomb�	-11.1278
▁vari�	-11.1279
/06/	-11.1294
▁Nintendo	-11.1295
▁Saint-Louis	-11.1295
am�lioration	-11.1295
▁<id>4	-11.1304
▁phylog�n�tique	-11.1318
▁pr�paration	-11.1318
▁l'activit�	-11.1318
▁Retrouve	-11.1341
▁renforce	-11.1341
Indon�sie	-11.1341
▁Environ	-11.1342
▁Bleu	-11.1354
▁Jersey	-11.1364
▁doctrine	-11.1364
▁l'affaire	-11.1365
▁l'autorit�	-11.1365
▁Syrie	-11.1369
▁d'�nergie	-11.1388
▁m�canisme	-11.1388
▁r�putation	-11.1388
▁UTC	-11.1388
▁ceux-ci	-11.1388
▁M�diterran�e	-11.1411
Industrie	-11.1411
[14]	-11.1412
▁(1996)	-11.1413
333333	-11.1434
▁86-84433-	-11.1434
▁cinqui�me	-11.1434
▁lin�aire	-11.1434
▁congr�s	-11.1437
▁N�anmoins	-11.1457
▁Navarre	-11.1457
▁d'euros	-11.1458
▁Messi	-11.1461
sindac	-11.1466
▁arch�ologique	-11.1481
▁gratuit	-11.1481
▁s'oppose	-11.1504
▁First	-11.1528
▁connect	-11.1551
▁l'informatique	-11.1551
▁Russell	-11.1551
▁relatif	-11.1551
▁Cl�ment	-11.1552
▁Am�liorez	-11.1575
▁dispositif	-11.1575
▁Ath�nes	-11.1575
▁th�orique	-11.1575
▁retard	-11.1579
▁Physi	-11.1585
ssimil	-11.1591
▁Sauv	-11.1597
▁Navr�tilov�	-11.1598
▁Wikispecies	-11.1598
▁emprunt	-11.1598
▁follow	-11.1598
▁pr�fecture	-11.1598
▁l'enfant	-11.1599
▁douce	-11.1605
flamm	-11.1614
�lectricit�	-11.1622
▁facult�	-11.1622
▁character	-11.1622
▁d�placement	-11.1622
▁comprenant	-11.1622
▁Effectif	-11.1646
▁Charlotte	-11.1646
▁Constantin	-11.167
▁fabrique	-11.167
▁Sophie	-11.167
▁hameau	-11.1691
▁Hawk	-11.17
▁rythme	-11.1717
▁Recherche	-11.1718
▁Field	-11.1719
conduct	-11.1727
index	-11.1729
▁quadr	-11.1731
▁fr�quemment	-11.1741
▁great	-11.1743
-sous-	-11.1754
/04/	-11.1754
0-0	-11.1758
▁assassin�	-11.1765
▁disparition	-11.1765
▁int�ressant	-11.1765
Assembl	-11.1769
▁Modern	-11.1774
▁impossible	-11.179
▁malheur	-11.179
▁mixte	-11.179
▁installation	-11.1791
�conomie	-11.1801
/01/	-11.1813
▁sculpteur	-11.1814
▁fragment	-11.1814
[13]	-11.1815
▁prochain	-11.1817
▁l'oc�an	-11.1838
▁vice-pr�sident	-11.1838
▁Chef-lieu	-11.1838
▁Rugby	-11.1838
▁Anderson	-11.1838
▁Am�ricain	-11.1862
▁compagnon	-11.1862
▁dragon	-11.1862
▁d�l�gu�	-11.1887
▁restauration	-11.1887
▁constructeur	-11.1911
▁Houten	-11.1911
▁r�sistant	-11.1935
▁transf�r�	-11.1935
▁(1995)	-11.1937
▁atelier	-11.1938
▁rejoign	-11.196
▁magasin	-11.196
attribut	-11.196
▁Mill�naires	-11.1984
▁Hameaux	-11.1985
-Ju	-11.1986
▁tissu	-11.1989
▁Cependant	-11.2004
▁C'�tait	-11.2009
▁Territoire	-11.2009
▁byzantin	-11.2009
▁Junior	-11.2009
▁dispara�t	-11.2009
▁Concert	-11.2013
▁c'�tait	-11.2034
▁d'athl�tisme	-11.2034
▁accompli	-11.2034
▁Cameroun	-11.2058
▁th�or�me	-11.2059
▁d�mocrate	-11.2059
▁caf�	-11.2061
0,000	-11.208
▁Friedrich	-11.2083
▁Technique	-11.2083
▁Fonction	-11.2084
▁Valentin	-11.2087
а	-11.2108
▁banlieue	-11.2108
▁juridiction	-11.2108
▁A�roport	-11.2108
▁?(sr)	-11.2133
▁internationaux	-11.2133
▁davantage	-11.2133
▁including	-11.2133
▁l'h�tel	-11.2133
▁Nelson	-11.2134
▁trompe	-11.2137
▁Fern�ndez	-11.2158
▁n�cessite	-11.2158
555556	-11.2158
Atlanta	-11.216
▁acc�de	-11.217
▁because	-11.2183
obligation	-11.2184
▁concurrence	-11.2208
▁bact�ri	-11.2208
▁crat�re	-11.2208
▁Sicile	-11.2209
Christoph	-11.2223
▁Vladimir	-11.2233
▁math�maticien	-11.2233
▁signifiant	-11.2233
▁Canavese	-11.2234
▁became	-11.2234
▁journaux	-11.2234
▁Cambridge	-11.2259
▁�cossais	-11.2259
▁l'effet	-11.2259
▁l'importance	-11.2259
▁Columbia	-11.2284
▁frappe	-11.2287
'importe	-11.2297
▁t�moigne	-11.2309
▁Capitaine	-11.2309
▁exerce	-11.2319
▁F�lix	-11.2335
▁Religion	-11.2335
▁brillant	-11.2335
▁Whit	-11.2343
▁Milieu	-11.2357
`	-11.236
▁Xavier	-11.236
▁bombe	-11.236
▁lib�r�	-11.2361
▁promu	-11.2384
▁Philosoph	-11.2386
▁r�flexion	-11.2386
▁Miguel	-11.2386
▁viennent	-11.2387
▁Colorado	-11.2412
-Atlantiques	-11.2412
▁budget	-11.2412
▁zoologie	-11.2412
▁Mod�le	-11.2412
▁r�tabli	-11.2424
▁(Italie)	-11.2437
▁against	-11.2437
▁t�moignage	-11.2437
▁fabriqu�	-11.2437
nonciation	-11.2437
▁attach�	-11.2438
(VF	-11.246
▁Secr�taire	-11.2463
▁influenc�	-11.2463
▁Virginia	-11.2463
▁d'entr�e	-11.2463
▁relief	-11.2463
▁accus�	-11.2465
▁�voluant	-11.2489
▁massacre	-11.2489
▁identique	-11.2489
▁confirme	-11.2503
▁Wilhelm	-11.2515
▁int�gral	-11.2515
▁concurrent	-11.2515
▁fen�tre	-11.2515
▁provient	-11.2515
▁retir�	-11.2516
▁different	-11.2541
▁Mathieu	-11.2541
▁Jardin	-11.2541
▁bient�t	-11.2542
▁n�gociation	-11.2567
▁J'ai	-11.2567
anthropo	-11.2569
▁artificiel	-11.2593
▁Dauphin	-11.2593
▁Entertainment	-11.2593
▁guitariste	-11.2593
▁Situ�	-11.2595
▁protect	-11.2617
▁Tch�coslovaquie	-11.2619
▁�difice	-11.2619
▁d�cennie	-11.2619
▁affronte	-11.2619
▁confirm�	-11.262
▁cristal	-11.2621
communication	-11.2632
algorithm	-11.2645
▁Jean-Jacques	-11.2645
▁pr�sidence	-11.2645
▁Troph�e	-11.2646
lthough	-11.265
▁contribution	-11.2672
▁d'animation	-11.2672
▁pr�cis�ment	-11.2672
▁atteign	-11.2672
ssurance	-11.2673
▁opera	-11.2698
▁Wimbledon	-11.2698
▁maintenir	-11.2698
▁Zurich	-11.2698
▁mourir	-11.2699
▁prononc�	-11.2725
▁voulait	-11.2725
▁country	-11.2725
▁before	-11.2725
▁interpr�tation	-11.2751
▁observ�	-11.2751
▁bruit	-11.2752
▁n�cessit�	-11.2778
▁ex�cut�	-11.2804
[pdf]	-11.2831
&lt;/td&gt;	-11.2831
▁l'urbanisme	-11.2831
▁Lincoln	-11.2831
▁isol�	-11.2836
▁*''[[	-11.2858
▁respectivement	-11.2858
▁honneur	-11.2858
▁Pr�sentation	-11.2885
▁Hamilton	-11.2885
▁office	-11.2886
▁criminel	-11.2887
▁Palestine	-11.2912
▁tournage	-11.2913
▁Texte	-11.2913
▁prolonge	-11.2918
▁salari�	-11.2939
▁baptis�	-11.2939
▁l'Ancien	-11.2939
▁Hitler	-11.2939
▁d�roul�	-11.2939
▁Jerry	-11.294
á	-11.3786
и	-11.5006
е	-11.531
р	-11.5344
н	-11.5553
о	-11.5695
^	-11.6169
í	-11.7701
ó	-11.9152
т	-11.9669
л	-12.0103
ו	-12.0214
י	-12.0214
с	-12.0498
к	-12.1403
ö	-12.1658
–	-12.219
<	-12.2267
’	-12.2327
ا	-12.2971
м	-12.3579
ä	-12.3737
—	-12.4227
в	-12.4831
ר	-12.4831
ü	-12.5101
д	-12.586
°	-12.616
А	-12.6469
у	-12.6788
ο	-12.723
ل	-12.8178
ā	-12.8303
א	-12.8429
α	-12.8687
з	-12.8687
ر	-12.8819
п	-12.9087
è	-12.9363
ל	-12.9363
я	-12.9504
г	-12.9647
і	-12.9792
و	-13.0393
”	-13.0393
ي	-13.055
נ	-13.055
ç	-13.0708
ק	-13.087
ン	-13.087
“	-13.087
ה	-13.087
ð	-13.1034
ー	-13.12
م	-13.12
ن	-13.12
מ	-13.137
ν	-13.1718
ט	-13.1718
É	-13.1896
б	-13.2078
ת	-13.2078
й	-13.2263
ō	-13.2452
ú	-13.2452
ס	-13.2452
ב	-13.284
ד	-13.3453
ь	-13.3453
Б	-13.3883
Г	-13.4105
ب	-13.4105
ی	-13.4105
č	-13.4332
د	-13.4332
ø	-13.4333
ρ	-13.4565
ι	-13.4565
・	-13.4565
س	-13.4565
ô	-13.4803
ג	-13.4803
ł	-13.5047
ə	-13.5047
ы	-13.5297
à	-13.5553
ア	-13.5817
К	-13.5817
λ	-13.6087
æ	-13.6087
å	-13.6087
פ	-13.6087
ル	-13.6365
า	-13.6365
ф	-13.6365
ス	-13.665
ɛ	-13.665
ם	-13.665
ς	-13.7247
ë	-13.7247
ã	-13.7247
τ	-13.756
ε	-13.756
ˈ	-13.756
Д	-13.7883
ː	-13.7883
κ	-13.8216
ت	-13.8216
ร	-13.8561
リ	-13.8561
ן	-13.8561
Á	-13.8561
ч	-13.8561
ש	-13.8561
ί	-13.8918
ý	-13.8918
×	-13.8918
Х	-13.9288
ク	-13.9288
ц	-13.9288
ม	-13.9288
イ	-13.9288
ه	-13.9288
μ	-13.9673
â	-13.9673
σ	-14.0073
்	-14.0073
ك	-14.0073
ж	-14.0073
ž	-14.0073
ê	-14.0073
เ	-14.0489
ラ	-14.0489
ְ	-14.0489
ა	-14.0489
ة	-14.049
·	-14.0924
υ	-14.0924
ト	-14.0924
ف	-14.0924
И	-14.0924
ּ	-14.0924
อ	-14.1379
ъ	-14.1379
ñ	-14.1379
ล	-14.1379
ă	-14.1379
צ	-14.1379
ī	-14.1379
ę	-14.1379
ɪ	-14.1379
ח	-14.1855
х	-14.1855
š	-14.1855
ი	-14.1855
ю	-14.2355
Е	-14.2355
М	-14.2355
ド	-14.2355
Ф	-14.2355
‘	-14.2355
ū	-14.2355
ッ	-14.2881
น	-14.2881
ค	-14.2881
ע	-14.2881
ј	-14.2881
η	-14.3437
θ	-14.3437
≡	-14.3437
ิ	-14.3437
π	-14.3437
β	-14.4025
П	-14.4025
カ	-14.4025
シ	-14.4025
ج	-14.4025
£	-14.4025
ɑ	-14.4025
ß	-14.4025
С	-14.4025
ē	-14.465
Î	-14.465
õ	-14.465
ć	-14.465
ַ	-14.465
ı	-14.465
რ	-14.465
ָ	-14.465
ე	-14.465
ก	-14.465
ส	-14.5317
ต	-14.5317
ロ	-14.5317
ì	-14.5317
이	-14.5317
ě	-14.5317
ʃ	-14.5317
ή	-14.6031
க	-14.6031
フ	-14.6031
ा	-14.6031
ع	-14.6031
ั	-14.6031
ό	-14.6031
Å	-14.68
φ	-14.68
γ	-14.68
ี	-14.68
ி	-14.68
レ	-14.68
Č	-14.68
⁄	-14.68
ï	-14.68
أ	-14.68
デ	-14.68
ک	-14.68
ṇ	-14.68
ジ	-14.7634
ù	-14.7634
ń	-14.7634
ด	-14.7634
エ	-14.7634
ė	-14.7634
ω	-14.7634
ว	-14.7634
스	-14.7634
χ	-14.8543
タ	-14.8543
э	-14.8543
्	-14.8543
コ	-14.8543
ò	-14.8543
ط	-14.8543
์	-14.8543
ш	-14.8543
ح	-14.8543
ო	-14.8543
ɔ	-14.8543
ʊ	-14.8543
Э	-14.8543
ṣ	-14.8543
皇	-14.8543
리	-14.8543
Æ	-14.8543
ش	-14.8543
日	-14.8543
月	-14.8543
Ö	-14.8543
프	-14.8543
ř	-14.8543
δ	-14.9542
ட	-14.9543
إ	-14.9543
ブ	-14.9543
î	-14.9543
ق	-14.9543
の	-14.9543
ż	-14.9543
ɹ	-14.9543
ά	-14.9543
్	-14.9543
غ	-14.9543
ś	-14.9543
ŋ	-14.9543
ム	-14.9543
ல	-15.0654
ィ	-15.0654
ガ	-15.0654
斯	-15.0654
ֹ	-15.0654
ニ	-15.0654
学	-15.0654
ュ	-15.0654
大	-15.0654
ლ	-15.0654
§	-15.0654
ย	-15.0654
ベ	-15.0654
▄	-15.0654
グ	-15.0654
ą	-15.0654
ท	-15.0654
ׁ	-15.0654
天	-15.0654
数	-15.0654
ز	-15.0654
đ	-15.0654
利	-15.1904
ุ	-15.1904
Ä	-15.1904
ர	-15.1904
แ	-15.1904
ウ	-15.1904
ハ	-15.1904
ז	-15.1904
Í	-15.1904
Ó	-15.1904
Α	-15.1904
ў	-15.1904
پ	-15.1904
ს	-15.1904
Κ	-15.1904
€	-15.1904
ャ	-15.1904
일	-15.1904
ง	-15.1904
́	-15.1904
Ε	-15.1904
合	-15.3332
Л	-15.3332
ப	-15.3332
न	-15.3332
特	-15.3332
ˌ	-15.3332
О	-15.3332
ธ	-15.3332
帝	-15.3332
ʔ	-15.3332
โ	-15.3332
↓	-15.3332
ヘ	-15.3332
Ç	-15.3332
ţ	-15.3332
Β	-15.3332
世	-15.3332
월	-15.3332
ŭ	-15.3332
ర	-15.3332
트	-15.3332
ェ	-15.3332
В	-15.3332
্	-15.3332
ვ	-15.3332
亚	-15.4999
文	-15.4999
Δ	-15.4999
र	-15.4999
会	-15.4999
国	-15.4999
ห	-15.4999
่	-15.4999
ї	-15.4999
基	-15.4999
Γ	-15.4999
ա	-15.4999
キ	-15.4999
ズ	-15.4999
バ	-15.4999
メ	-15.4999
카	-15.4999
±	-15.4999
Ж	-15.4999
主	-15.4999
기	-15.4999
어	-15.4999
þ	-15.4999
ʤ	-15.4999
ि	-15.4999
ব	-15.4999
≈	-15.4999
כ	-15.4999
ბ	-15.4999
−	-15.4999
海	-15.4999
아	-15.4999
ő	-15.4999
物	-15.4999
ʧ	-15.4999
І	-15.4999
آ	-15.4999
州	-15.4999
英	-15.4999
ų	-15.4999
尔	-15.6999
克	-15.6999
บ	-15.6999
ἰ	-15.6999
ग	-15.6999
დ	-15.6999
的	-15.6999
მ	-15.6999
チ	-15.6999
گ	-15.6999
ダ	-15.6999
Ρ	-15.6999
Т	-15.6999
Š	-15.6999
法	-15.6999
국	-15.6999
û	-15.6999
Н	-15.6999
中	-15.6999
베	-15.6999
화	-15.6999
®	-15.6999
»	-15.6999
Ž	-15.6999
ǀ	-15.6999
ִ	-15.6999
ి	-15.6999
ế	-15.6999
ネ	-15.6999
語	-15.6999
세	-15.6999
ĉ	-15.6999
ნ	-15.6999
パ	-15.6999
山	-15.6999
格	-15.6999
도	-15.6999
로	-15.6999
関	-15.6999
З	-15.6999
ђ	-15.6999
ո	-15.6999
ʻ	-15.6999
明	-15.6999
素	-15.6999
ู	-15.6999
目	-15.6999
Ò	-15.7
ἂ	-15.9499
Φ	-15.9499
έ	-15.9499
罗	-15.9499
ョ	-15.9499
球	-15.9499
ு	-15.9499
य	-15.9499
ซ	-15.9499
ी	-15.9499
அ	-15.9499
ன	-15.9499
ய	-15.9499
ா	-15.9499
ṛ	-15.9499
ケ	-15.9499
ल	-15.9499
स	-15.9499
金	-15.9499
Μ	-15.9499
ئ	-15.9499
ヴ	-15.9499
島	-15.9499
ʁ	-15.9499
ʒ	-15.9499
Ч	-15.9499
セ	-15.9499
マ	-15.9499
义	-15.9499
ạ	-15.9499
ớ	-15.9499
니	-15.9499
ɯ	-15.9499
ʼ	-15.9499
̪	-15.9499
Ј	-15.9499
Р	-15.9499
ի	-15.9499
ր	-15.9499
ֶ	-15.9499
म	-15.9499
ป	-15.9499
ะ	-15.9499
†	-15.9499
′	-15.9499
█	-15.9499
か	-15.9499
テ	-15.9499
北	-15.9499
레	-15.9499
르	-15.9499
사	-15.9499
인	-15.9499
지	-15.9499
페	-15.9499
«	-15.9499
ş	-15.9499
̩	-15.9499
خ	-15.9499
ص	-15.9499
保	-15.9499
和	-15.9499
地	-15.9499
语	-15.9499
가	-15.9499
자	-15.9499
주	-15.9499
პ	-15.9499
戦	-15.9499
族	-15.9499
↑	-15.9499
一	-15.9499
武	-15.9499
ณ	-15.9499
ツ	-15.9499
阿	-15.9499
ত	-15.9499
ὐ	-15.9499
ĝ	-15.95
ἴ	-16.2832
電	-16.2832
ゲ	-16.2832
科	-16.2832
列	-16.2832
督	-16.2832
ช	-16.2832
ザ	-16.2832
荷	-16.2832
西	-16.2832
व	-16.2832
য	-16.2832
র	-16.2832
ি	-16.2832
ற	-16.2832
თ	-16.2832
ギ	-16.2832
ミ	-16.2832
映	-16.2832
ჰ	-16.2832
サ	-16.2832
動	-16.2832
成	-16.2832
比	-16.2832
画	-16.2832
ζ	-16.2832
ु	-16.2832
ச	-16.2832
ெ	-16.2832
オ	-16.2832
ボ	-16.2832
公	-16.2832
名	-16.2832
¬	-16.2832
À	-16.2832
È	-16.2832
Ł	-16.2832
ň	-16.2832
Ř	-16.2832
ث	-16.2832
ए	-16.2832
ब	-16.2832
श	-16.2832
ษ	-16.2832
ペ	-16.2832
三	-16.2832
体	-16.2832
공	-16.2832
미	-16.2832
제	-16.2832
코	-16.2832
©	-16.2832
Ø	-16.2832
ư	-16.2832
ɝ	-16.2832
ɻ	-16.2832
ʀ	-16.2832
̃	-16.2832
̍	-16.2832
щ	-16.2832
յ	-16.2832
տ	-16.2832
া	-16.2832
ம	-16.2832
ు	-16.2832
ಾ	-16.2832
ฐ	-16.2832
ไ	-16.2832
კ	-16.2832
い	-16.2832
す	-16.2832
プ	-16.2832
モ	-16.2832
人	-16.2832
國	-16.2832
王	-16.2832
義	-16.2832
그	-16.2832
릴	-16.2832
의	-16.2832
크	-16.2832
타	-16.2832
터	-16.2832
히	-16.2832
Đ	-16.2832
五	-16.2832
元	-16.2832
力	-16.2832
원	-16.2832
ɒ	-16.2832
ɦ	-16.2832
͡	-16.2832
స	-16.2832
გ	-16.2832
ქ	-16.2832
史	-16.2832
政	-16.2832
波	-16.2832
都	-16.2832
고	-16.2832
바	-16.2832
영	-16.2832
İ	-16.2832
ŝ	-16.2832
ɲ	-16.2832
ʎ	-16.2832
У	-16.2832
ւ	-16.2832
ภ	-16.2832
ピ	-16.2832
十	-16.2832
子	-16.2832
소	-16.2832
ह	-16.2833
哈	-16.2833
巴	-16.2833
本	-16.2833
电	-16.2833
伊	-16.2833
嘉	-16.2833
้	-16.2833
兰	-16.2833
ğ	-16.2833
Ō	-16.2833
伯	-16.7832
联	-16.7832
Ω	-16.7832
伽	-16.7832
爾	-16.7832
诺	-16.7832
ґ	-16.7832
尼	-16.7832
查	-16.7832
亞	-16.7832
雷	-16.7832
अ	-16.7832
आ	-16.7832
ฟ	-16.7832
ศ	-16.7832
ァ	-16.7832
ヒ	-16.7832
學	-16.7832
朱	-16.7832
派	-16.7832
略	-16.7832
第	-16.7832
那	-16.7832
ಕ	-16.7832
件	-16.7832
林	-16.7832
機	-16.7832
空	-16.7832
自	-16.7832
间	-16.7832
鲁	-16.7832
ѣ	-16.7832
Ì	-16.7832
ύ	-16.7832
Ц	-16.7832
ম	-16.7832
ল	-16.7832
়	-16.7832
ே	-16.7832
ビ	-16.7832
ユ	-16.7832
位	-16.7832
光	-16.7832
定	-16.7832
解	-16.7832
際	-16.7832
클	-16.7832
ஆ	-16.7832
ļ	-16.7832
ფ	-16.7832
√	-16.7832
じ	-16.7832
二	-16.7832
互	-16.7832
历	-16.7832
実	-16.7832
漢	-16.7832
系	-16.7832
細	-16.7832
론	-16.7832
역	-16.7832
Ð	-16.7832
ɬ	-16.7832
Η	-16.7832
ử	-16.7832
‡	-16.7832
園	-16.7832
外	-16.7832
木	-16.7832
東	-16.7832
理	-16.7832
用	-16.7832
行	-16.7832
象	-16.7832
개	-16.7832
모	-16.7832
비	-16.7832
신	-16.7832
언	-16.7832
읍	-16.7832
키	-16.7832
­	-16.7832
Ü	-16.7832
ď	-16.7832
œ	-16.7832
ů	-16.7832
ơ	-16.7832
ǎ	-16.7832
ǔ	-16.7832
ɐ	-16.7832
ɕ	-16.7832
ɡ	-16.7832
ɣ	-16.7832
ɾ	-16.7832
ʣ	-16.7832
ʦ	-16.7832
̂	-16.7832
̘	-16.7832
̥	-16.7832
̻	-16.7832
Π	-16.7832
ώ	-16.7832
Є	-16.7832
Я	-16.7832
մ	-16.7832
ذ	-16.7832
ध	-16.7832
জ	-16.7832
দ	-16.7832
ন	-16.7832
ஹ	-16.7832
ఆ	-16.7832
ఏ	-16.7832
గ	-16.7832
ట	-16.7832
ప	-16.7832
బ	-16.7832
ల	-16.7832
ష	-16.7832
ರ	-16.7832
ข	-16.7832
ტ	-16.7832
ᄂ	-16.7832
ᅫ	-16.7832
ᑎ	-16.7832
ᑦ	-16.7832
ọ	-16.7832
〨	-16.7832
ず	-16.7832
と	-16.7832
ォ	-16.7832
ゴ	-16.7832
ヤ	-16.7832
ワ	-16.7832
京	-16.7832
兩	-16.7832
兵	-16.7832
劉	-16.7832
反	-16.7832
存	-16.7832
弘	-16.7832
意	-16.7832
抗	-16.7832
朝	-16.7832
祖	-16.7832
红	-16.7832
胞	-16.7832
薬	-16.7832
親	-16.7832
言	-16.7832
謝	-16.7832
谢	-16.7832
高	-16.7832
갈	-16.7832
구	-16.7832
늄	-16.7832
다	-16.7832
동	-16.7832
된	-16.7832
드	-16.7832
란	-16.7832
래	-16.7832
성	-16.7832
쌍	-16.7832
애	-16.7832
오	-16.7832
요	-16.7832
읒	-16.7832
족	-16.7832
한	-16.7832
¿	-16.7832
ء	-16.7832
ᄋ	-16.7832
我	-16.7832
避	-16.7832
骨	-16.7832
네	-16.7832
산	-16.7832
압	-16.7832
ʾ	-16.7832
̯	-16.7832
Έ	-16.7832
Ш	-16.7832
ى	-16.7832
ా	-16.7832
ḍ	-16.7832
ὅ	-16.7832
ὑ	-16.7832
き	-16.7832
仁	-16.7832
制	-16.7832
化	-16.7832
医	-16.7832
同	-16.7832
市	-16.7832
度	-16.7832
座	-16.7832
拉	-16.7832
歴	-16.7832
清	-16.7832
生	-16.7832
程	-16.7832
組	-16.7832
统	-16.7832
該	-16.7832
闘	-16.7832
데	-16.7832
라	-16.7832
람	-16.7832
메	-16.7832
알	-16.7832
작	-16.7832
티	-16.7832
하	-16.7832
激	-16.7832
Ś	-16.7833
ɟ	-16.7833
զ	-16.7833
ս	-16.7833
ց	-16.7833
े	-16.7833
ฮ	-16.7833
は	-16.7833
ヌ	-16.7833
卫	-16.7833
壁	-16.7833
多	-16.7833
太	-16.7833
字	-16.7833
德	-16.7833
星	-16.7833
書	-16.7833
氧	-16.7833
美	-16.7833
苏	-16.7833
슬	-16.7833
प	-16.7833
ર	-16.7833
函	-16.7833
洪	-16.7833
节	-16.7833
ё	-16.7833
江	-16.7833
Ć	-16.7833
ű	-16.7833
ِ	-16.7834
Ĺ	-17.7827
Ċ	-17.7828
Θ	-17.7831
Σ	-17.7831
״	-17.7831
׵	-17.7831
׶	-17.7831
׷	-17.7831
׸	-17.7831
׹	-17.7831
Ἂ	-17.7831
∞	-17.7831
擊	-17.7832
攻	-17.7832
気	-17.7832
泳	-17.7832
疣	-17.7832
豬	-17.7832
足	-17.7832
达	-17.7832
际	-17.7832
Ι	-17.7832
ज	-17.7832
त	-17.7832
に	-17.7832
び	-17.7832
丹	-17.7832
丽	-17.7832
佐	-17.7832
务	-17.7832
卅	-17.7832
南	-17.7832
占	-17.7832
及	-17.7832
吉	-17.7832
器	-17.7832
娜	-17.7832
安	-17.7832
客	-17.7832
密	-17.7832
尾	-17.7832
布	-17.7832
希	-17.7832
庭	-17.7832
总	-17.7832
户	-17.7832
拜	-17.7832
搞	-17.7832
教	-17.7832
服	-17.7832
桑	-17.7832
獎	-17.7832
由	-17.7832
端	-17.7832
笑	-17.7832
莉	-17.7832
莱	-17.7832
蒂	-17.7832
蛇	-17.7832
表	-17.7832
諾	-17.7832
貝	-17.7832
软	-17.7832
邦	-17.7832
響	-17.7832
顿	-17.7832
Ū	-17.7832
ʑ	-17.7832
ं	-17.7832
क	-17.7832
ट	-17.7832
फ	-17.7832
ॉ	-17.7832
ो	-17.7832
অ	-17.7832
ও	-17.7832
ক	-17.7832
ে	-17.7832
ஞ	-17.7832
ண	-17.7832
வ	-17.7832
ஸ	-17.7832
ொ	-17.7832
ใ	-17.7832
๋	-17.7832
ხ	-17.7832
ᔭ	-17.7832
ᕆ	-17.7832
ᖃ	-17.7832
ナ	-17.7832
不	-17.7832
仮	-17.7832
候	-17.7832
兆	-17.7832
全	-17.7832
半	-17.7832
塞	-17.7832
変	-17.7832
宣	-17.7832
彗	-17.7832
手	-17.7832
標	-17.7832
準	-17.7832
澳	-17.7832
症	-17.7832
紙	-17.7832
葉	-17.7832
選	-17.7832
除	-17.7832
黃	-17.7832
黑	-17.7832
헤	-17.7832
ħ	-17.7832
į	-17.7832
ť	-17.7832
ũ	-17.7832
ǐ	-17.7832
ई	-17.7832
ಅ	-17.7832
ಿ	-17.7832
亨	-17.7832
石	-17.7832
러	-17.7832
Â	-17.7832
Ā	-17.7832
Ŝ	-17.7832
ấ	-17.7832
れ	-17.7832
ん	-17.7832
倭	-17.7832
典	-17.7832
刀	-17.7832
妊	-17.7832
年	-17.7832
悪	-17.7832
晉	-17.7832
活	-17.7832
滿	-17.7832
牙	-17.7832
級	-17.7832
芸	-17.7832
重	-17.7832
銀	-17.7832
鸟	-17.7832
낱	-17.7832
노	-17.7832
논	-17.7832
말	-17.7832
맥	-17.7832
명	-17.7832
문	-17.7832
민	-17.7832
박	-17.7832
법	-17.7832
안	-17.7832
저	-17.7832
축	-17.7832
컨	-17.7832
항	-17.7832
洞	-17.7832
Ï	-17.7832
Ñ	-17.7832
Ú	-17.7832
Þ	-17.7832
Ē	-17.7832
Ĝ	-17.7832
Ġ	-17.7832
ġ	-17.7832
Ī	-17.7832
ĵ	-17.7832
ľ	-17.7832
Ņ	-17.7832
ņ	-17.7832
Ż	-17.7832
ƕ	-17.7832
ǜ	-17.7832
ȅ	-17.7832
ɚ	-17.7832
ɨ	-17.7832
ɫ	-17.7832
ɰ	-17.7832
ɴ	-17.7832
ɺ	-17.7832
ʂ	-17.7832
ʉ	-17.7832
ʋ	-17.7832
ʍ	-17.7832
ʨ	-17.7832
ˀ	-17.7832
˩	-17.7832
̄	-17.7832
̊	-17.7832
̚	-17.7832
̰	-17.7832
͆	-17.7832
͈	-17.7832
͌	-17.7832
Ή	-17.7832
Τ	-17.7832
Ђ	-17.7832
Й	-17.7832
Ъ	-17.7832
є	-17.7832
љ	-17.7832
њ	-17.7832
џ	-17.7832
Ѣ	-17.7832
ѹ	-17.7832
Қ	-17.7832
ԋ	-17.7832
Ԍ	-17.7832
ԍ	-17.7832
Ԏ	-17.7832
ԏ	-17.7832
Խ	-17.7832
Կ	-17.7832
Յ	-17.7832
Վ	-17.7832
բ	-17.7832
գ	-17.7832
ե	-17.7832
թ	-17.7832
լ	-17.7832
խ	-17.7832
ն	-17.7832
ք	-17.7832
ֵ	-17.7832
ף	-17.7832
װ	-17.7832
ױ	-17.7832
ײ	-17.7832
׳	-17.7832
׺	-17.7832
׻	-17.7832
׼	-17.7832
׽	-17.7832
׾	-17.7832
׿	-17.7832
ؤ	-17.7832
ض	-17.7832
ظ	-17.7832
ْ	-17.7832
چ	-17.7832
झ	-17.7832
ड	-17.7832
थ	-17.7832
द	-17.7832
०	-17.7832
१	-17.7832
२	-17.7832
३	-17.7832
४	-17.7832
স	-17.7832
ী	-17.7832
ઁ	-17.7832
પ	-17.7832
ફ	-17.7832
સ	-17.7832
ங	-17.7832
ை	-17.7832
ం	-17.7832
డ	-17.7832
త	-17.7832
న	-17.7832
ఫ	-17.7832
మ	-17.7832
య	-17.7832
వ	-17.7832
శ	-17.7832
ె	-17.7832
ಡ	-17.7832
ವ	-17.7832
ಸ	-17.7832
ು	-17.7832
ೋ	-17.7832
ญ	-17.7832
ถ	-17.7832
พ	-17.7832
็	-17.7832
་	-17.7832
ზ	-17.7832
წ	-17.7832
ᄃ	-17.7832
ᄅ	-17.7832
ᄍ	-17.7832
ᄐ	-17.7832
ᄒ	-17.7832
ᄫ	-17.7832
ᄬ	-17.7832
ᅡ	-17.7832
ᅢ	-17.7832
ᅩ	-17.7832
ᅱ	-17.7832
ᅵ	-17.7832
ᇢ	-17.7832
ᇴ	-17.7832
ሃ	-17.7832
ም	-17.7832
ር	-17.7832
ብ	-17.7832
አ	-17.7832
Ꮢ	-17.7832
ᐅ	-17.7832
ᑯ	-17.7832
ᒃ	-17.7832
ᒪ	-17.7832
ᓯ	-17.7832
ᓴ	-17.7832
ᔪ	-17.7832
ᕋ	-17.7832
ᖅ	-17.7832
ḇ	-17.7832
ḏ	-17.7832
ḥ	-17.7832
ḳ	-17.7832
ṝ	-17.7832
ṭ	-17.7832
ầ	-17.7832
ậ	-17.7832
ề	-17.7832
ố	-17.7832
ồ	-17.7832
ổ	-17.7832
ỗ	-17.7832
ộ	-17.7832
ợ	-17.7832
ụ	-17.7832
ủ	-17.7832
ữ	-17.7832
ự	-17.7832
ἁ	-17.7832
ἐ	-17.7832
ἑ	-17.7832
ἕ	-17.7832
ἠ	-17.7832
ἡ	-17.7832
ἱ	-17.7832
ὀ	-17.7832
ὁ	-17.7832
ὠ	-17.7832
ὡ	-17.7832
ῶ	-17.7832
←	-17.7832
→	-17.7832
↗	-17.7832
⇒	-17.7832
∩	-17.7832
≤	-17.7832
⊇	-17.7832
う	-17.7832
ぎ	-17.7832
げ	-17.7832
ぢ	-17.7832
つ	-17.7832
で	-17.7832
へ	-17.7832
べ	-17.7832
ま	-17.7832
み	-17.7832
ゃ	-17.7832
ゅ	-17.7832
ゥ	-17.7832
ノ	-17.7832
ホ	-17.7832
万	-17.7832
下	-17.7832
争	-17.7832
余	-17.7832
作	-17.7832
來	-17.7832
侬	-17.7832
侯	-17.7832
係	-17.7832
個	-17.7832
倫	-17.7832
傳	-17.7832
傻	-17.7832
六	-17.7832
凸	-17.7832
出	-17.7832
剩	-17.7832
加	-17.7832
勢	-17.7832
区	-17.7832
単	-17.7832
印	-17.7832
县	-17.7832
叄	-17.7832
周	-17.7832
命	-17.7832
哥	-17.7832
唔	-17.7832
唯	-17.7832
四	-17.7832
城	-17.7832
堅	-17.7832
央	-17.7832
女	-17.7832
宁	-17.7832
守	-17.7832
室	-17.7832
对	-17.7832
峡	-17.7832
幅	-17.7832
广	-17.7832
庆	-17.7832
府	-17.7832
延	-17.7832
异	-17.7832
形	-17.7832
思	-17.7832
愛	-17.7832
應	-17.7832
戰	-17.7832
所	-17.7832
拾	-17.7832
振	-17.7832
放	-17.7832
散	-17.7832
无	-17.7832
是	-17.7832
時	-17.7832
暗	-17.7832
會	-17.7832
机	-17.7832
条	-17.7832
来	-17.7832
析	-17.7832
柔	-17.7832
植	-17.7832
樂	-17.7832
権	-17.7832
樹	-17.7832
正	-17.7832
歩	-17.7832
歳	-17.7832
歹	-17.7832
氐	-17.7832
民	-17.7832
氦	-17.7832
水	-17.7832
永	-17.7832
沸	-17.7832
治	-17.7832
泰	-17.7832
淀	-17.7832
淝	-17.7832
淵	-17.7832
火	-17.7832
無	-17.7832
瑞	-17.7832
瑪	-17.7832
璋	-17.7832
甚	-17.7832
田	-17.7832
町	-17.7832
界	-17.7832
百	-17.7832
碘	-17.7832
祭	-17.7832
福	-17.7832
秋	-17.7832
穀	-17.7832
竇	-17.7832
简	-17.7832
算	-17.7832
節	-17.7832
粉	-17.7832
粹	-17.7832
約	-17.7832
紅	-17.7832
純	-17.7832
綏	-17.7832
継	-17.7832
綠	-17.7832
縣	-17.7832
维	-17.7832
绿	-17.7832
编	-17.7832
群	-17.7832
聖	-17.7832
聯	-17.7832
聰	-17.7832
聽	-17.7832
肛	-17.7832
胡	-17.7832
能	-17.7832
與	-17.7832
良	-17.7832
苹	-17.7832
苻	-17.7832
荣	-17.7832
药	-17.7832
著	-17.7832
蓝	-17.7832
藁	-17.7832
藍	-17.7832
蜂	-17.7832
術	-17.7832
裕	-17.7832
観	-17.7832
話	-17.7832
調	-17.7832
諸	-17.7832
議	-17.7832
護	-17.7832
變	-17.7832
计	-17.7832
超	-17.7832
車	-17.7832
辣	-17.7832
辽	-17.7832
這	-17.7832
通	-17.7832
道	-17.7832
適	-17.7832
邮	-17.7832
鄭	-17.7832
釈	-17.7832
钡	-17.7832
钬	-17.7832
铈	-17.7832
锗	-17.7832
長	-17.7832
間	-17.7832
限	-17.7832
陛	-17.7832
霍	-17.7832
青	-17.7832
靖	-17.7832
革	-17.7832
音	-17.7832
項	-17.7832
顛	-17.7832
食	-17.7832
鬱	-17.7832
魏	-17.7832
魯	-17.7832
鲍	-17.7832
麒	-17.7832
麟	-17.7832
麼	-17.7832
黄	-17.7832
鼓	-17.7832
강	-17.7832
겠	-17.7832
교	-17.7832
급	-17.7832
긴	-17.7832
김	-17.7832
나	-17.7832
냥	-17.7832
녕	-17.7832
누	-17.7832
능	-17.7832
단	-17.7832
더	-17.7832
델	-17.7832
디	-17.7832
랍	-17.7832
럽	-17.7832
력	-17.7832
롤	-17.7832
루	-17.7832
룬	-17.7832
륨	-17.7832
마	-17.7832
물	-17.7832
뮴	-17.7832
밍	-17.7832
방	-17.7832
벼	-17.7832
별	-17.7832
보	-17.7832
속	-17.7832
슈	-17.7832
습	-17.7832
승	-17.7832
시	-17.7832
심	-17.7832
악	-17.7832
야	-17.7832
엔	-17.7832
엘	-17.7832
왜	-17.7832
용	-17.7832
운	-17.7832
위	-17.7832
유	-17.7832
읗	-17.7832
잉	-17.7832
장	-17.7832
조	-17.7832
창	-17.7832
체	-17.7832
첸	-17.7832
초	-17.7832
츠	-17.7832
치	-17.7832
텔	-17.7832
파	-17.7832
팻	-17.7832
팽	-17.7832
펌	-17.7832
편	-17.7832
포	-17.7832
피	-17.7832
핀	-17.7832
학	-17.7832
헨	-17.7832
호	-17.7832
회	-17.7832
흐	-17.7832
𐌰	-17.7832
𐌲	-17.7832
𐌽	-17.7832
맨	-17.7832
섬	-17.7832
ĥ	-17.7832
ǁ	-17.7832
ǂ	-17.7832
ǃ	-17.7832
ȶ	-17.7832
ʕ	-17.7832
ʘ	-17.7832
ʮ	-17.7832
̧	-17.7832
∫	-17.7832
圍	-17.7832
頭	-17.7832
馬	-17.7832
ĕ	-17.7833
ź	-17.7833
ɗ	-17.7833
ʥ	-17.7833
̢	-17.7833
̤	-17.7833
Ձ	-17.7833
ژ	-17.7833
ય	-17.7833
ુ	-17.7833
ો	-17.7833
ಂ	-17.7833
ಖ	-17.7833
བ	-17.7833
ྱ	-17.7833
ყ	-17.7833
Ꮃ	-17.7833
Ꮇ	-17.7833
Ꮗ	-17.7833
〉	-17.7833
た	-17.7833
だ	-17.7833
ゆ	-17.7833
丙	-17.7833
並	-17.7833
之	-17.7833
传	-17.7833
伦	-17.7833
偶	-17.7833
关	-17.7833
动	-17.7833
努	-17.7833
华	-17.7833
卡	-17.7833
卻	-17.7833
可	-17.7833
号	-17.7833
因	-17.7833
坎	-17.7833
堰	-17.7833
士	-17.7833
夫	-17.7833
套	-17.7833
姆	-17.7833
孕	-17.7833
官	-17.7833
宾	-17.7833
寒	-17.7833
屄	-17.7833
属	-17.7833
岛	-17.7833
工	-17.7833
库	-17.7833
彌	-17.7833
徴	-17.7833
応	-17.7833
性	-17.7833
戀	-17.7833
戌	-17.7833
承	-17.7833
指	-17.7833
据	-17.7833
數	-17.7833
昭	-17.7833
曼	-17.7833
果	-17.7833
枪	-17.7833
标	-17.7833
树	-17.7833
欢	-17.7833
欧	-17.7833
歐	-17.7833
汾	-17.7833
洛	-17.7833
洲	-17.7833
炎	-17.7833
点	-17.7833
燈	-17.7833
爱	-17.7833
牌	-17.7833
獄	-17.7833
病	-17.7833
省	-17.7833
研	-17.7833
碳	-17.7833
積	-17.7833
究	-17.7833
篮	-17.7833
織	-17.7833
纪	-17.7833
者	-17.7833
胰	-17.7833
脑	-17.7833
臨	-17.7833
舰	-17.7833
花	-17.7833
蒙	-17.7833
蜒	-17.7833
角	-17.7833
譜	-17.7833
议	-17.7833
質	-17.7833
质	-17.7833
跃	-17.7833
进	-17.7833
迦	-17.7833
逐	-17.7833
量	-17.7833
銅	-17.7833
門	-17.7833
陸	-17.7833
集	-17.7833
霊	-17.7833
頓	-17.7833
驱	-17.7833
魁	-17.7833
鸠	-17.7833
龙	-17.7833
는	-17.7833
닿	-17.7833
등	-17.7833
랜	-17.7833
렉	-17.7833
료	-17.7833
못	-17.7833
브	-17.7833
빌	-17.7833
색	-17.7833
수	-17.7833
에	-17.7833
척	-17.7833
콘	-17.7833
퀼	-17.7833
탄	-17.7833
탕	-17.7833
ʝ	-17.7833
Λ	-17.7833
۴	-17.7833
ા	-17.7833
્	-17.7833
〈	-17.7833
こ	-17.7833
ど	-17.7833
ヨ	-17.7833
乌	-17.7833
兹	-17.7833
原	-17.7833
叫	-17.7833
启	-17.7833
土	-17.7833
态	-17.7833
时	-17.7833
极	-17.7833
沙	-17.7833
漠	-17.7833
琉	-17.7833
筷	-17.7833
类	-17.7833
綴	-17.7833
翅	-17.7833
视	-17.7833
詞	-17.7833
豆	-17.7833
贼	-17.7833
赫	-17.7833
酒	-17.7833
酗	-17.7833
陵	-17.7833
鞘	-17.7833
Χ	-17.7833
る	-17.7833
Ň	-17.7833
ŵ	-17.7833
Ԁ	-17.7833
ԁ	-17.7833
Ԃ	-17.7833
ԃ	-17.7833
Ԅ	-17.7833
ԅ	-17.7833
Ԇ	-17.7833
ԇ	-17.7833
Ԉ	-17.7833
ԉ	-17.7833
Ԋ	-17.7833
๐	-17.7834
๘	-17.7834
ἄ	-17.7834
ȑ	-17.7835
ψ	-17.7835
ἀ	-17.7835
