<s>	0
</s>	0
<unk>	0
<pad>	0
,	-3.37931
▁the	-3.61221
.	-3.7161
s	-3.73662
▁de	-3.77786
▁of	-4.29294
▁la	-4.294
▁to	-4.34641
▁and	-4.53154
▁et	-4.6045
▁a	-4.63302
▁in	-4.67206
▁le	-4.71161
▁à	-4.8212
▁les	-4.83487
▁des	-4.89731
▁que	-5.01543
▁that	-5.02113
▁is	-5.04675
e	-5.11604
▁en	-5.18456
▁for	-5.42502
▁I	-5.42518
▁du	-5.4614
▁on	-5.49742
▁dans	-5.62157
r	-5.6227
▁	-5.62445
▁pour	-5.62618
▁nous	-5.63664
▁qui	-5.64761
▁be	-5.65239
▁un	-5.68477
▁this	-5.68979
▁we	-5.69211
▁une	-5.77853
ing	-5.79295
▁ce	-5.79582
▁est	-5.83966
▁are	-5.87428
▁pas	-5.89741
▁sur	-5.90516
▁au	-5.90903
▁not	-5.91223
▁have	-5.91843
▁-	-5.9229
▁it	-5.93643
d	-6.0119
▁par	-6.02167
▁with	-6.03533
ed	-6.04635
es	-6.05497
▁ne	-6.06171
▁as	-6.06422
▁which	-6.06719
▁European	-6.09875
▁Commission	-6.12657
er	-6.12715
▁The	-6.18169
s.	-6.20796
▁will	-6.21682
▁by	-6.23524
▁plus	-6.31076
▁je	-6.31911
▁has	-6.34747
s,	-6.35696
-	-6.44929
t	-6.4512
▁Mr	-6.49192
é	-6.49948
▁an	-6.51499
ly	-6.53199
y	-6.54249
▁Je	-6.54857
ment	-6.55197
nt	-6.55797
▁l'	-6.56797
▁cette	-6.57737
▁aux	-6.5832
▁il	-6.58936
▁at	-6.59314
c	-6.64673
▁se	-6.66652
▁sont	-6.66808
▁d'	-6.67155
▁would	-6.67287
▁also	-6.68631
n	-6.69661
▁all	-6.70796
▁should	-6.72537
▁We	-6.75283
al	-6.75408
▁from	-6.77922
▁avec	-6.78804
▁Il	-6.79115
▁but	-6.80153
▁our	-6.80526
▁must	-6.81564
▁Nous	-6.845
:	-6.85256
▁La	-6.86881
▁mais	-6.88564
▁been	-6.89998
▁re	-6.90336
▁Monsieur	-6.90612
▁do	-6.91063
▁être	-6.9218
▁important	-6.93983
a	-6.94705
▁fait	-6.94867
▁Le	-6.94953
▁pays	-6.95021
ant	-6.96134
▁européenne	-6.97189
▁été	-6.99532
▁can	-6.99587
▁It	-6.99599
▁ont	-6.99756
▁you	-6.99911
▁ces	-7.00137
▁President,	-7.03734
▁rapport	-7.03861
▁politique	-7.04387
▁Member	-7.04587
ation	-7.04913
▁or	-7.05408
▁was	-7.05669
▁more	-7.06271
▁Parlement	-7.06361
ent	-7.06447
▁question	-7.07264
▁so	-7.08134
l	-7.08203
▁vous	-7.08415
?	-7.08519
▁comme	-7.09497
▁like	-7.11931
▁qu'il	-7.12289
▁In	-7.12937
▁tout	-7.14392
▁l'Union	-7.15331
▁ou	-7.16149
▁their	-7.17419
▁si	-7.18504
▁there	-7.18682
▁its	-7.19007
re	-7.19342
u	-7.19597
▁Président,	-7.196
ra	-7.19895
▁États	-7.20187
i	-7.20463
▁very	-7.20607
p	-7.20836
▁me	-7.21238
▁également	-7.21479
▁Union	-7.21609
ons	-7.21926
le	-7.23757
▁This	-7.24885
▁point	-7.26188
▁situation	-7.26343
▁Conseil	-7.26404
▁report	-7.27792
▁aussi	-7.27938
▁Parliament	-7.28036
▁these	-7.28222
g	-7.29959
▁Council	-7.30402
'	-7.31216
▁no	-7.3167
▁one	-7.31927
▁faire	-7.32695
▁sa	-7.33217
▁d'une	-7.3336
it	-7.33942
▁they	-7.34116
ur	-7.34582
ri	-7.34631
▁notre	-7.3475
▁Europe	-7.35029
▁about	-7.35059
▁EU	-7.35718
▁who	-7.3577
▁us	-7.36419
▁other	-7.36704
)	-7.38141
▁leur	-7.39456
▁même	-7.39463
;	-7.40326
▁avons	-7.40706
▁need	-7.40727
▁what	-7.41377
▁doit	-7.41455
▁part	-7.41954
▁membres	-7.42314
▁entre	-7.42487
▁bien	-7.42628
in	-7.42658
▁tous	-7.42853
ion	-7.43156
▁dé	-7.43547
▁M.	-7.43791
▁people	-7.44175
▁son	-7.44252
▁y	-7.44621
▁En	-7.4463
▁très	-7.4528
ir	-7.45843
▁s	-7.45962
▁time	-7.4652
▁my	-7.46694
▁d'un	-7.47003
▁new	-7.47123
▁States	-7.47243
▁européen	-7.47415
▁Les	-7.49223
▁out	-7.49325
▁l’	-7.49843
able	-7.50395
▁only	-7.50927
o	-7.53793
▁support	-7.53891
▁Ce	-7.54038
▁am	-7.54436
▁A	-7.54728
▁because	-7.54893
te	-7.55109
▁if	-7.55339
▁up	-7.55514
en	-7.56415
▁devons	-7.57097
▁take	-7.59241
▁vote	-7.59315
▁directive	-7.59619
m	-7.62135
▁work	-7.62619
's	-7.62799
▁droits	-7.62857
f	-7.63687
▁countries	-7.64757
ter	-7.64943
▁now	-7.65221
▁nos	-7.65402
▁contre	-7.6613
▁such	-7.6695
or	-7.67017
▁rapporteur	-7.67167
▁make	-7.67366
▁protection	-7.68004
▁into	-7.69573
▁place	-7.69717
an	-7.70202
▁social	-7.70415
▁respect	-7.7052
▁possible	-7.70771
▁car	-7.70802
b	-7.71332
▁travail	-7.71657
▁d’	-7.7172
▁é	-7.71975
▁between	-7.72711
▁voudrais	-7.7292
▁those	-7.73219
▁public	-7.73499
at	-7.74004
▁peut	-7.74203
ro	-7.74224
▁some	-7.74282
que	-7.74347
▁cela	-7.75266
▁proposition	-7.76497
▁développement	-7.76571
▁donc	-7.77222
ité	-7.7762
▁non	-7.78071
▁when	-7.78341
li	-7.78439
▁way	-7.78469
▁any	-7.78551
▁(	-7.78815
ar	-7.7885
▁ré	-7.79699
h	-7.79819
▁political	-7.80288
▁therefore	-7.80341
▁dont	-7.80429
▁being	-7.80487
▁C'est	-7.81272
▁commission	-7.8144
ch	-7.81465
▁c	-7.81927
▁soit	-7.82528
▁sans	-7.82704
▁believe	-7.838
▁policy	-7.84547
▁encore	-7.84616
▁say	-7.847
▁con	-7.84747
ci	-7.84913
▁fact	-7.85416
▁budget	-7.85634
▁economic	-7.85644
▁made	-7.85764
▁programme	-7.85929
v	-7.86016
z	-7.86205
▁position	-7.86274
e.	-7.86509
▁national	-7.86554
▁S	-7.86606
▁were	-7.87096
▁deux	-7.87157
▁cas	-7.87433
lo	-7.8744
▁pense	-7.87831
ée	-7.87919
▁debate	-7.88001
ive	-7.88247
és	-7.88336
▁faut	-7.8846
im	-7.88489
▁than	-7.88609
▁ainsi	-7.88933
ie	-7.89762
▁débat	-7.90299
▁matière	-7.90523
▁c'est	-7.90666
th	-7.9114
ce	-7.91826
▁sécurité	-7.91923
▁services	-7.92044
▁just	-7.92085
ement	-7.92619
▁proposal	-7.92904
▁suis	-7.93275
▁rights	-7.93574
▁marché	-7.93867
is	-7.93894
▁dis	-7.94589
ne	-7.95179
▁development	-7.95316
tte	-7.95415
▁issue	-7.9596
st	-7.96149
▁against	-7.96192
vi	-7.96204
▁many	-7.96271
on	-7.96312
k	-7.96675
▁mon	-7.96987
▁n'est	-7.97122
ait	-7.97174
▁international	-7.97403
il	-7.97499
▁mesures	-7.97662
▁"	-7.97694
▁ses	-7.98435
▁first	-7.98652
▁dire	-7.98865
▁citoyens	-7.99328
▁groupe	-8.00226
▁l'a	-8.00686
▁want	-8.01041
▁L'	-8.01541
▁think	-8.01992
▁co	-8.02284
▁That	-8.03204
▁human	-8.03435
▁doivent	-8.03629
▁droit	-8.03933
▁questions	-8.04191
▁afin	-8.0457
▁ma	-8.04869
▁cet	-8.04981
▁As	-8.05012
▁concerne	-8.05088
▁économique	-8.05121
▁leurs	-8.05798
▁sommes	-8.05923
▁Committee	-8.06046
▁even	-8.06301
▁déjà	-8.06364
▁elle	-8.06676
▁manière	-8.06936
▁over	-8.06953
▁them	-8.0703
▁cadre	-8.07512
▁où	-8.0795
▁well	-8.08041
ions	-8.08351
▁right	-8.08477
ul	-8.08572
▁order	-8.087
ance	-8.09079
▁conditions	-8.0908
ic	-8.09094
/	-8.09606
▁market	-8.09719
se	-8.10105
▁institutions	-8.10384
ol	-8.10427
▁country	-8.1086
w	-8.11129
▁under	-8.11356
▁two	-8.11912
▁Madame	-8.12115
la	-8.1261
▁view	-8.12746
I	-8.12993
▁cannot	-8.1314
5	-8.13156
di	-8.13226
▁sera	-8.1351
▁same	-8.13887
▁here	-8.139
ity	-8.13944
▁citizens	-8.14099
▁F	-8.14251
▁M	-8.14254
▁where	-8.14339
▁politiques	-8.14499
▁had	-8.14974
▁certain	-8.15237
▁does	-8.15463
▁tant	-8.15757
▁future	-8.15815
▁clear	-8.16096
▁measures	-8.16234
▁action	-8.16389
▁know	-8.16401
▁niveau	-8.16491
▁continue	-8.16508
▁'	-8.1656
▁problème	-8.16601
us	-8.17385
▁agreement	-8.1748
▁most	-8.17516
▁d’un	-8.17679
▁good	-8.17831
▁could	-8.18021
▁President	-8.18129
▁g	-8.18139
▁dit	-8.18204
▁plan	-8.18266
age	-8.18331
▁said	-8.18717
id	-8.19099
▁f	-8.19242
▁hope	-8.19311
me	-8.19353
de	-8.19461
▁he	-8.19475
el	-8.19726
1	-8.21207
▁demande	-8.21346
E	-8.21378
▁much	-8.21629
op	-8.21704
▁already	-8.21789
A	-8.22186
▁personnes	-8.22275
▁financial	-8.22316
▁l'Europe	-8.22844
▁lors	-8.23195
▁transport	-8.23293
▁long	-8.23479
▁see	-8.23479
▁–	-8.23658
▁C	-8.23663
▁P	-8.2422
▁ex	-8.24292
▁Si	-8.24338
es.	-8.24373
▁T	-8.24525
▁use	-8.24557
▁st	-8.24572
▁base	-8.24803
um	-8.24945
▁too	-8.25337
▁within	-8.25341
▁process	-8.25434
▁s'	-8.25576
ti	-8.25636
▁compte	-8.26267
▁still	-8.2645
▁n'a	-8.26499
▁On	-8.2686
▁particular	-8.26916
▁regard	-8.26953
x	-8.27013
▁toute	-8.27069
ence	-8.27332
▁how	-8.27348
▁cha	-8.27503
ées	-8.27546
▁common	-8.27816
▁fois	-8.28031
▁l'UE	-8.28549
▁There	-8.2857
▁both	-8.28642
té	-8.28664
▁domaine	-8.28726
ers	-8.29028
▁mise	-8.29154
▁Dans	-8.29787
tra	-8.29806
▁vue	-8.29826
▁ensure	-8.2986
▁parce	-8.29993
ate	-8.30086
▁concernant	-8.3021
▁accord	-8.30706
▁However,	-8.30756
▁system	-8.30876
▁cooperation	-8.30892
▁sein	-8.30968
▁nom	-8.31095
8	-8.31277
et	-8.31341
▁pro	-8.31575
▁jour	-8.31589
isation	-8.31991
▁coopération	-8.32009
▁autres	-8.3211
6	-8.32219
▁information	-8.32468
▁Community	-8.32669
ré	-8.32693
▁système	-8.32767
▁b	-8.32814
ma	-8.32835
▁Mme	-8.33006
▁e	-8.33123
▁d'autres	-8.33199
▁your	-8.33267
▁case	-8.33397
▁efforts	-8.33403
▁certains	-8.33422
▁fin	-8.33443
▁toutes	-8.33668
▁raison	-8.34116
▁résolution	-8.34128
▁area	-8.34473
▁moins	-8.34595
▁taken	-8.34742
▁va	-8.34891
▁own	-8.35079
es,	-8.3519
▁G	-8.35369
▁aujourd'hui	-8.35525
ations	-8.35883
▁commune	-8.35911
▁give	-8.3593
▁his	-8.35942
▁%	-8.35955
▁number	-8.35986
▁sujet	-8.36067
▁monde	-8.36072
▁présent	-8.36183
▁contrôle	-8.36292
▁put	-8.3641
min	-8.36694
ut	-8.37392
▁Commissioner	-8.37394
▁problem	-8.37531
▁end	-8.37646
▁last	-8.37737
▁règlement	-8.37772
▁seulement	-8.37825
ad	-8.37903
▁able	-8.381
▁inter	-8.38215
2	-8.38803
▁traité	-8.38806
▁solution	-8.38994
▁Mrs	-8.39221
▁moment	-8.39263
▁temps	-8.39464
▁resolution	-8.39593
▁law	-8.39921
▁particulier	-8.39962
▁mettre	-8.39997
▁européenne.	-8.40072
▁De	-8.40295
▁E	-8.40402
▁may	-8.40425
▁why	-8.40556
as	-8.40633
4	-8.40858
ou	-8.40949
▁président	-8.40991
▁pourquoi	-8.41065
▁energy	-8.41231
▁secteur	-8.41304
▁grande	-8.41687
ront	-8.4178
▁lieu	-8.41924
▁problèmes	-8.41949
ll	-8.41955
▁help	-8.4202
ge	-8.42095
ta	-8.42533
7	-8.42714
au	-8.43478
▁Pour	-8.43657
▁avant	-8.43667
▁points	-8.43854
▁savoir	-8.44012
▁means	-8.44308
▁pouvoir	-8.44358
▁nombre	-8.44524
▁soutien	-8.44579
▁1	-8.44599
▁opinion	-8.44678
M	-8.44699
▁great	-8.44712
▁avoir	-8.4506
▁processus	-8.45201
▁importance	-8.45281
▁legal	-8.453
co	-8.45396
▁large	-8.45782
▁partie	-8.46286
▁without	-8.46376
▁second	-8.46383
ve	-8.46411
▁relations	-8.4661
pe	-8.46675
▁House	-8.46759
▁through	-8.46825
▁today	-8.46919
▁Par	-8.46961
▁Mais	-8.46968
ez	-8.47042
▁s'agit	-8.47299
▁production	-8.47311
▁toujours	-8.47443
▁gouvernement	-8.47447
’s	-8.47534
P	-8.47804
▁devrait	-8.47808
▁however	-8.47844
▁4	-8.47864
▁3	-8.47878
▁d'a	-8.48241
▁gentlemen,	-8.48508
"	-8.48595
C	-8.48755
ni	-8.48933
3	-8.49145
▁beaucoup	-8.49741
▁If	-8.49788
mi	-8.50008
ct	-8.50128
▁autre	-8.50332
vo	-8.50334
▁mesure	-8.50401
▁years	-8.50523
▁Madam	-8.50602
▁thank	-8.50614
▁sector	-8.50659
▁entreprises	-8.5068
▁cours	-8.50696
pp	-8.50713
▁dialogue	-8.50791
che	-8.50813
▁laquelle	-8.50847
▁necessary	-8.51213
▁notamment	-8.51243
▁À	-8.51389
nce	-8.51506
▁far	-8.5163
▁particularly	-8.51727
▁before	-8.51749
▁D	-8.51777
S	-8.51884
▁vie	-8.52073
▁B	-8.52076
▁h	-8.52112
▁favour	-8.52145
▁programmes	-8.52161
▁nécessaire	-8.52314
▁décision	-8.52399
▁rôle	-8.524
▁problems	-8.52533
ist	-8.52691
▁prendre	-8.52695
▁ceux	-8.52698
ck	-8.52832
▁present	-8.52848
▁crise	-8.52946
▁set	-8.5304
▁première	-8.53173
▁level	-8.53272
▁v	-8.53868
▁world	-8.53883
▁j'ai	-8.53961
▁Commission,	-8.53963
▁Cela	-8.54125
am	-8.54158
ise	-8.54179
▁matter	-8.54224
▁attention	-8.54237
%	-8.54263
▁No	-8.543
▁faveur	-8.54356
9	-8.54646
▁effet	-8.54751
▁security	-8.5486
▁besoin	-8.54979
▁Group	-8.55501
est	-8.55696
▁pré	-8.55928
▁commissaire	-8.56195
▁given	-8.56228
▁santé	-8.56646
ique	-8.56814
▁Treaty	-8.56826
▁peu	-8.5683
▁progress	-8.56952
un	-8.57119
▁pouvons	-8.57197
▁qu'elle	-8.57421
▁then	-8.57726
▁votre	-8.58117
▁issues	-8.58138
▁soient	-8.58201
▁change	-8.58252
tion	-8.58479
▁For	-8.58552
▁since	-8.58925
▁ni	-8.59001
ure	-8.59175
ign	-8.59223
▁qu'	-8.59262
▁women	-8.59487
▁result	-8.59559
▁femmes	-8.5969
▁aid	-8.59879
▁nouvelle	-8.60127
▁health	-8.60214
▁propositions	-8.60595
lé	-8.60686
▁areas	-8.61472
▁role	-8.616
▁ladies	-8.6163
▁whether	-8.61884
▁serait	-8.62007
▁again	-8.62038
▁agree	-8.62125
▁euro	-8.62249
▁face	-8.62372
▁population	-8.62479
0	-8.62555
tre	-8.62595
▁qu’il	-8.62638
▁l'homme	-8.62648
▁positive	-8.62657
▁different	-8.62703
▁stratégie	-8.62887
▁welcome	-8.62974
▁United	-8.63061
▁nouveau	-8.63247
▁go	-8.6335
▁di	-8.63433
ère	-8.6347
▁l’Union	-8.63572
▁amendements	-8.63718
ag	-8.6377
ner	-8.63791
▁communication	-8.64338
▁further	-8.64344
▁amendments	-8.6442
▁account	-8.6449
▁trade	-8.64582
▁t	-8.64583
▁behalf	-8.64676
aux	-8.64722
▁objectifs	-8.6481
▁So	-8.65308
▁comp	-8.65489
▁basis	-8.6587
▁peuvent	-8.65894
▁mis	-8.65905
▁recherche	-8.6605
▁ici	-8.66117
▁était	-8.66402
O	-8.6655
▁bon	-8.67006
▁next	-8.67112
aire	-8.67199
▁sens	-8.67361
!	-8.6737
▁5	-8.67564
▁terms	-8.67859
▁come	-8.68274
ated	-8.68337
▁r	-8.68594
▁européens	-8.69204
▁wish	-8.69688
▁done	-8.69733
▁depuis	-8.70381
▁façon	-8.70422
end	-8.70694
▁pre	-8.70707
▁produits	-8.70747
par	-8.7075
▁better	-8.70775
▁rules	-8.70815
D	-8.71022
▁adopted	-8.71206
▁legislation	-8.71291
nd	-8.71321
▁crisis	-8.7138
qui	-8.71412
▁framework	-8.715
▁alors	-8.71568
▁Europe.	-8.71586
▁millions	-8.71598
lle	-8.71857
▁principe	-8.71865
▁l'on	-8.71903
▁crois	-8.71968
mo	-8.72022
▁présidence	-8.72036
ia	-8.72197
▁main	-8.72266
▁sociale	-8.72285
▁hand	-8.72297
▁year	-8.72321
▁grand	-8.72324
▁po	-8.72362
ex	-8.72394
▁proposals	-8.72453
▁force	-8.72532
con	-8.72789
▁subject	-8.72845
▁approach	-8.7294
ens	-8.73083
om	-8.73366
▁act	-8.73418
▁What	-8.73467
ill	-8.73517
▁li	-8.73532
▁allow	-8.73824
▁législation	-8.73922
▁:	-8.74167
▁sous	-8.74383
▁group	-8.74572
▁ra	-8.74659
▁K	-8.74773
▁But	-8.74878
▁few	-8.75023
▁eu	-8.75092
▁after	-8.75209
▁2	-8.75217
▁ask	-8.75252
▁O	-8.75516
▁decision	-8.75723
▁bonne	-8.75847
mp	-8.75914
ous	-8.75915
▁chose	-8.75917
▁Commission.	-8.76041
▁per	-8.76122
ating	-8.76199
▁députés	-8.76244
▁vers	-8.76293
▁Commissioner,	-8.76309
▁quelques	-8.76496
’	-8.76626
ry	-8.76638
▁justice	-8.76694
▁Commissaire,	-8.76776
▁européenne,	-8.76825
▁.	-8.77175
▁n'	-8.77307
▁State	-8.77381
▁projet	-8.77404
▁règles	-8.77823
▁Re	-8.77879
▁difficult	-8.77884
eur	-8.77919
res	-8.7799
▁parties	-8.78118
▁pu	-8.7851
rait	-8.78545
▁constitue	-8.78591
▁initiative	-8.79097
▁Mesdames	-8.79163
if	-8.79242
▁Members	-8.79268
▁forward	-8.79386
▁accept	-8.79419
▁communautaire	-8.79487
ven	-8.79514
oc	-8.79529
▁mes	-8.79634
na	-8.79638
▁régions	-8.79807
▁whole	-8.8013
▁million	-8.80279
▁terme	-8.8042
man	-8.80451
▁provide	-8.80565
▁sûr	-8.80678
▁concerned	-8.80756
▁Au	-8.80859
▁garantir	-8.80908
▁increase	-8.80991
▁lutte	-8.81017
ally	-8.8109
▁actions	-8.81145
▁control	-8.81196
▁fonds	-8.81203
▁going	-8.81718
ud	-8.81749
▁nouveaux	-8.81841
▁aspects	-8.81945
va	-8.82174
▁qualité	-8.82321
▁réponse	-8.82351
▁après	-8.82376
né	-8.82377
▁every	-8.82744
▁three	-8.82766
▁principle	-8.82864
▁premier	-8.83018
▁global	-8.8304
▁working	-8.83115
▁towards	-8.8372
▁imp	-8.83868
▁w	-8.83982
les	-8.84003
▁become	-8.84081
▁semble	-8.84438
▁consider	-8.84546
▁Union.	-8.84556
▁needs	-8.84573
▁trois	-8.84651
▁something	-8.84671
▁real	-8.84727
iv	-8.84739
▁lui	-8.84797
▁voted	-8.84811
▁procédure	-8.85218
▁back	-8.85578
▁freedom	-8.85631
▁selon	-8.85704
▁négociations	-8.85798
▁Présidente,	-8.85888
▁propos	-8.8596
T	-8.85988
▁pêche	-8.86052
▁œuvre	-8.86114
▁play	-8.86124
ine	-8.86154
▁clairement	-8.86188
ed.	-8.86232
▁state	-8.86861
ap	-8.86862
to	-8.87218
▁current	-8.87249
▁remercier	-8.87256
▁environmental	-8.8728
▁J'ai	-8.87357
▁10	-8.87364
▁cause	-8.87415
▁là	-8.8754
▁efficace	-8.87561
lu	-8.8757
▁specific	-8.87829
▁voté	-8.87836
▁resources	-8.87886
▁ils	-8.87953
▁small	-8.88085
▁nombreux	-8.88287
▁culture	-8.88301
ire	-8.88518
tent	-8.8868
▁juridique	-8.88681
▁final	-8.88683
▁l’a	-8.88743
com	-8.88972
▁discussion	-8.88973
tic	-8.89087
▁down	-8.89172
port	-8.89184
▁consommateurs	-8.89214
ly,	-8.89256
▁6	-8.89303
▁Un	-8.8933
▁pourrait	-8.8933
ser	-8.89347
pa	-8.8941
gi	-8.89423
▁reste	-8.89482
▁comment	-8.89498
▁nouvelles	-8.89597
▁At	-8.89613
elle	-8.89727
▁including	-8.8973
▁H	-8.89734
▁seront	-8.89873
ted	-8.89893
▁fundamental	-8.89906
▁excellent	-8.8997
▁Presidency	-8.90025
▁nécessité	-8.90107
ig	-8.90119
▁mois	-8.90188
▁proposed	-8.90222
▁opportunity	-8.90347
▁région	-8.90416
▁propose	-8.90534
▁trop	-8.9066
▁really	-8.90722
▁form	-8.90772
▁regulation	-8.90797
▁shall	-8.90842
▁exemple	-8.90961
▁find	-8.90998
▁essential	-8.91007
▁did	-8.91023
▁violence	-8.91033
▁19	-8.91082
▁authorities	-8.91177
▁s'est	-8.91179
ary	-8.91255
▁reason	-8.91265
ty	-8.91354
▁committee	-8.91581
▁contribution	-8.91805
▁employment	-8.91822
▁effective	-8.91931
▁voir	-8.92032
pos	-8.92139
▁donné	-8.92158
▁together	-8.92172
▁société	-8.92273
▁Assemblée	-8.92281
▁policies	-8.9243
▁service	-8.925
ue	-8.92512
▁«	-8.92545
▁direct	-8.92584
dès	-8.92616
venu	-8.92763
▁membre	-8.92999
▁general	-8.93014
▁années	-8.93058
▁free	-8.93058
ca	-8.93147
▁research	-8.93194
▁maintenant	-8.93201
du	-8.93221
▁Convention	-8.93285
▁serious	-8.93326
▁during	-8.93379
tant	-8.93491
▁Et	-8.93873
ler	-8.9388
▁especially	-8.93899
▁démocratie	-8.93906
ful	-8.93907
▁used	-8.93961
▁20	-8.94454
▁industry	-8.94523
eurs	-8.94531
▁7	-8.94532
▁États-Unis	-8.94662
ting	-8.94834
N	-8.95011
▁plusieurs	-8.95013
▁000	-8.95048
▁access	-8.95133
▁donner	-8.95245
▁W	-8.95401
▁concern	-8.95818
ight	-8.95907
▁To	-8.95911
▁autorités	-8.95913
▁strategy	-8.95984
▁course	-8.96088
▁clearly	-8.96221
▁negotiations	-8.96346
▁itself	-8.9644
▁another	-8.9648
ten	-8.96532
▁look	-8.9654
▁Nations	-8.96791
▁Co	-8.97175
▁liberté	-8.97208
ard	-8.97246
▁visant	-8.97266
ial	-8.97356
▁least	-8.97383
▁aucun	-8.97488
▁greater	-8.9755
mb	-8.97691
▁existe	-8.97693
▁example	-8.97711
▁responsibility	-8.97731
▁third	-8.97731
▁prix	-8.9786
ver	-8.9799
▁organisations	-8.98247
▁safety	-8.98349
▁quite	-8.98468
▁texte	-8.986
▁voie	-8.98642
▁12	-8.98644
▁major	-8.98672
▁surtout	-8.98806
▁rather	-8.98881
▁ad	-8.98884
ais	-8.98909
▁idea	-8.98937
ph	-8.99006
▁responsabilité	-8.99042
ns	-8.99151
em	-8.9925
aient	-8.99316
ling	-8.99398
▁ressources	-8.99406
▁power	-8.99554
tu	-8.99635
emp	-8.99682
▁democratic	-8.99726
▁Europe,	-8.9978
▁commun	-8.99804
▁Une	-8.99897
▁products	-8.99912
▁call	-8.99947
F	-9.00048
ification	-9.00095
▁prevent	-9.00246
▁mi	-9.00263
▁?	-9.00285
▁p	-9.0029
isme	-9.00318
▁proposé	-9.00341
ration	-9.00491
ga	-9.00566
▁high	-9.00597
▁reform	-9.00617
▁Elle	-9.00734
▁l'é	-9.0091
vis	-9.00981
▁capital	-9.00996
▁certaines	-9.01037
▁Messieurs,	-9.01114
▁actuelle	-9.01182
▁course,	-9.01276
ative	-9.01408
▁ten	-9.01476
▁democracy	-9.01624
▁l'environnement	-9.01638
ak	-9.01683
▁They	-9.01688
▁conséquent	-9.0178
▁fa	-9.0184
▁internal	-9.01901
▁avez	-9.01948
tor	-9.01996
▁get	-9.0201
▁voulons	-9.02028
ld	-9.02095
▁tiens	-9.02166
▁souhaite	-9.0221
▁always	-9.02348
▁R	-9.02539
▁guarantee	-9.02569
ille	-9.02886
▁essentiel	-9.02899
ac	-9.03008
ment,	-9.03118
▁limit	-9.03153
▁achieve	-9.03157
▁making	-9.03324
vers	-9.03373
▁8	-9.03434
he	-9.03463
▁impact	-9.03469
non	-9.03549
▁telle	-9.03669
▁sorte	-9.03671
ng	-9.03789
▁document	-9.03832
act	-9.03943
▁croissance	-9.03973
▁government	-9.04089
ction	-9.04327
lar	-9.04365
▁importante	-9.04425
▁once	-9.04528
▁These	-9.0459
▁Comme	-9.0469
▁Commission's	-9.04721
▁général	-9.04739
▁travailleurs	-9.04765
▁difficile	-9.04838
▁dernier	-9.04845
»	-9.04852
pr	-9.04999
▁davantage	-9.05037
▁concurrence	-9.05043
▁society	-9.05175
▁States.	-9.05333
▁nature	-9.05355
▁15	-9.0541
▁d'accord	-9.05566
gu	-9.05591
▁encourage	-9.05633
▁fight	-9.05654
▁open	-9.05672
▁Ma	-9.05795
qua	-9.05963
▁taking	-9.05996
▁instruments	-9.06045
▁soutenir	-9.06058
▁2000	-9.06084
ism	-9.06112
R	-9.06166
▁implementation	-9.0627
▁meeting	-9.06306
vent	-9.06348
ot	-9.06396
▁offer	-9.06399
▁based	-9.06572
▁economy	-9.06585
go	-9.06635
ff	-9.06821
aires	-9.06854
▁bring	-9.06934
▁local	-9.06984
▁environment	-9.07106
os	-9.07118
▁mean	-9.07175
▁internationale	-9.07397
▁application	-9.07541
▁things	-9.07545
mé	-9.07566
rons	-9.07567
▁direction	-9.07582
▁met	-9.07602
▁money	-9.07641
▁elles	-9.07834
less	-9.07856
▁text	-9.07862
L	-9.08034
▁égard	-9.08038
▁regions	-9.08064
è	-9.08086
▁compris	-9.08292
land	-9.08333
▁various	-9.08363
▁interests	-9.08398
▁mot	-9.08606
▁d'é	-9.08646
▁lorsque	-9.08669
▁step	-9.08671
▁EUR	-9.08678
iser	-9.08719
▁11	-9.08748
▁dernière	-9.0877
▁forme	-9.08843
▁État	-9.08864
hi	-9.08951
▁type	-9.08981
▁conclusion	-9.09025
▁l'avenir	-9.09039
▁Ces	-9.09041
▁actuellement	-9.09124
▁draft	-9.09138
▁création	-9.0919
▁instrument	-9.09308
▁procedure	-9.09518
▁mer	-9.09616
▁region	-9.09813
▁br	-9.09962
▁Président	-9.10005
▁each	-9.10217
iste	-9.1023
▁deal	-9.10319
▁période	-9.10575
▁souligner	-9.10585
tes	-9.10615
▁9	-9.10736
▁d'abord	-9.10823
▁pa	-9.10857
gé	-9.10999
▁d’a	-9.11012
rai	-9.11191
ont	-9.1125
▁active	-9.11442
▁unique	-9.11486
▁progrès	-9.11492
ide	-9.11493
▁su	-9.11879
▁économiques	-9.12013
per	-9.12049
▁différents	-9.12159
▁yet	-9.12163
▁her	-9.12284
▁initiatives	-9.12321
▁while	-9.12355
▁intervention	-9.12497
▁européennes	-9.12515
▁participation	-9.12694
▁gestion	-9.12742
no	-9.128
acc	-9.12802
▁l'in	-9.12959
▁example,	-9.12978
▁paix	-9.12987
▁financement	-9.13085
▁coordination	-9.13098
▁bo	-9.13124
▁create	-9.13163
▁clair	-9.13166
▁words	-9.13197
▁deuxième	-9.13198
▁food	-9.13266
▁period	-9.13336
▁lead	-9.13384
▁competition	-9.13392
▁Government	-9.13504
▁individual	-9.1352
▁sign	-9.13553
▁peace	-9.13674
▁And	-9.13708
▁demand	-9.13757
▁quant	-9.13909
▁life	-9.13923
▁rec	-9.13931
▁souvent	-9.13976
▁single	-9.13993
▁objective	-9.14021
▁full	-9.14105
▁avait	-9.14145
▁field	-9.14223
ier	-9.14238
cour	-9.14249
ins	-9.14266
B	-9.14324
▁You	-9.14363
▁confirm	-9.14446
▁aura	-9.14543
son	-9.14581
▁réforme	-9.14622
lic	-9.14629
▁tax	-9.14633
▁toutefois	-9.1465
▁aucune	-9.14738
▁involved	-9.14904
eux	-9.14926
▁civil	-9.15017
▁commerce	-9.15209
▁pay	-9.15224
▁avis	-9.1527
▁tel	-9.15303
▁renforcer	-9.155
▁Affairs	-9.15516
U	-9.15519
▁qu'une	-9.15571
▁rien	-9.15596
▁occasion	-9.15638
▁funds	-9.15725
▁interest	-9.15777
▁line	-9.15803
▁having	-9.15817
▁affaires	-9.15829
ants	-9.15832
▁crucial	-9.1598
▁possibilité	-9.15984
▁mieux	-9.16058
▁publique	-9.16172
▁feel	-9.16193
▁growth	-9.16266
▁adopt	-9.16282
ux	-9.16335
▁workers	-9.16404
▁children	-9.16587
▁Amendment	-9.16619
▁intérieur	-9.16667
ture	-9.17093
cu	-9.17095
▁données	-9.17126
▁demander	-9.17216
▁include	-9.17341
▁request	-9.17354
▁créer	-9.17441
ho	-9.17448
▁amendment	-9.17473
▁doute	-9.17885
▁companies	-9.1801
▁objectif	-9.18026
▁lequel	-9.18155
▁nor	-9.18193
▁termes	-9.18242
▁collègues	-9.18394
▁Constitution	-9.18403
▁profit	-9.18433
▁domaines	-9.18459
▁report.	-9.18469
ient	-9.1848
▁trouver	-9.18663
▁France	-9.1868
ible	-9.18698
▁Lisbonne	-9.18716
▁Lisbon	-9.18903
▁message	-9.19119
▁concerns	-9.19126
rant	-9.19314
▁enfants	-9.1932
urs	-9.19391
▁off	-9.19424
pro	-9.1943
tend	-9.19438
▁objectives	-9.19462
▁membres.	-9.19498
▁pris	-9.19541
▁seul	-9.19549
▁six	-9.19674
▁étant	-9.19784
nel	-9.19865
▁aim	-9.19913
▁risque	-9.19972
▁fully	-9.20039
▁best	-9.20068
▁majority	-9.20093
▁l'emploi	-9.20132
▁Toutefois	-9.20142
▁particulière	-9.20147
▁Minister	-9.20218
▁simple	-9.20227
▁meilleure	-9.20247
▁Tout	-9.20275
▁année	-9.20326
▁practice	-9.20338
▁discrimination	-9.20426
▁quality	-9.20466
▁j'	-9.20683
▁résultats	-9.20776
▁celui	-9.20783
▁peut-être	-9.2086
ticulièrement	-9.20889
▁relation	-9.20919
ities	-9.20964
ising	-9.21001
▁moyens	-9.2101
dre	-9.21029
fin	-9.21053
▁Ca	-9.21098
▁total	-9.21146
▁standards	-9.21227
▁permettre	-9.21235
▁education	-9.21358
▁européen,	-9.2141
ces	-9.21415
▁im	-9.2145
▁strong	-9.21493
▁quelque	-9.21648
▁d	-9.21698
ts	-9.21728
ables	-9.21781
G	-9.21802
▁décisions	-9.21861
▁recent	-9.21901
▁understand	-9.22042
da	-9.22063
▁discussions	-9.22128
▁m'	-9.22141
▁d'être	-9.22144
▁remain	-9.22301
▁simply	-9.22311
▁devraient	-9.22351
▁majorité	-9.22417
▁nombreuses	-9.22503
▁ban	-9.22518
▁certainly	-9.22525
▁affect	-9.22557
▁promote	-9.2259
out	-9.22603
▁following	-9.22714
▁States,	-9.22741
ba	-9.22791
ha	-9.22928
cé	-9.2298
▁risk	-9.23236
▁libre	-9.23491
▁agricultural	-9.23545
▁Ha	-9.23624
▁o	-9.23656
▁normes	-9.23714
▁often	-9.23833
▁démocratique	-9.23859
▁compromis	-9.23912
▁prochaine	-9.23942
▁context	-9.2397
-il	-9.23973
00	-9.23977
▁answer	-9.24129
▁Turkey	-9.24306
mis	-9.24354
▁européen.	-9.24459
▁seule	-9.24551
▁extremely	-9.24569
ness	-9.246
▁rural	-9.24644
▁titre	-9.24751
▁convention	-9.24921
▁ait	-9.2493
one	-9.24985
▁significant	-9.25001
▁propre	-9.2508
▁sub	-9.25108
▁adopté	-9.25208
▁aware	-9.25278
▁juste	-9.25295
▁(DE)	-9.25332
nci	-9.25455
▁trans	-9.25529
▁entendu	-9.25559
▁kind	-9.25584
all	-9.25833
▁Article	-9.25845
▁Enfin	-9.25879
ber	-9.25883
▁durable	-9.25958
▁relative	-9.25974
▁pratique	-9.2613
sh	-9.26153
▁régime	-9.26158
▁commercial	-9.26168
▁correct	-9.26251
▁réalité	-9.26335
▁appropriate	-9.26378
ies	-9.26418
▁start	-9.26492
▁choses	-9.26493
▁countries.	-9.26582
▁celle	-9.26655
▁tenu	-9.2669
▁devrions	-9.2675
bo	-9.27169
▁sp	-9.27169
▁improve	-9.27264
▁Turquie	-9.27343
▁ho	-9.27355
side	-9.27391
▁financière	-9.27584
dé	-9.27607
▁nécessaires	-9.27635
▁Pa	-9.27639
▁joint	-9.27739
▁(EN)	-9.27747
▁Parliament,	-9.2776
▁decisions	-9.27952
▁V	-9.27954
▁preuve	-9.27996
▁non-	-9.28021
▁ago	-9.28142
▁might	-9.28161
▁nationaux	-9.28287
▁date	-9.2834
▁enlargement	-9.28485
▁qu'un	-9.28517
▁Union,	-9.28597
▁solutions	-9.28669
up	-9.28687
▁simplement	-9.28754
▁war	-9.28774
▁vu	-9.2879
▁air	-9.28812
▁rest	-9.28883
pi	-9.28933
ian	-9.28954
▁Court	-9.29012
▁effect	-9.29063
use	-9.29074
av	-9.29091
▁compromise	-9.29111
▁close	-9.29204
▁arm	-9.29231
▁exemple,	-9.29248
▁talk	-9.29271
▁developing	-9.29301
▁générale	-9.29317
ised	-9.29387
▁approche	-9.29419
▁représente	-9.29431
▁projets	-9.29443
▁d'in	-9.29455
po	-9.29609
▁actually	-9.29611
▁express	-9.29778
▁lack	-9.2982
▁observ	-9.29875
▁passé	-9.29893
▁mention	-9.29937
▁charge	-9.30082
▁accords	-9.30106
▁Russie	-9.30108
isé	-9.30158
and	-9.3018
▁regional	-9.30217
▁mentioned	-9.30249
▁jeunes	-9.30274
ru	-9.30389
▁found	-9.30611
▁conclusions	-9.30712
▁agreements	-9.31015
▁available	-9.31025
ière	-9.31176
▁écrit.	-9.31208
cre	-9.31261
▁special	-9.31406
▁stabilité	-9.31434
▁énergétique	-9.31587
mon	-9.31611
▁investment	-9.31736
▁mé	-9.31769
▁aide	-9.31797
▁L’	-9.31808
▁l'accord	-9.32006
▁ca	-9.32071
▁report,	-9.32083
▁climate	-9.32145
▁apply	-9.32184
▁contexte	-9.32285
▁indeed	-9.32333
▁suite	-9.32358
▁collègues,	-9.32417
▁Finally	-9.32421
▁Let	-9.32446
▁mondiale	-9.32473
▁ensemble	-9.32477
▁groups	-9.32594
▁tiers	-9.32621
our	-9.32759
▁strict	-9.32769
cul	-9.32799
▁mission	-9.3281
ai	-9.32825
lit	-9.32926
▁groupes	-9.33035
▁currently	-9.3308
▁short	-9.33263
▁partage	-9.33375
▁Russia	-9.33561
▁concerning	-9.33599
▁principal	-9.33604
▁ailleurs	-9.33642
ors	-9.33706
▁intérêts	-9.33782
▁success	-9.33892
▁dispositions	-9.34059
val	-9.34104
▁25	-9.34113
▁sou	-9.34114
uv	-9.34143
▁changement	-9.34165
ger	-9.34223
▁jobs	-9.34242
▁vraiment	-9.34295
▁states	-9.34346
▁l'ensemble	-9.3438
tal	-9.34414
▁fall	-9.34494
▁véritable	-9.34801
ord	-9.34874
uff	-9.34941
▁cependant	-9.34986
▁responsible	-9.34996
▁draw	-9.35071
▁show	-9.35272
▁policy.	-9.35317
tique	-9.3536
▁fer	-9.3539
▁contraire	-9.35392
▁jamais	-9.35789
▁réduction	-9.35799
▁s'il	-9.35808
▁data	-9.35851
▁thing	-9.35862
▁convient	-9.35879
▁Vous	-9.35879
▁parti	-9.35971
ke	-9.35971
▁sais	-9.35974
su	-9.36003
▁formation	-9.36096
▁conflict	-9.36118
emb	-9.36124
▁dimension	-9.36138
lement	-9.36234
▁move	-9.36288
▁C’est	-9.36358
▁présente	-9.36386
▁figure	-9.36409
ite	-9.36421
▁focus	-9.36438
▁Conseil,	-9.36477
▁vo	-9.36742
stitut	-9.36878
▁ta	-9.36974
▁n'y	-9.3698
▁key	-9.36982
▁Cour	-9.36986
gue	-9.37041
▁represent	-9.3707
ice	-9.37077
▁budgétaire	-9.3708
ateurs	-9.37119
▁élevé	-9.37153
tin	-9.37215
▁share	-9.37232
▁pi	-9.37265
▁inform	-9.37334
▁pl	-9.37352
▁themselves	-9.37405
▁Fund	-9.37454
▁forces	-9.37532
▁30	-9.37723
▁moyen	-9.37767
H	-9.37947
▁quand	-9.37953
▁Ba	-9.38005
▁Communauté	-9.38086
▁signifie	-9.38111
▁fourni	-9.38287
▁vital	-9.38385
▁centrale	-9.38396
▁management	-9.38404
▁extrêmement	-9.38486
▁plutôt	-9.38525
▁font	-9.38573
▁fond	-9.38716
▁activités	-9.3883
▁months	-9.38842
▁d'en	-9.38843
▁l'article	-9.38868
▁rendre	-9.38878
▁n'ont	-9.38894
▁utilisé	-9.39028
▁members	-9.39129
▁With	-9.39131
▁manque	-9.39144
▁He	-9.39162
▁l'un	-9.39245
▁marchés	-9.39416
▁transparence	-9.39471
do	-9.39485
▁promotion	-9.39662
▁l’Europe	-9.39746
▁loi	-9.39815
▁consumers	-9.39837
▁répondre	-9.39918
▁Po	-9.39964
▁results	-9.40121
▁parler	-9.40139
mer	-9.40225
ifs	-9.40273
▁réunion	-9.40418
".	-9.40427
▁remercie	-9.40462
▁rapidement	-9.40538
▁principes	-9.40607
ability	-9.40618
be	-9.40712
▁déclaration	-9.40807
▁volonté	-9.40823
▁doing	-9.40846
▁needed	-9.40985
▁enough	-9.41094
ton	-9.41146
▁turn	-9.41171
▁motion	-9.41245
▁s’	-9.41313
▁zone	-9.41485
▁benefit	-9.4156
▁membres,	-9.41637
▁task	-9.41644
▁appelle	-9.41795
▁Ch	-9.41821
▁agenda	-9.41897
▁day	-9.41906
▁keep	-9.41971
▁14	-9.42013
tri	-9.42024
▁Kosovo	-9.42034
▁countries,	-9.42085
ow	-9.42095
rent	-9.42157
▁sommet	-9.42177
▁Parliament's	-9.42179
▁Cependant	-9.42193
▁capacité	-9.42236
▁Bo	-9.4226
vé	-9.42396
▁collègue	-9.42453
▁c’est	-9.42523
▁My	-9.42533
▁commitment	-9.42541
▁conséquences	-9.4271
/9	-9.42722
▁réduire	-9.42779
▁All	-9.42814
▁effort	-9.42831
▁n’a	-9.42895
▁though	-9.42965
gen	-9.43009
▁congratulate	-9.43036
▁water	-9.43133
▁centre	-9.43157
▁raisons	-9.4334
▁administrative	-9.43347
▁puisse	-9.43408
▁achieved	-9.43423
▁quel	-9.43531
▁mort	-9.43534
nn	-9.43577
▁condition	-9.43589
▁consultation	-9.43606
▁dernières	-9.43641
▁vrai	-9.43672
bu	-9.43786
just	-9.43803
▁content	-9.43826
▁concept	-9.43845
▁13	-9.43846
▁Mo	-9.43874
▁intention	-9.43915
▁n’est	-9.43943
▁d'ex	-9.43957
▁longer	-9.43964
▁l'aide	-9.43968
▁quelle	-9.44056
▁court	-9.4408
▁dés	-9.44145
▁porte	-9.44227
▁différentes	-9.44307
tation	-9.44377
▁maintain	-9.44513
à	-9.44529
▁Council,	-9.44532
▁activities	-9.44568
▁qu'en	-9.44694
▁funding	-9.44695
met	-9.44724
▁among	-9.4476
▁considérable	-9.44774
▁Se	-9.44795
▁exception	-9.44871
▁parole	-9.44883
▁stress	-9.44907
▁Or	-9.44937
▁tels	-9.45014
▁signal	-9.45057
▁assistance	-9.45095
▁communauté	-9.45124
▁fondamentaux	-9.45124
▁address	-9.4514
▁mal	-9.45144
vant	-9.45159
▁experience	-9.45178
▁solidarité	-9.452
▁exist	-9.45294
iers	-9.45314
ab	-9.45368
▁cons	-9.45557
▁response	-9.45562
cut	-9.45625
▁young	-9.45642
ici	-9.45675
▁principles	-9.45707
▁tr	-9.45746
▁adapt	-9.45772
line	-9.4582
▁Fonds	-9.45892
▁favorable	-9.45936
ition	-9.45951
▁chers	-9.46007
titu	-9.46036
▁fi	-9.4605
▁priority	-9.4611
car	-9.46283
▁urgent	-9.46322
▁writing.	-9.46349
▁projects	-9.46436
▁project	-9.46525
▁peux	-9.46578
▁tri	-9.46632
ical	-9.46695
▁costs	-9.46703
▁reasons	-9.46822
▁nucléaire	-9.46844
▁although	-9.46855
▁devant	-9.46939
▁let	-9.47057
▁true	-9.47181
▁addition	-9.47297
▁défense	-9.47312
▁she	-9.47383
▁little	-9.47592
▁labour	-9.47605
▁legislative	-9.47614
mission	-9.47635
▁nationales	-9.47733
▁amount	-9.47794
▁agricole	-9.47843
éré	-9.47874
▁savons	-9.47885
▁personne	-9.47889
▁nu	-9.47918
▁destiné	-9.47935
▁aspect	-9.48003
fe	-9.48018
cur	-9.48084
▁J'	-9.48142
▁cohésion	-9.48232
▁voter	-9.48444
ssent	-9.4852
▁four	-9.48526
▁grâce	-9.48526
▁informations	-9.48532
▁test	-9.48536
▁rend	-9.48572
▁finance	-9.48712
01	-9.48719
int	-9.4872
▁An	-9.4874
▁pendant	-9.48832
▁nothing	-9.48837
▁Mar	-9.48963
▁sure	-9.48975
▁matters	-9.49002
▁central	-9.49082
▁mind	-9.49226
▁rate	-9.49249
▁side	-9.49269
▁them.	-9.49294
▁regards	-9.49297
▁Directive	-9.49303
▁réglementation	-9.49321
▁visit	-9.49321
sta	-9.49454
érer	-9.4948
▁provided	-9.49487
▁manifest	-9.49515
▁trouve	-9.49626
▁mo	-9.49629
▁établi	-9.49645
▁qu’	-9.49702
▁féliciter	-9.49737
▁sustainable	-9.49753
▁présenté	-9.49785
▁perhaps	-9.49812
ile	-9.49819
▁week	-9.49834
▁frontières	-9.49858
▁perspective	-9.49878
▁crime	-9.50042
ob	-9.50062
▁ministre	-9.50084
▁résultat	-9.502
▁basic	-9.50282
lin	-9.50285
▁confiance	-9.50333
▁cases	-9.50356
▁assurer	-9.5039
▁nuclear	-9.50398
ning	-9.50436
▁foreign	-9.50439
iques	-9.50469
▁visa	-9.5047
▁début	-9.50504
▁danger	-9.50608
▁Ro	-9.50758
▁Rights	-9.50792
▁Mon	-9.50814
▁souhait	-9.50865
men	-9.50938
▁speak	-9.51032
ain	-9.51087
▁all,	-9.51097
▁solidarity	-9.5122
▁chance	-9.51272
▁sanctions	-9.51282
▁demain	-9.51318
▁term	-9.51329
nant	-9.51372
▁protect	-9.51439
ments	-9.516
▁statut	-9.51604
▁systems	-9.51657
▁ha	-9.5174
▁doubt	-9.51744
▁consumer	-9.51763
▁critères	-9.51786
▁technical	-9.51791
▁attend	-9.51922
▁above	-9.51967
▁employ	-9.52024
▁stand	-9.52099
▁systèmes	-9.52181
▁taux	-9.52232
▁l’UE	-9.52306
▁na	-9.52342
istes	-9.52409
▁fair	-9.52412
ordre	-9.52413
▁previous	-9.52553
▁aurait	-9.52567
▁past	-9.52632
▁guerre	-9.52695
▁invest	-9.52769
ats	-9.52939
▁unies	-9.52984
▁n’	-9.53036
-in-Office	-9.53037
▁réalisé	-9.53133
▁vigueur	-9.53144
▁exercice	-9.53179
▁governments	-9.53202
▁documents	-9.53231
ries	-9.53276
▁gouvernements	-9.53283
▁export	-9.53346
▁agreed	-9.53385
cer	-9.53413
▁business	-9.53442
▁combat	-9.53479
▁considération	-9.53535
▁qu'à	-9.53544
▁insist	-9.53569
▁passe	-9.53632
▁technologies	-9.53666
▁2004	-9.53693
▁road	-9.53703
▁possible.	-9.53704
▁regarding	-9.53796
▁strengthen	-9.53934
▁integration	-9.54108
▁join	-9.54142
▁item	-9.54241
red	-9.54307
▁structure	-9.54359
▁;	-9.54574
ult	-9.54581
▁produit	-9.54677
pé	-9.54831
▁pose	-9.54845
ert	-9.54961
▁it.	-9.55008
▁construction	-9.55075
▁transparency	-9.55105
▁contribuer	-9.55199
▁actuel	-9.55229
led	-9.55306
▁balance	-9.55405
▁several	-9.55457
▁seen	-9.55553
▁police	-9.55578
▁Our	-9.55672
▁critique	-9.55709
▁relatif	-9.55711
▁terrorisme	-9.55714
▁améliorer	-9.55725
▁UN	-9.55877
▁travers	-9.55894
▁2009	-9.55897
▁telles	-9.55905
▁stage	-9.55973
▁contribute	-9.55991
▁rule	-9.56019
▁positif	-9.5604
▁consensus	-9.56199
▁soon	-9.5622
▁continuer	-9.5628
▁accompli	-9.56284
▁post	-9.56523
▁climatique	-9.56523
bi	-9.56553
▁valeurs	-9.56589
ès	-9.56675
ze	-9.56764
issement	-9.56858
▁fonction	-9.56938
▁Parliament.	-9.5703
▁vise	-9.57032
▁N	-9.57058
▁prise	-9.57228
ki	-9.57262
▁50	-9.5727
▁qualifi	-9.57355
▁côté	-9.57378
▁2007	-9.57394
▁exige	-9.57419
▁donne	-9.57496
née	-9.57723
▁tomorrow	-9.57724
form	-9.57797
▁appel	-9.5781
lant	-9.5782
ivité	-9.57864
▁référence	-9.57873
▁uniquement	-9.57885
tons	-9.57915
).	-9.57946
▁upon	-9.5795
cro	-9.5798
▁réellement	-9.58027
▁cost	-9.58038
▁add	-9.5806
▁élections	-9.58102
▁1999	-9.58114
▁relatives	-9.58136
▁rappeler	-9.58153
▁alternative	-9.58159
der	-9.58201
▁certainement	-9.58257
ding	-9.58261
▁fort	-9.58267
▁follow	-9.58272
▁procédures	-9.58286
▁meet	-9.58295
▁men	-9.58425
▁l'énergie	-9.58446
▁enfin	-9.58466
▁terrorism	-9.58493
▁traitement	-9.58494
▁victimes	-9.58832
▁pension	-9.58857
▁paragraphe	-9.58917
▁présenter	-9.59094
▁prises	-9.59111
▁l'industrie	-9.59189
▁l'amendement	-9.59211
gra	-9.59297
▁Sa	-9.59298
▁d'action	-9.59525
▁criteria	-9.59564
▁veiller	-9.59577
▁promouvoir	-9.59589
▁him	-9.5962
▁Al	-9.59632
▁reach	-9.59695
▁tell	-9.59808
▁propres	-9.59834
▁moi	-9.60052
▁monétaire	-9.60096
▁18	-9.60098
▁outre,	-9.60122
abilité	-9.60151
▁capable	-9.6023
▁l'économie	-9.60248
▁accession	-9.60277
ui	-9.60349
▁pleased	-9.6036
▁veut	-9.6044
▁rep	-9.60571
▁normal	-9.60697
▁demandé	-9.6075
▁civile	-9.60917
▁J'espère	-9.60925
▁Bien	-9.6097
▁2006	-9.61024
▁personnel	-9.6105
▁tenir	-9.61053
▁‘	-9.61105
▁review	-9.61194
▁l'année	-9.61196
▁broad	-9.61207
▁continu	-9.61326
▁voting	-9.6134
▁pression	-9.6137
▁comes	-9.61428
▁existing	-9.61514
▁hard	-9.61569
▁contact	-9.61619
▁garantie	-9.61629
▁protéger	-9.61631
▁priorité	-9.61635
▁Thank	-9.61709
▁ans	-9.61789
▁session	-9.61792
▁hold	-9.61892
▁seems	-9.61928
▁colleagues	-9.61973
▁provisions	-9.6212
▁financières	-9.62132
▁elections	-9.62137
▁Euro	-9.62166
▁note	-9.62206
▁potential	-9.62213
bil	-9.62232
▁Parlement,	-9.62253
▁movement	-9.62259
▁One	-9.62295
â	-9.623
▁train	-9.62363
▁ourselves	-9.62382
ran	-9.62391
▁influence	-9.62421
▁avoid	-9.62448
▁port	-9.62488
▁Secondly,	-9.62517
▁autant	-9.62567
▁eux	-9.62621
▁parvenir	-9.62656
▁obligations	-9.62753
▁refus	-9.62766
▁stability	-9.62766
▁dossier	-9.62943
▁2008	-9.62947
▁affirm	-9.6295
▁purpose	-9.62981
▁l'importance	-9.63047
▁militaire	-9.63073
▁minimum	-9.63125
▁adoptée	-9.63229
▁financier	-9.63259
▁sport	-9.63305
▁environnemental	-9.63388
▁reflect	-9.63506
▁values	-9.63524
▁évidemment	-9.63532
ç	-9.63535
▁considère	-9.63545
▁attitude	-9.63571
▁Union's	-9.63577
▁China	-9.63611
▁sources	-9.63679
▁reduce	-9.63709
▁enable	-9.63721
▁origin	-9.63784
▁man	-9.63865
▁value	-9.63874
fa	-9.63911
▁respecter	-9.64011
▁assist	-9.64044
▁transparent	-9.64046
raient	-9.64124
▁2010	-9.64125
▁cohesion	-9.64125
▁partenariat	-9.64297
▁develop	-9.64307
▁dois	-9.6451
▁statement	-9.64689
▁cultural	-9.64793
▁creation	-9.64829
▁Des	-9.64866
▁impossible	-9.64908
▁until	-9.64913
▁Li	-9.64932
▁gr	-9.64963
▁loin	-9.65085
près	-9.65166
▁everyone	-9.65224
▁pauvreté	-9.65282
▁sort	-9.65458
▁2005	-9.6546
▁Be	-9.6548
▁modèle	-9.65523
▁poverty	-9.65523
égalité	-9.65607
▁claire	-9.65742
▁Chine	-9.65805
▁others	-9.6581
ious	-9.65826
▁never	-9.65937
▁Da	-9.66002
▁financiers	-9.66031
cent	-9.66076
▁rapport.	-9.66177
▁reduction	-9.66182
▁carried	-9.66223
▁plans	-9.66233
ub	-9.66247
▁pays.	-9.66257
▁amendement	-9.66269
▁import	-9.66274
▁méthode	-9.66276
▁appear	-9.66317
V	-9.66323
aff	-9.66425
▁military	-9.66439
▁bas	-9.6652
▁permet	-9.66539
▁grave	-9.66556
▁17	-9.66601
▁coûts	-9.66612
20	-9.66621
▁petites	-9.66647
▁territoire	-9.6675
▁equal	-9.66752
▁animal	-9.66892
▁job	-9.66928
▁acceptable	-9.6693
era	-9.66959
▁Traité	-9.66995
▁meilleur	-9.67005
▁collaboration	-9.67008
▁permanent	-9.67008
▁expect	-9.6707
▁tabled	-9.67094
▁exprimé	-9.67103
▁atteint	-9.67145
▁agriculture	-9.67158
▁list	-9.6727
▁pri	-9.67304
▁absolument	-9.67366
▁due	-9.67404
▁Do	-9.67525
▁menace	-9.67571
▁2003	-9.67585
▁éléments	-9.67621
ienne	-9.67681
▁spécial	-9.67814
exprim	-9.67835
▁held	-9.6788
ip	-9.67882
▁com	-9.67915
▁continent	-9.67952
▁relating	-9.67979
▁farmers	-9.67992
▁saying	-9.68018
▁route	-9.68022
▁travailler	-9.68069
▁sociaux	-9.68073
▁précisément	-9.68144
▁increased	-9.68152
▁consequences	-9.68213
▁illegal	-9.68282
▁product	-9.68303
rée	-9.68305
▁asked	-9.68308
▁fail	-9.68323
êt	-9.6842
▁contenu	-9.6842
▁indispensable	-9.68461
euse	-9.68499
gne	-9.68585
▁makes	-9.68627
▁coût	-9.68657
▁establish	-9.68675
▁d'euros	-9.68738
▁envisage	-9.68749
▁procedures	-9.68797
▁sense	-9.68806
▁increasing	-9.68809
▁namely	-9.68863
▁réjouis	-9.68872
▁ground	-9.6888
▁qu'on	-9.68892
▁pressure	-9.68976
▁tâche	-9.69154
▁training	-9.69159
▁changes	-9.6934
▁accepter	-9.69493
▁hommes	-9.69642
▁everything	-9.69656
▁mode	-9.69668
▁organisation	-9.69689
▁peuple	-9.69706
▁mondial	-9.69724
▁L	-9.69733
▁along	-9.69783
▁ir	-9.69823
▁happen	-9.69901
▁required	-9.69901
▁étaient	-9.69908
▁priorités	-9.69976
▁policy,	-9.69987
▁Con	-9.69991
ev	-9.70027
▁fishing	-9.70035
▁dû	-9.70107
▁When	-9.70146
▁live	-9.70151
▁zones	-9.70258
▁totalement	-9.70376
▁stop	-9.7044
▁criminal	-9.70441
▁markets	-9.70449
▁16	-9.70498
▁requirements	-9.70518
▁prend	-9.70581
▁d'avoir	-9.706
▁dépenses	-9.70675
▁carry	-9.70688
▁développer	-9.70706
▁institution	-9.70713
▁d’autres	-9.70732
▁décidé	-9.70794
▁highlight	-9.7085
lor	-9.70881
▁thus	-9.70903
gg	-9.7092
▁petit	-9.71062
▁2002	-9.71089
mar	-9.71136
▁attempt	-9.71148
▁amend	-9.71173
▁grandes	-9.71226
▁pen	-9.71296
▁table	-9.71313
▁cut	-9.71433
▁option	-9.71473
▁idée	-9.71482
▁sensible	-9.71489
▁billion	-9.71517
▁(S	-9.71528
▁clause	-9.71531
▁l'utilisation	-9.71566
une	-9.71576
▁adoption	-9.71749
▁conférence	-9.71774
▁speech	-9.71788
▁jusqu'à	-9.7182
▁Ne	-9.71967
▁maritime	-9.71988
nelle	-9.72001
▁package	-9.72002
▁regret	-9.72009
▁presented	-9.72059
▁future.	-9.72065
rais	-9.72074
▁parmi	-9.72093
▁semaine	-9.72114
▁St	-9.72154
▁valeur	-9.72276
▁question.	-9.72358
▁language	-9.72447
▁opportunities	-9.72466
▁commencer	-9.72511
▁model	-9.72524
▁throughout	-9.72582
▁auto	-9.72602
▁US	-9.72606
▁qu’elle	-9.7265
▁refer	-9.72688
▁external	-9.72749
▁gens	-9.72832
▁immigration	-9.72866
▁partenaires	-9.72874
▁lecture	-9.72895
▁phase	-9.72908
isée	-9.72948
▁relevant	-9.72994
hé	-9.73023
▁l	-9.73129
for	-9.73187
▁l’é	-9.73215
▁substances	-9.73267
▁dispose	-9.73314
▁d'information	-9.73327
▁organ	-9.73335
king	-9.73379
ward	-9.73407
▁either	-9.73428
▁l'objet	-9.73443
▁bar	-9.73479
),	-9.73759
▁analyse	-9.73814
▁priorities	-9.73825
▁vol	-9.73846
▁remind	-9.73867
▁qu'elles	-9.73885
jou	-9.73986
▁fil	-9.74003
▁budgetary	-9.74026
▁difficultés	-9.74081
onn	-9.74095
étai	-9.74147
ôt	-9.74196
▁quoi	-9.74218
ay	-9.74252
▁assessment	-9.74275
▁celles	-9.74295
udi	-9.7431
▁apporter	-9.7436
▁return	-9.7439
ug	-9.74409
mun	-9.74417
isse	-9.74446
▁permettra	-9.74509
▁répond	-9.7452
▁différ	-9.74523
▁résoudre	-9.74537
▁l'heure	-9.74566
▁called	-9.74572
inter	-9.74602
▁rejet	-9.74643
▁regulations	-9.74656
▁peine	-9.74704
ping	-9.74715
▁délai	-9.74793
flu	-9.7482
▁Party	-9.75012
▁pleinement	-9.75136
▁quatre	-9.75244
▁successful	-9.75249
▁around	-9.7532
▁community	-9.75336
▁waste	-9.75372
▁reports	-9.75407
▁transition	-9.75434
io	-9.75514
▁multi	-9.75529
▁famille	-9.75584
time	-9.75603
▁article	-9.75644
▁lesquels	-9.75703
▁prepared	-9.75719
▁suivi	-9.75719
▁red	-9.75798
▁liste	-9.75813
▁réformes	-9.75816
▁coup	-9.75848
▁decided	-9.75969
▁Schengen	-9.76104
fi	-9.76125
▁chacun	-9.7615
▁d'entre	-9.76176
▁conclu	-9.762
▁constituent	-9.76217
ka	-9.76322
▁conduct	-9.76438
▁utile	-9.76732
▁consideration	-9.76787
▁2001	-9.76792
bel	-9.76807
ach	-9.76864
▁old	-9.76873
▁courage	-9.76898
-t-il	-9.76943
▁40	-9.7702
▁séance	-9.77118
▁promis	-9.77126
iel	-9.77169
▁britannique	-9.77198
-f	-9.77204
▁permis	-9.77281
▁(PL)	-9.77304
▁succès	-9.77364
▁improvement	-9.77378
▁régionale	-9.77378
▁Ra	-9.7759
▁practical	-9.77591
▁félicite	-9.77645
ifié	-9.77649
▁innovation	-9.77668
▁mu	-9.77668
▁jouer	-9.7771
▁monitoring	-9.77814
▁pratiques	-9.77826
▁alimentaire	-9.77828
▁rapports	-9.77832
lli	-9.77934
▁administration	-9.7794
ateur	-9.77987
▁communautaires	-9.77998
▁across	-9.78031
ég	-9.78074
▁touch	-9.78085
▁permettant	-9.78091
▁class	-9.78122
▁reached	-9.78129
▁parlementaire	-9.78148
▁seek	-9.78157
▁five	-9.78167
▁divers	-9.78179
▁prochain	-9.78183
▁2020	-9.78288
▁réserve	-9.78366
▁aujourd’hui	-9.78411
▁constructive	-9.7845
▁l'agriculture	-9.78456
▁j	-9.78466
▁Di	-9.78561
▁collect	-9.78609
▁directives	-9.78704
▁extérieure	-9.78716
▁raised	-9.78753
▁expressed	-9.78851
▁puissent	-9.78919
▁défini	-9.78939
▁puis	-9.78954
▁Notre	-9.78982
▁déclaré	-9.79007
ages	-9.79059
▁évident	-9.79084
▁circulation	-9.7913
▁pourra	-9.79162
over	-9.79224
▁bank	-9.79313
▁venir	-9.79331
▁talking	-9.79337
▁temps,	-9.79422
▁Therefore,	-9.79461
▁exigences	-9.79531
qué	-9.79544
▁passer	-9.79552
▁consult	-9.79635
▁Ga	-9.79635
▁connaissance	-9.79685
her	-9.79687
▁home	-9.79732
▁light	-9.79745
▁sufficient	-9.79824
▁Ka	-9.79839
▁Green	-9.79902
▁official	-9.79917
▁Pro	-9.79938
ably	-9.79992
▁renforcement	-9.80007
duc	-9.80018
▁moi,	-9.80099
▁catastrophe	-9.80102
atif	-9.80139
tage	-9.80143
▁transports	-9.8018
▁troisième	-9.80267
tour	-9.80291
▁implement	-9.80312
▁Portugal	-9.8032
voir	-9.80359
▁genuine	-9.80444
▁salue	-9.80448
▁cré	-9.80475
▁II	-9.80552
ché	-9.80566
▁private	-9.80575
▁grands	-9.80595
▁pourraient	-9.80617
▁reading	-9.80689
▁factor	-9.80769
▁tard	-9.80833
▁mandat	-9.80875
▁respond	-9.80881
▁travaux	-9.80881
ish	-9.80887
▁implemented	-9.80896
spir	-9.80896
▁cinq	-9.80914
jo	-9.81058
▁head	-9.81115
▁try	-9.81186
▁Sud	-9.81196
▁perspectives	-9.81245
▁27	-9.81316
▁vient	-9.81331
▁l'ex	-9.81345
▁poursuivre	-9.81382
▁secteurs	-9.81436
▁convaincu	-9.81445
▁Ireland	-9.81446
▁cover	-9.81458
▁death	-9.81468
▁rapide	-9.8151
▁pe	-9.81518
▁l'occasion	-9.81524
und	-9.8156
▁price	-9.8164
▁market.	-9.81665
▁Cet	-9.81668
▁engagement	-9.81707
▁fellow	-9.8176
▁care	-9.81799
nk	-9.81899
▁learn	-9.81956
▁comprendre	-9.81966
▁correspond	-9.82029
▁included	-9.82069
▁operation	-9.82073
▁adopter	-9.82095
▁regime	-9.82156
▁fisheries	-9.82203
ira	-9.82221
▁using	-9.82254
lam	-9.82272
▁ever	-9.82273
▁absolutely	-9.82296
▁quickly	-9.82348
▁chômage	-9.82488
pu	-9.82562
▁prove	-9.82662
▁devoir	-9.82673
▁compétitivité	-9.82679
▁French	-9.82727
▁vos	-9.82754
▁mérite	-9.82762
ju	-9.82985
har	-9.82987
▁Deuxièmement	-9.83002
▁Iraq	-9.83024
▁May	-9.83052
▁rapporteurs	-9.83065
▁compétences	-9.83134
▁serve	-9.83135
▁soutenu	-9.83142
▁série	-9.83188
▁source	-9.83268
▁potentiel	-9.83286
▁sociales	-9.833
▁humaine	-9.8332
▁super	-9.83324
▁presidency	-9.83382
ang	-9.83383
▁l'objectif	-9.83387
▁word	-9.83461
▁l'élargissement	-9.83494
▁élément	-9.83512
▁partnership	-9.83543
▁spécifique	-9.83557
▁win	-9.83597
▁established	-9.83633
▁malheureusement	-9.83703
▁éviter	-9.83751
▁recently	-9.8381
▁aider	-9.83843
▁contract	-9.83864
▁author	-9.8402
▁longtemps	-9.84025
▁retard	-9.84041
▁ensuite	-9.84089
▁vision	-9.84099
▁structures	-9.84159
▁reality	-9.8417
▁Conference	-9.84267
▁coming	-9.84331
▁outside	-9.84338
▁according	-9.84353
▁challenges	-9.84406
▁heures	-9.84568
▁partners	-9.846
▁fl	-9.84605
▁Of	-9.8461
▁victims	-9.8472
▁assez	-9.84729
▁industrial	-9.84737
▁Car	-9.84758
cho	-9.84767
enne	-9.84831
▁defend	-9.84906
▁lot	-9.8498
▁reference	-9.84994
▁produce	-9.85001
▁révision	-9.85015
▁l'État	-9.85079
rain	-9.85079
▁choix	-9.85193
▁ba	-9.85203
▁Development	-9.85209
issant	-9.85339
▁risques	-9.8535
▁gaz	-9.85495
▁additional	-9.85553
▁enter	-9.85583
▁Africa	-9.85602
▁n'en	-9.85614
▁structural	-9.85618
▁genre	-9.85816
▁exchange	-9.85944
",	-9.85985
▁goal	-9.86014
mination	-9.86031
▁oral	-9.86046
▁tradition	-9.86054
▁pollution	-9.86062
▁attack	-9.86111
▁spécifiques	-9.86128
▁completely	-9.86157
▁suggest	-9.86194
▁vis-à-vis	-9.86226
▁powers	-9.86252
▁begin	-9.86323
mit	-9.86386
▁remarque	-9.86425
▁21	-9.86458
▁Y	-9.8649
▁déposé	-9.86511
▁borders	-9.86625
▁supported	-9.86661
▁candidats	-9.86797
cal	-9.86893
▁years.	-9.86916
▁giving	-9.86988
▁dépend	-9.87073
▁d'aide	-9.87118
▁(A	-9.87247
▁disaster	-9.87271
▁brought	-9.87287
▁threat	-9.87432
▁emphasise	-9.87465
▁longue	-9.87484
▁langue	-9.87491
▁possibilités	-9.87531
▁treatment	-9.87595
▁essentielle	-9.87633
▁efficient	-9.87638
▁left	-9.87691
▁Ta	-9.87692
▁lutter	-9.87788
▁age	-9.87822
▁forte	-9.87834
▁ministres	-9.87861
▁conserv	-9.87986
▁fonctionnement	-9.87992
▁haut	-9.88003
investissement	-9.88131
▁emissions	-9.88142
▁December	-9.88191
▁consiste	-9.88205
▁indépendant	-9.88242
uelle	-9.88263
▁opposition	-9.88326
▁wide	-9.88345
ines	-9.88462
▁ver	-9.88484
bor	-9.88533
▁finally	-9.88569
▁importantes	-9.88666
eau	-9.88684
▁près	-9.88694
▁mené	-9.88695
▁summit	-9.88701
▁Barroso	-9.88714
dra	-9.88752
▁besoins	-9.88938
▁vont	-9.88964
▁extent	-9.88988
▁Republic	-9.89002
▁fonctionne	-9.89062
▁applied	-9.89104
▁plupart	-9.89155
▁received	-9.89182
nou	-9.89186
▁d'ailleurs	-9.89324
▁fund	-9.89327
▁ayant	-9.89335
▁candidate	-9.89364
▁disease	-9.89376
▁possibility	-9.89392
▁l'UE.	-9.894
▁décembre	-9.8941
▁surveillance	-9.89461
▁proportion	-9.8951
▁bear	-9.89618
vel	-9.89714
▁unemployment	-9.89785
▁ren	-9.89938
tien	-9.89956
▁almost	-9.8999
▁parle	-9.90001
▁milliards	-9.90003
▁défis	-9.9002
▁press	-9.90035
▁heard	-9.90041
nu	-9.9006
▁puisque	-9.9009
▁représentants	-9.90107
▁ACP	-9.90127
▁EU's	-9.90139
▁responsables	-9.90163
ade	-9.90237
▁effects	-9.90316
▁natural	-9.9034
▁approved	-9.90464
mm	-9.90479
▁union	-9.90504
▁dix	-9.9051
▁importe	-9.9052
▁International	-9.90574
▁Commissaire	-9.90582
▁L'Union	-9.90608
▁ensuring	-9.90609
▁aides	-9.90615
02	-9.90625
▁Firstly	-9.90634
▁l’homme	-9.90643
▁assume	-9.9066
▁précis	-9.90696
▁devra	-9.90728
▁Agreement	-9.90746
▁year.	-9.90797
▁businesses	-9.90813
▁measure	-9.90843
ify	-9.90863
▁proper	-9.90881
▁derniers	-9.90903
▁invite	-9.90926
▁years,	-9.91009
▁British	-9.91023
▁Bank	-9.91084
▁législative	-9.91092
▁poor	-9.91166
▁Iran	-9.9117
▁representatives	-9.91239
▁away	-9.91302
▁took	-9.91358
ctor	-9.91367
▁conflit	-9.91424
▁Cha	-9.91439
▁provision	-9.91454
▁living	-9.91509
ulation	-9.91585
▁détail	-9.9163
▁East	-9.91665
▁constater	-9.91743
▁100	-9.91758
▁investissements	-9.91764
▁discussed	-9.91788
▁Justice	-9.91842
▁prices	-9.91859
▁How	-9.9189
▁office	-9.92027
▁creating	-9.92084
fic	-9.92134
▁double	-9.92137
▁complete	-9.92178
▁complex	-9.92186
ban	-9.92195
teur	-9.92237
▁Sur	-9.92259
▁lesquelles	-9.92294
ication	-9.92314
-elle	-9.92319
▁prévu	-9.92351
▁media	-9.92361
▁Su	-9.92444
▁rights.	-9.92507
eff	-9.9252
▁sitting	-9.92522
▁faible	-9.92525
▁competitiveness	-9.92529
▁Fa	-9.92537
▁thème	-9.92609
▁discuss	-9.9262
▁th	-9.92627
▁Furthermore	-9.92697
▁behind	-9.92715
▁constitution	-9.92769
▁implique	-9.92774
▁considéré	-9.92785
▁yeux	-9.92806
▁approuvé	-9.92873
▁instance	-9.92876
▁humanitaire	-9.9298
▁fournir	-9.92985
plication	-9.93001
pression	-9.93041
▁1998	-9.93042
▁front	-9.93132
▁Balkans	-9.93141
▁via	-9.93188
▁Budget	-9.93226
▁Europe's	-9.93226
▁délégation	-9.93226
▁quotas	-9.93327
▁personal	-9.93328
▁futur	-9.93329
▁l'application	-9.93368
▁independent	-9.93421
▁conclure	-9.93424
▁leave	-9.93431
▁fondamental	-9.93493
▁challenge	-9.935
lib	-9.93527
▁souligné	-9.93528
▁building	-9.93574
▁connection	-9.93644
bli	-9.9367
▁confidence	-9.93794
▁différence	-9.9395
▁guidelines	-9.9399
▁name	-9.94057
▁levels	-9.94063
▁conformément	-9.94067
▁unacceptable	-9.9415
▁Nord	-9.94153
▁comprend	-9.94207
▁paragraph	-9.94211
▁c'est-à-dire	-9.94222
▁l'adoption	-9.94347
▁l'ordre	-9.94418
▁urge	-9.94484
▁parliamentary	-9.94513
▁capacity	-9.94598
▁anti-	-9.94599
▁reçu	-9.94616
▁Go	-9.94621
▁Certain	-9.94813
▁d'État	-9.94867
▁thanks	-9.94884
▁year,	-9.94925
▁receive	-9.95127
▁reject	-9.95152
▁ob	-9.9517
▁knowledge	-9.95173
▁émissions	-9.95175
▁involve	-9.95242
▁association	-9.95245
the	-9.95248
▁agriculteurs	-9.95355
▁montre	-9.95359
▁Vi	-9.95382
▁delay	-9.95412
▁nationale	-9.95458
bon	-9.95521
▁introduction	-9.95595
éné	-9.95619
▁events	-9.95627
▁appliqué	-9.95661
▁conclude	-9.95712
lan	-9.95722
ez-vous	-9.95758
▁extend	-9.95758
▁effets	-9.95802
▁Belarus	-9.95897
▁defence	-9.95922
▁haute	-9.95939
▁examine	-9.95968
▁Regulation	-9.9597
▁stratégique	-9.9597
▁reforms	-9.95973
(	-9.95992
▁technique	-9.95999
we	-9.96081
▁etc.	-9.96174
▁fruit	-9.96225
▁huge	-9.96225
▁comité	-9.96244
▁send	-9.9629
▁scope	-9.96316
▁intend	-9.96325
ron	-9.96372
▁pensons	-9.96381
▁chef	-9.96408
▁publics	-9.96435
▁récemment	-9.96443
▁techniques	-9.96505
▁certaine	-9.96581
▁joue	-9.96598
▁responsable	-9.96625
▁read	-9.96627
▁code	-9.96727
▁mentionné	-9.96765
▁s’agit	-9.96919
▁family	-9.96956
▁vert	-9.97006
▁Permettez-moi	-9.97048
▁condemn	-9.97048
▁rapid	-9.97105
▁animaux	-9.97122
uf	-9.97131
▁positions	-9.97167
▁level.	-9.97224
▁emplois	-9.97296
▁structurels	-9.97312
alité	-9.97318
▁juge	-9.97448
▁interne	-9.97459
▁Central	-9.97545
▁effectivement	-9.97557
▁nations	-9.9757
▁République	-9.97601
▁engagé	-9.97601
ok	-9.97631
▁étude	-9.97635
▁humanitarian	-9.97666
abo	-9.9767
▁despite	-9.97732
▁World	-9.97767
▁difficulties	-9.97804
▁gas	-9.9782
▁mener	-9.97829
▁effectively	-9.97847
▁violations	-9.97849
▁défi	-9.97855
je	-9.97933
▁American	-9.98003
▁times	-9.98077
▁Internet	-9.98102
▁choisi	-9.98119
▁considered	-9.98215
position	-9.98238
▁aimed	-9.98245
▁repeat	-9.98299
▁affected	-9.98375
▁low	-9.98403
▁Br	-9.98458
▁First	-9.98632
ft	-9.98638
▁l'égard	-9.98664
▁caractère	-9.98678
▁producteurs	-9.98696
▁exploit	-9.98725
parti	-9.9873
▁désormais	-9.98734
urg	-9.9874
▁qu'a	-9.98788
▁asylum	-9.98809
▁trying	-9.98816
▁veux	-9.98832
▁Economic	-9.99015
▁obtain	-9.99071
▁precisely	-9.9908
▁world.	-9.99081
▁sérieux	-9.99121
▁souhaiterais	-9.99201
▁safeguard	-9.99202
▁Democrats	-9.99231
▁supply	-9.9924
▁explain	-9.99259
▁cherche	-9.9932
▁(PT)	-9.99334
▁profession	-9.99395
▁efficiency	-9.99428
▁changements	-9.99457
rog	-9.99467
ever	-9.99508
od	-9.9965
▁sé	-9.99652
▁j’ai	-9.99661
isant	-9.99666
▁suivre	-9.99673
ize	-9.99712
▁remains	-9.99771
▁fixé	-9.99774
▁cor	-9.99795
▁conséquence	-9.99813
▁définition	-9.99827
▁bi	-9.99828
▁l'autre	-9.99843
▁depend	-9.99879
nement	-9.99888
▁shown	-9.99943
▁fera	-9.99978
ency	-10.0001
pla	-10.0008
▁Strasbourg	-10.0009
▁June	-10.0014
▁savez	-10.0017
▁rester	-10.0021
▁detail	-10.003
▁étrangère	-10.0031
▁terrorist	-10.0033
▁accordance	-10.0043
ates	-10.0045
▁conciliation	-10.0049
way	-10.0053
▁conscience	-10.0056
▁ligne	-10.0057
▁législatif	-10.0062
▁l'A	-10.0062
▁modern	-10.0065
▁indicate	-10.0068
▁instead	-10.0072
▁recognise	-10.0091
▁déchets	-10.0098
▁developed	-10.0101
▁sectors	-10.0107
wa	-10.0111
▁clo	-10.0116
▁beginning	-10.012
▁institutional	-10.0121
▁link	-10.0128
▁obstacles	-10.0129
▁atteindre	-10.0131
▁libéralisation	-10.0134
org	-10.0135
uel	-10.0139
▁honourable	-10.0155
▁réussi	-10.0158
▁technology	-10.016
▁Palestinian	-10.0162
▁circumstances	-10.0163
▁advantage	-10.0163
▁original	-10.0165
▁supplémentaires	-10.0167
mettre	-10.0169
nes	-10.0172
efficacité	-10.0173
▁prévention	-10.0173
▁decide	-10.0176
▁days	-10.0183
▁maintenir	-10.0185
▁l'euro	-10.0188
▁entire	-10.019
▁juin	-10.019
▁half	-10.0193
▁oil	-10.0196
uche	-10.0198
▁disposition	-10.0198
▁dealing	-10.0203
▁mine	-10.021
chi	-10.0215
▁improving	-10.0216
▁paiement	-10.0225
▁chiffre	-10.0227
▁delegation	-10.0227
▁l'en	-10.023
▁cri	-10.0234
▁député	-10.0245
▁d'autre	-10.0253
▁today.	-10.0254
hu	-10.0256
▁biais	-10.0258
▁providing	-10.0262
▁Romania	-10.0264
▁Me	-10.0265
établissement	-10.0268
▁raise	-10.0272
▁années,	-10.0278
vert	-10.0279
▁1997	-10.028
▁Royaume-Uni	-10.0285
utili	-10.0286
▁paquet	-10.0287
▁conscient	-10.0291
▁transfer	-10.0292
▁Now	-10.0295
iens	-10.0297
▁corruption	-10.0307
▁status	-10.0307
▁committed	-10.0311
▁colleague	-10.0314
▁agir	-10.0315
▁maintien	-10.0316
▁fear	-10.0319
▁restrict	-10.0324
▁inacceptable	-10.0326
▁scientific	-10.0326
▁created	-10.0328
uvre	-10.0329
▁parfois	-10.0334
▁Voilà	-10.0336
▁Germany	-10.034
▁voix	-10.0344
▁facile	-10.0344
▁(FR)	-10.0346
▁j'espère	-10.0348
▁suffisamment	-10.0348
▁réaliser	-10.0352
▁cap	-10.0355
▁wrong	-10.0364
▁niveaux	-10.0369
▁cite	-10.0372
▁présence	-10.0372
▁annuel	-10.0374
▁damage	-10.0381
▁obtenu	-10.0381
▁intérêt	-10.0382
▁jours	-10.0398
▁former	-10.0399
▁restrictions	-10.0402
▁allowed	-10.0404
▁judiciaire	-10.0417
▁mai	-10.0417
▁montant	-10.042
▁Social	-10.0421
▁maximum	-10.0421
▁(IT)	-10.0427
▁initial	-10.0441
▁malgré	-10.0442
▁rich	-10.0447
▁socialiste	-10.0451
gent	-10.0462
mor	-10.0462
▁engage	-10.0463
▁fix	-10.0466
▁goes	-10.0473
▁responsabilités	-10.0479
entreprise	-10.048
▁South	-10.0484
▁surpris	-10.0488
▁enterprises	-10.0493
▁considerable	-10.0498
▁d'énergie	-10.0502
▁l'accès	-10.0502
▁duty	-10.0502
▁partir	-10.0503
▁assure	-10.051
▁WTO	-10.0512
▁target	-10.0515
▁qu'au	-10.0521
▁infrastructure	-10.0528
antes	-10.0535
▁accepted	-10.0537
▁soutiens	-10.0546
▁ferme	-10.0547
vit	-10.0548
▁apporté	-10.0549
▁Gu	-10.055
▁Policy	-10.0556
▁Brussels	-10.0562
▁suivante	-10.057
▁claim	-10.0574
▁rightly	-10.0575
bre	-10.0582
▁Ko	-10.059
▁prévoit	-10.0592
▁engagements	-10.0595
issent	-10.0606
▁Présidence	-10.061
▁exclu	-10.0612
▁strategic	-10.0612
▁événements	-10.0614
▁augmentation	-10.0619
tat	-10.0628
▁l'information	-10.063
▁promoting	-10.0634
▁gain	-10.0647
intégr	-10.0651
▁unfortunately	-10.0651
▁border	-10.0662
▁obtenir	-10.0662
▁fiscal	-10.0667
▁liés	-10.0672
▁évaluation	-10.0675
ov	-10.0677
▁collective	-10.0682
▁choice	-10.0683
▁l’in	-10.0683
▁ship	-10.069
▁ouvert	-10.0693
▁German	-10.0693
▁rise	-10.0693
▁Some	-10.0694
▁land	-10.0697
▁implementing	-10.0706
▁outre	-10.0709
toire	-10.0712
▁sent	-10.0721
▁tend	-10.0721
▁stated	-10.0725
▁libertés	-10.0725
▁rendu	-10.0733
▁closely	-10.0739
▁l'égalité	-10.074
▁spirit	-10.0744
▁conseil	-10.075
▁ratification	-10.0752
▁thought	-10.0755
place	-10.0767
▁similar	-10.0768
▁estime	-10.077
▁n'avons	-10.0771
▁allons	-10.0772
j	-10.0777
▁Merci	-10.078
▁Banque	-10.0782
▁directement	-10.0788
ssant	-10.0791
ble	-10.0794
▁deep	-10.0799
Allemagne	-10.0803
▁seriously	-10.0804
▁excessive	-10.0809
á	-10.0809
▁causes	-10.0809
▁Human	-10.0811
▁beyond	-10.0811
▁suggestion	-10.0813
▁déclarations	-10.0818
▁étrangères	-10.082
▁referred	-10.0821
▁arrive	-10.0821
▁material	-10.0821
▁impose	-10.0822
▁crimes	-10.0823
dict	-10.0823
▁overall	-10.0826
-nous	-10.0835
▁Israel	-10.0837
▁veulent	-10.084
▁specifically	-10.0843
ept	-10.0848
▁accès	-10.085
▁budgets	-10.0851
▁sea	-10.0858
culture	-10.0859
03	-10.0874
▁remember	-10.0875
▁event	-10.0875
▁San	-10.0877
▁Bruxelles	-10.0881
▁aller	-10.0883
onne	-10.0884
▁étroite	-10.0887
▁firm	-10.0888
▁participer	-10.089
▁publiques	-10.0891
hor	-10.0898
▁connu	-10.0912
▁réfugiés	-10.0916
▁standard	-10.093
▁celle-ci	-10.0937
gouvernementale	-10.094
▁prefer	-10.0943
▁accepté	-10.0943
▁history	-10.095
▁précédent	-10.0958
▁neighbour	-10.0964
fo	-10.0973
▁terre	-10.0974
▁benefits	-10.0976
▁attach	-10.0977
▁moral	-10.0978
▁long-term	-10.0981
▁60	-10.0992
▁existant	-10.1001
▁Socialist	-10.1002
▁relationship	-10.1007
▁évoqué	-10.1023
▁financing	-10.1025
▁mass	-10.1025
▁Ukraine	-10.1037
▁faisant	-10.1038
▁auquel	-10.1038
▁friend	-10.1039
fer	-10.1047
▁extra	-10.1048
▁expenditure	-10.1056
▁amélioration	-10.1056
▁pourrons	-10.1066
ète	-10.1071
▁tu	-10.1073
▁UE	-10.1088
▁lu	-10.109
▁équitable	-10.1094
▁plant	-10.1098
▁exclusive	-10.1099
▁directly	-10.11
▁Mediterranean	-10.1101
▁ambition	-10.1101
▁soumis	-10.1101
cher	-10.1104
▁expression	-10.1109
▁applicable	-10.1109
tan	-10.111
▁contribue	-10.1116
▁study	-10.1124
▁lignes	-10.1125
▁réelle	-10.1126
▁entraîne	-10.1126
▁réalisation	-10.1132
▁Today	-10.1137
▁reconnaissance	-10.1143
▁internationales	-10.1145
▁Irish	-10.1145
▁competence	-10.1146
▁essay	-10.1149
▁sociétés	-10.115
▁obligation	-10.1151
▁recours	-10.1152
▁wanted	-10.1154
téri	-10.1163
▁conference	-10.117
▁provides	-10.1171
ught	-10.1172
▁l'adhésion	-10.1177
own	-10.1182
▁travel	-10.1183
▁juridiques	-10.1185
▁campagne	-10.1192
▁fais	-10.1197
▁poser	-10.1199
attaque	-10.12
▁J	-10.1204
EC	-10.1208
▁calls	-10.1213
▁facteur	-10.1219
▁annual	-10.1222
▁champ	-10.1223
▁Nos	-10.1224
▁useful	-10.1224
▁devenir	-10.1231
ath	-10.1232
▁européens.	-10.1233
▁fraud	-10.1237
▁Premièrement	-10.1243
▁réduit	-10.1245
▁tirer	-10.1246
▁harmonisation	-10.1252
▁compensation	-10.1256
▁campaign	-10.1258
▁setting	-10.1265
grad	-10.1265
▁écrit	-10.1277
▁procès-verbal	-10.1277
ons-nous	-10.1279
volution	-10.1285
▁graves	-10.1293
▁activity	-10.1303
▁consist	-10.1304
▁préoccupations	-10.1313
▁January	-10.1314
▁garanti	-10.1318
▁réseaux	-10.1319
▁l'efficacité	-10.1319
▁utiliser	-10.1327
▁myself	-10.1329
▁d'Europe	-10.1334
▁cur	-10.1339
▁peuples	-10.1349
▁défendre	-10.1354
-de	-10.1356
▁lives	-10.1358
cing	-10.1363
habi	-10.1364
▁equality	-10.1371
▁populations	-10.1375
▁néanmoins	-10.1381
▁Na	-10.1383
▁fulfil	-10.1383
▁forest	-10.1384
cor	-10.1385
».	-10.139
▁comments	-10.139
▁refuse	-10.1391
▁intended	-10.1397
▁profond	-10.1399
▁1996	-10.1399
▁requires	-10.1399
▁votes	-10.1405
▁voit	-10.1407
▁négoci	-10.1409
▁burden	-10.1412
▁ignore	-10.1419
▁remark	-10.1423
▁montrer	-10.1424
▁Summit	-10.1427
▁industrie	-10.1427
▁consommation	-10.1429
▁introduce	-10.1431
▁globale	-10.1431
▁état	-10.1444
▁plein	-10.1444
▁paid	-10.1445
▁retire	-10.1457
▁sait	-10.1465
▁modification	-10.1466
▁distribution	-10.1471
▁soi	-10.1471
▁l'intérêt	-10.1473
▁closed.	-10.1481
▁désir	-10.1486
▁reconnaître	-10.1488
▁convergence	-10.1493
▁exprimer	-10.1493
▁principaux	-10.1495
▁naturellement	-10.1495
▁abandon	-10.1504
wi	-10.1507
▁outcome	-10.151
▁envers	-10.1519
▁ans,	-10.1521
▁experts	-10.1522
▁économie	-10.1525
▁24	-10.1531
▁agricoles	-10.1531
▁trafic	-10.1532
▁forms	-10.1534
▁alone	-10.1535
▁bodies	-10.1539
▁U	-10.1542
▁highly	-10.1545
▁fiscale	-10.1547
▁ceci	-10.1555
▁janvier	-10.1557
▁lorsqu'il	-10.1572
▁speaking	-10.1572
▁souligne	-10.1574
▁Prodi	-10.1574
▁pauvres	-10.1576
exécution	-10.1579
▁23	-10.1583
▁suffer	-10.1584
▁adequate	-10.1588
▁version	-10.1599
▁privé	-10.1601
▁représentant	-10.1601
▁crédits	-10.1605
▁mark	-10.1611
don	-10.1614
▁Greece	-10.1616
▁ambitious	-10.1619
▁laisser	-10.1627
▁Sch	-10.1627
▁anything	-10.1628
▁CO2	-10.163
▁comptes	-10.1631
▁Luxembourg	-10.1634
▁permettez-moi	-10.1634
▁properly	-10.1636
▁espérons	-10.1645
▁patients	-10.1657
▁compétence	-10.1664
▁Jo	-10.1666
▁substantial	-10.167
▁competitive	-10.1673
▁object	-10.1677
▁col	-10.1687
▁emploi	-10.1692
▁forget	-10.1693
▁By	-10.1693
▁grant	-10.1701
▁seem	-10.1703
▁party	-10.1705
▁ville	-10.1705
ibilité	-10.1706
▁traite	-10.1718
▁declaration	-10.1742
▁Ar	-10.1742
ound	-10.1744
▁increasingly	-10.1748
▁limited	-10.1749
▁yesterday	-10.1751
▁medium-sized	-10.1753
▁Selon	-10.1753
▁erreur	-10.1756
▁Ex	-10.1759
▁Although	-10.176
▁acquis	-10.176
X	-10.1762
▁higher	-10.1762
▁l'idée	-10.1764
tiques	-10.1767
▁discussing	-10.1774
▁offre	-10.1775
graph	-10.1779
▁s'en	-10.1781
rou	-10.1782
▁Unfortunately	-10.1787
▁method	-10.1789
▁parlé	-10.1791
▁pacte	-10.1796
▁traiter	-10.1803
▁hear	-10.1817
▁procéder	-10.182
ène	-10.1822
▁violation	-10.1823
▁commitments	-10.1825
50	-10.1826
▁résolu	-10.183
▁s'é	-10.1831
▁l'ai	-10.1837
▁habit	-10.184
▁wait	-10.1841
▁listen	-10.1842
▁symbol	-10.1842
▁poll	-10.1843
▁big	-10.1844
▁known	-10.1847
▁lien	-10.1851
▁Rules	-10.1855
▁exploitation	-10.186
▁humains	-10.1861
q	-10.1861
▁endorse	-10.1861
▁minister	-10.1862
▁authority	-10.1864
▁supporting	-10.1869
équilibre	-10.1869
▁Ceci	-10.1869
van	-10.1876
▁March	-10.1878
▁ouverte	-10.1888
▁médias	-10.1889
▁coll	-10.189
▁80	-10.189
▁monnaie	-10.1892
ule	-10.1898
ES	-10.1898
▁whom	-10.19
▁steps	-10.1901
▁flexible	-10.1901
▁clos.	-10.1902
▁deliver	-10.1904
▁goods	-10.1907
▁early	-10.1908
▁n'ai	-10.1909
▁establishing	-10.1912
▁gros	-10.1913
▁bonnes	-10.1915
▁subvention	-10.1919
▁tourisme	-10.1922
▁Environment	-10.1926
▁mutual	-10.1926
▁vehicle	-10.1933
▁improved	-10.1935
reg	-10.1942
▁achieving	-10.1942
ja	-10.1954
▁caused	-10.1969
▁happened	-10.1969
▁étape	-10.197
▁harm	-10.1971
▁pan	-10.1972
▁calling	-10.1973
▁scheme	-10.1974
▁discuter	-10.1974
▁run	-10.1974
approuve	-10.1977
▁affaire	-10.1981
▁emphasis	-10.1982
▁22	-10.1983
▁citoyen	-10.1983
▁Security	-10.1983
▁uvre	-10.1985
▁départ	-10.1995
▁complet	-10.1997
▁m'a	-10.1999
▁l'éducation	-10.2002
▁require	-10.2006
▁child	-10.2006
▁uniform	-10.2016
▁confi	-10.2024
▁fish	-10.2026
▁trust	-10.2031
▁producers	-10.2032
▁desire	-10.2032
nov	-10.2032
▁défend	-10.2038
▁prison	-10.2038
▁record	-10.2039
▁l'intégration	-10.2041
▁definition	-10.2046
▁territorial	-10.2048
▁professionnelle	-10.2056
▁taxes	-10.2056
▁l'Assemblée	-10.2067
ième	-10.2068
▁reducing	-10.2076
▁Minutes	-10.2078
▁produced	-10.2079
▁l'attention	-10.2083
▁pé	-10.2091
▁populaire	-10.2097
▁réseau	-10.2102
▁soulevé	-10.2102
▁obviously	-10.2104
▁consistent	-10.2105
cup	-10.2111
▁l'O	-10.2113
▁member	-10.2128
asso	-10.2138
▁comprehensive	-10.2139
▁opt	-10.2141
bility	-10.2144
▁Néanmoins	-10.2149
rage	-10.2154
▁relève	-10.2154
▁allemand	-10.2158
▁sum	-10.216
▁manner	-10.2164
▁exercise	-10.2165
til	-10.2165
▁Since	-10.217
▁suspend	-10.2175
▁pourtant	-10.2175
▁radical	-10.2177
▁strengthening	-10.218
apport	-10.2184
▁worth	-10.2191
▁tackle	-10.2191
▁heureux	-10.2196
▁stocks	-10.2197
▁establishment	-10.2198
▁reconnu	-10.2198
▁hui	-10.2204
▁failure	-10.2209
▁bad	-10.2217
tienne	-10.2224
ib	-10.2225
▁substance	-10.2229
▁migration	-10.2229
▁arguments	-10.2234
istic	-10.2235
▁mars	-10.2235
▁Amsterdam	-10.2238
CO	-10.2241
▁currency	-10.2245
▁check	-10.2245
▁moyennes	-10.225
▁semaines	-10.225
▁irlandais	-10.2252
▁demands	-10.2254
▁income	-10.2254
▁Foreign	-10.2255
▁person	-10.2257
▁Moreover	-10.226
▁budgétaires	-10.2272
▁convinced	-10.2275
▁prévue	-10.228
▁anti	-10.2281
ouvrir	-10.229
▁intéressant	-10.2298
▁monitor	-10.2298
▁reconstruction	-10.2302
▁énergie	-10.2307
▁largement	-10.2307
▁advance	-10.2312
▁politic	-10.2312
▁shows	-10.2316
▁enormous	-10.2317
▁chez	-10.2324
Afrique	-10.2324
responsibilities	-10.2326
▁historique	-10.2338
tric	-10.2347
▁occur	-10.2348
▁sentiment	-10.2348
▁so-called	-10.235
▁Elles	-10.2354
-up	-10.2357
▁économies	-10.2362
▁chemin	-10.2364
▁nouvel	-10.2369
▁monetary	-10.2369
▁parfaitement	-10.2372
ili	-10.2375
▁combating	-10.2375
▁mécanisme	-10.2377
▁suivant	-10.2379
range	-10.2379
▁balanced	-10.2379
▁weeks	-10.2386
▁looking	-10.2386
▁pourront	-10.2396
▁encourager	-10.24
art	-10.24
▁proposer	-10.2404
▁earlier	-10.2405
▁fasse	-10.2408
▁actes	-10.2419
▁cru	-10.2419
▁sometimes	-10.2422
▁suppose	-10.2424
▁PME	-10.2425
équipe	-10.2433
▁abordé	-10.2434
▁Grèce	-10.2434
▁Vo	-10.2434
▁oblige	-10.2439
ified	-10.2441
ê	-10.2441
▁destruction	-10.2441
-t-elle	-10.2441
▁chargé	-10.2449
▁represents	-10.2453
▁safe	-10.2455
▁staff	-10.2463
put	-10.2464
▁dangerous	-10.2469
▁Italy	-10.247
▁contrary	-10.247
▁historic	-10.2473
▁expérience	-10.2476
▁clé	-10.2485
▁internationaux	-10.2485
▁soins	-10.2485
▁recognition	-10.2487
accord	-10.2493
▁progressive	-10.2497
▁appeal	-10.25
▁suit	-10.25
▁Programme	-10.2502
▁launch	-10.2507
▁entirely	-10.2511
▁(NL)	-10.2512
▁avenir	-10.2512
▁network	-10.2519
▁taxation	-10.252
▁Ri	-10.2522
▁créé	-10.2522
▁infrastructures	-10.2523
pol	-10.2531
▁succeed	-10.2531
▁équilibré	-10.2534
▁introduit	-10.2536
▁Ainsi	-10.2541
iez	-10.2543
▁ph	-10.2551
▁compagnie	-10.2556
▁protest	-10.2556
▁introduced	-10.2563
▁becoming	-10.2566
▁Spanish	-10.257
▁rempli	-10.2571
▁l'esprit	-10.2578
▁conflits	-10.258
▁protocole	-10.2582
▁supplémentaire	-10.2585
▁mondialisation	-10.2587
▁concrete	-10.259
▁Th	-10.2594
▁culturelle	-10.2595
▁analysis	-10.2595
▁Cuba	-10.2595
▁types	-10.2606
▁Russian	-10.2613
▁facing	-10.2614
▁aient	-10.2615
▁discours	-10.2617
▁industries	-10.2618
▁négociation	-10.262
▁firstly	-10.2623
▁avaient	-10.2627
▁retour	-10.2628
▁montré	-10.2634
▁solve	-10.2638
▁Nevertheless	-10.2639
▁prevention	-10.264
▁statements	-10.2649
dit	-10.265
▁démocratiques	-10.2653
▁contributions	-10.2656
▁Après	-10.2659
▁servir	-10.2659
col	-10.2666
▁dépens	-10.267
▁espagnol	-10.2674
arm	-10.2674
▁alimentaires	-10.2675
▁reduced	-10.2675
dépendance	-10.2677
▁partis	-10.2679
▁climat	-10.2679
▁appropriée	-10.2679
▁cross-border	-10.2688
▁regrettable	-10.2688
▁passenger	-10.2691
▁actual	-10.2691
▁voice	-10.2692
▁au-delà	-10.2703
▁scandal	-10.2708
ï	-10.2709
▁secret	-10.2709
▁risks	-10.2711
▁custom	-10.2716
▁inquiétude	-10.2723
▁décider	-10.2724
▁durant	-10.2728
▁UK	-10.2729
▁Conférence	-10.2731
▁effectué	-10.2739
▁After	-10.2743
▁negative	-10.2743
▁indique	-10.2744
▁définir	-10.2754
▁rappelle	-10.2757
▁flexibility	-10.2758
▁elements	-10.2762
▁heart	-10.2768
▁liberalisation	-10.2773
▁Messieurs	-10.2784
▁hier	-10.2785
▁formulé	-10.2786
▁soir	-10.2787
▁Malheureusement	-10.2788
▁sous-	-10.2795
han	-10.2796
▁religion	-10.2798
▁Finland	-10.28
▁morning	-10.28
▁Européens	-10.2801
▁livre	-10.2803
▁September	-10.2805
▁plénière	-10.2805
▁immigrants	-10.2816
▁added	-10.2825
▁viol	-10.2829
▁(A5-	-10.2836
▁faudrait	-10.2837
▁rencontre	-10.2841
▁décharge	-10.2841
▁réaction	-10.2841
▁septembre	-10.2846
▁thinking	-10.2847
autorité	-10.2847
▁Lo	-10.2848
▁speed	-10.2851
▁differences	-10.2856
▁stable	-10.286
▁aliment	-10.2862
▁réel	-10.2867
▁disposer	-10.2869
▁modifié	-10.2871
▁Spain	-10.2873
98	-10.2876
▁bénéficier	-10.2878
▁réuni	-10.2878
▁Indeed	-10.2879
▁America	-10.2882
▁aborder	-10.2885
▁réside	-10.2888
▁recommandations	-10.289
▁aims	-10.2892
▁liées	-10.2893
▁j’	-10.2895
▁simplification	-10.2901
▁raisonnable	-10.2909
▁devront	-10.2912
ori	-10.2913
▁matin	-10.2914
▁faudra	-10.2923
Q	-10.2926
▁d'améliorer	-10.2928
▁critical	-10.2929
▁équilibre	-10.2931
▁animals	-10.2941
▁entend	-10.2941
▁Italian	-10.2942
▁demonstrate	-10.2943
▁massive	-10.2951
▁souhaitons	-10.2953
▁avantages	-10.2957
▁stock	-10.2958
▁probably	-10.2962
▁Roumanie	-10.2965
▁body	-10.2972
▁adéquate	-10.2974
▁précise	-10.298
▁conforme	-10.2987
▁avancée	-10.2988
▁parlementaires	-10.299
▁conviction	-10.2993
▁sound	-10.3
▁closer	-10.3004
▁développé	-10.3008
▁criticism	-10.3008
opportunité	-10.3008
▁Afghanistan	-10.3009
▁asking	-10.3015
▁armes	-10.3023
▁compétent	-10.3026
▁Que	-10.3028
▁américain	-10.3029
▁consommateur	-10.3034
▁leaders	-10.3034
▁van	-10.3037
▁pointed	-10.3039
▁fondamentale	-10.3039
▁faisons	-10.3043
▁strongly	-10.3045
▁mechanism	-10.3051
▁else	-10.3059
▁secure	-10.3059
▁seraient	-10.3064
▁réflexion	-10.3072
▁school	-10.3077
▁Aujourd'hui	-10.3085
▁l'une	-10.309
▁avions	-10.3101
ood	-10.3101
▁applies	-10.3103
▁assess	-10.3107
▁prospect	-10.3113
lla	-10.3114
▁exactly	-10.3117
▁d’in	-10.3127
▁recommendations	-10.3127
▁celui-ci	-10.3139
▁journalist	-10.3147
den	-10.3151
▁Procedure	-10.3155
▁revêt	-10.3155
▁concernés	-10.3157
▁acknowledge	-10.3157
▁représentent	-10.3164
▁compar	-10.3165
▁Question	-10.3165
▁élu	-10.3167
▁mandate	-10.3171
individu	-10.3175
rég	-10.3184
roi	-10.3191
▁constitutionnel	-10.3191
▁renewable	-10.3196
▁consacré	-10.3199
▁minutes	-10.3201
30	-10.3206
▁l'initiative	-10.3209
▁build	-10.321
▁November	-10.3212
▁drawn	-10.3216
▁faciliter	-10.3222
▁d'ici	-10.3222
▁discharge	-10.3222
▁milliers	-10.3222
▁loss	-10.3228
cha	-10.3233
▁presque	-10.3236
▁Pact	-10.3248
▁company	-10.3249
orientation	-10.3256
▁Can	-10.3263
▁complexe	-10.3267
▁fu	-10.328
▁reply	-10.3286
▁demandons	-10.3294
▁Premier	-10.3296
▁presse	-10.3297
▁impression	-10.3305
▁auxquels	-10.3306
▁credit	-10.3309
▁novembre	-10.3317
▁submitted	-10.3321
▁médicaments	-10.3322
▁opening	-10.3322
▁aérien	-10.3323
▁parlons	-10.3326
▁refugees	-10.3329
▁mécanismes	-10.3329
▁Pakistan	-10.333
▁constitute	-10.3342
▁!	-10.335
▁withdraw	-10.3351
▁fraude	-10.3356
▁abuse	-10.3366
▁explicit	-10.3372
▁lancé	-10.3376
▁concrète	-10.3388
▁constant	-10.3388
▁agencies	-10.3391
ois	-10.3402
▁PPE-DE	-10.3412
▁Ladies	-10.3418
▁dealt	-10.3426
▁Why	-10.3428
▁networks	-10.343
▁Paper	-10.3432
▁perte	-10.3434
ié	-10.3436
▁reprises	-10.3437
▁distribu	-10.3437
/2001	-10.3442
▁function	-10.3443
▁methods	-10.3447
▁modifier	-10.3451
▁obligatoire	-10.3458
▁traffic	-10.346
▁relate	-10.3461
naire	-10.3463
▁regrette	-10.3464
▁happy	-10.3471
▁500	-10.3474
▁rail	-10.3478
▁vais	-10.348
pon	-10.348
▁s’est	-10.3485
▁énorme	-10.3485
vol	-10.3487
▁professional	-10.3488
▁voyage	-10.349
▁governance	-10.349
▁concentrer	-10.3505
▁degree	-10.3506
▁transform	-10.351
▁wonder	-10.3519
▁MEPs	-10.3523
▁replace	-10.3524
▁1995	-10.3527
▁poste	-10.353
▁chances	-10.3531
▁rapproch	-10.3536
▁mini	-10.3537
▁addressed	-10.3545
▁palestinien	-10.3546
▁pursue	-10.3552
▁Kyoto	-10.3565
▁entièrement	-10.3565
▁examiner	-10.3565
▁putting	-10.3583
▁integrated	-10.3584
▁confrontés	-10.3585
ignor	-10.3586
▁stade	-10.3597
tig	-10.36
▁justifie	-10.3604
▁flexibilité	-10.3606
▁Bulgaria	-10.3614
▁came	-10.3615
▁présentée	-10.3622
▁Bu	-10.3626
▁drive	-10.3627
▁informed	-10.363
▁principalement	-10.3633
▁growing	-10.3635
▁l'argent	-10.3638
▁Kingdom	-10.3647
▁minorités	-10.3653
▁oeuvre	-10.366
▁Even	-10.3661
▁pied	-10.3663
▁New	-10.3671
▁l'action	-10.3673
▁sud	-10.3676
arrêt	-10.3679
▁diversité	-10.3681
▁Middle	-10.3685
▁l'intention	-10.3686
▁l'OMC	-10.3688
▁managed	-10.369
▁moindre	-10.3693
▁Trade	-10.3696
▁plain	-10.3698
▁impliqué	-10.3704
▁logique	-10.3704
Europe	-10.3709
▁considérer	-10.3709
▁lumière	-10.3709
▁limite	-10.371
▁immediately	-10.3712
▁femme	-10.3719
▁contient	-10.3729
▁October	-10.3731
▁consent	-10.374
▁probablement	-10.3745
▁él	-10.3748
▁ahead	-10.3754
▁organised	-10.3755
▁l'ont	-10.3755
▁acteurs	-10.3763
▁mainly	-10.3777
▁Pre	-10.3787
▁Nice	-10.3792
▁sensitive	-10.3792
▁manage	-10.3792
▁d'asile	-10.3792
isent	-10.3793
▁Prime	-10.38
▁Agency	-10.38
▁bio	-10.3805
▁comply	-10.3813
K	-10.3821
▁targets	-10.3823
▁d'emplois	-10.3827
▁évolution	-10.3828
▁gouvernance	-10.3829
▁d'intérêt	-10.3831
▁tentative	-10.3831
▁bat	-10.3832
▁Pourquoi	-10.3842
▁merely	-10.3843
European	-10.3848
▁blanc	-10.3848
▁remove	-10.3853
▁accidents	-10.3855
▁textile	-10.3859
▁majeur	-10.3878
▁deserve	-10.388
▁rejected	-10.388
▁indiqué	-10.3887
▁orientations	-10.3888
▁Strategy	-10.3892
▁l'encontre	-10.3892
▁participate	-10.3892
▁maladies	-10.3893
▁understanding	-10.3897
▁evidence	-10.3898
▁mauvaise	-10.39
▁easy	-10.3901
▁satisfaction	-10.3911
▁finalement	-10.3912
▁resolve	-10.3912
▁counter	-10.3923
▁parliaments	-10.3923
▁separate	-10.3923
▁locales	-10.393
force	-10.393
▁concitoyens	-10.3931
▁appliquer	-10.3934
▁topic	-10.3938
▁drogue	-10.3943
▁concrètes	-10.3946
▁Charter	-10.3955
▁signed	-10.3958
▁fuel	-10.3964
▁culturel	-10.3972
▁Health	-10.3973
▁prêts	-10.3981
▁satisfait	-10.3985
▁profiter	-10.3986
▁limiter	-10.3988
▁recommandation	-10.3997
▁opposé	-10.4004
▁pilier	-10.4005
▁Roma	-10.4012
ized	-10.4018
▁vois	-10.4027
▁Comp	-10.4027
▁31	-10.4029
hold	-10.4034
▁recommendation	-10.4042
▁contains	-10.4042
prendre	-10.4046
04	-10.4046
▁trouvé	-10.4047
▁l’ex	-10.4051
▁enjoy	-10.4056
▁fondamentales	-10.4058
▁Chamber	-10.4058
▁minimal	-10.4058
▁régional	-10.4062
année	-10.4063
▁leading	-10.4069
▁operate	-10.407
▁26	-10.4071
▁scientifique	-10.4077
▁abord	-10.4083
▁Turkish	-10.4084
exploitation	-10.4091
▁parlements	-10.4094
▁mistake	-10.4098
▁enquête	-10.4099
▁oublier	-10.4101
▁commerciales	-10.4102
▁mechanisms	-10.4105
▁préparation	-10.4107
▁repose	-10.411
▁lourd	-10.4112
▁tendance	-10.4114
ö	-10.4121
▁mouvement	-10.4121
▁art	-10.4129
▁accorder	-10.413
ocrat	-10.4131
▁thousands	-10.4131
ssions	-10.4132
▁l'immigration	-10.4135
▁efficacement	-10.4138
▁continuing	-10.4138
▁formal	-10.4147
pass	-10.4149
o-	-10.415
-0	-10.4155
▁Many	-10.416
▁Lu	-10.4162
▁Même	-10.4167
5%	-10.4169
▁ports	-10.4175
agin	-10.4175
▁Va	-10.4176
▁debt	-10.4177
▁ought	-10.4177
▁bénéficie	-10.4182
-cadre	-10.4186
▁permit	-10.419
registre	-10.4193
▁break	-10.4196
▁self-	-10.4201
▁rare	-10.4202
▁argument	-10.4206
▁Comment	-10.4209
▁concret	-10.4216
▁subsidiarité	-10.4224
▁remarques	-10.4236
▁modifications	-10.4239
▁camp	-10.4241
▁lost	-10.4248
▁disposons	-10.4256
▁independence	-10.4259
▁criminalité	-10.4262
▁catégorie	-10.4271
▁l'absence	-10.4271
▁approfondi	-10.4276
▁range	-10.4277
▁d’en	-10.428
▁elected	-10.4291
▁28	-10.4293
▁véhicules	-10.4298
▁nation	-10.4298
can	-10.4304
▁l’on	-10.4309
▁audit	-10.4309
▁terrain	-10.4311
▁enhance	-10.4315
▁voisins	-10.433
▁référendum	-10.4332
V)	-10.4336
▁privée	-10.4342
ccept	-10.4343
méditerranéen	-10.4343
▁J’ai	-10.4344
▁soutient	-10.4346
▁limites	-10.4351
▁rappel	-10.4355
▁preparation	-10.4355
▁scientifiques	-10.436
expérience	-10.4363
▁tient	-10.4373
▁70	-10.4374
▁totally	-10.4378
▁persons	-10.4382
▁subsidiarity	-10.4396
vocat	-10.4398
▁North	-10.4399
▁complète	-10.4402
▁calcul	-10.4405
▁petits	-10.4405
▁elle-même	-10.4411
▁0	-10.4416
▁proche	-10.4418
▁(The	-10.4426
▁touche	-10.4429
▁liberal	-10.4429
▁29	-10.443
▁contain	-10.443
▁warm	-10.4432
▁l’un	-10.4433
▁Qui	-10.4434
▁contraignant	-10.4434
▁cesse	-10.4435
▁d'A	-10.4448
▁revenir	-10.4461
▁croissant	-10.4476
▁regular	-10.4479
In	-10.4481
▁conduite	-10.4485
▁vaste	-10.4488
▁related	-10.4491
▁moi-même	-10.4491
▁failed	-10.4496
▁attirer	-10.4497
▁90	-10.4497
▁African	-10.4499
▁incident	-10.45
▁globalisation	-10.4503
nder	-10.4504
▁lui-même	-10.4507
▁démontre	-10.4508
▁economies	-10.4508
▁territory	-10.4508
▁totale	-10.4513
▁m’	-10.4515
▁path	-10.4516
▁evaluation	-10.452
▁speakers	-10.453
▁passagers	-10.4531
▁linked	-10.4536
appa	-10.4537
▁element	-10.4538
▁d'origine	-10.4547
▁terminer	-10.4554
▁approprié	-10.4555
lut	-10.4555
▁(ES)	-10.4562
▁phénomène	-10.4565
▁cycle	-10.4567
administration	-10.4571
▁SMEs	-10.4571
▁bénéfice	-10.4571
▁conjoint	-10.4571
▁transfert	-10.4577
▁susceptible	-10.4577
▁wishes	-10.4578
▁election	-10.4589
bat	-10.4591
▁govern	-10.4592
lève	-10.4593
▁worked	-10.46
▁families	-10.4604
▁récente	-10.4606
▁grateful	-10.4607
▁division	-10.4608
▁siècle	-10.461
▁favoriser	-10.4612
▁payments	-10.4613
nage	-10.4616
▁1er	-10.4616
▁affairs	-10.4616
▁environnement	-10.4617
termin	-10.4626
É	-10.4628
▁lettre	-10.4628
▁Structural	-10.4631
▁navires	-10.4631
▁involvement	-10.4633
▁membership	-10.4634
▁Monetary	-10.464
▁majeure	-10.464
▁déficit	-10.4643
▁établir	-10.4644
▁mobilité	-10.4646
▁obvious	-10.4649
▁assuré	-10.4649
▁bringing	-10.4654
▁racism	-10.4656
▁cher	-10.4656
▁dirai	-10.4662
▁treaty	-10.4666
▁intérieures	-10.4668
▁opportun	-10.4669
▁involving	-10.4673
▁Van	-10.4675
▁l'avis	-10.4685
▁confront	-10.4686
viv	-10.4688
▁realise	-10.4688
▁lower	-10.4692
▁prétend	-10.4696
▁facilitate	-10.4697
▁Ho	-10.4701
▁technologie	-10.4706
▁s'applique	-10.4709
▁round	-10.4712
▁weapons	-10.4713
▁légitime	-10.4716
▁Alors	-10.4716
▁trait	-10.4718
assure	-10.4722
▁referendum	-10.4725
▁trafficking	-10.4728
élection	-10.4729
▁d'application	-10.4731
▁(RO)	-10.4734
▁Depuis	-10.4734
▁terrible	-10.4734
▁réussite	-10.4734
▁opposed	-10.4749
pprobation	-10.4752
lf	-10.4755
▁getting	-10.4758
▁écologique	-10.4758
▁threaten	-10.4759
▁voire	-10.4763
▁fondée	-10.4769
▁industrielle	-10.477
▁Man	-10.4777
▁agences	-10.4801
▁informé	-10.4802
▁ready	-10.4803
▁Cyprus	-10.4804
▁poursuite	-10.4805
▁perdu	-10.4806
▁Council's	-10.4812
▁évidence	-10.4813
▁ajouter	-10.4815
▁worse	-10.4816
inflation	-10.4829
▁préfér	-10.4832
▁circonstances	-10.4844
▁renouvelables	-10.4848
▁immediate	-10.485
▁truly	-10.485
▁compete	-10.4851
▁dispute	-10.4857
▁terroristes	-10.4866
▁indirect	-10.4868
▁respecté	-10.4874
▁existence	-10.4874
▁relever	-10.4875
▁extension	-10.4877
▁vertu	-10.4879
▁recommend	-10.4891
change	-10.4897
▁déterminer	-10.4899
-C	-10.4899
▁plenary	-10.4908
▁commerciaux	-10.4915
▁supervision	-10.4924
▁tourism	-10.4927
▁accrue	-10.493
▁empêcher	-10.4933
▁protecting	-10.4936
▁électronique	-10.4936
▁oppose	-10.4937
▁concernées	-10.4937
▁échanges	-10.4939
▁changer	-10.4944
▁ravi	-10.4946
▁persist	-10.4949
▁imposé	-10.4949
▁marque	-10.4952
▁organise	-10.4953
▁faced	-10.4959
▁proceed	-10.496
▁nécessite	-10.497
▁s’a	-10.4973
▁gender	-10.4974
▁recognised	-10.4982
▁India	-10.4988
▁contradiction	-10.4995
▁decision-making	-10.4998
▁justement	-10.5006
▁pertinent	-10.5008
▁contraint	-10.5008
▁génération	-10.5008
oyer	-10.5012
▁durée	-10.5013
▁greatest	-10.5014
▁drugs	-10.5016
duct	-10.5021
▁libéral	-10.5021
▁happening	-10.5029
▁According	-10.503
▁arrest	-10.5033
▁véritablement	-10.5035
▁2011	-10.5039
▁paper	-10.5056
cteur	-10.5071
▁Poland	-10.5074
▁block	-10.5077
▁arrangements	-10.508
▁d'urgence	-10.5083
instrument	-10.5091
▁granted	-10.5091
ologie	-10.5092
▁produire	-10.5096
▁starting	-10.5097
▁Ni	-10.5098
▁estimons	-10.511
▁forced	-10.5115
pprovisionnement	-10.5118
▁absence	-10.5121
▁d'emploi	-10.5121
▁negotiate	-10.5124
honorable	-10.5127
▁concert	-10.5137
▁dirigeants	-10.5137
▁insister	-10.5139
▁juillet	-10.514
▁français	-10.5146
▁supérieur	-10.5149
▁generation	-10.5149
▁eye	-10.5151
▁followed	-10.5151
▁disponibles	-10.5152
▁illégale	-10.5156
▁vite	-10.5163
▁salaire	-10.5166
▁diversity	-10.5168
where	-10.517
utilisation	-10.517
▁abus	-10.5171
▁ceux-ci	-10.5175
zo	-10.5177
onie	-10.5178
▁ferroviaire	-10.5178
▁préalable	-10.5178
▁attendre	-10.518
▁progresser	-10.5185
ization	-10.5185
▁inclus	-10.5191
▁distinction	-10.5192
▁entier	-10.5194
▁commence	-10.52
▁covered	-10.5206
▁Maastricht	-10.5207
▁bilateral	-10.5207
▁calendrier	-10.5207
▁Lorsque	-10.5207
▁éventuelle	-10.5208
▁signature	-10.521
▁appoint	-10.521
▁immédiatement	-10.521
▁host	-10.5211
▁minorities	-10.5217
▁July	-10.5225
▁d'amendement	-10.5226
▁pourrions	-10.5226
▁apporte	-10.523
▁devait	-10.5231
▁board	-10.5231
▁investigation	-10.5232
▁augmenter	-10.5236
▁mobility	-10.5236
▁unanimous	-10.5238
▁arise	-10.524
▁cancer	-10.524
▁couvert	-10.5245
évaluation	-10.5246
▁structurelle	-10.5246
05	-10.5247
▁l'amélioration	-10.525
▁avancer	-10.5251
▁declare	-10.5255
▁venu	-10.5259
▁interesting	-10.5261
▁minute	-10.5264
▁d'aujourd'hui	-10.527
▁pillar	-10.527
▁letter	-10.5272
▁Ja	-10.5275
▁bomb	-10.5278
▁month	-10.5289
▁brevet	-10.529
▁PSE	-10.5295
▁USA	-10.5302
cide	-10.5314
▁adopting	-10.5315
▁exerce	-10.5323
▁seeking	-10.5328
▁suffering	-10.5337
▁tonnes	-10.5337
▁Sweden	-10.5341
▁d'éviter	-10.5341
▁mutuelle	-10.5341
ctive	-10.5343
▁patent	-10.535
▁shared	-10.5352
▁utilisation	-10.5358
aï	-10.536
▁l'innovation	-10.5361
▁technologique	-10.537
▁section	-10.5372
▁maladie	-10.5372
▁carefully	-10.5373
▁Avec	-10.5374
▁l'introduction	-10.5374
▁Thirdly,	-10.5377
▁count	-10.5378
▁l'état	-10.5385
▁(EL)	-10.5387
▁ressort	-10.5393
▁presence	-10.5393
▁lorsqu'	-10.5396
▁General	-10.5403
▁science	-10.5403
objectif	-10.5405
▁marin	-10.5407
▁disposé	-10.542
▁l’avenir	-10.5422
▁Pologne	-10.5429
▁Public	-10.5435
▁combine	-10.5452
▁Greek	-10.5455
▁floor	-10.5455
▁release	-10.5455
▁devrons	-10.5459
▁Tel	-10.5461
▁j'aimerais	-10.5465
▁octobre	-10.5481
▁While	-10.5484
▁judge	-10.5488
▁Berlin	-10.5488
▁accident	-10.5488
▁comporte	-10.5488
▁soutenons	-10.5491
▁dommage	-10.5494
▁espace	-10.5501
ED	-10.5504
▁puissions	-10.5504
▁thereby	-10.5504
▁grec	-10.5514
▁autorisé	-10.5514
▁subsidies	-10.5514
2000	-10.5514
▁élargi	-10.5519
▁concentration	-10.5523
ological	-10.5524
▁changed	-10.5524
▁PPE	-10.5529
▁marchandises	-10.5537
▁torture	-10.5542
▁ability	-10.5543
▁diverses	-10.5543
▁suppression	-10.5543
▁suédois	-10.5543
▁communities	-10.5548
▁prête	-10.5549
▁garde	-10.555
mou	-10.5551
▁designed	-10.5558
▁porter	-10.5559
▁detailed	-10.5559
▁Bureau	-10.5563
▁sept	-10.5563
▁parlement	-10.5566
▁ordre	-10.5566
▁démarche	-10.5573
▁judicial	-10.5573
▁viande	-10.5576
▁légale	-10.5581
▁russe	-10.5583
▁ambitieux	-10.5586
▁lit	-10.5587
▁portant	-10.5588
productive	-10.5594
▁200	-10.5595
▁aurons	-10.5595
ieux	-10.5599
▁Troisièmement	-10.5603
▁image	-10.5605
▁eaux	-10.5607
▁Pri	-10.5611
étude	-10.5611
▁Israël	-10.5611
ssons	-10.5619
▁Swedish	-10.5619
▁appreciate	-10.5623
ô	-10.5626
▁multinational	-10.5626
▁harmonise	-10.5633
▁paraît	-10.5639
▁demeure	-10.564
▁clarifie	-10.5646
▁proposing	-10.5652
▁statistiques	-10.566
▁representative	-10.5662
▁rejeté	-10.5662
▁aérienne	-10.5665
▁performance	-10.5668
▁regulate	-10.5669
▁l'évolution	-10.5671
▁logic	-10.5673
▁Rule	-10.5674
▁Auditors	-10.5676
▁J’	-10.5678
▁commis	-10.5678
▁undertaking	-10.5683
▁portée	-10.5683
ût	-10.5687
▁baisse	-10.5692
▁spent	-10.5694
▁officielle	-10.5699
▁deficit	-10.5703
▁banques	-10.5707
▁series	-10.5708
ER	-10.5711
▁planning	-10.5712
▁Suède	-10.5713
▁approval	-10.5713
▁concentr	-10.5714
▁finding	-10.5719
▁poids	-10.572
▁retrouve	-10.5723
▁qu’une	-10.5731
▁inutile	-10.5733
▁règle	-10.5735
▁institutionnel	-10.5742
▁définitive	-10.5743
▁l'opinion	-10.575
▁citizen	-10.575
▁hours	-10.5752
▁binding	-10.5757
▁exactement	-10.576
▁lancer	-10.576
▁correctement	-10.576
▁essentiellement	-10.5761
▁minority	-10.5762
▁Sea	-10.5765
▁signé	-10.5766
▁pénal	-10.5769
▁anyone	-10.5769
▁tension	-10.5775
œ	-10.5777
▁quantité	-10.5785
pplaudissements)	-10.5787
▁suffit	-10.5788
▁naturally	-10.5792
-même	-10.5807
▁reasonable	-10.5812
être	-10.5813
▁passage	-10.5818
▁traditional	-10.5821
▁expected	-10.5822
▁prolong	-10.5823
▁parents	-10.5828
▁prêt	-10.5833
atrice	-10.5845
▁peaceful	-10.5847
▁People'	-10.5848
▁combien	-10.5855
▁environ	-10.5857
▁consumption	-10.5858
▁intensif	-10.5863
▁trouvent	-10.5864
▁otherwise	-10.5865
matic	-10.587
▁offrir	-10.587
▁n'était	-10.5872
▁Europol	-10.5873
▁credibility	-10.5875
▁entreprise	-10.5877
tandis	-10.588
▁d’accord	-10.5881
standing	-10.5884
▁Energy	-10.5889
▁Eastern	-10.5889
▁contrat	-10.5892
▁expliqu	-10.5893
▁attribu	-10.5899
▁implications	-10.5902
▁préparer	-10.5913
▁valid	-10.5913
▁É	-10.5915
▁préserver	-10.5916
ship	-10.5918
▁transactions	-10.5926
▁l’environnement	-10.5943
ât	-10.5948
économ	-10.5949
▁employees	-10.5958
▁d’être	-10.5958
▁Liberal	-10.5964
▁emerge	-10.5966
▁April	-10.5971
▁Tous	-10.5973
▁frais	-10.5975
scrib	-10.5981
▁incorporate	-10.5991
▁destroy	-10.5991
▁examiné	-10.5995
▁immédiat	-10.5998
▁lose	-10.6001
▁reconnais	-10.6008
▁parvenus	-10.6013
▁organisée	-10.6015
2002	-10.602
7/	-10.6029
▁(C	-10.6035
▁inclusion	-10.6038
▁gave	-10.604
ü	-10.6043
ically	-10.6057
▁Bulgarie	-10.6057
▁l'an	-10.6057
▁satisfaisant	-10.6061
▁financer	-10.6067
▁Czech	-10.6068
▁Such	-10.6072
▁amongst	-10.6076
▁religious	-10.6081
▁imagine	-10.6084
▁solide	-10.6096
▁certes	-10.6096
africain	-10.6099
▁constat	-10.6103
▁fortement	-10.6105
▁arrêt	-10.6109
▁accessible	-10.6111
ifier	-10.6115
▁fermement	-10.6115
▁hausse	-10.6116
▁souci	-10.6118
▁Agriculture	-10.6137
▁domestic	-10.6141
▁vaccin	-10.6141
▁indication	-10.6145
▁radio	-10.6145
▁decisive	-10.6148
▁précédente	-10.6162
▁neither	-10.6165
▁politicians	-10.6165
▁regulatory	-10.6168
▁d'adopter	-10.6169
▁d'assurer	-10.6169
▁glad	-10.6169
▁crédibilité	-10.6183
▁eux-mêmes	-10.6186
▁Z	-10.6187
▁organisé	-10.6187
▁entry	-10.6191
▁payer	-10.6194
▁CE	-10.6195
▁jusqu'	-10.6199
▁speaker	-10.6203
▁êtes	-10.6204
▁Israeli	-10.6222
▁Dur	-10.6223
▁restent	-10.6223
atory	-10.6225
▁Only	-10.6229
▁dépasse	-10.6231
▁j'estime	-10.6232
▁reserve	-10.6232
▁hundred	-10.6243
▁volontaire	-10.625
▁voulu	-10.6253
▁Not	-10.6258
▁esprit	-10.626
▁recovery	-10.6271
▁Those	-10.6271
▁Agenda	-10.6289
▁micro	-10.6296
▁tabac	-10.6298
▁transit	-10.6298
▁élaboré	-10.6299
TA	-10.6301
▁started	-10.6304
value	-10.6305
▁viens	-10.6306
▁prior	-10.6308
▁encouraging	-10.6314
▁j'en	-10.6317
rich	-10.6319
important	-10.6324
▁automobile	-10.6324
▁whilst	-10.6324
▁récent	-10.633
▁lies	-10.6341
assistance	-10.6349
▁From	-10.6349
▁cœur	-10.6356
▁distance	-10.6356
▁generally	-10.6359
▁react	-10.6366
▁feed	-10.6376
▁requirement	-10.6388
▁easier	-10.6389
▁participant	-10.6389
▁Yet	-10.6394
▁varie	-10.6401
▁réfléchir	-10.6404
▁States'	-10.6406
▁belong	-10.6406
▁achievement	-10.641
▁signaler	-10.6411
▁sexual	-10.6414
▁reprise	-10.6423
▁commentaires	-10.6424
▁partner	-10.643
▁connaît	-10.6435
▁bien-être	-10.6435
▁hors	-10.6435
▁Du	-10.6439
▁combattre	-10.6444
▁reinforce	-10.645
▁préoccupation	-10.6455
▁Gaza	-10.6457
▁delighted	-10.646
▁viable	-10.6462
quo	-10.6471
▁formula	-10.6477
▁p.m.	-10.6479
▁n'existe	-10.6482
▁assurance	-10.6482
-là	-10.6482
▁flag	-10.6482
▁EC	-10.6484
▁opérationnel	-10.6486
▁Zimbabwe	-10.6489
▁admit	-10.65
▁Pi	-10.6509
▁l'espace	-10.6511
▁moving	-10.6511
quête	-10.6513
▁Western	-10.6515
▁Serbia	-10.6518
▁pacifique	-10.6518
▁Legal	-10.6526
▁reflète	-10.6533
▁scale	-10.6533
▁concentrate	-10.6539
▁Non	-10.654
▁Research	-10.654
▁d’abord	-10.654
▁Quel	-10.6541
▁entière	-10.6541
▁underline	-10.6542
▁welfare	-10.6544
▁usage	-10.6546
▁dehors	-10.6548
long	-10.6549
▁cohérence	-10.6555
▁cohérente	-10.6563
▁legitimate	-10.6566
W	-10.657
99	-10.6572
▁(Le	-10.6573
▁courant	-10.6574
offre	-10.6579
▁intégrée	-10.6579
AC	-10.658
▁volume	-10.6581
▁relance	-10.6581
▁Quelle	-10.6591
▁négatif	-10.6591
▁imposed	-10.6598
▁confident	-10.6599
▁tôt	-10.6599
▁contribué	-10.6606
▁(Applause)	-10.6613
▁Market	-10.6613
▁constitutional	-10.662
▁l'élaboration	-10.6628
▁compatible	-10.6632
▁equally	-10.6634
▁expert	-10.6634
▁dollar	-10.6635
▁revient	-10.6635
▁retrait	-10.6636
▁attendons	-10.6636
▁compliance	-10.6639
▁vente	-10.664
▁J'estime	-10.6643
▁arriver	-10.6649
▁occupe	-10.6657
▁américaine	-10.6658
▁cooperate	-10.6665
▁modernisation	-10.6666
▁Rome	-10.6667
droit	-10.6669
▁retraite	-10.667
▁Chypre	-10.6672
▁l'eau	-10.6675
▁Christian	-10.668
▁spoke	-10.6682
▁télé	-10.6683
▁fut	-10.6683
off	-10.6684
▁dangereuse	-10.6689
▁exposé	-10.6691
▁fonctionnaires	-10.6698
▁suffisante	-10.6701
▁approve	-10.6707
▁submit	-10.6713
▁payment	-10.6716
▁inspection	-10.6718
▁leadership	-10.6731
▁vaut	-10.6736
▁prioritaire	-10.6739
-20	-10.6741
▁century	-10.6742
▁optimis	-10.6748
effect	-10.6748
▁exclusion	-10.675
J	-10.6752
▁qu’un	-10.6753
▁souhaitent	-10.6756
lav	-10.6756
▁Moyen-Orient	-10.6768
▁opérations	-10.6773
▁requis	-10.6779
▁L'Europe	-10.678
▁spending	-10.6782
▁pilot	-10.6784
▁observer	-10.6785
▁Livre	-10.6795
▁licence	-10.6795
▁entendre	-10.6795
▁française	-10.6798
▁conservation	-10.6803
▁resolved	-10.6809
▁medicine	-10.681
▁permettent	-10.681
▁déroule	-10.6817
▁35	-10.6819
-based	-10.6821
▁apparent	-10.6821
▁marge	-10.6821
▁similaire	-10.6828
▁Asia	-10.6829
▁basée	-10.6829
▁convenu	-10.6832
▁absurd	-10.6836
▁devienne	-10.6836
▁forthcoming	-10.6843
▁appropriations	-10.6843
▁arrivé	-10.6844
▁Netherlands	-10.6847
▁apparaît	-10.6847
▁fixer	-10.685
▁truth	-10.6851
▁seven	-10.6853
▁comportement	-10.6857
▁prouve	-10.6871
▁auxquelles	-10.6873
ä	-10.6873
▁constate	-10.6876
▁Copenhague	-10.6877
Euro	-10.6885
▁Action	-10.6886
▁Charte	-10.689
▁tobacco	-10.6892
▁vérifi	-10.6896
▁awareness	-10.6896
▁negotiating	-10.6903
▁utilise	-10.6904
▁c'	-10.6906
▁anticip	-10.6907
▁NATO	-10.6911
▁today's	-10.6913
▁procure	-10.6914
▁supprimer	-10.6915
çant	-10.692
▁Stability	-10.6921
▁systématique	-10.6922
▁Copenhagen	-10.6926
▁électoral	-10.6926
▁moitié	-10.6926
▁interested	-10.693
▁suffisant	-10.6932
▁personally	-10.6933
▁d'Amsterdam	-10.6937
▁intelligent	-10.6941
▁rational	-10.6943
▁labelling	-10.6945
▁garder	-10.6952
analyse	-10.6959
▁guaranteed	-10.6968
octroi	-10.6983
▁violent	-10.6985
▁candidat	-10.6988
ology	-10.6992
vision	-10.6993
▁clarify	-10.6994
▁slow	-10.6995
▁Service	-10.6998
▁character	-10.7002
▁fabric	-10.7017
▁soumise	-10.7031
▁Baltic	-10.7033
▁saving	-10.7033
▁naturel	-10.7042
rust	-10.7047
lais	-10.7049
▁vouloir	-10.7056
▁trading	-10.7059
▁fire	-10.7063
▁explanation	-10.7079
▁vivre	-10.7086
▁Croatia	-10.709
▁numerous	-10.709
▁l'impact	-10.7091
vesti	-10.7091
▁régulière	-10.7094
avantage	-10.7096
▁divide	-10.7098
invite	-10.71
▁defined	-10.7101
▁l'accent	-10.7106
▁Consumer	-10.7109
4/	-10.7112
▁J'aimerais	-10.7113
▁vivent	-10.7113
[	-10.7117
ieuse	-10.7118
▁activité	-10.7119
▁voluntary	-10.7125
▁insuffisant	-10.7133
▁puisqu'	-10.7133
▁wage	-10.7133
▁Canada	-10.7144
organisation	-10.7144
▁débattre	-10.7153
▁actif	-10.7155
▁codécision	-10.716
▁renforcée	-10.716
▁publié	-10.7164
like	-10.7164
▁Organisation	-10.7167
▁identify	-10.7167
▁Aussi	-10.7167
▁ECU	-10.7168
▁posée	-10.7172
▁d'adhésion	-10.7175
▁Tibet	-10.7183
▁carte	-10.7186
▁universal	-10.7187
▁amélioré	-10.7194
▁humain	-10.7199
▁bloc	-10.7203
▁l'échelle	-10.7206
▁alarm	-10.7208
▁sérieusement	-10.721
▁guide	-10.7214
ó	-10.7218
▁associated	-10.7222
▁effectiveness	-10.7228
▁demonstrated	-10.7228
▁personnellement	-10.7229
▁decade	-10.7231
▁associé	-10.7241
▁pêcheurs	-10.7242
▁undermine	-10.7242
▁subi	-10.7248
▁Are	-10.7251
▁coast	-10.7254
▁attract	-10.726
▁Plus	-10.7268
▁pétrole	-10.7269
▁incentive	-10.7269
▁nourri	-10.7277
▁railway	-10.7277
▁Rapport	-10.7286
▁mix	-10.7291
▁register	-10.7296
▁thorough	-10.73
▁vingt	-10.7301
▁farm	-10.7301
▁revision	-10.7306
▁Méditerranée	-10.7308
▁recevoir	-10.7312
article	-10.7313
▁honour	-10.7314
▁Another	-10.7316
▁Vice-President	-10.7316
excellent	-10.7323
▁démocrates	-10.7324
▁révél	-10.7324
▁Head	-10.7325
▁pénale	-10.7325
▁tenter	-10.733
▁Framework	-10.7331
▁Quant	-10.7331
▁connaître	-10.7336
▁High	-10.7339
▁l'augmentation	-10.7342
▁space	-10.7343
▁reaction	-10.7344
omb	-10.7352
▁Lastly	-10.7356
▁adressé	-10.7359
▁spread	-10.7367
▁tchèque	-10.7371
▁written	-10.7372
▁march	-10.7386
▁2013	-10.7391
▁incombe	-10.7391
-on	-10.74
▁functioning	-10.74
▁ultimately	-10.7402
▁average	-10.7407
▁ethnic	-10.7418
▁retain	-10.7423
▁Alliance	-10.7426
▁(COM(	-10.7426
group	-10.743
▁d'obtenir	-10.7434
▁accordée	-10.7438
▁annoncé	-10.7438
▁limitation	-10.7441
▁operators	-10.745
▁celles-ci	-10.745
▁discuté	-10.7451
▁victim	-10.7451
▁imposer	-10.7455
▁Portuguese	-10.7462
▁recycl	-10.7462
▁brief	-10.7467
▁grow	-10.7467
▁contained	-10.7467
▁tried	-10.7469
▁dangereux	-10.7474
▁possède	-10.7474
▁propriété	-10.7474
nom	-10.7475
▁difference	-10.7476
▁partout	-10.7478
mètre	-10.7482
▁technological	-10.7482
▁personnelle	-10.7482
▁Ombudsman	-10.7498
▁flow	-10.75
▁confusion	-10.7502
▁l'histoire	-10.7506
▁significative	-10.7506
▁chapitre	-10.751
▁complémentaire	-10.7511
▁primarily	-10.7522
▁obstacle	-10.7533
ON	-10.7536
▁Pays-Bas	-10.7538
▁pétition	-10.7538
▁concluded	-10.7545
▁gap	-10.7545
▁Financial	-10.7546
▁avril	-10.7546
▁visible	-10.7546
▁naturelles	-10.7553
▁dignité	-10.7559
07	-10.756
annonce	-10.757
▁cross	-10.7571
▁préciser	-10.7572
▁PAC	-10.7578
▁prepare	-10.7583
▁respective	-10.7583
▁protected	-10.7586
▁Trans	-10.7586
érant	-10.7589
▁Austria	-10.7592
▁mentionner	-10.7596
▁justified	-10.76
▁élargissement	-10.7607
▁l'engagement	-10.7611
▁statistics	-10.7611
▁solid	-10.7615
▁overcome	-10.7615
▁Avant	-10.7618
▁dignity	-10.7623
▁universel	-10.7623
▁entitled	-10.7627
▁l'exercice	-10.7635
▁orientale	-10.764
▁...	-10.765
▁1994	-10.7656
▁quart	-10.7656
▁déterminé	-10.7656
▁relativement	-10.7662
▁electronic	-10.7664
▁White	-10.7668
▁problématique	-10.7668
▁bout	-10.7672
▁C'	-10.7676
▁l'évaluation	-10.7682
▁define	-10.7682
▁advocate	-10.7685
▁sentence	-10.7686
í	-10.7696
▁contribuable	-10.7696
▁ajoutée	-10.77
patri	-10.7703
▁promesse	-10.7709
▁appelé	-10.7712
▁gradual	-10.7713
2006	-10.7715
▁?uvre	-10.7716
▁dépit	-10.7721
▁mauvais	-10.7722
▁penalty	-10.7729
▁Despite	-10.7733
▁lobby	-10.7733
▁Lors	-10.7733
▁feu	-10.7734
▁Albania	-10.7742
ij	-10.7742
▁allocated	-10.775
▁push	-10.7754
gène	-10.7756
▁homme	-10.7758
▁adhésion	-10.7758
▁serons	-10.7758
existence	-10.7766
▁handicap	-10.7767
▁leçon	-10.7784
▁hearing	-10.7784
▁sortir	-10.7785
▁migrants	-10.7791
▁substantiel	-10.7795
▁Given	-10.7795
▁intervenir	-10.7799
▁d'autant	-10.7799
▁D'autre	-10.7803
▁permettrait	-10.7805
▁emergency	-10.7807
▁moderne	-10.7809
▁consacre	-10.7816
▁initiale	-10.7819
▁Irlande	-10.782
▁Dutch	-10.782
▁cat	-10.782
▁Treaties	-10.7824
▁clean	-10.7832
SE	-10.7837
▁treated	-10.784
▁complètement	-10.7841
▁répéter	-10.7845
▁Éta	-10.7845
▁Transport	-10.7846
▁Chinese	-10.7851
▁whatever	-10.7863
▁chimique	-10.7865
▁février	-10.7865
▁dumping	-10.7866
▁Georgia	-10.787
▁nevertheless	-10.787
▁firmly	-10.7871
▁sérieuse	-10.7873
▁procéd	-10.7882
▁vulnerable	-10.7886
▁heureuse	-10.7886
pin	-10.789
▁tourist	-10.7892
▁poisson	-10.7895
▁inscrit	-10.7899
▁mène	-10.7899
▁exact	-10.79
▁chemical	-10.7903
▁temporary	-10.7907
▁farming	-10.7919
▁adéquat	-10.7921
▁bit	-10.7926
Autriche	-10.7928
▁consolidation	-10.7932
▁pouvait	-10.7932
▁fast	-10.7935
▁born	-10.7937
▁organes	-10.7942
▁extended	-10.7944
▁détermination	-10.7945
pulsion	-10.7946
▁1990	-10.7949
▁l’ensemble	-10.7951
▁planned	-10.7954
▁vague	-10.7968
▁(HU	-10.797
▁prévenir	-10.797
▁bureau	-10.7971
▁prime	-10.7978
-je	-10.7983
▁latter	-10.7983
▁installations	-10.7984
▁pouvez	-10.7986
▁murder	-10.7995
▁recall	-10.7997
▁Palestine	-10.7999
▁formulation	-10.8001
▁perdre	-10.8003
▁Com	-10.8004
▁Women	-10.8012
▁d'établir	-10.8021
▁s’il	-10.8023
▁February	-10.8025
▁CAP	-10.8025
▁parallèle	-10.8029
▁prohibit	-10.8033
▁formuler	-10.8037
▁siège	-10.8037
▁Every	-10.8043
central	-10.8048
▁Ensuite	-10.805
▁plaisir	-10.805
▁punish	-10.805
▁puissance	-10.805
▁realistic	-10.8053
▁Perhaps	-10.8067
▁somewhat	-10.8071
▁please	-10.8072
▁house	-10.8077
▁l'organisation	-10.8078
▁d'argent	-10.808
▁afford	-10.808
▁agency	-10.8084
▁croire	-10.8084
▁Assembly	-10.8097
▁orateurs	-10.81
▁extérieur	-10.8101
▁portugais	-10.8105
▁vérité	-10.8105
▁répartition	-10.8109
ccident	-10.812
▁directrices	-10.8131
▁négative	-10.8131
mbo	-10.8134
apprécie	-10.8139
▁jusqu’	-10.8148
▁n'aura	-10.8154
▁Here	-10.817
▁participe	-10.8173
▁silence	-10.8174
assassin	-10.8178
▁capitaux	-10.8191
▁l'intérieur	-10.8204
▁soumettre	-10.8214
▁l'approche	-10.8217
▁ethnique	-10.8221
▁modifie	-10.8224
▁conception	-10.8228
▁Fundamental	-10.8229
▁l'avons	-10.823
▁temporaire	-10.8234
impact	-10.8238
▁réaliste	-10.8238
▁insurance	-10.8247
▁More	-10.825
▁subsequent	-10.8251
▁clarification	-10.8255
▁rencontré	-10.8255
▁mou	-10.8262
▁honest	-10.8268
▁constaté	-10.8269
▁Parti	-10.8272
▁voisinage	-10.8273
▁constantly	-10.828
point	-10.8283
identifie	-10.8286
▁montrent	-10.829
▁l'ONU	-10.829
▁recommande	-10.829
▁rédigé	-10.829
▁ONG	-10.8294
▁preparing	-10.8294
PE	-10.8295
▁compared	-10.8295
▁financé	-10.8299
▁réagir	-10.8302
▁highest	-10.8302
▁usual	-10.8305
terror	-10.8308
▁People	-10.8315
tron	-10.8316
▁Concernant	-10.8316
▁génétique	-10.8316
▁operational	-10.8317
▁milieu	-10.832
▁travaillé	-10.8324
▁diploma	-10.8334
stream	-10.8337
▁bref	-10.8338
▁bound	-10.8341
▁unfair	-10.8342
algré	-10.8342
▁property	-10.8345
▁behaviour	-10.8355
▁spoken	-10.8356
▁condamne	-10.8364
▁gone	-10.8371
EA	-10.8374
▁deadline	-10.8377
▁répète	-10.8381
▁vice-président	-10.8381
▁NGOs	-10.8386
▁dynamique	-10.839
▁civilian	-10.8391
▁undoubtedly	-10.8394
▁Report	-10.8397
▁abstain	-10.8408
▁degré	-10.8414
▁trend	-10.8414
▁vin	-10.8419
▁Protection	-10.8421
▁disadvantage	-10.8425
▁revanche	-10.843
▁Doha	-10.8434
▁existantes	-10.8435
▁prennent	-10.8436
▁familial	-10.8438
▁brutal	-10.8439
▁importations	-10.8442
▁d’euros	-10.8443
▁Because	-10.8447
▁Dublin	-10.8447
▁reconnaît	-10.8448
▁Korea	-10.8448
▁absolu	-10.8454
▁crédit	-10.8455
▁300	-10.8455
▁couple	-10.8455
▁programme-cadre	-10.8457
▁l'obligation	-10.8459
▁distort	-10.8463
▁réglementaire	-10.8465
▁urgently	-10.8465
▁determined	-10.8473
▁prospérité	-10.8474
▁latest	-10.8474
▁Hungarian	-10.8478
▁l'Irlande	-10.8478
pliquer	-10.8485
▁expectations	-10.8491
▁fishermen	-10.8496
▁prononcé	-10.8496
▁Japan	-10.8496
▁introducing	-10.85
▁contest	-10.8502
▁announced	-10.8505
▁suffi	-10.8505
▁commencé	-10.8509
▁Pourtant	-10.8511
▁néglige	-10.8527
▁civilisation	-10.8527
▁s'engage	-10.8532
▁charte	-10.8537
▁intégré	-10.8538
▁discipline	-10.854
▁l'ouverture	-10.854
▁conduit	-10.8544
▁préoccupe	-10.8545
▁souveraineté	-10.8545
▁bientôt	-10.8545
▁proceedings	-10.8546
▁precise	-10.8547
▁l'entrée	-10.8558
▁codecision	-10.8562
▁fleet	-10.8567
▁described	-10.8568
▁Any	-10.857
▁défaut	-10.8571
▁construire	-10.8576
▁diminution	-10.858
▁allocation	-10.8581
▁émis	-10.8583
▁joué	-10.8585
▁fédéral	-10.8589
▁witness	-10.8594
▁l'origine	-10.8598
▁prosperity	-10.8598
▁prévoir	-10.8599
▁quote	-10.8608
▁gérer	-10.8609
▁choose	-10.8616
▁taxpayer	-10.8616
▁l'OTAN	-10.862
▁reiterate	-10.862
issons	-10.8621
observation	-10.8627
▁l'unanimité	-10.8629
▁interdit	-10.8631
▁l'époque	-10.8634
▁reconnaissant	-10.8648
▁multilateral	-10.8652
▁studies	-10.8656
▁transposition	-10.8659
▁géographique	-10.8661
▁strategies	-10.8661
▁transformation	-10.8667
▁sauvegarde	-10.867
▁excuse	-10.8674
▁mobile	-10.8679
transfrontalière	-10.8697
1999	-10.8702
▁equ	-10.8707
ject	-10.8713
environnementaux	-10.8715
▁Fisheries	-10.872
▁condamné	-10.872
PA	-10.8725
▁expense	-10.8729
▁Croatie	-10.8733
▁barriers	-10.8733
▁régler	-10.8733
▁d'agir	-10.8733
présent	-10.8742
▁operating	-10.8751
▁president	-10.8751
▁réclame	-10.8751
▁apart	-10.8754
▁agit	-10.8756
▁expliquer	-10.8761
▁menacé	-10.8765
intermédiaire	-10.8774
▁viennent	-10.8783
char	-10.8789
▁ayons	-10.8798
▁pire	-10.8802
▁debating	-10.8803
▁sexuelle	-10.8811
électricité	-10.8815
▁organismes	-10.8816
▁disagree	-10.882
▁timetable	-10.8834
Y	-10.8834
▁briefly	-10.8838
▁n’ont	-10.8838
▁tête	-10.8843
▁quota	-10.8845
▁espoir	-10.8847
▁mental	-10.8857
▁chaîne	-10.8865
▁israélien	-10.887
▁kept	-10.887
▁expose	-10.8873
▁débattu	-10.8879
▁L'UE	-10.8879
▁échange	-10.8887
▁exemption	-10.8894
▁relie	-10.8895
▁coordinated	-10.8898
▁Protocol	-10.8902
▁néerlandais	-10.8902
▁travaillent	-10.8903
▁sincèrement	-10.891
▁flotte	-10.8911
▁Député	-10.8944
▁scrutin	-10.8948
▁innovative	-10.8948
▁sovereignty	-10.8949
▁intensive	-10.8953
▁buy	-10.8958
▁Time	-10.8959
terinstitutional	-10.8962
▁suscite	-10.8962
▁d'initiative	-10.8972
▁médiateur	-10.8976
▁vivant	-10.8976
▁tente	-10.8979
▁perform	-10.8984
▁considérons	-10.8986
assemblée	-10.899
▁parliament	-10.8998
▁décennie	-10.9004
▁D'un	-10.9004
▁interdiction	-10.9008
▁equipment	-10.9009
]	-10.9013
▁causé	-10.9014
▁eight	-10.9017
▁coherent	-10.9018
▁published	-10.9019
EU	-10.9021
accélérer	-10.9023
▁interpretation	-10.9024
▁comparable	-10.9026
▁Congo	-10.9031
▁Arab	-10.9035
▁l'Afrique	-10.9036
▁Patten	-10.9046
▁annex	-10.9046
▁moyenne	-10.9049
▁extensive	-10.9051
▁J'en	-10.9057
▁2012	-10.9065
▁room	-10.9065
▁d'avis	-10.9065
▁pain	-10.907
work	-10.9071
▁identity	-10.9074
▁ressortissants	-10.9088
engagement	-10.9094
▁arriv	-10.91
▁produis	-10.9103
▁select	-10.9107
▁Employment	-10.9112
▁témoigne	-10.9112
▁locaux	-10.9117
▁protégé	-10.9121
▁perfectly	-10.9123
▁electricity	-10.9145
▁restore	-10.9149
▁ALDE	-10.9159
▁Solana	-10.9159
▁denrées	-10.9159
ù	-10.9163
▁Instead	-10.9168
▁strike	-10.9173
▁alter	-10.9176
▁united	-10.9177
▁invité	-10.9179
▁sanction	-10.9181
▁ongoing	-10.9193
▁avancé	-10.9195
▁bâtiment	-10.9197
▁incapable	-10.9197
▁undertaken	-10.9201
▁urgency	-10.9202
▁Common	-10.9207
▁restructuring	-10.9216
▁vivement	-10.9221
▁partenaire	-10.9222
▁l’aide	-10.9239
▁abolish	-10.924
▁l’accord	-10.9241
▁largest	-10.9245
▁shadow	-10.9249
▁felt	-10.9249
▁mobilise	-10.9249
▁coordinate	-10.9253
▁dependent	-10.9256
▁l'Organisation	-10.9259
▁décide	-10.9264
▁explication	-10.9266
▁envisagé	-10.9273
▁justification	-10.9279
ologique	-10.9284
-year	-10.9287
▁interpret	-10.9291
▁restructuration	-10.9292
▁endeavour	-10.9302
▁seuil	-10.9307
▁libre-échange	-10.9311
▁permette	-10.9315
▁centaines	-10.9316
▁frontière	-10.9319
▁eliminate	-10.9321
▁examen	-10.9321
▁tangible	-10.9331
▁partisan	-10.9336
▁occidental	-10.935
▁Plan	-10.935
exige	-10.9357
▁determination	-10.937
▁d'utiliser	-10.9379
▁l'existence	-10.9381
▁systematic	-10.9393
▁fondement	-10.9397
▁negotiation	-10.9398
▁chinois	-10.9408
▁laissé	-10.9414
▁intéressé	-10.9418
▁matériel	-10.9418
▁délicat	-10.9428
▁careful	-10.9428
AR	-10.9434
▁feature	-10.9437
▁understood	-10.9437
▁wealth	-10.9438
▁exportations	-10.9438
▁commit	-10.945
▁complement	-10.9451
▁ajout	-10.9457
▁d'association	-10.9461
▁exhaust	-10.9461
▁prompt	-10.9464
▁répercussions	-10.9471
▁error	-10.9471
▁changing	-10.9471
▁crainte	-10.9476
▁s'impose	-10.9478
▁occupation	-10.9486
▁taille	-10.9492
▁Bosnia	-10.9496
▁organization	-10.9497
▁connais	-10.9498
▁accroître	-10.9501
▁régi	-10.9504
▁stabilisation	-10.9505
▁Under	-10.9507
▁piece	-10.9511
▁alloué	-10.952
emploi	-10.9535
▁VAT	-10.9545
▁valuable	-10.955
▁d'atteindre	-10.9555
▁drug	-10.9556
▁composition	-10.9556
▁disposal	-10.9559
▁medical	-10.9565
▁hongrois	-10.9579
▁moteur	-10.9589
▁inadequate	-10.9594
▁provenance	-10.9594
▁provenant	-10.9596
▁significance	-10.9599
▁résulte	-10.9604
▁approuver	-10.9609
▁étendu	-10.9609
▁Cooperation	-10.9614
▁provoque	-10.9619
▁d’action	-10.9621
mark	-10.9626
▁plaid	-10.9635
▁trou	-10.9637
▁Democrat	-10.9641
▁1992	-10.9643
▁Food	-10.9644
▁Ashton	-10.9653
▁boost	-10.9654
▁clandestin	-10.9658
▁extraordinaire	-10.9658
▁preserve	-10.9658
▁inférieur	-10.9663
▁Austrian	-10.9667
▁applicant	-10.9668
▁simplify	-10.9673
▁transfrontalier	-10.9678
▁referring	-10.9679
▁brièvement	-10.9683
▁multilatéral	-10.9683
▁driving	-10.9688
▁électeurs	-10.9688
▁destination	-10.9689
▁habitants	-10.9691
▁Will	-10.9698
▁suspect	-10.9708
▁devient	-10.9713
▁individuelle	-10.9713
▁connaissons	-10.9714
▁Est	-10.9714
opération	-10.9718
▁absolute	-10.9724
▁tragic	-10.9728
▁augmente	-10.9737
▁remarquable	-10.9738
▁37	-10.974
▁settlement	-10.9742
▁reprendre	-10.9745
▁Representative	-10.9753
▁Roms	-10.9755
▁renforcé	-10.9758
▁satisfactory	-10.9758
▁breach	-10.9758
merge	-10.9758
▁Fischler	-10.9773
▁Control	-10.9778
▁motor	-10.9787
▁urban	-10.9789
▁stake	-10.9789
▁TVA	-10.9793
▁National	-10.9794
▁Schulz	-10.9809
▁Verheugen	-10.9809
▁l'Agence	-10.9809
▁Quand	-10.9814
▁levée	-10.9818
▁Internal	-10.9819
▁détaillée	-10.9824
▁renforce	-10.9825
▁satellite	-10.9829
▁n°	-10.9829
▁sustainability	-10.9829
▁qu’en	-10.983
▁teach	-10.9834
▁primordial	-10.9839
▁Géorgie	-10.9839
▁protocol	-10.984
▁adult	-10.9841
▁l'Est	-10.9844
ntergovernmental	-10.9847
▁télévision	-10.9849
gard	-10.985
▁(vote)	-10.9854
▁remplacer	-10.9859
▁GUE/NGL	-10.9869
▁soyons	-10.987
▁prudent	-10.9874
▁Serbie	-10.989
▁frequent	-10.9895
▁l'impression	-10.9895
▁B5-	-10.9895
▁Centre	-10.9901
▁page	-10.9905
▁placé	-10.9905
▁urgence	-10.9906
06	-10.9906
▁Over	-10.9919
▁Second	-10.9924
▁democrat	-10.9925
▁envoyé	-10.9925
▁Comité	-10.9926
▁l’emploi	-10.9926
▁duquel	-10.9926
▁severe	-10.9928
▁primary	-10.993
▁daily	-10.993
▁attentes	-10.9931
▁italien	-10.9934
▁Za	-10.9935
▁milk	-10.9936
▁War	-10.9939
ajustement	-10.9948
▁restrictive	-10.9951
▁obligé	-10.9951
▁television	-10.9951
▁Thursday	-10.9961
▁arrêté	-10.9962
▁trouble	-10.9967
▁Brok	-10.9973
▁partagé	-10.9974
▁évaluer	-10.9977
▁GDP	-10.9982
amélioration	-10.9983
▁introduire	-10.9987
▁Before	-10.9987
▁root	-10.9987
▁Northern	-10.9997
▁somme	-11.0002
▁élaborer	-11.0002
▁libéraux	-11.0007
▁disappear	-11.0007
▁built	-11.0028
▁enregistré	-11.0028
▁urbain	-11.0028
▁transmis	-11.0029
▁Britain	-11.0038
▁Safety	-11.0044
▁Timor	-11.0044
▁remettre	-11.0049
▁représentation	-11.0054
▁Verts/ALE	-11.0059
▁l'interdiction	-11.0065
▁Stockholm	-11.0069
▁stay	-11.0074
▁Where	-11.0095
▁derrière	-11.0101
▁determine	-11.0103
▁inclure	-11.0106
▁machine	-11.0121
▁turc	-11.0122
fou	-11.0131
▁Santer	-11.0144
▁procès	-11.0153
▁participé	-11.0158
▁External	-11.0163
▁aviation	-11.0165
▁20%	-11.0168
▁elsewhere	-11.0174
▁prenant	-11.0182
▁coopérer	-11.0184
▁Regional	-11.0189
▁medium	-11.0195
▁S'il	-11.0195
▁VI	-11.0201
▁Tampere	-11.0215
motion	-11.0217
▁phrase	-11.0221
▁Work	-11.0221
▁dérogation	-11.0237
▁d'émission	-11.0247
▁postpone	-11.0248
▁flux	-11.0251
▁bilatéral	-11.0252
▁geographical	-11.0252
▁judgment	-11.0252
▁permettront	-11.0252
▁satisfaire	-11.0258
gression	-11.0262
▁possibly	-11.0263
▁finish	-11.0266
▁profondément	-11.0268
▁quasi	-11.0279
▁generate	-11.0279
▁augmenté	-11.0284
▁sévère	-11.0289
▁découle	-11.0289
▁régionaux	-11.0293
pêche	-11.0296
▁Without	-11.03
▁satisfied	-11.03
▁treat	-11.0304
▁bénéficiaire	-11.0305
▁préparé	-11.0306
▁Consequently,	-11.0321
▁l'examen	-11.0321
▁team	-11.0322
▁running	-11.0323
K)	-11.0326
▁cheap	-11.0327
européen	-11.0335
▁clarté	-11.0337
▁Donc	-11.0337
▁Personne	-11.0342
▁gauche	-11.0342
▁background	-11.0348
▁football	-11.0348
▁routier	-11.0348
▁opérateurs	-11.0353
▁religieuse	-11.0353
▁l'opposition	-11.0353
éclair	-11.0364
▁distinct	-11.0367
▁spécul	-11.0369
▁opposite	-11.0374
▁enforcement	-11.0385
▁bureaucratie	-11.039
▁marginal	-11.0395
▁caractéristique	-11.0396
▁l’industrie	-11.0398
▁démontré	-11.0401
▁kilo	-11.0407
▁himself	-11.0412
▁fill	-11.0413
▁mobilisation	-11.0417
▁strength	-11.0419
inclusion	-11.0419
▁représenté	-11.0423
▁compulsory	-11.0428
▁identified	-11.0428
▁l'ancien	-11.0448
▁spend	-11.045
▁traditionnelle	-11.0473
▁prisoners	-11.0474
▁afternoon	-11.0493
▁histoire	-11.0499
▁argue	-11.0501
▁differ	-11.0503
▁qualifiée	-11.0506
▁flood	-11.051
▁Thus	-11.0511
▁BSE	-11.0512
▁polonais	-11.0531
▁psych	-11.0531
▁légal	-11.0537
▁possibilities	-11.0547
▁chairman	-11.0547
▁complicated	-11.0552
▁bilan	-11.0554
▁privatisation	-11.0558
▁trace	-11.0561
▁Hong	-11.0565
▁Irak	-11.0565
▁foot	-11.0569
▁intervene	-11.0571
▁societies	-11.0579
▁ultérieur	-11.059
▁dynamic	-11.059
▁trouvons	-11.059
▁détriment	-11.059
▁belge	-11.0591
▁PIB	-11.0596
▁Qu'	-11.0596
▁spite	-11.0596
▁bloqu	-11.0597
gram	-11.0597
▁refuge	-11.0598
▁entrave	-11.06
▁danois	-11.0601
▁criticise	-11.0601
▁l'indépendance	-11.0609
▁privilégi	-11.0612
▁sanitaire	-11.0618
▁séparé	-11.0629
▁(CS)	-11.0634
▁déployé	-11.0634
▁J’espère	-11.064
▁Grande-Bretagne	-11.0645
▁Having	-11.0645
▁autrichien	-11.0667
▁d’entre	-11.0671
▁formule	-11.0672
▁mettent	-11.0672
▁Galileo	-11.0684
▁qu'aucun	-11.0684
▁length	-11.0684
▁infringement	-11.0689
▁l'Ukraine	-11.0689
▁physique	-11.0695
▁époque	-11.0695
▁franchi	-11.0698
▁provoqué	-11.07
▁intégration	-11.0706
▁intellectual	-11.0711
▁poorest	-11.0712
certain	-11.0714
▁species	-11.0717
▁l’article	-11.0724
institutionnel	-11.0725
▁definitely	-11.0728
▁worldwide	-11.0728
▁sugar	-11.0728
▁multiple	-11.0728
▁ratified	-11.0733
▁d'écus	-11.0734
▁d'accès	-11.0739
Israël	-11.0742
▁purely	-11.0744
▁Bosnie	-11.075
▁compréhension	-11.075
▁communiste	-11.076
▁southern	-11.0761
▁d'intégration	-11.0761
▁diplomatic	-11.0768
▁Hungary	-11.0772
▁Aucun	-11.0773
▁conduire	-11.0778
▁belief	-11.0783
▁transatlantique	-11.0783
▁Danish	-11.0783
▁proof	-11.0783
▁Home	-11.0785
▁dirige	-11.0788
▁considérant	-11.0789
▁argent	-11.079
▁sorry	-11.08
▁catch	-11.0801
▁extreme	-11.0802
initi	-11.0804
▁1993	-11.0822
▁channel	-11.0822
▁tragedy	-11.0828
▁crains	-11.0828
▁diplomatique	-11.0831
▁Belgian	-11.0833
▁corpor	-11.0839
▁Just	-11.0844
compréhensible	-11.0845
▁Bush	-11.0847
▁green	-11.085
▁biologique	-11.0851
▁confrontée	-11.0852
▁l’importance	-11.0856
▁marqué	-11.0856
▁significatif	-11.0861
▁inspect	-11.0865
▁forêts	-11.0869
▁facilities	-11.0873
▁quinze	-11.0873
▁s'avère	-11.0878
▁Sommet	-11.0878
▁heavy	-11.0878
▁innocent	-11.0878
▁whereby	-11.0878
▁immense	-11.0884
▁openness	-11.0886
▁connect	-11.0892
▁scène	-11.0895
▁Martin	-11.0905
▁désastre	-11.0906
human	-11.0906
▁(Christian	-11.0918
▁poursuivi	-11.0918
▁liquid	-11.0918
▁entrepreneurs	-11.0927
▁complain	-11.0928
▁d'apporter	-11.0929
▁Lithuania	-11.094
▁préoccupé	-11.0946
▁Corée	-11.0946
▁Barcelone	-11.0951
▁latine	-11.0956
▁Partnership	-11.0957
▁corps	-11.0958
▁horizontal	-11.0963
▁lacunes	-11.0969
purement	-11.0971
tergovernmental	-11.0971
▁Barcelona	-11.0974
▁blood	-11.098
▁expand	-11.098
▁agents	-11.0991
▁Hamas	-11.0998
▁Global	-11.1003
▁Verts	-11.1003
▁Subject	-11.1008
▁L'objectif	-11.1008
▁part-session	-11.1014
▁harmful	-11.1017
▁prisonniers	-11.1025
▁Culture	-11.1025
▁planète	-11.1027
▁Polish	-11.1031
▁handicapées	-11.1041
▁convaincre	-11.1042
▁neutral	-11.1048
▁sphere	-11.1048
▁fragment	-11.1054
▁worst	-11.1054
▁serre	-11.1059
▁Belgium	-11.1065
▁Japon	-11.1066
▁pencher	-11.1068
▁advertising	-11.1071
▁surmonter	-11.1077
▁warning	-11.1082
▁discutons	-11.1088
▁2007-2013	-11.1094
▁Peut-être	-11.1094
▁digital	-11.1094
▁devenue	-11.1096
▁développ	-11.1097
▁bancaire	-11.1106
▁minor	-11.111
▁skills	-11.1111
▁(La	-11.1111
▁censure	-11.1111
▁initiate	-11.1114
▁intégrer	-11.1117
▁italienne	-11.112
▁solely	-11.1123
▁producing	-11.1128
▁bienvenue	-11.1129
▁minorité	-11.113
▁Saddam	-11.1134
▁phenomenon	-11.1134
▁maintenu	-11.1134
▁retenu	-11.1135
▁accueilli	-11.1138
▁Ju	-11.1139
▁télécommun	-11.114
▁prétexte	-11.1146
▁foremost	-11.1157
▁suspension	-11.1162
▁richesse	-11.1163
▁précédemment	-11.1169
instauration	-11.118
ET	-11.1181
▁easily	-11.1186
▁familiar	-11.1198
▁valable	-11.1199
▁d’État	-11.1204
▁enabling	-11.1209
+	-11.1221
▁couvre	-11.1225
▁déplore	-11.1227
▁prevail	-11.1227
▁(LT	-11.1233
▁compétitive	-11.1233
▁légitimité	-11.1238
▁tragédie	-11.1256
▁vide	-11.1263
▁décrit	-11.1268
▁remerciements	-11.1268
▁l'auto	-11.1271
▁l’État	-11.1273
▁reveal	-11.1274
▁advice	-11.1279
équ	-11.1283
/2003	-11.1291
▁patrimoine	-11.1297
▁manufacturers	-11.1298
▁heritage	-11.132
▁infect	-11.1324
▁Egypt	-11.1326
arbitr	-11.1337
▁l’adhésion	-11.135
▁Hongrie	-11.135
itarian	-11.1353
▁carburant	-11.1356
▁jugé	-11.1362
▁reliable	-11.1362
▁(FI	-11.1373
▁Growth	-11.1379
▁auparavant	-11.1379
▁considerably	-11.1397
▁exceed	-11.1397
▁chapter	-11.1409
▁avéré	-11.1411
▁Belgique	-11.1427
▁bureaucracy	-11.1432
▁donor	-11.1441
▁servi	-11.1449
▁démographique	-11.145
▁shape	-11.1462
▁lift	-11.1463
▁tribunal	-11.1468
▁quotidienne	-11.1473
▁s'assurer	-11.148
▁Objet	-11.1486
▁alcohol	-11.1492
▁tragique	-11.1492
▁Moldova	-11.1498
▁tiendra	-11.1498
▁d'expression	-11.1501
-vous	-11.1502
intention	-11.1503
▁l'internet	-11.1504
▁certifi	-11.151
▁repris	-11.1512
-related	-11.1522
▁dramatic	-11.1522
▁connaissent	-11.1522
▁consolidate	-11.1528
▁clarity	-11.1528
▁await	-11.1529
▁préférence	-11.1545
▁médecin	-11.1546
▁persuade	-11.1546
▁l'instant	-11.1552
▁flight	-11.1557
▁affront	-11.1582
▁appartient	-11.1588
▁c'était	-11.16
▁profil	-11.1601
▁nettement	-11.1613
▁physical	-11.1618
▁black	-11.1618
▁absent	-11.1618
▁administratif	-11.1618
▁legitimacy	-11.163
▁picture	-11.163
▁ratifié	-11.163
institutionnelle	-11.1631
▁Equal	-11.1636
▁transmission	-11.1642
▁rang	-11.1646
▁simplifier	-11.1661
▁l’énergie	-11.1667
▁book	-11.1677
▁fragile	-11.1679
▁linguistique	-11.1679
▁Certes	-11.1679
▁consequence	-11.1685
▁component	-11.1685
▁prenne	-11.1689
▁après-midi	-11.1691
▁biggest	-11.1691
▁préjudice	-11.1703
▁eastern	-11.1709
▁constructif	-11.1714
▁ECB	-11.1717
-free	-11.1722
▁beef	-11.1722
enseigne	-11.1725
▁night	-11.1728
▁willingness	-11.1728
▁unnecessary	-11.1734
▁écoles	-11.1734
aspect	-11.1735
▁couvrir	-11.1738
▁Macedonia	-11.174
▁navigation	-11.1752
2004	-11.1757
▁espère	-11.1758
▁l’élargissement	-11.1771
▁empêche	-11.1778
▁Kinnock	-11.1783
▁BCE	-11.1783
▁s'agissait	-11.1795
▁summer	-11.1804
▁detriment	-11.181
▁applaud	-11.1814
▁l’économie	-11.1814
▁recettes	-11.1814
▁unilateral	-11.182
▁d'échange	-11.1822
▁Civil	-11.1826
▁priv	-11.1836
▁externe	-11.1838
▁Madrid	-11.1845
▁evident	-11.1851
▁Baltique	-11.1857
▁crédible	-11.1876
▁recourir	-11.1882
▁perfect	-11.1886
▁straight	-11.1888
▁d'auto	-11.1894
▁contrôlé	-11.1894
▁espérer	-11.19
▁séjour	-11.1913
▁client	-11.1913
▁l'intervention	-11.1919
▁écart	-11.1921
ppuyer	-11.1932
▁monopole	-11.1932
▁utmost	-11.1938
▁i.e.	-11.1938
▁MM.	-11.1939
▁Authority	-11.195
▁d'appliquer	-11.195
▁dispositif	-11.195
▁interfere	-11.1956
▁Danemark	-11.1963
▁fictif	-11.1963
▁construct	-11.1965
extension	-11.1971
▁Like	-11.1973
▁quatrième	-11.1975
▁d'augmenter	-11.1982
Européen	-11.1989
▁ruling	-11.1994
▁quelconque	-11.2007
▁Denmark	-11.2019
▁conçu	-11.2019
▁ecological	-11.2026
▁l’heure	-11.2026
▁healthcare	-11.2026
▁stimuler	-11.2038
▁insufficient	-11.2057
▁mother	-11.2062
▁greenhouse	-11.207
▁identique	-11.207
▁citizenship	-11.207
flex	-11.2074
▁infraction	-11.2082
▁garantissant	-11.2084
▁supplementary	-11.209
▁Joint	-11.2091
▁Slovakia	-11.2091
▁abolition	-11.2095
▁changé	-11.2114
▁étrangers	-11.2115
▁bureaucratique	-11.2121
apprentissage	-11.2127
▁aspirations	-11.2133
▁revend	-11.2158
▁sustain	-11.2159
▁banana	-11.2159
ough	-11.2163
▁extrême	-11.2164
▁durabilité	-11.2166
▁Quoi	-11.2171
▁subsiste	-11.2178
▁afraid	-11.2184
▁privilege	-11.2184
▁instamment	-11.2191
▁transnational	-11.2191
▁Nigeria	-11.2191
▁battle	-11.2191
▁voudrions	-11.2204
▁prestation	-11.221
▁jusqu'ici	-11.2211
▁cease	-11.2214
▁d’avoir	-11.2214
▁d'immigration	-11.2216
▁l'Espagne	-11.2216
▁threshold	-11.2216
▁concrétise	-11.2229
▁remédier	-11.2229
▁plafond	-11.2236
▁command	-11.2236
▁honte	-11.2248
▁condamnation	-11.2248
▁everybody	-11.2248
▁souffrance	-11.2248
▁d’information	-11.2249
▁espèces	-11.225
▁Puis	-11.226
▁faiblesse	-11.2276
▁pouvant	-11.2281
▁watch	-11.2281
▁incidence	-11.2281
▁échec	-11.2281
▁pourcentage	-11.2281
▁l'avez	-11.2288
▁appris	-11.2294
▁turque	-11.2294
▁chaleureusement	-11.2307
▁(Parliament	-11.232
▁excluded	-11.232
▁Burma	-11.2326
▁fermeture	-11.2329
▁Slovenia	-11.2333
▁C4-0	-11.2333
▁citoyenneté	-11.2339
▁demonstration	-11.2346
▁Blair	-11.2352
▁Tourism	-11.2352
▁situé	-11.2356
▁massacre	-11.2365
▁leaving	-11.2367
▁évolue	-11.2372
▁electoral	-11.2378
▁treaties	-11.238
▁bureaucratic	-11.2385
▁l'exclusion	-11.2398
▁evaluate	-11.2404
▁soulève	-11.2406
▁shift	-11.2411
▁l'enseignement	-11.2411
▁Follow	-11.2417
▁l'harmonisation	-11.2417
▁ordinary	-11.2424
▁vitesse	-11.2424
▁stipulat	-11.2437
▁entail	-11.2438
▁ambitieuse	-11.2457
▁York	-11.2457
▁inévitable	-11.2457
▁Industry	-11.2463
▁voulais	-11.2463
▁suppos	-11.2471
▁blame	-11.2478
▁calm	-11.2487
exception	-11.2507
▁Milosevic	-11.251
▁pousse	-11.2512
tribution	-11.2514
▁guère	-11.2516
▁Yugoslavia	-11.2518
▁résistance	-11.2523
▁shortcomings	-11.2523
ifiant	-11.2526
▁struggle	-11.2529
▁Tunisia	-11.2536
▁credible	-11.2536
▁pluralism	-11.2543
approche	-11.2543
▁voyons	-11.2545
▁aujourd'	-11.2549
▁dramatique	-11.2549
▁recognize	-11.2549
▁disabled	-11.255
▁patient	-11.2553
▁Frontex	-11.2556
▁appui	-11.2563
▁traduit	-11.2569
▁contrast	-11.2569
▁prenons	-11.2571
▁occidentaux	-11.2576
▁rigid	-11.2576
▁match	-11.2576
▁Déclaration	-11.2589
stitutionnelles	-11.2591
▁qu'avec	-11.2596
▁unanime	-11.2596
▁l’égard	-11.2603
▁undertake	-11.2604
▁distorsion	-11.2609
▁revised	-11.2616
▁franc	-11.2617
▁maxim	-11.262
▁necessarily	-11.2623
▁possess	-11.2623
▁Office	-11.2623
CR	-11.2625
▁ethical	-11.2627
▁pleasure	-11.2636
▁Grâce	-11.2649
▁exempt	-11.2656
▁réservé	-11.2656
▁entamé	-11.2656
▁complaints	-11.2658
▁numérique	-11.2663
▁diagnos	-11.2669
introduction	-11.2687
▁federal	-11.269
▁investigate	-11.269
▁Macédoine	-11.2696
▁shock	-11.2696
▁Free	-11.2706
cultural	-11.2714
▁d'intervention	-11.2723
▁repeatedly	-11.273
▁étions	-11.2732
▁engine	-11.2733
▁veto	-11.2744
▁Palestiniens	-11.275
▁discover	-11.275
▁d'aucun	-11.2757
▁embargo	-11.2757
▁l’objet	-11.2757
▁shame	-11.2764
▁fresh	-11.2764
▁instruct	-11.2768
▁l'Irak	-11.2771
architect	-11.2784
▁sacrifice	-11.2784
ecommunications	-11.2805
▁a.m.	-11.2807
û	-11.2808
▁l'acquis	-11.2812
▁critère	-11.2815
migration	-11.2816
▁coordonner	-11.2818
▁constamment	-11.2825
▁fusion	-11.2828
▁affaibli	-11.2832
▁embryo	-11.2838
▁biodiversité	-11.2846
▁engendre	-11.2846
placing	-11.2846
▁Hussein	-11.2866
▁salariés	-11.2866
▁collaborer	-11.2873
▁frappé	-11.2873
▁s'oppose	-11.2873
▁Helsinki	-11.288
▁unemployed	-11.288
environnement	-11.2886
▁Freedom	-11.2887
▁accueil	-11.2889
▁déterminant	-11.2901
▁tariff	-11.2907
▁schedule	-11.2921
▁biodiversity	-11.2935
▁widespread	-11.2935
autonomie	-11.2935
▁Therefore	-11.2938
▁automatique	-11.2942
▁l'affaire	-11.2942
▁acquire	-11.2942
▁intense	-11.2943
▁transpose	-11.2962
▁transitoire	-11.2963
▁d'introduire	-11.2976
▁tough	-11.2982
▁printemps	-11.2983
▁précaution	-11.2983
engager	-11.2993
▁pluriannuel	-11.2997
▁arabe	-11.3005
▁encouragé	-11.3018
▁Américains	-11.3018
▁suggère	-11.3018
▁trompe	-11.3018
énorme	-11.3024
▁Michel	-11.3032
▁penalties	-11.3032
▁percentage	-11.3032
▁rétablir	-11.3033
▁Slovaquie	-11.3039
▁instaurer	-11.3039
▁constitué	-11.3046
▁swift	-11.306
▁d'avance	-11.3067
▁L’Union	-11.3074
▁Washington	-11.3074
▁législature	-11.3081
▁octroyé	-11.3081
▁foster	-11.3081
▁unfortunate	-11.3085
▁club	-11.3088
▁douanière	-11.3095
▁ratify	-11.3095
▁éthique	-11.3095
structure	-11.3101
▁category	-11.3102
▁l’occasion	-11.3102
▁d'enquête	-11.3104
▁transatlantic	-11.3109
▁unilatérale	-11.3109
▁milliard	-11.311
▁subsidi	-11.3116
▁coalition	-11.3123
▁nous-mêmes	-11.3127
▁alliance	-11.3138
installation	-11.3141
▁légère	-11.3144
▁Laeken	-11.3158
▁broadcast	-11.3158
▁track	-11.3158
▁l'exemple	-11.3165
▁EMU	-11.3172
▁Geneva	-11.3172
espèce	-11.3178
▁entraîné	-11.3179
▁tackling	-11.3179
▁tiré	-11.3184
▁apparu	-11.3186
▁occupé	-11.3194
▁enceinte	-11.3194
▁éloign	-11.3194
▁Espagne	-11.3201
▁terminé	-11.3204
▁critiqu	-11.3214
▁OLAF	-11.3222
&#x02BC;	-11.3229
▁uncertainty	-11.3229
▁derogation	-11.3234
▁English	-11.3236
▁became	-11.3236
▁préoccupant	-11.3243
▁libération	-11.3243
▁gratitude	-11.325
▁modalités	-11.325
▁SIS	-11.325
▁Islamic	-11.3265
▁village	-11.3265
▁dictatorship	-11.3265
(1)	-11.3276
▁sovereign	-11.3292
-wide	-11.3293
▁Morocco	-11.33
▁médical	-11.33
▁inquiétant	-11.3307
▁expensive	-11.3315
▁dictature	-11.3322
▁twenty	-11.3322
▁receiving	-11.3329
▁détenu	-11.333
▁côte	-11.333
▁nonetheless	-11.3336
▁écouté	-11.3336
▁game	-11.3345
▁depriv	-11.3347
▁dictate	-11.3348
▁soulever	-11.3358
▁Genève	-11.3365
▁consolider	-11.3365
▁frank	-11.3365
▁manufacture	-11.3371
▁earn	-11.338
▁d'imp	-11.3387
▁Clearly	-11.3394
▁aircraft	-11.3394
▁secrétaire	-11.3394
▁outset	-11.3397
▁axé	-11.3418
▁intégral	-11.3427
▁composé	-11.3431
▁abstenu	-11.3437
▁l’amendement	-11.3437
▁d'accueil	-11.3444
▁elderly	-11.3444
▁échelle	-11.3444
▁causing	-11.3459
▁demographic	-11.3466
▁estimé	-11.3471
▁compliqué	-11.3474
▁douane	-11.3474
▁Syria	-11.3481
▁Obviously	-11.3488
▁vigilant	-11.3488
▁Frattini	-11.3495
Alliance	-11.3504
▁voilà	-11.3525
▁killed	-11.3532
▁n'importe	-11.3539
échéance	-11.3544
ancy	-11.3545
▁Barnier	-11.3547
▁programmation	-11.3547
▁interprétation	-11.3554
▁souverain	-11.3576
▁l'instar	-11.3576
▁foi	-11.3581
▁Swoboda	-11.3583
▁began	-11.3585
▁Investment	-11.3598
▁Lituanie	-11.362
▁ciblé	-11.3628
▁décisif	-11.3628
▁îles	-11.3628
▁invitation	-11.3629
▁Danube	-11.3642
▁bilatéraux	-11.3642
▁congratulations	-11.3642
▁dégâts	-11.365
▁supprimé	-11.3657
▁tribunaux	-11.3657
▁mondiaux	-11.3657
▁Other	-11.3665
améliorer	-11.3671
▁extraordinary	-11.368
▁certification	-11.368
▁allusion	-11.368
▁cohérent	-11.3685
▁d'enfants	-11.3687
élevage	-11.3687
(2)	-11.3696
▁comparison	-11.3702
▁Bolkestein	-11.3717
▁diffusion	-11.3717
▁hommage	-11.3717
▁objet	-11.3717
▁supranational	-11.3717
▁necessity	-11.3724
▁règne	-11.3732
▁Chechnya	-11.3754
▁prudence	-11.3769
▁s'efforce	-11.3769
▁throw	-11.3771
▁situe	-11.3774
▁REACH	-11.3777
▁l'exportation	-11.3777
▁territories	-11.3784
▁conviendra	-11.3784
▁d'armes	-11.3792
▁favorise	-11.3794
▁compétitif	-11.3807
▁supplement	-11.3813
▁deploy	-11.3814
▁l'Inde	-11.3814
▁adhere	-11.3818
▁supplies	-11.3822
▁disponible	-11.3824
▁circonscription	-11.3844
▁rubrique	-11.3844
▁l'Iran	-11.3844
▁paradox	-11.3852
▁beneficial	-11.3859
▁Nonetheless	-11.3867
▁contamination	-11.3867
▁démocratisation	-11.3867
▁emphasize	-11.3867
▁Birmanie	-11.3867
▁Malte	-11.3867
▁popular	-11.3875
▁IGC	-11.3882
▁rassemble	-11.389
▁Brazil	-11.3897
▁drop	-11.39
▁s'agisse	-11.3913
▁troops	-11.3913
▁éliminer	-11.3913
▁d'élaborer	-11.392
▁loyal	-11.392
▁tribute	-11.392
▁parallel	-11.3936
▁accru	-11.3936
▁fiscaux	-11.3943
▁étudiants	-11.3943
▁liaison	-11.3943
ritten	-11.395
▁Soviet	-11.3951
employ	-11.3953
▁Libya	-11.3958
▁félicitations	-11.3958
▁compléter	-11.3966
▁drink	-11.3966
▁search	-11.3966
▁Palacio	-11.3974
▁impliquant	-11.3974
▁éprouv	-11.3974
▁détention	-11.3974
▁ça	-11.3974
▁réagi	-11.398
▁London	-11.3989
▁Poettering	-11.3989
▁d'éducation	-11.3989
▁envoyer	-11.3989
▁Declaration	-11.3997
▁l’adoption	-11.3997
▁venons	-11.3998
implique	-11.4005
▁agisse	-11.4008
▁chute	-11.4012
▁Great	-11.4027
▁surface	-11.4028
▁officiel	-11.4028
▁Parallèlement	-11.4035
▁Eurostat	-11.4035
▁soutiennent	-11.4035
▁reçoivent	-11.4043
▁entamer	-11.4043
▁Also	-11.4051
▁applique	-11.406
▁bénéfique	-11.4066
▁cinquième	-11.4066
▁décisive	-11.4066
▁emerging	-11.4066
▁utilisateurs	-11.4066
▁dépassé	-11.4074
incitation	-11.4079
▁collapse	-11.4081
▁dominant	-11.4082
▁rémunération	-11.4089
▁resource	-11.409
▁devaient	-11.4098
▁exacerb	-11.4105
▁censé	-11.4107
▁accompanied	-11.4112
▁rigorous	-11.4112
▁congratulating	-11.412
▁l'extérieur	-11.412
▁l'actuel	-11.412
▁harmonisé	-11.4136
▁imbalance	-11.4143
▁sincerely	-11.4144
▁Algeria	-11.4151
▁persuadé	-11.4167
▁provisoire	-11.4167
▁dégager	-11.4175
▁keen	-11.4175
ë	-11.4182
▁oppress	-11.4195
pending	-11.4197
▁northern	-11.4198
▁approximately	-11.4198
▁l'essentiel	-11.4214
▁surveiller	-11.4214
▁déçu	-11.4214
▁birth	-11.4222
▁nobody	-11.4229
▁divergences	-11.4237
▁Est-ce	-11.4245
▁gouvern	-11.4246
▁accurate	-11.4253
▁s'agissant	-11.4253
▁enlarged	-11.4261
indique	-11.4266
▁généraux	-11.4269
▁margin	-11.4271
▁Mugabe	-11.4277
▁Otherwise	-11.4277
▁experiencing	-11.4277
▁reviendra	-11.4293
▁hydro	-11.4305
▁dirigé	-11.4308
gressive	-11.4319
▁newspaper	-11.4332
▁rejoindre	-11.4348
▁rythme	-11.4356
▁jurisdiction	-11.4364
▁amené	-11.4375
▁tunnel	-11.438
▁réglé	-11.438
▁Statute	-11.4388
▁settle	-11.4395
▁disappointed	-11.4404
▁unanimity	-11.4404
▁deliberate	-11.4412
▁Objective	-11.4412
▁identifié	-11.4412
▁Decision	-11.4412
▁Education	-11.4412
▁resident	-11.442
▁advise	-11.4428
▁maximale	-11.4428
▁stick	-11.4428
▁routière	-11.4436
▁voulez	-11.4437
▁requiert	-11.4444
▁surrounding	-11.4468
▁combler	-11.4476
▁S'agissant	-11.4484
▁soviétique	-11.4484
▁renvoi	-11.4484
▁ordinaire	-11.4492
▁Information	-11.4492
▁Petitions	-11.45
▁d'assurance	-11.45
▁trans-European	-11.45
▁ultrapériphéri	-11.45
▁guard	-11.45
▁Jusqu'	-11.4508
▁coherence	-11.4508
▁Cotonou	-11.4524
▁l'Agenda	-11.4524
▁Cohesion	-11.4532
▁impératif	-11.4532
▁entrepris	-11.4539
▁neighbourhood	-11.4541
▁racist	-11.4543
▁nôtre	-11.4549
▁surplus	-11.4549
rreur	-11.4549
▁essence	-11.4557
firm	-11.4564
▁Communist	-11.4565
▁distinguish	-11.4565
▁Finnish	-11.4581
▁communiqué	-11.4589
▁suscité	-11.4589
▁Two	-11.4589
extradition	-11.4607
▁l’esprit	-11.4614
▁procedural	-11.4614
▁yourself	-11.4614
▁l'ESB	-11.4614
▁begun	-11.4615
▁incompatible	-11.4622
▁quelqu'un	-11.4622
▁Sakharov	-11.463
▁réjouir	-11.463
▁dream	-11.463
▁révèle	-11.4638
▁sharing	-11.4638
▁computer	-11.4638
▁troupes	-11.4647
▁Tchétchénie	-11.4655
▁stabilise	-11.4655
▁l’autre	-11.4655
augmentation	-11.4662
▁rigoureuse	-11.4671
▁Criminal	-11.4679
▁électrique	-11.4679
▁n'avait	-11.4679
▁ancienne	-11.4679
inscrire	-11.4681
▁examination	-11.4696
▁closure	-11.4704
▁retiré	-11.4713
lusieurs	-11.4714
▁disparaît	-11.472
▁municipal	-11.472
▁conformité	-11.4729
▁forgotten	-11.4737
▁j’espère	-11.4737
▁musulman	-11.4737
▁genetically	-11.4737
▁reflét	-11.4737
▁Malta	-11.4737
▁quotidien	-11.4739
▁synergie	-11.4745
▁utilisant	-11.4745
▁régulation	-11.4745
▁pursuan	-11.4745
▁update	-11.4749
▁Ministre	-11.4753
▁accompagné	-11.4753
▁Defence	-11.4753
▁lawyer	-11.4756
▁adverse	-11.4762
▁dizaines	-11.477
▁d'élargissement	-11.4778
▁1991	-11.4778
▁Single	-11.4779
▁1989	-11.4787
▁province	-11.4787
▁d’autre	-11.479
▁d'accroître	-11.4795
▁reconciliation	-11.4795
▁accusations	-11.4803
▁praise	-11.4805
▁equivalent	-11.4811
▁stipule	-11.4811
▁inadmissible	-11.482
▁étrange	-11.4835
▁Mercosur	-11.4836
▁controversial	-11.4836
▁l’application	-11.4836
rait-il	-11.4843
▁hospital	-11.4845
▁impetus	-11.4845
▁housing	-11.4845
▁l'appel	-11.4846
▁investisseurs	-11.4853
▁irakien	-11.4854
▁consequently	-11.4862
▁integrity	-11.4862
organisme	-11.4866
▁l'Amérique	-11.487
▁rigueur	-11.487
▁facilité	-11.4878
▁finlandais	-11.4895
▁frappe	-11.4903
▁System	-11.4912
▁Conservative	-11.492
▁residence	-11.492
▁tolérance	-11.4937
▁CIG	-11.4946
▁militari	-11.4946
▁ministère	-11.4954
▁redistribu	-11.4955
▁counterfeit	-11.4962
▁Natura	-11.4971
▁gather	-11.4971
▁sauver	-11.498
▁dictator	-11.4988
▁tiennent	-11.4988
-Mediterranean	-11.4996
▁Regarding	-11.4996
▁categories	-11.4996
Afghanistan	-11.5003
▁disregard	-11.5005
▁maintenance	-11.5005
▁execution	-11.5022
▁purchase	-11.5022
▁mépris	-11.5022
▁découvert	-11.503
▁énormément	-11.503
▁communiquer	-11.5032
▁(debate)	-11.5039
impose	-11.5047
▁Friday	-11.5047
▁cigarette	-11.5047
▁ruin	-11.5053
▁contributing	-11.5056
▁prostitution	-11.5056
▁divergent	-11.5064
▁enseignement	-11.5073
▁deviendra	-11.5073
▁indépendamment	-11.5081
▁s'occupe	-11.5081
▁slightly	-11.5081
▁bateaux	-11.5081
▁transeuropéens	-11.509
▁blind	-11.509
▁désigné	-11.509
▁hémicycle	-11.5099
▁répété	-11.5099
▁identité	-11.5116
▁l'humanité	-11.5116
▁street	-11.5116
▁install	-11.5117
▁croyons	-11.5124
▁woman	-11.5124
▁illustrate	-11.5133
▁perçu	-11.5133
▁ambigu	-11.5141
▁Londres	-11.5141
▁Solidarity	-11.5141
▁short-term	-11.5141
▁accumul	-11.5141
▁characteristics	-11.5141
▁virus	-11.5141
▁anglais	-11.5141
▁pierre	-11.5142
▁éventuel	-11.5154
▁Posselt	-11.5159
▁fossil	-11.5159
▁whatsoever	-11.5159
▁pèse	-11.5161
▁universities	-11.5167
▁l'alimentation	-11.5176
▁publish	-11.5183
▁perception	-11.5185
▁rédaction	-11.5185
▁(débat)	-11.5193
▁Tunisie	-11.5193
▁préventive	-11.5193
▁iranien	-11.5194
n-discrimination	-11.5195
▁déplacé	-11.5202
▁MEDA	-11.5202
▁stimulate	-11.5202
▁compliment	-11.5202
▁Affaire	-11.5202
▁reprend	-11.5203
▁Please	-11.521
appareil	-11.5211
▁l'occurrence	-11.5219
▁imposing	-11.5219
▁estimated	-11.5219
▁Muslim	-11.5228
▁fausse	-11.5229
obligation	-11.523
▁preliminary	-11.5237
▁managing	-11.5245
▁thousand	-11.5249
▁l’éducation	-11.5254
▁Monday	-11.5254
▁integrate	-11.5255
▁except	-11.5259
outermost	-11.528
▁translate	-11.5284
▁adhérer	-11.5289
▁combustible	-11.5289
▁illustre	-11.5297
▁Watson	-11.5306
▁OGM	-11.5315
▁l’Assemblée	-11.5324
▁l’intégration	-11.5333
▁j'avais	-11.5341
▁location	-11.5341
▁préconise	-11.5342
▁travaillons	-11.5351
▁Annex	-11.5359
▁s'agir	-11.536
▁effectuer	-11.536
▁l’intérêt	-11.5368
▁resistance	-11.5368
▁autonome	-11.5368
▁banned	-11.5368
▁Latvia	-11.5376
abandon	-11.5386
▁Direct	-11.5391
▁d'Amérique	-11.5394
▁d'entendre	-11.5394
enthousiasme	-11.5403
▁August	-11.5412
▁roll	-11.5413
▁biotechnologi	-11.5421
▁pretext	-11.5429
▁d'imposer	-11.5429
▁poursuit	-11.5445
▁Tribunal	-11.5447
▁Similarly	-11.5456
▁inondations	-11.5456
▁losing	-11.5456
▁J'appelle	-11.5474
▁inhabitants	-11.5483
▁bovine	-11.5492
▁Taiwan	-11.55
'après	-11.5501
▁participating	-11.5509
▁résume	-11.5514
▁profound	-11.5518
▁eventually	-11.5518
▁prouvé	-11.5527
▁convey	-11.5536
▁probable	-11.5538
▁Wednesday	-11.5545
▁description	-11.5545
▁immigrés	-11.5545
▁l’idée	-11.5545
▁gaspill	-11.5554
▁papier	-11.5554
▁anniversaire	-11.5563
▁fabriqu	-11.5563
▁péril	-11.5565
▁executive	-11.5572
▁comparaison	-11.5572
(COD))	-11.5581
▁l'étiquetage	-11.559
▁traduction	-11.559
control	-11.559
▁convince	-11.5593
▁hélas	-11.5599
▁Lebanon	-11.5599
▁définitif	-11.5599
▁Citizens'	-11.5608
▁Sarkozy	-11.5608
▁intérimaire	-11.5608
▁perturb	-11.5608
▁foresee	-11.563
▁l'espère	-11.5635
▁suggéré	-11.5662
▁Brésil	-11.5662
▁réfléchi	-11.5668
▁complément	-11.567
▁pursuing	-11.5671
ez-moi	-11.5672
▁mandatory	-11.569
▁révisé	-11.5692
▁pratiqu	-11.5697
▁l’accès	-11.5699
▁ECHO	-11.5708
▁certitude	-11.5708
▁d’adhésion	-11.5708
▁l'espoir	-11.5708
▁montagne	-11.5708
▁d'accepter	-11.5717
▁islamique	-11.5717
▁ELDR	-11.5726
▁Indonesia	-11.5726
▁OSCE	-11.5735
▁abroad	-11.5735
▁l'issue	-11.5735
▁d'importance	-11.5744
▁détruit	-11.5753
▁lorsqu’il	-11.5753
▁disparu	-11.5754
▁frein	-11.5754
▁déroulé	-11.5762
▁idéal	-11.5772
▁judicieux	-11.5772
▁poussé	-11.5772
▁l'élimination	-11.5781
▁freight	-11.5781
▁incendies	-11.579
power	-11.5805
▁Through	-11.5808
▁BEI	-11.5808
▁victoire	-11.5818
▁registration	-11.5827
▁déloyale	-11.5836
▁échéant	-11.5836
▁l'ampleur	-11.5845
▁anniversary	-11.5854
▁naissance	-11.5864
▁confuse	-11.5864
▁Sahara	-11.5864
▁concurrentiel	-11.5873
▁préservation	-11.5873
▁gratuit	-11.5882
▁modifiant	-11.5882
▁erroné	-11.5891
▁display	-11.5901
▁charbon	-11.5901
▁compromet	-11.5902
▁emprunt	-11.591
▁stringent	-11.591
▁Chairman	-11.5919
▁pharmaceutique	-11.5929
▁saluons	-11.5938
▁assets	-11.5939
▁l'étranger	-11.5947
▁supervisory	-11.5947
▁vérification	-11.5947
▁PHARE	-11.5957
▁chômeurs	-11.5957
▁déplacement	-11.5957
▁reaffirm	-11.5961
▁contradictoire	-11.5966
▁(Rule	-11.5975
▁prerequisite	-11.5975
▁s'attaquer	-11.5976
▁arrière	-11.5985
▁Syrie	-11.5985
▁expressément	-11.5985
▁albeit	-11.5994
▁EIB	-11.5994
▁virtue	-11.5994
▁resolving	-11.6003
▁shop	-11.6004
▁d'experts	-11.6013
▁réconciliation	-11.6013
▁Finance	-11.6013
attache	-11.6034
▁illégal	-11.6036
▁Third	-11.6039
▁imperative	-11.6041
▁smooth	-11.605
▁motivation	-11.605
&	-11.606
▁répand	-11.606
▁female	-11.6069
▁intervenants	-11.6069
▁législateur	-11.6069
▁radioactive	-11.6069
▁optimal	-11.6069
▁Wallström	-11.6079
▁mountain	-11.6088
ensemble	-11.6099
▁réglementé	-11.6107
▁douze	-11.6107
▁d’intérêt	-11.6116
▁stakeholders	-11.6116
sécurité	-11.6119
▁apprécié	-11.6126
▁c’est-à-dire	-11.6126
▁gravité	-11.6126
▁vendredi	-11.6126
▁criterion	-11.6126
▁disparition	-11.6126
▁oriental	-11.6144
non-governmental	-11.6154
▁pharmaceutical	-11.6154
▁Estonia	-11.6155
▁recital	-11.6164
▁brève	-11.6174
▁rêve	-11.6174
▁voudrait	-11.6174
▁furthermore	-11.6174
▁(CE)	-11.6183
▁mercredi	-11.6183
▁essaie	-11.6184
▁sincère	-11.6186
▁immunity	-11.6193
▁vivons	-11.6193
▁fifteen	-11.6202
▁étroit	-11.6214
▁policière	-11.6231
▁antérieur	-11.6231
▁Maintenant	-11.6241
▁disastrous	-11.6241
▁neglect	-11.6241
▁third-country	-11.6241
▁proactive	-11.6241
▁perpétré	-11.625
▁Could	-11.625
▁Millennium	-11.626
▁prescription	-11.6269
▁réaffirme	-11.6269
▁traduire	-11.6269
▁l'enfant	-11.6269
▁oublié	-11.627
(CNS))	-11.6279
▁experiment	-11.6279
▁remplacé	-11.6279
▁l'urgence	-11.6279
▁partiellement	-11.6279
▁risqu	-11.6283
▁personnalité	-11.6289
▁MEP	-11.6324
▁forecast	-11.6327
▁fifth	-11.6327
▁équivalent	-11.6337
▁autonomy	-11.6347
▁controversé	-11.6356
▁protège	-11.6356
▁caution	-11.6356
-General	-11.6364
▁sympathy	-11.6366
▁Celle-ci	-11.6376
▁Scotland	-11.6376
▁examining	-11.6376
ecretary-General	-11.6378
▁fossé	-11.6386
▁licenciement	-11.6386
▁préparatoire	-11.6395
▁slaughter	-11.6395
▁C6-	-11.6396
argument	-11.6399
▁l'effet	-11.6405
▁précieuse	-11.6405
/2005	-11.6405
▁attentif	-11.6406
▁wave	-11.6408
▁roumain	-11.6415
▁corriger	-11.6454
▁communicate	-11.6455
2009	-11.6457
▁néfaste	-11.6464
▁storage	-11.6464
▁false	-11.6464
▁damaging	-11.6474
▁productivity	-11.6474
▁résumé	-11.6474
▁Beaucoup	-11.6484
▁mémoire	-11.6484
▁ratifier	-11.6484
uranium	-11.6493
▁privacy	-11.6493
▁Corbett	-11.6503
▁évalué	-11.6503
2008	-11.6507
▁améliore	-11.652
▁biocarburants	-11.6523
▁propriétaire	-11.6543
▁renewed	-11.6553
▁réglementer	-11.6553
▁Above	-11.6553
entrepreneur	-11.6556
▁GMOs	-11.6563
▁bruit	-11.6563
▁souvenir	-11.6572
▁Moldavie	-11.6582
▁scientists	-11.6582
▁l'effort	-11.6592
▁intégrante	-11.6592
▁statistical	-11.6602
▁âge	-11.6612
▁Colombia	-11.6622
▁comitologie	-11.6622
▁l'agenda	-11.6622
▁pipeline	-11.6622
▁Naturally	-11.6622
▁guise	-11.6622
▁lundi	-11.6632
▁Jarzembowski	-11.6642
▁(EC)	-11.6642
▁donnant	-11.6642
▁l’immigration	-11.6652
▁contenant	-11.6652
▁examinons	-11.6662
▁John	-11.6672
▁satisfy	-11.6682
▁socio-economic	-11.6682
▁rédiger	-11.6682
ciaux-démocrates	-11.6684
automne	-11.6684
▁côtière	-11.6692
▁incorrect	-11.6692
▁Libye	-11.6692
▁Venezuela	-11.6702
▁écoulé	-11.6702
▁title	-11.6702
▁definitive	-11.6712
▁142)	-11.6712
▁struck	-11.6712
▁Erasmus	-11.6722
č	-11.6743
▁démantèlement	-11.6743
▁interrompu	-11.6763
▁manoeuvre	-11.6763
▁programming	-11.6763
▁délocalisation	-11.6773
▁d’origine	-11.6773
▁l'âge	-11.6773
▁réexamin	-11.6783
▁Switzerland	-11.6793
▁Vitorino	-11.6793
▁régulier	-11.6793
-t-on	-11.6803
▁juridiction	-11.6814
aménagement	-11.6814
▁Liikanen	-11.6824
▁colonial	-11.6824
▁Ecofin	-11.6824
▁overlook	-11.6824
▁nutrition	-11.6834
▁Liberties	-11.6844
▁TACIS	-11.6844
▁d'intervenir	-11.6844
▁Oomen-Ruijten	-11.6854
▁Aujourd’hui	-11.6865
▁generous	-11.6865
/EEC	-11.6865
▁s'adresse	-11.6875
▁frustration	-11.6885
▁vocational	-11.6885
▁quantitative	-11.6885
▁inappropriate	-11.6895
comprehensible	-11.6895
▁precondition	-11.6895
▁suspens	-11.6897
-Herzégovine	-11.6905
▁fréquent	-11.6905
▁accusé	-11.6916
▁semestre	-11.6916
▁d'empêcher	-11.6926
▁précieux	-11.6926
▁write	-11.6929
▁accused	-11.6936
▁qualitative	-11.6936
▁benchmark	-11.6957
▁décès	-11.6957
▁far-reaching	-11.6967
▁tissu	-11.6967
▁department	-11.6988
▁translation	-11.6988
▁council	-11.6998
▁fought	-11.6998
▁Whilst	-11.7009
▁numéro	-11.7009
medicinal	-11.7019
▁Special	-11.7019
▁l’attention	-11.7029
▁autumn	-11.704
▁d'animaux	-11.704
▁recueilli	-11.704
▁prôn	-11.705
▁Mexico	-11.705
▁enshrined	-11.705
▁semblable	-11.705
▁Médiateur	-11.7061
▁platform	-11.7061
▁illégaux	-11.7071
▁Berlusconi	-11.7092
▁l’encontre	-11.7092
▁east	-11.7092
▁enterprise	-11.7099
▁dynamism	-11.7102
▁middle	-11.7102
▁dégagé	-11.7102
▁irregularities	-11.7113
▁n'étaient	-11.7123
▁parviendrons	-11.7134
▁séparation	-11.7144
▁Olympic	-11.7165
▁Would	-11.7165
▁bridge	-11.7165
▁idéologique	-11.7186
▁'no'	-11.7186
▁Böge	-11.7197
▁repercussions	-11.7197
▁Federal	-11.7208
▁Vietnam	-11.7208
▁assorti	-11.7208
▁l'armée	-11.7208
▁sensibilisation	-11.7218
▁vegetable	-11.7218
▁apparten	-11.7221
▁Slovénie	-11.7229
▁Cohn-Bendit	-11.725
▁parliamentarian	-11.725
▁suspicion	-11.725
compagn	-11.7253
▁inevitably	-11.7261
▁permanence	-11.7261
▁rouge	-11.7261
▁intéresse	-11.7271
▁Naturellement	-11.7282
▁privilège	-11.7282
▁relevé	-11.7282
▁compensate	-11.7283
▁removal	-11.7293
▁sexuel	-11.7302
▁persecution	-11.7303
▁narrow	-11.7314
▁preparatory	-11.7314
▁vétérinaire	-11.7314
▁absorb	-11.7314
▁fashion	-11.7314
▁caractérise	-11.7325
▁identification	-11.7325
▁spécificité	-11.7325
▁Ferrero-Waldner	-11.7357
▁d'innovation	-11.7357
▁AIDS	-11.7367
▁d'exercer	-11.7368
▁ownership	-11.7368
▁préfère	-11.7368
▁d’ailleurs	-11.7378
▁pourparlers	-11.7378
▁simplified	-11.7378
▁publier	-11.7389
▁Quatrièmement	-11.7411
▁disturb	-11.7411
▁ideological	-11.7411
▁d'instaurer	-11.7421
▁Deuxième	-11.7429
▁cellules	-11.7432
▁d'efforts	-11.7432
▁l’information	-11.7432
▁alleged	-11.7432
▁multiannual	-11.7443
▁restreint	-11.7443
▁overwhelming	-11.7454
▁bataille	-11.7454
▁gentlemen	-11.7459
▁monopoly	-11.7465
▁s'avérer	-11.7465
▁apparemment	-11.7476
▁pouvaient	-11.7476
▁speculation	-11.7476
▁construit	-11.7486
▁Fourthly	-11.7486
▁foodstuffs	-11.7486
▁hunger	-11.7497
▁Celui-ci	-11.7508
▁d'organiser	-11.7508
▁déploie	-11.7508
▁recruit	-11.7508
▁malheur	-11.7508
▁remboursement	-11.7519
▁découlant	-11.753
▁inequalities	-11.753
▁Schmid	-11.753
▁wholeheartedly	-11.7541
▁vigorous	-11.7552
-friendly	-11.7552
▁Johannesburg	-11.7552
▁scenario	-11.7552
▁drastic	-11.7552
▁patience	-11.7552
▁caractérisé	-11.7563
▁Jacques	-11.7563
▁facility	-11.7563
▁Progress	-11.7564
▁Harbour	-11.7574
▁témoin	-11.7585
▁sous-estim	-11.7585
▁félicitons	-11.7607
▁manipulation	-11.7607
▁Cypriot	-11.7618
▁high-quality	-11.7618
▁scénario	-11.7629
▁là-bas	-11.764
▁precedent	-11.764
▁twice	-11.764
avortement	-11.7651
▁constituency	-11.7651
▁divisé	-11.7652
▁linguistic	-11.7662
▁photo	-11.7662
▁Barón	-11.7673
▁disponibilité	-11.7673
▁volontiers	-11.7673
industrie	-11.7684
▁l’OMC	-11.7684
▁s’applique	-11.7695
▁vigour	-11.7706
▁Bangemann	-11.7706
▁embark	-11.7706
▁appreciation	-11.7717
▁chocolat	-11.7717
▁earthquake	-11.7717
▁génocide	-11.7717
▁xenophobia	-11.7717
▁simplifié	-11.7729
ambiguïté	-11.7729
▁large-scale	-11.774
▁kurde	-11.7751
▁s'inscrit	-11.7751
▁PNR	-11.7751
▁activist	-11.7751
▁XXIe	-11.7762
▁hectare	-11.7762
▁Vienna	-11.7773
▁Actuellement	-11.7784
▁soi-disant	-11.7784
▁tremendous	-11.7784
▁PESC	-11.7796
▁constraints	-11.7807
▁hinder	-11.7818
▁louable	-11.7818
▁discriminatoire	-11.7829
▁qu'aujourd'hui	-11.7829
▁reconcile	-11.7829
ñ	-11.8687
š	-12.0438
ã	-12.104
­	-12.1228
ń	-12.1664
Ö	-12.2138
Z	-12.2347
ß	-12.2635
ă	-12.31
ò	-12.3177
æ	-12.3935
ş	-12.4102
ø	-12.4166
—	-12.438
Á	-12.438
ú	-12.5075
ł	-12.5974
–	-12.6143
Å	-12.6179
°	-12.6284
ć	-12.7509
ė	-12.8838
Ε	-12.8906
Ê	-12.9359
ő	-13.053
”	-13.0774
«	-13.0779
£	-13.3767
Α	-13.4455
$	-13.513
Ó	-13.6344
ľ	-13.6935
ğ	-13.7244
Τ	-13.7244
ę	-13.7322
=	-13.7891
•	-13.7892
ž	-13.7976
_	-13.806
ý	-13.8584
å	-13.9233
ś	-13.9329
Ν	-13.9524
Â	-13.9926
·	-14.0561
ū	-14.0782
Ι	-14.1008
Ο	-14.1123
ţ	-14.2889
Í	-14.3168
ī	-14.4214
À	-14.5707
―	-14.6309
“	-14.8711
È	-14.8711
ì	-14.8711
@	-14.8961
Μ	-14.9481
а	-14.9751
μ	-14.9751
Ô	-15.0029
ź	-15.0315
Ü	-15.0912
\	-15.1224
‘	-15.1511
Ø	-15.188
е	-15.2225
ą	-15.2582
ρ	-15.2953
о	-15.2953
#	-15.3337
*	-15.3337
§	-15.3337
ż	-15.3337
Ï	-15.4154
õ	-15.4154
Œ	-15.5519
ε	-15.5519
т	-15.5519
ο	-15.6019
τ	-15.6019
α	-15.6019
⁄	-15.6546
Ì	-15.7101
ǎ	-15.769
Ρ	-15.769
ı	-15.769
ι	-15.769
σ	-15.769
ě	-15.8315
¡	-15.8315
р	-15.8315
в	-15.8315
н	-15.8315
и	-15.8981
с	-15.9696
π	-16.1298
η	-16.1298
Κ	-16.2207
ί	-16.2207
β	-16.2207
ν	-16.2207
к	-16.2207
л	-16.3207
ǔ	-16.3207
δ	-16.3207
ή	-16.3207
χ	-16.3207
д	-16.4318
ς	-16.4318
м	-16.5568
з	-16.5568
ш	-16.5568
ά	-16.5568
й	-16.5568
κ	-16.6997
έ	-16.6997
υ	-16.6997
Υ	-16.8663
©	-16.8664
і	-16.8664
λ	-16.8664
ч	-16.8664
п	-16.8664
þ	-17.0664
ŕ	-17.0664
Ż	-17.0664
ό	-17.0664
ь	-17.3163
>	-17.3164
Ľ	-17.3164
Ú	-17.3164
ā	-17.3164
ņ	-17.3164
ų	-17.3164
γ	-17.3164
я	-17.3164
М	-17.3164
Ģ	-17.3164
у	-17.3164
Н	-17.3164
б	-17.3164
ъ	-17.3164
г	-17.6497
đ	-17.6497
φ	-17.6497
ώ	-17.6497
ē	-17.6497
`	-17.6497
ύ	-17.6497
Π	-18.1475
Ř	-18.1476
ǐ	-18.1477
ť	-18.1478
ķ	-18.1479
Β	-18.148
Ş	-18.1481
Ś	-18.1482
Ł	-18.1483
Đ	-18.1484
́	-18.1485
€	-18.1486
Č	-18.1487
−	-18.1488
Ž	-18.1489
ř	-18.149
ň	-18.1491
Ő	-18.1492
Ţ	-18.1493
Î	-18.1494
Ç	-18.1495
Š	-18.1496
Ð	-18.1497
ď	-18.1497
Є	-18.1497
ї	-18.1497
Æ	-18.1497
İ	-18.1497
ð	-18.1497
̧	-18.1497
<	-18.1497
±	-18.1497
Ä	-18.1497
ĉ	-18.1497
ō	-18.1497
ů	-18.1497
ș	-18.1497
ʻ	-18.1497
˗	-18.1497
А	-18.1497
Т	-18.1497
У	-18.1497
ж	-18.1497
ы	-18.1497
ю	-18.1497
є	-18.1497
′	-18.1497
ŵ	-18.1497
Ù	-18.1497
Д	-18.1497
î	-18.1497
О	-18.1497
