<s>	0
</s>	0
<unk>	0
<pad>	0
,	-3.336
▁de	-3.42366
.	-3.47999
s	-3.79913
▁la	-4.0506
▁et	-4.23555
▁le	-4.2585
▁à	-4.35619
▁les	-4.67762
▁en	-4.79787
▁que	-4.83594
▁—	-4.85816
▁un	-4.88591
▁des	-5.05376
e	-5.09501
▁du	-5.13943
▁pas	-5.14133
▁une	-5.20363
▁dans	-5.21693
▁?	-5.24777
▁se	-5.25905
▁qui	-5.28772
▁ne	-5.33416
▁pour	-5.38857
▁il	-5.3941
▁Il	-5.4854
▁sur	-5.55035
▁:	-5.5525
▁son	-5.57673
▁je	-5.60326
▁ce	-5.68413
▁a	-5.70091
▁est	-5.71117
▁au	-5.71714
▁plus	-5.75589
▁par	-5.75857
▁|	-5.7886
▁!	-5.8172
r	-5.84184
▁vous	-5.84383
▁	-5.84459
▁Je	-5.85869
▁sa	-5.85953
▁avait	-5.92203
▁lui	-5.93135
▁avec	-5.94897
▁Le	-6.00211
s,	-6.02838
▁était	-6.04392
nt	-6.06555
▁me	-6.10393
...	-6.1575
▁elle	-6.1604
▁mais	-6.17658
▁ses	-6.19013
▁La	-6.20465
▁«	-6.21629
)	-6.2261
s.	-6.23438
▁comme	-6.24354
▁nous	-6.25786
▁;	-6.25931
▁tout	-6.26991
a	-6.28252
▁qu’il	-6.28257
it	-6.32886
▁si	-6.41124
i	-6.42209
▁Elle	-6.47132
▁»	-6.47262
▁–	-6.47793
▁bien	-6.48457
es	-6.51236
▁ou	-6.5399
er	-6.56059
▁dit	-6.57365
▁cette	-6.581
▁Les	-6.62069
t	-6.6257
▁Et	-6.63528
▁d’un	-6.66431
-	-6.70477
▁deux	-6.70513
▁même	-6.7311
▁mon	-6.74324
▁y	-6.74947
▁-	-6.7514
▁fait	-6.75409
▁Mais	-6.75478
é	-6.75811
▁sans	-6.76992
ment	-6.77873
▁leur	-6.78535
▁aux	-6.80164
▁tu	-6.80885
▁faire	-6.85575
ait	-6.86052
▁sont	-6.8673
▁ma	-6.89692
▁A	-6.90146
▁où	-6.9121
▁été	-6.96328
▁on	-6.97507
▁d’une	-6.97693
▁Vous	-7.00368
o	-7.0176
▁En	-7.05571
▁(	-7.08271
▁C’est	-7.09104
▁c’est	-7.0959
y	-7.10316
▁vers	-7.11108
▁aussi	-7.112
ant	-7.11664
▁·	-7.11918
▁l’	-7.14725
▁peu	-7.17162
▁qu’elle	-7.17539
▁ces	-7.1793
▁encore	-7.1823
▁être	-7.20395
z	-7.20856
▁tous	-7.21412
▁Ce	-7.24237
▁suis	-7.24744
▁Tu	-7.25186
ient	-7.25651
e,	-7.26673
l	-7.27345
▁Un	-7.27904
e.	-7.2999
▁d’	-7.31761
▁très	-7.32171
▁ils	-7.34125
▁sous	-7.34146
▁quand	-7.34403
n	-7.34961
▁On	-7.35678
d	-7.35899
▁l'	-7.36558
▁étaient	-7.3854
▁Si	-7.39392
▁jamais	-7.39794
▁ça	-7.40181
is	-7.40317
▁te	-7.41198
▁fut	-7.41477
c	-7.41951
▁dont	-7.42358
▁avant	-7.43251
ur	-7.43455
▁temps	-7.43798
▁puis	-7.44571
▁yeux	-7.45117
▁entre	-7.45351
▁toujours	-7.46217
▁De	-7.46532
▁rien	-7.48775
aient	-7.48915
u	-7.51061
▁fit	-7.53029
▁leurs	-7.5308
ra	-7.53415
▁fois	-7.54587
▁Ils	-7.56464
▁À	-7.57165
▁ont	-7.57299
▁voir	-7.58693
▁j’ai	-7.59103
▁Une	-7.5939
▁contre	-7.60112
▁Nous	-7.60118
▁d'	-7.60126
in	-7.6122
▁votre	-7.61823
▁toute	-7.62019
▁S	-7.62296
▁tête	-7.62452
▁quelque	-7.63042
▁alors	-7.63141
▁après	-7.63556
m	-7.65289
▁avoir	-7.65586
▁avaient	-7.67001
▁voix	-7.67057
▁moins	-7.67559
▁chose	-7.68081
le	-7.6856
▁dé	-7.68899
▁1	-7.68971
▁quelques	-7.69955
▁homme	-7.70413
▁dire	-7.70643
▁main	-7.71643
▁grand	-7.7215
▁Sa	-7.7226
▁jeune	-7.72443
ent	-7.72534
▁moi	-7.72948
▁cela	-7.73156
▁trop	-7.73296
▁petit	-7.73603
▁2	-7.73819
na	-7.73955
▁autre	-7.74306
▁trois	-7.75566
▁qu’on	-7.75751
▁mes	-7.76414
▁devant	-7.7646
▁car	-7.76652
▁18	-7.77
▁l’a	-7.77042
▁depuis	-7.77075
x	-7.77186
re	-7.77345
▁J’ai	-7.77826
▁peut	-7.78168
▁n’est	-7.7822
▁Ma	-7.78604
▁porte	-7.7945
g	-7.79847
▁in	-7.80037
▁donc	-7.80302
▁point	-7.80564
te	-7.80627
al	-7.80716
▁coup	-7.80991
▁Au	-7.81523
▁va	-7.81545
▁re	-7.82433
▁ton	-7.83555
▁femme	-7.83722
▁n’avait	-7.83816
▁n’était	-7.84305
▁déjà	-7.85268
ta	-7.85705
ne	-7.85779
on	-7.86664
▁monde	-7.86859
▁non	-7.87929
▁ni	-7.88593
▁nom	-7.88616
p	-7.89019
▁P	-7.90313
k	-7.91753
▁eu	-7.91796
▁c’était	-7.9182
▁Pour	-7.9237
▁m’a	-7.92565
èrent	-7.93057
),	-7.93473
▁peut-être	-7.93958
▁chez	-7.9494
▁pu	-7.95198
▁toutes	-7.9591
▁notre	-7.96268
▁vie	-7.96703
▁vos	-7.96965
▁soit	-7.97582
▁C	-7.98424
:	-7.9864
▁ainsi	-7.98822
▁qu’ils	-7.98886
▁pouvait	-7.98949
en	-7.99757
▁E	-7.9983
).	-7.99984
▁mal	-8.00102
f	-8.00181
▁sais	-8.00347
▁s’était	-8.0044
▁près	-8.00843
▁cet	-8.01568
de	-8.01574
us	-8.01967
▁Dans	-8.02092
▁moment	-8.02349
▁bon	-8.02365
▁3	-8.02951
▁aurait	-8.03283
▁regard	-8.03912
▁là	-8.04731
la	-8.04869
ch	-8.04945
▁autres	-8.05263
▁n’y	-8.05474
▁pendant	-8.05512
▁vu	-8.05602
il	-8.05922
▁petite	-8.07509
ais	-8.07896
▁é	-8.0907
h	-8.09142
▁hommes	-8.09524
▁faut	-8.09543
▁B	-8.09694
an	-8.09789
▁d'un	-8.09817
▁C’était	-8.10885
▁grande	-8.11223
▁Des	-8.11317
▁partie	-8.1136
▁première	-8.11596
▁mort	-8.11759
b	-8.11867
ons	-8.12045
▁premier	-8.13357
▁n’a	-8.14082
▁Cette	-8.14456
"	-8.14633
▁Son	-8.14648
▁s’il	-8.1467
▁4	-8.15194
▁demanda	-8.15506
▁s’en	-8.156
▁Portail	-8.15992
▁quoi	-8.16096
▁côté	-8.16311
▁serait	-8.16323
▁assez	-8.16524
ai	-8.16599
▁jour	-8.16664
▁visage	-8.16767
▁répondit	-8.17099
▁beaucoup	-8.17177
ie	-8.17196
?	-8.17722
ir	-8.1803
ez	-8.18118
▁crois	-8.18507
té	-8.18613
▁M.	-8.1893
▁m	-8.20107
▁ta	-8.20176
▁bras	-8.20389
ation	-8.20577
▁Ne	-8.20969
▁d'une	-8.2122
▁nouveau	-8.21326
ter	-8.21409
▁I	-8.21583
▁prendre	-8.21701
me	-8.21719
ée	-8.21914
▁jusqu’à	-8.21927
▁père	-8.22486
▁faisait	-8.22728
'	-8.23412
▁fin	-8.23764
▁derrière	-8.23812
▁seul	-8.24444
▁avez	-8.24652
▁T	-8.24991
ma	-8.2503
▁Tout	-8.25413
/	-8.26444
▁»,	-8.26685
▁Quand	-8.27122
▁gens	-8.2714
▁tant	-8.27401
▁Par	-8.275
▁besoin	-8.27709
ge	-8.28061
▁D	-8.28785
▁fille	-8.29081
▁Mon	-8.29769
ro	-8.29841
▁G	-8.30337
▁L’	-8.30337
▁Cet	-8.30719
▁veux	-8.31231
▁M	-8.31249
▁qu’un	-8.31417
ck	-8.31593
or	-8.32262
▁presque	-8.32263
▁l’air	-8.32436
▁Ça	-8.32454
▁personne	-8.32676
▁place	-8.32678
▁moi,	-8.32688
▁nos	-8.32849
▁fort	-8.32884
▁mieux	-8.33069
▁long	-8.33462
▁doute	-8.33778
▁Pas	-8.34069
▁corps	-8.34207
▁eut	-8.34368
▁5	-8.34435
▁pouvez	-8.34437
▁autour	-8.34649
el	-8.34778
man	-8.34795
▁sera	-8.34897
que	-8.34924
▁6	-8.35223
▁France	-8.35375
▁reste	-8.35989
▁seule	-8.36574
▁pris	-8.37074
rait	-8.3709
es,	-8.37356
▁n’en	-8.37455
▁article	-8.37653
va	-8.38123
▁bout	-8.3818
au	-8.38353
v	-8.38398
do	-8.3859
▁tour	-8.38613
▁s’est	-8.38745
▁Comme	-8.38954
ga	-8.39097
▁fond	-8.39249
▁plusieurs	-8.39488
▁mains	-8.39515
▁Que	-8.40057
▁Oui,	-8.40119
▁part	-8.40269
▁qu'il	-8.40623
▁ville	-8.4106
▁F	-8.41179
▁Re	-8.41277
▁savoir	-8.41333
▁l'a	-8.41337
▁parce	-8.4138
▁dis	-8.41507
S	-8.41939
▁bonne	-8.42202
▁O	-8.42447
da	-8.42479
▁peine	-8.42563
▁ré	-8.42799
▁chaque	-8.43025
▁l’autre	-8.43374
▁pourquoi	-8.43643
lo	-8.44029
ine	-8.44253
▁maison	-8.44546
▁juste	-8.44549
▁compte	-8.44582
▁seulement	-8.4471
▁celui	-8.44966
A	-8.45161
▁passer	-8.45165
ton	-8.45312
at	-8.45497
▁façon	-8.45706
tte	-8.4577
mo	-8.46374
▁Du	-8.46451
▁comment	-8.46656
ar	-8.46888
ement	-8.4719
▁m’	-8.47289
▁cas	-8.4758
▁pouvoir	-8.47657
▁quatre	-8.47771
▁"	-8.48203
co	-8.48212
to	-8.48384
▁roi	-8.4849
di	-8.48567
w	-8.48677
▁devait	-8.49252
▁ai	-8.49445
th	-8.49608
▁l’avait	-8.49799
▁êtes	-8.49799
ce	-8.5
▁17	-8.50376
▁ceux	-8.50537
sse	-8.50615
▁Puis	-8.50704
▁n’ai	-8.50846
▁vieux	-8.50927
▁7	-8.50969
▁Non,	-8.51161
▁nuit	-8.51165
no	-8.51562
▁lieu	-8.51664
ry	-8.51737
▁parler	-8.51739
eur	-8.51749
▁con	-8.51861
▁vraiment	-8.52295
ité	-8.52464
che	-8.53015
▁d’a	-8.5321
▁ici	-8.5333
▁droit	-8.53414
▁Après	-8.5352
ner	-8.53629
age	-8.53642
▁Al	-8.53672
▁concernant	-8.53715
▁ans	-8.54242
▁L'	-8.5458
D	-8.54622
▁d’être	-8.54834
▁avons	-8.54909
ing	-8.54979
▁partager	-8.55044
es.	-8.55048
▁vit	-8.55211
▁maintenant	-8.55341
▁mère	-8.55859
▁cœur	-8.5591
ni	-8.55989
▁vais	-8.56034
▁trouver	-8.56172
▁prit	-8.56606
▁es	-8.56667
▁celle	-8.56671
▁dernier	-8.57601
▁partir	-8.57947
▁R	-8.57968
▁connaissances	-8.57983
▁savait	-8.58027
▁sens	-8.58033
▁allait	-8.58467
1	-8.58787
▁dû	-8.58943
▁qu’une	-8.59009
▁mettre	-8.59296
▁sourire	-8.59584
▁Pourquoi	-8.59655
▁aucun	-8.59695
▁doit	-8.60158
go	-8.60403
▁heures	-8.60501
li	-8.6054
▁8	-8.60543
▁semblait	-8.60621
▁choses	-8.60631
▁également	-8.60758
▁face	-8.60968
▁as	-8.60999
▁s’	-8.61005
P	-8.61232
▁mit	-8.61277
▁10	-8.61426
ré	-8.61525
▁peux	-8.61767
C	-8.61809
ti	-8.61897
▁cours	-8.62117
▁Comment	-8.62149
ia	-8.62725
▁passé	-8.63278
▁années	-8.63357
▁nouvelle	-8.63443
et	-8.63514
▁bord	-8.63827
▁!...	-8.64082
▁fils	-8.64317
ver	-8.64403
B	-8.64429
▁venait	-8.64564
▁Ca	-8.64649
▁regarda	-8.64749
▁Car	-8.65123
ion	-8.6536
>	-8.65833
ri	-8.65957
▁mis	-8.65957
▁The	-8.66078
▁aller	-8.66152
▁ébauche	-8.66258
▁j’avais	-8.66264
▁raison	-8.66281
▁tandis	-8.66754
▁K	-8.66965
▁(Comment	-8.67197
▁l'améliorant.	-8.67369
▁Dieu	-8.67427
▁V	-8.67594
▁lumière	-8.67766
▁moi.	-8.67864
M	-8.6794
▁9	-8.68132
ve	-8.68135
▁0	-8.68138
▁Ses	-8.68145
▁force	-8.68538
▁lui,	-8.68688
▁jours	-8.68862
2	-8.6891
▁l’un	-8.69174
▁salle	-8.6938
▁chambre	-8.69544
▁milieu	-8.69567
▁donner	-8.69675
▁aucune	-8.69794
▁laisser	-8.7007
ca	-8.70137
-il	-8.70149
▁Ta	-8.70245
▁travers	-8.70456
▁forme	-8.70467
▁tête.	-8.70475
▁Me	-8.70518
▁général	-8.70621
tre	-8.70785
ou	-8.70859
▁souvent	-8.71105
um	-8.7142
▁lui.	-8.71761
▁Co	-8.71791
▁leva	-8.71973
▁cinq	-8.71994
▁sommes	-8.721
T	-8.7242
▁N	-8.7249
▁loin	-8.72576
lé	-8.72819
▁cheveux	-8.72918
▁of	-8.73106
N	-8.73309
F	-8.73369
mi	-8.73682
▁Se	-8.73688
▁Ra	-8.73801
▁train	-8.73917
▁sang	-8.73957
ux	-8.74042
▁pied	-8.74049
ba	-8.74273
▁voulait	-8.74338
▁Qui	-8.7453
▁L	-8.74688
▁quelqu’un	-8.74881
▁monsieur	-8.75063
▁16	-8.75103
▁Cela	-8.75212
▁s’a	-8.75263
▁Mar	-8.75294
▁terre	-8.75859
▁trouve	-8.75922
▁15	-8.76035
▁d’autres	-8.76132
tion	-8.76427
▁demande	-8.76461
▁air	-8.76562
▁Eh	-8.76608
ad	-8.76694
▁l’on	-8.76725
▁dernière	-8.76755
▁groupe	-8.76817
ul	-8.76909
▁Bien	-8.78022
▁question	-8.78217
O	-8.78462
▁m’en	-8.78533
▁sorte	-8.78704
▁qu’à	-8.7875
E	-8.78909
L	-8.78909
▁pourrait	-8.78948
▁lorsque	-8.79087
ard	-8.79165
▁(19	-8.79327
▁mot	-8.79661
▁donné	-8.79666
▁haut	-8.79817
▁Ha	-8.79989
son	-8.80088
▁maître	-8.80171
im	-8.80555
▁laquelle	-8.80654
rai	-8.8103
▁bien,	-8.81229
▁pro	-8.81765
ff	-8.81885
▁toi	-8.81894
▁pense	-8.81961
r.	-8.82142
▁genre	-8.82186
▁cause	-8.82413
▁Alors	-8.82496
H	-8.82696
▁di	-8.82883
▁12	-8.82951
▁mille	-8.83261
▁É	-8.83352
▁d	-8.83377
▁pré	-8.83404
▁Sur	-8.83481
▁quel	-8.83574
▁H	-8.83647
▁famille	-8.83751
▁Ah	-8.83763
és	-8.83811
▁?).	-8.83866
iste	-8.84124
▁là,	-8.84315
▁l’ai	-8.84443
rie	-8.85024
▁Qu’est-ce	-8.85146
▁Na	-8.85239
teur	-8.85523
▁cou	-8.85697
▁entendu	-8.85857
né	-8.85874
▁Ar	-8.86054
vi	-8.86225
▁propre	-8.86677
▁eux	-8.86753
▁plutôt	-8.86779
lu	-8.86885
▁possible	-8.87117
▁venir	-8.87323
▁début	-8.87324
▁vue	-8.87413
ler	-8.87469
▁bruit	-8.87498
▁vent	-8.87611
▁In	-8.87616
▁feu	-8.87656
ci	-8.8766
▁lors	-8.87758
▁guerre	-8.87809
▁suite	-8.87822
▁bouche	-8.87969
▁garde	-8.88124
G	-8.88239
aire	-8.88486
ence	-8.88607
ance	-8.88746
▁chemin	-8.88774
▁signe	-8.88883
ot	-8.89006
ions	-8.89033
▁chef	-8.89149
▁14	-8.8936
if	-8.89474
▁g	-8.89674
op	-8.89839
as	-8.89856
bi	-8.89984
ron	-8.90016
▁the	-8.90028
▁enfin	-8.90063
▁pays	-8.90164
▁femmes	-8.90318
]	-8.90549
der	-8.90728
▁longtemps	-8.91171
▁13	-8.91241
▁vrai	-8.91251
▁trouvait	-8.91355
▁d'a	-8.91404
▁afin	-8.91492
os	-8.9163
▁l’homme	-8.91813
ale	-8.919
3	-8.9195
-t-il	-8.92093
▁rue	-8.92105
▁p	-8.92116
▁20	-8.92156
0	-8.92221
▁nombre	-8.92533
use	-8.92553
▁direction	-8.92707
▁W	-8.92788
▁11	-8.92799
▁manière	-8.93003
▁<	-8.93273
▁rendre	-8.93412
R	-8.93514
▁co	-8.94119
lin	-8.9433
▁Jean	-8.94415
▁bas	-8.9442
dé	-8.9446
▁Or	-8.95057
▁au-dessus	-8.95203
be	-8.95216
▁Paris	-8.95228
▁commune	-8.95324
▁sûr	-8.9555
id	-8.95697
▁gros	-8.95831
▁rouge	-8.95846
▁su	-8.95852
▁dès	-8.96246
▁frère	-8.96411
▁Po	-8.96423
ed	-8.96825
val	-8.9727
▁tenait	-8.97416
▁ba	-8.9753
ka	-8.97578
▁dix	-8.97602
▁autant	-8.97626
▁bois	-8.97642
▁surtout	-8.97642
ure	-8.97736
chi	-8.97865
ront	-8.97921
▁plan	-8.97952
▁Sans	-8.97999
tin	-8.98056
▁ra	-8.98068
▁Pa	-8.98124
mé	-8.98237
▁peur	-8.98679
ées	-8.98687
ke	-8.98828
▁d’avoir	-8.98853
pe	-8.98894
▁d’en	-8.99007
▁fallait	-8.9902
▁C'est	-8.99195
▁chercher	-8.99207
▁Mo	-8.99348
▁simple	-8.99492
▁courant	-8.9952
qui	-8.99599
▁Bo	-8.99609
▁sol	-8.99665
▁perdu	-8.99796
aux	-8.99966
▁elles	-8.99988
▁cri	-9.00147
▁idée	-9.0019
V	-9.00211
isme	-9.00437
cha	-9.0047
nd	-9.00644
▁l’é	-9.00708
lle	-9.00797
▁grands	-9.00962
▁Oh	-9.01011
▁pièce	-9.01013
▁tourna	-9.01047
er.	-9.01084
▁cent	-9.01175
▁Ro	-9.01239
▁demander	-9.01371
se	-9.01436
▁belle	-9.0147
▁vois	-9.015
▁trouvé	-9.01521
▁route	-9.01696
▁j’étais	-9.01875
▁Peut-être	-9.02055
▁reprit	-9.02234
▁sortir	-9.02389
▁Man	-9.02554
ât	-9.02805
▁né	-9.02834
▁Ces	-9.03064
▁Avec	-9.03122
▁moindre	-9.03165
▁coin	-9.03272
ment,	-9.03349
▁travail	-9.03516
▁passe	-9.03715
▁Pi	-9.03811
▁fois,	-9.03961
ssa	-9.03972
▁ca	-9.0414
▁veut	-9.0443
▁dit-il	-9.04498
▁Ou	-9.04543
ssait	-9.0455
▁Da	-9.04564
▁Li	-9.04856
▁lit	-9.04878
lan	-9.05027
▁ensuite	-9.05032
▁politique	-9.0512
5	-9.05257
ier	-9.05285
am	-9.05497
▁enfants	-9.0621
▁Ka	-9.06315
▁rire	-9.06417
▁mouvement	-9.06654
mer	-9.0689
▁Ri	-9.06905
▁beau	-9.06915
▁croire	-9.0695
mp	-9.0697
▁voilà	-9.07227
euse	-9.07272
▁fer	-9.07347
▁soudain	-9.07422
▁sait	-9.07622
▁fini	-9.07654
▁petits	-9.07757
urs	-9.07767
ha	-9.07894
tt	-9.07937
ac	-9.07958
du	-9.07994
▁tomber	-9.08109
ille	-9.08129
▁seconde	-9.08145
▁Vi	-9.08202
rent	-9.08316
#	-9.08439
▁mots	-9.08439
land	-9.08439
▁table	-9.08476
▁furent	-9.08495
per	-9.08503
4	-9.08529
°	-9.0857
ll	-9.08649
▁No	-9.08775
▁Alors,	-9.09054
▁pauvre	-9.09212
ster	-9.09264
▁s'	-9.09348
▁venu	-9.0944
▁Lo	-9.09455
sa	-9.09554
sh	-9.09631
▁garçon	-9.09704
▁certain	-9.09877
▁mètres	-9.1006
pa	-9.10139
▁fais	-9.10145
▁cour	-9.10196
▁sujet	-9.10273
▁Pro	-9.10278
▁an	-9.10382
▁Ba	-9.10404
io	-9.10446
▁capitaine	-9.1045
▁vieille	-9.10567
▁tel	-9.10618
▁jeu	-9.10701
’	-9.10746
▁rester	-9.10879
-19	-9.1091
▁plein	-9.10912
▁grâce	-9.11067
▁eût	-9.11129
ique	-9.11193
ger	-9.11211
▁doigts	-9.11285
▁présent	-9.11289
ut	-9.11332
▁mari	-9.11363
▁d’A	-9.11374
bo	-9.11383
▁noir	-9.11587
tique	-9.11738
▁semble	-9.11807
▁parmi	-9.11876
▁mois	-9.12112
▁donne	-9.12117
▁Dé	-9.12131
▁Ho	-9.12225
▁tuer	-9.12278
▁six	-9.12298
▁présence	-9.12332
▁Grand	-9.12371
▁parti	-9.12484
▁Ga	-9.12521
ive	-9.12525
▁».	-9.1256
▁peau	-9.12613
▁plaisir	-9.1285
tu	-9.12891
.)	-9.12911
▁type	-9.12958
▁vis	-9.13186
▁Con	-9.1321
▁retour	-9.1332
▁selon	-9.13358
elle	-9.13389
j	-9.13483
▁service	-9.13525
ché	-9.13557
▁compris	-9.13607
▁soleil	-9.13641
▁aussitôt	-9.13709
able	-9.13797
▁s	-9.14226
▁cheval	-9.1432
▁Jo	-9.14437
▁disait	-9.14508
-moi	-9.14715
▁lequel	-9.14787
▁tard,	-9.14791
▁ami	-9.14888
;	-9.1489
▁projet	-9.15267
▁moyen	-9.15274
▁2006	-9.15507
po	-9.15526
ya	-9.15629
▁mur	-9.15668
▁Bon	-9.15806
▁comprendre	-9.15818
-elle	-9.15915
gi	-9.15994
▁San	-9.1617
(	-9.16173
▁pieds	-9.16252
▁voiture	-9.16355
I	-9.16388
tes	-9.16559
▁assis	-9.16661
▁situation	-9.16677
▁certains	-9.16788
▁rapport	-9.16866
▁J	-9.16891
▁Pierre	-9.17013
▁temps,	-9.1705
▁ça,	-9.17237
▁instant	-9.1729
▁Be	-9.17322
▁pi	-9.17362
▁heure	-9.17427
▁silence	-9.17434
▁geste	-9.17453
▁Paul	-9.17474
▁longue	-9.17609
▁ait	-9.17615
▁Y	-9.17773
▁passage	-9.17813
▁quelle	-9.17836
▁envie	-9.17856
▁français	-9.17884
▁voyage	-9.17888
▁lèvres	-9.18108
ts	-9.18163
▁pierre	-9.18169
▁ha	-9.18213
▁voulu	-9.18238
▁ex	-9.18262
▁jeta	-9.18419
▁vite	-9.18448
ol	-9.18778
▁Est-ce	-9.18831
▁simplement	-9.18889
▁Ni	-9.19032
▁tard	-9.19235
▁parfois	-9.19306
tant	-9.19462
▁n'est	-9.19571
19	-9.197
▁regarder	-9.19733
▁but	-9.19759
▁histoire	-9.19774
ly	-9.19951
▁passa	-9.20122
▁j’en	-9.20325
▁d’autre	-9.20401
▁parle	-9.20634
eux	-9.20639
▁Mor	-9.20714
nes	-9.20744
▁musique	-9.20793
▁d'A	-9.20795
▁ligne	-9.21046
eurs	-9.21084
▁front	-9.21147
ère	-9.21215
▁police	-9.21229
mon	-9.2137
▁demandé	-9.21636
▁fou	-9.21649
▁v	-9.21698
ville	-9.21967
nce	-9.22299
un	-9.22381
▁Cor	-9.22505
▁2007	-9.22519
▁prince	-9.22528
▁taille	-9.2264
les	-9.22673
▁livre	-9.22983
▁Ti	-9.22986
▁000	-9.23043
▁région	-9.23053
gue	-9.23227
▁bientôt	-9.23251
▁Mi	-9.23265
▁telle	-9.23369
▁soir	-9.23418
con	-9.23437
▁vient	-9.23628
▁lui-même	-9.23798
▁c'est	-9.23884
▁plupart	-9.23885
ina	-9.23998
▁na	-9.24067
▁s’y	-9.24272
▁l’in	-9.24285
▁ayant	-9.24364
▁ciel	-9.24594
ssant	-9.24739
▁sortit	-9.24762
min	-9.24779
▁verre	-9.25062
▁dois	-9.25343
don	-9.25376
▁arrivé	-9.25462
▁ans,	-9.25497
ade	-9.25634
▁lettre	-9.25759
▁pourtant	-9.25771
▁langue	-9.25927
▁lança	-9.25933
▁Lu	-9.25987
▁d’œil	-9.26
▁yeux.	-9.26023
ko	-9.26027
▁Mme	-9.26031
ise	-9.26129
ic	-9.26155
▁laissé	-9.26281
▁vol	-9.26344
dy	-9.26421
▁Val	-9.26557
▁jusqu’au	-9.26571
▁faisant	-9.26579
▁Per	-9.26617
tra	-9.26646
▁Où	-9.26704
▁d’abord	-9.26756
ire	-9.27011
st	-9.27012
ng	-9.27076
▁froid	-9.27079
▁fil	-9.272
▁Ru	-9.27226
▁moment,	-9.2732
cher	-9.27453
▁Nord	-9.27505
▁Do	-9.27616
▁douleur	-9.27784
▁cher	-9.27851
▁al	-9.27885
▁bi	-9.2791
▁l’intérieur	-9.27957
▁joue	-9.2796
▁retrouver	-9.27975
7	-9.28007
▁mesure	-9.28078
ley	-9.28172
▁fa	-9.28249
00	-9.28338
▁pont	-9.28392
▁figure	-9.28468
8	-9.28529
▁scène	-9.28543
▁fût	-9.28673
▁penser	-9.28707
▁l’heure	-9.28826
▁Di	-9.28862
▁commença	-9.28931
▁connu	-9.28996
▁cru	-9.29032
▁Ja	-9.29115
▁malgré	-9.29176
▁tes	-9.29185
▁état	-9.2921
▁mars	-9.29279
▁mer	-9.29289
▁voyait	-9.29435
▁portait	-9.29506
nu	-9.29635
▁or	-9.29735
▁Fa	-9.2981
▁rapidement	-9.29859
▁centre	-9.29869
▁He	-9.29959
▁jeunes	-9.29994
▁l’en	-9.30018
▁minutes	-9.30123
▁enfant	-9.30206
▁vide	-9.30209
gé	-9.30226
▁comte	-9.30264
ris	-9.30273
▁dos	-9.30366
▁laissa	-9.30373
▁marche	-9.3038
▁sort	-9.30479
ins	-9.30484
▁Votre	-9.30785
▁personnes	-9.30827
▁peuvent	-9.30854
▁Pendant	-9.30935
▁siècle	-9.3102
ran	-9.31279
▁2004	-9.31453
▁n’	-9.31918
ven	-9.31933
▁large	-9.32045
▁X	-9.32211
▁Plus	-9.32328
ez-vous	-9.32389
▁nord	-9.32486
▁Liens	-9.32679
▁d’in	-9.32751
oc	-9.32784
▁vivre	-9.32824
rin	-9.32829
▁désir	-9.32848
▁Pays	-9.32889
▁2005	-9.32892
▁savez	-9.32993
er,	-9.33127
ette	-9.33309
▁sentait	-9.33533
▁reine	-9.33593
▁font	-9.33647
▁Louis	-9.3371
▁El	-9.33719
ja	-9.33766
â	-9.33779
▁difficile	-9.33819
▁Tous	-9.33897
▁Bar	-9.3393
▁hors	-9.33978
▁sombre	-9.33994
▁rôle	-9.34091
▁série	-9.34286
nie	-9.3429
▁Cha	-9.34323
▁compagnie	-9.34406
▁vingt	-9.34423
▁village	-9.34425
fi	-9.34491
ment.	-9.34507
▁paroles	-9.34661
ph	-9.34716
▁Deux	-9.34717
▁camp	-9.34723
▁juge	-9.34745
▁Non	-9.34961
▁Su	-9.34967
▁bar	-9.35065
▁rien.	-9.35146
▁château	-9.35147
▁l’impression	-9.35275
vo	-9.35335
▁Z	-9.35484
▁bleu	-9.35528
▁Depuis	-9.35553
-t-elle	-9.35817
▁nombreux	-9.35837
▁sou	-9.35915
▁s’é	-9.36002
▁II	-9.36094
▁Mont	-9.36125
▁chance	-9.36164
▁to	-9.36171
▁esprit	-9.36185
▁f	-9.36196
▁bataille	-9.36318
▁Rien	-9.36319
ru	-9.36467
est	-9.36483
▁blanc	-9.36484
▁membres	-9.36705
▁and	-9.36813
▁restait	-9.36929
▁prix	-9.36939
▁n'a	-9.36974
▁19	-9.37092
▁seigneur	-9.37138
▁An	-9.37139
▁qu’	-9.37155
▁affaire	-9.37201
▁chacun	-9.37494
▁l’eau	-9.37547
▁Ben	-9.37552
▁John	-9.37609
▁docteur	-9.3763
ateur	-9.377
▁s’étaient	-9.37703
▁États-Unis	-9.37731
▁jambes	-9.37784
▁nez	-9.37867
▁sentit	-9.37936
▁réussi	-9.37995
6	-9.37996
▁puisse	-9.37998
▁pleine	-9.37999
▁articles	-9.38105
▁tué	-9.38223
▁charge	-9.38292
▁New	-9.3831
▁Te	-9.38389
▁sœur	-9.38556
▁nature	-9.38655
▁Ré	-9.38686
▁moitié	-9.3877
▁position	-9.38834
▁dit-il.	-9.38841
▁tête,	-9.38843
9	-9.38872
▁s’arrêta	-9.38908
▁propos	-9.39003
▁U	-9.39054
▁coups	-9.39224
▁Go	-9.39487
ble	-9.39568
▁madame	-9.39683
▁Même	-9.39686
▁tellement	-9.39688
▁système	-9.39711
▁Bi	-9.39781
▁prêt	-9.39782
▁parlé	-9.39886
▁So	-9.399
▁j’	-9.40083
▁poste	-9.40187
▁Voilà	-9.40268
18	-9.40302
nte	-9.40313
▁voulez	-9.40392
ki	-9.40413
▁2001	-9.40429
▁française	-9.40438
▁court	-9.40439
illa	-9.40551
▁posa	-9.40612
▁étant	-9.40617
▁murmura	-9.40776
U	-9.40814
mar	-9.40821
▁bureau	-9.40893
▁ici,	-9.40911
▁li	-9.41028
▁Va	-9.41115
ho	-9.41136
▁souffle	-9.41189
▁l'é	-9.41473
▁Gi	-9.41477
▁sud	-9.41485
pi	-9.41681
▁Paris,	-9.41701
vin	-9.41712
▁combat	-9.41794
▁mise	-9.41856
▁mou	-9.41918
▁22	-9.42085
▁robe	-9.42112
▁soldats	-9.42359
▁nouvelles	-9.42402
▁endroit	-9.42423
▁matin	-9.42425
oir	-9.42596
eau	-9.42665
▁peuple	-9.427
▁s’écria	-9.42779
▁retourna	-9.42819
▁noire	-9.42825
▁servir	-9.42862
cé	-9.42881
▁recherche	-9.43224
▁effet	-9.43255
[	-9.43308
om	-9.4335
▁mé	-9.43563
▁Charles	-9.43615
▁30	-9.43881
▁pensée	-9.43884
em	-9.43916
▁entendre	-9.44155
▁site	-9.44202
▁population	-9.44229
▁titre	-9.44305
▁public	-9.44352
▁po	-9.444
▁1999	-9.44463
▁Bu	-9.44476
▁toi,	-9.44526
▁aura	-9.44538
aï	-9.44539
▁ajouta	-9.4459
▁lentement	-9.44714
ï	-9.44721
▁ça.	-9.44786
ante	-9.44909
▁Terre	-9.44971
ière	-9.45004
▁J’avais	-9.45145
▁impossible	-9.45168
▁b	-9.45254
▁21	-9.45288
our	-9.45312
▁duc	-9.4547
▁qu'elle	-9.45497
men	-9.45505
▁Richard	-9.45564
▁page	-9.45684
▁écrit	-9.45733
▁Parti	-9.4587
▁David	-9.45876
▁auprès	-9.46052
za	-9.46054
▁joie	-9.4608
▁perdre	-9.46093
▁cas,	-9.46268
iez	-9.46335
hi	-9.46419
▁secoua	-9.46505
▁société	-9.4684
▁doucement	-9.469
▁Hu	-9.47048
▁haute	-9.47094
▁film	-9.47096
▁d’or	-9.47233
▁troisième	-9.47359
▁arriver	-9.47414
▁t’	-9.47498
rons	-9.47637
▁départ	-9.47711
▁cependant	-9.47731
▁gouvernement	-9.47739
▁tenir	-9.47805
▁2003	-9.4785
▁juin	-9.47867
▁véritable	-9.47929
▁25	-9.47946
▁gauche	-9.48054
▁reçu	-9.4817
▁deuxième	-9.48228
▁l'A	-9.48348
▁Pe	-9.48491
▁visite	-9.48492
▁capable	-9.48492
▁conversation	-9.4854
pp	-9.48698
▁libre	-9.48724
▁sac	-9.48747
▁continua	-9.48772
▁2000	-9.48823
vis	-9.4887
▁rencontre	-9.48901
ix	-9.48979
▁d’elle	-9.49113
▁mai	-9.4916
▁vin	-9.49175
▁per	-9.49226
▁durant	-9.49289
▁externes	-9.49311
▁t’a	-9.49313
▁habitants	-9.49474
▁basse	-9.49603
▁suivre	-9.49815
▁n’avais	-9.4986
vent	-9.49931
▁regardait	-9.50008
ob	-9.50009
▁Quel	-9.50024
▁vint	-9.50039
▁confiance	-9.50175
ations	-9.50202
▁dehors	-9.50255
▁/	-9.5029
▁étrange	-9.50334
vers	-9.50341
▁tirer	-9.50385
▁jouer	-9.50392
den	-9.50418
▁savais	-9.50493
▁danger	-9.50679
10	-9.50704
▁jour,	-9.5096
ras	-9.50965
▁Bou	-9.51092
ns	-9.51094
50	-9.51254
lon	-9.5126
▁Tour	-9.51313
▁prend	-9.51392
▁chien	-9.51413
▁t	-9.5143
▁Oui.	-9.51473
▁contact	-9.51515
▁S’il	-9.51733
▁resta	-9.51742
▁foule	-9.51795
▁n’est-ce	-9.519
pin	-9.51931
▁l’esprit	-9.51952
▁guère	-9.51969
▁clair	-9.52056
▁dame	-9.5214
▁poche	-9.52187
▁[	-9.52251
▁second	-9.52327
▁grandes	-9.52428
▁rend	-9.52435
ana	-9.52441
née	-9.52483
▁Tra	-9.528
ty	-9.52847
▁trou	-9.52971
▁quitter	-9.53001
ud	-9.53037
▁Jack	-9.53077
▁paraissait	-9.53086
▁Robert	-9.53135
▁droite	-9.53169
▁rêve	-9.53174
▁petites	-9.53217
gu	-9.53257
▁réponse	-9.53292
▁celui-ci	-9.53342
▁problème	-9.53386
▁blanche	-9.53496
ber	-9.53506
▁ferme	-9.53575
▁colère	-9.53638
▁24	-9.53845
▁qu’en	-9.53853
▁lu	-9.53856
▁inter	-9.54009
▁mauvais	-9.54125
▁lettres	-9.54239
ssent	-9.54249
▁située	-9.54359
▁certaine	-9.54501
▁sé	-9.54554
▁%	-9.54586
▁connais	-9.54762
▁appris	-9.54786
▁imp	-9.54798
▁environ	-9.54901
K	-9.54904
▁manger	-9.55023
▁siège	-9.55075
▁main.	-9.55129
tan	-9.55133
▁poussa	-9.55142
▁dés	-9.55235
▁amis	-9.55258
▁devoir	-9.55337
dor	-9.55357
▁souvenir	-9.55365
▁l	-9.55381
▁(S	-9.55435
by	-9.55435
▁exemple	-9.55563
▁23	-9.55684
▁ouvrit	-9.557
lement	-9.55737
30	-9.55772
▁conscience	-9.55795
▁attendre	-9.5592
▁téléphone	-9.55929
▁alla	-9.55938
▁attention	-9.55984
▁entra	-9.56014
▁huit	-9.56022
s-tu	-9.56039
▁put	-9.56173
▁tôt	-9.56342
▁n’aurait	-9.56356
▁passait	-9.56464
od	-9.56483
▁journée	-9.56535
▁déclara	-9.56674
par	-9.56784
ser	-9.56814
▁port	-9.56825
▁?...	-9.56843
▁laisse	-9.56849
▁choisi	-9.5696
▁montrer	-9.57017
▁Michel	-9.57024
▁distance	-9.57104
ian	-9.57113
▁Ver	-9.57151
ssé	-9.57269
▁fi	-9.57345
tor	-9.57588
-le	-9.57609
ide	-9.57633
▁suivant	-9.57704
▁voulais	-9.5771
's	-9.57868
wa	-9.57895
rou	-9.5803
▁cité	-9.58141
▁questions	-9.58364
▁forces	-9.58431
▁couloir	-9.58481
▁s’agit	-9.58542
20	-9.58577
▁2008	-9.58593
z-vous	-9.58641
▁papier	-9.58648
%	-9.58759
▁ri	-9.58786
mont	-9.58914
a,	-9.58971
▁base	-9.59004
▁nationale	-9.59006
▁parfaitement	-9.59104
▁sortie	-9.59277
rais	-9.59336
▁Gu	-9.59346
▁risque	-9.59364
cer	-9.59381
▁ministre	-9.5948
▁c	-9.59492
▁entrer	-9.59501
▁secret	-9.5953
▁dire,	-9.59544
▁forte	-9.59559
▁soir,	-9.59566
▁couleur	-9.59617
▁facile	-9.59627
ak	-9.5963
▁décidé	-9.59746
▁devenir	-9.59776
▁montre	-9.59803
▁complètement	-9.59804
▁surface	-9.59827
▁heureux	-9.59886
▁Histoire	-9.59969
▁tendit	-9.5998
let	-9.59981
▁sentiment	-9.60016
▁vont	-9.60084
▁niveau	-9.60168
▁Mes	-9.60245
▁trouva	-9.60376
▁tira	-9.60425
▁Monsieur	-9.60586
▁arrive	-9.60683
▁m’avait	-9.60743
ont	-9.60757
ag	-9.60826
▁année	-9.60897
▁champ	-9.60972
▁oui,	-9.61042
▁probablement	-9.6109
▁particulier	-9.61228
▁chevaux	-9.61271
▁1er	-9.61323
▁livres	-9.61327
▁existe	-9.61345
igne	-9.61392
▁Non.	-9.6151
istes	-9.61543
tri	-9.61572
▁Enfin,	-9.61689
gan	-9.61753
▁proche	-9.61947
▁différents	-9.6196
▁mariage	-9.62021
▁demain	-9.62108
raient	-9.62129
▁To	-9.62151
▁comprends	-9.62201
▁parut	-9.6222
ienne	-9.62276
ang	-9.62324
▁murs	-9.62341
▁chaleur	-9.62358
ano	-9.62383
▁Mer	-9.62394
gh	-9.6243
port	-9.6253
▁exactement	-9.62533
▁aussi,	-9.6256
▁Quelle	-9.62573
▁dit-elle	-9.62699
mb	-9.62779
▁n’avaient	-9.62799
▁maintenant,	-9.62811
nant	-9.62851
car	-9.62866
▁mourir	-9.62873
▁&	-9.62915
▁prise	-9.62925
▁St	-9.62936
▁hocha	-9.62985
ex	-9.62994
▁donnait	-9.63023
▁Marie	-9.63043
cri	-9.63163
ah	-9.63235
▁douce	-9.6325
▁donna	-9.63253
▁Quoi	-9.63287
▁premiers	-9.63368
▁répliqua	-9.63397
iller	-9.63498
▁terme	-9.63536
hu	-9.63642
▁bo	-9.63655
▁fait,	-9.63789
▁répondre	-9.63793
▁2002	-9.63811
▁commun	-9.63823
s)	-9.63865
▁Fi	-9.63923
t,	-9.63927
dou	-9.63975
▁forêt	-9.64033
▁Harry	-9.64057
▁département	-9.64059
▁meilleur	-9.64063
▁faisaient	-9.64064
ino	-9.64071
▁affaires	-9.64071
bel	-9.64201
▁devient	-9.64228
▁yeux,	-9.64244
▁Ju	-9.64246
▁sécurité	-9.64316
▁fauteuil	-9.64369
▁brusquement	-9.64419
tro	-9.64447
▁notamment	-9.64551
▁J’en	-9.64568
▁bande	-9.64625
▁tombe	-9.64641
▁marché	-9.64662
Y	-9.6468
▁d’eau	-9.64688
▁parents	-9.6475
▁mission	-9.64875
ane	-9.6489
▁Saint-	-9.64936
isation	-9.65021
ign	-9.65035
▁Sud	-9.65119
▁puisque	-9.6523
ue	-9.65241
▁l’une	-9.6539
▁désormais	-9.65391
▁larmes	-9.65442
▁président	-9.65449
gar	-9.65481
▁parlait	-9.65599
▁do	-9.65618
▁J’	-9.65624
vé	-9.65654
▁Martin	-9.65692
▁Chi	-9.65705
▁s'a	-9.65714
▁mémoire	-9.65792
and	-9.65825
▁d’E	-9.6596
ey	-9.65972
▁éclair	-9.65976
▁cela,	-9.65995
▁Chapitre	-9.66045
▁trans	-9.66052
▁1990	-9.66232
▁oublié	-9.66255
▁dit-il,	-9.66267
▁Wa	-9.66267
}}}	-9.66284
▁connaissait	-9.66471
▁semaine	-9.66492
ica	-9.66514
iens	-9.66579
▁voyant	-9.66601
▁Dr	-9.66624
▁hasard	-9.66705
sta	-9.66734
▁Tom	-9.66754
▁vie.	-9.66785
▁porter	-9.66849
▁Dan	-9.66858
▁armes	-9.66877
40	-9.66898
sser	-9.66929
▁filles	-9.67002
s...	-9.67006
▁cents	-9.67016
▁nuit,	-9.67049
▁chaise	-9.6712
80	-9.67188
ius	-9.67212
▁Très	-9.67283
▁Bra	-9.67326
è	-9.67339
art	-9.67401
▁Jacques	-9.67452
▁faites	-9.67486
▁Code	-9.67538
▁terrible	-9.67576
ze	-9.676
▁jardin	-9.6764
▁pièces	-9.67742
▁doigt	-9.67756
▁vitesse	-9.67757
▁effet,	-9.67774
▁glace	-9.67829
issant	-9.67842
▁faible	-9.67896
▁pouvaient	-9.67928
van	-9.67954
▁présente	-9.67957
tions	-9.68052
▁27	-9.68053
▁important	-9.68068
qua	-9.68122
▁ans.	-9.68139
▁choix	-9.68173
▁devenu	-9.68175
▁28	-9.68249
É	-9.68259
ès	-9.68318
▁cap	-9.68319
▁aide	-9.68374
▁(Il	-9.68399
qué	-9.68407
▁goût	-9.68463
▁gris	-9.68536
▁permet	-9.68565
▁garder	-9.68575
▁Har	-9.68584
▁Ke	-9.68589
▁J’étais	-9.68629
▁espèce	-9.68648
▁Personne	-9.6869
▁Mé	-9.68736
ien	-9.68811
J	-9.68833
▁arbres	-9.68869
▁numéro	-9.68946
▁Lorsque	-9.69037
▁n’étaient	-9.69058
▁surprise	-9.69144
▁26	-9.69159
ct	-9.69165
t.	-9.69203
▁combien	-9.69243
up	-9.69317
bre	-9.69341
▁pâle	-9.6942
▁parole	-9.69443
▁temps.	-9.69477
▁bonheur	-9.69535
▁rendu	-9.69566
ît	-9.6958
▁vêtements	-9.69586
▁janvier	-9.69608
lie	-9.69633
▁char	-9.69727
▁allons	-9.69741
mm	-9.69757
▁rapide	-9.69813
▁déc	-9.69873
▁L’a	-9.69983
▁monter	-9.69986
▁h	-9.70015
▁sûr,	-9.70149
▁message	-9.70218
▁s’approcha	-9.7025
ssaient	-9.70252
▁connaître	-9.70296
▁loi	-9.70306
tta	-9.70312
▁chair	-9.70429
ô	-9.70537
ab	-9.70538
▁ici.	-9.70546
▁rivière	-9.70606
▁Parce	-9.70614
▁pouvais	-9.70642
▁voit	-9.70673
▁ensemble	-9.70693
▁partout	-9.70917
▁porte.	-9.70943
tation	-9.71001
▁boîte	-9.7106
▁nécessaire	-9.71175
▁mort.	-9.71222
▁pencha	-9.71333
▁salon	-9.71341
▁là.	-9.71423
nait	-9.71432
▁l’idée	-9.71453
fer	-9.71456
▁veille	-9.71508
▁sept	-9.71597
▁café	-9.71626
▁a-t-il	-9.71628
▁Liste	-9.71652
▁cria	-9.71723
▁vert	-9.71729
cu	-9.71756
ole	-9.71798
▁t’en	-9.71849
▁Ex	-9.71885
▁produit	-9.71896
▁suivi	-9.71996
▁physique	-9.71999
▁Cal	-9.72036
ste	-9.72042
▁certaines	-9.72045
ttes	-9.72062
▁matin,	-9.72081
▁respect	-9.72096
▁est-ce	-9.72201
▁allé	-9.72218
▁da	-9.72227
su	-9.7225
▁répond	-9.72279
▁double	-9.72372
▁neige	-9.7239
res	-9.72421
tel	-9.72437
▁lire	-9.72488
▁derniers	-9.72523
▁province	-9.72529
▁venue	-9.72639
▁fenêtre	-9.72796
ales	-9.7281
▁grave	-9.72866
▁sommeil	-9.72898
▁q	-9.72937
▁os	-9.72978
▁perd	-9.7309
tch	-9.73094
mes	-9.73168
▁pa	-9.73247
▁données	-9.7326
ju	-9.73275
-t-il.	-9.7331
▁(C	-9.73357
▁dents	-9.7336
(s)	-9.73489
▁celles	-9.73526
han	-9.73599
▁appel	-9.73615
ois	-9.73666
▁Mais,	-9.73671
▁Char	-9.73678
▁vie,	-9.73722
▁morte	-9.73768
▁légèrement	-9.73792
▁septembre	-9.738
▁épaules	-9.73918
▁ancien	-9.73989
▁palais	-9.73998
▁gorge	-9.73998
▁désert	-9.74059
a.	-9.74112
▁Ko	-9.74209
▁découvrir	-9.74296
ite	-9.74309
▁commencé	-9.74352
▁trente	-9.7446
▁lune	-9.74464
âmes	-9.74518
88	-9.74528
▁épée	-9.74545
▁période	-9.74587
▁revenir	-9.74721
vant	-9.74741
▁Dès	-9.74761
▁juillet	-9.74776
▁expression	-9.74811
▁père,	-9.74845
▁bu	-9.7493
▁Van	-9.74974
▁l'in	-9.75001
▁d'é	-9.75046
▁avais	-9.7506
▁manque	-9.75063
▁jusqu'à	-9.75074
▁Quant	-9.75104
▁découvert	-9.75108
gre	-9.75152
▁terrain	-9.75153
▁poser	-9.75159
▁Sch	-9.75189
ction	-9.75309
▁femme,	-9.75391
lla	-9.75431
▁commence	-9.75459
▁Mal	-9.75459
ologie	-9.75479
90	-9.75495
he	-9.75563
▁pluie	-9.75568
▁Mac	-9.75603
▁eux,	-9.75612
▁voie	-9.75688
▁elle-même	-9.75699
▁Moi	-9.75714
▁puissance	-9.7592
ren	-9.75921
▁ru	-9.75932
▁militaire	-9.75961
▁d’entre	-9.76076
▁sorti	-9.76198
fa	-9.76244
ten	-9.76304
▁regardant	-9.7646
▁connaissance	-9.76461
▁retourner	-9.7652
60	-9.76531
▁pensées	-9.76544
▁davantage	-9.76561
▁Seigneur	-9.76587
▁Gra	-9.76593
-B	-9.76612
▁(18	-9.76637
▁paix	-9.76711
▁officiel	-9.76798
▁rejoindre	-9.76903
▁Za	-9.7691
-S	-9.76914
sen	-9.76923
▁Hi	-9.76964
▁quartier	-9.77081
▁nombreuses	-9.77295
▁n’importe	-9.77402
é,	-9.77419
▁François	-9.77433
ture	-9.77435
sion	-9.77463
ule	-9.77464
▁don	-9.77469
W	-9.77503
▁ordre	-9.77504
▁attend	-9.77543
ments	-9.77588
-là	-9.77656
▁ver	-9.77695
▁sourit	-9.77794
▁succès	-9.77822
▁Bob	-9.77847
▁d'autres	-9.77909
▁revint	-9.77922
▁club	-9.77923
▁instant,	-9.77949
▁amour	-9.78091
▁*	-9.78125
voir	-9.7814
▁chaud	-9.78159
▁ouvert	-9.78161
▁appelé	-9.78447
erie	-9.78453
▁so	-9.78467
ric	-9.78515
▁hauteur	-9.78523
89	-9.7853
tait	-9.78541
bri	-9.78541
irent	-9.78592
▁Dis	-9.78592
▁avril	-9.78604
▁main,	-9.78608
▁viens	-9.78713
▁Cependant,	-9.78905
▁debout	-9.78917
▁allez	-9.78932
lier	-9.78942
▁masse	-9.78944
▁saison	-9.78951
▁plat	-9.7911
▁soupir	-9.79164
ile	-9.79178
▁volonté	-9.7924
nier	-9.79242
ig	-9.79354
▁professeur	-9.79376
hy	-9.79466
ète	-9.79466
▁repas	-9.79469
▁campagne	-9.7955
▁monde.	-9.79562
▁lance	-9.79571
nelle	-9.79591
▁changer	-9.7962
▁Elles	-9.79685
▁Gar	-9.79749
lia	-9.79805
▁29	-9.79828
▁âge	-9.79837
▁1998	-9.79856
▁âme	-9.79918
▁ouverte	-9.79981
▁posé	-9.80005
din	-9.8011
▁Bri	-9.80116
cre	-9.80254
▁vaisseau	-9.8026
▁k	-9.80292
▁immédiatement	-9.80363
▁commandant	-9.8039
▁o	-9.8057
▁disparu	-9.80606
▁ventre	-9.80647
mbre	-9.80678
▁Pan	-9.8068
illon	-9.80686
▁kilomètres	-9.80785
▁envoyé	-9.80867
▁km2	-9.80872
▁vaste	-9.80943
▁non,	-9.80961
▁...	-9.80966
rée	-9.80981
▁anglais	-9.8102
▁George	-9.81085
▁p.	-9.81136
▁cherche	-9.81176
gin	-9.81183
▁chant	-9.81286
▁pensé	-9.81312
▁paraît	-9.81334
▁Philippe	-9.81377
▁remarqua	-9.81391
lant	-9.81482
▁côte	-9.81491
17	-9.81519
▁portes	-9.81543
▁Madame	-9.81564
▁n’ont	-9.81579
tif	-9.81691
cier	-9.81749
▁décembre	-9.81826
▁l’instant	-9.81826
▁médecin	-9.8183
▁calme	-9.8189
▁planète	-9.8196
▁l'un	-9.81966
▁répéta	-9.81995
▁Puis,	-9.82007
67	-9.8201
ens	-9.82045
▁s’agissait	-9.8207
tal	-9.82128
▁ci	-9.8213
xe	-9.82166
▁no	-9.82205
▁quitté	-9.82224
▁américain	-9.82245
▁cor	-9.82342
▁mine	-9.8248
ice	-9.82502
▁entendit	-9.82588
▁vision	-9.82762
end	-9.82769
▁Bre	-9.82859
▁liste	-9.82869
▁par-dessus	-9.82878
▁fonction	-9.82888
▁Avant	-9.82945
▁s'est	-9.82987
▁d’aller	-9.83069
▁eux.	-9.83083
gen	-9.83121
▁l’argent	-9.83121
78	-9.83148
▁tomba	-9.83195
ssement	-9.83241
ria	-9.83341
▁lorsqu’il	-9.83427
▁cris	-9.83484
▁contrôle	-9.8353
▁arrière	-9.83549
▁gagner	-9.83595
▁pratique	-9.83659
▁noirs	-9.83695
uf	-9.8375
▁regarde	-9.83811
▁vas	-9.83856
▁pire	-9.83983
▁récit	-9.83988
▁dîner	-9.83996
▁victoire	-9.84014
▁arme	-9.8405
isse	-9.84072
rez	-9.84088
▁novembre	-9.84144
▁décision	-9.84145
▁léger	-9.84163
off	-9.84205
▁Toutes	-9.84223
rd	-9.84244
▁oreilles	-9.84291
▁menace	-9.84305
dra	-9.84396
▁l’amour	-9.84409
▁carte	-9.84492
ther	-9.84621
▁classe	-9.84637
▁l’endroit	-9.84643
▁surpris	-9.84753
▁soient	-9.84768
▁col	-9.84793
▁diable	-9.84844
cro	-9.84888
▁lueur	-9.84956
ara	-9.84992
▁neuf	-9.8501
▁moi-même	-9.85012
▁pé	-9.85018
11	-9.85091
▁octobre	-9.85145
▁cinquante	-9.85199
▁humain	-9.85203
▁ferma	-9.85205
▁royaume	-9.85217
ny	-9.85354
mus	-9.85413
▁profonde	-9.8546
bé	-9.85463
▁tâche	-9.8547
▁Saint	-9.85489
onne	-9.85501
▁devrait	-9.8551
ani	-9.85583
▁Bel	-9.8575
▁avions	-9.8583
▁tri	-9.85831
berg	-9.85842
▁(P	-9.85871
▁certainement	-9.86037
▁Bill	-9.86106
▁Don	-9.86109
▁vérité	-9.86111
▁sommet	-9.86171
ub	-9.86212
ques	-9.86233
▁incapable	-9.86234
▁reconnu	-9.86254
bert	-9.86273
▁pointe	-9.86351
▁malade	-9.86364
enne	-9.86455
ov	-9.86519
▁passant	-9.86549
▁dire.	-9.86557
-toi	-9.86594
▁liberté	-9.86599
▁millions	-9.86612
▁bête	-9.86634
lli	-9.8666
▁(A	-9.86683
▁York	-9.86728
▁poids	-9.86728
▁propres	-9.86763
▁contraire	-9.86787
iques	-9.86823
▁roman	-9.8697
▁semaines	-9.86973
▁étions	-9.87039
ney	-9.87075
i-je	-9.87157
á	-9.87164
line	-9.87272
▁vivant	-9.87281
▁1962	-9.87285
▁auraient	-9.8734
▁Quelques	-9.87364
12	-9.87408
ée,	-9.87416
▁vaut	-9.87446
▁Lui	-9.87459
▁ferait	-9.87493
▁fête	-9.87579
▁pensait	-9.87763
▁e	-9.87769
qu	-9.87795
▁dessus	-9.87828
▁Hé	-9.87844
▁triste	-9.87927
▁tente	-9.87931
▁mi	-9.88011
▁1997	-9.88028
95	-9.88034
▁fortune	-9.88036
▁{{{	-9.88141
▁profond	-9.8815
▁cha	-9.8817
▁situé	-9.88288
▁vi	-9.88337
▁août	-9.88351
▁l’escalier	-9.88354
▁domaine	-9.88373
▁changé	-9.88448
▁Sal	-9.88516
bar	-9.88543
▁meilleure	-9.88582
cul	-9.88583
▁l’œil	-9.88597
▁atteint	-9.88598
▁œil	-9.88598
▁conseil	-9.88618
▁ho	-9.88702
▁sentir	-9.88727
▁rentrer	-9.88729
▁chasse	-9.88754
▁ordres	-9.88784
we	-9.88795
the	-9.88814
▁qu’est-ce	-9.88822
▁continue	-9.88836
14	-9.8884
▁rou	-9.88874
▁cercle	-9.88879
70	-9.889
▁membre	-9.8891
▁servi	-9.8893
▁jeter	-9.89046
dre	-9.89059
▁date	-9.89169
▁i	-9.89241
15	-9.89264
ie,	-9.89277
▁valeur	-9.89278
▁bâtiment	-9.89345
▁Peter	-9.8937
ham	-9.89376
▁navire	-9.89394
▁soupira	-9.89396
▁fleurs	-9.89432
▁Sam	-9.89534
▁signifie	-9.89573
ill	-9.89575
▁secondes	-9.89607
▁humaine	-9.8962
▁mar	-9.89634
▁République	-9.89677
▁tranquille	-9.89681
▁rien,	-9.89771
ok	-9.89787
▁fera	-9.89795
!	-9.89808
▁homonymes	-9.89886
▁traits	-9.89903
▁Cap	-9.89948
éri	-9.90112
▁met	-9.90136
▁Ge	-9.9015
▁humains	-9.9015
97	-9.90154
▁février	-9.90309
▁sauf	-9.90317
▁minute	-9.90336
▁morts	-9.90375
▁rencontré	-9.90388
tier	-9.90392
▁chose.	-9.90399
▁d’argent	-9.9042
▁version	-9.9048
▁Pat	-9.90505
net	-9.90542
▁vague	-9.90549
▁classique	-9.90559
▁1995	-9.90606
▁Is	-9.90611
▁pourrais	-9.90697
▁défi	-9.90737
▁seront	-9.90774
▁cuir	-9.90797
▁épaules.	-9.90844
mis	-9.90862
▁lendemain	-9.90877
▁preuve	-9.90947
▁territoire	-9.91036
▁montagne	-9.91042
▁nommé	-9.91073
▁beauté	-9.91075
▁dirigea	-9.91085
can	-9.91127
▁monde,	-9.9116
ek	-9.91173
▁national	-9.91193
▁haussa	-9.91207
▁présent,	-9.91209
teurs	-9.91212
▁crâne	-9.91266
tis	-9.91278
eu	-9.9136
alité	-9.91387
▁Nom	-9.9139
lic	-9.91416
▁chemise	-9.91478
▁sauver	-9.91483
▁spectacle	-9.91535
▁tourner	-9.91657
▁Population	-9.91671
▁Oh,	-9.91689
▁prenait	-9.9171
▁n’avez	-9.91739
▁nouveaux	-9.91784
▁nuit.	-9.91785
▁grosse	-9.91922
▁Maintenant,	-9.92004
▁réalité	-9.92136
▁Ki	-9.92142
▁Est	-9.92149
lée	-9.92168
▁ga	-9.92207
▁Henri	-9.92251
▁Italie	-9.92288
▁carrière	-9.92306
▁l’intention	-9.92311
▁reprendre	-9.92364
▁monsieur,	-9.9237
▁épouse	-9.92409
lot	-9.92434
▁mauvaise	-9.92498
▁releva	-9.92526
▁suppose	-9.92543
85	-9.92699
▁arrivée	-9.92706
▁immense	-9.92735
▁sable	-9.92744
▁1996	-9.92801
86	-9.92803
ini	-9.92831
▁points	-9.92904
▁laissant	-9.93002
fe	-9.93011
jo	-9.931
▁jours,	-9.93104
99	-9.9312
▁ar	-9.93136
gg	-9.93153
▁L’homme	-9.93212
▁comptes	-9.93222
▁l’oreille	-9.93402
é.	-9.93476
nel	-9.93499
▁construction	-9.93499
25	-9.93506
▁marcher	-9.93534
on,	-9.93534
▁mort,	-9.93565
▁Rome	-9.93565
▁cro	-9.93634
▁absolument	-9.93722
lis	-9.93794
▁Ab	-9.93896
▁Prix	-9.93937
83	-9.93945
▁magie	-9.93959
▁devint	-9.94
▁l’ombre	-9.94009
▁boire	-9.94027
05	-9.9404
stre	-9.94083
▁protéger	-9.94131
▁+	-9.94133
▁naissance	-9.94229
▁bou	-9.94234
▁journal	-9.94256
▁Ci	-9.94296
▁Région	-9.94325
▁sein	-9.94547
▁bateau	-9.94556
▁section	-9.94606
▁puis,	-9.94662
▁station	-9.94689
▁qu’elles	-9.94703
▁im	-9.94757
▁pareil	-9.94786
bou	-9.94933
▁Miss	-9.94939
iers	-9.94992
tr	-9.95015
▁Guerre	-9.95021
ies	-9.95029
▁emb	-9.9506
aud	-9.95063
ène	-9.95087
▁dormir	-9.95209
gne	-9.95228
iser	-9.95246
kin	-9.95275
non	-9.95369
▁mode	-9.95426
▁encore,	-9.95433
▁meurtre	-9.95479
▁l’A	-9.95541
cle	-9.95596
tar	-9.95612
▁toit	-9.95627
ines	-9.95652
▁lac	-9.95689
▁soin	-9.95751
▁pensa	-9.95805
▁expliqua	-9.95835
▁toi.	-9.95851
▁Bé	-9.95919
▁Sé	-9.95935
▁l’enfant	-9.95941
▁Bro	-9.96027
zi	-9.9604
▁(en	-9.96056
92	-9.96094
▁glissa	-9.96097
▁demeure	-9.96098
[1]	-9.96102
▁Can	-9.9613
▁commençait	-9.96204
▁chargé	-9.96368
▁faudrait	-9.96391
▁quart	-9.96391
▁attendait	-9.96415
tz	-9.96482
▁Tri	-9.9649
▁riche	-9.96512
so	-9.96513
▁Jamais	-9.96579
▁s’ils	-9.96584
▁Cour	-9.96625
▁lo	-9.96634
sso	-9.96644
▁patron	-9.96645
91	-9.96663
bin	-9.96692
ça	-9.96757
nk	-9.96827
▁porte,	-9.96886
▁Ad	-9.96922
▁Ve	-9.96923
▁différentes	-9.97034
ap	-9.97037
▁Londres	-9.97074
▁courir	-9.9709
gon	-9.97098
▁aime	-9.97118
▁amie	-9.97167
▁Pri	-9.97267
▁l'histoire	-9.97268
▁III	-9.9729
▁tiré	-9.97318
▁Dar	-9.97507
▁courage	-9.97508
▁décida	-9.97529
▁arrêté	-9.97561
era	-9.97575
▁d'E	-9.97597
▁piste	-9.97642
09	-9.97677
▁pareille	-9.97709
y,	-9.97724
one	-9.97763
▁finit	-9.9782
▁couteau	-9.97854
75	-9.97872
▁chat	-9.98007
ième	-9.98054
▁pe	-9.98088
▁côté,	-9.98105
vit	-9.98161
pé	-9.98202
▁gardes	-9.9825
▁bal	-9.98263
▁prison	-9.98273
▁ravi	-9.98322
▁descendre	-9.98361
▁comprit	-9.98366
▁Trois	-9.98375
▁d’ici	-9.98392
07	-9.98397
66	-9.9842
▁bizarre	-9.98527
-de-	-9.98561
▁crime	-9.98596
▁poitrine	-9.9865
44	-9.98677
▁dieux	-9.98682
▁Sous	-9.9874
▁dit-elle.	-9.98799
16	-9.98811
tér	-9.98943
87	-9.98962
▁seraient	-9.9897
▁obligé	-9.99009
▁Dor	-9.9906
▁compagnons	-9.99108
▁poursuivit	-9.99128
ssi	-9.99138
▁fumée	-9.99215
▁d’où	-9.99231
▁Pourtant,	-9.99241
▁cerveau	-9.99294
84	-9.99353
spect	-9.99397
▁soirée	-9.99403
▁lever	-9.99411
▁photo	-9.99448
▁fasse	-9.99489
taient	-9.995
-P	-9.99501
▁finalement	-9.99518
98	-9.99523
▁connaît	-9.99563
sé	-9.99605
▁d'or	-9.99621
▁rendit	-9.99801
ures	-9.99884
ne,	-9.99929
▁voudrais	-9.99949
▁nu	-9.99955
▁inutile	-10.0003
▁ch	-10.0004
▁rage	-10.0015
isé	-10.0015
▁terre,	-10.0026
▁personnage	-10.0029
▁d’ailleurs	-10.0029
-t-elle.	-10.0044
X	-10.0044
▁bras.	-10.0046
▁rose	-10.0052
▁rappelle	-10.0055
voy	-10.0059
ay	-10.0059
79	-10.0065
tive	-10.0068
ie.	-10.0076
▁l’entrée	-10.0076
▁passion	-10.0077
01	-10.0083
▁Will	-10.0084
ée.	-10.0086
▁com	-10.0096
▁battre	-10.0098
▁1982	-10.0102
cho	-10.0103
82	-10.0103
▁arriva	-10.0108
▁saisit	-10.0116
▁celle-ci	-10.0117
dia	-10.0125
▁drôle	-10.0131
▁matière	-10.0134
▁maladie	-10.0135
▁défense	-10.0141
45	-10.0143
▁transport	-10.0145
ji	-10.0147
▁chapeau	-10.0148
▁Conseil	-10.0157
▁coucher	-10.0159
▁aujourd’hui	-10.0161
int	-10.0168
▁comp	-10.0169
▁Pré	-10.0171
▁James	-10.0177
ban	-10.0178
e)	-10.0179
▁Français	-10.0181
▁parc	-10.0183
nou	-10.0189
▁Moi,	-10.02
▁lieux	-10.02
ach	-10.0202
bus	-10.0206
▁j’aurais	-10.0214
▁disant	-10.0217
▁André	-10.0219
ura	-10.0219
udi	-10.0219
▁for	-10.022
▁l’ex	-10.0225
▁immobile	-10.0227
▁foi	-10.0231
▁longues	-10.024
71	-10.0248
vol	-10.0248
▁Col	-10.0249
▁d’y	-10.025
▁voyez	-10.025
▁autres,	-10.0252
94	-10.0253
ié	-10.0253
ables	-10.0254
▁créature	-10.0255
▁1994	-10.0256
▁st	-10.0258
▁suffisamment	-10.0259
▁l'on	-10.0261
▁côtés	-10.0265
▁divers	-10.0265
▁homme,	-10.027
cor	-10.028
▁loin,	-10.0284
▁Site	-10.0287
▁pal	-10.0288
▁br	-10.0289
▁repos	-10.0293
▁fleuve	-10.0294
▁serais	-10.0304
22	-10.0311
73	-10.0312
ath	-10.0313
▁code	-10.0314
69	-10.0316
47	-10.0317
des	-10.0323
ker	-10.0324
ate	-10.0328
▁gare	-10.0334
▁dollars	-10.0337
▁man	-10.0346
▁radio	-10.0348
▁énorme	-10.0348
xi	-10.0349
▁devaient	-10.0352
éré	-10.0354
▁d’eux	-10.0359
nement	-10.0359
▁Her	-10.036
▁entier	-10.036
▁baissa	-10.0363
▁cra	-10.0363
▁1968	-10.0364
▁ressemblait	-10.0365
▁vrai,	-10.0369
▁maison.	-10.0369
▁directeur	-10.0373
▁L'a	-10.0374
▁(D	-10.0384
▁caractère	-10.0388
▁maîtresse	-10.0389
▁Sou	-10.0394
lect	-10.0395
▁vieil	-10.0396
gri	-10.0398
▁toucher	-10.0402
▁d’accord	-10.0406
▁doivent	-10.0406
fu	-10.041
▁pain	-10.0411
▁vallée	-10.0416
▁Sta	-10.0416
▁Malgré	-10.0418
74	-10.0425
har	-10.0431
▁continuer	-10.0433
tter	-10.0433
▁communes	-10.0434
▁faute	-10.0435
▁intérêt	-10.0435
▁femme.	-10.0437
▁vouloir	-10.0439
▁sourire.	-10.0441
▁All	-10.0444
13	-10.0452
▁épaule	-10.0455
▁publique	-10.0459
▁thé	-10.0459
kh	-10.0467
▁emp	-10.0469
▁maison,	-10.0477
▁l’ordre	-10.0477
▁Ser	-10.0481
▁l’histoire	-10.0482
▁jolie	-10.0484
tend	-10.0489
▁Superficie	-10.049
ème	-10.0492
éro	-10.0493
▁oncle	-10.0493
▁suivit	-10.0494
▁Dieu,	-10.0499
02	-10.05
cal	-10.0507
▁(B	-10.0507
-A	-10.051
▁dernières	-10.0511
▁Canada	-10.0515
tha	-10.0522
▁somme	-10.0525
▁1991	-10.0528
▁mère,	-10.053
-on	-10.0535
55	-10.0537
▁50	-10.0543
33	-10.0548
▁pan	-10.0553
fort	-10.0554
▁frais	-10.0555
▁dirait	-10.0556
▁troupes	-10.0559
mat	-10.0561
▁frères	-10.0564
dis	-10.057
▁Min	-10.0579
▁Ber	-10.0582
▁chère	-10.0591
▁échange	-10.0595
▁fois.	-10.0598
▁Cla	-10.0602
▁manteau	-10.0602
▁payer	-10.0606
▁l’épaule	-10.0607
▁rang	-10.0608
nder	-10.0611
▁profit	-10.0614
▁générale	-10.0614
-en	-10.0621
▁naturel	-10.0631
▁content	-10.0637
▁1992	-10.0637
▁Q	-10.064
▁fusil	-10.0641
rc	-10.0642
gène	-10.0642
▁r	-10.0643
▁terre.	-10.0644
▁travailler	-10.0644
▁l’autre,	-10.0644
28	-10.0649
▁saint	-10.0655
▁serra	-10.0658
▁remettre	-10.0659
ef	-10.0668
▁personnel	-10.0674
▁s’assit	-10.0674
-1	-10.0684
▁vive	-10.0686
▁plaît	-10.0687
▁commencer	-10.0689
▁travaux	-10.069
▁football	-10.0694
iv	-10.0694
96	-10.0695
▁Ensuite	-10.0703
▁occasion	-10.0703
▁Maître	-10.0708
tée	-10.0709
▁profondément	-10.0723
▁malheur	-10.0737
▁télé	-10.0739
▁retrouve	-10.0739
vert	-10.074
77	-10.0742
▁entière	-10.0743
▁odeur	-10.0753
▁unique	-10.0754
▁Ya	-10.0755
▁premières	-10.0756
ON	-10.0757
▁cons	-10.0757
bu	-10.0757
▁fus	-10.0758
21	-10.0759
▁sc	-10.0761
q	-10.0761
▁armée	-10.0764
▁d'in	-10.0768
tur	-10.0768
▁s’exclama	-10.0773
▁Mu	-10.0775
▁santé	-10.0776
▁zone	-10.0776
▁utilisé	-10.0778
▁vif	-10.0782
▁reconnaître	-10.0784
▁prenant	-10.0784
▁frappa	-10.0787
▁Vo	-10.0796
▁Ger	-10.0796
▁lieutenant	-10.0798
▁fille,	-10.0802
▁feuille	-10.0802
ling	-10.0804
▁pouvons	-10.0805
ait.	-10.0808
▁joueur	-10.0809
▁Michael	-10.0809
▁réaction	-10.0812
cia	-10.0813
▁course	-10.0815
▁ren	-10.0817
issait	-10.0822
▁appelle	-10.0828
▁allaient	-10.0829
ôt	-10.083
▁Sol	-10.0831
93	-10.0832
▁réfléchir	-10.0837
▁Aussi	-10.0838
▁avis	-10.084
58	-10.0843
▁détails	-10.0846
▁accord	-10.0851
▁songea	-10.0853
▁gra	-10.0854
▁redressa	-10.0855
hé	-10.0855
nn	-10.0856
▁remarquer	-10.0856
▁qualité	-10.0857
-D	-10.086
bra	-10.086
▁31	-10.0863
▁éviter	-10.0866
▁s'en	-10.0869
oli	-10.0871
mann	-10.0872
31	-10.0879
▁retrouvé	-10.0883
▁1993	-10.0887
ous	-10.0888
▁attendant	-10.0889
▁quinze	-10.0889
▁Ed	-10.089
▁Che	-10.0891
▁folle	-10.0891
com	-10.0894
in,	-10.0895
▁sec	-10.0895
▁heures,	-10.0897
ries	-10.0903
▁permettre	-10.0903
aires	-10.0904
rm	-10.0906
▁sûrement	-10.091
▁gars	-10.0913
▁km	-10.0918
▁démon	-10.0918
illant	-10.0919
▁voici	-10.0919
▁déjeuner	-10.0919
▁brave	-10.0922
▁entend	-10.093
▁trace	-10.093
▁essayer	-10.0934
▁Notes	-10.0936
vier	-10.0936
ans	-10.0941
▁poussière	-10.0942
idé	-10.0942
▁presse	-10.0944
▁ai-je	-10.0955
▁sûre	-10.0955
ö	-10.0957
tent	-10.0958
nis	-10.0963
▁répondu	-10.0966
▁marque	-10.0969
▁finir	-10.097
▁Fin	-10.097
▁mo	-10.0977
▁Fo	-10.0979
▁erreur	-10.0981
pos	-10.0981
▁Sp	-10.0982
35	-10.0983
▁cacher	-10.0986
▁dites	-10.0988
56	-10.099
▁seuls	-10.0993
27	-10.0994
ü	-10.0995
sti	-10.0998
▁Ville	-10.1005
▁raconter	-10.1006
▁possède	-10.1016
▁venaient	-10.1021
03	-10.1022
▁1975	-10.103
mir	-10.1043
▁souci	-10.1043
▁texte	-10.1043
▁cal	-10.1043
ffi	-10.1044
wi	-10.1052
▁vieillard	-10.1055
▁frappé	-10.1057
▁op	-10.1058
▁essayé	-10.1062
▁Bal	-10.1064
▁contenu	-10.1069
▁formation	-10.1071
ges	-10.1072
▁dessin	-10.1072
▁trouvaient	-10.1073
uve	-10.1079
▁particulière	-10.108
len	-10.1087
▁w	-10.1087
▁justice	-10.1088
▁oui	-10.1089
ffe	-10.1093
ants	-10.1094
▁Ly	-10.1107
▁prêtre	-10.1109
32	-10.1117
▁maisons	-10.1118
46	-10.1118
▁théâtre	-10.1118
▁permis	-10.1121
▁joué	-10.1132
▁cadavre	-10.1133
▁Tre	-10.1139
▁doubles	-10.1142
29	-10.1143
▁équipe	-10.1148
je	-10.1149
▁France,	-10.1151
▁dis-je	-10.1152
▁prie	-10.1155
▁Chaque	-10.1158
▁jaune	-10.1158
▁feuilles	-10.1159
▁Mr	-10.116
▁Cu	-10.116
▁programme	-10.1161
▁Simon	-10.1162
▁semblaient	-10.1166
▁France.	-10.1167
▁Peu	-10.1168
▁pot	-10.1175
▁événements	-10.1175
▁Art	-10.1182
▁firent	-10.1182
76	-10.1187
▁voulut	-10.1189
▁tort	-10.1192
▁pierres	-10.1192
▁Pu	-10.1194
▁rire.	-10.1198
-M	-10.1201
her	-10.1202
ages	-10.1204
▁Leur	-10.1207
▁nom.	-10.1207
49	-10.1209
illé	-10.121
▁Georges	-10.1213
▁solution	-10.1217
▁ab	-10.1219
▁crainte	-10.1221
▁princesse	-10.1224
▁signal	-10.1226
▁soldat	-10.1227
▁sensation	-10.1229
ik	-10.1231
▁For	-10.1233
▁ti	-10.1238
▁s’avança	-10.1239
▁silhouette	-10.1241
▁dossier	-10.1246
▁Ier	-10.1249
tiques	-10.1252
36	-10.1254
▁cuisine	-10.1258
rat	-10.1259
ori	-10.1259
▁tenu	-10.1261
▁légère	-10.1262
▁chevalier	-10.1263
▁can	-10.1271
38	-10.1272
naire	-10.1272
▁sérieux	-10.1273
ç	-10.1279
gie	-10.1283
▁Coupe	-10.1284
isée	-10.1284
vait	-10.1288
▁époque	-10.1292
▁remarqué	-10.1295
▁tient	-10.1297
▁faux	-10.1299
nor	-10.1299
▁l’aide	-10.1304
▁Ze	-10.131
▁conduit	-10.1311
▁raisons	-10.1316
▁ennemis	-10.1322
▁qu'on	-10.1324
rant	-10.1325
▁chose,	-10.1325
tat	-10.1327
▁couleurs	-10.1334
dan	-10.1337
▁développement	-10.1338
▁secours	-10.134
▁directement	-10.1341
▁étais	-10.1344
▁pourra	-10.1349
▁qu'ils	-10.136
▁ouvrir	-10.1361
tern	-10.1364
▁referma	-10.1365
▁coupe	-10.1367
▁fri	-10.1372
tti	-10.1378
▁sub	-10.1378
▁qu’a	-10.1379
▁attaque	-10.1381
39	-10.1386
▁croyait	-10.1386
bor	-10.1387
▁entièrement	-10.1391
▁n	-10.1393
▁couche	-10.1395
06	-10.1397
▁faudra	-10.1397
issement	-10.1398
-T	-10.1402
▁rues	-10.1402
eaux	-10.1403
▁Mur	-10.1411
▁machine	-10.1414
▁terreur	-10.143
▁source	-10.1432
▁Bas	-10.1432
▁cinéma	-10.1434
▁instants	-10.1438
▁My	-10.1445
▁protection	-10.1449
▁production	-10.145
ola	-10.145
▁portant	-10.1452
▁aider	-10.1456
65	-10.1456
▁changement	-10.1456
▁sous-	-10.1461
▁portée	-10.1462
lar	-10.1465
▁Né	-10.1467
▁Québec	-10.147
nne	-10.1476
▁Ch	-10.1478
chant	-10.1484
naient	-10.1485
▁placé	-10.1488
▁poing	-10.1494
▁recevoir	-10.1495
▁digne	-10.1499
illi	-10.1508
▁Men	-10.1512
▁raison,	-10.1517
▁travaille	-10.152
▁silence.	-10.1521
▁retrouva	-10.1525
37	-10.1525
▁fenêtres	-10.1526
▁ét	-10.1532
gle	-10.1536
mant	-10.1538
▁occupé	-10.1539
▁suivante	-10.1549
▁l’obscurité	-10.1551
▁Cas	-10.1555
72	-10.1561
▁tard.	-10.1562
▁resté	-10.1564
▁faim	-10.1567
cy	-10.157
▁autres.	-10.1576
ification	-10.1579
▁annonça	-10.1581
▁morceau	-10.1586
▁sinon	-10.1586
▁revoir	-10.1586
▁Far	-10.1587
▁laissait	-10.159
▁hein	-10.1591
▁tombé	-10.1592
68	-10.1593
ux,	-10.1596
▁gaz	-10.1606
▁l'E	-10.1606
▁jeté	-10.1608
▁Cro	-10.1611
04	-10.1613
quer	-10.1617
▁découverte	-10.1617
▁>	-10.1618
▁francs	-10.162
▁informations	-10.1623
▁mu	-10.1625
▁théorie	-10.163
util	-10.163
▁vécu	-10.163
▁utile	-10.1636
▁montagnes	-10.1637
▁création	-10.164
ros	-10.1645
▁mince	-10.1645
▁Sha	-10.1646
ug	-10.1648
▁responsable	-10.1649
▁différence	-10.165
▁cesse	-10.1655
▁qu'	-10.1656
▁chi	-10.1663
▁serai	-10.1664
▁existence	-10.1668
▁Pol	-10.1672
▁terminé	-10.1672
▁rem	-10.1676
▁coup,	-10.1678
▁hi	-10.1679
▁sujets	-10.1682
▁animaux	-10.1691
08	-10.1692
▁l’affaire	-10.1694
▁n’avons	-10.1695
▁victime	-10.1697
lus	-10.1697
▁argent	-10.1698
ER	-10.17
on.	-10.1701
▁We	-10.1701
emp	-10.1702
▁auquel	-10.1704
▁Joe	-10.1706
▁Thomas	-10.1706
▁Max	-10.1715
▁arrivait	-10.1716
▁lâcha	-10.1721
▁compter	-10.1723
▁bras,	-10.1725
▁Port	-10.1725
▁précis	-10.1727
-F	-10.1727
▁lame	-10.173
▁part,	-10.1734
▁siècle,	-10.1736
▁genoux	-10.1738
▁idées	-10.1741
ell	-10.1743
pt	-10.1743
▁lutte	-10.1745
64	-10.1745
▁souleva	-10.1746
zo	-10.1747
▁balle	-10.1747
bat	-10.1753
▁bond	-10.1755
48	-10.1756
43	-10.1759
dit	-10.177
▁gamin	-10.1778
iz	-10.1782
▁Certains	-10.1784
▁croyais	-10.1784
▁Densité	-10.1784
▁échapper	-10.1784
26	-10.1784
oul	-10.1792
▁Roi	-10.1794
got	-10.1801
▁mépris	-10.1803
▁repris	-10.1807
▁hab.	-10.181
▁ve	-10.1816
▁métal	-10.1829
▁doux	-10.183
▁acquiesça	-10.1834
▁éclat	-10.1834
▁pur	-10.1839
▁l’autre.	-10.1839
▁souvenirs	-10.1842
▁Jan	-10.1842
lf	-10.1843
24	-10.1844
lor	-10.1851
▁insista	-10.1852
▁1980	-10.1853
▁Del	-10.1853
▁chute	-10.1854
▁agréable	-10.1854
▁l’est	-10.1855
▁(en)	-10.1859
▁=	-10.1861
▁100	-10.1863
▁Notre	-10.1871
▁Grande	-10.1876
▁Mort	-10.1878
▁services	-10.1879
▁moyens	-10.1882
▁principal	-10.1893
▁quitta	-10.1893
▁Vol	-10.1896
▁perte	-10.1898
▁demi-	-10.1899
51	-10.19
▁toile	-10.1912
▁vivement	-10.1913
las	-10.1916
▁possibilité	-10.1917
ë	-10.1926
mal	-10.1928
▁Ton	-10.1934
▁Canton	-10.1936
▁corde	-10.1938
",	-10.1939
▁prête	-10.1945
▁assise	-10.1948
▁aujourd'hui	-10.195
▁Fe	-10.1957
nal	-10.1957
-C	-10.1961
▁curiosité	-10.1963
▁Th	-10.1964
▁aussi.	-10.1967
▁créé	-10.1971
▁toutefois	-10.1973
▁barbe	-10.1974
▁importante	-10.1978
▁élu	-10.1981
-2	-10.1989
▁Article	-10.199
▁cabine	-10.1991
▁Frank	-10.1992
▁faite	-10.1993
venu	-10.1993
pre	-10.1998
▁style	-10.1999
▁établi	-10.2003
▁promis	-10.2006
▁joues	-10.2008
tons	-10.2015
▁1989	-10.2015
▁blessé	-10.2019
▁pensais	-10.202
▁Pou	-10.2021
▁père.	-10.2029
uc	-10.2031
▁Ainsi	-10.2041
▁résultat	-10.2042
▁essaya	-10.2044
▁l’or	-10.2045
esse	-10.2048
▁colonel	-10.205
▁pose	-10.2054
▁Fu	-10.2056
▁merci	-10.2062
▁tournant	-10.2062
▁Beau	-10.2062
▁jeunesse	-10.2064
▁avait-il	-10.2065
rri	-10.2066
▁nul	-10.2067
tré	-10.207
▁hier	-10.2071
-je	-10.2073
ret	-10.2073
▁l’espace	-10.2083
▁baiser	-10.2088
▁capitale	-10.2091
▁chaîne	-10.2093
▁ville,	-10.2115
41	-10.2122
▁Arrondissement	-10.2122
▁truc	-10.2126
▁Am	-10.2127
▁totalement	-10.2128
▁haine	-10.2129
ignon	-10.213
42	-10.2137
▁choc	-10.2138
tic	-10.214
▁détail	-10.2142
▁technique	-10.2147
▁étoiles	-10.215
uv	-10.2152
▁généralement	-10.2153
nage	-10.2153
▁dur	-10.2158
▁pistolet	-10.2158
▁propriété	-10.2158
▁clé	-10.2159
▁violence	-10.2159
ê	-10.216
ari	-10.2161
▁j’y	-10.2161
▁malheureux	-10.2169
▁sûr.	-10.2171
▁l’occasion	-10.2171
▁trait	-10.2176
nom	-10.2176
▁dis-je.	-10.2182
▁Mou	-10.2189
▁problèmes	-10.219
▁temple	-10.2191
nda	-10.2196
ft	-10.2197
▁ja	-10.2198
3>	-10.2202
*	-10.2203
▁l’avoir	-10.2204
▁n°	-10.2204
▁demandait	-10.2207
▁Luc	-10.2207
bal	-10.2211
▁tenta	-10.2213
▁élevé	-10.2213
yn	-10.2215
61	-10.2217
▁commis	-10.222
▁fit-il	-10.222
▁l'en	-10.2221
habit	-10.2222
▁conduire	-10.2224
▁masque	-10.2229
▁critique	-10.223
quet	-10.2231
▁solide	-10.2233
▁Communes	-10.2236
arrêt	-10.2243
▁mondiale	-10.2244
▁cu	-10.2244
▁sourcils	-10.2245
▁condition	-10.2251
▁magnifique	-10.2252
1>	-10.2256
▁faveur	-10.226
▁l'autre	-10.226
ev	-10.2263
▁devenue	-10.2264
▁ville.	-10.2269
▁habit	-10.2269
6>	-10.2273
▁Gri	-10.2278
▁ro	-10.2281
▁banc	-10.2281
▁compagnon	-10.2284
▁inconnu	-10.2284
▁ob	-10.2296
▁dangereux	-10.2296
▁t’ai	-10.2298
▁s'é	-10.2299
▁1988	-10.2301
-V	-10.2302
2>	-10.2303
▁épi	-10.2304
▁rive	-10.2306
ux.	-10.2306
▁Quelque	-10.2309
▁qu'un	-10.2311
▁nourriture	-10.2311
▁tas	-10.2312
▁Suisse	-10.2314
▁ju	-10.2316
▁traité	-10.2316
▁souviens	-10.2324
▁souffrance	-10.2326
▁anciens	-10.2328
▁ceci	-10.2331
▁ancienne	-10.2331
▁faire.	-10.2332
êt	-10.234
cou	-10.234
uses	-10.2342
mand	-10.2345
▁Joseph	-10.2347
▁honte	-10.2349
▁murmure	-10.235
▁baron	-10.2351
ches	-10.2354
▁paquet	-10.2356
ace	-10.2362
shi	-10.2363
4>	-10.2363
57	-10.2365
5>	-10.2372
mie	-10.2372
IN	-10.2378
▁fis	-10.2379
gent	-10.2379
▁support	-10.2388
▁Pont	-10.2391
▁moment.	-10.2398
▁(M	-10.2398
▁l’hôtel	-10.24
▁prévu	-10.2401
▁sienne	-10.2401
▁impression	-10.2406
▁documents	-10.2409
62	-10.2411
52	-10.2414
▁rappela	-10.2418
lique	-10.2419
▁bibliothèque	-10.2419
▁plafond	-10.2422
nc	-10.2424
▁tels	-10.2425
59	-10.2433
▁retira	-10.2433
▁froide	-10.2434
Z	-10.2435
ski	-10.2436
▁dépend	-10.2437
▁statue	-10.2441
die	-10.2442
stro	-10.2442
ne.	-10.2446
▁pêche	-10.2447
▁hurla	-10.2448
▁s'il	-10.2452
▁change	-10.2454
▁expliquer	-10.2457
▁ressemble	-10.2459
▁exemple,	-10.2462
▁Hor	-10.2466
ves	-10.2466
ine,	-10.2471
▁Encore	-10.2473
▁tribu	-10.2474
îmes	-10.2475
▁aimé	-10.2478
▁menton	-10.2478
duc	-10.248
▁dure	-10.2485
▁expérience	-10.249
rme	-10.249
▁serpent	-10.2491
▁n’as	-10.25
▁heureuse	-10.2507
terre	-10.2507
▁tendre	-10.2508
ore	-10.2509
▁Majesté	-10.251
▁demeura	-10.2512
▁ceinture	-10.2513
▁couvert	-10.2513
▁boule	-10.2514
▁accident	-10.2518
rac	-10.2521
▁Bur	-10.2524
▁bref	-10.2524
▁rencontrer	-10.2527
ira	-10.2527
▁retard	-10.2528
pon	-10.2533
▁aperçut	-10.2533
▁culture	-10.2535
▁cigarette	-10.2537
ral	-10.2538
illes	-10.2538
▁n'	-10.2539
53	-10.254
▁objets	-10.2541
-la	-10.2541
▁rempli	-10.2544
▁canon	-10.2544
▁seuil	-10.2547
▁économique	-10.2548
▁d’ex	-10.2551
pri	-10.2553
dri	-10.2555
▁puissant	-10.2557
▁poignée	-10.2562
mond	-10.2564
sch	-10.2568
▁réseau	-10.2571
▁suffit	-10.2571
▁mange	-10.2579
mor	-10.258
out	-10.2583
▁commande	-10.2587
▁retraite	-10.2595
▁hâte	-10.26
▁acteur	-10.2604
34	-10.2604
▁Nor	-10.2608
▁vo	-10.2609
ong	-10.2611
▁aimait	-10.2611
uche	-10.2612
▁Marc	-10.2613
▁tapis	-10.2613
▁bouteille	-10.2614
▁rep	-10.2615
ident	-10.262
▁pattes	-10.2622
rance	-10.263
cré	-10.2632
(en)	-10.2632
sol	-10.2637
-ils	-10.2639
▁possible.	-10.2643
▁parfum	-10.2644
▁ténèbres	-10.2646
▁Aucun	-10.2652
▁lourd	-10.2652
i-je.	-10.2652
▁facilement	-10.2654
▁propriétaire	-10.2657
lly	-10.2658
▁remit	-10.2658
▁ami,	-10.2661
▁rendait	-10.2661
▁apprendre	-10.2663
▁siècles	-10.2665
lles	-10.2665
▁Henry	-10.2666
▁milliers	-10.2668
ula	-10.2668
▁lignes	-10.2671
▁sueur	-10.2672
▁naturelle	-10.2677
23	-10.2679
▁cadre	-10.268
▁secrétaire	-10.2681
▁célèbre	-10.2682
▁bébé	-10.2684
▁Altitude	-10.2698
▁représentant	-10.27
▁lit,	-10.2703
▁qu’A	-10.2705
▁Nombre	-10.2706
▁douze	-10.2706
54	-10.271
▁micro	-10.2712
63	-10.2715
-18	-10.2716
▁postal	-10.272
ose	-10.2727
-tu	-10.2729
tour	-10.2732
▁sol.	-10.2735
▁aperçu	-10.2741
▁agi	-10.2742
▁qu’au	-10.2745
var	-10.2748
▁ordinaire	-10.2751
▁Tant	-10.2751
▁résolu	-10.2754
▁hab./km2	-10.2755
▁montré	-10.276
oy	-10.2761
yer	-10.2766
cent	-10.2768
▁d'être	-10.2771
▁condamné	-10.2772
hen	-10.2772
ici	-10.2774
▁réellement	-10.2775
▁envers	-10.2776
▁l’avais	-10.2776
▁entrée	-10.2787
▁Ku	-10.279
▁Tor	-10.2792
▁Ainsi,	-10.2796
▁bonnes	-10.2797
▁queue	-10.28
▁senti	-10.2804
▁dessous	-10.2804
▁demi	-10.2805
▁Biographie	-10.2806
être	-10.2807
▁m’avez	-10.2809
▁études	-10.2811
▁marches	-10.2813
ium	-10.2814
▁animal	-10.2814
▁espoir	-10.2819
▁Maire	-10.2819
AN	-10.2821
▁Voir	-10.2822
▁Mary	-10.2824
gor	-10.2824
▁40	-10.2828
▁dieu	-10.2832
ku	-10.2834
▁raison.	-10.2838
▁l’époque	-10.2838
▁moteur	-10.284
▁supérieure	-10.284
▁IV	-10.2841
▁modèle	-10.2841
▁allemand	-10.2843
▁recula	-10.2849
tou	-10.2853
▁sauvage	-10.2854
▁coupable	-10.2854
▁géant	-10.2855
▁l’E	-10.2855
âtre	-10.2857
cour	-10.2858
bon	-10.2864
▁Merci	-10.2866
pu	-10.2871
▁vidéo	-10.2872
▁jours.	-10.2879
81	-10.2879
▁est-il	-10.288
▁continuait	-10.2882
▁importance	-10.2883
▁J’aurais	-10.2884
▁Nu	-10.2884
▁objet	-10.2891
▁Sar	-10.2892
▁touché	-10.2894
à	-10.2896
ort	-10.2904
▁Wikipédia	-10.2905
▁commerce	-10.2913
▁folie	-10.2919
▁Belgique	-10.292
▁courte	-10.2922
▁loup	-10.2928
▁pitié	-10.2928
▁nuages	-10.2933
▁Guy	-10.2935
▁électrique	-10.2942
í	-10.2948
▁cœur.	-10.295
▁(TV)	-10.295
▁longtemps.	-10.2952
▁revenu	-10.2953
▁parler.	-10.2955
o,	-10.2956
▁étiez	-10.2961
▁populaire	-10.2964
ida	-10.2965
hor	-10.2974
une	-10.2974
▁chambre,	-10.298
▁tiens	-10.2982
▁pression	-10.2985
▁apparut	-10.2985
▁Sor	-10.2993
▁quant	-10.2995
jou	-10.2996
▁Référence	-10.2996
▁observa	-10.2999
prim	-10.3
▁Genre	-10.3007
▁effort	-10.3008
▁Selon	-10.301
▁auto	-10.3012
▁D’un	-10.3012
▁lampe	-10.3013
▁tante	-10.3014
▁stupide	-10.3015
▁phrase	-10.3024
▁porté	-10.3026
▁album	-10.3027
bli	-10.3029
▁Anna	-10.303
particulièrement	-10.3033
vel	-10.3039
▁dépit	-10.304
ec	-10.3041
▁Géographie	-10.3044
▁lesquels	-10.3046
▁privé	-10.3047
▁Club	-10.3049
▁bons	-10.3053
▁tenter	-10.3058
▁descendit	-10.3059
▁Fre	-10.306
▁glisser	-10.3066
[3]	-10.3066
▁éclata	-10.3067
▁Rou	-10.3069
▁mademoiselle	-10.3069
▁descend	-10.307
▁sale	-10.3071
▁app	-10.3072
▁finale	-10.3073
▁regards	-10.3075
▁gauche,	-10.3083
ä	-10.3086
▁bière	-10.3087
▁Anne	-10.3088
▁gardien	-10.3095
▁vraie	-10.3099
▁Daniel	-10.31
▁au-delà	-10.3103
▁Albert	-10.3106
▁plateau	-10.3107
▁Russie	-10.3116
▁attendu	-10.3116
▁retenu	-10.3117
quis	-10.3117
met	-10.3117
▁ferai	-10.3118
nard	-10.3121
▁conditions	-10.3121
▁couple	-10.3121
▁be	-10.3122
thé	-10.3124
plication	-10.3126
▁touche	-10.3126
▁connue	-10.3133
z-moi	-10.3136
▁sois	-10.3139
bb	-10.3147
▁convaincu	-10.3152
▁devons	-10.3153
-là,	-10.3153
▁propose	-10.3153
▁rares	-10.3153
▁Roland	-10.3153
▁Mil	-10.3154
▁Gro	-10.3155
vais	-10.3156
court	-10.3156
▁Mark	-10.3157
▁autrefois	-10.3158
▁envahi	-10.316
iel	-10.3162
▁flammes	-10.3164
▁eaux	-10.3165
▁race	-10.3166
▁ailleurs	-10.3166
▁moyenne	-10.317
oï	-10.317
▁séjour	-10.3173
▁carré	-10.3175
▁caché	-10.3175
▁Morane	-10.318
▁montra	-10.3185
▁terres	-10.3193
tus	-10.3194
▁d’I	-10.3196
▁fr	-10.32
▁différent	-10.3202
▁Ol	-10.3211
▁quantité	-10.3214
▁Premier	-10.3216
▁trône	-10.3216
olo	-10.3216
▁longs	-10.3217
▁rappeler	-10.3221
▁collection	-10.3227
▁supérieur	-10.3231
-G	-10.3235
gel	-10.3236
▁présenter	-10.3237
rité	-10.3252
▁désespoir	-10.3253
▁lancer	-10.3255
▁raconte	-10.3256
rain	-10.3259
▁ordonna	-10.326
▁flotte	-10.3276
▁groupes	-10.3277
▁levant	-10.3277
▁ad	-10.3278
▁(T	-10.3281
▁traversa	-10.3284
▁place.	-10.3285
▁frapper	-10.3286
▁Er	-10.3289
▁déco	-10.3289
▁DE	-10.3293
▁installé	-10.3303
▁vérité,	-10.3304
idae	-10.3305
▁1981	-10.3309
▁rond	-10.3312
tine	-10.3321
▁Entre	-10.3328
▁Com	-10.333
▁pantalon	-10.3335
ast	-10.3339
▁rouges	-10.3343
▁d’O	-10.3349
ime	-10.3355
▁jeux	-10.3361
▁références	-10.3361
▁étonné	-10.3364
▁Bon,	-10.3367
vie	-10.3372
▁enfin,	-10.3374
▁souffla	-10.3375
▁1970	-10.3377
▁mains.	-10.3378
▁construit	-10.3379
▁calcul	-10.338
ella	-10.3381
▁bloc	-10.3383
▁proie	-10.3386
quin	-10.3387
▁l’arrière	-10.3389
▁vain	-10.3389
nch	-10.3394
▁Maison	-10.3394
▁l'équipe	-10.3401
RE	-10.3402
▁comprenait	-10.3402
isson	-10.3402
▁Japon	-10.3406
▁Roger	-10.3409
▁horrible	-10.3411
▁Voici	-10.3411
▁conduite	-10.3417
▁sembla	-10.3421
sses	-10.3423
▁monstre	-10.3426
▁tableau	-10.3426
▁d'en	-10.3427
▁empêcher	-10.3429
▁tourné	-10.3432
▁l’avaient	-10.3432
rique	-10.3432
▁Bru	-10.3433
▁fille.	-10.3435
▁Bernard	-10.3436
rés	-10.3439
▁~	-10.3448
▁maman	-10.3451
ora	-10.3452
▁sent	-10.3453
▁allée	-10.3455
▁gi	-10.3457
▁voulez-vous	-10.3459
▁cherchait	-10.346
lèrent	-10.3466
▁canton	-10.3467
ouv	-10.347
▁at	-10.3471
▁Gor	-10.3472
▁souverain	-10.3473
▁centaines	-10.3473
▁métier	-10.3477
▁affirma	-10.3479
▁ennemi	-10.3483
▁tourne	-10.3484
▁mettait	-10.3489
position	-10.3492
mit	-10.3493
▁Administration	-10.3501
▁joli	-10.3507
-f	-10.3509
▁1986	-10.3516
antes	-10.3519
▁Président	-10.352
▁monta	-10.3524
▁Cho	-10.3525
▁visage.	-10.3528
▁plaine	-10.353
▁(de	-10.3537
▁reconnut	-10.3539
-vous	-10.354
▁(le	-10.3544
rier	-10.3546
▁comprend	-10.3551
ena	-10.3553
▁espèces	-10.3556
▁sache	-10.356
▁discours	-10.3562
mma	-10.3563
ctu	-10.3564
û	-10.3564
▁maintenant.	-10.357
▁journaliste	-10.3577
▁tenté	-10.3577
▁visible	-10.3579
▁chagrin	-10.358
▁détourna	-10.3581
▁sources	-10.3581
▁chanson	-10.3585
▁colline	-10.3591
le,	-10.3591
▁hé	-10.3593
▁trompe	-10.3596
▁bouton	-10.3597
▁gagné	-10.3598
▁Mag	-10.3602
▁rayon	-10.3603
▁évidemment	-10.3604
▁d'I	-10.3607
nique	-10.3608
toire	-10.3609
▁jo	-10.361
ford	-10.3613
▁cousin	-10.362
œ	-10.3622
chon	-10.3628
venir	-10.363
▁circonstances	-10.3633
▁j'ai	-10.3634
▁rec	-10.3634
▁noms	-10.3637
sto	-10.3637
itude	-10.3639
▁remarque	-10.3641
▁principale	-10.3644
▁croyez	-10.3645
▁(L	-10.3646
▁Bor	-10.3649
▁religion	-10.3649
▁levé	-10.3653
▁entré	-10.3653
▁plaque	-10.3653
uch	-10.3657
▁personne.	-10.3658
ima	-10.3665
ati	-10.3666
▁confi	-10.3668
▁oublier	-10.367
▁Jeanne	-10.367
aille	-10.3672
▁britannique	-10.3674
▁match	-10.3674
▁tenue	-10.3674
▁disparaître	-10.3675
▁barre	-10.3678
▁l'O	-10.3679
▁Poirot	-10.3682
tez	-10.3686
▁vêtu	-10.3687
▁communication	-10.3688
gou	-10.3689
▁place,	-10.369
tim	-10.3699
▁magique	-10.3701
▁soir.	-10.3703
▁humide	-10.3706
▁Dame	-10.3707
▁Kar	-10.3707
▁Sainte	-10.371
▁obtenir	-10.371
éné	-10.3715
▁rendez-vous	-10.3715
▁Dou	-10.3716
▁bel	-10.3718
▁mouvements	-10.3723
▁blancs	-10.3725
▁disparut	-10.3725
▁Ici	-10.3729
▁extraordinaire	-10.3731
▁She	-10.3731
▁Petit	-10.3732
▁Maurice	-10.3737
ative	-10.374
▁réserve	-10.3744
del	-10.3748
ain	-10.3753
éra	-10.3754
▁villes	-10.3756
▁Ban	-10.3758
▁ailes	-10.3762
▁Em	-10.3764
▁curieux	-10.3768
ateurs	-10.377
▁gri	-10.3777
▁silencieux	-10.3783
▁L’é	-10.3783
ons-nous	-10.3788
▁mien	-10.3791
my	-10.3792
▁four	-10.3792
▁commissaire	-10.3795
▁Celui-ci	-10.3798
▁conseiller	-10.3801
▁ISBN	-10.3801
▁uniquement	-10.3812
▁brun	-10.3813
all	-10.3814
▁tire	-10.3816
fo	-10.3817
▁Bla	-10.3818
▁d’après	-10.3819
▁poussé	-10.3822
▁tempête	-10.3823
▁inf	-10.3824
▁marchand	-10.3827
▁1987	-10.3827
▁hésita	-10.3828
nia	-10.3832
▁fatigue	-10.3832
▁exige	-10.3836
▁défendre	-10.3843
spir	-10.3852
▁m'a	-10.3852
▁costume	-10.3856
▁l’armée	-10.3856
▁russe	-10.3859
ist	-10.386
▁appeler	-10.3865
▁(F	-10.387
▁Zo	-10.3871
neur	-10.3876
▁Mara	-10.3879
▁tenant	-10.3879
▁couché	-10.388
uer	-10.3885
an,	-10.3887
▁table,	-10.3888
▁crise	-10.3888
▁cartes	-10.3889
cte	-10.3892
▁autrement	-10.3893
▁relations	-10.3894
▁Eu	-10.3908
▁peinture	-10.3912
▁demanda-t-il	-10.3914
aut	-10.3915
▁formes	-10.3916
▁rat	-10.3918
igno	-10.392
ome	-10.3924
▁préparer	-10.3929
▁jambe	-10.393
▁Mlle	-10.3947
▁structure	-10.3948
inte	-10.3948
ial	-10.3948
▁sert	-10.3948
▁cabinet	-10.3949
▁pousser	-10.3953
▁sauvé	-10.3956
form	-10.3958
▁patient	-10.3961
▁chambre.	-10.3968
▁couronne	-10.3973
▁Kat	-10.398
▁quitte	-10.3981
▁sage	-10.3983
▁éléments	-10.3987
▁souriant	-10.3988
ld	-10.399
▁là-bas	-10.399
mée	-10.3992
▁honneur	-10.3993
▁mérite	-10.3997
▁(G	-10.3999
▁principe	-10.4002
▁devrais	-10.4005
iné	-10.4006
▁d’H	-10.401
▁jour.	-10.4014
▁venus	-10.4018
tien	-10.4018
▁réalisé	-10.4019
▁D’ailleurs	-10.4021
▁Pla	-10.4022
▁n'y	-10.4024
▁parvint	-10.4025
▁salut	-10.4028
élé	-10.4032
▁noble	-10.4032
rage	-10.4036
▁van	-10.4038
▁ménage	-10.4043
▁etc.	-10.4043
yl	-10.4049
▁Cre	-10.4055
▁pièce.	-10.4062
▁nulle	-10.4063
gro	-10.4064
▁Dra	-10.4066
▁miroir	-10.4068
vou	-10.4069
▁Wi	-10.4076
▁tend	-10.4083
▁étage	-10.4084
▁donnant	-10.4086
▁(1	-10.4088
sson	-10.4092
▁manche	-10.4097
▁traverser	-10.4101
▁William	-10.4103
▁personnalité	-10.4103
▁Maria	-10.4105
▁beaux	-10.4106
▁américaine	-10.4113
ua	-10.4116
▁Juste	-10.4118
▁quarante	-10.4118
▁parfait	-10.412
▁épaisse	-10.4124
rog	-10.4127
▁communauté	-10.4131
▁verte	-10.4133
llon	-10.4136
dique	-10.4136
▁Famille	-10.4138
rom	-10.4138
▁Rose	-10.4139
▁oui.	-10.414
▁œuvre	-10.4143
▁cérémonie	-10.4144
tance	-10.4147
▁voile	-10.4147
▁paraître	-10.4148
▁prochaine	-10.4148
▁pli	-10.4149
▁Première	-10.415
▁art	-10.4152
▁Bolitho	-10.4157
▁lancé	-10.4158
▁supporter	-10.4158
▁Cra	-10.4161
▁volant	-10.4163
▁Ang	-10.4165
von	-10.417
▁cul	-10.4171
win	-10.4171
▁sais,	-10.4173
▁action	-10.4174
▁War	-10.4176
▁honnête	-10.4181
▁associé	-10.419
▁complexe	-10.4191
lam	-10.4192
▁regardé	-10.4195
▁pilote	-10.4195
dic	-10.4196
▁paysage	-10.4197
cit	-10.4201
▁liquide	-10.4201
▁douceur	-10.4203
▁Père	-10.421
▁tir	-10.4214
▁refuse	-10.4226
▁coupé	-10.4226
▁sauter	-10.4227
▁“	-10.423
▁écu	-10.4231
▁d'Ar	-10.4233
▁Fri	-10.4237
▁Maintenant	-10.4239
▁qu'une	-10.424
cus	-10.4247
▁paupières	-10.4249
▁tentative	-10.425
▁traces	-10.4252
▁atteindre	-10.4252
cide	-10.4253
▁x	-10.4256
▁Chine	-10.4259
▁considéré	-10.426
▁oiseaux	-10.4264
▁sport	-10.4267
nette	-10.4273
▁remis	-10.4273
ude	-10.4273
mas	-10.4275
▁fronça	-10.4278
▁concerne	-10.4278
▁pleurer	-10.4278
ces	-10.4279
▁plage	-10.428
▁sentiments	-10.4282
▁langage	-10.4285
rus	-10.4286
▁pri	-10.4287
▁Europe	-10.4287
▁gla	-10.4288
▁décide	-10.4289
▁viennent	-10.4295
▁d’hommes	-10.4298
▁n'était	-10.4301
▁composé	-10.4303
chet	-10.4305
▁Cou	-10.4309
▁plongea	-10.4312
ES	-10.4312
▁Ron	-10.4312
▁note	-10.4318
▁Monte	-10.432
▁division	-10.4327
▁apporté	-10.433
▁sta	-10.4339
▁prétend	-10.434
itaire	-10.434
▁efforts	-10.4344
▁bleue	-10.4346
▁maigre	-10.4347
▁royale	-10.4353
▁Allemagne	-10.4359
▁hommes,	-10.436
▁partis	-10.4366
▁1984	-10.4369
▁quai	-10.437
sia	-10.437
▁saisi	-10.437
▁J.	-10.4371
▁fallu	-10.4371
▁Oui	-10.4379
▁Mandat	-10.4381
▁mal.	-10.4382
▁morceaux	-10.4383
eff	-10.4384
▁trésor	-10.4384
ote	-10.4391
▁quelconque	-10.4391
▁naturellement	-10.4392
▁Arthur	-10.4394
▁cloche	-10.4395
▁image	-10.4396
▁pente	-10.44
AR	-10.44
▁acc	-10.4402
▁destinée	-10.4404
▁Combien	-10.4411
▁Pé	-10.4411
▁fourni	-10.4415
lim	-10.4416
▁mystère	-10.4417
▁Fou	-10.4417
▁reprises	-10.4419
▁répondit-il	-10.4424
ep	-10.4429
▁d'O	-10.4433
▁Mel	-10.4435
able.	-10.444
bourg	-10.4441
▁d’elle.	-10.4441
trait	-10.4446
▁voisine	-10.4446
gno	-10.4447
ères	-10.4453
ama	-10.4454
sie	-10.4456
▁teint	-10.4457
ieux	-10.446
▁professionnel	-10.446
use,	-10.4462
▁tendu	-10.4466
▁Là,	-10.4466
eur,	-10.4468
▁clo	-10.4472
▁sacré	-10.4474
▁obtenu	-10.4476
▁Pen	-10.448
▁sp	-10.4481
▁Ph	-10.4485
▁porta	-10.4486
▁prisonnier	-10.4487
lage	-10.4493
▁rêves	-10.4494
▁réunion	-10.4495
▁précipita	-10.4495
▁chiens	-10.4498
way	-10.45
▁Date	-10.4502
▁invisible	-10.4503
ppe	-10.4508
▁gueule	-10.4508
▁lit.	-10.4513
mère	-10.4514
▁Adam	-10.4517
▁L’un	-10.4518
rro	-10.4521
▁j’a	-10.4521
▁chaude	-10.4522
▁discussion	-10.4525
▁peintre	-10.4528
lou	-10.4528
▁attendit	-10.4528
▁table.	-10.4528
▁matin.	-10.4529
▁contra	-10.453
et,	-10.4536
ita	-10.454
▁Catherine	-10.4541
vre	-10.4542
▁devenait	-10.4543
ult	-10.4544
▁Ali	-10.4546
▁néanmoins	-10.4551
▁discuter	-10.4553
mul	-10.4556
▁n’étais	-10.4558
▁Myron	-10.4559
▁riant	-10.4565
▁furieux	-10.4566
▁soutien	-10.4567
▁télévision	-10.4575
▁homme.	-10.4577
▁Ste	-10.4582
uel	-10.4582
▁bat	-10.4585
▁Fer	-10.4586
▁d’Ar	-10.4587
▁coude	-10.4587
▁créatures	-10.4587
cur	-10.4588
▁bâton	-10.4588
▁magasin	-10.4591
▁interdit	-10.4592
ndre	-10.4599
▁bouger	-10.4599
▁satisfait	-10.46
▁sauta	-10.46
▁produits	-10.4601
▁mirent	-10.4605
▁lointain	-10.4605
▁fe	-10.4605
▁gardé	-10.4606
▁longueur	-10.4607
▁médi	-10.4615
gra	-10.4616
stra	-10.4616
▁historique	-10.4617
▁tombée	-10.4622
▁pourraient	-10.4623
▁(R	-10.4623
▁héros	-10.4625
ton,	-10.463
▁normal	-10.4634
▁s'agit	-10.4635
▁d’années	-10.4638
▁Tar	-10.464
▁cré	-10.464
▁Mari	-10.4644
bour	-10.4647
▁At	-10.4649
ray	-10.4651
▁sorcier	-10.4654
▁Tandis	-10.4655
▁officiers	-10.4656
▁35	-10.4658
▁Claude	-10.466
til	-10.4661
▁sang,	-10.4661
▁Seulement	-10.4662
tais	-10.4663
▁Fé	-10.4666
ip	-10.4666
▁brume	-10.4671
▁Ven	-10.4673
lig	-10.4674
▁papa	-10.4675
▁recherches	-10.4678
▁soie	-10.468
▁l'époque	-10.4681
▁boutique	-10.4682
▁donc,	-10.4687
▁Ram	-10.469
▁lecture	-10.4691
▁Démographie	-10.4694
▁question.	-10.4696
▁enquête	-10.4697
asse	-10.47
▁rejoint	-10.4702
▁fleur	-10.4707
▁logique	-10.4708
▁n’aurais	-10.4708
▁Hol	-10.4708
▁croix	-10.4709
ède	-10.471
rak	-10.4712
▁Gui	-10.4713
▁droite,	-10.4714
▁l'armée	-10.4718
▁Communauté	-10.4721
▁complet	-10.4722
▁suite.	-10.4723
▁boulot	-10.4723
▁puissante	-10.4727
field	-10.4729
bles	-10.4733
▁Fort	-10.4745
▁Sir	-10.4747
▁précédente	-10.4748
▁mère.	-10.4754
▁comptait	-10.4758
▁ronde	-10.4758
▁bassin	-10.4759
▁heures.	-10.476
▁Quelqu’un	-10.4761
▁lui-même,	-10.4767
▁dut	-10.4771
euses	-10.4771
comp	-10.4773
▁fuite	-10.4775
▁dit-elle,	-10.4777
▁Pra	-10.478
▁branches	-10.4788
▁(ou	-10.4792
▁Mère	-10.4792
▁couverture	-10.4794
▁Toi	-10.4796
cad	-10.4797
dd	-10.4801
ode	-10.4802
bot	-10.4807
▁Lors	-10.4807
▁s’ouvrit	-10.4809
celle	-10.4809
elli	-10.4816
▁encore.	-10.4816
▁suite,	-10.4817
▁Super	-10.4819
▁justement	-10.4821
fil	-10.4821
▁abandonné	-10.4824
▁D’	-10.4827
▁Christ	-10.4832
igner	-10.4837
▁(N	-10.4843
-6	-10.4843
▁hall	-10.4846
▁prononcé	-10.4846
▁avança	-10.4852
▁soigneusement	-10.4853
▁l'année	-10.4854
▁j	-10.4854
▁?M	-10.4855
▁magicien	-10.4856
▁pouce	-10.4858
▁Période	-10.486
▁regret	-10.486
▁tra	-10.4861
▁Ara	-10.4862
▁réel	-10.4866
▁voir.	-10.4867
lain	-10.4872
▁correspond	-10.4877
▁1983	-10.4878
▁Fra	-10.4879
▁grand-chose	-10.488
▁désigna	-10.4888
ives	-10.4889
érer	-10.4889
ets	-10.4892
▁arc	-10.4899
ple	-10.49
ffa	-10.4902
▁lesquelles	-10.4904
▁nue	-10.4906
▁Département	-10.4908
hab	-10.4908
▁aspect	-10.4911
▁fier	-10.4916
▁King	-10.4917
▁espace	-10.4918
▁2e	-10.4918
▁avez-vous	-10.4925
▁go	-10.4926
▁écrire	-10.4927
▁Ker	-10.4929
▁cheminée	-10.493
▁moins,	-10.493
ignant	-10.493
▁fils,	-10.4934
▁Toute	-10.4937
is,	-10.4937
▁limite	-10.4939
ange	-10.4939
▁offre	-10.494
▁successifs	-10.4942
▁retourne	-10.4949
▁jusqu’aux	-10.4949
nés	-10.4952
▁vend	-10.4955
pro	-10.4955
▁fausse	-10.4956
▁lé	-10.4961
▁viande	-10.4962
▁s’em	-10.4963
▁destin	-10.4967
rit	-10.4967
▁cessé	-10.4968
▁anti	-10.4969
IS	-10.4969
llo	-10.4969
▁d'origine	-10.4969
▁sang.	-10.4971
lien	-10.4971
▁90	-10.4973
ides	-10.4976
▁Léon	-10.4978
▁m’ont	-10.4979
▁l’île	-10.4979
▁matériel	-10.4979
▁Ken	-10.4982
▁devez	-10.4984
▁politiques	-10.4985
▁préféré	-10.4986
lette	-10.4988
nny	-10.4998
ités	-10.5
gal	-10.5001
▁accent	-10.5002
dée	-10.5005
o-	-10.5008
rio	-10.5009
appel	-10.5013
▁z	-10.5017
▁notes	-10.5021
▁nouvel	-10.5021
écoute	-10.5023
pit	-10.5032
▁lèvres.	-10.5033
▁(17	-10.5037
▁futur	-10.5039
ente	-10.5039
▁Pre	-10.5041
▁saut	-10.5042
ps	-10.5042
trice	-10.5047
▁roi,	-10.5048
▁l’effet	-10.5052
▁repoussa	-10.5052
▁messieurs	-10.5056
▁m’y	-10.5062
indre	-10.5065
▁fermée	-10.5066
▁raconté	-10.507
▁examina	-10.5077
▁marquis	-10.5086
imagin	-10.5087
eur.	-10.5087
▁reli	-10.5087
▁écoute	-10.5092
▁l’avez	-10.5094
ez-moi	-10.5098
▁battant	-10.5102
▁accompli	-10.5105
▁dos.	-10.5109
▁Prince	-10.511
▁failli	-10.5111
▁accepté	-10.5111
▁alors,	-10.5112
▁bas,	-10.5112
lat	-10.5113
rich	-10.5115
▁droits	-10.5119
▁branche	-10.5119
cin	-10.512
▁s’éloigna	-10.512
otte	-10.5121
ngo	-10.5122
▁lâche	-10.5123
tron	-10.5123
▁censé	-10.5128
▁telles	-10.5128
▁soi	-10.5131
▁secrète	-10.5132
▁apparence	-10.5136
▁enfants,	-10.5138
▁Ur	-10.5139
▁bé	-10.5141
▁feu.	-10.5142
▁route.	-10.5143
▁métallique	-10.5143
▁apparemment	-10.515
émi	-10.5151
▁entendait	-10.5157
▁1985	-10.5158
▁d’Al	-10.516
riez-vous	-10.516
▁grise	-10.5163
▁comtesse	-10.5164
onde	-10.5167
▁sourit.	-10.5167
▁utilisée	-10.5172
▁Titre	-10.5174
▁dépens	-10.5174
hum	-10.5174
▁peur.	-10.5174
por	-10.5175
▁garçons	-10.5175
▁d'Al	-10.5176
igu	-10.5179
install	-10.5179
▁Fla	-10.518
▁types	-10.5182
▁détaillé	-10.5184
▁doute,	-10.5186
▁lis	-10.5189
ier,	-10.5189
▁longtemps,	-10.5189
▁tissu	-10.519
▁contempla	-10.5191
▁réfléchi	-10.5192
▁loin.	-10.5192
▁loge	-10.5194
▁cœur,	-10.5195
ération	-10.5195
▁J'ai	-10.5198
▁galerie	-10.5198
▁posée	-10.52
▁?(19	-10.5201
▁assassin	-10.5203
cept	-10.5206
èle	-10.5208
cra	-10.5221
▁blessure	-10.5222
▁tours	-10.5228
▁engagé	-10.5228
▁L'A	-10.5228
▁pousse	-10.5237
phe	-10.5237
▁catholique	-10.5238
▁National	-10.524
▁italien	-10.5242
▁arbre	-10.5244
▁charme	-10.5246
▁fixa	-10.5247
▁considérable	-10.5248
▁diverses	-10.5251
▁disque	-10.5251
ait-il	-10.5253
▁32	-10.5254
▁semblable	-10.5261
tit	-10.5263
▁Paris.	-10.5263
▁revue	-10.5265
▁crier	-10.5265
▁pres	-10.527
▁Black	-10.5273
char	-10.5273
▁internationale	-10.5277
stic	-10.5277
▁fuir	-10.528
▁super	-10.528
▁aviez	-10.5281
▁tasse	-10.5282
▁amené	-10.5283
dge	-10.5283
▁certitude	-10.5284
▁monté	-10.5285
▁lien	-10.5287
▁Mars	-10.5291
▁voler	-10.5291
▁précédent	-10.5291
▁crut	-10.5292
tés	-10.5293
erait	-10.5295
ssée	-10.5304
▁veulent	-10.5305
▁remonter	-10.5307
▁centrale	-10.5308
nat	-10.5309
▁pauvres	-10.531
el,	-10.5311
▁bro	-10.5311
▁Seul	-10.5312
▁dragon	-10.5312
▁journaux	-10.5312
▁champs	-10.5312
illard	-10.5315
▁température	-10.5316
▁escalier	-10.5316
▁misérable	-10.532
▁personnages	-10.5321
▁retenir	-10.5322
▁valait	-10.5322
ête	-10.5324
▁nage	-10.5326
cité	-10.533
▁1976	-10.5331
-sur-	-10.5333
▁tint	-10.5335
▁actuel	-10.534
▁voyais	-10.5341
▁sentier	-10.5344
dition	-10.5345
▁disposé	-10.5346
▁lunettes	-10.5346
▁lui-même.	-10.5349
▁1971	-10.535
▁conçu	-10.5352
▁humeur	-10.5354
▁gal	-10.5355
uk	-10.5357
▁1960	-10.5361
▁Air	-10.5362
▁intervint	-10.5362
▁Leurs	-10.5364
▁nuage	-10.5367
▁d'eau	-10.537
og	-10.5372
▁Sh	-10.538
▁jette	-10.5381
î	-10.5381
▁choisir	-10.5382
phi	-10.5388
ea	-10.539
▁souffrir	-10.5391
▁tunnel	-10.5395
ow	-10.5396
issent	-10.5401
pli	-10.5406
▁enfant,	-10.5411
uff	-10.5411
▁parler,	-10.5418
elles	-10.5419
▁ombre	-10.5421
▁n’êtes	-10.5424
▁gré	-10.5426
traîne	-10.5427
▁vertu	-10.5429
af	-10.5433
▁Garde	-10.5434
▁XV	-10.5436
▁utiliser	-10.5438
▁Var	-10.5441
▁lève	-10.5441
▁Latitude	-10.5445
ppa	-10.5451
▁appelée	-10.5453
bes	-10.5457
▁miss	-10.5458
▁banque	-10.5459
▁sinistre	-10.5459
▁portrait	-10.5462
▁midi	-10.5462
▁partit	-10.5463
use.	-10.5465
bul	-10.5466
▁l’as	-10.5468
▁district	-10.547
▁revient	-10.547
lais	-10.5471
fér	-10.5472
▁sergent	-10.5474
▁défaut	-10.5475
▁méchant	-10.5475
sco	-10.5475
▁Cher	-10.5477
resse	-10.5478
▁Noir	-10.5478
▁images	-10.5481
▁piège	-10.5482
▁réduit	-10.5484
matique	-10.5484
ich	-10.5485
▁Cons	-10.5485
▁tradition	-10.5488
▁ridicule	-10.5488
▁traduction	-10.5489
▁servait	-10.5489
▁Nicolas	-10.5489
▁Lou	-10.549
chev	-10.549
▁Wo	-10.5492
▁dimanche	-10.5492
▁idiot	-10.5492
▁l'État	-10.5492
▁histoires	-10.5494
▁abord	-10.5494
hol	-10.5498
cole	-10.5499
vu	-10.5501
▁Mike	-10.5504
▁vagues	-10.5506
ZZ	-10.5508
▁Flo	-10.5508
▁créer	-10.5509
▁violent	-10.5515
gré	-10.5516
▁nourri	-10.5519
▁Comp	-10.552
▁troupe	-10.5526
▁J’espère	-10.5528
ó	-10.5529
cule	-10.5529
-ci	-10.553
ades	-10.5531
▁veste	-10.5534
▁complète	-10.5535
▁muscles	-10.5536
▁fraîche	-10.5537
▁silence,	-10.5537
▁ajouta-t-il	-10.5537
▁hôte	-10.5538
▁destiné	-10.5539
▁résistance	-10.5543
▁vérifier	-10.5544
▁poète	-10.5545
ord	-10.5545
lay	-10.5546
well	-10.5547
▁pénétra	-10.5547
▁(Elle	-10.5548
és,	-10.5548
▁règne	-10.555
▁phénomène	-10.5554
▁siècle.	-10.5557
▁mains,	-10.5557
▁préparé	-10.5558
▁poli	-10.556
▁Allons,	-10.556
▁viendra	-10.5561
▁perdue	-10.5562
▁Mir	-10.5562
▁épais	-10.5564
▁bra	-10.5565
▁pourtant,	-10.5574
▁poursuivre	-10.5576
▁corps.	-10.5583
bilis	-10.5583
▁fu	-10.5584
▁m’est	-10.5585
▁frisson	-10.5585
▁contraire,	-10.5587
zar	-10.5587
▁flot	-10.5589
▁lorsqu’elle	-10.559
ison	-10.5591
▁payé	-10.5591
▁Monde	-10.5593
▁l’extérieur	-10.5594
▁possédait	-10.5594
eb	-10.5595
▁Angleterre	-10.5596
fle	-10.5602
▁cache	-10.5604
ller	-10.5605
organ	-10.5611
▁Lin	-10.5615
mu	-10.562
ffer	-10.5621
▁gouverneur	-10.5623
vor	-10.5624
ître	-10.5627
▁promesse	-10.5627
▁talons	-10.5629
▁Tro	-10.5631
▁nouveau,	-10.5632
▁lut	-10.5634
▁l’âme	-10.5635
▁(Le	-10.5641
▁précisément	-10.5642
▁musée	-10.5642
▁avantage	-10.5643
▁n'avait	-10.5643
ind	-10.5644
▁légende	-10.5646
▁garda	-10.5646
lade	-10.5648
▁retirer	-10.5649
▁multi	-10.5649
▁parla	-10.5653
▁rare	-10.5653
▁réuni	-10.5654
▁termes	-10.5655
▁Lé	-10.5661
orn	-10.5662
▁inconnue	-10.5662
▁prisonniers	-10.5664
▁mélange	-10.5668
▁pages	-10.5668
▁préfère	-10.5687
▁ressort	-10.5689
▁Aux	-10.5689
▁fatigué	-10.569
▁appela	-10.5695
▁Win	-10.5696
▁inquiet	-10.5705
jet	-10.5707
▁manquait	-10.571
▁?C	-10.571
▁Gal	-10.5717
▁convaincre	-10.5719
▁cela.	-10.5723
▁offert	-10.5723
▁éco	-10.5725
▁pressa	-10.5726
▁arrêter	-10.5733
▁Grâce	-10.5734
quant	-10.5735
▁eff	-10.5736
▁attitude	-10.5738
-de	-10.5739
▁débarrasser	-10.5742
▁bâtiments	-10.5743
▁totale	-10.5744
▁personnelle	-10.5745
▁(E	-10.5746
▁traitement	-10.575
▁m'	-10.5752
▁trouble	-10.5755
hal	-10.5756
dam	-10.5756
▁démographique	-10.5757
▁édition	-10.5757
ndi	-10.576
nger	-10.5762
▁concert	-10.5768
▁d'ex	-10.5769
".	-10.577
▁pape	-10.577
▁rythme	-10.5772
▁voisin	-10.5775
▁Longitude	-10.5775
▁gu	-10.5779
▁réflexion	-10.5779
▁montait	-10.5782
sk	-10.5784
zu	-10.5785
▁sombres	-10.5787
▁1979	-10.5788
▁parlant	-10.5794
▁Marcel	-10.5797
▁noires	-10.5797
▁épuisé	-10.5801
▁mienne	-10.5803
▁souhaite	-10.5806
▁pardon	-10.5807
▁oreille	-10.5811
▁accompagné	-10.5814
▁Gé	-10.5815
▁offrir	-10.5817
▁blanches	-10.5817
▁l'ex	-10.5818
▁voitures	-10.5819
sèrent	-10.5819
▁fermé	-10.5821
▁l'île	-10.5823
▁quatrième	-10.5824
▁Cy	-10.5827
oire	-10.5827
▁?B	-10.583
▁sorcière	-10.5831
ssin	-10.5832
▁innocent	-10.5832
▁non.	-10.5833
▁sachant	-10.5834
▁revolver	-10.5839
▁Mrs	-10.5839
▁étape	-10.5839
▁commandement	-10.5847
▁fine	-10.585
▁bêtes	-10.5851
▁1977	-10.5852
▁Mr.	-10.5853
▁pure	-10.5854
cla	-10.5856
hin	-10.5861
▁pou	-10.5863
▁partage	-10.5865
▁Toujours	-10.5869
▁You	-10.5869
-nous	-10.5871
cc	-10.5873
▁ref	-10.5874
gues	-10.5876
▁aveugle	-10.5878
▁proposition	-10.5879
ami	-10.5879
▁c’est-à-dire	-10.588
▁littérature	-10.588
▁sèche	-10.5886
▁tranquillement	-10.5889
▁contient	-10.5892
▁brise	-10.5896
▁moderne	-10.5898
▁noir,	-10.5901
▁international	-10.5902
▁caisse	-10.5905
▁venez	-10.5908
uit	-10.5909
▁lois	-10.591
▁Équipe	-10.591
▁l'eau	-10.5913
▁torche	-10.5914
▁meilleurs	-10.5916
serv	-10.5917
▁coffre	-10.5918
ave	-10.5923
▁devais	-10.5923
▁connaissez	-10.5932
▁règles	-10.5933
▁foyer	-10.5934
fait	-10.5935
▁représente	-10.5936
▁Han	-10.5937
▁accepter	-10.5938
▁belles	-10.5938
▁prononça	-10.5941
▁marqua	-10.5945
▁science	-10.5947
▁minutes,	-10.5953
éc	-10.5953
-3	-10.5954
▁plantes	-10.5955
▁ras	-10.5956
▁prends	-10.5958
▁Soudain,	-10.596
▁grille	-10.596
▁employé	-10.5961
▁acheté	-10.5961
▁1978	-10.5962
▁Tal	-10.5962
▁Merci,	-10.5962
▁Disney	-10.5965
▁voix.	-10.5966
2007	-10.5966
▁îles	-10.5966
”	-10.5969
IT	-10.5972
▁Derrière	-10.5975
▁West	-10.5978
▁pénétrer	-10.5979
▁LA	-10.5982
▁plu	-10.5982
▁l’aube	-10.5983
▁pût	-10.5988
▁mensonge	-10.599
dul	-10.5991
[1].	-10.5992
▁Enfin	-10.5997
▁frontière	-10.5998
▁ép	-10.5999
▁décor	-10.6001
▁hu	-10.6004
▁fouet	-10.6008
▁secteur	-10.6008
▁outre	-10.6012
.com	-10.6014
▁congé	-10.6017
▁Belle	-10.6023
[2]	-10.6024
▁s’asseoir	-10.6025
▁attaché	-10.6026
▁tut	-10.6027
ignait	-10.6028
nna	-10.603
▁lourde	-10.6032
▁maires	-10.6033
▁Dix	-10.6034
▁cho	-10.6034
▁Tha	-10.6036
ert	-10.6042
▁satisfaction	-10.6044
tie	-10.6048
ata	-10.6049
▁l’aise	-10.6054
▁guerriers	-10.6056
▁proximité	-10.6059
▁fureur	-10.6064
▁née	-10.6067
▁pl	-10.6067
▁marqué	-10.6071
▁franchi	-10.6072
▁reprend	-10.6073
espér	-10.6075
▁d'abord	-10.6075
▁m’étais	-10.6078
ine.	-10.6079
▁esprits	-10.608
▁clef	-10.6082
▁Évolution	-10.6082
▁Red	-10.6084
▁l’ét	-10.6084
▁Pitt	-10.6086
▁constata	-10.6087
▁Plusieurs	-10.609
▁baie	-10.6092
▁l’état	-10.6098
▁soyez	-10.6098
▁l’honneur	-10.6101
gard	-10.6104
▁allure	-10.6106
▁sensible	-10.6111
▁paru	-10.6111
tir	-10.6113
▁exact	-10.6115
▁prévenir	-10.6123
pha	-10.6124
pré	-10.6124
▁soulagement	-10.6128
▁reconnaissance	-10.6128
▁sol,	-10.6133
▁jamais.	-10.6138
▁l'aide	-10.6139
▁n’es	-10.6142
▁Dom	-10.6142
▁l'article	-10.6143
▁élections	-10.6144
▁?????	-10.6148
nèrent	-10.6148
▁Antoine	-10.615
▁franchir	-10.6155
▁prudent	-10.6155
▁Aucune	-10.6156
ologique	-10.6159
▁serré	-10.616
▁l’an	-10.6164
chen	-10.6166
SS	-10.6168
▁européenne	-10.6169
▁mâchoire	-10.6171
▁responsabilité	-10.6171
▁Inter	-10.6172
▁total	-10.6176
▁sentais	-10.6186
▁cependant,	-10.6186
▁dégoût	-10.6187
▁pét	-10.6187
▁Fais	-10.6193
▁pis	-10.6195
▁d'argent	-10.6196
guer	-10.6197
▁fonctions	-10.6201
sp	-10.6202
▁aimable	-10.6202
▁?S	-10.6203
▁fixe	-10.6205
▁énergie	-10.6206
▁gosse	-10.6207
▁(né	-10.6207
▁??	-10.6209
▁secrets	-10.6209
▁printemps	-10.621
gué	-10.6211
▁vite,	-10.6212
▁flanc	-10.6213
▁possession	-10.6214
▁pressé	-10.6218
▁And	-10.6224
▁Lorsqu’il	-10.6225
▁pat	-10.6228
▁bottes	-10.6231
▁l’horizon	-10.6233
▁galop	-10.6235
▁Star	-10.6239
▁d’amour	-10.6239
qu'	-10.6241
nais	-10.6241
pel	-10.6242
gère	-10.6242
▁pièce,	-10.6243
ute	-10.6245
▁mois,	-10.6247
ssez	-10.6249
▁Centre	-10.6252
▁chacune	-10.6254
▁(?	-10.6256
▁Château	-10.6257
▁écrivain	-10.6257
▁contrat	-10.6257
▁saisir	-10.6262
▁difficulté	-10.6263
▁claire	-10.6263
▁réussit	-10.6263
ières	-10.6264
▁poisson	-10.6266
▁boue	-10.6267
▁véhicule	-10.6268
▁Abd	-10.6269
▁LE	-10.627
▁45	-10.6272
accord	-10.6274
▁extrêmement	-10.6274
▁tenaient	-10.6275
▁maire	-10.6276
▁sortait	-10.6282
rma	-10.6286
▁mène	-10.6289
attache	-10.6289
▁chasser	-10.6292
lit	-10.6296
▁Ham	-10.6299
illait	-10.6299
▁roche	-10.63
▁amoureux	-10.6301
▁l’habitude	-10.6304
nière	-10.6307
▁savent	-10.631
vy	-10.6311
▁formule	-10.6312
▁parvenu	-10.6313
▁évident	-10.6313
lac	-10.6313
▁1972	-10.6313
▁sourd	-10.6313
wan	-10.6317
▁Noël	-10.632
▁dames	-10.6321
»	-10.6323
pen	-10.6325
▁client	-10.6327
▁remplacé	-10.6327
cip	-10.633
▁Mis	-10.633
▁s’inclina	-10.6331
▁(a	-10.6335
▁décider	-10.6338
▁rapprocha	-10.6339
ez,	-10.6343
▁persuadé	-10.6343
▁coupa	-10.6344
▁Ren	-10.6345
aux,	-10.6346
▁gagna	-10.6347
▁déclaré	-10.6347
venant	-10.6348
▁bâti	-10.6352
▁souhait	-10.6353
▁salua	-10.6354
hr	-10.6355
▁serez	-10.6355
▁demanda-t-il.	-10.6355
▁(p	-10.6358
bit	-10.6359
imer	-10.6359
▁Im	-10.636
und	-10.6362
ation.	-10.6362
▁sien	-10.6362
▁émotion	-10.6363
▁tristesse	-10.6371
intégr	-10.6371
▁relation	-10.6374
▁appartement	-10.6374
▁Brésil	-10.6375
▁feu,	-10.6375
▁paire	-10.6376
rand	-10.6378
▁hôtel	-10.638
▁Hal	-10.6387
▁accès	-10.6388
▁savons	-10.6388
▁Fred	-10.6389
▁Big	-10.6392
not	-10.6395
▁Sen	-10.6395
lait	-10.6395
ssure	-10.6396
▁dou	-10.6401
▁envoya	-10.6405
▁passée	-10.6411
▁majorité	-10.6416
▁papiers	-10.6427
lyn	-10.6429
▁liées	-10.6434
▁montrait	-10.6434
▁route,	-10.6438
▁remarquable	-10.6442
▁officier	-10.6443
▁l'art	-10.6446
▁jure	-10.6447
▁vivait	-10.6447
▁amant	-10.645
▁brûlé	-10.645
imp	-10.6453
yon	-10.6454
ique,	-10.6456
▁chercha	-10.6462
▁Mad	-10.6462
▁soixante	-10.6462
▁fallut	-10.6467
·	-10.647
▁débat	-10.6471
▁Ordre	-10.6473
▁considéra	-10.6475
cens	-10.6476
▁navires	-10.6476
para	-10.6477
▁poignard	-10.6478
▁May	-10.6479
▁l’abri	-10.6481
▁actuellement	-10.6481
▁l'an	-10.6482
▁désolé	-10.6485
fre	-10.6485
▁vapeur	-10.6487
▁cy	-10.6487
mou	-10.6488
▁Guillaume	-10.6489
▁(V	-10.6489
▁caractères	-10.6492
dar	-10.6493
nées	-10.6495
▁parties	-10.6496
crit	-10.6497
ky	-10.6499
▁?)	-10.6501
▁pouvoirs	-10.6502
▁rarement	-10.6505
▁regard.	-10.6506
▁guerrier	-10.6506
▁Celui	-10.6507
▁étranger	-10.6512
▁contenta	-10.6514
▁lou	-10.6517
emb	-10.6523
▁contente	-10.6524
▁Vers	-10.6527
mour	-10.6533
▁cave	-10.6534
▁procès	-10.6535
▁pique	-10.6535
▁réputation	-10.6539
▁scientifique	-10.6541
cca	-10.6543
visage	-10.655
oise	-10.655
▁régiment	-10.6553
ett	-10.6556
▁bois,	-10.6558
▁Avez-vous	-10.6558
▁victimes	-10.6558
▁flamme	-10.656
▁Toutefois,	-10.6563
oph	-10.6565
▁Hy	-10.6565
▁Province	-10.6567
▁l’odeur	-10.6567
▁méthode	-10.6567
▁viol	-10.6568
erai	-10.657
isant	-10.6572
▁monsieur.	-10.6573
▁tombait	-10.6576
▁hautes	-10.6578
▁combinaison	-10.6579
▁réveillé	-10.658
▁forcé	-10.658
▁s’être	-10.6582
▁talent	-10.6582
-p	-10.6582
▁règle	-10.6585
▁dép	-10.6586
iale	-10.6587
▁poudre	-10.6588
▁publié	-10.6588
▁Ter	-10.6591
▁l'est	-10.6591
▁colla	-10.6592
▁grosses	-10.6593
▁respiration	-10.6594
_	-10.6599
▁l'homme	-10.66
rian	-10.6603
ken	-10.6604
▁dia	-10.6606
▁retourné	-10.6608
▁fidèle	-10.6608
▁êtes-vous	-10.661
▁rit	-10.6614
▁détruire	-10.6615
RA	-10.6616
▁exp	-10.6617
▁ciel,	-10.6619
tage	-10.6622
▁Durant	-10.6624
▁creux	-10.6625
traction	-10.6627
▁église	-10.6628
▁(c	-10.6628
▁Jane	-10.6629
icien	-10.6634
▁m’as	-10.6637
▁adversaire	-10.6639
poli	-10.6642
▁(H	-10.6643
▁jouait	-10.6648
AS	-10.6648
▁Sc	-10.6649
▁Qualité	-10.6653
ible	-10.6656
▁disais	-10.6656
▁roula	-10.6658
▁arrêt	-10.6658
▁partageant	-10.6661
▁Ir	-10.6663
▁formé	-10.6663
▁fla	-10.6664
▁caractéristique	-10.6664
▁Land	-10.6666
▁l'I	-10.6668
▁juger	-10.667
▁Ligue	-10.667
▁Alexandre	-10.6673
an.	-10.6673
▁marchait	-10.6673
▁lendemain,	-10.6674
▁Cur	-10.6675
▁acco	-10.6676
▁principalement	-10.6677
ald	-10.6679
▁l’âge	-10.6681
▁60	-10.6681
▁voiture.	-10.6686
▁Os	-10.6689
▁certes	-10.6689
▁refusé	-10.6692
eux,	-10.6695
-R	-10.6698
▁emporté	-10.6701
▁força	-10.6702
▁prouver	-10.6703
▁techniques	-10.6708
▁pause	-10.6708
ust	-10.671
000	-10.6713
▁essayait	-10.6715
▁regardai	-10.6716
emme	-10.6717
pren	-10.6718
▁XIXe	-10.6721
▁suivait	-10.6721
▁1974	-10.6723
ning	-10.6727
▁couper	-10.6728
▁remercie	-10.6728
▁guerre,	-10.673
▁usage	-10.6731
ige	-10.6733
▁tension	-10.6734
▁l’ont	-10.6734
▁rayons	-10.6736
▁Ap	-10.6738
▁René	-10.6741
▁Vraiment	-10.6742
chu	-10.6742
▁maudit	-10.6743
▁Mc	-10.6743
▁réjoui	-10.6744
▁comporte	-10.6745
▁témoin	-10.6748
▁ber	-10.6748
▁acte	-10.6752
▁trompé	-10.6754
▁??????????	-10.6756
▁Victor	-10.6758
oxy	-10.6759
press	-10.6762
▁Classification	-10.6763
▁l’avenir	-10.6764
▁clients	-10.6768
sse,	-10.677
▁FC	-10.6771
▁(The	-10.6772
▁vendu	-10.6772
▁dirige	-10.6773
ung	-10.6779
▁Identité	-10.6779
▁relever	-10.6782
▁gigantesque	-10.6783
▁référence	-10.6784
▁dos,	-10.6785
▁aimer	-10.6786
▁Cependant	-10.6786
▁Street	-10.6787
oni	-10.6789
▁Patrick	-10.6792
▁vérité.	-10.6793
▁d’air	-10.6795
▁efficace	-10.6804
▁écouter	-10.6809
▁photos	-10.681
▁croit	-10.6812
ical	-10.6813
▁centimètres	-10.6815
rer	-10.6816
lice	-10.6816
cup	-10.6818
▁brusque	-10.682
▁Mus	-10.682
▁portière	-10.6826
▁protesta	-10.6827
▁ciel.	-10.6828
-O	-10.6828
▁36	-10.6829
ût	-10.6829
dal	-10.683
▁n’eut	-10.6833
▁noir.	-10.6833
▁quoi,	-10.6836
▁clairement	-10.6837
▁libres	-10.6839
▁l'air	-10.684
▁CHAPITRE	-10.6841
▁pieds.	-10.6842
▁exploit	-10.6842
▁'	-10.685
vienne	-10.6851
▁poignet	-10.6852
tement	-10.6852
ight	-10.6853
lés	-10.6853
▁locale	-10.6855
▁pin	-10.6856
▁disparition	-10.6858
▁t’es	-10.6861
▁Vic	-10.6863
dien	-10.6865
▁marmonna	-10.6866
▁résister	-10.6867
▁nain	-10.687
uri	-10.6874
[4]	-10.6874
▁jusque	-10.688
▁comportement	-10.6881
▁Carl	-10.6882
▁verra	-10.6883
▁assassiné	-10.6884
▁cellule	-10.6886
▁chuchota	-10.6887
bro	-10.6887
change	-10.6888
▁adresse	-10.6892
▁33	-10.6893
cée	-10.6896
▁paume	-10.69
▁restée	-10.6901
atif	-10.6901
▁Espagne	-10.6902
▁massif	-10.6906
▁issu	-10.691
▁ira	-10.6911
▁quoique	-10.6912
▁cauchemar	-10.6912
▁flèche	-10.6913
▁plancher	-10.6914
▁bureau.	-10.6917
▁vite.	-10.6918
roi	-10.692
▁observer	-10.6923
▁connues.	-10.6925
▁défend	-10.693
adresse	-10.6931
▁Christian	-10.6935
▁étrangers	-10.6937
▁caverne	-10.6937
▁sortant	-10.694
are	-10.6941
hou	-10.6947
▁clan	-10.695
▁essayant	-10.695
▁test	-10.6953
▁revenait	-10.6954
fon	-10.6957
▁dizaine	-10.6958
▁saura	-10.6963
▁résultats	-10.6964
tru	-10.6964
nay	-10.6965
▁produire	-10.6966
▁Point	-10.6967
it-il	-10.6968
▁Matt	-10.697
▁frotta	-10.6971
ball	-10.6975
ements	-10.6979
▁Dal	-10.6979
▁trahi	-10.698
▁?A	-10.6981
▁tournée	-10.6991
mine	-10.7
▁climat	-10.7
▁corps,	-10.7002
▁camion	-10.7004
▁gloire	-10.7005
▁précise	-10.7007
▁l’espoir	-10.7009
▁mandat	-10.7009
▁nouveau.	-10.7011
▁rétorqua	-10.7013
▁largement	-10.7013
burg	-10.7014
ona	-10.7015
▁grimace	-10.7017
▁?uvres	-10.7017
▁l’aurait	-10.7017
▁mortel	-10.7018
rise	-10.702
▁500	-10.7021
▁Clo	-10.7022
▁200	-10.7025
▁Roche	-10.7026
▁réveilla	-10.7026
▁bour	-10.7026
▁reflet	-10.7035
▁Jim	-10.7035
▁biologie	-10.7036
-lui	-10.7041
▁Stephen	-10.7047
ico	-10.7049
▁tronc	-10.7049
▁génie	-10.7049
▁restaurant	-10.7051
▁nerveux	-10.7051
▁flic	-10.7053
▁domestique	-10.7053
▁Tan	-10.7057
▁ami.	-10.7058
▁direct	-10.706
fin	-10.706
-L	-10.7061
mène	-10.7061
archi	-10.7062
▁jadis	-10.7064
▁1973	-10.7065
aliste	-10.7069
▁Ob	-10.707
ço	-10.707
▁songe	-10.7071
▁Gilbert	-10.7072
▁plaça	-10.7073
vaient	-10.7074
▁chapelle	-10.7081
pul	-10.7081
riez	-10.7084
È	-10.7089
ib	-10.7089
▁pile	-10.709
vision	-10.7092
▁là-bas,	-10.7094
▁l’épée	-10.7094
OU	-10.7097
zza	-10.7097
▁enfermé	-10.7098
▁distinguer	-10.7099
ring	-10.7101
▁rencontra	-10.7106
▁grotte	-10.7106
ifi	-10.7108
nois	-10.7109
nci	-10.7109
▁tournait	-10.711
▁flics	-10.711
▁c'était	-10.711
▁récupérer	-10.711
▁inscrit	-10.711
▁médecine	-10.7112
▁permettant	-10.7113
ation,	-10.7114
▁bruits	-10.7115
▁moment-là	-10.7115
▁fé	-10.7115
▁Pic	-10.7116
▁Ah,	-10.7117
▁descendant	-10.7118
▁comprenez	-10.7119
▁deviner	-10.7119
ration	-10.712
▁bronze	-10.7123
▁sélection	-10.7123
bas	-10.7124
▁savaient	-10.7124
▁Trop	-10.7127
▁VI	-10.7134
▁menaçant	-10.7138
▁trottoir	-10.7144
▁accepta	-10.7145
▁vibr	-10.7147
▁progress	-10.7148
ish	-10.7151
▁Montréal	-10.7157
▁actuelle	-10.716
▁merde	-10.7163
▁monte	-10.7164
▁monuments	-10.7165
yo	-10.7165
▁l’ennemi	-10.7166
▁demi-heure	-10.7166
▁raconta	-10.7167
▁Qu’il	-10.7168
▁envoyer	-10.7168
▁vieilles	-10.7168
▁officielle	-10.7168
tisme	-10.7171
▁adressa	-10.7172
▁épisode	-10.7173
▁pays.	-10.7174
▁sexe	-10.7176
hl	-10.7176
▁Bay	-10.7178
arc	-10.718
▁monture	-10.7181
fond	-10.7183
▁recul	-10.7184
▁faillit	-10.7185
▁n'en	-10.7186
▁courut	-10.7191
▁Smith	-10.7192
▁34	-10.7192
▁endroits	-10.7194
zzo	-10.7194
▁violemment	-10.7196
▁selle	-10.7197
Île	-10.7199
▁probable	-10.7199
▁vide.	-10.72
ssais	-10.7201
▁Plan	-10.7204
▁App	-10.7204
▁cardinal	-10.7205
▁marbre	-10.7206
▁eurent	-10.7206
row	-10.7206
▁panique	-10.7209
▁couverte	-10.7209
▁Ramsès	-10.7209
▁détruit	-10.7215
▁bienvenue	-10.7218
▁Autres	-10.7221
clair	-10.7226
ada	-10.7228
-K	-10.7229
▁agents	-10.723
of	-10.7231
▁étroite	-10.7232
▁dévisagea	-10.7232
▁Ten	-10.7235
onique	-10.7235
sui	-10.7237
▁mouche	-10.7238
▁civil	-10.7244
▁proches	-10.7245
▁conscient	-10.7248
▁social	-10.7249
▁l’église	-10.7249
igny	-10.7251
▁Bak	-10.7253
▁Web	-10.7255
▁intime	-10.7256
▁jusqu'au	-10.7257
▁vendre	-10.7258
▁venant	-10.7259
▁d’esprit	-10.7261
▁répertorie	-10.7261
▁grogna	-10.7261
▁armées	-10.7264
▁révéler	-10.7265
▁Ac	-10.7266
▁Devant	-10.7267
avi	-10.7267
▁s’arrêter	-10.7268
▁guide	-10.7269
aël	-10.7269
▁Chevalier	-10.7269
▁Vin	-10.7271
▁Fau	-10.7271
▁savant	-10.7272
▁subi	-10.7272
▁indi	-10.7274
▁manquer	-10.7275
çon	-10.7275
▁amis,	-10.7276
▁faiblesse	-10.7278
▁vrai.	-10.7282
▁précieux	-10.7284
▁projets	-10.7285
▁Sigles	-10.7287
▁fièvre	-10.7287
▁(ISBN	-10.7291
▁s'était	-10.7292
▁Quatre	-10.7293
▁Alain	-10.7294
▁gentil	-10.7295
▁Garion	-10.7296
sky	-10.73
▁ombres	-10.7301
▁rappelait	-10.7301
▁réveiller	-10.7304
▁l’art	-10.7304
▁80	-10.7305
rien	-10.7306
gua	-10.7307
’après	-10.7308
▁lion	-10.7311
▁casque	-10.7315
▁brillant	-10.7317
▁douzaine	-10.7317
▁chariot	-10.7317
▁ainsi,	-10.7319
ographie	-10.7319
▁fum	-10.732
été	-10.7322
▁trouvent	-10.7331
az	-10.7335
▁défini	-10.7337
▁aigu	-10.7337
▁privée	-10.7339
▁Dur	-10.7339
rum	-10.734
nar	-10.7341
▁cage	-10.7342
▁pays,	-10.7344
ram	-10.7347
▁murmura-t-il	-10.7352
▁mêmes	-10.7353
▁intention	-10.7354
▁n’arrive	-10.7358
▁n’aime	-10.7359
▁conviction	-10.7361
▁Nouvelle	-10.7363
mique	-10.7365
▁dedans	-10.7366
▁sh	-10.7367
▁d’An	-10.7369
▁termina	-10.7374
▁inquiétude	-10.7374
▁cible	-10.7377
▁l’attention	-10.7378
▁miracle	-10.7378
cker	-10.7379
▁Dia	-10.7384
èse	-10.7384
▁fra	-10.7388
▁conclut	-10.7392
rick	-10.7393
range	-10.7393
tale	-10.7395
▁Haute	-10.7397
▁mener	-10.7397
▁colonne	-10.7398
▁billet	-10.74
▁dis-je,	-10.7403
▁antique	-10.7404
▁mont	-10.7406
▁dangereuse	-10.7406
▁Viens	-10.7407
▁famille,	-10.7408
▁renseignements	-10.741
▁Pin	-10.7411
▁J’y	-10.7411
▁tr	-10.7412
▁travail.	-10.7412
▁Gre	-10.7413
▁mâle	-10.7413
▁m’in	-10.7414
▁parvenir	-10.7415
▁voiture,	-10.7416
’a	-10.7417
▁âgé	-10.7417
▁opinion	-10.7422
▁brisé	-10.7423
▁Gau	-10.7424
▁lord	-10.7424
▁sociale	-10.7429
▁brique	-10.7429
hel	-10.7429
tribu	-10.743
▁appuya	-10.7431
▁Franc	-10.7432
ifié	-10.7435
▁épreuve	-10.7435
▁coutume	-10.7435
▁cherchant	-10.7436
son,	-10.7437
▁(2	-10.7437
mba	-10.7438
▁incroyable	-10.7438
dol	-10.7438
▁Anglais	-10.7439
▁horreur	-10.744
▁consacré	-10.744
▁Gla	-10.7442
▁tre	-10.7446
▁mots,	-10.7446
▁donnée	-10.7447
▁terrasse	-10.7447
▁parfaite	-10.7448
▁l'origine	-10.7449
sseur	-10.745
ctor	-10.7451
▁tueur	-10.7451
▁???????	-10.7451
▁fruits	-10.7452
▁City	-10.7454
▁frissonna	-10.7455
écu	-10.7455
able,	-10.7455
▁d'homonymie	-10.7457
▁relevé	-10.7457
roy	-10.7458
▁Cré	-10.7459
▁Yo	-10.7463
▁acquis	-10.7465
▁pensez	-10.7466
▁eux-mêmes	-10.7466
▁voulaient	-10.7466
▁descendu	-10.7468
▁Bonne	-10.7469
▁précaution	-10.7471
▁Rouge	-10.7471
▁montrant	-10.7472
▁Parfois	-10.7479
êche	-10.748
▁militaires	-10.7484
▁Bibliographie	-10.7484
▁l’après-midi	-10.7484
▁(1999)	-10.7484
▁brouillard	-10.7484
ouvrir	-10.7485
▁découvrit	-10.7488
pan	-10.7489
▁fiche	-10.7493
▁major	-10.7495
▁Phil	-10.7496
▁clou	-10.7497
▁grand-père	-10.7497
▁personne,	-10.7498
▁raide	-10.7501
▁N’	-10.7502
▁triomphe	-10.7502
formation	-10.7502
▁côté.	-10.7502
▁nuque	-10.7502
▁mor	-10.7503
▁désire	-10.7507
▁Qu	-10.7509
▁s’enquit	-10.7515
▁habitué	-10.7515
▁l’existence	-10.7517
▁policier	-10.7519
▁époux	-10.7519
▁proposa	-10.752
ila	-10.7521
▁onze	-10.7522
▁demandant	-10.7525
és.	-10.7528
▁l’écart	-10.753
▁aujourd’hui,	-10.753
ero	-10.7532
▁Ag	-10.7536
▁jour-là	-10.7537
▁1.	-10.7539
illy	-10.754
rie,	-10.754
▁38	-10.7546
▁influence	-10.7546
▁cimetière	-10.7546
▁1948	-10.7548
▁prière	-10.7548
▁rude	-10.7549
rra	-10.7551
▁Ama	-10.7552
▁Donc,	-10.7552
▁Chacun	-10.756
▁répand	-10.7568
▁empli	-10.7569
▁activités	-10.7569
▁former	-10.7572
▁Ceux	-10.7576
▁mécanique	-10.7577
▁gêne	-10.7577
▁années,	-10.7581
▁toucha	-10.7582
▁peur,	-10.7584
▁Bour	-10.7586
ibilité	-10.7587
▁familles	-10.7588
plan	-10.7589
AT	-10.759
▁l’année	-10.7592
▁fournir	-10.7593
▁paisible	-10.7595
▁ge	-10.7601
▁Là	-10.7601
▁entendu,	-10.7603
▁symbole	-10.7609
▁barrière	-10.761
▁Zi	-10.7612
▁réfléchit	-10.7615
▁quête	-10.7615
▁conflit	-10.7618
man,	-10.7619
ense	-10.7621
ard,	-10.7623
étude	-10.7626
▁films	-10.7627
▁sciences	-10.763
▁disposition	-10.7631
▁portaient	-10.7634
▁arraché	-10.7641
▁Santa	-10.7645
▁mettant	-10.7647
ili	-10.7648
▁l'une	-10.7649
phon	-10.7649
▁mot,	-10.765
▁cla	-10.7651
▁uniforme	-10.7652
▁Classe	-10.7657
▁J.-C.	-10.7658
▁pieds,	-10.766
apport	-10.7661
▁Lord	-10.7666
▁répondit-elle	-10.7668
hn	-10.7669
▁prochain	-10.767
igna	-10.7672
▁us	-10.7675
▁machines	-10.7681
▁liens	-10.7683
▁expliqué	-10.7685
▁religieux	-10.7685
▁dispose	-10.7685
ngu	-10.7686
▁feux	-10.7688
▁marine	-10.7689
▁défaite	-10.7691
▁Frédéric	-10.7694
iano	-10.7695
▁intéressant	-10.7699
▁fondée	-10.77
▁Maur	-10.77
▁suit	-10.7702
alis	-10.7703
▁Cinq	-10.7703
▁avocat	-10.7708
▁explique	-10.7708
▁Faites	-10.7708
▁joueurs	-10.7712
▁d’autant	-10.7717
▁reproche	-10.7721
▁principaux	-10.7721
▁avis,	-10.7723
illot	-10.7724
▁mieux.	-10.7725
▁l’appartement	-10.7726
▁falaise	-10.7726
▁échappé	-10.7726
▁fantôme	-10.7726
▁régulièrement	-10.7727
ssier	-10.7728
▁Arm	-10.7729
▁Stan	-10.7732
▁valet	-10.7733
▁après-midi	-10.7735
kan	-10.7737
US	-10.7738
▁madame,	-10.7739
▁drap	-10.7744
batt	-10.7746
▁J’a	-10.7748
▁D’abord	-10.7748
▁Tim	-10.7749
poser	-10.7751
▁vivante	-10.7753
▁ramener	-10.7755
▁municipalité	-10.7756
▁Mat	-10.7756
▁gronda	-10.7758
▁gauche.	-10.7763
vez	-10.7764
lière	-10.7764
chard	-10.7765
▁l’herbe	-10.7771
▁inférieur	-10.7773
▁révéla	-10.7773
▁prêts	-10.7776
ulaire	-10.778
cycl	-10.7789
-ce	-10.7789
▁l’ouest	-10.7789
▁l’arrivée	-10.7794
▁apparition	-10.78
▁ferais	-10.78
▁prononcer	-10.7801
▁retiré	-10.7803
▁rentra	-10.7807
▁frère,	-10.7809
▁Lor	-10.781
+	-10.7816
mais	-10.782
kar	-10.7822
onné	-10.7823
▁Blanc	-10.7824
▁crains	-10.7824
▁arabe	-10.7825
ique.	-10.7826
▁jetant	-10.7826
▁battu	-10.7831
oud	-10.7838
kov	-10.7839
▁plastique	-10.784
▁pénible	-10.7843
▁annoncé	-10.7844
RI	-10.7845
▁larges	-10.7845
▁remonta	-10.7846
▁écho	-10.7846
▁traversé	-10.7847
▁pratiquement	-10.7848
▁abattu	-10.7849
ax	-10.7849
▁tendance	-10.7851
▁paroi	-10.7854
▁(voir	-10.7858
▁Kh	-10.7863
▁Bois	-10.7866
stru	-10.7868
▁agir	-10.787
▁tour,	-10.7871
▁cape	-10.7872
▁morale	-10.7872
▁volé	-10.7874
illée	-10.7875
▁royal	-10.7876
▁Lan	-10.7877
▁invité	-10.7877
▁hum	-10.7878
▁perspective	-10.7881
ello	-10.7885
▁World	-10.7886
▁Alice	-10.7887
▁Carlo	-10.7889
▁central	-10.7896
▁bleus	-10.7897
▁Ana	-10.7901
▁Bat	-10.7902
▁cristal	-10.7905
▁refusa	-10.7905
▁garanti	-10.7907
▁revanche,	-10.7909
sha	-10.7912
▁semblant	-10.7913
▁seul,	-10.7913
▁faisais	-10.7914
voie	-10.7916
omme	-10.7916
▁grommela	-10.7918
▁bouclier	-10.792
▁comptoir	-10.7923
atrice	-10.7923
▁méta	-10.7925
▁suspect	-10.7926
gnon	-10.7927
▁cavaliers	-10.7928
▁respirer	-10.7931
▁remplir	-10.7934
▁Royal	-10.7935
▁Pal	-10.7936
▁assuré	-10.7938
▁modeste	-10.794
▁annonce	-10.7941
▁décrit	-10.7942
hard	-10.7946
▁régime	-10.7947
▁Qua	-10.7947
▁intérieur	-10.7948
morph	-10.7948
▁blonde	-10.7949
ón	-10.795
▁nécessité	-10.795
▁tour.	-10.7951
veille	-10.7954
▁té	-10.7955
▁construire	-10.7955
▁manœuvre	-10.7955
▁rapports	-10.7957
▁Lyon	-10.7958
▁dormait	-10.796
▁bourgeois	-10.796
vid	-10.796
pes	-10.7961
▁récompense	-10.7964
oth	-10.7967
▁longuement	-10.797
▁Ros	-10.7972
▁franc	-10.7972
▁exposé	-10.7975
▁1961	-10.7975
aison	-10.7976
mètre	-10.7977
▁sévère	-10.7979
▁voire	-10.798
▁d’entrer	-10.7981
▁arrière,	-10.7981
▁approche	-10.7982
▁appareil	-10.7982
▁l’écran	-10.7983
▁troublé	-10.7984
▁copie	-10.7984
▁riches	-10.7987
iles	-10.7988
▁l’image	-10.799
▁Wal	-10.7991
ali	-10.7992
▁portail	-10.7992
▁d’habitude	-10.7997
▁candidat	-10.7998
▁qu'en	-10.8
lev	-10.8001
▁qu'à	-10.8002
▁reposer	-10.8007
▁disparu.	-10.8009
▁collines	-10.801
▁pic	-10.8012
hér	-10.8016
▁s’appelle	-10.802
▁Emerson	-10.8025
▁assurer	-10.8027
-là.	-10.8028
2006	-10.803
▁prof	-10.803
dire	-10.8031
▁fortement	-10.8032
▁avance	-10.8035
▁Reine	-10.8037
▁effets	-10.8041
▁local	-10.8042
▁poitrine.	-10.8042
-Ma	-10.8042
▁consent	-10.8047
▁livrer	-10.8048
▁bouche.	-10.8049
ume	-10.805
▁lecteur	-10.8053
▁effrayé	-10.8053
▁entreprises	-10.8053
▁chefs	-10.8053
▁sortes	-10.8054
▁confié	-10.8056
▁égal	-10.8056
▁qu’aucun	-10.8058
▁TV)	-10.8058
▁servante	-10.8059
▁Gh	-10.806
▁hommes.	-10.8066
▁prie,	-10.8067
jour	-10.8067
▁César	-10.8067
▁tantôt	-10.8068
▁?uvre	-10.8071
heim	-10.8073
▁objectif	-10.8076
▁Eddie	-10.8077
▁Op	-10.8079
ologue	-10.8081
tom	-10.8081
▁n’aura	-10.809
▁bain	-10.8093
▁Jones	-10.8094
ante,	-10.8095
▁Palmarès	-10.8095
▁répondis-je	-10.8096
table	-10.8098
▁grain	-10.8101
leur	-10.8102
?)	-10.8105
▁poly	-10.8107
▁http://www.	-10.811
assembl	-10.8113
▁Marguerite	-10.8114
▁ministère	-10.8114
▁raisonnable	-10.8114
▁rocher	-10.8114
erre	-10.8115
▁étroit	-10.8117
▁enlevé	-10.8117
américain	-10.8118
mbo	-10.812
nni	-10.8121
▁Jake	-10.8123
▁l’É	-10.8123
▁chargée	-10.8123
▁Ceci	-10.8125
▁heurt	-10.8128
▁latin	-10.8129
▁emploi	-10.813
▁ouvre	-10.8132
▁chau	-10.8136
▁apporter	-10.8138
▁puits	-10.8141
▁l'ensemble	-10.8142
▁montant	-10.8147
▁intérieure	-10.8147
▁44	-10.8148
▁sourcils.	-10.8148
▁plans	-10.8149
▁courbe	-10.8155
▁???	-10.8159
▁extérieur	-10.8159
▁étendu	-10.8159
amp	-10.816
ante.	-10.8161
▁filet	-10.8161
▁taxi	-10.8163
▁dissimuler	-10.8164
▁Dol	-10.8167
▁grec	-10.817
▁sainte	-10.8174
▁Spi	-10.8175
▁prétexte	-10.8176
▁acheter	-10.8176
bl	-10.8176
▁permettait	-10.8177
AL	-10.8179
▁vitre	-10.818
ouille	-10.8182
▁vaguement	-10.8182
▁considère	-10.8185
phé	-10.8185
▁Bretagne	-10.8189
▁mod	-10.8194
▁gestes	-10.8195
▁Société	-10.8199
▁Fiche	-10.82
nent	-10.8201
▁Av	-10.8202
▁présenté	-10.8203
▁marins	-10.8203
▁serons	-10.8204
▁Alfred	-10.8205
▁Den	-10.8205
▁réception	-10.821
mination	-10.8211
▁d'An	-10.8215
èche	-10.8216
▁l’im	-10.8216
omb	-10.8218
▁l’école	-10.822
▁camarades	-10.822
▁bois.	-10.8222
ube	-10.8222
▁italienne	-10.8223
▁Jacob	-10.8223
▁marié	-10.8224
▁soleil,	-10.8225
ala	-10.8227
▁Stra	-10.8227
ué	-10.8228
▁1950	-10.8231
gol	-10.8232
▁actrice	-10.8234
▁soleil.	-10.8239
▁élèves	-10.824
mun	-10.8241
▁conserver	-10.8244
▁extrême	-10.8245
osa	-10.8247
▁conservé	-10.8247
▁compagne	-10.8248
▁trembl	-10.8249
▁1967	-10.8249
▁tord	-10.825
▁disent	-10.8252
lég	-10.8257
▁visage,	-10.8259
▁famille.	-10.8259
aye	-10.826
▁consul	-10.8262
▁Rock	-10.8262
▁volume	-10.8263
jan	-10.8264
▁fenêtre,	-10.8264
▁cadavres	-10.8264
▁rochers	-10.8264
▁chauffeur	-10.8266
▁ouvrage	-10.8269
▁philosophie	-10.8271
▁Charlie	-10.8273
▁moments	-10.8274
▁d’heure	-10.8275
oïde	-10.8275
▁championnat	-10.8276
▁concept	-10.8279
▁processus	-10.828
▁vampire	-10.8282
▁mer.	-10.8282
▁proposé	-10.8287
▁mm	-10.8288
▁sortis	-10.8289
▁débit	-10.8295
▁Boy	-10.8295
▁vaisseaux	-10.8297
▁heure,	-10.8302
▁Hall	-10.8304
▁piano	-10.8305
▁contemporain	-10.8309
▁Porte	-10.8311
ition	-10.8311
▁meurt	-10.8313
flu	-10.8313
▁aventure	-10.8316
arrach	-10.8319
fla	-10.832
▁pavillon	-10.8324
▁imbécile	-10.8328
▁entraîné	-10.8328
▁activité	-10.833
▁rame	-10.8331
▁post	-10.8333
▁évidence	-10.8333
mber	-10.8333
idi	-10.8335
▁voisins	-10.8336
oût	-10.8342
age,	-10.8344
▁Moyen	-10.8344
ity	-10.8345
▁trous	-10.8346
▁découvre	-10.8348
▁chanter	-10.8351
▁essai	-10.8351
▁démarche	-10.8353
cat	-10.8353
français	-10.8354
tain	-10.8356
▁recommanda	-10.8357
▁sentis	-10.8359
▁combattre	-10.8359
▁passé.	-10.836
▁hache	-10.836
▁abri	-10.8361
landais	-10.8362
▁sy	-10.8367
▁drogue	-10.8367
▁(3	-10.8367
ern	-10.8367
tens	-10.837
=	-10.8372
▁torture	-10.8374
La	-10.8375
bord	-10.8377
lation	-10.838
▁Lucien	-10.838
gui	-10.8382
▁Trans	-10.8384
▁l’imp	-10.8385
thi	-10.8386
-4	-10.8388
▁suffi	-10.8392
gèrent	-10.8393
▁réconfort	-10.8401
▁enfance	-10.8401
▁goutte	-10.8401
▁pol	-10.8402
ista	-10.8403
▁Raymond	-10.8406
▁placer	-10.8407
▁aurais	-10.8407
épouse	-10.8408
lance	-10.841
▁nôtre	-10.8411
▁actes	-10.8411
▁robot	-10.8411
gna	-10.8414
▁l’entend	-10.8417
ouff	-10.8419
Intercommunalité	-10.842
▁maintenir	-10.8424
▁refus	-10.8426
agne	-10.8426
▁jugement	-10.8432
▁régions	-10.8432
▁soumis	-10.8432
▁péri	-10.8433
▁gou	-10.8433
▁fracas	-10.8434
▁roi.	-10.8437
laire	-10.8437
humain	-10.8438
▁37	-10.8438
-8	-10.844
▁Dites	-10.844
▁île	-10.8442
▁1969	-10.8447
▁cm	-10.8448
▁façade	-10.845
▁l'ordre	-10.845
▁vous-même	-10.8451
▁Venez	-10.8452
▁fédéral	-10.8454
▁bureau,	-10.8455
▁cherché	-10.8458
én	-10.846
▁alluma	-10.8465
▁présenta	-10.8467
▁attiré	-10.847
▁Lieux	-10.847
▁D’autres	-10.8473
wood	-10.8474
▁mord	-10.8474
▁profiter	-10.8475
▁promenade	-10.8475
▁conférence	-10.8475
▁non-	-10.8478
▁aient	-10.8478
▁Parmi	-10.8481
nfant	-10.8481
▁j’allais	-10.8481
observ	-10.8482
▁réponse.	-10.8483
▁chances	-10.8483
▁superbe	-10.8484
▁travail,	-10.8485
▁enfants.	-10.8485
▁aîné	-10.8486
▁reçut	-10.8487
prend	-10.8488
▁C'était	-10.8489
nin	-10.8493
▁Jésus	-10.8494
▁dirigeant	-10.8495
▁européen	-10.8497
▁d’ép	-10.8498
▁Bientôt	-10.8498
▁souterrain	-10.8503
▁minuit	-10.8504
▁occupe	-10.8504
▁poursuivi	-10.8504
▁poussant	-10.8507
▁gorgée	-10.8508
▁voudra	-10.8514
▁surveiller	-10.8514
▁assura	-10.8517
▁deviendra	-10.8519
▁participe	-10.8519
▁semblables	-10.852
▁serment	-10.852
▁sauve	-10.8521
▁plomb	-10.8523
▁jusque-là	-10.8523
▁femmes,	-10.8527
▁Personnalités	-10.8528
▁catégorie	-10.8528
▁angle	-10.853
chapp	-10.8534
Le	-10.8534
▁fusion	-10.8537
▁val	-10.8538
▁molle	-10.8541
▁négoci	-10.8542
▁Blo	-10.8542
▁jusqu'en	-10.8543
▁70	-10.8545
▁représentation	-10.8548
▁Cam	-10.8551
▁celui-là	-10.8552
▁Gou	-10.8554
▁my	-10.8555
▁entreprise	-10.8559
▁Sources	-10.8559
▁prévenu	-10.856
▁pipe	-10.8563
▁répéter	-10.8563
▁verrou	-10.8564
▁titres	-10.8564
nerie	-10.8566
▁42	-10.8569
ulation	-10.8571
▁mystérieux	-10.8572
▁ordonné	-10.8572
▁absence	-10.8572
▁régler	-10.8574
▁sérieusement	-10.8575
dio	-10.8575
▁conséquence	-10.8575
▁forteresse	-10.8578
▁paille	-10.8582
ú	-10.8582
▁colonie	-10.8582
dro	-10.8583
▁d'Europe	-10.8584
▁1964	-10.8584
▁Nos	-10.8585
▁métro	-10.8588
entre	-10.8589
▁colère.	-10.859
▁assure	-10.8592
▁entouré	-10.8593
attaque	-10.8596
▁l’assassin	-10.8597
▁veuve	-10.8598
▁rock	-10.8604
▁eau	-10.8607
▁juré	-10.8607
ia,	-10.8608
▁déclaration	-10.861
ambi	-10.8611
▁fermer	-10.8612
▁animé	-10.8613
▁1953	-10.8613
▁endormi	-10.8615
▁signé	-10.8615
▁Ancien	-10.8615
vet	-10.8621
▁jugé	-10.8622
▁récemment	-10.8622
viv	-10.8622
▁travaillé	-10.8623
oo	-10.8624
▁bombe	-10.8624
▁tendresse	-10.8625
▁l’es	-10.8626
▁mer,	-10.8626
▁familier	-10.8627
▁massacre	-10.8627
▁photographie	-10.8627
▁conclu	-10.8627
bla	-10.8629
▁chaussures	-10.863
▁l’avant	-10.8632
▁capacité	-10.8637
▁diriger	-10.8637
▁plume	-10.864
▁réussir	-10.864
▁dirai	-10.864
▁ramassa	-10.8642
clu	-10.8642
▁craindre	-10.8642
▁visiblement	-10.8642
ssie	-10.8642
nov	-10.8645
vion	-10.8646
fou	-10.8646
▁intense	-10.8647
▁gardait	-10.8647
▁pince	-10.8648
accus	-10.8648
low	-10.8649
▁curé	-10.865
▁passé,	-10.865
aux.	-10.8654
▁écran	-10.8656
▁arrivés	-10.8659
▁durée	-10.8661
▁Insee	-10.8662
viens	-10.8662
teau	-10.8664
▁espagnol	-10.8665
▁Royaume-Uni	-10.8666
▁rauque	-10.8666
▁Park	-10.8668
▁japonais	-10.8671
▁l’expression	-10.8672
▁Gérard	-10.8676
▁Nick	-10.8678
▁suggéra	-10.8681
▁cuivre	-10.8682
▁d’armes	-10.8683
▁conclusion	-10.8683
▁étendue	-10.8685
▁retomba	-10.8686
-5	-10.8686
▁vengeance	-10.8687
▁Jon	-10.8687
gur	-10.8688
▁Celle	-10.8691
▁marin	-10.8691
ann	-10.8692
bet	-10.8693
▁difficultés	-10.8694
rod	-10.8695
▁violente	-10.8696
▁refuser	-10.87
lip	-10.8701
▁patience	-10.8701
rig	-10.8709
chin	-10.871
▁Références	-10.871
▁Shi	-10.8711
▁Fab	-10.8715
▁révolution	-10.872
▁serre	-10.8721
▁mobile	-10.8722
dale	-10.8723
rais-je	-10.8725
▁sire	-10.8726
▁sursaut	-10.8728
▁mi-	-10.8728
▁intelligent	-10.8729
▁extra	-10.8731
▁Haut	-10.8732
▁séparé	-10.8735
▁aidé	-10.8736
▁av.	-10.8739
▁collé	-10.8739
ieuse	-10.874
gy	-10.8745
▁mec	-10.8745
▁rentre	-10.8749
▁dessus.	-10.875
▁désigne	-10.8751
▁Thi	-10.8751
▁Rob	-10.8753
▁phase	-10.8754
▁God	-10.8755
ks	-10.8756
ato	-10.8756
▁chevelure	-10.8757
▁l’objet	-10.8762
mil	-10.8763
▁Tru	-10.8769
-H	-10.8769
NE	-10.877
▁question,	-10.8771
▁duquel	-10.8772
cieux	-10.8772
yne	-10.8773
▁normale	-10.8776
▁richesse	-10.8776
vance	-10.8777
▁agent	-10.8779
▁lentement,	-10.8781
▁Pays-Bas	-10.8782
▁47	-10.8784
▁Hum	-10.8786
▁Ray	-10.8787
▁volontiers	-10.8787
▁côtes	-10.8788
▁s'in	-10.8789
inter	-10.8791
▁imaginer	-10.8791
▁solitaire	-10.8794
▁Regarde	-10.8798
▁corne	-10.8798
▁voyageurs	-10.8801
TE	-10.8802
▁thème	-10.8802
eg	-10.8802
▁consiste	-10.8803
ajout	-10.8803
empo	-10.8806
dent	-10.8806
-9	-10.8806
▁nettement	-10.8808
▁Cri	-10.881
▁tendue	-10.8811
▁attira	-10.8812
ôme	-10.8813
nge	-10.8817
▁contenait	-10.8818
▁confortable	-10.8819
▁joint	-10.882
▁fillette	-10.8821
cout	-10.8823
▁béni	-10.8826
▁aurez	-10.8828
ssy	-10.8828
▁kg	-10.883
▁parlez	-10.883
▁duchesse	-10.8832
occupation	-10.8836
▁stade	-10.8837
▁précision	-10.8838
▁français,	-10.8841
▁3e	-10.8843
ary	-10.8845
courage	-10.8846
▁fit-elle	-10.8847
▁élevée	-10.8847
riel	-10.8847
▁solitude	-10.8849
▁déf	-10.8849
chée	-10.8851
▁Sauf	-10.8851
▁l’aime	-10.8852
▁arracha	-10.8853
▁Los	-10.8854
▁confus	-10.8856
logie	-10.8856
▁Brown	-10.8858
▁parvenait	-10.8858
▁effectivement	-10.8859
▁déposa	-10.8862
▁glacial	-10.8863
▁subtil	-10.8864
oma	-10.8864
▁soins	-10.8873
mel	-10.8876
▁champion	-10.8877
▁créée	-10.8877
▁Beaucoup	-10.8878
-E	-10.8881
▁obscur	-10.8886
▁continent	-10.8887
In	-10.8888
qu’on	-10.8889
▁Faut	-10.8891
▁égard	-10.8892
▁Anti	-10.8895
▁Cad	-10.8896
▁éloigné	-10.8897
Q	-10.8898
▁habile	-10.8899
▁guéri	-10.89
hier	-10.8901
▁soutenu	-10.8903
▁simples	-10.8906
▁rival	-10.8909
ssou	-10.8911
▁Sto	-10.8912
▁glacé	-10.8915
▁Cara	-10.8917
▁approcha	-10.8917
▁Ivan	-10.8918
▁D'	-10.8919
▁Gen	-10.892
▁espion	-10.892
▁s’occuper	-10.8921
▁domestiques	-10.8921
▁l’O	-10.8923
▁brune	-10.8923
▁doré	-10.8924
▁million	-10.8925
▁Type	-10.8926
▁fixé	-10.8928
vil	-10.8928
▁(série	-10.8929
▁veux-tu	-10.8933
▁Angel	-10.8934
▁fameux	-10.8934
▁là-dedans	-10.8934
▁tourbillon	-10.8935
main	-10.8935
▁seul.	-10.8937
▁fan	-10.8938
▁ordinateur	-10.8939
▁là-haut	-10.8944
▁haut,	-10.8945
ost	-10.8948
▁Mol	-10.8948
anne	-10.8948
tère	-10.8949
▁vôtre	-10.8949
▁différente	-10.8952
▁Six	-10.8953
▁intitulé	-10.8954
▁présent.	-10.8956
▁surveillance	-10.896
neau	-10.896
tho	-10.896
▁1965	-10.8961
▁capables	-10.8962
▁saurait	-10.8963
UR	-10.8963
-Ro	-10.8967
▁ressenti	-10.8968
tam	-10.8968
pée	-10.8969
▁43	-10.897
▁blessures	-10.8973
courez	-10.8974
▁spécial	-10.8974
în	-10.8974
▁étonnant	-10.8975
▁Ann	-10.8978
fonce	-10.898
▁Villa	-10.8981
▁arrivant	-10.8981
▁risques	-10.8983
dom	-10.8984
▁sèchement	-10.8984
euil	-10.8986
▁plaisanterie	-10.8986
▁1966	-10.8987
▁document	-10.8989
▁statut	-10.899
▁J’aimerais	-10.8991
▁Edward	-10.8995
▁Commons	-10.8996
▁guerre.	-10.8997
▁as-tu	-10.8999
▁serviteur	-10.9001
▁souris	-10.9001
uto	-10.9002
▁langues	-10.9005
▁poings	-10.9005
▁auteur	-10.9009
▁(J	-10.9009
▁l’appareil	-10.901
▁s’ex	-10.9012
▁prêtres	-10.9012
ffre	-10.9013
tienne	-10.9013
▁Général	-10.9016
▁apparaît	-10.9017
2005	-10.902
▁coque	-10.902
▁formidable	-10.9021
▁Ran	-10.9024
▁Miles	-10.9026
ym	-10.9031
▁Jud	-10.9036
cart	-10.9037
▁bouge	-10.9038
▁l’inter	-10.9039
porte	-10.9039
▁Dam	-10.9041
▁chemin.	-10.9042
▁parois	-10.9042
▁idéal	-10.9043
▁conc	-10.9045
▁l’être	-10.9046
cht	-10.905
▁L'é	-10.9051
▁Gabriel	-10.9052
▁Champion	-10.9053
▁Meilleur	-10.9054
duction	-10.9055
▁résolution	-10.9056
▁suffisait	-10.9058
▁tache	-10.9059
▁considérer	-10.9059
▁bondit	-10.906
lio	-10.9064
▁Compagnie	-10.9068
▁Médaille	-10.9068
▁esclaves	-10.9071
▁Vie	-10.9072
▁causa	-10.9072
▁zones	-10.9076
omp	-10.9081
«	-10.9083
▁allemande	-10.9084
▁importe	-10.9084
▁individu	-10.9085
essay	-10.9085
▁matinée	-10.9088
▁réelle	-10.9089
▁Valentin	-10.9089
▁accueilli	-10.909
▁vente	-10.9091
vra	-10.9093
▁allant	-10.9094
prendre	-10.9102
▁Livre	-10.9103
▁l’arme	-10.9103
▁part.	-10.9104
band	-10.9104
▁Écoute	-10.9105
▁Papa	-10.9106
▁Sho	-10.9109
▁douloureuse	-10.9109
▁épaules,	-10.9114
▁rouler	-10.9115
▁passaient	-10.9117
▁Allons	-10.9118
▁lâcher	-10.9118
pital	-10.912
▁séance	-10.912
▁nécessaires	-10.9123
▁l'intérieur	-10.9125
▁habillé	-10.9128
AC	-10.9129
▁suprême	-10.913
▁réalisa	-10.9133
▁lumières	-10.9133
nomie	-10.9135
▁serviteurs	-10.9135
▁chêne	-10.9136
▁Championnat	-10.9136
▁romaine	-10.9138
▁député	-10.9139
▁fondé	-10.914
▁(mini	-10.9142
▁déteste	-10.9142
▁MA	-10.9142
viendra	-10.9143
▁appartient	-10.9146
▁extrémité	-10.9146
▁déroule	-10.9152
rière	-10.9152
▁origine	-10.9153
▁Sept	-10.9154
▁manqué	-10.9156
▁libérer	-10.9156
▁français.	-10.9159
▁appelait	-10.9159
▁écarta	-10.9164
▁d’ar	-10.9164
▁Walter	-10.9166
gation	-10.9167
▁nocturne	-10.9167
▁lisait	-10.917
bol	-10.9173
pol	-10.9177
▁courait	-10.9177
▁connaissais	-10.9178
▁essaie	-10.9179
▁2002,	-10.918
▁réaliser	-10.9181
lys	-10.9182
▁vue,	-10.9182
▁Allez,	-10.9187
▁équipé	-10.9188
▁canal	-10.9188
OR	-10.9189
▁J'	-10.919
▁bénéfici	-10.9193
a-t-il	-10.9193
sible	-10.9194
▁Johnny	-10.9196
dore	-10.9196
vir	-10.9197
▁organisation	-10.9198
▁comté	-10.9198
▁Serbie	-10.9199
zz	-10.92
▁original	-10.92
▁minuscule	-10.9204
▁l’hôpital	-10.9209
▁centaine	-10.9209
▁fur	-10.921
[2].	-10.9212
▁1940	-10.9212
▁Inde	-10.9214
▁Ministre	-10.9214
▁plongé	-10.9216
page	-10.9223
▁dormi	-10.9224
▁International	-10.9225
col	-10.9227
▁rentré	-10.9227
▁d'État	-10.923
eille	-10.9231
▁Gil	-10.9231
▁destruction	-10.9232
▁cordes	-10.9232
-17	-10.9234
▁Afrique	-10.9235
▁Aujourd’hui	-10.9235
▁attaqué	-10.9235
▁parcouru	-10.9236
▁achevé	-10.9236
ika	-10.9238
▁trembler	-10.9238
▁a-t-elle	-10.9242
▁chérie	-10.9244
CE	-10.9244
pou	-10.9245
▁Carrière	-10.9249
▁romain	-10.9249
▁calme,	-10.925
▁attention.	-10.9251
▁Bern	-10.9251
▁visages	-10.9255
truction	-10.9255
▁perdit	-10.9255
▁explication	-10.9257
▁guet	-10.9259
▁fenêtre.	-10.926
cord	-10.9262
▁bains	-10.9262
▁Ty	-10.9265
▁vue.	-10.927
▁élément	-10.927
pie	-10.9272
ond	-10.9274
▁L’autre	-10.9277
▁estima	-10.9281
▁Champ	-10.9281
▁qu	-10.9281
▁commentaire	-10.9284
▁tarder	-10.9284
▁l’eau.	-10.9285
▁vaincu	-10.9288
▁Green	-10.9288
▁mangé	-10.9289
▁(4	-10.9289
▁Alex	-10.929
▁Cast	-10.9291
▁poursuite	-10.9293
▁étouffé	-10.9293
cco	-10.9299
▁répondre.	-10.9299
▁Loup	-10.9299
▁46	-10.9301
▁Pug	-10.9303
▁gorge.	-10.9308
▁ajouter	-10.9308
▁muni	-10.9311
zy	-10.9312
rouille	-10.9312
▁contes	-10.9312
gée	-10.9313
▁District	-10.9315
▁remporte	-10.9315
▁douter	-10.9316
▁sacrifice	-10.9317
▁Long	-10.932
▁gagne	-10.932
▁l'église	-10.9321
▁It	-10.9325
▁planté	-10.9326
▁subir	-10.9327
log	-10.9328
▁Hein	-10.9329
▁mètre	-10.933
▁(maxi)	-10.9331
▁dommage	-10.9331
▁stupéfait	-10.9331
▁réalité,	-10.9331
▁n’eût	-10.9331
via	-10.9333
française,	-10.9336
élo	-10.9339
▁menait	-10.9341
▁désagréable	-10.9341
▁taire	-10.9341
▁1945	-10.9343
▁von	-10.9344
▁enfant.	-10.9349
▁issue	-10.935
▁fils.	-10.935
▁compliqué	-10.9352
▁résonna	-10.9353
▁genou	-10.9355
▁redoutable	-10.9357
▁ka	-10.9358
uelle	-10.9367
’s	-10.9369
(fr)	-10.9371
▁continu	-10.9372
▁causer	-10.9373
bile	-10.9375
▁ensemble.	-10.9375
▁arrière.	-10.9378
▁roses	-10.9378
▁donnaient	-10.9379
▁signes	-10.9379
▁minutes.	-10.938
▁Hill	-10.9381
▁anglaise	-10.9384
▁silencieuse	-10.9386
hom	-10.9386
▁attendaient	-10.9388
old	-10.9389
▁gar	-10.939
time	-10.9391
▁Ul	-10.9394
▁Press	-10.9394
Qu	-10.9397
▁notion	-10.9398
org	-10.9399
ME	-10.9401
▁l’appel	-10.9402
▁regrette	-10.9403
▁rangs	-10.9405
sou	-10.9408
▁ressources	-10.9413
▁demanda-t-elle	-10.9414
▁bec	-10.9415
▁gén	-10.9418
XX	-10.942
▁visitez	-10.9421
▁vote	-10.9422
▁1958	-10.9423
point	-10.9425
▁moine	-10.9425
▁vache	-10.9426
2004	-10.9429
▁49	-10.943
▁actions	-10.9431
ot,	-10.9437
▁rue,	-10.9438
ffect	-10.9441
▁mouchoir	-10.9443
▁association	-10.9443
▁civilisation	-10.9444
▁apparu	-10.9446
▁dépl	-10.9447
▁misère	-10.9448
▁mystérieuse	-10.9448
▁grimpa	-10.945
cien	-10.9452
▁s’enfonça	-10.9454
▁ben	-10.9456
▁Source	-10.9457
▁flamb	-10.9459
▁tromper	-10.946
▁bourse	-10.9461
▁Évidemment	-10.9465
▁oblige	-10.9465
lum	-10.9467
iche	-10.9467
▁briser	-10.947
▁b?	-10.947
▁lycée	-10.947
▁d'indications	-10.947
▁D’accord,	-10.9473
▁fixés	-10.9473
▁d'art	-10.9473
▁mois.	-10.9473
nan	-10.9475
▁Groupe	-10.9477
-les	-10.9477
▁instinct	-10.9479
▁l'Université	-10.9481
▁cé	-10.9482
▁Gall	-10.9482
stan	-10.9483
▁quelquefois	-10.9486
▁soutenir	-10.9487
▁1956	-10.9488
▁détaillée	-10.9489
▁lisse	-10.9491
▁canapé	-10.9492
▁signifiait	-10.9492
▁Love	-10.9494
▁tor	-10.9495
ève	-10.9497
▁travaillait	-10.9499
▁(fr)	-10.9499
rik	-10.9499
accueil	-10.9499
▁McC	-10.9501
ding	-10.9501
▁Wil	-10.9501
▁cesser	-10.9501
▁dessinée	-10.9502
▁instructions	-10.9506
vrier	-10.9508
gas	-10.9511
▁Ji	-10.9514
▁blessés	-10.9516
mission	-10.9517
lent	-10.9517
▁cavalier	-10.9518
aine	-10.9524
▁Consulté	-10.9525
▁décédé	-10.9526
coup	-10.9526
▁bonhomme	-10.9527
▁clarté	-10.953
▁ruisseau	-10.953
▁Rh	-10.953
▁mot.	-10.9532
▁Pop	-10.9533
▁ému	-10.9535
▁liaison	-10.9536
▁tiroir	-10.9536
▁Vos	-10.9537
oles	-10.9538
▁plainte	-10.9539
▁soupçon	-10.9541
ben	-10.9543
▁Révolution	-10.9547
▁fous	-10.9551
ilité	-10.9552
honor	-10.9552
rès	-10.9554
▁multimédia	-10.9557
▁pirate	-10.9557
")	-10.9559
▁Sau	-10.956
▁sauvages	-10.9561
naires	-10.9564
▁gémissement	-10.9568
▁Bah	-10.9568
▁prises	-10.9569
▁précieuse	-10.9573
▁commission	-10.9575
▁sir	-10.9578
▁traiter	-10.9579
eau,	-10.958
▁excellent	-10.9581
▁che	-10.9583
▁laboratoire	-10.9584
▁souriait	-10.959
▁ramena	-10.9591
ox	-10.9594
▁féroce	-10.9595
▁fruit	-10.9596
▁conséquent	-10.96
▁nerfs	-10.96
▁brillante	-10.9601
▁1936	-10.9602
spire	-10.9603
▁terrestre	-10.9603
▁remonte	-10.9604
zzi	-10.9606
aceae	-10.9607
▁remise	-10.9611
▁toilette	-10.9612
▁coût	-10.9612
▁voies	-10.9614
▁cessa	-10.9614
▁Jeux	-10.9615
▁Tel	-10.9615
▁Washington	-10.9617
▁avancer	-10.962
▁????????	-10.9622
▁doué	-10.9622
abilité	-10.9626
stein	-10.9628
ii	-10.9631
▁écrite	-10.9632
▁d’ailleurs,	-10.9637
▁mini	-10.9637
▁chinois	-10.9637
▁prennent	-10.9639
▁reçoit	-10.9639
▁fréquent	-10.964
atoire	-10.964
▁pouvant	-10.9642
▁Cé	-10.9643
▁Mos	-10.9644
▁copain	-10.9644
iennes	-10.9645
▁caressa	-10.9648
▁passagers	-10.9651
▁Eli	-10.9655
▁garçon,	-10.9657
▁environs	-10.9658
▁Force	-10.9659
▁eh	-10.966
▁tube	-10.9664
▁Portugal	-10.9666
▁s’empêcher	-10.9666
▁utilise	-10.9666
▁inspiré	-10.9666
▁laissée	-10.9668
▁puisqu’il	-10.9672
ait-elle	-10.9672
▁parole.	-10.9674
▁Yu	-10.9675
▁file	-10.9676
▁quiconque	-10.9677
▁dispute	-10.9677
▁absent	-10.9678
▁prépara	-10.968
▁favoris	-10.968
▁situe	-10.968
▁Bos	-10.9682
▁occupée	-10.9683
▁el	-10.9683
▁Juan	-10.9684
▁couler	-10.9687
▁retenti	-10.9689
▁fée	-10.969
onner	-10.9692
▁révélé	-10.9694
tto	-10.9697
▁Berlin	-10.9703
eth	-10.9707
▁39	-10.9708
▁tunique	-10.9709
▁d'avoir	-10.9709
▁luxe	-10.9713
▁l’emp	-10.9714
chat	-10.9714
▁école	-10.9715
▁balles	-10.9715
▁Sel	-10.9715
▁Finalement,	-10.9717
▁rideau	-10.9717
nic	-10.9719
-elles	-10.972
quée	-10.972
▁prénom	-10.973
▁d’al	-10.9732
▁grognement	-10.9732
▁billets	-10.9733
▁Ast	-10.9734
▁tirant	-10.9734
▁choses.	-10.9736
-ma	-10.9737
▁soudaine	-10.9741
▁Bol	-10.9741
▁rampe	-10.9743
▁résoudre	-10.9744
▁ajouté	-10.9744
now	-10.9749
▁plaisant	-10.9753
▁debout,	-10.9754
LE	-10.9758
▁Fan	-10.9759
-y	-10.976
▁électronique	-10.976
▁battait	-10.9761
RO	-10.9762
illet	-10.9763
▁Reg	-10.9765
OM	-10.9767
▁l'Italie	-10.9769
▁ignorait	-10.9771
▁soif	-10.9772
▁ruine	-10.9773
tendre	-10.9774
▁pleins	-10.9776
▁c’étaient	-10.9777
▁fourrure	-10.9777
▁footballeur	-10.9778
▁Palais	-10.9778
▁larmes.	-10.978
[5]	-10.9783
▁valise	-10.9784
▁menu	-10.9785
nz	-10.9793
▁Règne	-10.9794
▁technologie	-10.9794
▁scruta	-10.9794
gli	-10.9796
▁détective	-10.9799
▁déplaça	-10.9799
▁he	-10.9799
▁mouton	-10.9801
melle	-10.9802
▁mur.	-10.9802
rène	-10.9805
▁prirent	-10.9807
▁paie	-10.9807
▁interrogea	-10.9807
▁Para	-10.9813
▁Ayla	-10.9813
▁dizaines	-10.9815
▁expédition	-10.9816
▁reprit-il	-10.9817
▁régnait	-10.9818
▁apporta	-10.9818
▁représenté	-10.9822
ting	-10.9822
▁L’in	-10.9823
▁(et	-10.9827
▁Grèce	-10.9827
▁monnaie	-10.983
▁descendait	-10.9831
▁indifférent	-10.9833
▁rugby	-10.9833
▁maréchal	-10.9833
▁causé	-10.9833
los	-10.9834
dus	-10.9834
ago	-10.9834
mens	-10.9835
▁qu’E	-10.9837
▁déclin	-10.9838
-t-on	-10.9838
▁patrouille	-10.9839
rell	-10.9841
▁sonore	-10.9841
▁bavard	-10.9842
▁frappe	-10.9842
▁circulation	-10.9844
▁civile	-10.9847
bond	-10.9849
▁trajet	-10.985
▁Glo	-10.9851
▁chasseurs	-10.9852
▁reconnaissant	-10.9856
▁moral	-10.9857
▁attentivement	-10.9861
▁sabre	-10.9861
▁poissons	-10.9862
app	-10.9866
▁passèrent	-10.9866
EN	-10.9868
▁l'école	-10.9873
tention	-10.9875
▁Ouais,	-10.9878
▁risquait	-10.9882
▁ensemble,	-10.9883
▁Ét	-10.9887
▁littéraire	-10.9889
▁gravité	-10.9894
▁armure	-10.9895
▁suivie	-10.9897
▁confusion	-10.9898
▁prenez	-10.9905
ache	-10.9905
▁fend	-10.9905
▁là-dessus	-10.9906
▁Lucy	-10.9906
▁entretien	-10.9909
▁S’	-10.9911
▁néglige	-10.9911
▁serrure	-10.9911
▁guise	-10.9915
▁éditions	-10.9918
▁destination	-10.9919
niste	-10.9919
▁mèche	-10.992
▁amis.	-10.9921
▁Erik	-10.9923
▁monseigneur	-10.9923
▁cheville	-10.9924
esca	-10.9924
▁gestion	-10.9924
dine	-10.9924
▁Eric	-10.9925
▁conséquences	-10.9925
▁systèmes	-10.9926
vois	-10.9926
▁brutalement	-10.9927
▁joyeux	-10.9928
pais	-10.9932
▁Seconde	-10.9932
▁l'ouest	-10.9934
▁Roman	-10.9935
▁détacha	-10.994
long	-10.9941
▁Monsieur,	-10.9942
▁bas.	-10.9944
▁Jimmy	-10.9946
▁vingtaine	-10.9946
▁Musée	-10.9946
▁vou	-10.9947
▁doté	-10.9951
ela	-10.9955
▁am	-10.9955
▁dépourvu	-10.9957
▁s’étend	-10.9957
▁?(en)	-10.9958
▁Nar	-10.9965
▁Parker	-10.9968
ppu	-10.9969
illaient	-10.9974
▁régional	-10.9974
▁malheureuse	-10.9976
▁imaginé	-10.998
▁bateaux	-10.9981
▁claqua	-10.9982
▁Rosa	-10.9982
-m	-10.9983
urier	-10.9984
▁j’espère	-10.9985
▁batterie	-10.9985
▁sut	-10.9986
▁bol	-10.9987
bie	-10.9989
▁Allez	-10.9992
▁sanglot	-10.9992
▁Fro	-10.9993
▁contenant	-10.9993
▁merveille	-10.9993
ettes	-10.9996
▁comédie	-10.9999
▁génération	-10.9999
▁s’étonna	-11.0002
gramme	-11.0002
▁tranche	-11.0003
ska	-11.0005
▁linge	-11.0007
▁torse	-11.0009
ew	-11.0009
▁légal	-11.0009
???	-11.001
▁anciennes	-11.0011
▁cham	-11.0013
▁Marco	-11.0017
culaire	-11.0017
OS	-11.0017
▁ailleurs,	-11.0018
▁commanda	-11.0018
▁compléter	-11.0019
▁maximum	-11.0019
script	-11.0024
ssel	-11.0024
▁criminel	-11.0028
▁Pologne	-11.0031
▁Dy	-11.0031
▁joindre	-11.0031
▁meubles	-11.0031
▁demeurait	-11.0033
▁espérait	-11.0037
▁professionnelle	-11.0038
▁constitue	-11.0042
▁cl	-11.0043
▁l’adresse	-11.0047
▁affronter	-11.0051
▁tremblante	-11.0052
bré	-11.0053
ppo	-11.0055
▁remplacer	-11.0056
▁invités	-11.0059
▁porteur	-11.0059
▁d’entendre	-11.006
▁secondaire	-11.0061
▁changea	-11.0063
▁Tam	-11.0064
▁placée	-11.0065
▁Aussitôt	-11.0065
▁femelle	-11.0065
▁profession	-11.007
▁rejoignit	-11.0071
▁restant	-11.0071
homme	-11.0071
▁complice	-11.0071
▁Hélas	-11.0072
▁drapeau	-11.0072
éti	-11.0075
Ma	-11.0075
▁ardent	-11.0078
posé	-11.0078
▁rideaux	-11.0081
▁active	-11.0081
▁faculté	-11.0082
▁th	-11.0082
▁lanterne	-11.0083
▁cabane	-11.0083
culé	-11.0086
▁atteign	-11.0087
▁n’entend	-11.0088
▁ouvriers	-11.0088
▁fussent	-11.0089
▁mets	-11.0093
▁réplique	-11.0094
▁Blue	-11.0095
▁cadeau	-11.0095
▁Stu	-11.0096
▁dégagea	-11.0097
▁Kal	-11.0098
▁Mart	-11.0098
▁d’eux,	-11.0099
▁libéré	-11.0099
▁Chez	-11.01
▁mousse	-11.01
arque	-11.0106
▁aille	-11.0106
▁haï	-11.0107
▁taillé	-11.0113
▁1952	-11.0113
▁relativement	-11.0113
cière	-11.0114
▁j’aie	-11.0114
▁problème.	-11.0116
▁démons	-11.0117
FA	-11.0118
près	-11.012
▁(16	-11.0121
▁merveilleux	-11.0122
▁Théo	-11.0124
idité	-11.0124
▁soir-là	-11.0125
▁l’Ar	-11.0128
mina	-11.0128
card	-11.0129
▁hiver	-11.0129
dant	-11.013
▁Camp	-11.013
▁souriant.	-11.013
▁Ash	-11.0131
tenir	-11.0134
▁Conc	-11.0134
issaient	-11.0137
▁intéressé	-11.0138
▁réservé	-11.0139
▁suicide	-11.014
▁D'autres	-11.0142
▁Sand	-11.0145
▁Déjà	-11.0145
lt	-11.0146
▁inférieure	-11.0149
▁n’avoir	-11.0155
▁magistrat	-11.0157
▁l’eau,	-11.0159
▁Dj	-11.0162
▁éprouvait	-11.0163
▁nuits	-11.0163
▁Certes,	-11.0164
▁Brian	-11.0165
▁tendant	-11.0166
▁témoignage	-11.0167
▁maîtres	-11.0168
▁Vincent	-11.0169
▁allongé	-11.0169
amine	-11.017
▁mesures	-11.0173
▁preuves	-11.0173
▁blanc,	-11.0174
qu’	-11.0176
mmer	-11.0177
▁Amérique	-11.0179
▁approuva	-11.018
▁tonnerre	-11.018
▁restaient	-11.0181
▁limites	-11.0183
vain	-11.0183
▁aujourd’hui.	-11.0183
▁Mul	-11.0183
▁radi	-11.0184
▁ruines	-11.0189
▁tournoi	-11.0189
▁pomme	-11.0193
▁confier	-11.0194
Alexandr	-11.0195
pic	-11.0196
▁XXe	-11.0198
▁2007,	-11.0199
▁1963	-11.0199
▁monument	-11.02
▁Denis	-11.02
▁balança	-11.0203
▁répète	-11.0203
▁Marseille	-11.0204
▁Cru	-11.0205
usse	-11.0205
▁hypothèse	-11.0205
▁Chant	-11.0205
▁d’honneur	-11.0209
▁prudence	-11.0209
▁rappel	-11.0212
▁vienne	-11.0212
▁Kor	-11.0212
▁instant.	-11.0213
more	-11.0214
▁parallèle	-11.0215
▁plaie	-11.0215
▁Kra	-11.0216
▁était-il	-11.0217
▁inspiration	-11.022
▁canot	-11.0222
▁recon	-11.0225
▁regardaient	-11.0226
▁mouillé	-11.0228
phor	-11.0228
▁d’El	-11.023
▁poussée	-11.023
pper	-11.0232
zer	-11.0232
▁provoqué	-11.0232
▁(la	-11.0233
▁Bert	-11.0233
▁averti	-11.0234
▁constitué	-11.0236
▁aliment	-11.0238
▁volontaire	-11.0238
lées	-11.0239
uni	-11.0239
▁?P	-11.0241
pla	-11.0243
▁décri	-11.0243
rel	-11.0243
vac	-11.0245
▁muraille	-11.0252
▁construite	-11.0254
▁52	-11.0255
quait	-11.0255
hui	-11.0255
▁1954	-11.0258
▁casser	-11.0261
▁écrasé	-11.0262
▁brûler	-11.0262
▁sagesse	-11.0262
lion	-11.0264
▁m’attend	-11.0264
▁oiseau	-11.0267
▁genoux,	-11.0267
▁autorisé	-11.0268
▁armé	-11.0268
▁?T	-11.0268
▁mono	-11.027
▁bulle	-11.0271
▁charmante	-11.0274
▁régulier	-11.0276
alisme	-11.0276
rre	-11.0279
▁irré	-11.0279
▁évêque	-11.0282
▁franchement	-11.0282
ône	-11.0282
▁protégé	-11.0283
▁Membre	-11.0285
IL	-11.0285
▁48	-11.0288
▁arrivèrent	-11.0291
▁soulagé	-11.0291
▁Éditions	-11.0291
▁serviette	-11.0292
érant	-11.0294
▁chapitre	-11.0297
▁montée	-11.0297
ez-le	-11.0297
▁peint	-11.0299
▁lumineux	-11.0303
▁citoyen	-11.0305
▁Surtout	-11.031
▁[1]	-11.0312
▁coûte	-11.0317
▁rouge,	-11.0318
▁déposé	-11.0319
▁meurtrier	-11.0319
▁comble	-11.032
▁tribunal	-11.0321
▁Mass	-11.0323
pression	-11.0323
▁trouvée	-11.0324
▁réalisateur	-11.0324
▁Regardez	-11.0326
▁bouc	-11.0327
▁tré	-11.0328
▁Jar	-11.0329
▁l'âge	-11.0332
▁d'après	-11.0333
▁outre,	-11.0334
is-je	-11.0334
▁publie	-11.0334
▁s’aperçut	-11.0338
▁sincère	-11.0342
▁essentiellement	-11.0343
▁enveloppé	-11.0344
▁Milan	-11.0346
▁(La	-11.0346
pulsion	-11.0347
cade	-11.0348
▁indice	-11.0348
▁ennuis	-11.0349
▁malin	-11.0349
▁Historique	-11.035
▁bonté	-11.0351
▁nourrir	-11.0351
▁commercial	-11.0351
aro	-11.0354
▁délai	-11.0355
▁souffre	-11.0355
▁développé	-11.0356
▁41	-11.0356
▁gêné	-11.0356
▁Olivier	-11.0357
vez-vous	-11.0357
▁1959	-11.0357
▁portable	-11.0358
▁Rag	-11.0358
▁tremblait	-11.0358
▁Fédération	-11.0361
▁définitivement	-11.0364
▁sœurs	-11.0367
▁prolonge	-11.0368
▁composée	-11.0368
▁l’univers	-11.0369
▁vides	-11.0371
▁voudrait	-11.0371
▁introduit	-11.0373
▁putain	-11.0373
rov	-11.0374
▁couvrir	-11.0374
▁organisé	-11.0377
rice	-11.0378
▁Impossible	-11.0379
▁qu’avec	-11.038
▁plante	-11.0381
▁spécialiste	-11.0381
ovitch	-11.0382
▁fondation	-11.0383
▁culte	-11.0385
▁profil	-11.0387
▁poème	-11.0387
▁observé	-11.0392
▁D’une	-11.0394
ccroche	-11.0395
▁Louise	-11.0396
▁adressé	-11.0397
mos	-11.0401
▁Nul	-11.0402
▁l'or	-11.0402
▁c'est-à-dire	-11.0403
▁effectué	-11.0403
▁Rachel	-11.0403
▁t’aime	-11.0404
▁pensant	-11.0404
▁55	-11.0404
éli	-11.0404
▁ivre	-11.0405
▁renoncer	-11.0408
▁espérer	-11.0409
▁d’homme	-11.0409
jec	-11.0411
urg	-11.0413
▁forcément	-11.0413
▁barbare	-11.0415
▁panier	-11.0415
▁nobles	-11.0417
▁Mai	-11.0417
▁taches	-11.042
Écosse	-11.0422
▁constater	-11.0423
▁journée,	-11.0425
▁Mala	-11.0426
chou	-11.0428
▁nus	-11.0431
-Co	-11.0431
▁étoile	-11.0432
▁demie	-11.0434
▁Vis	-11.0437
▁n’ait	-11.0438
▁Ath	-11.0438
▁Localisation	-11.0438
▁effrayant	-11.0438
▁chasseur	-11.0441
hérit	-11.0441
▁s’élança	-11.0444
▁répondait	-11.045
▁Parlement	-11.045
▁d’arriver	-11.045
▁rap	-11.0451
▁taux	-11.0456
▁mourut	-11.0456
rait-il	-11.0458
▁j'	-11.0459
▁vingt-cinq	-11.0463
-La	-11.0463
cas	-11.0465
▁brûlant	-11.0467
éni	-11.047
▁conte	-11.0473
nation	-11.0477
▁suspendu	-11.0478
▁couru	-11.048
ivre	-11.048
▁caméra	-11.048
acle	-11.0484
▁final	-11.0485
▁monastère	-11.0486
▁XIV	-11.0488
vite	-11.0488
▁droite.	-11.0489
▁merveilleuse	-11.0492
▁écarté	-11.0492
AM	-11.0497
▁mariée	-11.0499
▁mourir.	-11.0499
▁vivants	-11.0499
▁calme.	-11.0501
▁contempler	-11.0505
lève	-11.0509
▁bougie	-11.0511
-c	-11.0513
▁canne	-11.0514
▁analyse	-11.0515
▁Acc	-11.0515
▁volet	-11.0515
▁magazine	-11.0516
▁croissant	-11.0516
▁Lady	-11.0518
▁sérieuse	-11.0519
emploi	-11.0521
▁conserva	-11.0522
▁Bruxelles	-11.0522
▁s’interrompit	-11.0522
▁vice	-11.0522
clos	-11.0522
▁phare	-11.0525
▁Susan	-11.0527
▁cracha	-11.0527
▁sourde	-11.053
▁motif	-11.053
▁classé	-11.0531
▁Blanche	-11.0531
yez	-11.0532
▁Cent	-11.0534
▁n’allait	-11.0534
▁craint	-11.0539
▁obtient	-11.054
▁boit	-11.054
▁barque	-11.0545
och	-11.0548
-Mar	-11.0548
cel	-11.0549
▁représentait	-11.0549
▁camarade	-11.055
▁vampires	-11.055
▁paysans	-11.0551
▁habitude	-11.0553
marre	-11.0555
▁chance,	-11.0557
▁apparaître	-11.0558
nons	-11.056
bilité	-11.056
▁carton	-11.0561
▁étend	-11.0561
▁sourcil	-11.0562
▁étudié	-11.0564
▁Castel	-11.0566
là	-11.0566
▁conseils	-11.0568
▁chansons	-11.0572
uz	-11.0574
▁Sun	-11.0577
▁instrument	-11.0577
▁décharge	-11.0579
▁foi,	-11.0581
▁susceptible	-11.0582
emment	-11.0584
zan	-11.0586
puis	-11.0588
▁poches	-11.0591
▁Ay	-11.0591
▁CD	-11.0591
▁événement	-11.0593
▁favorable	-11.0594
▁concours	-11.0594
▁panneau	-11.0598
▁s’éloigner	-11.06
▁textes	-11.06
▁voyons	-11.0602
▁marier	-11.0604
▁cassé	-11.0606
▁visiter	-11.0606
lois	-11.0606
rue	-11.0607
▁dissimulé	-11.0612
▁déclare	-11.0616
▁min	-11.0617
▁allusion	-11.0618
graph	-11.0619
ota	-11.0623
forme	-11.0623
▁pavé	-11.0624
analyse	-11.0624
▁commandé	-11.0625
▁artistique	-11.0625
▁profondeur	-11.0627
▁ôta	-11.0628
▁--	-11.0629
▁Mich	-11.0629
▁boulevard	-11.0631
▁description	-11.0631
▁a?	-11.0631
▁fac	-11.0632
▁céder	-11.0632
▁Cat	-11.0634
▁hurler	-11.0636
▁l’extrémité	-11.0637
▁identique	-11.0637
▁Rich	-11.0637
ielle	-11.0639
▁respira	-11.0641
▁glissé	-11.0643
▁l'Union	-11.0645
▁Rem	-11.0645
glo	-11.0646
▁bandes	-11.0647
▁désigné	-11.0647
▁auxquels	-11.0649
ator	-11.065
▁chanteur	-11.0652
▁compétition	-11.0655
▁l’entour	-11.0657
gage	-11.0659
group	-11.066
}	-11.0661
▁dix-huit	-11.0661
▁déterminé	-11.0661
▁moustache	-11.0661
rail	-11.0661
▁établissement	-11.0662
▁calmer	-11.0668
-Ba	-11.0669
▁velours	-11.0673
▁abouti	-11.0675
▁Jean-Claude	-11.0679
▁catastrophe	-11.0679
▁d’énergie	-11.0679
▁célébr	-11.068
▁Philip	-11.0681
▁éclatant	-11.0683
▁noblesse	-11.0683
▁dents.	-11.0684
▁interrompit	-11.0685
▁permission	-11.0688
▁fondateur	-11.0689
▁Pauvre	-11.0691
▁Australie	-11.0692
▁Celle-ci	-11.0692
ctrice	-11.0693
▁(par	-11.0693
▁degré	-11.0695
offre	-11.0696
▁Bell	-11.0697
▁Maigret	-11.0698
▁l’animal	-11.0698
▁révolte	-11.0698
▁griffes	-11.0698
lons	-11.0699
▁aurons	-11.07
▁contraint	-11.0703
▁redescend	-11.0704
▁mortelle	-11.0704
▁esprit.	-11.0705
▁l'état	-11.0706
▁d'ailleurs	-11.0706
▁cruel	-11.0709
▁garni	-11.071
dure	-11.0711
▁Romain	-11.0712
▁enfoncé	-11.0716
▁l'o	-11.0717
dh	-11.0722
tifs	-11.0722
▁Alb	-11.0722
▁charmant	-11.0723
▁Division	-11.0723
▁habite	-11.0725
▁avait-elle	-11.0725
▁drame	-11.0728
liv	-11.0729
ider	-11.0729
▁conduisit	-11.073
▁témoins	-11.0731
▁neveu	-11.0732
▁substance	-11.0734
▁Naissance	-11.0735
▁ceux-ci	-11.0738
▁chéri	-11.0739
▁impatient	-11.074
▁Vu	-11.0742
mort	-11.0742
▁fonctionne	-11.0743
▁Bau	-11.0744
rop	-11.0747
▁majeure	-11.0748
▁communiste	-11.0748
▁repartir	-11.0748
▁1957	-11.0748
-pa	-11.0749
▁Ferr	-11.0751
mund	-11.0752
▁élève	-11.0755
▁Pap	-11.0756
▁oh	-11.0757
▁flèches	-11.0757
▁déesse	-11.0758
logue	-11.0758
hon	-11.0758
▁déchiré	-11.0759
▁désignant	-11.0759
▁étudiants	-11.076
▁Fel	-11.0761
▁appuyé	-11.0761
▁l’empereur	-11.0761
▁juif	-11.0762
▁poule	-11.0762
ordre	-11.0762
▁prépare	-11.0762
▁Raoul	-11.0763
▁manqua	-11.0766
▁rac	-11.0766
▁Écoutez	-11.077
▁pompe	-11.077
▁domin	-11.0771
▁Napoléon	-11.0771
▁Peggy	-11.0771
ayant	-11.0775
▁dirigé	-11.0776
▁foncé	-11.0777
isés	-11.0777
▁appartements	-11.078
▁enseigne	-11.0781
▁charbon	-11.0781
▁soupe	-11.0781
▁bourg	-11.0782
▁j’aurai	-11.0783
▁bio	-11.0784
trou	-11.0789
▁(I	-11.0795
wer	-11.0801
▁quelques-uns	-11.0802
▁menacé	-11.0803
▁disponibles	-11.0805
droit	-11.0807
igan	-11.0807
▁s’éleva	-11.0808
▁voûte	-11.0808
▁lointaine	-11.081
▁venger	-11.0812
▁caresse	-11.0814
▁collier	-11.0814
▁douloureux	-11.0814
▁Bataille	-11.0815
▁opérations	-11.0816
pte	-11.0817
▁foutu	-11.0832
▁Fernand	-11.0833
▁affection	-11.0833
▁Williams	-11.0833
▁remet	-11.0833
▁pourriez	-11.0833
▁participer	-11.0838
▁Sire	-11.0838
▁villages	-11.084
▁crédit	-11.084
▁féminine	-11.084
▁opposé	-11.0841
Je	-11.0842
▁spéciale	-11.0843
osité	-11.0844
▁siens	-11.0845
▁trempé	-11.0845
▁pendu	-11.0846
igné	-11.0852
▁étrangère	-11.0857
▁d’entrée	-11.0858
▁débris	-11.0858
▁interrompu	-11.0859
▁1944	-11.086
▁quartiers	-11.086
▁indiqué	-11.0861
▁cachée	-11.0861
▁réveil	-11.0862
taine	-11.0863
imon	-11.0864
▁appartenait	-11.087
part	-11.0871
grat	-11.0873
embarqu	-11.0873
▁intelligence	-11.0874
▁habituelle	-11.0875
▁féminin	-11.0875
▁occuper	-11.0876
▁Jusqu’à	-11.0876
▁avril19	-11.0879
▁auparavant,	-11.0881
▁Julien	-11.0882
▁désordre	-11.0883
▁Lune	-11.0885
▁US	-11.0885
▁conduis	-11.0885
▁crée	-11.0886
▁Bir	-11.0887
cile	-11.0888
▁l’hiver	-11.0889
▁désirait	-11.089
▁dira	-11.0891
▁manifestation	-11.0893
▁Jules	-11.0893
aka	-11.0894
▁d’acier	-11.0898
▁mât	-11.0899
▁marcha	-11.09
annonce	-11.0902
▁libéral	-11.0902
▁Die	-11.0903
▁Bran	-11.0904
▁gravement	-11.0904
fri	-11.0906
▁collège	-11.0907
▁dignité	-11.0907
▁l’abbé	-11.0907
▁policiers	-11.0908
▁l’entendre	-11.0911
▁creusé	-11.0913
▁brève	-11.0914
▁cacha	-11.0915
▁Salut	-11.0919
▁brisa	-11.0919
▁auriez	-11.092
▁plonge	-11.092
▁religieuse	-11.0922
▁l’était	-11.0923
▁masculin	-11.0926
quette	-11.093
▁trot	-11.093
▁Shan	-11.093
▁relève	-11.093
??	-11.0931
ova	-11.0931
▁circuit	-11.0932
▁Saison	-11.0934
▁dérange	-11.0936
▁puissants	-11.0938
▁51	-11.0939
▁résidence	-11.0939
▁désespéré	-11.0941
▁assistant	-11.0942
Égypte	-11.0943
▁présentait	-11.0943
▁Billy	-11.0945
▁cuisine,	-11.0951
▁déca	-11.0951
▁paraissaient	-11.0951
▁imagination	-11.0954
Étoile	-11.0954
▁Din	-11.0955
▁l’aider	-11.0955
▁compliment	-11.0957
clin	-11.0959
▁Mau	-11.096
▁cata	-11.0961
▁D’accord	-11.0961
▁restera	-11.0963
▁survivre	-11.0964
▁armés	-11.0965
▁permettent	-11.0965
▁1946	-11.0966
▁obéi	-11.0967
▁Hel	-11.0967
▁éprouvé	-11.097
▁proportion	-11.097
▁Francis	-11.097
▁quasi	-11.0971
▁demandai	-11.0971
▁dressa	-11.0971
▁vainqueur	-11.0976
ugh	-11.0977
▁j’aimerais	-11.0977
activité	-11.098
▁estime	-11.0981
tum	-11.0981
▁risquer	-11.0982
▁Kir	-11.0982
▁traître	-11.0983
▁déplacer	-11.0983
▁enveloppe	-11.0983
chan	-11.0984
▁monstres	-11.0986
▁croisa	-11.0986
▁bus	-11.0986
flé	-11.0989
▁Diane	-11.099
▁Duc	-11.0991
▁répété	-11.0991
gil	-11.0991
▁Christophe	-11.0992
▁envoie	-11.0996
▁avion	-11.0997
▁poil	-11.0998
▁Temple	-11.1
▁amitié	-11.1001
▁poison	-11.1001
▁poussait	-11.1002
tsu	-11.1003
▁tôt.	-11.1006
▁Scott	-11.1006
▁servit	-11.1006
▁terminée	-11.1006
▁discipline	-11.1007
2001	-11.1011
▁matchs	-11.1012
▁recouvert	-11.1012
▁Julie	-11.1012
▁Gros	-11.1013
rico	-11.1015
▁chiffres	-11.1017
▁Heureusement	-11.102
▁demoiselle	-11.102
[6]	-11.102
▁brillait	-11.1021
glio	-11.1023
▁pension	-11.1023
▁sentant	-11.1024
tten	-11.1027
▁provoquer	-11.1028
▁Néanmoins,	-11.1029
▁Voulez-vous	-11.1033
▁songer	-11.1035
▁fierté	-11.1038
▁s’écarta	-11.1039
▁Ry	-11.104
▁autorités	-11.1041
▁visiteurs	-11.1043
reux	-11.1043
▁fixer	-11.1043
▁ruban	-11.1047
▁perfection	-11.1048
-7	-11.105
▁s’assurer	-11.1052
▁maritime	-11.1053
▁l’ancien	-11.1053
llum	-11.1054
▁accepte	-11.1056
père	-11.1059
illage	-11.106
▁combattant	-11.1064
▁quatre-vingt	-11.1064
▁assiette	-11.1064
▁Ky	-11.1065
▁circonscription	-11.1071
▁joui	-11.1076
scar	-11.1076
▁journée.	-11.1083
▁prêter	-11.1085
voca	-11.1085
▁dorée	-11.1086
▁Sy	-11.1086
▁L’A	-11.1086
▁grandi	-11.1088
▁spécialisé	-11.1089
▁Olympiques	-11.109
▁contrôler	-11.1091
▁muet	-11.1091
▁Madeleine	-11.1096
▁stock	-11.1096
▁rivage	-11.1096
quier	-11.1098
▁ruelle	-11.1098
▁Sarah	-11.11
▁artistes	-11.11
▁utilisa	-11.1101
git	-11.1102
▁compta	-11.1107
rem	-11.111
IE	-11.1111
▁Karl	-11.1113
▁investi	-11.1114
▁initiale	-11.112
▁engage	-11.1125
▁Ak	-11.1125
▁rassemblé	-11.1128
▁jupe	-11.1131
▁lim	-11.1131
▁j’aime	-11.1134
▁devra	-11.1134
rill	-11.1136
▁auparavant	-11.1137
tout	-11.1139
este	-11.1141
▁300	-11.1145
▁transformer	-11.1147
▁souvenait	-11.1147
anche	-11.1147
▁puissent	-11.115
▁traverse	-11.1154
▁jura	-11.1154
bout	-11.1155
rey	-11.1155
ifier	-11.1155
culture	-11.1159
mini	-11.1162
▁Imp	-11.1164
quête	-11.1164
▁vivent	-11.1165
▁pleura	-11.1165
▁jusqu’ici	-11.1166
▁logiciel	-11.1166
▁importantes	-11.1166
▁occ	-11.1168
▁pourrions	-11.1169
jon	-11.1172
▁pénombre	-11.1172
▁repli	-11.1174
▁émotions	-11.1175
▁exclu	-11.1184
▁convenable	-11.1185
▁satellite	-11.1185
▁expert	-11.1188
▁Ouest	-11.1188
arch	-11.1189
bru	-11.1189
▁fermement	-11.1191
▁grand-mère	-11.1192
▁roues	-11.1195
▁Malheureusement	-11.1198
▁indépendant	-11.12
▁secoué	-11.12
▁indispensable	-11.1204
▁57	-11.1205
▁s’empara	-11.1205
▁ongles	-11.1206
xa	-11.1211
▁s’appelait	-11.1211
lib	-11.1211
▁sacrée	-11.122
▁péché	-11.1221
▁reconnais	-11.1222
▁(à	-11.1224
▁d’im	-11.1224
▁accordé	-11.1225
▁quelles	-11.1227
▁(il	-11.1228
▁tracé	-11.123
▁Mrs.	-11.1232
▁compose	-11.1235
▁singe	-11.1236
▁l’I	-11.1236
▁corridor	-11.1237
▁éveillé	-11.1237
▁verres	-11.1237
▁déroula	-11.1237
▁surprise.	-11.1238
llé	-11.1241
▁Roo	-11.1242
▁États	-11.1252
▁poitrine,	-11.1252
▁murmura-t-elle	-11.1257
blé	-11.1259
▁Indien	-11.126
tang	-11.1264
▁l’avons	-11.1267
▁Petr	-11.1273
EL	-11.1274
▁fourmi	-11.128
ith	-11.1281
▁déserte	-11.1282
▁traduit	-11.1282
▁examiner	-11.1282
▁réalisation	-11.1284
▁1955	-11.1284
cation	-11.1285
▁réside	-11.1285
2002	-11.1287
▁Ami	-11.1288
cio	-11.129
▁regardèrent	-11.1296
▁délicate	-11.1298
▁d'entre	-11.1299
▁existait	-11.1301
vic	-11.1306
▁là-bas.	-11.1307
▁répandu	-11.1307
▁philosophe	-11.1308
▁gémit	-11.1308
▁??????	-11.131
▁Musique	-11.1312
▁pâli	-11.1312
cti	-11.1313
▁décès	-11.1317
▁vomi	-11.1317
▁d'o	-11.1318
▁publication	-11.1323
▁opération	-11.1323
ogne	-11.1325
▁Post	-11.1326
▁glacée	-11.1328
▁Ari	-11.1335
▁gravi	-11.1338
▁géographique	-11.134
▁Samuel	-11.1341
▁1939	-11.1343
▁1914	-11.1343
▁inspira	-11.1346
▁obstacle	-11.1347
▁Soit	-11.1347
▁demi-tour	-11.1348
▁cycle	-11.1349
terie	-11.1349
▁apporte	-11.135
▁davantage.	-11.1351
▁contour	-11.1353
hir	-11.1355
▁José	-11.1355
nça	-11.1356
dieu	-11.1358
▁Danny	-11.1358
▁progrès	-11.136
▁précipité	-11.136
▁veines	-11.1361
▁apprit	-11.1361
▁Cle	-11.1361
▁Désolé	-11.1366
▁tiers	-11.1367
▁battement	-11.1367
▁Four	-11.1369
▁choisit	-11.137
▁ralenti	-11.1371
▁mil	-11.1371
fra	-11.1374
ards	-11.1374
▁volée	-11.1377
▁d’importance	-11.1379
▁bandit	-11.138
▁Elena	-11.1382
▁?0M	-11.1386
uro	-11.1387
animation	-11.1388
▁superficie	-11.1392
-W	-11.1398
▁Rod	-11.1399
▁l’allée	-11.14
▁Demain	-11.14
▁amusé	-11.1401
èvre	-11.1401
▁#	-11.1402
▁éclats	-11.1402
▁couvre	-11.1403
▁avenir	-11.1412
▁d’eux.	-11.1415
▁participa	-11.1415
▁(«	-11.1416
▁pourrai	-11.1417
▁Hugh	-11.1417
▁autorité	-11.1417
Prix	-11.1418
eries	-11.1418
▁Fil	-11.1418
▁fosse	-11.1419
▁secouant	-11.1419
▁géo	-11.1422
▁illusion	-11.1423
tton	-11.1425
▁m’appelle	-11.1425
▁craignait	-11.1426
▁Der	-11.1426
▁pesant	-11.1429
▁assisté	-11.1432
▁cathédrale	-11.1432
▁statistique	-11.1432
▁acheva	-11.1433
▁Jason	-11.1434
▁exécut	-11.1434
▁enterré	-11.1435
▁degrés	-11.1435
▁l'album	-11.1435
▁moulin	-11.1435
quèrent	-11.1437
▁procédé	-11.1439
▁Hay	-11.144
▁Wood	-11.144
▁plumes	-11.1442
ington	-11.1442
▁intérêts	-11.1444
king	-11.1445
▁Service	-11.1445
cie	-11.1446
▁lutter	-11.1447
▁l’In	-11.1447
▁querelle	-11.1447
▁manuscrit	-11.1452
▁passées	-11.1453
▁parking	-11.1457
grand	-11.146
▁l’attaque	-11.1462
▁importants	-11.1463
▁n'ont	-11.1464
▁intentions	-11.1466
▁(O	-11.1466
▁cuisine.	-11.1469
▁lèvre	-11.1469
▁Gon	-11.1471
▁Shar	-11.1471
▁hurlement	-11.1471
▁échec	-11.1471
▁(Je	-11.1472
bach	-11.1472
▁voleur	-11.1473
édition	-11.1474
▁historiques	-11.1476
▁l'im	-11.1479
▁Album	-11.148
▁Kit	-11.148
▁principes	-11.1485
▁chimique	-11.1485
▁impressionnant	-11.1486
llier	-11.149
▁Ball	-11.1491
ographique	-11.1496
▁conducteur	-11.1498
▁Pardon	-11.1498
▁composition	-11.1499
▁logement	-11.1499
▁coucha	-11.1499
▁l’atmosphère	-11.1504
▁incident	-11.1504
▁serrer	-11.1505
▁400	-11.1506
▁Pascal	-11.1506
▁correspondant	-11.1507
▁canons	-11.1507
▁totalité	-11.1508
▁Chris	-11.1511
grad	-11.1512
▁Plu	-11.1512
▁automobile	-11.1514
▁Kahlan	-11.1518
▁Vainqueur	-11.1518
▁conception	-11.1519
▁refusait	-11.1519
▁placard	-11.1524
▁licence	-11.1524
▁univers	-11.1525
dier	-11.1529
▁désigner	-11.153
▁vacances	-11.1531
▁supposa	-11.1531
▁retint	-11.1531
▁Serge	-11.1531
gir	-11.1532
SA	-11.1532
▁espérant	-11.1532
▁gouttes	-11.1537
▁dague	-11.1537
▁prenaient	-11.1538
excit	-11.1539
▁prier	-11.1542
▁Parfait	-11.1546
▁Attendez	-11.1546
▁accomplir	-11.1548
thon	-11.155
▁By	-11.1556
▁convoi	-11.1556
aque	-11.1557
▁Main	-11.1559
▁1947	-11.156
▁ph	-11.1564
▁attirer	-11.1565
▁couvent	-11.1565
▁ouvrages	-11.1567
▁déterminer	-11.1567
▁débo	-11.1569
side	-11.157
▁Ralph	-11.1571
▁époque,	-11.1574
aventure	-11.1577
▁garage	-11.1577
▁(Source	-11.1577
▁recev	-11.1578
▁jailli	-11.1578
▁56	-11.1581
▁Sport	-11.1583
▁Certaines	-11.1584
▁délicat	-11.1584
▁poésie	-11.1585
▁promet	-11.1585
▁luisant	-11.1591
chy	-11.1591
onyme	-11.1592
▁passionné	-11.1592
▁Py	-11.1595
▁adopté	-11.1597
▁tapota	-11.1598
throp	-11.1599
▁repousser	-11.16
▁rebelle	-11.1601
▁indique	-11.1602
arme	-11.1603
▁virent	-11.1605
▁retentit	-11.1607
▁convient	-11.1608
▁nomme	-11.1609
▁dressait	-11.161
▁spécifique	-11.1611
▁(15	-11.1611
▁villa	-11.1614
▁charger	-11.1615
ssions	-11.1618
▁d'expression	-11.1618
▁Pete	-11.1618
fia	-11.1619
quisition	-11.1619
rouill	-11.162
▁revers	-11.1622
▁colle	-11.1622
bran	-11.1623
▁habituel	-11.1624
▁impatience	-11.1624
lever	-11.1625
▁veiller	-11.1628
▁mourra	-11.1629
’embrass	-11.163
▁enregistré	-11.1631
▁affreux	-11.1631
-Mo	-11.1631
▁Angeles	-11.1634
▁poumons	-11.1638
▁l’attend	-11.1638
▁s’adressa	-11.1641
▁mage	-11.1643
▁leçon	-11.1644
▁câble	-11.1644
▁immeuble	-11.1644
▁accroché	-11.1646
▁Suède	-11.1646
-même	-11.1646
▁interne	-11.165
▁standard	-11.1651
▁fragile	-11.1651
▁restèrent	-11.1651
▁hauts	-11.1651
▁Mah	-11.1652
▁d’É	-11.1652
▁discrètement	-11.1653
▁balbutia	-11.1658
▁(5	-11.1659
▁donnent	-11.166
▁retomber	-11.1662
▁N’a	-11.1665
▁reculer	-11.1667
▁1930	-11.1669
▁Ford	-11.1671
▁Ple	-11.1675
niers	-11.1675
▁annoncer	-11.1677
▁absurde	-11.1678
vée	-11.1679
▁soupçonne	-11.168
▁nation	-11.1681
ET	-11.1682
▁remua	-11.1687
▁partagé	-11.1688
▁serrant	-11.1688
▁Assis	-11.1688
opéra	-11.1691
▁coulait	-11.1694
▁courrier	-11.1694
▁Kevin	-11.1695
raux	-11.1695
▁récente	-11.1697
▁prairie	-11.1698
▁scandale	-11.17
▁traîne	-11.17
▁pria	-11.17
lore	-11.1701
▁avancé	-11.1702
▁admis	-11.1703
▁commencèrent	-11.1705
▁survécu	-11.1705
▁enfoui	-11.171
▁fabriqué	-11.1711
▁restent	-11.1713
▁auteurs	-11.1715
exploitation	-11.1717
▁vida	-11.1718
bâ	-11.172
▁Ayant	-11.1722
▁Kan	-11.1722
▁confirma	-11.1723
▁trouvai	-11.1726
▁conserve	-11.173
▁conduisait	-11.1731
▁falloir	-11.1732
▁sentinelle	-11.1733
▁blond	-11.1735
▁j’eus	-11.1736
▁balaya	-11.1738
▁procurer	-11.1738
▁Soleil	-11.1739
▁d’avance	-11.1739
▁abandonner	-11.174
▁singulière	-11.1745
▁refuge	-11.1745
▁éventuel	-11.1745
▁mûr	-11.1746
icule	-11.1748
▁pourrez	-11.1748
▁consulter	-11.1749
▁manifestement	-11.1751
▁emmené	-11.1752
ême	-11.1755
▁officiellement	-11.1757
▁Dun	-11.1758
▁poupée	-11.1759
▁s’écria-t-il	-11.1761
▁automatique	-11.1762
▁Robin	-11.1762
registre	-11.1763
▁originaire	-11.1766
▁lin	-11.1772
▁abandonnée	-11.1772
▁cicatrice	-11.1772
ister	-11.1774
▁logis	-11.1774
▁mauvaises	-11.1774
▁Az	-11.1777
▁facteur	-11.1778
▁Maman	-11.1779
▁brûle	-11.1779
pplique	-11.1779
▁c?ur	-11.1784
▁lutta	-11.1785
ambassade	-11.1786
gné	-11.1786
▁pote	-11.179
▁combats	-11.1791
▁voiles	-11.1795
lock	-11.1796
▁forêts	-11.1796
▁XVIIIe	-11.1796
▁?G	-11.1797
▁humble	-11.1798
▁d’attendre	-11.18
▁Vau	-11.1802
▁institution	-11.1804
▁penché	-11.1806
▁argument	-11.1807
▁gueules	-11.1807
arm	-11.181
▁utilisant	-11.1811
▁semblent	-11.1814
▁excuse	-11.1818
tiv	-11.1818
▁Série	-11.1819
▁oublia	-11.1819
▁agricole	-11.182
▁cinquième	-11.182
▁terminer	-11.1825
▁Jam	-11.1826
▁Chef	-11.1827
roch	-11.1828
thor	-11.183
connu	-11.1833
▁bague	-11.1835
▁orange	-11.1837
reuil	-11.1838
officier	-11.1838
▁paroisse	-11.184
▁Mademoiselle	-11.1841
ault	-11.1841
▁éclairé	-11.1841
▁ricana	-11.1842
2003	-11.1842
▁genoux.	-11.1842
rine	-11.1843
▁gants	-11.1843
▁studio	-11.1848
▁Roy	-11.1848
▁Gaston	-11.1848
illeur	-11.1851
▁au-dessous	-11.1852
▁tapa	-11.1853
▁circulaire	-11.1854
▁partenaire	-11.1855
▁l'université	-11.1855
▁Lang	-11.1857
▁chargés	-11.1858
▁fouilla	-11.1858
▁Justin	-11.1863
▁Day	-11.187
▁Tiens,	-11.1871
▁rompre	-11.1872
▁supplie	-11.1875
▁assister	-11.1876
▁indiqua	-11.1877
▁principales	-11.1877
▁Font	-11.1878
▁élan	-11.1881
▁River	-11.1881
agé	-11.1883
▁coincé	-11.1885
▁incomplète.	-11.1886
▁formaient	-11.1886
▁vieilli	-11.1889
▁enfer	-11.189
nez	-11.189
▁Camille	-11.189
▁consulta	-11.1893
▁réagir	-11.1894
▁Sher	-11.1896
▁accusé	-11.1896
tard	-11.1896
▁frein	-11.1898
▁appartenant	-11.1902
▁Mexique	-11.1902
▁l’oubli	-11.191
liers	-11.191
▁Brand	-11.191
accompagne	-11.191
▁hésitation	-11.1911
▁lié	-11.1914
▁cale	-11.1915
▁reconnaît	-11.1916
’oubli	-11.1916
▁tirait	-11.1918
▁exécuté	-11.1919
▁équilibre	-11.192
▁ange	-11.192
▁flo	-11.1921
▁médaille	-11.1923
▁deviné	-11.1925
▁VII	-11.1926
’en	-11.1927
rgu	-11.1927
▁j’é	-11.1927
▁d'Or	-11.1927
ifs	-11.1929
▁Bourg	-11.1931
▁admira	-11.1935
▁Langue	-11.1937
▁Dick	-11.1939
▁dévi	-11.194
▁avoua	-11.1942
▁ouverts	-11.1942
▁étranges	-11.1944
▁cachette	-11.1944
▁mention	-11.1947
gni	-11.1951
▁employés	-11.1952
▁seins	-11.1954
▁Mun	-11.1954
▁sacs	-11.1955
▁fidèles	-11.1957
▁éprouva	-11.1958
mur	-11.1959
▁cachait	-11.1959
▁Francisco	-11.196
▁individus	-11.196
▁pourvu	-11.196
▁songeait	-11.1963
▁convention	-11.1963
▁buts	-11.1963
▁chevaliers	-11.1964
▁Frère	-11.1965
obligation	-11.1965
▁l’attendait	-11.1965
▁53	-11.1967
▁airs	-11.1967
▁chiffre	-11.1969
▁internes	-11.197
▁attaquer	-11.1972
▁Culture	-11.1972
▁repose	-11.1973
▁Sub	-11.1974
▁herbes	-11.1977
UT	-11.1977
▁Science	-11.1978
▁Pala	-11.1979
awa	-11.1982
▁égale	-11.1984
▁l’humanité	-11.1985
▁Sil	-11.1986
▁Anton	-11.1986
ars	-11.1988
key	-11.1989
gla	-11.199
▁brûlait	-11.199
rions	-11.199
▁traditionnelle	-11.1992
▁fâche	-11.1992
▁échelle	-11.1992
▁levée	-11.1993
▁marchands	-11.1993
▁devriez	-11.1995
ssons	-11.1998
▁Statut	-11.1999
▁forcer	-11.2002
tière	-11.2003
▁Dragon	-11.2003
▁l’océan	-11.2006
ssac	-11.2008
▁Jour	-11.2009
▁Parc	-11.2009
▁capital	-11.201
▁battue	-11.2011
▁noter	-11.2011
tract	-11.2012
▁ignore	-11.2013
▁crête	-11.2013
▁déçu	-11.2013
▁oublie	-11.2017
▁calmement	-11.2023
▁apercevoir	-11.2024
z-le	-11.2026
▁inspecteur	-11.2027
▁es-tu	-11.2029
▁étudier	-11.203
▁suffisant	-11.203
thy	-11.2031
▁parlaient	-11.2033
▁Déc	-11.2034
▁gaillard	-11.2035
▁cendres	-11.2037
▁Island	-11.2038
action	-11.2041
▁subit	-11.2042
▁admirable	-11.2043
▁contenir	-11.2044
▁âmes	-11.2046
▁trouvais	-11.2047
▁tremblant	-11.2051
▁écoutait	-11.2055
▁posséder	-11.2055
▁surprenant	-11.2056
▁ramené	-11.2058
▁(qui	-11.2058
▁qualifié	-11.2058
-et-	-11.2062
etto	-11.2062
hib	-11.2065
▁disait-il	-11.2066
individu	-11.2068
2)	-11.2069
▁multiples	-11.2069
▁fixement	-11.2069
2000	-11.2069
ride	-11.207
▁Laurent	-11.2072
▁M’	-11.2073
▁État	-11.2074
▁suivirent	-11.2074
▁figé	-11.2074
▁Vé	-11.2075
▁disaient	-11.2075
▁entraîna	-11.2076
▁75	-11.2083
▁mêlée	-11.2083
▁brillaient	-11.2084
▁éclairée	-11.2084
▁planta	-11.2086
▁extrait	-11.2087
▁musc	-11.2088
espèce	-11.2089
▁renversé	-11.209
▁n’existe	-11.2092
▁gravé	-11.2095
▁nullement	-11.2096
▁jaunes	-11.2097
▁web	-11.2098
▁Andrew	-11.2098
▁l’ap	-11.2099
prise	-11.21
▁ancêtres	-11.2101
▁l’œuvre	-11.2102
ttir	-11.2104
-Ca	-11.2105
▁pardonner	-11.2105
▁Reste	-11.2106
▁Fran	-11.211
▁soviétique	-11.2111
▁avala	-11.2111
▁54	-11.2113
▁subitement	-11.2114
▁nucléaire	-11.2118
▁sucre	-11.2122
▁extérieure	-11.2122
rium	-11.2123
▁commençaient	-11.2124
nale	-11.2126
▁Rio	-11.2128
ouvre	-11.2128
▁revenus	-11.2129
▁loisir	-11.2131
▁Puisque	-11.2131
▁Vit	-11.2132
prouve	-11.2133
▁outils	-11.2133
▁nota	-11.2134
▁manières	-11.2134
sign	-11.2135
▁(un	-11.2135
▁mourant	-11.2136
▁tan	-11.2139
▁enceinte	-11.2139
▁messager	-11.2143
▁écouta	-11.2146
▁ram	-11.2146
loge	-11.2147
▁grill	-11.2147
▁d’Or	-11.2152
▁d’apprendre	-11.2153
▁Marine	-11.2154
▁réunis	-11.2154
▁traite	-11.2159
▁nid	-11.216
▁séparer	-11.2164
▁succession	-11.2168
▁comm	-11.2168
▁tonnes	-11.2168
▁Fol	-11.2169
▁ouverture	-11.217
istique	-11.2171
▁lorsqu’ils	-11.2175
▁crépuscule	-11.2175
▁s’installa	-11.2175
▁réglé	-11.2176
2008	-11.2178
chère	-11.2179
bur	-11.2181
▁Place	-11.2183
▁paya	-11.2184
▁rituel	-11.2184
▁arracher	-11.2184
▁passent	-11.2186
zel	-11.2186
article	-11.2187
▁loups	-11.2188
▁ban	-11.2188
▁nœud	-11.2189
▁descente	-11.2192
▁(avec	-11.2193
▁etc.)	-11.2196
▁ouvrant	-11.2196
▁baissé	-11.22
gain	-11.22
▁souple	-11.2202
▁sanglots	-11.2202
▁d’an	-11.2205
lié	-11.2207
▁vêtue	-11.2208
▁curieuse	-11.221
▁samedi	-11.221
▁Sala	-11.2211
ulé	-11.2211
▁boucle	-11.2211
▁traîner	-11.2215
▁trucs	-11.2216
▁aérienne	-11.2216
▁seize	-11.2216
▁Ave	-11.2216
▁sur-le-champ	-11.2217
▁millénaire	-11.2217
▁ruissel	-11.2217
▁s’enfuir	-11.2217
▁conservation	-11.2219
▁tables	-11.2219
▁jardins	-11.222
▁douche	-11.2222
▁démocratique	-11.2224
▁sortirent	-11.2225
▁moi...	-11.2226
▁roue	-11.223
▁majeur	-11.223
alisé	-11.223
tenant	-11.2231
▁généraux	-11.2231
▁sphère	-11.2231
▁tremblement	-11.2231
▁traversée	-11.2231
▁Côte	-11.2232
▁éteint	-11.2233
lieu	-11.2238
▁bonnet	-11.224
▁Act	-11.2242
▁glisse	-11.2242
▁distingue	-11.2244
▁d'autre	-11.2244
▁composa	-11.2245
▁vigueur	-11.2246
▁producteur	-11.2246
▁l'U	-11.2247
▁promena	-11.2248
▁bijoux	-11.2255
etta	-11.2256
▁entendant	-11.2257
mut	-11.2261
▁cuisses	-11.2261
▁vilain	-11.2261
▁Time	-11.2262
▁coussin	-11.2263
▁désolée	-11.2263
▁réduire	-11.2267
▁matelot	-11.2267
▁mêla	-11.2267
▁amoureuse	-11.227
▁Caroline	-11.2271
▁Fils	-11.2274
▁Californie	-11.2274
▁divin	-11.2275
▁is	-11.2275
▁qu’avait	-11.2276
▁S’ils	-11.2278
▁her	-11.228
▁supposer	-11.2281
MP	-11.2281
▁net	-11.2284
▁recueil	-11.2285
▁penchant	-11.2287
▁Conf	-11.2288
▁qualités	-11.2288
▁brièvement	-11.2288
▁constamment	-11.2288
over	-11.2291
▁mettent	-11.2293
▁Pha	-11.2294
▁pivota	-11.2295
▁angoisse	-11.2296
▁informe	-11.2296
▁Andy	-11.2298
▁instruments	-11.2298
▁1951	-11.2298
approche	-11.2301
▁considérait	-11.2301
▁administrative	-11.2303
▁demandai-je.	-11.2303
▁inventé	-11.2303
▁esclave	-11.2305
▁variété	-11.2308
▁Dag	-11.2312
▁ouest	-11.2313
▁Steve	-11.2313
▁libéra	-11.2314
▁Front	-11.2315
▁servant	-11.2315
▁décrire	-11.2317
▁bougea	-11.2319
polis	-11.2322
▁hâta	-11.2326
▁terriblement	-11.2326
logique	-11.2326
pat	-11.2328
▁peuples	-11.233
▁observait	-11.233
▁affirme	-11.233
▁cousine	-11.2334
▁balcon	-11.2335
▁belge	-11.2337
▁verts	-11.2338
▁collaboration	-11.2339
▁explosion	-11.2339
▁filer	-11.2342
▁trahison	-11.2343
▁morts.	-11.2345
▁C’étaient	-11.2346
▁affront	-11.2346
▁repérer	-11.2347
dans	-11.2348
▁suisse	-11.2348
▁foutre	-11.2348
▁l’équipe	-11.2351
escence	-11.2352
▁vingt-quatre	-11.2353
▁affecté	-11.2354
▁d'É	-11.2354
▁1949	-11.2356
▁Pres	-11.2356
▁émission	-11.2358
vocation	-11.236
▁locaux	-11.236
▁véhicules	-11.236
▁Té	-11.2361
▁était-ce	-11.2362
▁plissa	-11.2362
▁dise	-11.2363
établissement	-11.2367
▁hésitant	-11.2367
▁Moscou	-11.2368
▁banal	-11.2371
.A.	-11.2373
voi	-11.2375
▁Pourtant	-11.2377
▁souri	-11.2378
igni	-11.238
▁régulière	-11.2381
▁siffla	-11.2381
▁L’air	-11.2384
▁couverts	-11.2388
▁moque	-11.239
▁brillants	-11.239
zon	-11.2393
uaire	-11.2395
▁humaines	-11.2396
▁communiquer	-11.2397
▁atteignit	-11.2397
▁transporter	-11.2401
▁jalousie	-11.2404
▁plaign	-11.2405
▁complot	-11.2406
▁prétendu	-11.2407
▁marée	-11.2407
élection	-11.2408
phone	-11.2409
▁rattraper	-11.2411
▁regroupe	-11.2412
▁étudiant	-11.2413
▁routes	-11.2414
▁mêlé	-11.2418
▁dégager	-11.242
▁Église	-11.2421
▁boisson	-11.2421
image	-11.2423
▁absorbé	-11.2426
rade	-11.2428
▁régl	-11.2429
▁équipage	-11.2433
▁qu’après	-11.2433
▁argenté	-11.2434
zio	-11.2437
▁noyé	-11.2441
▁examen	-11.2443
▁mai19	-11.2445
▁fonctionnaire	-11.2447
▁fantastique	-11.2447
▁défunt	-11.2447
▁Bleu	-11.2448
▁retournant	-11.245
▁shérif	-11.2454
▁signification	-11.2454
▁partiellement	-11.2454
▁flottant	-11.2457
▁1938	-11.2457
▁sépara	-11.2459
▁auront	-11.246
▁mécanisme	-11.2462
▁affreuse	-11.2462
▁jus	-11.2462
▁originale	-11.2463
▁Venise	-11.2464
▁crimes	-11.2465
▁blague	-11.2466
dium	-11.2469
▁vierge	-11.247
▁Juifs	-11.247
▁relié	-11.2472
aki	-11.2474
rienne	-11.2478
▁énormes	-11.2482
day	-11.2482
▁l'avait	-11.2483
▁identité	-11.2484
▁transforma	-11.2484
▁proposer	-11.2488
▁ration	-11.249
▁méthodes	-11.249
guille	-11.2491
▁adapté	-11.2491
▁l’ouverture	-11.2491
▁distinct	-11.2491
▁Ross	-11.2492
pot	-11.2497
▁prendra	-11.2498
▁vulgaire	-11.2498
▁transparent	-11.2498
▁modification	-11.2499
▁cligna	-11.25
▁connus	-11.2501
▁Arrivé	-11.2505
hat	-11.2506
▁brisée	-11.251
▁familière	-11.2513
▁végét	-11.2515
▁indépendante	-11.2518
dépendance	-11.252
▁gentilhomme	-11.252
▁révélation	-11.2521
▁appelés	-11.2524
▁mineur	-11.2525
struc	-11.2528
▁pel	-11.2538
▁utilisés	-11.2538
ough	-11.2541
▁record	-11.2541
▁artiste	-11.2542
▁venais	-11.2543
▁(f	-11.2544
▁piqua	-11.2545
▁fric	-11.2546
▁pourrons	-11.2547
▁chou	-11.2549
uté	-11.2549
▁grimaça	-11.2549
▁intact	-11.255
▁absolue	-11.2551
▁Ye	-11.2551
▁glissant	-11.2554
guin	-11.2557
▁sympathie	-11.2557
▁enfonça	-11.2557
▁divine	-11.2557
▁Tou	-11.2557
▁grondement	-11.2557
▁Kim	-11.2558
▁troubla	-11.2559
▁livra	-11.2562
▁parcourut	-11.2563
▁mentir	-11.2564
dem	-11.2564
▁1942	-11.2567
▁Morgan	-11.2568
▁vase	-11.2568
▁équipes	-11.2569
▁Festival	-11.2572
▁regagner	-11.2572
▁françaises	-11.2572
▁laissai	-11.2574
férence	-11.2575
▁1920	-11.2576
▁obligée	-11.2577
▁dessein	-11.2577
▁devraient	-11.2578
▁Chambre	-11.2579
▁étonnement	-11.2579
etti	-11.2579
▁étages	-11.2579
▁racines	-11.2581
établi	-11.2582
▁Vent	-11.2583
▁étincelant	-11.2587
▁Hil	-11.2587
ature	-11.2587
▁collègues	-11.2593
▁héritier	-11.2594
▁universitaire	-11.2594
▁Claire	-11.2595
▁Por	-11.2599
▁violon	-11.2599
▁colonnes	-11.2599
run	-11.26
▁préféra	-11.26
▁d’art	-11.2604
▁s’appuya	-11.2608
▁abus	-11.2613
▁c’	-11.2614
▁républicain	-11.2616
▁Journal	-11.2616
▁approcher	-11.2617
▁Lien	-11.2618
▁l'Académie	-11.2619
▁démission	-11.2622
▁devenus	-11.2626
blo	-11.2628
▁étouffa	-11.2631
▁jaillit	-11.2634
▁Sara	-11.2636
▁orbite	-11.2639
étaire	-11.264
▁observation	-11.2642
▁entrait	-11.2642
▁milliards	-11.2642
▁doutait	-11.2643
▁Dominique	-11.2645
▁désastre	-11.2645
Histoire	-11.2647
▁inconscient	-11.2647
▁tiendra	-11.2647
▁Music	-11.2648
▁proprement	-11.2651
▁écoles	-11.2651
▁compositeur	-11.2653
▁l’exception	-11.2653
▁roulé	-11.2654
▁d’enfant	-11.2655
▁Pav	-11.2655
▁rois	-11.2656
▁occupait	-11.266
dig	-11.2662
án	-11.2662
▁Monta	-11.2663
▁Tol	-11.2665
▁syn	-11.2666
▁Sk	-11.2667
▁clairière	-11.2667
tem	-11.2669
▁transformé	-11.2669
▁demanda-t-elle.	-11.267
▁apprend	-11.2673
▁roulant	-11.2675
▁l’absence	-11.2675
▁écouté	-11.2675
▁Lucas	-11.2676
▁timide	-11.2676
▁mettra	-11.2676
▁fatal	-11.2678
▁scientifiques	-11.2678
▁d’ét	-11.2681
▁inquiète	-11.2681
Océan	-11.2688
▁l'occasion	-11.269
▁pleure	-11.269
olle	-11.2692
▁Presque	-11.2692
▁divisé	-11.2698
▁dépassa	-11.2698
▁lot	-11.2702
CA	-11.2705
mble	-11.2706
▁excellente	-11.2707
▁soupçons	-11.2707
▁fromage	-11.2708
ssan	-11.2709
▁modifié	-11.2711
▁gelé	-11.2711
▁interlocuteur	-11.2712
▁musulman	-11.2712
▁Vierge	-11.2712
IR	-11.2713
▁marron	-11.2713
▁clin	-11.2717
▁socialiste	-11.2717
veu	-11.2722
▁froidement	-11.2724
▁levai	-11.2724
▁commencement	-11.2724
▁criant	-11.2725
▁Helen	-11.2726
▁isolé	-11.2728
▁allié	-11.2728
▁emporta	-11.2728
lov	-11.2728
▁White	-11.2729
▁qu'au	-11.2729
▁sifflement	-11.2735
▁cercueil	-11.2735
▁borne	-11.2737
assassin	-11.2744
▁bouquet	-11.2745
▁plongée	-11.2747
écrit	-11.2747
▁d’ac	-11.2749
▁portefeuille	-11.2751
▁agita	-11.2751
▁repéré	-11.2751
lda	-11.2752
▁Conn	-11.2754
▁dressé	-11.2754
▁flots	-11.2756
▁lorsqu'il	-11.2757
▁plaindre	-11.2757
▁vis-à-vis	-11.2757
▁guitare	-11.2757
▁écart	-11.2758
▁bouillon	-11.2759
▁l'Église	-11.276
▁Open	-11.276
▁est-elle	-11.2761
▁quotidien	-11.2761
▁jetait	-11.2762
▁détourner	-11.2764
▁déposer	-11.2764
▁65	-11.2767
▁imagina	-11.2771
▁Fond	-11.2775
▁moteurs	-11.2776
▁fermés	-11.2776
▁profondeurs	-11.2777
▁nations	-11.2777
▁Wall	-11.2779
mier	-11.2779
▁Form	-11.278
▁Dark	-11.278
▁mathématiques	-11.2781
▁Voyons,	-11.2781
▁musicale	-11.2781
▁Prenez	-11.2782
fice	-11.2783
▁exc	-11.2787
▁précautions	-11.2787
▁planches	-11.2787
▁tendait	-11.2787
▁grossière	-11.279
for	-11.2792
▁fila	-11.2792
zen	-11.2792
tral	-11.2793
▁l'objet	-11.2795
▁d’aucun	-11.2795
▁rêvé	-11.2802
▁suivantes	-11.2803
▁1932	-11.2805
▁informé	-11.2805
▁Maroc	-11.2807
▁LNH	-11.281
▁légitime	-11.281
▁épouvantable	-11.281
▁Sophie	-11.281
▁céda	-11.281
▁dimension	-11.2811
IC	-11.2811
▁fontaine	-11.2813
▁Bella	-11.2813
aria	-11.2814
▁Gran	-11.2816
▁Public	-11.2817
▁génétique	-11.2818
▁étrangement	-11.2819
▁durer	-11.2822
▁osé	-11.2823
arpent	-11.2824
▁quasiment	-11.2824
▁roule	-11.2826
▁soulever	-11.2826
▁détour	-11.2827
nt-ils	-11.2827
class	-11.283
▁mondial	-11.2832
▁via	-11.2833
▁opéra	-11.2834
▁mené	-11.2835
▁XI	-11.2837
▁regagna	-11.284
▁frappant	-11.2843
▁termine	-11.2843
▁commenta	-11.2846
▁l’équipage	-11.2848
▁Aga	-11.2849
▁conquête	-11.285
▁viendrait	-11.2852
▁bureaux	-11.2852
▁brute	-11.2854
▁horizon	-11.2855
▁Circ	-11.2855
▁permit	-11.2857
hm	-11.2857
war	-11.2858
▁Marcus	-11.2859
▁Tenez	-11.2862
▁cur	-11.2862
▁marchant	-11.2863
▁Lorraine	-11.2863
▁Gardien	-11.2863
▁transformation	-11.2864
▁encourage	-11.2865
▁motifs	-11.2865
▁marteau	-11.2866
▁L’en	-11.2868
▁abandonna	-11.287
▁mercenaire	-11.287
worth	-11.2871
▁64	-11.2871
rob	-11.2872
▁Attends	-11.2873
▁embarrassé	-11.2873
ualité	-11.2873
NA	-11.2874
▁manifeste	-11.2878
▁bouleversé	-11.2878
▁allumé	-11.288
▁01	-11.2881
▁d’elles	-11.2883
▁talents	-11.2885
▁N’est-ce	-11.2886
▁émit	-11.2886
ander	-11.2886
oche	-11.2887
▁heurta	-11.2888
rê	-11.289
▁chantier	-11.2893
▁prenne	-11.2894
▁Jackson	-11.2894
▁actif	-11.2894
tiens	-11.2897
▁l’arbre	-11.2901
nik	-11.2902
▁Tony	-11.2905
▁sursauta	-11.291
▁grecque	-11.291
▁environnement	-11.2911
▁Records	-11.2911
▁concentra	-11.2912
-po	-11.2915
▁Capitaine	-11.2916
▁Giovanni	-11.2916
▁s’agenouilla	-11.2916
▁auxquelles	-11.2916
▁surnom	-11.2916
▁rangée	-11.2918
▁solaire	-11.292
▁CH	-11.2923
▁Gold	-11.2923
▁Royaume	-11.2924
space	-11.2924
▁Pomp	-11.2925
▁Pru	-11.2925
ancien	-11.293
▁nette	-11.2931
▁approché	-11.2931
▁l'espace	-11.2931
▁moines	-11.2932
▁agit	-11.2933
▁posant	-11.2934
En	-11.2935
cap	-11.2937
intendant	-11.2938
August	-11.2938
▁stratégie	-11.2939
▁Âge	-11.2939
▁précipitamment	-11.2939
▁Bad	-11.2941
pion	-11.2944
▁perplexe	-11.2947
▁chaînes	-11.2949
▁souper	-11.2951
▁inclina	-11.2951
▁littéralement	-11.2954
▁wagon	-11.2954
▁physionomie	-11.2954
▁fermier	-11.2955
▁Sco	-11.2956
▁1943	-11.2957
▁Maxim	-11.2957
right	-11.2959
▁téléphonique	-11.2962
▁propuls	-11.2962
▁survie	-11.2963
pal	-11.2964
▁Mill	-11.2965
▁participé	-11.2969
▁Cab	-11.2969
▁cellules	-11.297
▁Autour	-11.2971
▁promener	-11.2972
▁1941	-11.2972
▁Wolf	-11.2973
▁farouche	-11.2977
▁hommage	-11.2977
▁singulier	-11.2977
▁détaché	-11.2977
▁portent	-11.2981
▁Vel	-11.2985
RS	-11.299
▁accompagna	-11.2992
▁cadet	-11.2993
▁suis-je	-11.2993
▁clés	-11.2996
mac	-11.2997
▁Toulouse	-11.3
▁chiffon	-11.3
▁concentration	-11.3005
inus	-11.3005
▁furieuse	-11.3006
▁lieues	-11.3006
▁impassible	-11.3008
asi	-11.3008
▁parchemin	-11.3008
▁torrent	-11.301
pir	-11.3011
▁Passe	-11.3013
▁application	-11.3016
▁Vingt	-11.3016
▁aisément	-11.3016
▁remplie	-11.3016
-temps	-11.3016
touche	-11.3016
▁carnet	-11.3018
▁connaissaient	-11.3021
▁marques	-11.3021
ark	-11.3022
▁rez-de-chaussée	-11.3023
▁dégagé	-11.3023
▁tombant	-11.3026
dage	-11.3027
ij	-11.3029
▁rumeur	-11.3029
▁dépêche	-11.3031
▁renversa	-11.3032
▁pourri	-11.3038
▁avançait	-11.3038
▁Charlotte	-11.3039
▁réduite	-11.3041
▁appui	-11.3041
▁péril	-11.3041
uter	-11.3042
chette	-11.3043
▁informatique	-11.3046
▁Chicago	-11.3046
▁l'opérateur	-11.3046
[7]	-11.3046
▁obéir	-11.3048
wen	-11.3048
▁m’était	-11.3049
▁trouvera	-11.3049
▁préoccup	-11.3051
ape	-11.3051
▁l’embrassa	-11.3054
▁chemins	-11.3055
▁Gan	-11.3056
▁ramène	-11.3057
▁avouer	-11.3059
▁iso	-11.306
orial	-11.306
▁Hou	-11.3061
lem	-11.3061
▁Nouveau	-11.3062
▁paradis	-11.3063
▁Hart	-11.3065
-16	-11.3065
ffin	-11.3068
▁Cité	-11.3069
▁Bonjour,	-11.307
▁1935	-11.3072
▁maintien	-11.3073
OL	-11.3077
▁prudemment	-11.3077
▁réfugié	-11.3077
▁atroce	-11.3077
▁revenant	-11.3077
▁Bruno	-11.3077
rite	-11.3078
▁étrangères	-11.3078
▁ballon	-11.308
▁déplacement	-11.3081
agna	-11.3081
▁recommencer	-11.3084
▁mars19	-11.3085
▁aiguille	-11.3085
rais-tu	-11.3087
▁touchant	-11.3092
nières	-11.3092
▁Pense	-11.3092
▁arrivent	-11.3093
▁Inutile	-11.3093
▁top	-11.3095
▁Thu	-11.3098
▁dirigeait	-11.3098
▁phrases	-11.3099
▁l’inspecteur	-11.3103
▁sièges	-11.3104
▁cochon	-11.3104
▁tristement	-11.3106
▁eussent	-11.3107
▁J’aime	-11.3107
▁ingénieur	-11.3108
hil	-11.3108
▁scrupule	-11.3108
▁sang-froid	-11.3108
▁promotion	-11.3109
▁hurlant	-11.3109
▁plais	-11.3109
▁concentrer	-11.311
oyer	-11.3114
▁lugubre	-11.3116
▁voient	-11.3116
▁Clay	-11.3117
▁médecins	-11.3119
rina	-11.3121
▁célèbres	-11.3123
▁tableaux	-11.3123
▁restés	-11.3123
▁Hans	-11.3124
▁L'in	-11.3124
ouverture	-11.3126
▁fixait	-11.3126
▁jetée	-11.3126
Espagne	-11.3131
▁Coordonnées	-11.3132
▁fichier	-11.3132
▁vigne	-11.3135
étique	-11.3136
▁Sul	-11.3136
▁usé	-11.3137
▁pilier	-11.3138
▁gai	-11.3138
laine	-11.314
uda	-11.3144
▁ample	-11.3144
▁Gare	-11.3146
▁Petite	-11.3146
▁Vienne	-11.3147
▁om	-11.3147
▁emprunt	-11.3149
▁imposant	-11.315
▁Gard	-11.3154
ignée	-11.3155
▁tordu	-11.3155
▁rejeta	-11.3157
▁juin19	-11.3158
▁adolescent	-11.3158
▁soigner	-11.3159
▁Neu	-11.3159
▁spectateurs	-11.316
▁reposait	-11.3162
▁enthousiasme	-11.3163
▁whisky	-11.3163
▁Seule	-11.3167
▁éd.	-11.3168
▁ah	-11.3168
▁boud	-11.317
▁Cassi	-11.317
▁émet	-11.3171
▁livré	-11.3172
▁septembre19	-11.3175
-à-	-11.3179
▁perdait	-11.3181
▁Nan	-11.3181
▁Poly	-11.3182
▁avide	-11.3183
occupant	-11.3184
▁tyran	-11.3186
▁arrêtée	-11.3187
▁hanches	-11.3187
▁remercier	-11.3189
▁percé	-11.319
▁Dela	-11.3193
▁océan	-11.3194
▁l’entre	-11.3194
▁Fal	-11.3194
▁Bow	-11.3195
bbe	-11.3195
▁entrant	-11.3195
▁golf	-11.3195
naise	-11.3197
▁fouille	-11.3198
▁plonger	-11.3198
▁dépasse	-11.32
▁besogne	-11.3202
sten	-11.3202
color	-11.3202
▁distingua	-11.3205
▁Fair	-11.3205
BC	-11.3208
clé	-11.3209
▁ramasser	-11.321
▁spectre	-11.3211
raud	-11.3212
élite	-11.3212
▁échappa	-11.3212
▁pleurait	-11.3214
▁directe	-11.3215
▁rapporter	-11.3216
▁atelier	-11.3217
▁présents	-11.3218
▁North	-11.3219
▁historien	-11.3221
▁reposa	-11.3222
▁participation	-11.3223
lah	-11.3223
▁entreprit	-11.3226
▁provoqua	-11.3226
▁Laisse	-11.3226
▁58	-11.3229
▁alliés	-11.323
▁Sénat	-11.3232
▁chrétienne	-11.3233
▁l'auteur	-11.3233
▁Fleur	-11.3235
▁ressentait	-11.3237
▁entourée	-11.3241
▁l’ensemble	-11.3241
▁discret	-11.3241
▁cigare	-11.3242
▁ans)	-11.3242
▁l’été	-11.3243
ssiez	-11.3243
e-toi	-11.3245
▁Dev	-11.3245
▁auparavant.	-11.3246
▁domicile	-11.3249
▁dalle	-11.3251
▁teinte	-11.3254
▁Erreur	-11.3255
▁coton	-11.3255
▁fantômes	-11.3256
▁dépassé	-11.3257
jur	-11.3263
▁protecteur	-11.3265
gourdi	-11.3266
▁Hard	-11.3267
▁donnerai	-11.3267
▁représenter	-11.3269
▁Notre-Dame	-11.3273
▁quatorze	-11.3273
▁Band	-11.3274
▁recrut	-11.3274
-12	-11.3276
▁organe	-11.3277
▁Mira	-11.3277
▁installée	-11.328
▁ronge	-11.328
▁lâché	-11.3281
.fr	-11.3287
▁ô	-11.3287
i?	-11.3288
graphie	-11.3288
▁posait	-11.3288
▁attribué	-11.3289
▁parie	-11.329
▁flacon	-11.3291
▁appareils	-11.3291
▁citer	-11.3294
▁crispé	-11.3295
▁Kid	-11.3296
▁développer	-11.3296
▁Drizzt	-11.3296
▁çà	-11.3296
▁amer	-11.3297
▁Spec	-11.3301
▁Indi	-11.3306
▁exprima	-11.3307
▁remplace	-11.3309
-d'	-11.3313
▁m’avoir	-11.3313
▁timbre	-11.3314
ST	-11.3314
▁psycho	-11.3314
▁lourdement	-11.3315
tille	-11.3317
▁terribles	-11.332
▁évolu	-11.332
▁l’origine	-11.332
▁ouvrait	-11.332
▁Alan	-11.3321
▁massive	-11.3321
lettes	-11.3324
trap	-11.3326
▁incendie	-11.3328
▁Exactement	-11.333
▁étudia	-11.3331
▁Année	-11.3331
▁Théâtre	-11.3336
▁(au	-11.3337
▁Gab	-11.3337
gate	-11.3341
▁souhaitait	-11.3341
▁cavalerie	-11.3344
▁souffert	-11.3344
ivement	-11.3345
▁messire	-11.3345
▁graisse	-11.3348
▁Game	-11.3349
▁Nik	-11.335
▁boucles	-11.3351
▁fabrique	-11.3351
▁INSEE[1])	-11.3352
▁scénario	-11.3352
▁meute	-11.3353
▁As-tu	-11.3356
▁dynastie	-11.336
▁trouvèrent	-11.336
▁tabac	-11.336
▁n’oublie	-11.336
▁rapides	-11.3363
▁arts	-11.3365
illusion	-11.3365
bonne	-11.3367
four	-11.3368
▁Apparemment	-11.3368
▁suivis	-11.3371
▁m’aider	-11.3372
encontre	-11.3373
veil	-11.3375
▁appliqué	-11.3376
▁sénateur	-11.3376
▁chassé	-11.3376
▁retrait	-11.3376
▁revenue	-11.3377
▁vivaient	-11.3377
▁cab	-11.3382
▁ayez	-11.3384
▁croyant	-11.3384
▁Fle	-11.3385
ù	-11.3389
▁rapidité	-11.3392
beau	-11.3392
rist	-11.3393
▁lourds	-11.3394
▁Fat	-11.3394
▁s’arrête	-11.3395
▁gras	-11.3396
▁n'ai	-11.3397
▁d’avis	-11.3398
▁silhouettes	-11.3399
Com	-11.34
ception	-11.3403
▁connaissent	-11.3405
▁Animalia	-11.3409
▁Tyr	-11.341
▁manches	-11.3411
ddy	-11.3415
▁marais	-11.3416
▁occidentale	-11.3416
▁l’énergie	-11.3416
Al	-11.3416
▁s’apprêtait	-11.3416
▁signature	-11.3416
▁fondre	-11.3417
▁Silence	-11.3418
▁PS	-11.3418
▁marquise	-11.3419
▁valeurs	-11.342
▁pneu	-11.3421
▁tambour	-11.3427
▁Gol	-11.3427
▁révolutionnaire	-11.3428
▁Seine	-11.3429
▁souffrait	-11.343
face	-11.3431
▁Margaret	-11.3432
▁épousé	-11.3432
▁Internet	-11.3433
▁(K	-11.3434
réf.	-11.3437
▁Carol	-11.344
▁Jérusalem	-11.344
▁robuste	-11.344
▁levait	-11.344
NU	-11.3443
▁orientale	-11.3444
▁Droit	-11.3448
▁Embranchement	-11.3448
▁Jean-Pierre	-11.3448
▁voudrez	-11.3448
TA	-11.3448
▁format	-11.3448
▁l’officier	-11.3449
▁attrapa	-11.3456
▁grandeur	-11.3456
▁South	-11.3456
▁radical	-11.3457
ize	-11.3458
▁nièce	-11.3458
▁Loi	-11.3458
▁sûreté	-11.3459
▁Thor	-11.3462
▁fichu	-11.3466
▁orgueil	-11.3466
▁menti	-11.3469
roche	-11.3471
▁mentale	-11.3471
▁amateur	-11.3476
hô	-11.3477
▁gendarme	-11.3477
▁intéresse	-11.348
▁défenseur	-11.3484
▁IX	-11.3484
▁ajoute	-11.3485
▁m’aime	-11.3488
▁bouffée	-11.3488
▁poils	-11.3489
▁tentait	-11.349
▁l'Assemblée	-11.3496
▁remords	-11.3496
▁réflexions	-11.3497
▁balance	-11.3501
IA	-11.3503
▁malades	-11.3504
▁s’immobilisa	-11.3504
▁pelouse	-11.3504
▁intéressante	-11.3507
▁dominant	-11.3508
▁fois-ci	-11.3508
▁Résultat	-11.3512
ncé	-11.3515
▁continué	-11.3516
▁franchit	-11.3517
▁Armand	-11.3518
▁bénéfice	-11.3521
▁fabrication	-11.3521
DA	-11.3521
belle	-11.3525
▁blé	-11.3525
▁Berg	-11.3528
▁correct	-11.3529
▁circonstance	-11.353
▁Pier	-11.3532
▁gre	-11.3532
▁qualifi	-11.3533
▁lente	-11.3533
▁fouiller	-11.3535
▁murailles	-11.3536
▁Dictionnaire	-11.3537
▁martyr	-11.3537
-Pa	-11.3538
than	-11.354
▁détente	-11.354
▁rapproche	-11.354
▁demandai-je	-11.3542
▁Palm	-11.3542
▁criait	-11.3543
▁Brad	-11.3543
kha	-11.3544
bois	-11.3545
èdre	-11.3548
▁risqua	-11.3548
issance	-11.3549
▁parcourir	-11.3551
▁bêtise	-11.3553
▁ultime	-11.3553
▁voyaient	-11.3553
▁réparti	-11.3554
▁malaise	-11.3555
édi	-11.3556
loque	-11.3557
▁l'Ar	-11.3558
ão	-11.3559
▁convenu	-11.3559
▁vinrent	-11.356
instrument	-11.356
pid	-11.3561
émie	-11.3561
▁guérir	-11.3563
▁Bond	-11.3564
▁contenter	-11.3564
▁Baron	-11.3568
▁couvertures	-11.357
▁adversaires	-11.357
▁proté	-11.3571
▁saurais	-11.3573
pouvant	-11.3573
mn	-11.3575
▁quittait	-11.3576
▁approchait	-11.3576
▁s’attendait	-11.3576
▁s’élevait	-11.3576
▁souvint	-11.3577
▁entrèrent	-11.3578
▁qu'a	-11.3579
▁prouve	-11.358
vons-nous	-11.358
▁information	-11.3582
▁Hen	-11.3584
▁l’al	-11.3584
▁cria-t-il	-11.3587
allum	-11.3589
▁d’ouvrir	-11.359
▁jouant	-11.359
▁naître	-11.359
▁citoyens	-11.3591
▁Chu	-11.3593
▁octobre19	-11.3593
▁Dio	-11.3593
version	-11.3596
▁d’inter	-11.3596
▁frémi	-11.3597
▁réponses	-11.3597
▁sollicit	-11.3602
▁réparer	-11.3602
▁Sinon,	-11.3603
▁Certainement	-11.361
▁relâche	-11.361
▁sonner	-11.361
▁hardi	-11.3612
▁inquiétant	-11.3612
▁PC	-11.3613
▁emporter	-11.3615
▁messe	-11.3616
nec	-11.3618
▁remonté	-11.3619
▁fourré	-11.362
▁sillon	-11.3622
-Marie	-11.3624
▁Naturellement	-11.3626
▁interminable	-11.3626
▁Florence	-11.3626
▁Rad	-11.3627
▁repartit	-11.3627
▁transmis	-11.3629
▁l'Allemagne	-11.363
▁passerelle	-11.3631
▁prières	-11.3632
▁Med	-11.3634
▁vestibule	-11.3635
▁considérée	-11.3637
vais-je	-11.3638
▁unités	-11.3639
appa	-11.3641
▁judiciaire	-11.3643
▁voulons	-11.3643
▁modèles	-11.3644
▁Brun	-11.3644
altitude	-11.3647
▁chandelle	-11.3651
▁pyramide	-11.3651
▁Tavi	-11.3651
▁coeur	-11.3655
▁devina	-11.3656
▁rampa	-11.3656
▁puis-je	-11.3659
▁Feu	-11.3659
CH	-11.3659
ario	-11.3659
▁hockey	-11.3659
▁trafic	-11.3659
alla	-11.366
▁Malko	-11.3662
▁ouvertes	-11.3665
ifiée	-11.3666
▁procédure	-11.3667
▁écrasa	-11.3667
▁satisfaire	-11.3668
▁dragons	-11.3669
▁comité	-11.3674
▁Luxembourg	-11.3676
▁s’étendait	-11.3678
▁manoir	-11.3678
▁maîtrise	-11.3679
▁tiède	-11.3685
▁vaincre	-11.3685
lène	-11.3686
▁Yan	-11.3686
▁Cata	-11.3687
dow	-11.369
annon	-11.3692
train	-11.3692
▁sous-marin	-11.3692
▁recours	-11.3692
▁sous-sol	-11.3693
▁barrage	-11.3694
▁relative	-11.3697
clip	-11.3699
▁remercia	-11.37
▁similaire	-11.37
rab	-11.37
▁commode	-11.3701
▁Laissez-moi	-11.3701
▁flottait	-11.3702
▁l'ancien	-11.3703
▁restai	-11.3704
nisme	-11.3706
▁basé	-11.3707
▁(Ma	-11.3707
zie	-11.3708
▁veuille	-11.3708
architecture	-11.371
▁haletant	-11.3713
▁poulet	-11.3717
▁narines	-11.3717
▁"M	-11.3718
▁franchise	-11.372
▁rompu	-11.3721
▁alentours	-11.3721
▁faisons	-11.3721
▁savez-vous	-11.3722
SC	-11.3722
▁celle-là	-11.3722
▁l'inter	-11.3724
▁pardonne	-11.3725
▁T’as	-11.3728
▁consomm	-11.3729
▁nerveuse	-11.3729
▁Kay	-11.373
▁faille	-11.373
▁traversait	-11.3734
but	-11.3736
▁1937	-11.3736
▁s'étend	-11.3736
▁parcours	-11.3737
▁Qu’	-11.3737
▁remparts	-11.374
▁hostile	-11.3742
▁Filmographie	-11.3742
▁croisés	-11.3745
lif	-11.3747
▁exercice	-11.375
▁l’échelle	-11.375
▁évanoui	-11.375
étoile	-11.375
▁converti	-11.3754
▁l’envie	-11.3757
▁domaines	-11.3758
▁l’H	-11.3758
▁crue	-11.3759
▁sculpture	-11.376
▁Kha	-11.3762
▁maîtriser	-11.3762
▁circon	-11.3764
▁localité	-11.3766
▁fréquente	-11.3766
▁vicomte	-11.3766
▁organisme	-11.3766
▁chaussée	-11.3767
▁Stefan	-11.3767
▁Institut	-11.3774
électricité	-11.3775
▁Jondalar	-11.3775
▁Pardaillan	-11.3775
▁d’épaule	-11.3775
▁cruelle	-11.3775
▁d'ac	-11.3776
▁Central	-11.3776
▁songé	-11.3776
▁vacilla	-11.3777
path	-11.3782
▁autonome	-11.3783
▁évoque	-11.3783
▁croissance	-11.3784
▁séparation	-11.3786
▁1931	-11.3786
▁compétence	-11.3791
▁Jou	-11.3792
▁imposé	-11.3792
niez	-11.3794
▁Cali	-11.3794
▁rangea	-11.3794
▁Marino	-11.3799
▁fâché	-11.38
▁insupportable	-11.38
▁stupeur	-11.38
▁dessins	-11.3803
enberg	-11.3805
▁ressemblaient	-11.3808
▁trentaine	-11.3808
▁Était-ce	-11.3808
▁relais	-11.3809
▁proue	-11.3811
ragon	-11.3813
neuse	-11.3813
acteur	-11.3814
▁excité	-11.3816
▁créa	-11.3816
▁registre	-11.3818
▁impériale	-11.3821
▁fossé	-11.3825
bury	-11.3825
▁manifesta	-11.3827
yle	-11.3833
nica	-11.3834
▁rapporté	-11.3837
▁préparait	-11.3839
▁ruse	-11.3841
▁minimum	-11.3841
▁comparaison	-11.3841
IM	-11.3842
▁montaient	-11.3843
▁N°	-11.3844
▁Chan	-11.3844
▁habité	-11.3845
▁faibles	-11.3845
▁atterri	-11.3846
▁alliance	-11.385
▁tactique	-11.385
▁récolte	-11.385
▁morne	-11.385
▁définition	-11.385
nga	-11.3855
▁Merde	-11.3856
alisation	-11.3857
▁gant	-11.3857
▁prime	-11.3857
▁obscure	-11.3858
▁essuya	-11.3858
▁XVIIe	-11.3858
▁enfui	-11.3859
▁l’y	-11.3859
▁attaqua	-11.3859
▁assurance	-11.386
▁disponible	-11.3863
▁tige	-11.3863
OI	-11.3864
scope	-11.3865
▁émergea	-11.3866
▁chrétiens	-11.3866
▁l'École	-11.3867
▁députés	-11.3869
▁deuil	-11.3872
gendre	-11.3873
viron	-11.3873
CI	-11.3877
▁haie	-11.3878
▁désespérément	-11.3878
▁d'Italie	-11.3879
▁Top	-11.3881
▁commettre	-11.3884
▁Stade	-11.3888
▁Turquie	-11.3892
▁démonstration	-11.3892
▁diffusion	-11.3893
▁rendue	-11.3895
▁fauve	-11.3895
▁berge	-11.3896
péri	-11.39
▁deviennent	-11.3903
▁novembre19	-11.3906
▁terrifiant	-11.3908
▁hurlements	-11.3908
▁treize	-11.3909
▁Association	-11.391
...»	-11.3915
▁fameuse	-11.3917
▁mette	-11.3917
▁l’enfer	-11.3918
▁cocher	-11.3919
rang	-11.3921
▁ki	-11.3921
▁bœuf	-11.3925
▁financier	-11.3925
▁Tiens	-11.3927
enn	-11.3927
liste	-11.3927
▁nommée	-11.3928
▁Sca	-11.3934
▁casse	-11.3934
assis	-11.3935
▁municipal	-11.3938
Univers	-11.3939
▁industriel	-11.3939
gorge	-11.394
▁établir	-11.3944
▁Noire	-11.3944
glia	-11.3944
▁précisa	-11.3947
°C	-11.3948
▁Gala	-11.3949
▁capturé	-11.3951
▁riait	-11.3955
-du-	-11.3956
méli	-11.3959
▁(W	-11.3959
▁tombeau	-11.396
▁aurions	-11.3961
▁insu	-11.3961
▁distinguait	-11.3964
▁bataillon	-11.3967
▁l’auberge	-11.3967
▁refermé	-11.3968
▁adjoint	-11.3968
▁insectes	-11.3969
vaux	-11.397
▁estimé	-11.397
heure	-11.3975
▁couvercle	-11.3976
▁financière	-11.3976
▁fréquence	-11.3976
▁échoué	-11.3976
▁gisait	-11.3977
▁toi-même	-11.3978
▁pâte	-11.3979
town	-11.3981
▁nuance	-11.3982
▁détresse	-11.3984
▁offrait	-11.3985
▁verrez	-11.3986
▁l'Europe	-11.3988
▁Johnson	-11.3989
▁Hommes	-11.3991
lure	-11.3991
▁l’An	-11.3993
▁rassurer	-11.3993
Ch	-11.3994
▁Bart	-11.3994
boul	-11.3994
▁demeurer	-11.3995
psi	-11.3995
étudi	-11.3997
▁Vor	-11.3997
▁Court	-11.3999
▁l'H	-11.3999
ect	-11.4001
▁m’étonne	-11.4001
turé	-11.4002
▁creuse	-11.4002
caille	-11.4005
EC	-11.4007
▁enchanté	-11.4007
▁romans	-11.4007
▁crié	-11.4008
tois	-11.4009
▁cratère	-11.4011
▁sculpté	-11.4012
▁moto	-11.4014
▁romp	-11.4015
▁d'Espagne	-11.4015
▁toilettes	-11.4017
▁chaos	-11.4018
▁l’estomac	-11.4018
▁répétait	-11.4021
▁janvier19	-11.4021
▁jazz	-11.4028
▁VIII	-11.4031
▁Film	-11.4032
▁campement	-11.4032
▁cloison	-11.4036
▁véritablement	-11.4044
fect	-11.4047
▁s’entre	-11.4048
▁rentrée	-11.405
▁l'ai	-11.405
▁poursuit	-11.4051
▁cervelle	-11.4053
▁Formule	-11.4053
▁refermer	-11.4055
▁disposer	-11.4057
▁Gilles	-11.4057
aient-ils	-11.4057
▁tro	-11.4058
▁natal	-11.4058
▁terrifié	-11.4061
▁Howard	-11.4062
▁n’ayant	-11.4062
▁Face	-11.4063
▁miel	-11.4065
▁vêtement	-11.4067
▁coiffé	-11.407
▁pommes	-11.4071
ía	-11.4071
Ro	-11.4072
▁rabatt	-11.4073
▁buissons	-11.4073
▁rebondi	-11.4073
▁dimensions	-11.4076
▁machin	-11.4076
▁Puis-je	-11.4077
équation	-11.4078
▁bagages	-11.4078
▁Chap	-11.4079
▁agité	-11.4079
l’	-11.4084
▁trouvant	-11.4086
▁Nicholas	-11.4087
▁Télé	-11.4087
▁Mali	-11.409
▁Rep	-11.409
▁juillet19	-11.409
▁embrassa	-11.4096
▁("	-11.41
▁"S	-11.4101
▁amène	-11.4104
▁suffisante	-11.4109
▁Lise	-11.411
cq	-11.4111
▁employ	-11.4111
▁comprenant	-11.4112
▁politesse	-11.4112
▁cravate	-11.4112
▁collègue	-11.4113
▁considération	-11.4113
▁hélas	-11.4114
▁serrait	-11.4115
▁parlent	-11.4116
▁bosse	-11.4116
▁Free	-11.412
▁perçu	-11.4124
had	-11.4124
▁composant	-11.4126
▁foudre	-11.4126
immo	-11.4128
▁dégâts	-11.413
▁gratuit	-11.413
▁aventures	-11.413
▁l’auto	-11.413
▁grinça	-11.413
▁Ouvr	-11.4134
IV	-11.4136
▁l’habit	-11.4138
▁Isabelle	-11.4138
▁Bordeaux	-11.4139
▁Antonio	-11.414
▁quotidienne	-11.4142
▁mentionné	-11.4143
▁rassembler	-11.4143
▁cessait	-11.4144
▁espagnole	-11.4144
▁voyageur	-11.4145
▁hausse	-11.4145
▁nécessaire]	-11.4146
▁with	-11.4148
insecte	-11.4148
▁lundi	-11.4149
▁rats	-11.4149
▁rendant	-11.415
▁l’expérience	-11.4152
-Sa	-11.4154
▁l’intérêt	-11.4155
▁J’allai	-11.4156
▁visiteur	-11.4156
▁admettre	-11.4157
▁protestant	-11.4157
▁dresser	-11.4158
▁pend	-11.416
▁sépare	-11.416
▁Assez	-11.416
▁empreintes	-11.4163
▁concentré	-11.4164
▁progressivement	-11.4164
▁Championnats	-11.4164
▁Jun	-11.4166
▁laissaient	-11.4166
▁norme	-11.4166
▁personnellement	-11.4166
▁contrainte	-11.4167
▁Tara	-11.4167
▁trouvez	-11.4168
▁Fur	-11.4171
nien	-11.4172
▁délicieuse	-11.4173
▁Dire	-11.4173
▁neutre	-11.4173
house	-11.4174
▁l’action	-11.4179
▁Vert	-11.4179
▁patrie	-11.4181
▁devrions	-11.4181
▁sanctuaire	-11.4181
▁liés	-11.4181
▁estomac	-11.4182
▁réserves	-11.4182
charge	-11.4182
doc	-11.4182
omi	-11.4182
▁chante	-11.4184
▁arrivaient	-11.4184
▁habits	-11.4186
▁spécialement	-11.4187
▁obéit	-11.4187
▁traîna	-11.4189
▁distribution	-11.419
▁quelqu'un	-11.419
vette	-11.4193
▁draps	-11.4198
▁fonça	-11.4199
▁chronique	-11.4199
bard	-11.42
▁développe	-11.4201
gique	-11.4203
▁O’	-11.4203
▁Durée	-11.4207
▁permanence	-11.4207
▁Production	-11.4209
▁59	-11.4214
▁l’ami	-11.4214
▁Inc	-11.4215
▁médicament	-11.4216
▁150	-11.4216
▁Voyez	-11.4216
▁protestation	-11.4218
▁rejeté	-11.4225
▁servent	-11.4228
▁respecter	-11.423
▁accompagner	-11.4233
bien	-11.4233
▁décembre19	-11.4233
▁tragique	-11.4234
▁donnera	-11.4237
▁réalise	-11.4237
▁Femme	-11.4238
▁l'Institut	-11.4239
▁hésiter	-11.424
▁rangées	-11.424
▁gonflé	-11.4242
▁(6	-11.4242
▁s’échappa	-11.4243
▁cogna	-11.4243
iana	-11.4245
▁voleurs	-11.4245
▁laissez	-11.4248
▁malheureusement	-11.4249
▁Boston	-11.4249
▁fonctionnement	-11.4249
▁bouteilles	-11.425
▁croyance	-11.4251
▁soulevé	-11.4251
▁Madrid	-11.4251
▁fis-je	-11.4253
▁d’enfants	-11.4257
▁forment	-11.4257
▁s’ac	-11.4259
▁l’ignore	-11.426
▁espérance	-11.426
▁potentiel	-11.426
▁ordonne	-11.4261
▁sanguin	-11.4261
▁blanchi	-11.4261
▁contemplait	-11.4264
place	-11.4264
André	-11.4266
rive	-11.4266
▁représenta	-11.4267
▁chirurgien	-11.4267
▁diffusé	-11.4269
▁béton	-11.4269
andre	-11.4271
▁réforme	-11.4272
▁Mode	-11.4276
ésie	-11.4278
▁convi	-11.4279
▁défendu	-11.4279
▁Gray	-11.428
▁l’étranger	-11.428
▁promen	-11.4282
▁surmonté	-11.4284
▁Station	-11.4285
late	-11.4287
▁explications	-11.4288
ward	-11.4288
▁Fen	-11.4291
▁rapproché	-11.4294
▁pensif	-11.4294
▁anéanti	-11.4294
▁archives	-11.4295
▁Éli	-11.4297
▁Ful	-11.4307
▁roc	-11.4312
▁combiné	-11.4312
▁chevet	-11.4312
▁patte	-11.4318
▁juron	-11.4319
élimin	-11.432
▁surgi	-11.4321
▁compassion	-11.4321
▁lampes	-11.4324
▁avancée	-11.4324
oux	-11.4324
▁poignets	-11.4325
▁recueilli	-11.4326
▁privilège	-11.4329
▁suivaient	-11.4329
▁ambition	-11.4329
▁www.	-11.433
▁promets	-11.433
▁posté	-11.4332
▁cordon	-11.4335
▁Magda	-11.4335
ín	-11.4335
▁regretta	-11.4336
enseigne	-11.4337
▁porc	-11.4344
▁rousse	-11.4346
▁coiffe	-11.4347
▁bla	-11.4349
▁l’éclair	-11.435
▁trahir	-11.4351
▁courses	-11.4351
▁Fondation	-11.4352
▁pensa-t-il	-11.4355
Américain	-11.4355
▁déchire	-11.4357
▁1926	-11.4359
▁noué	-11.4361
▁promit	-11.4361
▁silencieusement	-11.4362
-Ha	-11.4362
Armée	-11.4363
▁l'esprit	-11.4365
▁provisions	-11.4365
▁Genève	-11.4365
▁Terra	-11.4366
▁Dave	-11.4367
▁l'Empire	-11.4367
▁Wei	-11.4368
▁Rick	-11.4371
▁usine	-11.4372
▁rédaction	-11.4373
▁perçant	-11.4373
▁reporta	-11.4376
▁Wor	-11.4379
top	-11.4379
▁paysan	-11.438
▁culturelle	-11.438
ensis	-11.4381
▁refroidi	-11.4382
▁parvient	-11.4383
▁péniblement	-11.4385
ppel	-11.4387
▁longea	-11.439
oppo	-11.439
▁recommença	-11.4391
▁chrétien	-11.4392
▁Nam	-11.4393
▁coule	-11.4394
▁adulte	-11.4397
▁peste	-11.4397
▁profita	-11.4398
iya	-11.4399
▁traînant	-11.4401
▁dôme	-11.4403
▁Power	-11.4404
stone	-11.4405
▁Bureau	-11.4406
3)	-11.4406
▁lumineuse	-11.4409
▁graves	-11.4409
▁papillon	-11.4409
▁supérieurs	-11.4409
▁absolu	-11.4411
▁Gua	-11.4413
appareil	-11.4417
▁Excellence	-11.4418
▁bien-aimé	-11.4418
▁remporté	-11.4418
▁menant	-11.4418
▁rassembla	-11.4418
▁grimper	-11.4418
▁Marius	-11.4419
▁garnison	-11.4421
▁tenez	-11.4425
▁aurait-il	-11.4426
▁s’empressa	-11.4427
▁irrité	-11.4427
parti	-11.4427
▁n’osa	-11.4428
▁valu	-11.4429
têt	-11.443
ENT	-11.4432
▁végétation	-11.4433
chaîne	-11.4434
▁Wy	-11.4434
▁diplôme	-11.4435
ordinaire	-11.4436
▁conta	-11.4438
▁aspira	-11.4438
▁cire	-11.4438
oyant	-11.4439
▁retire	-11.4439
t-il	-11.4441
▁fait-il	-11.4442
▁puni	-11.4442
acc	-11.4443
▁grade	-11.4448
▁Colon	-11.4449
▁n’arrivait	-11.445
▁tape	-11.4452
▁gen	-11.4453
▁Hunter	-11.4453
▁décoré	-11.4455
-d’	-11.4456
▁indication	-11.4456
▁délire	-11.4457
rach	-11.4457
velo	-11.4458
▁n’auraient	-11.4459
▁68	-11.446
erne	-11.446
▁Mario	-11.4462
▁surprit	-11.4462
mmy	-11.4462
▁rougit	-11.4465
cut	-11.4471
▁repoussé	-11.4471
▁Arc	-11.4472
▁réagi	-11.4475
▁l'In	-11.4475
meu	-11.4476
▁Saint-S	-11.4476
vio	-11.4478
▁d’Ha	-11.4478
▁Prends	-11.448
▁procéder	-11.4489
▁Liber	-11.4489
▁Johann	-11.4489
▁dix-sept	-11.449
▁m’entend	-11.449
▁l’abandon	-11.4491
vard	-11.4491
▁supplémentaire	-11.4495
▁L’idée	-11.4498
▁dépôt	-11.4499
▁Thé	-11.4499
▁Docteur	-11.4499
▁Dites-moi	-11.45
▁règlement	-11.4503
▁installation	-11.4505
▁réduis	-11.4507
▁navette	-11.4508
▁admit	-11.4508
▁Gué	-11.451
ø	-11.4515
▁juridique	-11.4515
▁vraisemblable	-11.4516
▁Conte	-11.4517
▁pourpre	-11.4518
▁lourdes	-11.452
tari	-11.452
▁démoli	-11.452
rection	-11.452
▁anti-	-11.4521
▁classement	-11.4522
-Ho	-11.4524
▁Gouvernement	-11.4524
▁gentiment	-11.4524
▁révèle	-11.4524
▁s’engagea	-11.4525
▁surprendre	-11.4528
▁(homonymie)	-11.4533
▁D’où	-11.4533
▁reins	-11.4534
▁Début	-11.4535
▁frontières	-11.4535
▁sabots	-11.4536
organisation	-11.4545
▁constante	-11.4546
▁1928	-11.4546
▁couraient	-11.4546
▁rumeurs	-11.4554
oie	-11.4556
▁blonds	-11.4559
▁carrosse	-11.456
▁plaisait	-11.4562
▁procureur	-11.4563
graphique	-11.4564
▁nuit-là	-11.4564
jar	-11.4566
AP	-11.4567
▁semblé	-11.4569
▁voulant	-11.457
▁fesses	-11.4571
▁plate	-11.4571
▁provenant	-11.4573
▁Hong	-11.4573
illèrent	-11.4576
▁débarrassé	-11.4578
▁Bourgogne	-11.4578
▁Julia	-11.458
▁demandais	-11.4582
▁Gue	-11.4585
▁Zé	-11.4587
▁fabriquer	-11.4588
▁attente	-11.4588
▁Mieux	-11.4588
▁bourreau	-11.4591
▁déplacé	-11.4593
▁Santo	-11.4594
▁tranchant	-11.4596
égalité	-11.4596
▁culpabilité	-11.4596
▁performance	-11.4596
▁d’avant	-11.4598
▁rassemble	-11.46
▁Cau	-11.46
▁déchira	-11.4602
▁exprimer	-11.4602
▁commerciale	-11.4602
▁joyeuse	-11.4604
▁récent	-11.4604
gression	-11.4605
▁céleste	-11.4605
veux	-11.4608
tig	-11.4608
una	-11.4609
▁Guer	-11.461
▁t'	-11.461
▁ajouta-t-elle	-11.4613
▁exil	-11.4613
▁navigateur	-11.4614
▁Jordan	-11.4614
▁intervention	-11.4614
▁numérique	-11.4615
émerge	-11.4615
nova	-11.4617
▁1924	-11.4617
▁Bibliothèque	-11.4618
▁séparait	-11.4619
▁faisceau	-11.4619
▁apercevait	-11.4622
apprécie	-11.463
[8]	-11.4632
▁d’herbe	-11.4633
▁revêt	-11.4633
dj	-11.4633
▁globe	-11.4636
▁l’ancienne	-11.4637
▁passai	-11.4638
vança	-11.4641
▁impuissant	-11.4641
▁supposé	-11.4641
▁Evan	-11.4642
▁Qu’a	-11.4642
▁gang	-11.4643
▁fourra	-11.4644
▁Blake	-11.4644
▁transmettre	-11.4646
▁remplit	-11.465
▁dispositif	-11.465
▁baguette	-11.4653
▁sortaient	-11.4655
▁accompagnée	-11.4655
ffol	-11.4658
▁Victoire	-11.466
▁transporté	-11.4661
.C.	-11.4662
▁étincelle	-11.4669
▁Trou	-11.4669
▁Comte	-11.4673
▁6-4	-11.4673
mbar	-11.4674
▁thèse	-11.4675
▁Norman	-11.4676
▁l’étage	-11.4679
▁Ard	-11.4681
▁gratta	-11.4683
OUR	-11.4684
▁épouser	-11.4684
▁Radio	-11.4685
▁épousa	-11.4687
▁voyez-vous	-11.4688
▁flancs	-11.4689
object	-11.4691
Il	-11.4694
▁l’ascenseur	-11.4696
▁reconstitu	-11.4696
▁1934	-11.4699
▁perron	-11.4699
▁marquée	-11.4699
▁tenais	-11.4701
▁tuée	-11.4702
OC	-11.4704
▁d'information	-11.4706
▁ressent	-11.4706
▁l’observa	-11.4712
meur	-11.4713
▁détermination	-11.4714
▁d’essayer	-11.4714
▁publicité	-11.4715
▁XVIe	-11.4717
▁librement	-11.4718
▁joua	-11.4719
▁m’empêcher	-11.4723
▁rougi	-11.4723
▁multitude	-11.4723
▁l’éclat	-11.4723
▁Lumière	-11.4723
▁l’inconnu	-11.4725
▁baisse	-11.4725
graphe	-11.4725
▁Manuel	-11.4727
▁poutre	-11.4728
▁disposa	-11.4729
▁piqué	-11.4732
mari	-11.4732
▁verticale	-11.4732
▁Auto	-11.4733
▁intégré	-11.4734
▁Troisième	-11.4734
▁pensent	-11.4735
-dessous	-11.4736
▁pressant	-11.474
▁Live	-11.4741
▁capacités	-11.4741
▁salaud	-11.4742
phal	-11.4742
▁qu’est	-11.4744
▁Hongrie	-11.4744
▁entrailles	-11.4744
▁House	-11.4745
▁sexuelle	-11.4747
▁rétabli	-11.4748
▁ski	-11.475
▁cuisse	-11.4751
▁l’immeuble	-11.4751
▁protège	-11.4751
▁brigade	-11.4751
▁ponctu	-11.4751
▁circule	-11.4752
▁Tin	-11.4755
▁pair	-11.4757
iformes	-11.4758
▁l’aspect	-11.476
▁irait	-11.4762
DE	-11.4763
▁Tir	-11.4765
shire	-11.4765
▁adieu	-11.4766
▁modernes	-11.4766
▁impressionné	-11.4768
▁Good	-11.4769
▁Avenue	-11.477
▁l’avion	-11.477
vari	-11.4771
▁d’U	-11.4771
ploy	-11.4774
▁dispositions	-11.4775
▁Nicole	-11.4775
▁exprimé	-11.4778
▁Duncan	-11.4779
▁vitres	-11.478
▁Beck	-11.4782
mén	-11.4784
SI	-11.4786
▁semi-	-11.4788
▁entendue	-11.479
▁Années	-11.4791
QUE	-11.4791
▁comédien	-11.4793
▁ignorant	-11.4795
▁provisoire	-11.4796
▁réservoir	-11.4797
▁Wild	-11.4797
▁Nancy	-11.4798
tivité	-11.4799
▁Gren	-11.4802
migration	-11.4802
▁formant	-11.4806
▁crocs	-11.4807
▁Croix	-11.4809
lité	-11.4811
▁rapprocher	-11.4812
▁Ché	-11.4812
▁Dro	-11.4813
▁close	-11.4815
▁Cadfael	-11.4815
▁d’espoir	-11.4815
▁crochet	-11.4817
▁muette	-11.482
▁planche	-11.482
cid	-11.4821
▁(U	-11.4823
▁tennis	-11.4825
génie	-11.4827
▁séché	-11.4827
▁Empire	-11.4828
rait-elle	-11.4829
▁formait	-11.4829
cendi	-11.483
▁passe-t-il	-11.483
▁matériaux	-11.4836
▁Tommy	-11.4836
▁l’ignora	-11.4837
▁bordée	-11.4839
-15	-11.4842
▁tombaient	-11.4843
▁Arrête	-11.4843
far	-11.4843
nium	-11.4844
percevant	-11.4845
AD	-11.4849
anime	-11.485
▁racontait	-11.4851
▁vidé	-11.4851
▁étreinte	-11.4852
▁brin	-11.4852
▁Bref,	-11.4852
▁aiguë	-11.4853
▁crayon	-11.4853
▁Qu’en	-11.4853
▁décret	-11.4854
▁strict	-11.4857
▁d’affaires	-11.486
▁gaieté	-11.4861
▁imprimé	-11.4861
ppuyer	-11.4862
valle	-11.4863
▁Pel	-11.4864
▁pen	-11.4867
▁éducation	-11.487
▁raccrocha	-11.487
▁ironique	-11.487
▁Spa	-11.4871
▁février19	-11.4872
▁amas	-11.4873
▁Of	-11.4873
▁Ted	-11.4874
▁Nationalité	-11.4876
▁habitait	-11.4878
▁excuses	-11.4879
▁niveaux	-11.4879
▁Fiat	-11.4879
▁sortilège	-11.488
▁tiennent	-11.488
▁Axis	-11.4882
▁Plat	-11.4885
▁Appel	-11.4886
▁tienne	-11.4888
▁matelas	-11.4889
▁coupée	-11.489
▁Donald	-11.489
cci	-11.4891
▁aida	-11.4892
▁leçons	-11.4892
▁Wilson	-11.4894
▁arrête	-11.4894
wick	-11.4895
bba	-11.4895
▁dirais	-11.4895
▁Beth	-11.4895
▁Jonathan	-11.4898
▁plate-forme	-11.4898
▁Auguste	-11.4899
book	-11.4902
▁1912	-11.4902
▁québécois	-11.4905
iger	-11.4905
▁pointu	-11.4906
▁s’approcher	-11.4907
▁Montagne	-11.491
pass	-11.491
▁Lisa	-11.4912
▁anges	-11.4913
▁exacte	-11.4916
▁palier	-11.4917
▁successeur	-11.4917
▁quadr	-11.4918
▁tome	-11.4919
▁s’entend	-11.4922
▁manie	-11.4926
▁Continue	-11.4926
▁chocolat	-11.4926
▁Soyez	-11.4928
▁volumes	-11.4934
▁Cul	-11.4935
▁Roumanie	-11.4935
▁Siège	-11.4936
▁rêver	-11.4938
▁compartiment	-11.4945
▁Fall	-11.4948
▁rappelé	-11.495
▁revanche	-11.4953
▁l’empêcher	-11.4954
▁éclater	-11.4955
▁âgée	-11.4955
▁pensez-vous	-11.4956
▁arrêta	-11.4957
▁électro	-11.4959
▁chassa	-11.4959
explor	-11.4962
orien	-11.4963
GE	-11.4964
lotte	-11.4965
▁Suiv	-11.4967
▁réclama	-11.4973
▁réveille	-11.4974
quoi	-11.4975
cession	-11.4975
▁Autant	-11.4976
▁disposait	-11.498
▁raisonnement	-11.498
▁Marche	-11.4981
▁aise	-11.4982
cast	-11.4982
▁incrédule	-11.4982
▁couvrait	-11.4982
▁remède	-11.4983
▁sociales	-11.4988
▁surplomb	-11.4988
▁Danemark	-11.4991
▁n’attend	-11.4992
bleu	-11.4993
▁Gru	-11.4995
EUR	-11.4995
fusion	-11.4996
kon	-11.4996
▁bagarre	-11.5001
▁s?ur	-11.5001
▁Sang	-11.5002
▁600	-11.5003
PS	-11.5004
▁Kurt	-11.5008
ppé	-11.5009
▁plaisante	-11.5009
▁menée	-11.501
IB	-11.501
▁J’imagine	-11.501
Un	-11.5012
▁prendrait	-11.5017
▁fréquemment	-11.502
▁j’imagine	-11.502
▁Larry	-11.5021
▁Loire	-11.5022
île	-11.5023
▁indiquait	-11.5025
▁future	-11.5026
▁distinction	-11.5026
▁amena	-11.5028
▁Hélène	-11.503
▁accueillir	-11.5032
▁escorte	-11.5032
▁néant	-11.5033
▁vendredi	-11.5036
▁alerte	-11.5038
▁empêché	-11.5038
▁festival	-11.5038
▁légion	-11.5039
▁août19	-11.5039
▁TV	-11.504
▁musicien	-11.5042
▁1933	-11.5042
▁distrait	-11.5043
▁Suzanne	-11.5048
▁diamètre	-11.5048
▁protégée	-11.5053
▁(13	-11.5055
▁Temps	-11.5057
▁Qu’y	-11.5057
▁Chau	-11.5057
▁géographie	-11.5058
yen	-11.5061
▁traditionnel	-11.5061
▁projeté	-11.5064
’était	-11.5066
▁perçut	-11.5068
▁Dis-moi	-11.5073
▁minuscules	-11.5076
▁Bron	-11.5076
▁Little	-11.5076
▁Finlande	-11.5076
▁marchandises	-11.5077
▁Harris	-11.508
▁s’est-il	-11.5085
▁crasse	-11.5086
çons	-11.5086
▁redoute	-11.5087
pier	-11.5088
▁Yves	-11.509
▁éleva	-11.5091
ggio	-11.5091
▁attachée	-11.5093
▁habitudes	-11.5095
▁bride	-11.5095
▁fardeau	-11.5095
▁????	-11.5096
▁dirigée	-11.5097
▁Demande	-11.5101
oun	-11.5101
▁Faust	-11.5101
radi	-11.5103
▁breton	-11.5107
▁reparti	-11.511
▁Savez-vous	-11.5111
’attend	-11.5113
▁empreint	-11.5115
▁adultes	-11.5117
▁you	-11.5117
èbre	-11.5118
▁opposée	-11.5122
▁enfila	-11.5122
▁Chang	-11.5122
intervention	-11.5124
▁saluer	-11.5124
roux	-11.5125
▁huile	-11.513
▁fixée	-11.5131
▁apparaissait	-11.5133
▁pétrole	-11.5133
ssey	-11.5135
▁essaye	-11.5139
▁High	-11.514
▁faiblement	-11.514
▁calendrier	-11.5143
▁testament	-11.5143
▁s’inter	-11.5144
▁typique	-11.5145
ouche	-11.5146
▁disparaît	-11.5146
▁Damon	-11.5147
▁72	-11.515
▁clinique	-11.515
▁l’évidence	-11.5152
▁maximale	-11.5152
bère	-11.5156
▁Kel	-11.5157
excuse	-11.5158
▁croient	-11.5158
▁Carella	-11.5158
▁d’arbres	-11.5158
▁Had	-11.5159
▁afficha	-11.516
▁1929	-11.5165
▁cultiv	-11.5166
UN	-11.5166
▁mental	-11.5166
▁constitution	-11.5166
▁tournèrent	-11.5167
kel	-11.5168
▁l’angle	-11.517
▁"P	-11.517
▁perles	-11.5171
▁Anthony	-11.5171
▁distingué	-11.5171
▁musiciens	-11.5172
▁fière	-11.5173
▁notaire	-11.5173
▁lancée	-11.5174
▁troubles	-11.5175
▁nappe	-11.5176
▁mule	-11.5177
▁matrice	-11.5177
lling	-11.5177
▁télévisée	-11.5178
▁infini	-11.5178
▁spa	-11.5178
▁Donc	-11.5179
▁équipement	-11.518
▁Défense	-11.5181
▁gracieuse	-11.5181
▁lorsqu’un	-11.5181
bain	-11.5181
▁banquette	-11.5182
▁soulève	-11.5182
▁éprouver	-11.5182
▁taureau	-11.5183
▁Vieux	-11.5186
▁trouverait	-11.5187
▁reprise	-11.5187
▁Wellan	-11.519
▁tabouret	-11.519
▁dédié	-11.5193
▁l’aurais	-11.5193
stitution	-11.5193
▁varié	-11.5196
▁tirée	-11.5196
Esprit	-11.5198
▁binominal	-11.52
▁empêcha	-11.52
▁vestige	-11.52
▁écarlate	-11.52
▁préfet	-11.52
▁variable	-11.52
▁dépouille	-11.5201
▁Holmes	-11.5202
▁commencent	-11.5202
▁étude	-11.5203
▁origines	-11.5207
▁salaire	-11.521
NC	-11.5211
▁Road	-11.5212
▁seriez	-11.5213
gale	-11.5213
▁baisser	-11.5216
▁devine	-11.5217
▁administratif	-11.5219
▁approprié	-11.5219
▁tressaillit	-11.5219
▁contexte	-11.5219
▁Nantes	-11.522
trop	-11.522
▁notable	-11.522
▁préférait	-11.5221
▁reprit-elle	-11.5222
▁l'empereur	-11.5223
▁générations	-11.5224
▁empereur	-11.5225
▁fraîcheur	-11.5226
▁Bab	-11.5226
▁Holly	-11.5228
▁confidence	-11.5229
▁inévitable	-11.5229
[...]
