<s>	0
</s>	0
<unk>	0
<pad>	0
s	-3.07857
▁	-3.42949
▁de	-3.87604
e	-3.91676
,	-3.97677
.	-4.20196
t	-4.42844
▁�	-4.45686
r	-4.47058
▁la	-4.69182
n	-4.81062
�	-4.81525
c	-4.8928
y	-4.90636
▁et	-4.9591
a	-4.98866
o	-5.01778
▁le	-5.07804
u	-5.09125
i	-5.1103
-	-5.11198
▁(	-5.16033
▁en	-5.2061
l	-5.20682
)	-5.21227
d	-5.25552
▁:	-5.29914
er	-5.33009
re	-5.33749
▁du	-5.34155
▁a	-5.35743
in	-5.42285
▁19	-5.51928
p	-5.53163
f	-5.53911
▁?	-5.54196
▁des	-5.54789
le	-5.56874
ri	-5.57076
▁les	-5.58662
g	-5.59825
▁est	-5.61254
es	-5.61457
ra	-5.6279
te	-5.63846
▁S	-5.70797
ur	-5.71471
al	-5.73995
is	-5.76192
▁A	-5.771
▁|	-5.77513
m	-5.79654
▁par	-5.82096
it	-5.83136
en	-5.83459
▁-	-5.85001
on	-5.85337
b	-5.86546
▁un	-5.8687
▁l'	-5.89218
or	-5.9127
ro	-5.91728
ne	-5.95268
▁une	-5.97415
la	-5.99199
▁re	-6.00575
li	-6.00694
an	-6.03809
na	-6.05386
▁au	-6.062
▁T	-6.07238
▁dans	-6.09566
k	-6.10161
z	-6.10409
x	-6.12202
ant	-6.1265
▁C	-6.12805
▁Le	-6.15254
me	-6.15467
ment	-6.1625
▁F	-6.18118
▁La	-6.18959
que	-6.19655
ie	-6.21467
▁se	-6.21723
h	-6.2262
lo	-6.22846
v	-6.23193
ta	-6.24981
nd	-6.25232
ce	-6.25247
ar	-6.26022
▁con	-6.26035
▁pour	-6.2737
di	-6.27423
▁B	-6.30246
▁P	-6.30291
?	-6.32404
A	-6.32419
us	-6.32973
ation	-6.33477
t�	-6.33648
S	-6.34802
de	-6.35099
ou	-6.35759
ent	-6.35891
r�	-6.36216
▁sur	-6.36834
nt	-6.39075
s,	-6.39226
▁G	-6.39967
▁in	-6.40294
▁qui	-6.40772
ch	-6.40916
ci	-6.41032
il	-6.41249
vi	-6.42114
▁E	-6.42559
ti	-6.43233
▁r�	-6.43589
▁1	-6.44559
▁m	-6.44605
ge	-6.45907
che	-6.48058
▁f	-6.48394
▁d�	-6.49278
ter	-6.50693
I	-6.52745
w	-6.53592
co	-6.54062
mp	-6.55244
▁p	-6.55575
▁2	-6.55908
ve	-6.56298
▁Ma	-6.56548
ine	-6.5671
tre	-6.57534
▁que	-6.58597
▁the	-6.59017
th	-6.60202
mi	-6.60436
C	-6.62577
ni	-6.62827
▁pro	-6.62962
/	-6.63455
age	-6.6395
]]	-6.64995
▁il	-6.65109
to	-6.65824
'	-6.6691
>	-6.67542
▁d'	-6.67643
at	-6.68592
da	-6.69405
ver	-6.69609
▁O	-6.69952
ir	-6.70081
no	-6.70414
s.	-6.71408
:	-6.71822
l�	-6.72301
E	-6.7339
▁Il	-6.73732
pe	-6.74026
▁sa	-6.74273
▁ca	-6.74444
ique	-6.74638
�e	-6.75971
im	-6.76793
▁of	-6.77189
▁ce	-6.79177
sse	-6.79398
▁K	-6.80468
▁ou	-6.80504
▁<	-6.82716
ing	-6.82722
ut	-6.82924
▁di	-6.8461
▁I	-6.85083
▁plus	-6.85214
L	-6.85574
▁son	-6.86077
▁avec	-6.86341
st	-6.86354
▁M	-6.86417
aire	-6.86958
ho	-6.87387
M	-6.87412
ll	-6.87492
▁[[	-6.87644
▁18	-6.88481
▁3	-6.90166
▁D	-6.90181
ia	-6.90946
▁Ca	-6.91255
R	-6.91674
#	-6.92313
lu	-6.92436
el	-6.92499
ng	-6.93004
▁l'a	-6.94085
m�	-6.94887
it�	-6.95081
lle	-6.9525
▁pas	-6.96962
mb	-6.97114
▁Ro	-6.97316
ma	-6.97756
ol	-6.9797
ff	-6.98351
"	-6.9895
P	-6.99293
ion	-6.99785
▁ma	-6.99991
▁Les	-7.00375
T	-7.00467
▁vi	-7.01156
),	-7.01251
▁sont	-7.01403
D	-7.01743
▁En	-7.02197
les	-7.02678
ard	-7.02772
min	-7.03625
ul	-7.04097
ca	-7.04357
hi	-7.04837
N	-7.05162
ck	-7.06682
au	-7.06917
20	-7.08406
).	-7.08576
ic	-7.08584
▁W	-7.0917
19	-7.09538
op	-7.1022
port	-7.10334
▁mo	-7.10947
va	-7.11063
c�	-7.11119
ille	-7.11124
eur	-7.11648
F	-7.11733
ba	-7.12204
▁4	-7.12966
tra	-7.13852
ance	-7.14035
iste	-7.14827
tes	-7.14839
▁co	-7.15079
▁6	-7.15356
go	-7.15417
elle	-7.15476
ga	-7.16091
▁De	-7.16393
ement	-7.17253
mo	-7.17315
�t	-7.17872
aux	-7.18802
▁ba	-7.18848
▁V	-7.19528
ill	-7.19983
▁vo	-7.20543
ale	-7.20671
v�	-7.21108
▁Mar	-7.21135
ence	-7.21219
tu	-7.21892
B	-7.22129
▁to	-7.23517
gi	-7.23874
2	-7.23983
H	-7.24258
▁po	-7.24447
▁Re	-7.24649
▁d'a	-7.24657
▁comme	-7.2466
e,	-7.24724
O	-7.25122
po	-7.25587
ign	-7.257
ord	-7.25989
▁L'	-7.26572
du	-7.26616
▁ne	-7.26853
ction	-7.28216
00	-7.28406
man	-7.28794
▁article	-7.29104
▁Li	-7.2929
pa	-7.29381
▁Mo	-7.29415
�re	-7.29667
ha	-7.29797
n�	-7.30336
he	-7.30471
▁No	-7.30568
▁N	-7.30797
▁5	-7.30804
▁fa	-7.3083
eux	-7.31512
um	-7.31649
ier	-7.3214
▁comp	-7.3215
▁cha	-7.32491
▁L	-7.32725
j	-7.33213
▁Ba	-7.33416
tte	-7.33488
G	-7.34448
ed	-7.34534
=	-7.34927
V	-7.35468
ly	-7.35642
▁su	-7.35817
▁France	-7.36097
▁Portail	-7.36692
ide	-7.36718
▁Lo	-7.37578
]	-7.37935
▁li	-7.38162
[	-7.38179
id	-7.38928
ois	-7.39029
un	-7.39447
gne	-7.39622
▁aux	-7.39934
vo	-7.40511
ten	-7.40529
▁ex	-7.41062
tri	-7.41347
am	-7.42394
▁do	-7.42407
cu	-7.42613
sion	-7.42803
pi	-7.43081
rie	-7.43555
ran	-7.43678
est	-7.43811
▁g	-7.44008
▁Sa	-7.44351
▁and	-7.44425
▁Pa	-7.45144
▁An	-7.45577
ton	-7.45775
ien	-7.45892
▁H	-7.46172
▁l'�	-7.46547
▁pr�	-7.46669
do	-7.46825
▁The	-7.47063
son	-7.47248
▁Ha	-7.4775
▁Di	-7.48337
▁"	-7.48427
ron	-7.48441
▁ch	-7.48505
▁Vi	-7.48949
ure	-7.4901
▁Al	-7.49227
U	-7.49301
▁;	-7.49864
▁s'	-7.50278
ue	-7.50428
▁Se	-7.50884
▁Bo	-7.5182
ry	-7.52076
▁Co	-7.52288
tique	-7.52376
nce	-7.52608
▁Po	-7.52644
i�re	-7.52791
ac	-7.52953
gue	-7.53127
tant	-7.53791
d�	-7.54132
▁Mi	-7.54622
▁d'un	-7.54939
▁for	-7.55074
om	-7.55315
ph	-7.55623
▁deux	-7.56586
▁7	-7.56925
▁tra	-7.57006
ise	-7.57244
▁Me	-7.57461
�s	-7.57526
bu	-7.57688
▁In	-7.579
▁m�	-7.57908
qui	-7.57991
ru	-7.5824
able	-7.5848
▁Su	-7.58959
▁0	-7.59442
3	-7.60518
g�	-7.60831
▁d'A	-7.6129
h�	-7.61301
tro	-7.61569
▁Un	-7.61747
bi	-7.618
▁com	-7.6216
tion	-7.62293
▁(19	-7.62308
be	-7.62537
▁�t�	-7.62638
ait	-7.62698
ad	-7.6274
▁J	-7.63447
▁nom	-7.63694
�me	-7.63841
rou	-7.64113
▁Cet	-7.64452
▁R	-7.64514
gu	-7.64603
▁d'une	-7.64767
▁Ra	-7.65239
▁Da	-7.65562
ive	-7.65592
▁ra	-7.65667
eau	-7.65804
ite	-7.66026
▁Ar	-7.66213
▁17	-7.66591
tin	-7.67111
1	-7.67584
ire	-7.6759
ke	-7.6815
▁Ga	-7.68192
▁mais	-7.68414
ud	-7.6862
▁Ce	-7.68676
ture	-7.68865
▁Com	-7.69333
ist	-7.69723
art	-7.69998
▁Con	-7.70023
ig	-7.70077
▁entre	-7.7021
▁ses	-7.70308
pp	-7.70833
▁dis	-7.71271
4	-7.71847
▁8	-7.72238
▁Cha	-7.72735
▁pa	-7.7294
ble	-7.73139
▁leur	-7.73423
p�	-7.73446
▁an	-7.73927
▁fut	-7.73989
▁U	-7.74212
▁fait	-7.7484
cul	-7.75231
▁To	-7.75447
pos	-7.76224
bo	-7.76514
5	-7.76742
use	-7.76771
con	-7.77047
|	-7.77819
▁Ho	-7.7797
▁concernant	-7.78181
land	-7.78719
▁tout	-7.78865
▁no	-7.78875
�es	-7.78932
▁Si	-7.79094
18	-7.79398
▁Vous	-7.79762
▁connaissances	-7.80103
▁w	-7.80196
30	-7.80376
pr�s	-7.80456
▁Pe	-7.80665
ix	-7.81087
▁bo	-7.81121
▁si	-7.81167
▁pouvez	-7.81197
▁Be	-7.81418
50	-7.81426
▁partager	-7.81536
oc	-7.82167
lon	-7.82203
▁(Comment	-7.82434
▁10	-7.82468
am�liorant.	-7.82515
0	-7.82697
▁Y	-7.82733
▁9	-7.82794
▁Au	-7.82902
▁commune	-7.83064
▁�bauche	-7.83291
▁cette	-7.83854
ki	-7.84152
''	-7.84192
�tre	-7.84318
▁Par	-7.84397
n�e	-7.84897
teur	-7.84966
▁d�c	-7.85039
aires	-7.85048
▁R�	-7.85125
▁pri	-7.85849
▁Jean	-7.86207
ienne	-7.86239
▁Ja	-7.86332
▁mar	-7.87041
nes	-7.87369
▁va	-7.88856
je	-7.89028
▁vos	-7.89184
ations	-7.89483
qua	-7.89554
ld	-7.89633
rent	-7.89925
▁on	-7.90074
pt	-7.90598
dition	-7.90729
io	-7.90813
▁l'A	-7.91066
ka	-7.91264
th�	-7.91415
J	-7.91616
ndre	-7.91947
▁Z	-7.9216
val	-7.9218
6	-7.92341
der	-7.92448
▁m�me	-7.92455
gra	-7.9286
ect	-7.92926
isse	-7.93104
lement	-7.93183
bre	-7.93882
per	-7.94187
▁X	-7.94238
▁n�	-7.94702
ab	-7.94728
mme	-7.94902
▁He	-7.94936
mon	-7.95155
25	-7.9524
cteur	-7.95349
▁app	-7.95536
pu	-7.9578
17	-7.958
mand	-7.95921
▁st	-7.96003
▁Ch	-7.96171
▁Do	-7.96185
▁15	-7.96214
▁elle	-7.96327
▁Paris	-7.9645
22	-7.96583
isme	-7.96751
▁16	-7.97005
ateur	-7.97145
eurs	-7.97175
chi	-7.97356
▁si�cle	-7.97363
▁Na	-7.97569
▁sous	-7.97843
▁so	-7.97896
com	-7.97978
▁mon	-7.98106
▁d'�	-7.98687
tal	-7.99195
21	-7.99291
-19	-7.99295
10	-7.99338
▁be	-7.99758
lin	-7.99792
▁aussi	-8.00118
▁Ju	-8.00585
isation	-8.00667
▁ont	-8.00763
lan	-8.01142
▁tour	-8.01303
if	-8.01617
▁?).	-8.02072
▁qu'il	-8.02087
▁�tait	-8.02168
▁Car	-8.02316
▁Saint-	-8.02565
▁Elle	-8.02631
▁Jo	-8.0275
iques	-8.03166
▁ville	-8.03189
onne	-8.04278
serv	-8.04386
▁lui	-8.04744
wa	-8.04774
▁D�	-8.04889
▁ha	-8.05108
%	-8.05239
uve	-8.05315
40	-8.05578
80	-8.05635
ow	-8.0604
▁per	-8.06174
▁*	-8.06475
ch�	-8.0653
(	-8.06553
ven	-8.07184
ologie	-8.07348
▁12	-8.07749
▁Du	-8.08414
24	-8.08642
▁sans	-8.08706
▁fin	-8.08724
;	-8.08775
▁ga	-8.09621
vent	-8.09621
ient	-8.09644
em	-8.09864
sta	-8.1004
▁premier	-8.10144
za	-8.10171
▁puis	-8.10453
▁Ta	-8.10966
60	-8.11436
tif	-8.11519
bli	-8.11719
▁fi	-8.11834
▁peut	-8.11934
▁Pro	-8.12322
11	-8.12642
ssa	-8.1361
23	-8.13692
▁ju	-8.13836
ub	-8.13952
lla	-8.14191
▁cr�	-8.14555
▁partie	-8.14605
70	-8.14626
nom	-8.15002
8	-8.1502
lli	-8.15085
tel	-8.15394
26	-8.15434
▁jour	-8.15486
28	-8.15767
▁vers	-8.15915
▁acc	-8.15959
▁dont	-8.15979
▁l'in	-8.16056
Q	-8.16092
▁14	-8.16169
qu�	-8.16458
oire	-8.16604
14	-8.16623
▁inter	-8.16796
form	-8.17074
▁pre	-8.17131
▁So	-8.17143
▁qu'	-8.17348
16	-8.17653
27	-8.1787
K	-8.18003
▁Go	-8.18117
▁11	-8.1819
▁Gu	-8.1836
▁car	-8.18534
▁Vo	-8.18745
▁Mu	-8.18836
par	-8.1884
▁Lu	-8.1903
ler	-8.19237
15	-8.19332
▁mai	-8.19348
▁13	-8.19463
▁o�	-8.19505
▁sou	-8.20133
W	-8.20804
b�	-8.20872
75	-8.21319
01	-8.21588
ja	-8.21782
cha	-8.21801
▁Sta	-8.21903
▁g�n�ral	-8.22068
▁bi	-8.22347
▁Ri	-8.22449
fa	-8.22455
▁Te	-8.22548
▁Cette	-8.22644
7	-8.23221
▁�tre	-8.23234
▁San	-8.23277
12	-8.23312
▁Bi	-8.23376
ense	-8.23403
hy	-8.23596
▁Mont	-8.23642
▁Bu	-8.23663
ric	-8.23707
29	-8.23731
ica	-8.23732
rait	-8.23813
▁Ka	-8.23867
▁2007	-8.24021
hu	-8.24145
▁ob	-8.24151
▁fran�ais	-8.24164
vant	-8.24428
31	-8.24446
▁20	-8.25223
vision	-8.26042
iers	-8.26058
33	-8.26253
up	-8.26332
▁Wa	-8.26534
X	-8.26581
ko	-8.26772
▁Pour	-8.26872
log	-8.27428
93	-8.27709
94	-8.27794
&quot;	-8.27838
▁tr�s	-8.27849
45	-8.2799
05	-8.28057
91	-8.28222
88	-8.28237
ante	-8.28272
▁r�gion	-8.28343
89	-8.28352
tr�	-8.28418
main	-8.28487
▁alors	-8.28506
�rie	-8.28764
44	-8.28989
▁Ni	-8.2919
mer	-8.29349
pla	-8.29483
▁2001	-8.29591
07	-8.29658
mar	-8.29957
and	-8.30032
ult	-8.30074
92	-8.30086
▁Fa	-8.30322
f�r	-8.30324
ifi	-8.30978
▁lors	-8.32055
don	-8.32113
▁1999	-8.32281
▁bien	-8.32431
act	-8.32537
▁On	-8.32589
bri	-8.32969
▁2000	-8.33322
48	-8.33685
ger	-8.33828
▁2006	-8.33877
04	-8.3393
▁groupe	-8.34307
▁monde	-8.34467
cour	-8.34718
▁ci	-8.34838
▁premi�re	-8.34936
gr�	-8.35027
▁�galement	-8.35454
gh	-8.35671
13	-8.35856
uel	-8.35892
▁Mon	-8.35908
▁national	-8.36117
▁contre	-8.36182
▁ru	-8.36427
bert	-8.36455
cent	-8.36912
ner	-8.36915
02	-8.37386
▁ainsi	-8.37442
▁mars	-8.37479
▁trois	-8.37572
86	-8.37764
▁M�	-8.38122
▁ans	-8.38227
03	-8.38822
▁fond	-8.3892
[[	-8.39491
gen	-8.39615
▁man	-8.397
▁trans	-8.39782
aient	-8.39873
55	-8.40076
35	-8.40299
▁apr�s	-8.40299
enne	-8.40696
66	-8.40712
08	-8.40821
▁Wi	-8.41067
▁s�	-8.41111
▁Va	-8.41281
-C	-8.41313
▁grand	-8.41323
32	-8.41674
90	-8.41793
ther	-8.42145
(en)	-8.42567
▁Fi	-8.42603
ographie	-8.42689
77	-8.42745
▁parti	-8.42788
78	-8.42799
▁politique	-8.42826
85	-8.42872
▁Pays	-8.43239
▁2005	-8.43891
36	-8.43989
duction	-8.44136
9	-8.44254
81	-8.44395
tation	-8.44454
tic	-8.44754
▁situ�	-8.448
▁cour	-8.44883
�n�	-8.44959
▁mort	-8.45415
84	-8.4542
47	-8.45478
�ration	-8.45702
▁film	-8.45748
56	-8.45998
▁Pi	-8.46295
▁cours	-8.46618
tent	-8.46684
46	-8.46724
tan	-8.46889
position	-8.47022
▁For	-8.47299
vre	-8.47511
...	-8.47538
83	-8.47773
rant	-8.48094
+	-8.48133
▁depuis	-8.4823
87	-8.4829
43	-8.4832
▁Man	-8.48376
64	-8.48773
▁peu	-8.48796
72	-8.48882
tta	-8.49055
III	-8.4922
Z	-8.49221
-P	-8.49248
ule	-8.49249
lic	-8.498
▁2004	-8.50122
65	-8.50138
!	-8.50159
▁fr	-8.50344
mat	-8.50356
▁ann�es	-8.50449
mm	-8.50462
▁auto	-8.50615
ang	-8.50646
61	-8.50691
52	-8.50898
▁g�	-8.51322
42	-8.51361
67	-8.51366
38	-8.51416
nement	-8.51461
41	-8.51494
▁Bar	-8.5182
49	-8.51928
-B	-8.51945
71	-8.52001
▁voir	-8.52083
39	-8.52148
dou	-8.52249
ade	-8.52383
ition	-8.52611
76	-8.52662
▁000	-8.5286
34	-8.52888
▁pays	-8.529
▁2002	-8.53003
53	-8.53018
▁�tats-Unis	-8.53219
37	-8.53464
van	-8.53711
51	-8.54034
q	-8.54043
▁nu	-8.54093
58	-8.54201
▁coll	-8.54227
▁encore	-8.54513
▁point	-8.54822
▁certain	-8.54837
▁Ne	-8.54934
ront	-8.55462
▁juin	-8.55684
jo	-8.55716
lect	-8.55745
▁Grand	-8.55777
73	-8.55933
▁Cor	-8.55966
ative	-8.56136
zo	-8.56591
ose	-8.56669
▁Col	-8.56807
▁Dans	-8.56825
▁Liens	-8.56972
voir	-8.57017
l�g	-8.57054
ution	-8.57114
79	-8.57249
[1]	-8.57729
mission	-8.57771
▁connu	-8.57955
jou	-8.58026
59	-8.58048
ible	-8.58635
volution	-8.58779
▁sol	-8.59135
54	-8.59276
74	-8.59297
id�	-8.5956
is�	-8.59653
▁Sou	-8.59691
▁II	-8.59692
▁Ver	-8.59693
▁C'est	-8.59732
57	-8.59982
▁d'in	-8.60187
▁septembre	-8.60299
▁l'E	-8.6031
lais	-8.606
▁long	-8.60683
▁Ber	-8.60691
prise	-8.6101
formation	-8.61204
ight	-8.61207
alit�	-8.61373
▁petit	-8.61413
▁plusieurs	-8.61515
tru	-8.61812
▁seul	-8.61819
▁Nord	-8.62333
ban	-8.62535
▁Hu	-8.62694
gan	-8.62787
▁permet	-8.62846
63	-8.63022
▁(1	-8.63509
▁n'	-8.63657
▁droit	-8.6368
▁Val	-8.63744
bra	-8.64025
▁janvier	-8.64792
▁avant	-8.64968
▁fran�aise	-8.65146
▁2003	-8.65701
▁non	-8.65747
▁2008	-8.65944
▁jeu	-8.66177
mont	-8.66479
▁exp	-8.66908
▁diff�rent	-8.67029
class	-8.67167
▁Son	-8.67343
▁forme	-8.67649
ssin	-8.67675
06	-8.6771
▁(C	-8.67799
▁place	-8.68029
venu	-8.68037
ville	-8.6815
▁grande	-8.68201
▁avril	-8.68241
histoire	-8.68285
(s)	-8.6834
▁Chi	-8.68587
▁partir	-8.68592
▁Ru	-8.68794
69	-8.68799
euse	-8.69205
spect	-8.69471
▁externes	-8.69511
??????	-8.69649
-1	-8.69834
▁pr�sent	-8.6986
han	-8.69894
▁octobre	-8.69898
▁plan	-8.70035
</	-8.70333
▁personne	-8.70486
▁Je	-8.70764
▁Gi	-8.70898
▁temps	-8.71046
car	-8.71194
▁Liste	-8.71464
▁juillet	-8.7192
nger	-8.71994
▁fois	-8.72124
&	-8.72745
▁1990	-8.7279
▁donn�	-8.73066
▁n'est	-8.73327
}}}	-8.73345
▁famille	-8.73797
▁d�cembre	-8.74292
ical	-8.74337
09	-8.74539
part	-8.7462
pha	-8.74778
▁ao�t	-8.74794
▁s�rie	-8.74995
▁novembre	-8.75075
▁avait	-8.75086
▁population	-8.75248
}	-8.75264
▁Histoire	-8.75422
▁faire	-8.75508
▁l'ex	-8.75544
▁Bou	-8.75933
text	-8.76007
▁John	-8.7609
aison	-8.76336
▁officiel	-8.7658
▁Parti	-8.76724
time	-8.76737
▁XV	-8.7689
99	-8.77094
▁tous	-8.77289
▁Code	-8.77474
�lection	-8.77645
▁Che	-8.78115
▁{{{	-8.7827
▁New	-8.78337
95	-8.78425
bourg	-8.7845
▁imp	-8.78742
▁�quipe	-8.79124
bel	-8.79159
▁lieu	-8.79319
▁travail	-8.79332
▁Louis	-8.79497
▁am�ricain	-8.79507
98	-8.7968
struct	-8.79737
▁1998	-8.80083
arch	-8.80239
97	-8.80345
▁page	-8.80544
▁(18	-8.80657
▁guerre	-8.80768
▁homme	-8.80808
▁donc	-8.80982
▁projet	-8.81258
▁Pierre	-8.81427
▁d�but	-8.81573
▁not	-8.81873
96	-8.82078
&lt;	-8.82394
&gt;	-8.82444
▁Hi	-8.82632
▁site	-8.82926
▁Sch	-8.8334
▁titre	-8.8364
bou	-8.83923
▁f�vrier	-8.84187
▁Pla	-8.84474
▁n'a	-8.84605
ham	-8.86015
▁fonction	-8.86189
▁ancien	-8.86344
?uvre	-8.86374
▁l'O	-8.86702
▁trouve	-8.86974
▁Saint	-8.87325
The	-8.8738
ctor	-8.87996
▁musique	-8.88089
▁d�partement	-8.88281
▁second	-8.88851
▁membre	-8.8893
▁km	-8.88997
▁nombre	-8.89087
62	-8.89089
▁nouveau	-8.89373
▁Tour	-8.89442
▁principal	-8.89472
▁Bri	-8.89565
▁celle	-8.89801
▁nouvelle	-8.90128
▁but	-8.90315
▁1962	-8.90325
▁commun	-8.9075
▁l'un	-8.91104
▁roi	-8.91112
▁d'en	-8.91339
82	-8.92182
matique	-8.92224
▁Population	-8.92607
uvr	-8.92934
▁football	-8.93246
pression	-8.93719
▁km�	-8.9403
▁s'a	-8.94054
▁with	-8.94334
source	-8.94477
▁important	-8.94537
▁t�l�	-8.94842
-Ma	-8.94959
▁soit	-8.95045
▁avoir	-8.95262
▁utilis�	-8.95419
▁trou	-8.95476
▁Paul	-8.96202
68	-8.96834
Y	-8.96834
▁ligne	-8.96879
▁moins	-8.96927
▁public	-8.96933
▁notamment	-8.97502
mor	-8.97629
▁d'I	-8.97754
▁Charles	-8.98197
graph	-8.98564
▁haut	-8.98711
▁met	-8.98958
▁organ	-8.99183
▁jeune	-8.99267
▁c'est	-8.99609
tivit�	-9.00157
▁suite	-9.00391
▁coup	-9.0097
phi	-9.01017
▁1997	-9.01097
▁sorti	-9.01115
▁syst�me	-9.01782
univers	-9.02089
mun	-9.02145
ification	-9.02814
▁moyen	-9.02845
▁hab.	-9.03075
▁habitants	-9.03105
▁1996	-9.03355
▁quelques	-9.03731
▁pendant	-9.03899
▁that	-9.03911
assi	-9.04042
▁sp	-9.04103
▁nord	-9.04108
▁R�gion	-9.04321
berg	-9.04451
▁d'O	-9.04542
▁sub	-9.0456
-de-	-9.04776
bb	-9.04829
▁was	-9.05035
▁1995	-9.05332
'''	-9.05358
▁Christ	-9.05366
▁dernier	-9.05681
▁selon	-9.06052
▁Robert	-9.06359
quant	-9.06422
▁celui	-9.06647
▁femme	-9.06759
▁joueur	-9.07191
▁1982	-9.08119
▁fils	-9.08561
▁Superficie	-9.09483
▁homonymes	-9.09527
�tude	-9.09568
▁reste	-9.09712
▁Inter	-9.09872
▁service	-9.10151
▁suivant	-9.10219
▁1968	-9.10796
▁social	-9.10943
▁Canton	-9.11072
venir	-9.11103
▁souvent	-9.11104
_	-9.11272
▁George	-9.1168
▁R�f�rence	-9.11907
▁exemple	-9.11998
▁finale	-9.12861
*	-9.12865
▁club	-9.14206
▁produit	-9.14956
▁loi	-9.15117
000	-9.15522
▁nature	-9.15714
▁Canada	-9.15802
▁Michel	-9.15905
▁d'ex	-9.1611
▁village	-9.16156
▁actuel	-9.16255
▁saison	-9.16308
[2]	-9.16582
▁chef	-9.17144
ologique	-9.17164
▁Ph	-9.17292
▁Franc	-9.17368
▁Qua	-9.17471
▁appel�	-9.17777
▁province	-9.18263
p�ri	-9.18548
▁d'autres	-9.18626
▁d�veloppe	-9.19162
▁Densit�	-9.19284
▁Communes	-9.19407
▁nombreux	-9.20516
▁devient	-9.20613
▁anglais	-9.20641
qu'	-9.21449
▁type	-9.21513
▁�crit	-9.218
▁sujet	-9.2199
▁terre	-9.21994
▁pr�sident	-9.22465
▁Italie	-9.22619
▁Jacques	-9.22718
▁international	-9.22743
▁livre	-9.22808
▁technique	-9.22895
▁match	-9.22988
fran�ais	-9.22995
▁from	-9.23252
▁gouvernement	-9.23276
▁pouvoir	-9.23277
▁centre	-9.2383
▁limit	-9.23832
▁effet	-9.2394
▁jusqu'�	-9.24119
▁Arrondissement	-9.24479
▁classique	-9.25344
magn	-9.25542
appel	-9.25581
▁d�taill�	-9.25594
▁roman	-9.25608
▁qu'un	-9.26131
▁langue	-9.26411
change	-9.26487
http://www.	-9.2672
▁quatre	-9.26843
▁culture	-9.27229
▁donne	-9.27491
▁militaire	-9.2778
cycl	-9.2821
▁chez	-9.28404
▁tard	-9.29117
▁l'�tat	-9.29201
-sur-	-9.29418
▁toujours	-9.29661
▁R�publique	-9.29824
▁�tat	-9.30018
▁lettre	-9.301
▁allemand	-9.30153
fond	-9.30506
2006	-9.30837
▁soci�t�	-9.3144
▁Coupe	-9.32539
▁hab./km�	-9.32915
▁niveau	-9.33065
itude	-9.33132
▁Philip	-9.33168
▁Guerre	-9.33373
▁environ	-9.33823
▁Port	-9.34447
▁�taient	-9.34775
▁Nombre	-9.35336
▁simple	-9.35617
▁meilleur	-9.36106
▁local	-9.36261
▁rapport	-9.3631
▁National	-9.36461
&amp;	-9.36599
▁Club	-9.36698
▁peuvent	-9.36761
▁G�ographie	-9.3739
▁cin�ma	-9.37947
▁Prix	-9.38002
▁visite	-9.38024
ographique	-9.38231
▁syn	-9.38237
▁Qu�bec	-9.38329
▁Article	-9.38478
▁York	-9.38836
▁italien	-9.38945
▁postal	-9.38958
▁Altitude	-9.39132
▁conseil	-9.39148
aujourd'hui	-9.3928
▁document	-9.39431
~	-9.48965
{	-9.96726
$	-10.2353
\	-10.5916
é	-11.1835
@	-11.2992
а	-11.5136
`	-11.5388
á	-11.6813
и	-11.8033
е	-11.8337
р	-11.8372
н	-11.858
о	-11.8722
^	-11.9197
í	-12.0729
ó	-12.218
т	-12.2697
л	-12.313
ו	-12.3242
י	-12.3242
с	-12.3526
к	-12.443
ö	-12.4686
<	-12.5102
–	-12.5217
’	-12.5355
ا	-12.5998
м	-12.6607
ä	-12.6765
—	-12.7255
в	-12.7858
ר	-12.7858
ü	-12.8128
д	-12.8887
°	-12.9187
А	-12.9496
у	-12.9816
ο	-13.0258
ل	-13.1205
ā	-13.133
א	-13.1457
з	-13.1715
α	-13.1715
ر	-13.1846
п	-13.2115
è	-13.2391
ל	-13.2391
я	-13.2532
г	-13.2674
і	-13.2819
”	-13.3421
و	-13.3421
נ	-13.3577
ي	-13.3577
ç	-13.3736
“	-13.3897
ン	-13.3897
ק	-13.3897
ה	-13.3897
ð	-13.4061
م	-13.4228
ー	-13.4228
ن	-13.4228
מ	-13.4397
ט	-13.4745
ν	-13.4745
É	-13.4924
б	-13.5106
ת	-13.5106
й	-13.5291
ú	-13.5479
ס	-13.5479
ō	-13.5479
ב	-13.5868
ь	-13.648
ד	-13.648
Б	-13.691
Г	-13.7133
ب	-13.7133
ی	-13.7133
ø	-13.736
č	-13.736
د	-13.736
・	-13.7592
س	-13.7592
ρ	-13.7593
ι	-13.7593
ô	-13.7831
ג	-13.7831
ł	-13.8074
ə	-13.8074
ы	-13.8324
à	-13.8581
К	-13.8844
ア	-13.8844
å	-13.9114
פ	-13.9114
æ	-13.9114
λ	-13.9114
า	-13.9392
ф	-13.9392
ル	-13.9392
ɛ	-13.9678
ם	-13.9678
ス	-13.9678
ã	-14.0275
ë	-14.0275
ς	-14.0275
ˈ	-14.0587
τ	-14.0588
ε	-14.0588
Д	-14.091
ː	-14.091
ت	-14.1243
κ	-14.1243
ร	-14.1588
ש	-14.1588
ч	-14.1588
リ	-14.1588
Á	-14.1588
ן	-14.1588
ý	-14.1945
ί	-14.1945
×	-14.1945
Х	-14.2316
ه	-14.2316
イ	-14.2316
ク	-14.2316
ц	-14.2316
ม	-14.2316
â	-14.27
μ	-14.27
்	-14.31
ê	-14.31
ž	-14.31
ж	-14.31
ك	-14.31
σ	-14.3101
เ	-14.3517
ა	-14.3517
ラ	-14.3517
ة	-14.3517
ְ	-14.3517
ּ	-14.3952
И	-14.3952
ト	-14.3952
·	-14.3952
ف	-14.3952
υ	-14.3952
ล	-14.4406
อ	-14.4406
ñ	-14.4406
ă	-14.4406
ę	-14.4406
ъ	-14.4406
ɪ	-14.4406
צ	-14.4406
ī	-14.4406
х	-14.4882
ი	-14.4882
š	-14.4883
ח	-14.4883
М	-14.5382
ю	-14.5382
ū	-14.5382
Е	-14.5382
‘	-14.5382
Ф	-14.5382
ド	-14.5383
ј	-14.5909
น	-14.5909
ค	-14.5909
ע	-14.5909
ッ	-14.5909
ิ	-14.6464
≡	-14.6464
π	-14.6464
θ	-14.6465
η	-14.6465
П	-14.7053
С	-14.7053
ج	-14.7053
£	-14.7053
ß	-14.7053
カ	-14.7053
シ	-14.7053
ɑ	-14.7053
β	-14.7053
ָ	-14.7678
ก	-14.7678
õ	-14.7678
ַ	-14.7678
ć	-14.7678
ı	-14.7678
Î	-14.7678
რ	-14.7678
ე	-14.7678
ē	-14.7678
ต	-14.8344
ì	-14.8344
ě	-14.8344
ʃ	-14.8344
ส	-14.8344
ロ	-14.8344
이	-14.8344
க	-14.9058
ा	-14.9059
フ	-14.9059
ع	-14.9059
ό	-14.9059
ั	-14.9059
ή	-14.9059
Å	-14.9827
ி	-14.9828
Č	-14.9828
ี	-14.9828
⁄	-14.9828
ï	-14.9828
レ	-14.9828
デ	-14.9828
ṇ	-14.9828
أ	-14.9828
ک	-14.9828
φ	-14.9828
γ	-14.9828
ด	-15.0661
エ	-15.0661
ń	-15.0661
ว	-15.0661
ジ	-15.0661
ù	-15.0661
ė	-15.0661
스	-15.0661
ω	-15.0661
ř	-15.157
э	-15.157
Æ	-15.157
Ö	-15.157
์	-15.157
ò	-15.157
ح	-15.157
ط	-15.157
्	-15.157
コ	-15.157
皇	-15.157
ო	-15.157
Э	-15.157
프	-15.157
ɔ	-15.157
ш	-15.157
ش	-15.157
タ	-15.157
리	-15.157
ṣ	-15.157
月	-15.157
日	-15.157
ʊ	-15.157
χ	-15.1571
إ	-15.257
ட	-15.257
の	-15.257
్	-15.257
î	-15.257
ś	-15.257
غ	-15.257
ŋ	-15.257
ق	-15.257
ブ	-15.257
ż	-15.257
ム	-15.257
ɹ	-15.257
δ	-15.257
ά	-15.2571
ز	-15.3681
ல	-15.3681
ท	-15.3681
ィ	-15.3681
グ	-15.3681
大	-15.3681
ベ	-15.3681
ย	-15.3681
ֹ	-15.3681
ׁ	-15.3681
ლ	-15.3681
▄	-15.3681
ニ	-15.3681
§	-15.3681
ガ	-15.3681
ą	-15.3681
天	-15.3681
数	-15.3681
斯	-15.3681
学	-15.3681
ュ	-15.3681
đ	-15.3682
Ε	-15.4931
แ	-15.4931
ง	-15.4931
ர	-15.4931
́	-15.4931
ს	-15.4931
Ä	-15.4931
Í	-15.4931
Α	-15.4931
ў	-15.4931
ז	-15.4931
€	-15.4931
일	-15.4931
Ó	-15.4931
ウ	-15.4931
ハ	-15.4931
Κ	-15.4931
利	-15.4931
پ	-15.4931
ุ	-15.4931
ャ	-15.4931
্	-15.636
ப	-15.636
О	-15.636
Β	-15.636
帝	-15.636
न	-15.636
โ	-15.636
特	-15.636
ర	-15.636
ェ	-15.636
Ç	-15.636
ţ	-15.636
В	-15.636
Л	-15.636
월	-15.636
ŭ	-15.636
世	-15.636
ʔ	-15.636
ˌ	-15.636
↓	-15.636
트	-15.636
ヘ	-15.636
合	-15.636
ვ	-15.636
ธ	-15.636
ų	-15.8026
ব	-15.8026
±	-15.8027
아	-15.8027
ʧ	-15.8027
Δ	-15.8027
כ	-15.8027
र	-15.8027
ि	-15.8027
ห	-15.8027
ბ	-15.8027
−	-15.8027
≈	-15.8027
ズ	-15.8027
亚	-15.8027
物	-15.8027
І	-15.8027
Ж	-15.8027
기	-15.8027
카	-15.8027
ї	-15.8027
آ	-15.8027
海	-15.8027
어	-15.8027
ő	-15.8027
主	-15.8027
国	-15.8027
þ	-15.8027
่	-15.8027
キ	-15.8027
基	-15.8027
州	-15.8027
英	-15.8027
バ	-15.8027
ʤ	-15.8027
ա	-15.8027
会	-15.8027
Γ	-15.8027
メ	-15.8027
文	-15.8027
Ò	-16.0026
З	-16.0026
Н	-16.0027
บ	-16.0027
ู	-16.0027
ネ	-16.0027
明	-16.0027
ĉ	-16.0027
Š	-16.0027
Т	-16.0027
ग	-16.0027
ნ	-16.0027
®	-16.0027
»	-16.0027
Ž	-16.0027
ǀ	-16.0027
ђ	-16.0027
ִ	-16.0027
ి	-16.0027
მ	-16.0027
ế	-16.0027
ダ	-16.0027
パ	-16.0027
中	-16.0027
山	-16.0027
素	-16.0027
関	-16.0027
국	-16.0027
로	-16.0027
세	-16.0027
화	-16.0027
Ρ	-16.0027
格	-16.0027
베	-16.0027
û	-16.0027
ʻ	-16.0027
尔	-16.0027
도	-16.0027
克	-16.0027
法	-16.0027
語	-16.0027
گ	-16.0027
チ	-16.0027
的	-16.0027
ո	-16.0027
目	-16.0027
დ	-16.0027
ἰ	-16.0027
έ	-16.2526
ĝ	-16.2526
ত	-16.2526
அ	-16.2526
ய	-16.2526
ு	-16.2526
ョ	-16.2526
ா	-16.2526
ณ	-16.2526
ะ	-16.2526
Р	-16.2526
ɯ	-16.2526
ֶ	-16.2526
ன	-16.2526
ซ	-16.2526
ป	-16.2526
Ј	-16.2527
स	-16.2527
武	-16.2527
罗	-16.2527
ạ	-16.2527
«	-16.2527
ş	-16.2527
̩	-16.2527
̪	-16.2527
Μ	-16.2527
ص	-16.2527
य	-16.2527
ी	-16.2527
ớ	-16.2527
†	-16.2527
′	-16.2527
█	-16.2527
か	-16.2527
セ	-16.2527
一	-16.2527
北	-16.2527
地	-16.2527
戦	-16.2527
球	-16.2527
니	-16.2527
르	-16.2527
사	-16.2527
주	-16.2527
지	-16.2527
ʒ	-16.2527
Ч	-16.2527
خ	-16.2527
म	-16.2527
ṛ	-16.2527
保	-16.2527
島	-16.2527
族	-16.2527
가	-16.2527
레	-16.2527
자	-16.2527
페	-16.2527
ʁ	-16.2527
ի	-16.2527
ր	-16.2527
ئ	-16.2527
ल	-16.2527
↑	-16.2527
ケ	-16.2527
テ	-16.2527
マ	-16.2527
和	-16.2527
金	-16.2527
阿	-16.2527
인	-16.2527
პ	-16.2527
ツ	-16.2527
语	-16.2527
义	-16.2527
ʼ	-16.2527
ヴ	-16.2527
ὐ	-16.2527
ἂ	-16.2527
Φ	-16.2527
義	-16.5858
Ō	-16.5859
ற	-16.586
ச	-16.586
ษ	-16.586
ქ	-16.586
プ	-16.586
щ	-16.586
া	-16.586
ি	-16.586
ம	-16.586
స	-16.586
ภ	-16.586
้	-16.586
თ	-16.586
ザ	-16.586
ボ	-16.586
ミ	-16.586
公	-16.586
¬	-16.586
À	-16.586
È	-16.586
ெ	-16.586
ไ	-16.586
い	-16.586
人	-16.586
王	-16.586
히	-16.586
©	-16.586
Đ	-16.586
İ	-16.586
ň	-16.586
ŝ	-16.586
ư	-16.586
ɻ	-16.586
ʀ	-16.586
ʎ	-16.586
̍	-16.586
У	-16.586
ए	-16.586
व	-16.586
श	-16.586
য	-16.586
র	-16.586
ు	-16.586
ಾ	-16.586
ช	-16.586
す	-16.586
モ	-16.586
三	-16.586
元	-16.586
兰	-16.586
列	-16.586
画	-16.586
科	-16.586
西	-16.586
都	-16.586
電	-16.586
공	-16.586
미	-16.586
원	-16.586
의	-16.586
크	-16.586
Ř	-16.586
映	-16.586
영	-16.586
ɝ	-16.586
ɦ	-16.586
̃	-16.586
ჰ	-16.586
ギ	-16.586
ペ	-16.586
五	-16.586
十	-16.586
哈	-16.586
子	-16.586
本	-16.586
督	-16.586
고	-16.586
그	-16.586
바	-16.586
소	-16.586
코	-16.586
타	-16.586
Ø	-16.586
ɒ	-16.586
ɲ	-16.586
յ	-16.586
ह	-16.586
ु	-16.586
გ	-16.586
კ	-16.586
力	-16.586
史	-16.586
嘉	-16.586
國	-16.586
巴	-16.586
成	-16.586
政	-16.586
波	-16.586
릴	-16.586
제	-16.586
터	-16.586
Ł	-16.586
͡	-16.586
ब	-16.586
サ	-16.586
ピ	-16.586
伊	-16.586
動	-16.586
电	-16.586
荷	-16.586
ث	-16.586
ฐ	-16.586
オ	-16.586
ゲ	-16.586
体	-16.586
名	-16.586
比	-16.586
տ	-16.586
ւ	-16.586
ğ	-16.586
ζ	-16.586
ἴ	-16.586
̥	-17.0859
ন	-17.086
ข	-17.086
ё	-17.086
ম	-17.086
ே	-17.086
ヌ	-17.086
伯	-17.086
際	-17.086
Ś	-17.086
ώ	-17.086
अ	-17.086
प	-17.086
े	-17.086
బ	-17.086
ా	-17.086
ಕ	-17.086
ರ	-17.086
ฟ	-17.086
ᑎ	-17.086
ὅ	-17.086
ォ	-17.086
ゴ	-17.086
ビ	-17.086
定	-17.086
意	-17.086
洪	-17.086
第	-17.086
ɾ	-17.086
ஹ	-17.086
√	-17.086
と	-17.086
位	-17.086
系	-17.086
雷	-17.086
역	-17.086
­	-17.086
Ð	-17.086
Ü	-17.086
Ć	-17.086
ď	-17.086
œ	-17.086
ű	-17.086
ǔ	-17.086
ɐ	-17.086
ɕ	-17.086
ɡ	-17.086
ʣ	-17.086
ʦ	-17.086
ʾ	-17.086
̘	-17.086
̻	-17.086
Η	-17.086
ύ	-17.086
Я	-17.086
ѣ	-17.086
ء	-17.086
ध	-17.086
জ	-17.086
দ	-17.086
ল	-17.086
়	-17.086
ર	-17.086
ఆ	-17.086
ఏ	-17.086
గ	-17.086
ట	-17.086
ప	-17.086
ల	-17.086
ష	-17.086
ტ	-17.086
ფ	-17.086
ᄂ	-17.086
ᄋ	-17.086
ᅫ	-17.086
ᑦ	-17.086
ọ	-17.086
〨	-17.086
き	-17.086
じ	-17.086
ず	-17.086
は	-17.086
ァ	-17.086
ヤ	-17.086
ユ	-17.086
京	-17.086
兩	-17.086
函	-17.086
劉	-17.086
化	-17.086
历	-17.086
反	-17.086
同	-17.086
外	-17.086
太	-17.086
學	-17.086
尼	-17.086
市	-17.086
弘	-17.086
我	-17.086
抗	-17.086
拉	-17.086
書	-17.086
朝	-17.086
朱	-17.086
東	-17.086
查	-17.086
歴	-17.086
氧	-17.086
清	-17.086
激	-17.086
理	-17.086
生	-17.086
用	-17.086
祖	-17.086
程	-17.086
細	-17.086
組	-17.086
红	-17.086
胞	-17.086
苏	-17.086
行	-17.086
親	-17.086
解	-17.086
言	-17.086
該	-17.086
謝	-17.086
谢	-17.086
那	-17.086
闘	-17.086
骨	-17.086
네	-17.086
다	-17.086
데	-17.086
된	-17.086
드	-17.086
라	-17.086
란	-17.086
람	-17.086
래	-17.086
론	-17.086
메	-17.086
비	-17.086
슬	-17.086
쌍	-17.086
압	-17.086
애	-17.086
언	-17.086
오	-17.086
요	-17.086
읍	-17.086
읒	-17.086
작	-17.086
클	-17.086
하	-17.086
한	-17.086
¿	-17.086
ů	-17.086
ơ	-17.086
ǎ	-17.086
ử	-17.086
‡	-17.086
園	-17.086
避	-17.086
개	-17.086
신	-17.086
키	-17.086
ļ	-17.086
ɣ	-17.086
ɬ	-17.086
Έ	-17.086
Є	-17.086
Ц	-17.086
Ш	-17.086
ґ	-17.086
ذ	-17.086
ى	-17.086
ḍ	-17.086
ὑ	-17.086
ワ	-17.086
二	-17.086
仁	-17.086
兵	-17.086
制	-17.086
医	-17.086
多	-17.086
存	-17.086
実	-17.086
座	-17.086
派	-17.086
空	-17.086
统	-17.086
间	-17.086
高	-17.086
갈	-17.086
구	-17.086
동	-17.086
모	-17.086
성	-17.086
알	-17.086
티	-17.086
ஆ	-17.086
象	-17.086
산	-17.086
̂	-17.086
̯	-17.086
զ	-17.086
մ	-17.086
आ	-17.086
ฮ	-17.086
互	-17.086
亞	-17.086
光	-17.086
壁	-17.086
度	-17.086
德	-17.086
星	-17.086
江	-17.086
漢	-17.086
略	-17.086
联	-17.086
节	-17.086
薬	-17.086
늄	-17.086
족	-17.086
木	-17.086
件	-17.086
林	-17.086
機	-17.086
自	-17.086
鲁	-17.086
Ì	-17.086
ɟ	-17.086
Π	-17.086
ս	-17.086
ց	-17.086
ศ	-17.086
ヒ	-17.086
伽	-17.086
卫	-17.086
字	-17.086
爾	-17.086
美	-17.086
诺	-17.086
ِ	-17.086
Ω	-17.0861
ψ	-18.0856
Ĺ	-18.0857
Ň	-18.0857
Ԁ	-18.0857
ԁ	-18.0857
ԉ	-18.0857
Ԋ	-18.0857
Ċ	-18.0858
Ԃ	-18.0858
Ԉ	-18.0858
ԋ	-18.0858
Ņ	-18.0859
ԃ	-18.0859
Ԅ	-18.0859
ԅ	-18.0859
Ԇ	-18.0859
ԇ	-18.0859
Ԍ	-18.0859
ԍ	-18.0859
װ	-18.0859
ױ	-18.0859
ײ	-18.0859
׺	-18.0859
׻	-18.0859
׼	-18.0859
׽	-18.0859
স	-18.0859
๘	-18.0859
ɴ	-18.0859
ʑ	-18.0859
ண	-18.0859
↗	-18.0859
應	-18.0859
樂	-18.0859
永	-18.0859
粹	-18.0859
純	-18.0859
與	-18.0859
ʉ	-18.086
џ	-18.086
ѹ	-18.086
थ	-18.086
फ	-18.086
ক	-18.086
ங	-18.086
ஞ	-18.086
வ	-18.086
ஸ	-18.086
ం	-18.086
ె	-18.086
ಸ	-18.086
ು	-18.086
ೋ	-18.086
็	-18.086
ხ	-18.086
ᐅ	-18.086
ᓴ	-18.086
ᔭ	-18.086
ᕆ	-18.086
ᖃ	-18.086
ḇ	-18.086
ヨ	-18.086
万	-18.086
下	-18.086
全	-18.086
卅	-18.086
叄	-18.086
女	-18.086
密	-18.086
希	-18.086
总	-18.086
拾	-18.086
教	-18.086
澳	-18.086
疣	-18.086
豬	-18.086
間	-18.086
陛	-18.086
麼	-18.086
Ē	-18.086
წ	-18.086
た	-18.086
だ	-18.086
关	-18.086
出	-18.086
Ŝ	-18.086
̧	-18.086
倭	-18.086
圍	-18.086
活	-18.086
穀	-18.086
重	-18.086
Â	-18.086
Ï	-18.086
Ñ	-18.086
Ā	-18.086
Ġ	-18.086
ġ	-18.086
ĥ	-18.086
ħ	-18.086
Ī	-18.086
į	-18.086
ĵ	-18.086
ť	-18.086
ũ	-18.086
Ū	-18.086
ŵ	-18.086
ǁ	-18.086
ǂ	-18.086
ǃ	-18.086
ǐ	-18.086
ǜ	-18.086
ȅ	-18.086
ȶ	-18.086
ɗ	-18.086
ɨ	-18.086
ɫ	-18.086
ʂ	-18.086
ʋ	-18.086
ʕ	-18.086
ʘ	-18.086
ʮ	-18.086
˩	-18.086
̄	-18.086
̊	-18.086
̚	-18.086
͌	-18.086
Ή	-18.086
Ι	-18.086
Λ	-18.086
Τ	-18.086
Ђ	-18.086
Й	-18.086
Ъ	-18.086
є	-18.086
љ	-18.086
њ	-18.086
Ѣ	-18.086
Ԏ	-18.086
ԏ	-18.086
Ձ	-18.086
Վ	-18.086
գ	-18.086
ք	-18.086
ֵ	-18.086
׳	-18.086
״	-18.086
׵	-18.086
׶	-18.086
׹	-18.086
׾	-18.086
׿	-18.086
ؤ	-18.086
ض	-18.086
ظ	-18.086
ْ	-18.086
چ	-18.086
ژ	-18.086
ं	-18.086
ई	-18.086
क	-18.086
ज	-18.086
ट	-18.086
ड	-18.086
त	-18.086
द	-18.086
ॉ	-18.086
ो	-18.086
०	-18.086
१	-18.086
२	-18.086
३	-18.086
४	-18.086
অ	-18.086
ও	-18.086
ী	-18.086
ে	-18.086
ઁ	-18.086
ફ	-18.086
ય	-18.086
સ	-18.086
ા	-18.086
ુ	-18.086
ો	-18.086
્	-18.086
ை	-18.086
ொ	-18.086
డ	-18.086
త	-18.086
న	-18.086
ఫ	-18.086
మ	-18.086
య	-18.086
వ	-18.086
శ	-18.086
ಂ	-18.086
ಅ	-18.086
ಖ	-18.086
ವ	-18.086
ಿ	-18.086
ญ	-18.086
พ	-18.086
ใ	-18.086
๋	-18.086
བ	-18.086
ྱ	-18.086
ზ	-18.086
ყ	-18.086
ᄃ	-18.086
ᄅ	-18.086
ᄍ	-18.086
ᄐ	-18.086
ᄒ	-18.086
ᄫ	-18.086
ᄬ	-18.086
ᅡ	-18.086
ᅢ	-18.086
ᅩ	-18.086
ᅱ	-18.086
ᅵ	-18.086
ᇢ	-18.086
ᇴ	-18.086
ሃ	-18.086
ም	-18.086
ር	-18.086
ብ	-18.086
አ	-18.086
ᑯ	-18.086
ᒃ	-18.086
ᒪ	-18.086
ᓯ	-18.086
ᔪ	-18.086
ᕋ	-18.086
ᖅ	-18.086
ḏ	-18.086
ḥ	-18.086
ḳ	-18.086
ṭ	-18.086
ấ	-18.086
ầ	-18.086
ậ	-18.086
ề	-18.086
ố	-18.086
ồ	-18.086
ổ	-18.086
ỗ	-18.086
ộ	-18.086
ợ	-18.086
ụ	-18.086
ủ	-18.086
ữ	-18.086
ự	-18.086
ἁ	-18.086
ἐ	-18.086
ἑ	-18.086
ἠ	-18.086
ἡ	-18.086
ἱ	-18.086
ὀ	-18.086
ὁ	-18.086
ὠ	-18.086
ὡ	-18.086
←	-18.086
→	-18.086
⇒	-18.086
∩	-18.086
∫	-18.086
≤	-18.086
⊇	-18.086
〈	-18.086
う	-18.086
ぎ	-18.086
げ	-18.086
こ	-18.086
ぢ	-18.086
つ	-18.086
で	-18.086
ど	-18.086
に	-18.086
へ	-18.086
ま	-18.086
み	-18.086
ゃ	-18.086
ゅ	-18.086
ゆ	-18.086
る	-18.086
れ	-18.086
ん	-18.086
ゥ	-18.086
ナ	-18.086
ノ	-18.086
ホ	-18.086
不	-18.086
丙	-18.086
之	-18.086
乌	-18.086
亨	-18.086
余	-18.086
作	-18.086
來	-18.086
侬	-18.086
侯	-18.086
個	-18.086
候	-18.086
偶	-18.086
傳	-18.086
傻	-18.086
六	-18.086
典	-18.086
凸	-18.086
刀	-18.086
剩	-18.086
加	-18.086
动	-18.086
勢	-18.086
区	-18.086
半	-18.086
华	-18.086
占	-18.086
印	-18.086
原	-18.086
县	-18.086
启	-18.086
周	-18.086
命	-18.086
哥	-18.086
唔	-18.086
四	-18.086
坎	-18.086
城	-18.086
堅	-18.086
堰	-18.086
塞	-18.086
士	-18.086
夫	-18.086
央	-18.086
套	-18.086
妊	-18.086
孕	-18.086
宁	-18.086
宣	-18.086
室	-18.086
宾	-18.086
寒	-18.086
屄	-18.086
属	-18.086
峡	-18.086
年	-18.086
广	-18.086
庆	-18.086
府	-18.086
庭	-18.086
延	-18.086
异	-18.086
彗	-18.086
形	-18.086
思	-18.086
性	-18.086
悪	-18.086
戀	-18.086
戌	-18.086
戰	-18.086
手	-18.086
承	-18.086
拜	-18.086
指	-18.086
攻	-18.086
數	-18.086
时	-18.086
是	-18.086
時	-18.086
晉	-18.086
曼	-18.086
會	-18.086
机	-18.086
条	-18.086
来	-18.086
极	-18.086
析	-18.086
果	-18.086
枪	-18.086
柔	-18.086
标	-18.086
桑	-18.086
植	-18.086
標	-18.086
樹	-18.086
欧	-18.086
正	-18.086
歩	-18.086
歳	-18.086
歹	-18.086
氐	-18.086
民	-18.086
氦	-18.086
水	-18.086
汾	-18.086
沙	-18.086
泰	-18.086
泳	-18.086
洛	-18.086
洞	-18.086
洲	-18.086
淀	-18.086
淝	-18.086
淵	-18.086
準	-18.086
滿	-18.086
火	-18.086
無	-18.086
燈	-18.086
牌	-18.086
牙	-18.086
獄	-18.086
琉	-18.086
瑞	-18.086
璋	-18.086
甚	-18.086
田	-18.086
町	-18.086
症	-18.086
百	-18.086
省	-18.086
石	-18.086
研	-18.086
碘	-18.086
祭	-18.086
秋	-18.086
積	-18.086
简	-18.086
算	-18.086
節	-18.086
粉	-18.086
約	-18.086
紅	-18.086
紙	-18.086
級	-18.086
綏	-18.086
継	-18.086
綠	-18.086
縣	-18.086
織	-18.086
维	-18.086
绿	-18.086
编	-18.086
群	-18.086
聯	-18.086
聰	-18.086
聽	-18.086
胡	-18.086
臨	-18.086
舰	-18.086
花	-18.086
芸	-18.086
苹	-18.086
苻	-18.086
药	-18.086
著	-18.086
蒙	-18.086
蓝	-18.086
藁	-18.086
藍	-18.086
蛇	-18.086
蜂	-18.086
蜒	-18.086
術	-18.086
表	-18.086
裕	-18.086
詞	-18.086
話	-18.086
譜	-18.086
議	-18.086
護	-18.086
计	-18.086
议	-18.086
豆	-18.086
质	-18.086
赫	-18.086
超	-18.086
辣	-18.086
辽	-18.086
进	-18.086
迦	-18.086
逐	-18.086
這	-18.086
通	-18.086
道	-18.086
選	-18.086
邮	-18.086
鄭	-18.086
酗	-18.086
釈	-18.086
量	-18.086
钡	-18.086
钬	-18.086
铈	-18.086
锗	-18.086
長	-18.086
限	-18.086
除	-18.086
陵	-18.086
陸	-18.086
集	-18.086
霍	-18.086
青	-18.086
靖	-18.086
鞘	-18.086
響	-18.086
頭	-18.086
顛	-18.086
魁	-18.086
魏	-18.086
魯	-18.086
鲍	-18.086
鸟	-18.086
麒	-18.086
麟	-18.086
黃	-18.086
黑	-18.086
鼓	-18.086
龙	-18.086
강	-18.086
겠	-18.086
급	-18.086
긴	-18.086
김	-18.086
나	-18.086
낱	-18.086
냥	-18.086
녕	-18.086
노	-18.086
논	-18.086
누	-18.086
는	-18.086
능	-18.086
델	-18.086
디	-18.086
랍	-18.086
랜	-18.086
러	-18.086
럽	-18.086
렉	-18.086
롤	-18.086
료	-18.086
루	-18.086
마	-18.086
말	-18.086
맥	-18.086
맨	-18.086
명	-18.086
못	-18.086
문	-18.086
밍	-18.086
박	-18.086
벼	-18.086
별	-18.086
보	-18.086
브	-18.086
빌	-18.086
색	-18.086
섬	-18.086
속	-18.086
수	-18.086
슈	-18.086
습	-18.086
승	-18.086
시	-18.086
심	-18.086
안	-18.086
야	-18.086
엔	-18.086
엘	-18.086
왜	-18.086
용	-18.086
운	-18.086
위	-18.086
유	-18.086
읗	-18.086
잉	-18.086
저	-18.086
창	-18.086
체	-18.086
첸	-18.086
초	-18.086
축	-18.086
컨	-18.086
콘	-18.086
퀼	-18.086
탄	-18.086
텔	-18.086
파	-18.086
팻	-18.086
팽	-18.086
펌	-18.086
편	-18.086
포	-18.086
피	-18.086
핀	-18.086
학	-18.086
헤	-18.086
헨	-18.086
호	-18.086
회	-18.086
흐	-18.086
𐌰	-18.086
𐌲	-18.086
𐌽	-18.086
Ú	-18.086
Ż	-18.086
झ	-18.086
倫	-18.086
良	-18.086
銀	-18.086
馬	-18.086
항	-18.086
Þ	-18.086
ĕ	-18.086
Ĝ	-18.086
ľ	-18.086
ņ	-18.086
ź	-18.086
ʍ	-18.086
ʥ	-18.086
ˀ	-18.086
̢	-18.086
̤	-18.086
̰	-18.086
͆	-18.086
Қ	-18.086
Խ	-18.086
Յ	-18.086
բ	-18.086
խ	-18.086
ף	-18.086
પ	-18.086
ಡ	-18.086
ถ	-18.086
་	-18.086
Ꮃ	-18.086
Ꮇ	-18.086
Ꮗ	-18.086
Ꮢ	-18.086
ἕ	-18.086
〉	-18.086
べ	-18.086
並	-18.086
争	-18.086
传	-18.086
伦	-18.086
係	-18.086
兹	-18.086
努	-18.086
単	-18.086
卡	-18.086
卻	-18.086
可	-18.086
号	-18.086
唯	-18.086
因	-18.086
土	-18.086
姆	-18.086
守	-18.086
官	-18.086
对	-18.086
岛	-18.086
工	-18.086
库	-18.086
彌	-18.086
徴	-18.086
応	-18.086
态	-18.086
愛	-18.086
所	-18.086
据	-18.086
放	-18.086
散	-18.086
无	-18.086
昭	-18.086
暗	-18.086
树	-18.086
欢	-18.086
歐	-18.086
沸	-18.086
治	-18.086
漠	-18.086
炎	-18.086
点	-18.086
爱	-18.086
病	-18.086
碳	-18.086
究	-18.086
筷	-18.086
篮	-18.086
类	-18.086
綴	-18.086
纪	-18.086
翅	-18.086
者	-18.086
聖	-18.086
肛	-18.086
胰	-18.086
能	-18.086
脑	-18.086
観	-18.086
角	-18.086
諸	-18.086
質	-18.086
贼	-18.086
跃	-18.086
車	-18.086
適	-18.086
酒	-18.086
銅	-18.086
門	-18.086
霊	-18.086
項	-18.086
頓	-18.086
食	-18.086
驱	-18.086
鬱	-18.086
鸠	-18.086
黄	-18.086
교	-18.086
단	-18.086
닿	-18.086
더	-18.086
등	-18.086
력	-18.086
룬	-18.086
륨	-18.086
물	-18.086
뮴	-18.086
민	-18.086
방	-18.086
법	-18.086
악	-18.086
에	-18.086
장	-18.086
조	-18.086
척	-18.086
츠	-18.086
치	-18.086
탕	-18.086
ƕ	-18.086
ɚ	-18.086
ʝ	-18.086
ʨ	-18.086
͈	-18.086
Կ	-18.086
թ	-18.086
լ	-18.086
ն	-18.086
۴	-18.086
ṝ	-18.086
丹	-18.086
丽	-18.086
仮	-18.086
佐	-18.086
务	-18.086
南	-18.086
叫	-18.086
吉	-18.086
器	-18.086
変	-18.086
娜	-18.086
安	-18.086
客	-18.086
尾	-18.086
布	-18.086
幅	-18.086
户	-18.086
振	-18.086
搞	-18.086
擊	-18.086
服	-18.086
権	-18.086
気	-18.086
獎	-18.086
瑪	-18.086
由	-18.086
界	-18.086
福	-18.086
竇	-18.086
端	-18.086
笑	-18.086
荣	-18.086
莉	-18.086
莱	-18.086
葉	-18.086
蒂	-18.086
视	-18.086
調	-18.086
諾	-18.086
變	-18.086
貝	-18.086
足	-18.086
软	-18.086
达	-18.086
邦	-18.086
际	-18.086
革	-18.086
音	-18.086
顿	-18.086
Χ	-18.086
ե	-18.086
び	-18.086
兆	-18.086
及	-18.086
ȑ	-18.0861
ɰ	-18.0861
ɺ	-18.0861
׷	-18.0861
׸	-18.0861
๐	-18.0861
Ἂ	-18.0861
ῶ	-18.0861
Σ	-18.0862
ἄ	-18.0862
∞	-18.0862
Θ	-18.0863
ἀ	-18.0863
