<s>	0
</s>	0
<unk>	0
<pad>	0
,	-3.26536
▁the	-3.45294
▁de	-3.65664
▁of	-4.12933
▁la	-4.15182
▁to	-4.20453
.	-4.25645
▁and	-4.36664
▁et	-4.44108
▁le	-4.58184
▁a	-4.59837
▁in	-4.6099
▁à	-4.65675
▁les	-4.66026
▁des	-4.69114
▁que	-4.85285
▁that	-4.8567
▁is	-4.89436
▁en	-5.07136
▁for	-5.2879
▁I	-5.29233
▁du	-5.32123
s	-5.322
▁on	-5.34991
▁dans	-5.45714
▁nous	-5.47216
▁pour	-5.47563
▁qui	-5.49408
▁be	-5.51702
▁this	-5.54374
▁we	-5.56254
▁une	-5.61136
▁un	-5.64418
▁ce	-5.68514
▁est	-5.69755
▁are	-5.70957
▁have	-5.75544
▁pas	-5.7611
▁-	-5.76321
▁sur	-5.78271
▁not	-5.80052
▁au	-5.80164
▁it	-5.80328
▁as	-5.87038
▁with	-5.8732
▁which	-5.90276
▁par	-5.91434
▁ne	-5.94372
▁European	-5.94469
▁Commission	-5.9941
▁The	-6.0394
▁will	-6.06244
▁by	-6.07325
▁plus	-6.14753
▁has	-6.18866
▁je	-6.20063
▁Mr	-6.34504
▁Je	-6.40412
▁cette	-6.41259
▁aux	-6.41819
▁an	-6.45216
▁il	-6.47477
▁at	-6.49652
▁sont	-6.50792
▁would	-6.50844
▁also	-6.52188
▁should	-6.56622
▁from	-6.6148
▁avec	-6.62361
▁We	-6.6282
▁all	-6.63763
▁our	-6.63886
▁but	-6.64067
▁must	-6.65119
▁Nous	-6.68051
▁Il	-6.68711
▁se	-6.69193
▁	-6.69887
▁mais	-6.73221
▁been	-6.73393
▁Monsieur	-6.74169
▁être	-6.77201
e	-6.78523
▁ces	-6.79475
▁pays	-6.80143
▁été	-6.83078
▁ont	-6.83532
▁It	-6.8394
▁La	-6.84952
▁can	-6.85554
▁européenne	-6.8671
▁President,	-6.87308
▁Le	-6.89116
▁fait	-6.89796
:	-6.8989
▁was	-6.89904
▁Member	-6.90619
▁more	-6.91747
▁you	-6.92226
▁important	-6.92864
▁vous	-6.9303
▁or	-6.93506
▁comme	-6.95825
▁qu'il	-6.95843
▁its	-6.96341
▁politique	-6.96783
▁rapport	-6.97433
▁Parlement	-6.97521
▁tout	-6.98305
▁do	-6.99075
▁their	-6.99151
▁like	-7.00481
▁question	-7.01638
▁there	-7.02049
?	-7.02617
▁Président,	-7.03112
▁États	-7.03681
▁l'Union	-7.03828
▁very	-7.04154
▁également	-7.05037
▁ou	-7.05156
▁In	-7.07379
▁This	-7.08441
▁these	-7.10519
▁Union	-7.10545
▁aussi	-7.11755
▁they	-7.12912
▁d'une	-7.16491
▁notre	-7.18003
▁Conseil	-7.18239
▁Parliament	-7.19027
▁one	-7.1911
▁report	-7.20005
▁si	-7.202
▁who	-7.20671
▁faire	-7.2109
▁me	-7.21877
▁point	-7.22352
▁about	-7.23005
▁leur	-7.24036
▁Council	-7.24706
▁avons	-7.24918
▁what	-7.24939
▁l'	-7.25061
▁other	-7.25075
▁so	-7.25344
▁doit	-7.25388
▁Europe	-7.25668
▁membres	-7.26159
▁need	-7.26252
▁M.	-7.26297
▁situation	-7.26921
▁tous	-7.28221
;	-7.28325
▁très	-7.28836
▁Les	-7.2967
▁son	-7.30017
▁même	-7.31027
▁y	-7.31412
▁EU	-7.31433
▁bien	-7.31637
▁my	-7.31887
▁d'un	-7.32173
▁States	-7.33022
▁En	-7.33522
▁only	-7.33558
▁new	-7.33998
▁no	-7.34457
▁européen	-7.34822
s.	-7.36179
▁us	-7.37165
▁entre	-7.37302
▁because	-7.3845
▁if	-7.38794
▁part	-7.3973
▁Ce	-7.39848
▁devons	-7.41445
▁droits	-7.45094
▁am	-7.45721
▁time	-7.46169
▁nos	-7.46682
▁people	-7.47879
▁up	-7.50061
▁such	-7.50499
▁countries	-7.51926
ing	-7.52372
▁out	-7.52493
▁support	-7.52871
▁make	-7.53329
▁take	-7.53541
▁contre	-7.54879
▁into	-7.55594
▁between	-7.56269
▁voudrais	-7.56478
▁those	-7.56777
▁d'	-7.57118
▁directive	-7.57898
▁possible	-7.60184
▁now	-7.60565
▁vote	-7.60694
▁donc	-7.60779
▁protection	-7.61236
▁peut	-7.61805
▁social	-7.6186
▁non	-7.62958
▁when	-7.63543
▁dont	-7.63697
▁therefore	-7.63898
▁some	-7.6457
▁C'est	-7.65114
▁being	-7.65638
▁any	-7.65873
▁soit	-7.65947
▁sans	-7.66588
s,	-7.6682
▁proposition	-7.66844
▁political	-7.68434
▁policy	-7.69385
▁encore	-7.69537
▁cela	-7.69952
▁were	-7.70052
▁deux	-7.70128
▁rapporteur	-7.71294
▁than	-7.72335
▁ainsi	-7.7249
▁made	-7.72539
▁economic	-7.72544
▁believe	-7.73461
▁work	-7.73862
▁commission	-7.74054
▁c'est	-7.74419
▁place	-7.74643
▁ses	-7.74738
▁travail	-7.76533
▁sa	-7.76642
▁suis	-7.77555
▁faut	-7.78059
's	-7.78172
▁say	-7.78389
▁position	-7.78786
▁fact	-7.79717
▁against	-7.79732
▁many	-7.79803
▁développement	-7.80082
▁public	-7.80162
▁n'est	-7.81146
▁mesures	-7.81284
▁programme	-7.81485
▁cas	-7.81974
▁first	-7.83041
▁budget	-7.83203
▁car	-7.83392
▁pense	-7.8454
▁matière	-7.85254
▁leurs	-7.85569
'	-7.85977
▁marché	-7.86199
▁doivent	-7.87192
▁That	-7.87202
▁sécurité	-7.8725
▁cet	-7.8725
▁think	-7.87589
▁national	-7.87619
▁afin	-7.87856
▁groupe	-7.87915
▁way	-7.88835
▁proposal	-7.89166
▁questions	-7.89423
▁rights	-7.89491
▁just	-7.89519
▁international	-7.89848
▁déjà	-7.89922
▁sommes	-7.90594
▁Committee	-7.90799
▁respect	-7.90805
▁où	-7.91507
▁manière	-7.91792
▁human	-7.92063
▁elle	-7.92123
▁cadre	-7.92491
▁mon	-7.93457
▁dire	-7.93605
▁services	-7.93711
▁citoyens	-7.94474
▁concerne	-7.95117
▁Madame	-7.95349
▁order	-7.95693
▁debate	-7.96088
▁cannot	-7.96698
▁droit	-7.97112
▁want	-7.97506
▁As	-7.97546
▁conditions	-7.98074
▁does	-7.98192
▁two	-7.98241
▁politiques	-7.98293
▁had	-7.98454
▁same	-7.98482
▁even	-7.98712
▁débat	-7.99951
▁them	-8.00023
▁niveau	-8.0007
▁tant	-8.00447
▁right	-8.00551
▁d’un	-8.00636
r	-8.01207
▁could	-8.01578
es	-8.01838
▁sera	-8.02157
)	-8.02577
▁most	-8.02815
nt	-8.03087
▁already	-8.05347
▁where	-8.06172
-	-8.06503
▁certain	-8.06744
▁measures	-8.06994
▁–	-8.07212
▁much	-8.07718
▁financial	-8.07987
▁good	-8.08207
▁within	-8.08429
▁lors	-8.08451
▁development	-8.08774
▁said	-8.08866
▁personnes	-8.09272
ed	-8.09857
▁still	-8.09991
▁issue	-8.10543
▁how	-8.10893
▁President	-8.11091
▁toute	-8.11113
▁Mrs	-8.1137
▁There	-8.11567
▁both	-8.12184
▁long	-8.12638
▁common	-8.12733
▁dit	-8.12954
▁under	-8.13092
▁see	-8.13125
▁clear	-8.13215
▁over	-8.13311
▁Dans	-8.13346
▁concernant	-8.13726
▁use	-8.13837
▁parce	-8.13901
▁fois	-8.14242
▁sein	-8.14251
▁particular	-8.14333
▁problème	-8.14347
▁However,	-8.144
▁toutes	-8.14507
▁agreement	-8.14635
▁certains	-8.14698
▁here	-8.14711
▁well	-8.1571
▁A	-8.16044
▁On	-8.16119
▁hope	-8.16493
▁Mme	-8.1653
▁your	-8.16828
▁l'UE	-8.17504
▁d'autres	-8.17767
▁action	-8.18073
▁moins	-8.18145
▁vue	-8.18216
▁too	-8.18628
▁institutions	-8.18879
▁européenne.	-8.19102
▁ensure	-8.19172
▁coopération	-8.19312
▁efforts	-8.19947
▁view	-8.19991
▁économique	-8.20001
d	-8.20119
▁système	-8.20226
▁market	-8.20393
▁able	-8.20679
▁his	-8.20684
▁future	-8.20989
tte	-8.21258
▁taken	-8.21294
▁seulement	-8.21314
er	-8.21433
▁base	-8.23421
▁mettre	-8.23476
▁why	-8.24114
▁plan	-8.242
▁own	-8.2457
▁pourquoi	-8.24622
▁put	-8.24659
▁mise	-8.25299
▁Community	-8.25531
▁number	-8.26059
▁nom	-8.26422
▁last	-8.27252
▁compte	-8.27376
▁may	-8.2771
▁nombre	-8.28087
▁means	-8.28342
▁avoir	-8.2841
▁Pour	-8.28567
▁know	-8.28982
▁%	-8.29253
▁problèmes	-8.29259
▁autres	-8.29281
▁case	-8.29728
▁savoir	-8.29827
▁without	-8.29838
▁Si	-8.30032
▁.	-8.30157
▁through	-8.30391
▁temps	-8.30585
▁information	-8.306
▁he	-8.30705
▁raison	-8.30726
▁grande	-8.30984
▁toujours	-8.31
▁Mais	-8.3108
▁aujourd'hui	-8.31362
▁energy	-8.31417
▁lieu	-8.31478
▁cooperation	-8.31627
▁s'agit	-8.31861
a	-8.31937
▁avant	-8.31961
▁gentlemen,	-8.32022
▁If	-8.3242
▁points	-8.32492
▁devrait	-8.32566
▁secteur	-8.32917
▁particulier	-8.33249
▁beaucoup	-8.33298
▁relations	-8.33627
▁processus	-8.33718
▁laquelle	-8.34403
▁Madam	-8.34636
y	-8.34643
▁however	-8.34668
▁notamment	-8.34801
▁regard	-8.3493
▁À	-8.34946
▁today	-8.34962
ment	-8.35022
▁particularly	-8.35119
▁Commissioner	-8.35595
▁demande	-8.35652
▁rôle	-8.35958
▁prendre	-8.36104
▁great	-8.36406
▁solution	-8.36572
▁give	-8.36592
▁partie	-8.36657
▁citizens	-8.36752
▁ceux	-8.37042
▁importance	-8.37057
▁transport	-8.37331
▁years	-8.37428
▁j'ai	-8.37514
▁cours	-8.37546
▁Cela	-8.3761
▁faveur	-8.37914
▁domaine	-8.3792
▁continue	-8.38103
▁l'Europe	-8.38105
▁gouvernement	-8.38127
▁country	-8.38319
▁then	-8.39081
▁before	-8.39091
▁mesure	-8.39093
▁legal	-8.39548
▁s	-8.39553
▁given	-8.39648
▁effet	-8.40258
▁Commission,	-8.40551
▁(	-8.41095
▁end	-8.41109
ons	-8.41666
▁votre	-8.41666
▁soient	-8.417
▁necessary	-8.42376
▁moment	-8.42557
▁propositions	-8.42664
▁qu'elle	-8.42814
ly	-8.42887
▁n'a	-8.43559
▁président	-8.43658
▁dialogue	-8.43797
▁thank	-8.44841
▁ladies	-8.4518
▁besoin	-8.45295
▁whether	-8.45441
▁problems	-8.45516
▁Commission.	-8.45569
▁accord	-8.45615
▁nouvelle	-8.45625
▁far	-8.45809
▁pouvons	-8.46021
▁résolution	-8.46191
▁qu’il	-8.46223
▁United	-8.46619
▁pouvoir	-8.46894
▁attention	-8.46923
▁system	-8.47128
▁soutien	-8.47222
▁programmes	-8.47459
▁large	-8.47527
▁set	-8.47543
▁security	-8.47855
▁since	-8.48085
▁behalf	-8.48233
▁production	-8.48447
▁nouveau	-8.48653
▁traité	-8.48986
▁world	-8.49014
▁santé	-8.49092
▁serait	-8.4943
▁peu	-8.49823
▁était	-8.49961
▁peuvent	-8.50453
▁next	-8.50668
▁Europe.	-8.50797
que	-8.50814
▁sujet	-8.50827
▁issues	-8.51076
▁amendements	-8.5156
▁problem	-8.51583
▁role	-8.51615
▁l’Union	-8.51946
▁objectifs	-8.52177
▁favour	-8.52305
▁autre	-8.52445
▁further	-8.52829
▁De	-8.53068
▁millions	-8.53344
▁femmes	-8.53455
!	-8.53477
▁face	-8.53688
▁depuis	-8.53938
ant	-8.54237
▁règlement	-8.54321
▁area	-8.54619
▁monde	-8.54643
▁commissaire	-8.54926
▁agree	-8.55073
▁alors	-8.55116
▁ils	-8.55152
▁opinion	-8.55184
▁amendments	-8.55263
▁l'on	-8.55321
▁décision	-8.55355
▁terms	-8.5539
▁:	-8.56034
▁come	-8.5605
▁Members	-8.564
▁again	-8.56531
t	-8.56925
▁façon	-8.57055
▁stratégie	-8.57077
▁ici	-8.57084
▁produits	-8.5722
▁crois	-8.57237
▁help	-8.5741
▁présent	-8.57461
▁jour	-8.57716
▁process	-8.57817
▁nécessaire	-8.57887
▁trade	-8.58047
▁different	-8.58068
▁better	-8.58193
▁areas	-8.583
▁Par	-8.58422
▁matter	-8.58695
▁House	-8.5883
▁L'	-8.5926
▁What	-8.5944
▁principe	-8.59527
▁Commissioner,	-8.59568
▁entreprises	-8.59574
▁commune	-8.59673
▁proposals	-8.59676
▁contrôle	-8.59785
▁première	-8.60009
▁But	-8.60034
▁aid	-8.60067
▁Commissaire,	-8.60085
▁For	-8.60281
▁adopted	-8.60795
▁level	-8.609
▁européenne,	-8.61432
"	-8.61619
▁ask	-8.61969
▁présidence	-8.61981
▁present	-8.61991
▁wish	-8.62178
▁framework	-8.62303
▁Union.	-8.62623
▁Mesdames	-8.6272
▁second	-8.62792
▁eu	-8.62808
▁change	-8.6282
▁députés	-8.62942
▁after	-8.63072
▁bonne	-8.6316
▁needs	-8.63452
▁"	-8.63526
▁règles	-8.63717
▁ni	-8.63762
▁mes	-8.63949
▁crise	-8.6397
▁women	-8.64406
▁resolution	-8.64472
▁vie	-8.64892
▁going	-8.64962
▁quelques	-8.65123
▁done	-8.65168
▁l'homme	-8.65184
▁nouveaux	-8.65371
▁basis	-8.65448
▁year	-8.65775
▁working	-8.65804
▁européens	-8.66471
▁fonds	-8.66479
▁projet	-8.66569
▁régions	-8.66609
ticulièrement	-8.6661
▁après	-8.66612
▁few	-8.66741
▁actions	-8.6679
▁towards	-8.67265
▁lutte	-8.67358
▁voted	-8.67589
▁fin	-8.6773
▁grand	-8.67973
▁bon	-8.67983
▁three	-8.68061
▁Treaty	-8.68188
▁trois	-8.68209
▁something	-8.68228
▁lui	-8.68301
▁recherche	-8.68577
▁garantir	-8.68595
▁sous	-8.68608
▁parties	-8.68747
▁go	-8.68757
▁sector	-8.68851
ait	-8.69072
▁positive	-8.69075
▁welcome	-8.69198
▁progress	-8.69211
▁selon	-8.69265
▁result	-8.69438
▁clairement	-8.69657
▁Présidente,	-8.69678
▁cha	-8.69718
▁communication	-8.69958
▁aspects	-8.69992
▁rules	-8.70194
é	-8.70493
▁nouvelles	-8.70581
▁remercier	-8.70598
▁'	-8.70764
▁health	-8.70863
▁J'ai	-8.7091
▁ma	-8.70916
▁current	-8.7093
▁vers	-8.71254
▁va	-8.71581
▁population	-8.71717
▁nombreux	-8.71829
▁force	-8.72348
▁group	-8.72378
▁législation	-8.7263
▁million	-8.73187
▁including	-8.73287
▁nécessité	-8.73665
▁specific	-8.73793
▁really	-8.74033
▁voté	-8.74109
▁did	-8.74244
▁shall	-8.74399
▁provide	-8.74674
▁increase	-8.74705
▁s'est	-8.74731
▁seront	-8.74741
dès	-8.75159
▁là	-8.75333
▁qualité	-8.75383
▁justice	-8.75819
▁voir	-8.75888
▁principle	-8.76058
▁proposed	-8.76066
▁decision	-8.76346
▁initiative	-8.7655
▁during	-8.76944
▁whole	-8.77041
▁opportunity	-8.77292
▁especially	-8.77457
▁négociations	-8.77523
▁pourrait	-8.77598
▁State	-8.77605
al	-8.77668
▁every	-8.77759
▁l'a	-8.77815
▁qu'	-8.7819
▁find	-8.78247
▁trop	-8.78292
▁œuvre	-8.78558
▁plusieurs	-8.7857
▁000	-8.78607
▁procédure	-8.78642
▁forward	-8.7912
▁clearly	-8.79465
▁autorités	-8.79525
▁become	-8.79611
▁environmental	-8.79617
▁premier	-8.79637
▁subject	-8.79866
▁Group	-8.80675
▁used	-8.80722
▁quite	-8.80725
▁visant	-8.80741
▁greater	-8.80783
▁serious	-8.81165
▁least	-8.81398
▁reste	-8.81599
▁concerned	-8.81626
▁cause	-8.81698
▁maintenant	-8.81774
▁global	-8.81812
▁effective	-8.82058
▁surtout	-8.82367
▁rather	-8.82438
▁aucun	-8.82438
▁No	-8.8254
▁law	-8.82734
▁contribution	-8.82783
▁They	-8.83249
▁Nations	-8.83284
▁Une	-8.83298
▁certaines	-8.83375
▁terme	-8.83389
▁States.	-8.83556
▁chose	-8.83643
▁down	-8.83741
▁Ces	-8.83787
▁Europe,	-8.83985
▁reason	-8.84231
▁discussion	-8.84301
▁?	-8.84529
▁Messieurs,	-8.84789
▁course,	-8.84937
▁account	-8.85141
▁l'environnement	-8.85189
▁service	-8.85518
▁real	-8.85621
▁tiens	-8.85713
▁mois	-8.85733
ra	-8.85837
▁call	-8.85845
▁always	-8.85906
▁legislation	-8.8598
▁fundamental	-8.86118
▁Elle	-8.86219
▁state	-8.86392
▁access	-8.86638
▁course	-8.86843
▁making	-8.86868
▁once	-8.86971
▁1	-8.86988
▁achieve	-8.87158
▁voulons	-8.87173
▁third	-8.87226
▁membre	-8.8723
▁ressources	-8.87288
▁conséquent	-8.87395
▁avez	-8.87443
▁These	-8.8758
▁Presidency	-8.87618
▁excellent	-8.87721
▁prix	-8.87974
▁together	-8.88021
▁another	-8.88105
▁Commission's	-8.88163
▁general	-8.88209
▁d’	-8.8827
▁l’	-8.88458
▁major	-8.88471
▁At	-8.88852
▁donner	-8.88912
▁donné	-8.89407
▁research	-8.89437
▁based	-8.89503
▁regulation	-8.89512
▁main	-8.89516
▁taking	-8.89552
▁small	-8.89636
▁democratic	-8.89638
▁employment	-8.89698
▁Et	-8.89713
▁comment	-8.8976
▁approach	-8.89827
▁deal	-8.89906
▁mis	-8.89996
▁difficult	-8.90214
▁internal	-8.90365
▁get	-8.90645
▁davantage	-8.91175
▁Comme	-8.91196
se	-8.9131
▁s'	-8.91675
▁essential	-8.91691
▁various	-8.9192
▁responsabilité	-8.91944
▁lorsque	-8.92171
▁elles	-8.92391
▁So	-8.92642
▁safety	-8.92661
▁soutenir	-8.92677
▁création	-8.92703
▁juridique	-8.92774
▁responsibility	-8.92839
▁strategy	-8.93031
▁européennes	-8.93067
▁instruments	-8.93223
▁société	-8.93609
▁constitue	-8.9375
▁each	-8.93761
▁sorte	-8.93886
▁negotiations	-8.94053
▁violence	-8.94149
▁policies	-8.942
▁impact	-8.94214
▁crisis	-8.94458
▁État	-8.94492
▁semble	-8.94548
▁report.	-8.9457
▁free	-8.95219
▁souligner	-8.95327
▁implementation	-8.95328
▁hand	-8.95514
▁organisations	-8.95523
▁réponse	-8.95588
▁yet	-8.95594
▁example,	-8.95623
▁Au	-8.9577
▁while	-8.95913
▁allow	-8.95936
▁participation	-8.96252
▁économiques	-8.96679
▁membres.	-8.9686
▁industry	-8.9686
▁région	-8.97191
▁consider	-8.9733
▁look	-8.97438
▁souvent	-8.97524
▁back	-8.9756
▁propose	-8.97675
▁avait	-8.97703
▁termes	-8.97737
▁itself	-8.97964
▁démocratie	-8.98059
▁EUR	-8.98091
▁toutefois	-8.98207
▁type	-8.98243
▁affaires	-8.98609
▁qu'une	-8.98702
▁travailleurs	-8.98735
▁Un	-8.98792
▁aura	-8.9898
▁single	-8.98992
▁Convention	-8.99031
▁initiatives	-8.99053
▁liberté	-8.99154
▁actuellement	-8.99191
▁authorities	-8.99209
▁having	-8.99374
n	-8.99717
▁progrès	-8.9976
▁années	-8.99818
▁resources	-8.99897
▁différents	-8.99963
▁full	-9.00232
▁gestion	-9.00236
▁importante	-9.00339
▁dernier	-9.01149
▁propos	-9.01175
▁sociale	-9.01191
▁aucune	-9.01279
▁high	-9.01355
▁coordination	-9.01358
▁possibilité	-9.01604
▁croissance	-9.01613
▁souhaite	-9.01664
▁lequel	-9.01709
▁telle	-9.01761
▁européen.	-9.01857
▁compris	-9.0186
▁ait	-9.01939
▁nature	-9.02052
▁existe	-9.02073
▁euro	-9.02349
▁best	-9.02418
▁government	-9.02455
▁sûr	-9.02566
▁moyens	-9.02765
▁instrument	-9.0316
▁pris	-9.03169
▁mieux	-9.03191
▁étant	-9.03287
▁concurrence	-9.03297
▁money	-9.03319
▁final	-9.03457
▁demander	-9.03638
▁Toutefois	-9.03699
▁avis	-9.04143
▁her	-9.04284
▁dernière	-9.04328
▁peut-être	-9.04417
z	-9.04434
▁20	-9.04465
▁democracy	-9.04545
▁pêche	-9.04592
▁culture	-9.04702
▁countries.	-9.04775
▁it.	-9.04802
ent	-9.04841
▁d'abord	-9.04922
▁fully	-9.05032
▁collègues	-9.0504
▁période	-9.05124
▁regions	-9.05131
▁exemple	-9.05177
▁communautaire	-9.05452
▁recent	-9.05455
▁rien	-9.0548
▁concerns	-9.0548
▁pu	-9.05653
▁certainly	-9.05703
▁often	-9.05728
▁renforcer	-9.05845
▁celui	-9.05853
▁domaines	-9.0586
▁simply	-9.05868
▁commerce	-9.05988
▁décisions	-9.06059
▁nombreuses	-9.06061
▁permettre	-9.06146
▁créer	-9.06365
▁européen,	-9.06398
▁accept	-9.06621
▁freedom	-9.06757
▁devraient	-9.06795
▁données	-9.0687
▁relation	-9.06909
▁food	-9.06934
▁step	-9.06974
▁To	-9.07013
▁agricultural	-9.07103
▁bring	-9.07251
▁normes	-9.07339
▁tel	-9.0739
c	-9.07686
▁States,	-9.07724
▁interests	-9.07829
▁discussions	-9.07844
▁accords	-9.08083
▁extremely	-9.08107
▁deuxième	-9.08279
▁local	-9.08301
▁quelque	-9.0835
▁unique	-9.08833
▁aware	-9.0884
▁(DE)	-9.08889
▁reform	-9.08917
▁Enfin	-9.09381
▁create	-9.09471
▁d'être	-9.09479
▁texte	-9.09485
▁quality	-9.09508
▁majority	-9.09691
▁trouver	-9.09789
▁majorité	-9.09876
▁power	-9.102
▁résultats	-9.10582
▁following	-9.1072
▁financement	-9.10918
▁juste	-9.10966
▁10	-9.11071
▁France	-9.11169
▁groupes	-9.11185
▁things	-9.113
▁(EN)	-9.11304
▁growth	-9.11355
▁Government	-9.11357
▁internationale	-9.11445
▁relative	-9.11555
▁might	-9.11719
▁voie	-9.11862
▁exemple,	-9.11908
▁involved	-9.12001
▁simplement	-9.12166
▁Parliament,	-9.12405
▁qu'un	-9.12544
▁fight	-9.12563
▁developing	-9.12683
▁celle	-9.12783
▁form	-9.12941
▁d'accord	-9.12966
▁products	-9.12992
▁sens	-9.13021
▁actually	-9.13119
▁projets	-9.13146
▁2	-9.13458
▁application	-9.13498
▁document	-9.13539
▁Union,	-9.13715
▁committee	-9.13735
▁consommateurs	-9.13921
▁écrit.	-9.13945
▁Président	-9.13962
▁devrions	-9.14088
▁policy.	-9.14204
▁amendment	-9.14284
▁entendu	-9.1431
▁objectif	-9.14386
▁improve	-9.14812
▁Let	-9.14844
▁regional	-9.14971
▁society	-9.15056
▁réforme	-9.15289
▁companies	-9.15328
▁15	-9.15431
▁Article	-9.15543
▁economy	-9.15616
▁indeed	-9.15882
▁climate	-9.15912
▁Finally	-9.15978
▁collègues,	-9.16117
▁solutions	-9.16118
▁Court	-9.16204
▁report,	-9.16211
▁intérêts	-9.16278
▁currently	-9.16438
▁procedure	-9.16458
▁dispositions	-9.16637
▁environment	-9.16709
▁concerning	-9.16776
▁choses	-9.16969
▁control	-9.1698
▁decisions	-9.17083
▁And	-9.17298
▁objectives	-9.17341
▁concern	-9.1738
▁open	-9.17547
▁Lisbon	-9.17634
▁vraiment	-9.17735
▁conclusions	-9.17763
▁l'ensemble	-9.17924
▁essentiel	-9.1799
▁l'accord	-9.18044
▁understand	-9.18278
▁example	-9.18293
▁propre	-9.18379
’s	-9.18469
▁seule	-9.18514
▁l'avenir	-9.18535
▁cependant	-9.18546
▁contexte	-9.18596
▁Assemblée	-9.18761
▁marchés	-9.18811
▁quant	-9.18838
▁appropriate	-9.19232
▁six	-9.19329
▁Vous	-9.19407
▁convient	-9.19436
▁You	-9.19448
▁changement	-9.19551
▁let	-9.19599
▁standards	-9.19657
▁risk	-9.19718
i	-9.19726
▁C’est	-9.19916
▁meeting	-9.19934
▁principes	-9.2011
o	-9.20132
▁message	-9.20174
▁start	-9.20175
▁général	-9.20176
▁États-Unis	-9.20297
▁n'y	-9.20299
▁3	-9.20388
/	-9.20456
▁key	-9.20538
▁Cour	-9.20559
▁stabilité	-9.2083
▁text	-9.20924
▁funds	-9.21079
▁forces	-9.21085
▁Conseil,	-9.21154
▁interest	-9.21283
▁quand	-9.21511
▁children	-9.21523
▁nécessaires	-9.2155
▁«	-9.21666
▁risque	-9.21968
▁extrêmement	-9.22023
▁plutôt	-9.22082
▁font	-9.22102
▁ailleurs	-9.2215
▁compromis	-9.222
▁responsible	-9.22244
▁rendre	-9.22347
▁l'article	-9.22395
▁n'ont	-9.22525
▁égard	-9.22641
▁With	-9.22697
▁period	-9.22961
▁approche	-9.23009
▁promotion	-9.23214
▁jamais	-9.23326
▁objective	-9.23425
▁suite	-9.23526
l	-9.23649
▁individual	-9.23663
▁competition	-9.2394
▁mentioned	-9.24053
▁states	-9.24183
▁volonté	-9.2438
▁groups	-9.24442
▁dernières	-9.24464
▁5	-9.24599
▁peace	-9.24611
▁parler	-9.24807
▁doute	-9.24827
▁raisons	-9.25051
▁due	-9.25112
▁12	-9.25137
▁l'emploi	-9.25224
▁informations	-9.25256
▁ans	-9.25301
▁aim	-9.25472
▁crucial	-9.25584
▁doing	-9.25678
▁Parliament's	-9.25706
▁Cependant	-9.25751
▁tels	-9.26
▁année	-9.26002
▁joint	-9.26062
▁c’est	-9.2608
▁members	-9.26131
▁réduire	-9.26336
▁S	-9.26442
▁déclaration	-9.26499
▁regards	-9.26509
▁activités	-9.267
▁though	-9.26711
▁répondre	-9.26955
▁puisse	-9.27019
▁countries,	-9.27115
▁civil	-9.27229
▁preuve	-9.27468
".	-9.27558
▁n’est	-9.27598
▁membres,	-9.27609
▁them.	-9.27689
▁n'	-9.27701
▁clair	-9.27757
▁lack	-9.28061
▁education	-9.28137
▁feel	-9.282
▁promote	-9.283
▁tax	-9.28346
▁titre	-9.28348
▁among	-9.28352
▁collègue	-9.28424
▁devant	-9.28454
▁Council,	-9.28552
▁aide	-9.28747
▁chers	-9.28773
▁enlargement	-9.28901
▁draft	-9.28915
▁conséquences	-9.28962
▁longer	-9.29086
▁available	-9.29163
▁data	-9.29232
▁paix	-9.29283
▁significant	-9.29421
▁Fonds	-9.29449
▁l'aide	-9.29449
▁simple	-9.29494
▁moyen	-9.29499
▁special	-9.29507
▁systèmes	-9.29583
▁meilleure	-9.29597
▁discrimination	-9.29754
▁writing.	-9.29804
▁peux	-9.30055
▁Parliament.	-9.30148
▁efficace	-9.30393
▁although	-9.30412
▁possible.	-9.30512
▁appelle	-9.3065
▁congratulate	-9.30653
▁field	-9.30824
▁cases	-9.30827
▁kind	-9.3087
▁mean	-9.30954
▁vu	-9.31035
▁direction	-9.31061
▁management	-9.31121
▁little	-9.31149
▁legislative	-9.31202
▁réalité	-9.31406
▁savons	-9.31482
▁nationaux	-9.31574
▁inter	-9.31596
▁agreements	-9.31662
▁results	-9.31689
▁life	-9.31745
▁thing	-9.31769
▁total	-9.31807
▁difficile	-9.31871
▁principles	-9.31963
▁My	-9.32022
▁ago	-9.32059
▁grâce	-9.32083
▁remercie	-9.32108
▁pendant	-9.3239
▁zone	-9.32527
▁strong	-9.32602
▁provided	-9.32614
▁forme	-9.32651
▁Tout	-9.32691
▁note	-9.32782
re	-9.32982
▁féliciter	-9.33029
▁prevent	-9.33237
▁commitment	-9.33275
▁sustainable	-9.33302
▁perhaps	-9.3337
▁régime	-9.3339
▁idea	-9.33487
▁compromise	-9.33625
▁lead	-9.33719
▁Amendment	-9.33721
▁25	-9.33726
▁gouvernements	-9.33763
▁représente	-9.33867
▁guarantee	-9.33947
▁nuclear	-9.33958
▁labour	-9.34014
▁adopté	-9.34082
▁young	-9.34192
▁seul	-9.34423
▁include	-9.34461
▁date	-9.34462
▁rapidement	-9.34554
▁Turkey	-9.34597
▁pays.	-9.34612
▁effort	-9.34653
▁critères	-9.34996
▁all,	-9.35032
▁différentes	-9.35046
▁transparence	-9.3516
▁rapport.	-9.35306
▁line	-9.35392
▁réduction	-9.35421
▁intérieur	-9.35422
▁assurer	-9.35432
▁pay	-9.35484
▁sommet	-9.35692
▁sure	-9.35719
▁taux	-9.35735
▁ministre	-9.35976
▁C	-9.36016
▁aurait	-9.3605
▁telles	-9.36051
▁;	-9.36112
▁agreed	-9.36404
▁remain	-9.36423
▁regarding	-9.36436
▁ensemble	-9.36466
▁workers	-9.36594
-in-Office	-9.36595
▁exercice	-9.36737
▁addition	-9.36941
▁qu'à	-9.3709
▁véritable	-9.37144
▁30	-9.37157
▁act	-9.3748
▁procédures	-9.37492
▁nothing	-9.37579
▁foreign	-9.3775
aient	-9.37763
▁trouve	-9.37781
▁assistance	-9.37802
▁seen	-9.37849
▁above	-9.37921
▁rapports	-9.37973
▁funding	-9.38008
▁needed	-9.38114
▁signifie	-9.38551
▁qu'en	-9.38578
▁construction	-9.38616
in	-9.38621
▁publique	-9.38656
▁Constitution	-9.38697
▁dimension	-9.3878
ation	-9.38801
▁several	-9.39015
▁formation	-9.39038
▁Our	-9.39092
▁relatives	-9.39125
▁intervention	-9.39163
▁jeunes	-9.39168
▁solidarité	-9.39198
▁personne	-9.39223
▁Affairs	-9.39235
▁budgétaire	-9.3943
▁makes	-9.39444
▁libre	-9.39453
▁themselves	-9.39503
▁benefit	-9.39505
▁others	-9.39596
▁aspect	-9.39613
▁4	-9.39623
▁conclusion	-9.39708
▁enfants	-9.3974
▁comes	-9.39963
▁play	-9.40446
▁question.	-9.40555
▁apply	-9.40634
▁11	-9.408
▁projects	-9.40969
▁tiers	-9.40975
▁governments	-9.41132
▁re	-9.41202
▁uniquement	-9.41243
▁costs	-9.41243
▁upon	-9.41283
▁mention	-9.41307
▁réellement	-9.41504
▁confiance	-9.41523
▁certainement	-9.41587
▁rappeler	-9.41621
▁reasons	-9.41638
ions	-9.41762
▁présente	-9.41915
▁share	-9.41949
▁technical	-9.42366
»	-9.42377
▁months	-9.42431
▁prise	-9.42438
▁Ils	-9.42629
▁context	-9.42741
▁l'amendement	-9.4277
▁move	-9.42815
▁valeurs	-9.42826
▁démocratique	-9.429
▁priority	-9.43006
▁promouvoir	-9.43147
▁mondiale	-9.43417
▁résultat	-9.43546
▁consumers	-9.43597
e.	-9.43695
▁enough	-9.4384
▁pleased	-9.43852
▁outre,	-9.43859
▁veut	-9.43997
▁sanctions	-9.44183
▁true	-9.44309
▁seems	-9.44319
▁vital	-9.44326
▁frontières	-9.4435
▁J'espère	-9.44482
▁prises	-9.4449
▁propres	-9.44509
▁tenir	-9.4451
▁active	-9.44514
▁améliorer	-9.44588
▁parti	-9.44599
▁words	-9.44672
▁existing	-9.44751
▁activities	-9.44805
▁consumer	-9.44863
▁voting	-9.44883
▁Des	-9.44984
▁début	-9.45067
▁s'il	-9.45079
▁protéger	-9.45189
▁nationales	-9.45251
▁police	-9.45261
▁express	-9.45477
▁plans	-9.45497
▁autant	-9.45632
▁Bien	-9.45732
▁D	-9.45743
▁effect	-9.45789
▁concept	-9.45866
▁adopt	-9.46123
▁Secondly,	-9.46198
▁Turquie	-9.46296
▁One	-9.46347
▁financière	-9.46355
▁Minister	-9.46424
▁durable	-9.46516
▁direct	-9.46595
▁l'importance	-9.46605
▁agricole	-9.46746
▁documents	-9.46758
▁perspective	-9.46792
▁manque	-9.46898
▁l'industrie	-9.46914
▁évidemment	-9.47089
▁Union's	-9.47097
▁speak	-9.47134
▁motion	-9.47198
▁less	-9.47337
▁region	-9.47448
▁grandes	-9.47488
▁Communauté	-9.47601
▁Kosovo	-9.47645
it	-9.47724
▁Parlement,	-9.47899
▁technologies	-9.48181
▁achieved	-9.48238
▁until	-9.4829
▁respecter	-9.48331
▁creation	-9.48385
▁dois	-9.48393
▁Directive	-9.48462
▁basic	-9.48505
▁consensus	-9.48525
▁develop	-9.48537
▁response	-9.48738
▁All	-9.48888
▁agenda	-9.49216
▁future.	-9.4954
▁solidarity	-9.49642
▁chance	-9.49756
▁carried	-9.4978
▁éléments	-9.49858
▁commun	-9.49946
▁military	-9.49996
▁saying	-9.50001
▁provisions	-9.50107
▁petites	-9.50143
▁l'année	-9.50157
▁contraire	-9.50214
▁rapporteurs	-9.50243
▁l'économie	-9.50353
▁never	-9.50368
▁equal	-9.50441
▁vigueur	-9.5059
▁cultural	-9.50682
▁protect	-9.50814
▁close	-9.50876
▁absolument	-9.50882
▁cohésion	-9.5093
▁demandé	-9.5105
▁zones	-9.51084
▁minimum	-9.51166
▁accession	-9.512
▁directives	-9.51242
le	-9.51291
▁asked	-9.51328
ront	-9.51334
▁held	-9.5139
▁transparency	-9.51423
▁vrai	-9.51453
▁relating	-9.51536
▁présenter	-9.51723
▁qu'elles	-9.51743
▁rural	-9.51762
▁business	-9.51818
▁encourage	-9.51856
▁capital	-9.52064
▁met	-9.52125
▁balance	-9.52127
▁item	-9.52206
▁UN	-9.52212
▁parvenir	-9.52239
▁namely	-9.52297
▁reduce	-9.52314
▁veiller	-9.5244
▁increasing	-9.52495
▁victimes	-9.52673
▁matters	-9.52807
▁changes	-9.52812
▁show	-9.52948
▁sources	-9.53123
▁soon	-9.53142
▁continuer	-9.53145
▁everything	-9.53214
▁mission	-9.53408
▁investment	-9.53433
▁étaient	-9.53465
▁réunion	-9.5366
▁draw	-9.5377
▁totalement	-9.53819
▁paragraphe	-9.53892
▁him	-9.53934
▁d’autres	-9.53936
▁integration	-9.53959
▁moi	-9.54035
▁coûts	-9.54065
▁d'avoir	-9.5414
▁centrale	-9.54313
▁meet	-9.54324
▁travailler	-9.54379
▁développer	-9.54415
▁thus	-9.54436
▁project	-9.54453
▁l’Europe	-9.54459
▁Parlement.	-9.54485
▁ourselves	-9.54537
▁traitement	-9.54667
▁urgent	-9.54809
▁tabled	-9.54812
▁tenu	-9.54855
▁presented	-9.54867
▁parmi	-9.54883
▁celles	-9.54889
▁Thank	-9.54985
▁obligations	-9.54992
’	-9.55019
▁l'utilisation	-9.55062
▁jobs	-9.55168
▁accepter	-9.55345
▁jusqu'à	-9.55375
▁everyone	-9.55505
▁guerre	-9.55582
▁policy,	-9.55633
▁When	-9.55645
▁défense	-9.55736
▁référence	-9.55753
▁reports	-9.55767
▁condition	-9.55779
▁collaboration	-9.5586
▁combat	-9.55864
▁proposé	-9.55925
▁increased	-9.55967
▁Russie	-9.56049
▁throughout	-9.56109
▁off	-9.56113
▁quel	-9.56215
▁voter	-9.56275
▁mind	-9.56504
▁élections	-9.56546
▁relevant	-9.56551
▁financières	-9.56608
▁rule	-9.56713
▁occasion	-9.56744
▁priorité	-9.56876
▁administrative	-9.569
▁l'objet	-9.57001
▁stability	-9.57034
▁pratique	-9.57211
▁capacité	-9.57278
▁central	-9.57384
▁budgetary	-9.57516
▁6	-9.57626
▁called	-9.57693
▁keep	-9.57782
▁présenté	-9.57906
▁l'heure	-9.58126
▁market.	-9.58176
▁statement	-9.58327
▁valeur	-9.58353
▁request	-9.58366
▁précisément	-9.58475
▁pleinement	-9.58678
▁answer	-9.58692
▁fishing	-9.58795
▁2000	-9.58882
▁around	-9.58945
▁M	-9.58983
▁tell	-9.58985
▁systems	-9.59094
▁external	-9.59212
▁lesquels	-9.5926
▁impossible	-9.59284
▁grands	-9.59326
▁values	-9.59339
▁decided	-9.59355
▁she	-9.59399
▁dépenses	-9.59511
▁road	-9.597
▁consultation	-9.60056
▁transports	-9.60088
▁qu'on	-9.60089
▁fondamentaux	-9.60179
▁sense	-9.60192
▁réformes	-9.60549
▁côté	-9.60583
▁gens	-9.60848
▁amendement	-9.60855
▁(PL)	-9.60861
▁priorités	-9.61047
▁adoption	-9.61058
▁demand	-9.61058
▁four	-9.61064
▁générale	-9.61065
▁eux	-9.61078
▁Council.	-9.61081
▁quatre	-9.61103
▁statut	-9.61152
▁financiers	-9.61181
▁monitoring	-9.61203
▁Conseil.	-9.61533
▁félicite	-9.61558
▁permettant	-9.61634
▁prepared	-9.61729
▁partenaires	-9.61768
▁commercial	-9.61774
▁previous	-9.61782
▁partenariat	-9.61822
▁markets	-9.61999
▁expressed	-9.6204
▁peuple	-9.62104
▁address	-9.6222
▁pourra	-9.623
ont	-9.62304
▁puissent	-9.62337
▁talking	-9.62447
▁Notre	-9.62449
▁colleagues	-9.62492
▁secteurs	-9.62509
▁consequences	-9.62582
▁considère	-9.62678
▁vos	-9.62726
▁financier	-9.62795
▁review	-9.62849
▁using	-9.62868
▁substances	-9.63013
▁Therefore,	-9.63112
▁fort	-9.63121
▁résoudre	-9.63197
▁50	-9.63199
▁illegal	-9.63201
▁exigences	-9.63205
▁establish	-9.63258
▁structure	-9.63323
▁temps,	-9.63426
▁renforcement	-9.63525
▁across	-9.63555
▁communauté	-9.63651
▁Russia	-9.63664
▁personnel	-9.63688
▁moi,	-9.63689
▁commencer	-9.63791
▁d'action	-9.63842
▁produit	-9.63865
).	-9.63888
▁doubt	-9.63901
▁private	-9.64128
▁quoi	-9.64201
▁importants	-9.64244
▁Lisbonne	-9.64328
▁train	-9.64363
▁partage	-9.64397
▁vient	-9.64417
▁conférence	-9.6445
▁7	-9.64457
▁implement	-9.64483
▁session	-9.6455
▁regulations	-9.64628
▁try	-9.64751
▁besoins	-9.64787
▁contribuer	-9.64861
▁poursuivre	-9.64943
▁difficultés	-9.64956
▁l'occasion	-9.65084
▁Chine	-9.65205
▁value	-9.65208
▁pressure	-9.65217
g	-9.65235
▁opportunities	-9.65239
▁attitude	-9.6527
▁pratiques	-9.6528
▁influence	-9.65299
▁agriculture	-9.65444
▁pourraient	-9.65473
▁short	-9.65521
▁travers	-9.65549
▁sociaux	-9.65635
▁years.	-9.65718
▁reduction	-9.65742
▁fisheries	-9.6576
▁absolutely	-9.65814
▁18	-9.65873
▁fair	-9.65932
▁focus	-9.65981
▁jouer	-9.66012
▁required	-9.66072
▁perspectives	-9.66147
▁French	-9.66285
▁dû	-9.66308
▁job	-9.66393
▁potential	-9.66478
▁Deuxièmement	-9.66503
▁time.	-9.66552
▁cinq	-9.66556
▁reached	-9.66564
▁light	-9.66599
▁permis	-9.66655
▁actuelle	-9.66726
▁série	-9.66761
▁fellow	-9.66811
▁requirements	-9.66877
▁l'objectif	-9.66877
▁rights.	-9.66895
▁semaine	-9.66969
▁possibilités	-9.66997
▁enable	-9.67047
▁l'élargissement	-9.67052
▁loin	-9.6706
▁2004	-9.67065
▁recently	-9.67081
▁farmers	-9.67102
▁movement	-9.67116
▁China	-9.6722
▁malheureusement	-9.67262
▁éviter	-9.67414
▁8	-9.67465
▁poverty	-9.67488
h	-9.6753
▁coming	-9.6754
▁27	-9.67544
▁l'UE.	-9.67558
▁engagement	-9.6758
▁ensuite	-9.67661
▁practice	-9.6773
▁modèle	-9.67768
▁outside	-9.678
▁talk	-9.67831
▁Or	-9.67918
▁past	-9.67966
▁1999	-9.68005
▁five	-9.68019
▁permet	-9.6805
▁ministres	-9.68107
▁peine	-9.68144
▁pauvreté	-9.68171
▁assez	-9.68266
▁stress	-9.68321
▁séance	-9.68332
▁constituent	-9.68461
▁passer	-9.68526
▁révision	-9.68555
▁task	-9.68621
▁sais	-9.6865
▁quelle	-9.68768
▁décidé	-9.68816
▁rapport,	-9.69036
▁l'État	-9.69081
▁structural	-9.69176
▁charge	-9.69233
▁permettra	-9.69358
▁raised	-9.69386
▁lot	-9.69416
▁war	-9.69452
▁circulation	-9.69459
▁aides	-9.69469
▁derniers	-9.69539
▁completely	-9.69589
▁prochaine	-9.69593
▁pression	-9.69618
▁source	-9.69623
▁hommes	-9.69643
▁day	-9.69663
▁vis-à-vis	-9.69784
▁live	-9.69801
▁convention	-9.69821
▁Party	-9.69963
▁compétences	-9.69966
és	-9.69972
▁thanks	-9.70018
▁travail.	-9.70051
▁cohesion	-9.70144
▁air	-9.70258
▁d'euros	-9.70261
▁positions	-9.70264
▁lutter	-9.70371
▁apporter	-9.70465
▁included	-9.70518
▁giving	-9.70546
▁situation.	-9.70608
▁year.	-9.70618
▁phase	-9.70834
▁brought	-9.70845
▁travaux	-9.70863
▁experience	-9.70892
▁enfin	-9.70944
▁success	-9.71228
▁l’UE	-9.71315
▁fonctionnement	-9.71409
▁times	-9.71413
▁He	-9.71441
▁water	-9.71483
▁réglementation	-9.7151
▁comprendre	-9.7154
▁déclaré	-9.71542
▁reach	-9.71542
▁criteria	-9.71604
▁publics	-9.71641
▁risques	-9.71649
▁effets	-9.71747
▁structures	-9.71826
▁organisation	-9.71873
▁près	-9.71885
▁amount	-9.71901
▁porte	-9.71915
▁‘	-9.71928
▁cost	-9.71936
▁considération	-9.71937
▁l'un	-9.72026
▁per	-9.7205
▁représentants	-9.72083
▁additional	-9.72128
▁L’	-9.72257
▁énergétique	-9.72307
▁Republic	-9.72559
▁plupart	-9.72712
▁powers	-9.72762
m	-9.72803
▁ayant	-9.72869
▁d'ailleurs	-9.72882
▁l'agriculture	-9.72898
▁conflict	-9.72909
▁along	-9.72924
▁possibility	-9.7295
▁supported	-9.73035
▁milliards	-9.73076
▁devoir	-9.73222
▁chacun	-9.73223
▁crime	-9.7335
▁heard	-9.73371
▁US	-9.73467
▁signal	-9.73483
▁almost	-9.73547
▁EU's	-9.7358
▁institution	-9.73585
▁puisque	-9.73616
▁took	-9.73617
▁representatives	-9.73621
▁Firstly	-9.73771
▁priorities	-9.73855
▁ever	-9.73871
▁vont	-9.73884
▁term	-9.73953
▁natural	-9.74069
▁réjouis	-9.74075
▁International	-9.74133
▁L'Union	-9.74167
▁ensuring	-9.74194
▁situations	-9.74216
▁package	-9.74296
▁procedures	-9.74366
▁dé	-9.74382
u	-9.74393
▁Development	-9.74497
▁aider	-9.74553
▁British	-9.74581
▁waste	-9.74805
▁established	-9.74841
▁importantes	-9.74908
▁stage	-9.74924
▁years,	-9.74984
▁living	-9.75066
▁adopter	-9.7519
▁either	-9.75222
▁price	-9.75258
▁level.	-9.75312
▁investissements	-9.75471
▁practical	-9.756
▁found	-9.75636
▁troisième	-9.75638
▁creating	-9.75641
▁2009	-9.75672
▁danger	-9.75755
▁lesquelles	-9.75851
ez	-9.75935
▁liste	-9.75995
▁mal	-9.76058
▁competitiveness	-9.76084
▁received	-9.76092
▁effects	-9.76152
▁important.	-9.76175
▁strengthen	-9.76186
▁Rights	-9.76219
▁aujourd’hui	-9.76253
▁Furthermore	-9.76255
▁behind	-9.76272
▁compétitivité	-9.76318
▁turn	-9.76328
▁avoid	-9.76465
▁add	-9.7657
▁offer	-9.76609
▁training	-9.76665
▁left	-9.76666
▁choix	-9.76689
▁Europe's	-9.76714
▁défis	-9.7674
▁challenges	-9.76753
on	-9.7678
▁responsables	-9.76812
▁conclure	-9.76897
▁l'application	-9.76927
▁parole	-9.77009
▁9	-9.77063
▁constater	-9.7708
▁Of	-9.7718
▁grave	-9.77201
▁you,	-9.77315
▁parlementaire	-9.77381
▁2005	-9.77429
5	-9.77457
▁stop	-9.77493
▁mandat	-9.77518
▁begin	-9.77566
▁billion	-9.77594
▁conformément	-9.77619
▁loi	-9.7765
▁world.	-9.77682
▁c'est-à-dire	-9.77779
▁vision	-9.77807
▁l'ordre	-9.7783
es.	-9.77839
▁expect	-9.77848
▁victims	-9.7787
▁l'adoption	-9.77904
▁vise	-9.77971
▁unies	-9.78065
▁2003	-9.78066
▁parliamentary	-9.78074
▁intention	-9.7808
▁sort	-9.78125
▁proper	-9.78144
▁devra	-9.78145
▁l'énergie	-9.78237
▁(S	-9.783
▁opposition	-9.78336
▁presidency	-9.78592
▁year,	-9.78607
▁fournir	-9.78671
able	-9.78724
▁remains	-9.78749
▁émissions	-9.78766
'.	-9.78796
▁men	-9.78831
▁surveillance	-9.78922
▁introduction	-9.79059
▁directive.	-9.79068
▁changements	-9.79069
▁P	-9.79072
▁extent	-9.79104
▁week	-9.79225
▁succès	-9.79232
▁certaine	-9.79247
▁nor	-9.79305
▁court	-9.79334
▁mêmes	-9.79506
▁d'entre	-9.79532
▁soutiens	-9.7955
▁violations	-9.79659
▁this.	-9.79751
▁spécifiques	-9.79774
▁scope	-9.79873
▁discuss	-9.79883
▁pensons	-9.7991
▁19	-9.79922
▁récemment	-9.80001
▁takes	-9.80155
en	-9.8025
▁contribute	-9.80266
▁elections	-9.80436
▁n’a	-9.80518
▁capable	-9.80521
▁s’agit	-9.80523
▁content	-9.80544
▁Permettez-moi	-9.80605
▁dis	-9.80659
ur	-9.80682
▁budgets	-9.80686
▁effectivement	-9.80689
▁mener	-9.80817
▁responsabilités	-9.80821
",	-9.80847
▁today.	-9.81013
▁considered	-9.81029
▁acceptable	-9.81044
▁Central	-9.81102
▁chômage	-9.81127
▁quickly	-9.81156
▁République	-9.81159
▁maritime	-9.8119
▁work.	-9.81215
▁humanitarian	-9.81216
▁Schengen	-9.81252
▁despite	-9.81287
▁aimed	-9.81323
▁treatment	-9.81471
ordre	-9.81555
▁montre	-9.81766
▁donne	-9.819
▁list	-9.81929
▁suivi	-9.81933
▁trying	-9.82076
▁l'égard	-9.82217
▁pose	-9.82235
▁caractère	-9.82235
▁désormais	-9.82291
▁discussed	-9.82303
▁World	-9.82329
▁veux	-9.82347
▁décembre	-9.82363
▁souligné	-9.8237
▁defence	-9.82462
▁constructive	-9.82476
▁assessment	-9.825
▁Economic	-9.82572
▁away	-9.82578
▁precisely	-9.82582
▁élément	-9.82641
▁First	-9.82646
▁pollution	-9.82743
▁souhaiterais	-9.82809
▁(PT)	-9.82891
▁December	-9.82921
▁supplémentaires	-9.8295
▁17	-9.82975
▁internationales	-9.83041
▁approved	-9.83147
▁implemented	-9.83154
p	-9.83263
▁shown	-9.83284
▁citizens.	-9.83293
▁13	-9.83296
▁candidats	-9.83335
▁criminal	-9.8338
▁fonction	-9.83592
▁civile	-9.8364
ce	-9.83647
▁obstacles	-9.83778
▁accordance	-9.83827
▁reference	-9.83828
▁old	-9.83892
▁carry	-9.83893
▁rights,	-9.83966
▁E	-9.84031
▁applied	-9.84082
▁remind	-9.84129
▁alimentaire	-9.84158
▁instead	-9.84273
▁connection	-9.84357
▁consiste	-9.84444
▁causes	-9.84463
▁partners	-9.84472
▁libertés	-9.84598
▁votes	-9.84611
▁model	-9.84708
),	-9.84722
▁beginning	-9.84752
▁atteindre	-9.84868
▁libéralisation	-9.84886
▁care	-9.8495
▁années,	-9.84988
▁huge	-9.84996
▁honourable	-9.85079
▁yeux	-9.85086
▁events	-9.85108
▁2002	-9.85236
▁regret	-9.85312
▁quotas	-9.85397
▁maintenir	-9.85404
▁Ireland	-9.85435
▁asylum	-9.85481
à	-9.85548
▁indispensable	-9.85616
▁j’ai	-9.85617
▁centre	-9.85675
▁reforms	-9.85677
▁improving	-9.85713
▁techniques	-9.85958
▁passé	-9.86034
▁rate	-9.86072
▁biais	-9.8612
▁animal	-9.86155
▁ligne	-9.86168
▁providing	-9.86178
▁qu’elle	-9.86225
▁jours	-9.86278
▁ban	-9.86403
▁institutional	-9.86593
▁hard	-9.86615
7	-9.8665
▁committed	-9.86665
▁according	-9.8671
▁allowed	-9.8677
▁capacity	-9.86783
▁Nos	-9.86795
▁personal	-9.86809
▁via	-9.86875
▁parfois	-9.86899
▁stand	-9.8691
▁Voilà	-9.86919
▁return	-9.87013
▁(FR)	-9.87017
▁suffisamment	-9.87036
▁j'espère	-9.87036
▁partir	-9.87071
▁favorable	-9.87126
▁mondial	-9.87156
▁independent	-9.87174
▁longtemps	-9.87193
▁guidelines	-9.87234
▁reading	-9.8726
▁goes	-9.87271
▁présence	-9.87272
▁demain	-9.87284
▁réaliser	-9.8732
▁immigration	-9.87339
▁area.	-9.87345
▁importe	-9.87576
▁confidence	-9.87637
▁déclarations	-9.87684
▁dix	-9.87705
▁maximum	-9.87764
▁(IT)	-9.87823
▁passe	-9.87825
▁Social	-9.87928
▁malgré	-9.87982
▁l’a	-9.87998
▁oil	-9.88108
▁prices	-9.88122
▁rightly	-9.88249
▁family	-9.88264
▁d'autre	-9.88266
▁issue.	-9.88279
ne	-9.88346
▁considerable	-9.88375
▁rapide	-9.88399
▁l'Europe.	-9.88418
▁alternative	-9.88419
▁provides	-9.88437
▁community	-9.88475
▁producteurs	-9.88494
▁puis	-9.8851
▁monde.	-9.88512
▁profit	-9.88515
▁emissions	-9.88553
▁relatif	-9.88578
▁l'accès	-9.88581
▁terrorisme	-9.88678
▁européens.	-9.88711
▁agriculteurs	-9.88924
▁businesses	-9.89005
▁provision	-9.89007
4	-9.89018
ée	-9.89133
▁Group.	-9.8924
▁receive	-9.89336
▁sectors	-9.89468
▁prévoit	-9.89476
▁mer	-9.89524
▁former	-9.8955
▁colleague	-9.89594
1	-9.896
▁40	-9.89617
▁Présidence	-9.89657
▁communautaires	-9.89682
▁climatique	-9.89756
▁territoire	-9.89789
▁Now	-9.89864
▁promoting	-9.899
▁événements	-9.89902
▁Conference	-9.89948
▁stated	-9.89983
▁unfortunately	-9.89993
▁calls	-9.90009
▁allons	-9.9001
▁here.	-9.90075
▁obtenir	-9.90181
▁implementing	-9.90292
▁liés	-9.90388
▁actuel	-9.90551
▁meilleur	-9.90582
▁Fund	-9.90687
▁l'égalité	-9.90752
▁levels	-9.90868
▁conflit	-9.9089
▁sociales	-9.90941
ch	-9.9099
▁prévention	-9.91226
▁directement	-9.91337
▁Banque	-9.91383
▁2020	-9.91407
▁forte	-9.91422
▁n'avons	-9.91435
▁developed	-9.91494
te	-9.91576
▁forms	-9.91603
▁dealing	-9.9164
▁clause	-9.91659
▁adoptée	-9.91668
▁beyond	-9.91668
▁Human	-9.91669
▁paquet	-9.91678
▁referred	-9.91751
▁overall	-9.91779
an	-9.91803
2	-9.91842
▁Bank	-9.91854
▁conscience	-9.91925
▁specifically	-9.91942
▁veulent	-9.91956
▁21	-9.92
▁half	-9.92038
▁accès	-9.92068
▁2001	-9.92144
▁process.	-9.92286
▁évident	-9.92301
▁outre	-9.92389
▁nations	-9.92391
▁Sur	-9.92406
▁rester	-9.92444
▁engagements	-9.92541
▁lignes	-9.9257
▁gaz	-9.92618
▁affected	-9.92621
▁death	-9.92687
▁reality	-9.92728
▁Ma	-9.9274
▁May	-9.92807
▁know,	-9.92811
▁l’homme	-9.92886
▁country,	-9.9294
▁table	-9.92979
th	-9.93084
▁scientific	-9.93093
▁comptes	-9.93101
▁industrial	-9.93164
▁wanted	-9.93286
▁responsable	-9.93297
▁long-term	-9.93365
▁difficulties	-9.93484
▁finally	-9.93529
▁courage	-9.93612
▁ans,	-9.93623
rait	-9.93694
▁side	-9.93817
▁faisant	-9.93835
▁auquel	-9.93931
▁restrictions	-9.93971
▁100	-9.93973
▁niveaux	-9.94003
▁Justice	-9.94009
▁vote.	-9.94013
▁parle	-9.94019
▁partnership	-9.94091
▁decide	-9.9415
f	-9.94242
▁innovation	-9.94265
▁disposition	-9.94294
▁mort	-9.94329
▁complete	-9.94383
▁principal	-9.94435
▁created	-9.94442
▁monétaire	-9.94465
▁exchange	-9.94483
▁strategic	-9.94497
▁définition	-9.94543
▁directly	-9.94586
▁produce	-9.94615
▁days	-9.94648
▁16	-9.94676
▁Regulation	-9.94763
▁emplois	-9.94769
▁crimes	-9.94858
▁bonnes	-9.94908
▁June	-9.94912
▁Today	-9.94923
▁sociétés	-9.94973
▁reconnaissance	-9.94986
▁suivre	-9.94987
▁people.	-9.94997
▁Irish	-9.9501
▁juridiques	-9.95274
▁goods	-9.95407
▁utiliser	-9.95432
▁populations	-9.9544
▁n'en	-9.95451
▁poser	-9.95565
▁pourrons	-9.95633
▁juin	-9.95646
or	-9.95684
▁EU.	-9.95687
▁requires	-9.95692
▁reçu	-9.9574
ar	-9.95856
▁country.	-9.95904
▁maintain	-9.95967
▁ACP	-9.95972
▁intérêt	-9.95978
▁Premièrement	-9.95993
▁devenir	-9.96001
▁steps	-9.96146
▁benefits	-9.9616
▁claire	-9.96379
▁efficiency	-9.96404
▁haut	-9.96469
▁déchets	-9.96501
3	-9.96543
▁menace	-9.96546
▁leave	-9.96562
▁étrangères	-9.96565
▁correct	-9.96568
▁status	-9.96577
▁l'efficacité	-9.96593
▁German	-9.96712
▁sait	-9.9672
▁réseaux	-9.96723
▁Agreement	-9.96739
▁gas	-9.96783
▁économique,	-9.96834
▁myself	-9.96849
▁développement.	-9.96911
▁défendre	-9.97007
▁challenge	-9.97023
▁experts	-9.97024
▁permanent	-9.97082
▁14	-9.97109
▁envers	-9.97215
▁intended	-9.97243
▁néanmoins	-9.97369
isation	-9.97394
▁entire	-9.97407
▁limit	-9.97427
▁participer	-9.97437
▁How	-9.97439
▁Germany	-9.97464
▁aller	-9.97563
▁event	-9.97572
▁Balkans	-9.97643
▁Merci	-9.97819
▁successful	-9.97849
ité	-9.97851
▁sitting	-9.97875
▁paid	-9.97936
▁obligation	-9.97938
▁conciliation	-9.97966
▁refer	-9.9798
6	-9.98001
▁tâche	-9.98011
▁étrangère	-9.98025
▁similar	-9.98037
▁ratification	-9.98084
▁double	-9.98113
▁knowledge	-9.98114
▁closely	-9.98122
▁délégation	-9.98145
▁distribution	-9.98242
▁augmentation	-9.98251
▁l'intérêt	-9.98287
▁voix	-9.98322
▁non-	-9.98389
▁reconnaître	-9.98407
▁Traité	-9.98469
▁poor	-9.9849
▁crédits	-9.98497
▁principaux	-9.98505
▁naturellement	-9.98513
▁paragraph	-9.98552
▁join	-9.98631
».	-9.98655
▁terrorism	-9.98663
▁supporting	-9.98716
▁exprimer	-9.98792
▁speaking	-9.98794
▁structurels	-9.98845
▁trafic	-9.9888
▁dossier	-9.99043
▁media	-9.99091
▁closed.	-9.99092
▁janvier	-9.99122
▁highly	-9.99136
▁agir	-9.99212
▁Prodi	-9.99256
▁lorsqu'il	-9.99257
▁tirer	-9.99283
▁respond	-9.99284
▁supply	-9.99319
▁genre	-9.99371
▁ten	-9.99395
▁rapporteur.	-9.99417
▁transition	-9.99418
▁duty	-9.99531
▁words,	-9.99553
▁contact	-9.99567
▁nucléaire	-9.99611
▁represent	-9.99635
age	-9.99644
▁animaux	-9.99653
▁contenu	-9.99695
▁Internet	-9.99711
▁ambitious	-9.99746
▁anything	-9.99833
▁publiques	-9.99841
us	-9.99879
▁permettez-moi	-9.99899
▁financing	-9.99922
▁soumis	-10.0003
▁code	-10.0013
▁montrer	-10.0013
▁candidate	-10.0015
▁environnemental	-10.0016
▁us.	-10.0021
▁WTO	-10.003
▁continent	-10.0033
▁comité	-10.0036
▁modification	-10.0039
▁graves	-10.0041
▁positif	-10.0042
▁setting	-10.0045
▁higher	-10.0056
▁figure	-10.0057
▁parlé	-10.0058
▁speech	-10.0063
▁effectively	-10.0064
▁oral	-10.0067
▁border	-10.0068
▁Elles	-10.0069
▁Rules	-10.0076
▁citoyens.	-10.0079
▁purpose	-10.008
▁tomorrow	-10.008
▁increasingly	-10.0083
▁union	-10.0084
▁accepted	-10.0086
▁discussing	-10.0097
▁débats	-10.0101
▁défi	-10.0106
▁II	-10.0107
▁conclude	-10.0107
▁medium-sized	-10.0109
▁Selon	-10.0109
▁particulière	-10.0112
▁Although	-10.0116
▁known	-10.0118
▁l'idée	-10.012
il	-10.0133
▁efficient	-10.0141
▁Unfortunately	-10.0143
▁procéder	-10.0154
▁shows	-10.0163
▁pacte	-10.0163
▁etc.	-10.0169
▁Mon	-10.0177
▁regime	-10.018
▁urge	-10.0182
▁whom	-10.0187
▁genuine	-10.019
▁Royaume-Uni	-10.0191
▁institutions.	-10.0191
▁l'Union.	-10.0217
▁establishing	-10.0226
▁views	-10.0239
▁clos.	-10.0241
▁caused	-10.0243
es,	-10.0244
▁sérieux	-10.0244
▁l'information	-10.0245
▁calling	-10.0246
▁politique.	-10.0246
▁1998	-10.0247
▁B	-10.0262
▁harmonisation	-10.0274
▁compétence	-10.0275
▁traiter	-10.0281
▁contrôles	-10.0288
▁represents	-10.0293
▁press	-10.0297
▁uvre	-10.0299
▁achieving	-10.03
▁study	-10.0304
▁rest	-10.0311
▁follow	-10.0314
▁hear	-10.0314
▁salue	-10.0316
▁peuples	-10.032
▁sector.	-10.0322
▁fondamental	-10.0324
▁route	-10.0328
▁market,	-10.0334
▁Security	-10.0339
▁point.	-10.034
▁préoccupations	-10.0341
▁pouvoirs	-10.0345
▁debate.	-10.0346
▁Ceci	-10.036
▁types	-10.0362
▁early	-10.0374
▁emphasise	-10.0374
▁violation	-10.0387
▁arguments	-10.0393
▁technique	-10.0395
▁l'intégration	-10.0397
▁January	-10.04
▁produced	-10.0403
▁l'autre	-10.0409
▁infrastructure	-10.041
▁professionnelle	-10.0415
▁pourtant	-10.0415
▁garantie	-10.0417
▁budget.	-10.0429
▁corruption	-10.043
▁reducing	-10.0432
▁law.	-10.0437
▁l'attention	-10.0439
▁partis	-10.0444
▁obviously	-10.0448
▁celle-ci	-10.0449
▁spirit	-10.0457
▁réseau	-10.0459
▁24	-10.0463
▁laisser	-10.0468
▁sufficient	-10.0476
▁measure	-10.0477
▁administration	-10.048
▁strengthening	-10.0483
▁gives	-10.0495
▁Néanmoins	-10.0504
▁moyennes	-10.0509
▁annual	-10.0509
▁lecture	-10.051
ées	-10.051
▁Since	-10.0512
▁député	-10.0516
st	-10.0523
ity	-10.0528
▁infrastructures	-10.0533
▁name	-10.055
▁heureux	-10.0551
▁aims	-10.0555
▁trust	-10.056
▁utile	-10.0568
▁led	-10.0575
▁statements	-10.0579
▁demands	-10.0585
▁largement	-10.0588
▁ways	-10.0588
▁qu'au	-10.0597
▁require	-10.0599
▁convergence	-10.0601
▁Foreign	-10.061
▁useful	-10.0613
▁Moreover	-10.0615
▁aient	-10.0624
▁convinced	-10.0625
▁consommation	-10.0632
▁transparent	-10.0636
▁rise	-10.0649
▁party	-10.0649
▁looking	-10.065
▁recognise	-10.0651
▁l'adhésion	-10.0662
▁consideration	-10.0663
▁remember	-10.0663
▁summit	-10.0665
▁connaissance	-10.0671
▁unacceptable	-10.0674
▁combating	-10.0679
▁chez	-10.0679
▁Cet	-10.0682
responsibilities	-10.0682
▁thought	-10.0685
▁dispose	-10.0688
▁balanced	-10.0692
▁l'euro	-10.0696
▁firstly	-10.0698
▁opinions	-10.0699
▁limited	-10.0702
▁so-called	-10.0706
▁commitments	-10.071
▁pourront	-10.0714
▁comments	-10.0723
▁monetary	-10.0725
▁member	-10.0725
▁parfaitement	-10.0728
▁equality	-10.0728
▁cut	-10.0733
▁agricoles	-10.0734
▁nouvel	-10.0734
▁building	-10.0742
▁Mediterranean	-10.0749
▁sometimes	-10.0778
▁encourager	-10.078
▁analyse	-10.0781
▁hold	-10.0784
▁enterprises	-10.0785
▁ceci	-10.0789
▁élevé	-10.0799
▁procès-verbal	-10.08
▁proposer	-10.0804
▁n’	-10.0805
▁réalisation	-10.0816
▁réfugiés	-10.0823
8	-10.0824
▁contrary	-10.0826
▁competitive	-10.0828
▁Green	-10.0828
▁soins	-10.083
▁American	-10.0842
▁recognition	-10.0843
is	-10.0845
▁article	-10.0846
▁fund	-10.0848
▁espérons	-10.0848
▁entirely	-10.0851
▁constitutionnel	-10.0854
▁spécifique	-10.0858
▁ai	-10.0862
▁tard	-10.0866
▁(NL)	-10.0867
▁mérite	-10.0873
▁recours	-10.0875
▁considérable	-10.0877
▁d'énergie	-10.0884
près	-10.0893
▁constitution	-10.0896
▁home	-10.0896
▁Ainsi	-10.0897
▁concrete	-10.0897
▁Brussels	-10.0906
▁économie	-10.0912
▁elements	-10.092
▁becoming	-10.0921
▁définir	-10.0921
▁britannique	-10.0922
▁Spanish	-10.0926
▁mécanisme	-10.0929
▁européens,	-10.0933
▁l'esprit	-10.0933
▁word	-10.0934
▁discuter	-10.0939
▁expenditure	-10.0944
▁introduce	-10.0945
▁delegation	-10.0948
▁23	-10.095
▁sensible	-10.0955
▁services.	-10.0955
▁broad	-10.0956
▁l'ai	-10.0962
▁durant	-10.0963
▁thinking	-10.0966
▁facing	-10.0968
▁discours	-10.0973
▁pointed	-10.0975
▁East	-10.0981
▁avaient	-10.0988
▁Minutes	-10.0988
▁Nevertheless	-10.0995
▁traite	-10.0999
▁seriously	-10.1001
▁product	-10.1002
▁Après	-10.1008
▁Strasbourg	-10.1008
▁cross-border	-10.1044
▁recommandations	-10.1048
▁monnaie	-10.1052
▁comprehensive	-10.1058
▁differences	-10.1059
▁au-delà	-10.1059
▁history	-10.1061
▁Greece	-10.1067
▁Commissaire	-10.1073
▁mot	-10.1077
▁1997	-10.1078
▁relationship	-10.1079
ir	-10.108
▁establishment	-10.1084
▁Conférence	-10.1086
▁contributions	-10.1088
▁unemployment	-10.1088
▁Messieurs	-10.1097
▁After	-10.1099
▁liberalisation	-10.1126
▁économies	-10.1129
▁added	-10.1134
▁impose	-10.114
▁system.	-10.1142
▁Malheureusement	-10.1144
ic	-10.1149
▁Iraq	-10.1165
▁maintien	-10.117
▁ré	-10.1178
▁CO2	-10.1186
▁wants	-10.1208
▁forget	-10.1209
▁wrong	-10.1209
▁évaluation	-10.1213
▁asking	-10.1213
▁budgétaires	-10.1224
▁souligne	-10.1227
▁venir	-10.1228
▁qu’	-10.1228
▁l'éducation	-10.1232
▁Indeed	-10.1235
▁raise	-10.1257
▁simplification	-10.1257
▁souhaitons	-10.1258
▁recommendations	-10.1259
▁South	-10.1262
▁closer	-10.1266
▁devront	-10.1267
▁méthode	-10.1271
▁liées	-10.1274
▁development.	-10.1276
▁d'améliorer	-10.128
▁d'Europe	-10.1283
▁l'une	-10.1293
▁Italian	-10.1297
▁parts	-10.1302
▁Some	-10.1314
▁probably	-10.1318
▁domaine.	-10.1319
▁chances	-10.1327
▁mai	-10.1327
▁avantages	-10.1334
▁Israel	-10.1339
▁pension	-10.1347
▁weeks	-10.1348
▁Nord	-10.135
ers	-10.1352
▁Summit	-10.136
▁strongly	-10.1362
▁Luxembourg	-10.1368
▁bodies	-10.1376
▁expression	-10.1376
▁prochain	-10.1396
▁threat	-10.1398
▁conclusion,	-10.1409
▁populaire	-10.141
▁risks	-10.1418
▁version	-10.1431
▁leaders	-10.1433
▁Aujourd'hui	-10.1441
ist	-10.1446
▁semaines	-10.1447
▁person	-10.1449
▁appel	-10.1454
▁applies	-10.1459
▁avions	-10.1461
▁exactly	-10.1465
▁happened	-10.147
▁mécanismes	-10.1474
▁lives	-10.1475
▁mars	-10.1475
▁Belarus	-10.1476
▁negative	-10.1481
▁soutenu	-10.1487
▁compensation	-10.1488
▁read	-10.1489
▁représentent	-10.1493
▁seraient	-10.1494
▁fond	-10.1501
▁estime	-10.1503
▁fall	-10.1508
x	-10.1509
▁communes	-10.151
▁properly	-10.151
▁bear	-10.1511
▁low	-10.1519
▁Iran	-10.1525
▁van	-10.1526
▁Environment	-10.1532
▁original	-10.1532
▁reconstruction	-10.1539
▁drawn	-10.1541
▁Palestinian	-10.1544
ès	-10.1545
▁d'ici	-10.1548
▁programme.	-10.1565
▁l'initiative	-10.1566
▁dangerous	-10.1569
▁stocks	-10.1572
▁G	-10.1575
▁milliers	-10.158
▁conflits	-10.1581
▁authority	-10.1582
▁médias	-10.1583
▁2007	-10.1583
▁visa	-10.1584
▁d'État	-10.159
▁build	-10.1591
▁presque	-10.1591
▁faudra	-10.1596
▁outcome	-10.1596
▁l'Assemblée	-10.1604
▁company	-10.1604
▁demandons	-10.1607
▁UK	-10.1607
▁Bruxelles	-10.1608
▁actes	-10.1609
▁proposal.	-10.1613
▁destruction	-10.1623
▁faisons	-10.1625
▁attempt	-10.1626
▁normal	-10.1628
▁seek	-10.1639
▁sujet.	-10.1641
ter	-10.1643
▁Premier	-10.1652
▁damage	-10.1653
▁thème	-10.1653
ive	-10.1659
▁auxquels	-10.1662
▁finance	-10.1664
▁implique	-10.1665
▁developments	-10.167
▁parlons	-10.1673
▁submitted	-10.1675
▁modifier	-10.1677
▁décider	-10.1678
▁coût	-10.168
▁analysis	-10.1693
▁activity	-10.1703
▁laid	-10.1704
▁improved	-10.1714
rons	-10.1717
▁dealt	-10.1722
▁potentiel	-10.1726
▁faudrait	-10.1729
▁instance	-10.1732
▁export	-10.1735
▁j'	-10.1737
▁fera	-10.1759
▁big	-10.176
▁introduced	-10.176
▁protocole	-10.1763
▁pauvres	-10.1773
▁Ladies	-10.1773
▁Amsterdam	-10.1801
▁borders	-10.1804
▁enormous	-10.1813
▁MEPs	-10.1813
▁exist	-10.1817
▁patients	-10.1821
▁longue	-10.1822
▁happy	-10.1827
▁parlementaires	-10.1836
▁s’est	-10.1837
▁militaire	-10.1843
▁s'en	-10.1853
ri	-10.1856
ary	-10.1857
▁industries	-10.1859
▁2006	-10.1859
▁mutual	-10.1867
▁direction.	-10.1879
▁critical	-10.1888
▁initial	-10.1891
▁By	-10.1891
▁taxation	-10.1892
as	-10.1895
▁conference	-10.1903
▁flexibility	-10.1904
▁entièrement	-10.1912
▁informed	-10.1917
rai	-10.1918
▁500	-10.1924
▁prévu	-10.1927
▁putting	-10.193
▁nationale	-10.1933
▁prevention	-10.1933
▁integrated	-10.1933
b	-10.1934
▁sport	-10.1947
▁cela,	-10.1955
▁examine	-10.1955
im	-10.1957
▁vais	-10.1957
▁complex	-10.1961
▁!	-10.1965
▁d'en	-10.1969
▁d'aide	-10.1971
▁growing	-10.1972
▁An	-10.1976
▁montant	-10.1976
▁principalement	-10.198
▁earlier	-10.1993
▁l'argent	-10.1994
▁definition	-10.1995
▁invite	-10.2001
▁1996	-10.2002
▁Grèce	-10.2009
▁l'ont	-10.2014
▁l'action	-10.2018
▁regrettable	-10.2019
▁managed	-10.2024
▁people,	-10.2027
▁armes	-10.2027
▁démocratiques	-10.2028
▁says	-10.203
▁diversité	-10.203
▁maladies	-10.2035
▁l'intention	-10.2036
▁d'information	-10.2036
▁Middle	-10.2041
▁assure	-10.2043
▁place.	-10.2049
▁Trade	-10.2052
▁opening	-10.2053
▁délai	-10.2055
▁technology	-10.2058
▁mainly	-10.2063
▁considérer	-10.2065
▁lumière	-10.2065
▁(A	-10.2068
▁send	-10.2078
▁producers	-10.2083
▁contient	-10.2084
▁organised	-10.2089
▁Even	-10.2092
▁question,	-10.2093
9	-10.2094
▁probablement	-10.2096
▁fear	-10.2096
▁future,	-10.2097
▁reduced	-10.2111
▁unable	-10.2111
▁humains	-10.2112
▁état	-10.2114
▁hier	-10.2115
at	-10.2128
▁child	-10.2128
▁level,	-10.2132
▁sound	-10.2136
▁aborder	-10.2141
▁coup	-10.2143
▁prêts	-10.2146
▁acteurs	-10.2147
▁sensitive	-10.2148
▁Prime	-10.2153
▁collective	-10.2158
▁understanding	-10.2169
▁well.	-10.2174
▁l'homme.	-10.2174
▁gouvernance	-10.2184
▁contains	-10.2186
▁bénéficier	-10.2187
▁merely	-10.2198
▁appliquer	-10.2205
▁critique	-10.2206
▁yesterday	-10.2214
▁desire	-10.2216
▁atteint	-10.2217
▁signed	-10.2226
▁Russian	-10.2227
▁alimentaires	-10.2227
▁burden	-10.2246
▁l'encontre	-10.2248
▁evidence	-10.2253
▁easy	-10.2256
▁animals	-10.2259
▁satisfaction	-10.2262
▁substance	-10.2267
▁parlements	-10.2267
▁Portugal	-10.2275
▁orientations	-10.2276
▁Charter	-10.2287
▁mots	-10.2288
▁resolve	-10.229
▁équilibre	-10.2294
▁seem	-10.2297
▁Africa	-10.2297
▁fondamentale	-10.23
▁prochaines	-10.2306
▁problem.	-10.2307
▁Romania	-10.2313
▁modifications	-10.2315
▁alone	-10.2315
▁immigrants	-10.2318
▁limites	-10.2322
▁remarque	-10.2322
▁disposer	-10.2322
▁leading	-10.2328
▁stratégique	-10.2329
▁Health	-10.2329
▁reprises	-10.2332
▁Programme	-10.2334
▁années.	-10.2338
▁serve	-10.2345
▁22	-10.2356
▁way.	-10.2372
▁standard	-10.2383
▁centres	-10.2394
ness	-10.2407
▁body	-10.2411
▁thousands	-10.2423
▁septembre	-10.2426
▁discharge	-10.2427
▁strict	-10.2428
▁continuing	-10.2429
▁concentrer	-10.243
▁currency	-10.2436
▁Turkish	-10.244
▁problème.	-10.2442
▁origin	-10.2446
▁rail	-10.245
▁exercise	-10.2455
▁60	-10.2456
▁oublier	-10.246
est	-10.2462
▁laws	-10.2464
▁flexible	-10.2465
▁demandes	-10.2466
▁convaincu	-10.2474
▁oeuvre	-10.2474
▁limiter	-10.2475
▁n'ai	-10.2477
▁Roumanie	-10.2492
▁exprimé	-10.2494
▁Spain	-10.2501
▁Many	-10.2503
▁renewable	-10.2505
▁Comment	-10.2509
▁arrive	-10.2513
▁supplémentaire	-10.2514
▁fish	-10.2514
▁matter.	-10.252
▁adequate	-10.2522
▁Même	-10.2523
▁came	-10.253
ci	-10.2531
▁ought	-10.2531
▁représentant	-10.2539
▁failure	-10.2546
▁guarantees	-10.2562
▁excessive	-10.2563
▁négociation	-10.2563
k	-10.257
▁Amendments	-10.2573
▁told	-10.2578
▁recommandation	-10.2578
▁taxes	-10.2579
▁substantial	-10.258
ement	-10.2583
▁sign	-10.2585
▁method	-10.2585
▁worked	-10.2586
▁Ministers	-10.259
▁efficaces	-10.2597
▁avenir	-10.2601
▁staff	-10.2602
▁soutient	-10.2603
▁véhicules	-10.2604
▁méthodes	-10.2604
▁totale	-10.2614
▁disposons	-10.2615
▁September	-10.2626
▁l'absence	-10.2627
▁PME	-10.2628
▁cover	-10.263
▁petits	-10.2631
▁recommendation	-10.2639
▁areas.	-10.264
▁T	-10.264
▁speakers	-10.2643
▁elected	-10.2647
▁actual	-10.2654
▁Européens	-10.2657
▁Que	-10.2668
▁degree	-10.2672
▁defend	-10.2673
▁européennes.	-10.2677
▁montré	-10.2679
▁stade	-10.2684
▁totally	-10.2688
▁presse	-10.2693
me	-10.2705
▁institutions,	-10.2705
▁methods	-10.2712
▁services,	-10.2718
▁1,	-10.2719
▁includes	-10.2719
▁mechanism	-10.272
▁tient	-10.2723
▁confrontés	-10.2725
▁intend	-10.2733
▁l'Europe,	-10.2733
▁globale	-10.2742
▁médicaments	-10.2744
▁migration	-10.2744
▁accorder	-10.2746
▁faites	-10.2748
▁Paper	-10.2751
▁conclu	-10.2757
▁wishes	-10.2763
▁logique	-10.2777
▁(The	-10.2782
▁économique.	-10.2784
▁garanties	-10.2785
▁failed	-10.2794
▁conduite	-10.2796
ie	-10.2803
▁improvement	-10.2805
▁revenir	-10.2817
▁mondialisation	-10.2817
▁related	-10.2821
▁1er	-10.2822
▁formes	-10.2837
▁secure	-10.284
▁idée	-10.2841
▁moi-même	-10.2846
▁linked	-10.2855
▁novembre	-10.2856
▁législatif	-10.2858
▁extend	-10.2859
▁essentielle	-10.2869
▁attirer	-10.2871
▁2,	-10.2879
▁ans.	-10.2887
▁celui-ci	-10.2887
▁voire	-10.2892
▁crises	-10.2895
▁range	-10.2901
▁bringing	-10.2906
▁approuvé	-10.2907
▁sens,	-10.2911
▁test	-10.2915
▁(ES)	-10.2918
▁réelle	-10.2929
▁2008	-10.2929
▁flexibilité	-10.2931
▁ideas	-10.2934
▁établir	-10.2943
▁conventions	-10.2946
▁fiscal	-10.2948
administration	-10.295
V)	-10.2959
0	-10.2962
▁grateful	-10.2963
▁official	-10.2965
▁involvement	-10.2966
▁Why	-10.2966
▁network	-10.2969
▁issues.	-10.2973
▁November	-10.2977
▁happen	-10.2978
▁Car	-10.2978
▁Structural	-10.2987
▁servir	-10.2989
▁Monetary	-10.2996
▁crisis.	-10.3002
▁mobilité	-10.3002
▁heart	-10.3002
▁décharge	-10.3002
▁limite	-10.3009
▁language	-10.3014
▁obvious	-10.302
▁F	-10.302
▁enter	-10.3024
ion	-10.3025
▁rappelle	-10.3026
▁l'avis	-10.3026
▁involving	-10.3032
▁26	-10.3034
▁Sud	-10.3047
▁sociale.	-10.305
▁sujets	-10.3057
▁31	-10.3061
▁divers	-10.3063
▁Agency	-10.3065
▁Alors	-10.3068
▁sentiment	-10.3071
▁occasions	-10.3074
▁J’ai	-10.308
▁opposed	-10.3082
▁navires	-10.3082
▁d'application	-10.3087
▁(RO)	-10.3089
▁Depuis	-10.3089
▁them,	-10.3092
▁interventions	-10.3095
▁communautaire.	-10.3097
▁Do	-10.3104
▁idées	-10.3106
▁getting	-10.3108
▁futur	-10.3116
▁mechanisms	-10.3117
▁mandate	-10.3119
▁penser	-10.3123
▁offre	-10.3124
▁refugees	-10.3132
▁stable	-10.3133
▁morning	-10.3136
▁ready	-10.3138
▁échanges	-10.3139
▁tackle	-10.3141
▁minutes	-10.3142
▁accidents	-10.3143
▁départ	-10.3143
▁2010	-10.3146
▁way,	-10.3146
▁Council's	-10.3147
▁consistent	-10.3149
▁moindre	-10.315
▁law,	-10.315
▁actuelle,	-10.3152
▁addressed	-10.3153
▁chefs	-10.3162
▁traités	-10.3168
▁évidence	-10.3169
▁quelles	-10.317
▁faced	-10.3174
▁operation	-10.3177
▁étape	-10.3181
▁now,	-10.319
▁agences	-10.3198
▁highlight	-10.3204
▁truly	-10.3206
▁obtenu	-10.3213
▁extension	-10.3215
▁argument	-10.3216
▁March	-10.3221
▁immediate	-10.3221
▁protecting	-10.3224
ro	-10.3224
▁examiner	-10.3225
▁Kingdom	-10.3227
▁relever	-10.323
▁advantage	-10.3236
▁retard	-10.324
▁targets	-10.324
▁ajouter	-10.3242
▁America	-10.3246
▁Certains	-10.3249
▁réalisé	-10.325
▁mises	-10.325
▁climat	-10.3253
▁intentions	-10.3256
▁minorités	-10.3262
▁justement	-10.3263
▁travel	-10.3273
▁prend	-10.3273
▁pied	-10.3276
▁durée	-10.3277
▁massive	-10.3277
▁option	-10.3277
▁legislation.	-10.3285
▁bad	-10.3287
▁faciliter	-10.329
▁faite	-10.3299
▁campagne	-10.33
▁règlements	-10.3301
▁recognised	-10.3303
▁indiqué	-10.3304
▁d	-10.3305
▁chiffres	-10.3305
▁persons	-10.332
▁New	-10.3322
▁action.	-10.3326
▁talks	-10.3327
▁humaine	-10.3333
▁forced	-10.3334
▁networks	-10.3334
▁land	-10.3347
▁election	-10.3347
▁préparation	-10.3348
▁véritablement	-10.3351
ré	-10.3352
▁decision-making	-10.3354
▁greatest	-10.3357
▁too.	-10.336
▁relatifs	-10.3363
▁else	-10.3374
▁l'immigration	-10.3375
▁regrette	-10.3376
▁remarques	-10.3384
▁appeal	-10.3386
▁practices	-10.339
▁October	-10.339
▁sent	-10.34
▁granted	-10.341
▁femme	-10.3411
▁critiques	-10.3412
▁fins	-10.3421
▁questions.	-10.3422
▁commerciales	-10.3428
▁heures	-10.3429
▁House.	-10.3429
▁accompli	-10.3439
▁choice	-10.3439
▁humanitaire	-10.3444
▁followed	-10.3444
▁African	-10.3451
▁produire	-10.3451
▁credit	-10.3456
▁Barroso	-10.3463
▁estimons	-10.3464
ais	-10.3466
▁champ	-10.3466
▁absence	-10.3477
▁vertu	-10.348
▁matin	-10.3484
▁insister	-10.3488
▁aujourd'hui.	-10.349
▁appear	-10.3495
▁dirigeants	-10.3506
▁Pourquoi	-10.3506
▁scientifiques	-10.3507
▁society.	-10.3509
▁reply	-10.3512
▁covered	-10.3512
▁man	-10.3515
▁attendre	-10.3516
▁interesting	-10.3516
▁faible	-10.3525
▁200	-10.3534
▁run	-10.3535
▁conduct	-10.3535
▁distinction	-10.3542
▁empêcher	-10.3544
▁governance	-10.3547
▁Lorsque	-10.3561
▁adopting	-10.3566
▁supports	-10.3568
▁mentionné	-10.357
▁inform	-10.3576
ise	-10.3582
▁devait	-10.3585
▁lost	-10.3589
▁points.	-10.3598
▁l'amélioration	-10.3598
▁us,	-10.3601
▁exploitation	-10.3602
▁starting	-10.3611
▁figures	-10.3612
▁réponses	-10.3616
▁L	-10.3617
▁criminalité	-10.3618
▁seeking	-10.3621
▁Kyoto	-10.3622
▁plénière	-10.3622
▁concrètes	-10.3625
▁judiciaire	-10.3635
▁shared	-10.3637
▁soir	-10.3639
▁Ukraine	-10.3639
▁efficacement	-10.3643
▁finances	-10.3643
▁agreement.	-10.3646
▁element	-10.3649
▁contacts	-10.365
▁Budget	-10.3652
▁suffering	-10.3652
▁emploi	-10.3654
▁fondamentales	-10.3655
▁petit	-10.3658
▁avancer	-10.3659
▁comply	-10.3666
▁ability	-10.3669
▁finalement	-10.3671
▁applicable	-10.3678
▁utilisation	-10.3678
▁Euro	-10.3682
▁locales	-10.3683
▁d'éviter	-10.3697
▁1995	-10.3706
▁gender	-10.3706
▁scientifique	-10.3712
▁Affairs,	-10.3714
▁l'introduction	-10.3723
▁cent	-10.3728
▁Avec	-10.3729
▁subventions	-10.3731
▁evaluation	-10.3736
▁l'état	-10.3739
▁réserve	-10.3742
▁(EL)	-10.3742
▁affaire	-10.3747
▁presence	-10.3749
la	-10.3755
▁Afghanistan	-10.3756
▁catastrophe	-10.3757
▁Thirdly,	-10.3757
▁immediately	-10.3759
▁explain	-10.3763
▁l’on	-10.3767
▁North	-10.3772
▁contrôler	-10.3775
▁reject	-10.3781
▁profiter	-10.3781
▁involve	-10.3784
▁Public	-10.3791
▁monitor	-10.3792
▁age	-10.3803
▁déterminer	-10.3807
▁Greek	-10.3811
▁ground	-10.3814
▁devrons	-10.3815
▁auront	-10.3817
▁j'aimerais	-10.382
▁Question	-10.383
▁While	-10.384
▁différences	-10.3843
▁soutenons	-10.3847
▁diverses	-10.3856
▁puissions	-10.386
▁lois	-10.3861
▁ahead	-10.3861
▁proposing	-10.3861
▁thereby	-10.3863
▁Democrats	-10.3864
▁28	-10.3867
▁income	-10.387
▁affect	-10.3874
▁detailed	-10.3875
▁utilisés	-10.3876
▁Bulgaria	-10.3877
▁continues	-10.3886
▁suppression	-10.39
ex	-10.3907
▁portant	-10.3921
▁seuls	-10.3926
▁designed	-10.3928
▁traffic	-10.3929
▁judicial	-10.3929
▁compagnies	-10.3929
▁inacceptable	-10.3931
▁favoriser	-10.3931
▁impression	-10.3931
▁viande	-10.3932
▁economy.	-10.3938
de	-10.3938
▁retour	-10.3941
▁faits	-10.3942
▁monde,	-10.3942
▁Nice	-10.3942
▁payments	-10.3943
▁eaux	-10.3946
▁bilateral	-10.3954
▁États-Unis,	-10.3955
▁Troisièmement	-10.396
▁accepté	-10.3965
▁citizens,	-10.3965
▁statistiques	-10.3967
▁safe	-10.3968
▁sociale,	-10.3975
▁Swedish	-10.3975
▁repeat	-10.3988
▁consommateurs.	-10.3988
▁soi	-10.399
▁rejected	-10.3995
▁Van	-10.3995
▁aurons	-10.3998
▁bas	-10.4003
▁independence	-10.4009
▁target	-10.4009
▁arms	-10.4011
▁consommateur	-10.4012
▁spent	-10.4019
▁revenus	-10.4021
▁l'avenir.	-10.4025
▁l'évolution	-10.4025
▁series	-10.403
▁debates	-10.4031
ai	-10.4035
▁socialiste	-10.4038
▁chemin	-10.4038
▁qu’une	-10.4042
▁bases	-10.4054
▁participate	-10.4055
▁modern	-10.4056
tra	-10.4059
▁planning	-10.406
▁circumstances	-10.406
▁haute	-10.4065
▁charges	-10.4067
▁réflexion	-10.4068
▁poids	-10.4075
▁emphasis	-10.4076
▁euros	-10.4079
▁acts	-10.4082
▁essentiellement	-10.4085
▁region.	-10.4085
▁tests	-10.4089
▁Treaty.	-10.4097
▁banques	-10.4101
▁l'opinion	-10.4106
▁anyone	-10.411
▁binding	-10.4113
▁exactement	-10.4113
▁transfer	-10.4114
▁naturally	-10.4115
▁rates	-10.4115
▁minority	-10.4116
▁expected	-10.4117
▁premières	-10.4117
▁suffit	-10.4133
▁W	-10.4136
▁fasse	-10.4136
▁débat.	-10.4141
▁reasonable	-10.4143
▁lancer	-10.4144
▁citoyen	-10.4145
▁d'informations	-10.4147
pplaudissements)	-10.4148
▁utilisé	-10.4148
▁m'a	-10.4166
▁c	-10.4169
▁problems.	-10.4171
▁Ne	-10.4177
▁cycle	-10.4179
▁2000,	-10.4194
▁adoptées	-10.4197
▁développement,	-10.4199
▁langue	-10.4208
▁combien	-10.421
▁declaration	-10.4218
▁trouvent	-10.4218
▁otherwise	-10.4221
▁changer	-10.4226
▁n'était	-10.4227
▁Rule	-10.4229
▁trafficking	-10.423
▁environ	-10.423
▁improvements	-10.4231
▁réalisés	-10.4232
▁worth	-10.4233
▁representative	-10.4243
▁Eastern	-10.4244
tandis	-10.4246
▁financer	-10.4247
▁nation	-10.4253
▁environment.	-10.4264
▁vert	-10.4268
▁progresser	-10.4269
▁obtain	-10.4279
▁existence	-10.4281
▁parlement	-10.4282
▁préserver	-10.4282
▁crisis,	-10.4282
▁implications	-10.4283
▁Pakistan	-10.4288
▁80	-10.4289
▁campaign	-10.4292
▁l’environnement	-10.4296
▁Tous	-10.4298
▁extérieure	-10.4309
▁d’être	-10.431
▁cultures	-10.4315
▁frais	-10.4323
▁resolutions	-10.4324
▁préparer	-10.4326
▁later	-10.4329
▁règle	-10.4335
pprovisionnement	-10.4343
▁weapons	-10.4343
▁attend	-10.4357
▁calendrier	-10.436
▁Chamber	-10.436
▁inclusion	-10.4366
▁concerned.	-10.4374
▁d'emplois	-10.4375
▁supervision	-10.4395
▁gave	-10.4396
▁parvenus	-10.4399
▁House,	-10.4402
li	-10.4402
▁arrangements	-10.4406
▁pourrions	-10.4407
▁29	-10.4407
man	-10.4408
▁passagers	-10.4409
▁tourisme	-10.4418
▁Such	-10.442
▁rapid	-10.4421
▁controls	-10.4421
▁fortement	-10.4422
▁meilleures	-10.4426
▁amongst	-10.4426
▁commune.	-10.4428
▁sea	-10.4431
▁professional	-10.4432
▁religious	-10.4438
▁technologie	-10.4439
▁then,	-10.4441
▁fermement	-10.4446
▁certes	-10.4451
▁Only	-10.4452
ma	-10.4452
▁environnement	-10.4456
▁équitable	-10.4457
▁catastrophes	-10.4457
▁support.	-10.4459
▁payer	-10.4461
▁rendu	-10.4463
▁manner	-10.4472
▁destinés	-10.4478
▁juillet	-10.4483
▁porter	-10.4484
▁ports	-10.4489
▁conviction	-10.449
▁Agriculture	-10.4493
▁Strategy	-10.4493
▁moral	-10.4496
▁domestic	-10.4496
▁réaction	-10.4497
▁cooperation.	-10.4499
▁politiques.	-10.4499
▁ceux-ci	-10.4499
▁factor	-10.4504
▁restent	-10.4516
▁People'	-10.4517
▁étude	-10.4519
▁regulatory	-10.4521
▁lies	-10.4523
▁neither	-10.4524
▁d'adopter	-10.4524
▁d'assurer	-10.4524
▁faire.	-10.4526
▁Roma	-10.453
▁manage	-10.4532
▁politicians	-10.4541
▁immédiatement	-10.4542
▁General	-10.4546
▁entry	-10.4551
▁happening	-10.4557
▁lower	-10.4564
▁started	-10.4567
▁comprends	-10.4569
▁Assemblée,	-10.4577
▁région.	-10.4582
▁annuel	-10.4584
▁j'estime	-10.4588
▁tourism	-10.4593
▁commerciaux	-10.4595
▁disaster	-10.4601
▁mauvaise	-10.4602
▁transit	-10.4611
▁terrorist	-10.4616
▁generally	-10.4618
▁Those	-10.4627
▁s’	-10.464
▁Agenda	-10.4645
▁viens	-10.4646
▁fail	-10.465
▁proportion	-10.4651
▁Pact	-10.4657
▁Czech	-10.4666
na	-10.4666
▁encouraging	-10.4669
aux	-10.4669
▁Socialist	-10.4673
▁français	-10.4676
▁Sweden	-10.4676
▁whilst	-10.468
▁membership	-10.4683
▁so.	-10.469
▁réfléchir	-10.4694
▁savez,	-10.4696
▁d'origine	-10.4696
▁goal	-10.4705
▁From	-10.4705
▁précise	-10.4708
▁relève	-10.4711
▁Lisbonne.	-10.4712
▁concernés	-10.4712
▁cœur	-10.4712
▁pensions	-10.4713
▁voisins	-10.4713
▁families	-10.4716
▁association	-10.472
▁States'	-10.4721
▁economies	-10.4727
▁SMEs	-10.4727
▁criticism	-10.4732
▁options	-10.4733
▁exige	-10.4735
▁easier	-10.4744
▁Yet	-10.4744
▁sécurité.	-10.4746
▁facilitate	-10.4759
▁plenary	-10.4767
▁tonnes	-10.4768
▁réussi	-10.4779
▁Poland	-10.4781
▁Commission’s	-10.4781
▁Maastricht	-10.4789
▁treaty	-10.479
▁bien-être	-10.4791
▁combattre	-10.4795
▁signaler	-10.4804
▁Bureau	-10.4815
▁delighted	-10.4816
▁firm	-10.4817
▁évoqué	-10.4818
▁Cyprus	-10.4821
▁attacks	-10.4824
▁octobre	-10.4829
isme	-10.4831
▁entreprises.	-10.4835
▁solve	-10.4843
▁n'existe	-10.4844
▁langues	-10.4846
▁ouverte	-10.4853
▁lettre	-10.4858
▁principales	-10.4861
▁appears	-10.4865
▁moving	-10.4867
▁l'espace	-10.4868
▁Western	-10.4871
ated	-10.4874
▁revêt	-10.4874
▁proposée	-10.4875
▁Legal	-10.4884
▁PPE	-10.4888
▁dehors	-10.4893
▁visas	-10.4893
▁Research	-10.4896
▁associations	-10.4906
▁nucléaires	-10.491
▁cohérence	-10.4911
▁autres,	-10.4911
lo	-10.4914
▁imposed	-10.4915
▁carefully	-10.4923
▁vite	-10.4925
▁Quelle	-10.4928
▁missions	-10.493
▁(Le	-10.4939
▁equally	-10.4951
▁connu	-10.4953
▁mobility	-10.4962
▁contribué	-10.4962
▁constitutional	-10.4962
▁précédent	-10.4968
▁(Applause)	-10.4969
▁portée	-10.4972
▁lui-même	-10.4972
▁Auditors	-10.4973
▁attendons	-10.4974
▁meetings	-10.4977
▁ordre	-10.498
▁l'élaboration	-10.4984
ad	-10.4986
▁voice	-10.4989
▁revient	-10.4991
▁internationaux	-10.4994
▁fraude	-10.4994
▁compliance	-10.4995
▁secret	-10.4995
▁communications	-10.4996
▁J'estime	-10.4998
▁familles	-10.5002
▁office	-10.5005
▁d'urgence	-10.501
té	-10.5011
▁reflect	-10.5012
▁acquis	-10.5014
▁modernisation	-10.5017
▁terroristes	-10.502
▁cesse	-10.5021
▁l'OMC	-10.5021
▁elle-même	-10.5022
▁solution.	-10.5024
▁Lisbonne,	-10.5027
▁religion	-10.5029
▁dire,	-10.5032
▁vaste	-10.5037
▁competence	-10.5045
▁lines	-10.5048
▁réserves	-10.5049
▁tour	-10.5051
▁requirement	-10.5053
▁constate	-10.5065
▁fonctionnaires	-10.5066
▁souhaitent	-10.5068
▁link	-10.5069
▁vaut	-10.507
▁communautés	-10.5074
▁marchandises	-10.5077
▁augmenter	-10.5078
▁délais	-10.5078
▁préoccupation	-10.5082
▁system,	-10.5082
▁constituer	-10.5082
▁reprise	-10.5082
lé	-10.5082
I	-10.5084
▁Funds	-10.5085
▁subsidiarity	-10.5085
▁Berlin	-10.5089
▁Suède	-10.5093
▁endorse	-10.5095
▁parents	-10.5097
▁déposé	-10.5104
▁approval	-10.511
▁trouvé	-10.5115
▁fiscale	-10.512
▁ouvert	-10.512
▁O	-10.5123
v	-10.5124
▁essentiels	-10.5129
▁position.	-10.5131
▁L'Europe	-10.5133
▁conservation	-10.5139
▁entendre	-10.5144
▁Cuba	-10.5147
▁qu’un	-10.5149
▁Livre	-10.515
▁opérations	-10.5152
▁subsidies	-10.5154
▁diversity	-10.5157
▁permettent	-10.5159
▁fighting	-10.5165
▁matières	-10.5169
▁étroite	-10.5169
▁militaires	-10.5174
▁separate	-10.5183
▁placed	-10.5183
▁interested	-10.5185
▁lose	-10.5191
▁forthcoming	-10.5199
▁round	-10.52
ance	-10.5204
▁paraît	-10.5207
▁appropriations	-10.5211
ate	-10.5211
▁garder	-10.5215
au	-10.5217
▁terminer	-10.5219
▁Action	-10.522
▁fixer	-10.5222
▁auxquelles	-10.5229
▁conséquence	-10.5231
▁Europol	-10.5233
▁territory	-10.524
▁personally	-10.5247
▁tobacco	-10.5248
▁helping	-10.5248
▁likely	-10.525
▁fraud	-10.5254
▁Sea	-10.5258
▁safeguard	-10.5259
▁negotiating	-10.5259
▁port	-10.526
▁today's	-10.5264
▁Stability	-10.5274
▁espace	-10.5275
▁sides	-10.5275
▁Charte	-10.5278
▁moitié	-10.5282
▁speed	-10.5286
...	-10.5288
»,	-10.5292
ul	-10.5293
▁affairs	-10.5294
▁supprimer	-10.5297
▁acte	-10.5301
▁êtes	-10.5301
▁c'	-10.5301
▁labelling	-10.5301
▁Pologne	-10.5308
▁disponibles	-10.5308
▁committees	-10.5312
▁poursuite	-10.5315
▁disease	-10.532
▁l'innovation	-10.5321
▁d'intérêt	-10.5324
▁fer	-10.5325
ner	-10.5326
▁Policy	-10.5326
▁établi	-10.5327
▁payment	-10.5333
▁articles	-10.5333
▁traditional	-10.5338
▁dépend	-10.5339
▁notion	-10.5346
▁voulu	-10.5348
▁proposes	-10.5358
▁Israël	-10.536
▁Éta	-10.5361
▁facile	-10.5366
▁refuse	-10.5366
▁offrir	-10.5367
▁Bulgarie	-10.5369
▁K	-10.5373
▁famille	-10.5378
▁accrue	-10.5379
▁transactions	-10.5382
▁justice.	-10.5384
▁hausse	-10.5387
▁Baltic	-10.5388
▁customs	-10.5408
▁vouloir	-10.5411
▁learn	-10.5412
▁entreprises,	-10.5413
▁trading	-10.5415
▁J'	-10.5422
▁allowing	-10.5422
▁realise	-10.5426
el	-10.5431
▁régional	-10.5432
▁defined	-10.5433
▁l'impact	-10.5435
▁board	-10.5439
▁maladie	-10.5441
▁régionale	-10.5442
▁minute	-10.5442
▁area,	-10.5443
▁vivre	-10.5444
▁numerous	-10.5446
▁tendance	-10.5446
▁continued	-10.5448
▁é	-10.5452
▁industry.	-10.5459
▁issue,	-10.5459
▁peaceful	-10.5462
▁plein	-10.5468
▁J'aimerais	-10.5469
▁vivent	-10.547
▁glad	-10.5472
▁Re	-10.5478
▁débattre	-10.5478
▁voluntary	-10.5481
▁According	-10.5493
▁PPE-DE	-10.55
▁tenter	-10.5509
▁crédibilité	-10.5515
▁expérience	-10.5517
▁change.	-10.552
▁Aussi	-10.5523
▁ECU	-10.5525
▁policies.	-10.5528
▁credibility	-10.5531
▁limits	-10.5534
▁hours	-10.5535
▁Assemblée.	-10.5535
go	-10.5539
▁record	-10.5539
▁lien	-10.5541
▁complète	-10.5543
▁demonstrate	-10.5547
▁demonstrated	-10.5549
▁blanc	-10.555
▁sérieusement	-10.5552
▁Not	-10.5555
▁agencies	-10.5556
▁l'échelle	-10.5562
▁personnellement	-10.5564
▁correctement	-10.5565
▁études	-10.5573
▁l'accent	-10.5573
▁concernent	-10.5574
▁associated	-10.558
▁résolutions	-10.5583
▁April	-10.5587
▁terrain	-10.5589
▁pêcheurs	-10.559
▁différence	-10.5594
▁letter	-10.5598
▁subsidiarité	-10.5602
ling	-10.5605
▁material	-10.561
▁entreprise	-10.561
▁grounds	-10.5611
▁ambitieux	-10.5614
▁rend	-10.562
▁consommateurs,	-10.562
▁Plus	-10.5628
▁fruit	-10.5638
▁gain	-10.5644
ia	-10.565
to	-10.5651
▁revision	-10.5652
ism	-10.5653
▁visit	-10.5661
▁imposer	-10.5664
▁recevoir	-10.5667
▁capacités	-10.5671
▁Vice-President	-10.5671
▁Another	-10.5671
▁population.	-10.5672
▁operate	-10.5673
▁joue	-10.5685
▁connaître	-10.5685
▁démocrates	-10.5686
▁Framework	-10.5687
▁Quant	-10.5687
▁minorities	-10.5688
▁stock	-10.5689
▁attack	-10.5692
▁l'augmentation	-10.5692
▁front	-10.5693
▁entend	-10.5697
▁space	-10.5699
▁peoples	-10.57
▁d'asile	-10.5702
▁activité	-10.5712
▁d'aujourd'hui	-10.5714
▁functioning	-10.5715
▁phénomène	-10.5715
di	-10.5716
▁Lastly	-10.5717
▁factors	-10.5719
▁destinées	-10.572
▁d'emploi	-10.5725
▁process,	-10.5727
▁written	-10.5727
▁tried	-10.574
▁suggest	-10.5743
▁ultimately	-10.5751
▁aliments	-10.5753
▁présentée	-10.5757
▁amélioration	-10.5757
▁assume	-10.576
▁Commissioners	-10.5762
▁average	-10.5762
▁late	-10.5768
▁esprit	-10.5771
▁ethnic	-10.5774
▁fut	-10.5779
▁constant	-10.578
▁changed	-10.5781
▁sens.	-10.5782
▁égard.	-10.5784
ous	-10.5784
▁d'obtenir	-10.579
▁contained	-10.5793
▁précis	-10.5796
▁préciser	-10.5802
▁celles-ci	-10.5806
▁Italy	-10.5807
▁partout	-10.5812
▁Portuguese	-10.5818
▁exception	-10.5818
▁énorme	-10.5819
▁now.	-10.5827
▁historique	-10.5838
▁technological	-10.5838
▁cooperate	-10.5839
▁connaît	-10.5843
▁recovery	-10.5844
▁floor	-10.5851
▁concluded	-10.5852
▁cancer	-10.5859
▁facteurs	-10.5859
▁nécessaire.	-10.5859
▁Sa	-10.586
▁l'histoire	-10.5862
▁réunions	-10.5863
▁quels	-10.5864
ns	-10.5868
▁primarily	-10.5878
▁forum	-10.5882
▁communities	-10.5884
▁commentaires	-10.589
▁democracy.	-10.5891
▁fonctionne	-10.5891
▁renouvelables	-10.5893
▁transfert	-10.59
▁avril	-10.5902
▁Financial	-10.5902
▁citizen	-10.5903
▁legitimate	-10.5903
▁centrales	-10.5909
▁dignité	-10.5914
▁fondée	-10.5923
▁paiements	-10.5924
▁parliaments	-10.5929
▁measures.	-10.5933
▁terrible	-10.5937
▁favorables	-10.5939
▁2000.	-10.594
▁appreciate	-10.5942
▁conscients	-10.5948
▁Energy	-10.5948
▁réel	-10.5949
▁ex	-10.5955
▁Avant	-10.5956
▁l'engagement	-10.5956
▁tradition	-10.5957
▁marché.	-10.5959
▁Austria	-10.5959
▁prepare	-10.596
▁m'	-10.5961
▁C'	-10.5964
▁relativement	-10.5965
▁consumption	-10.5969
▁overcome	-10.5971
▁réussite	-10.5974
▁...	-10.5975
▁path	-10.598
▁awareness	-10.5981
▁entitled	-10.5983
▁commissions	-10.5984
s'	-10.5984
▁public.	-10.5987
do	-10.5989
▁Market	-10.599
▁l'exercice	-10.5991
▁approve	-10.5994
▁mass	-10.5995
▁officials	-10.601
▁debt	-10.601
▁work,	-10.6013
▁confirm	-10.6018
▁l'évaluation	-10.602
▁suggestions	-10.6024
▁arriver	-10.6028
▁heures.	-10.603
▁passed	-10.6033
▁qu'a	-10.6035
▁involves	-10.6041
um	-10.6042
-il	-10.6045
▁welfare	-10.6048
▁itself.	-10.6053
▁apporté	-10.6055
▁top	-10.6061
▁ajoutée	-10.6061
▁terme.	-10.6063
▁banks	-10.6064
▁?uvre	-10.6069
▁played	-10.6071
▁dépit	-10.6077
▁division	-10.608
▁Despite	-10.6089
M	-10.609
▁concentration	-10.6093
▁delay	-10.6095
▁clé	-10.6099
▁allocated	-10.6106
▁%.	-10.6107
▁amounts	-10.6108
▁leadership	-10.611
▁traditions	-10.6114
▁obstacle	-10.6118
▁inquiétudes	-10.6122
▁législative	-10.6128
▁got	-10.6128
▁capables	-10.6137
▁permettrait	-10.6145
▁detail	-10.6145
▁Given	-10.6151
▁d'autant	-10.6155
▁intervenir	-10.6155
▁petite	-10.6155
▁emergency	-10.6163
▁Dutch	-10.6176
▁serons	-10.6176
▁treated	-10.6177
▁h	-10.6178
▁complètement	-10.6179
▁spending	-10.6182
▁context,	-10.6182
▁savez	-10.6182
▁paiement	-10.6183
▁loss	-10.6185
▁Lors	-10.6186
▁tôt	-10.619
▁sexual	-10.6192
▁Chinese	-10.6196
▁administratives	-10.6196
▁firmly	-10.6199
▁Transport	-10.6201
▁whatever	-10.6206
▁vois	-10.6211
▁proposées	-10.6211
▁compter	-10.6213
▁prévue	-10.6215
▁proposés	-10.6215
▁février	-10.6221
▁nevertheless	-10.6225
▁pursue	-10.6234
▁principale	-10.6236
▁extended	-10.624
▁vulnerable	-10.6242
▁organes	-10.6244
▁d’abord	-10.6252
▁requested	-10.6254
▁jeu	-10.6256
▁temporary	-10.6263
vo	-10.6273
▁baisse	-10.6276
et	-10.6279
▁Treaty,	-10.628
▁évolution	-10.6283
▁decisive	-10.6284
▁consolidation	-10.6288
▁pouvait	-10.6288
▁closed	-10.6295
▁resources.	-10.6299
▁détermination	-10.6301
▁l’ensemble	-10.6305
▁publicité	-10.6305
▁réglementations	-10.6305
▁concernées	-10.6306
▁planned	-10.631
▁wonder	-10.6317
▁co	-10.6318
▁formuler	-10.6319
▁High	-10.6322
▁(HU	-10.6326
▁prévenir	-10.6326
▁70	-10.6329
▁partner	-10.633
▁accident	-10.6331
▁unless	-10.6332
▁Europeans	-10.6332
▁knows	-10.634
▁garde	-10.6341
▁existent	-10.6342
▁90	-10.6345
▁mauvais	-10.6349
▁perdre	-10.6352
▁development,	-10.6352
▁installations	-10.6356
▁actuelles	-10.6358
▁passage	-10.6359
ta	-10.6361
▁moment.	-10.6362
▁latter	-10.6362
▁autour	-10.6365
▁d'établir	-10.6372
▁législatives	-10.6377
▁s’il	-10.6381
▁textes	-10.6382
▁NATO	-10.6394
▁July	-10.6396
▁citizens'	-10.6397
▁investments	-10.64
▁2009.	-10.6402
▁progressive	-10.6402
▁electronic	-10.6406
▁plaisir	-10.6406
▁Ensuite	-10.6406
▁homme	-10.641
▁d’accord	-10.6412
▁l'organisation	-10.6419
▁Perhaps	-10.6423
▁somewhat	-10.6427
▁employees	-10.6429
▁mode	-10.6433
▁secondly	-10.6436
▁agency	-10.644
▁croire	-10.644
▁35	-10.6444
▁internationale.	-10.6444
▁orateurs	-10.6444
▁conflicts	-10.6445
▁resolution.	-10.645
▁please	-10.645
▁envisager	-10.6454
▁R	-10.6457
les	-10.6458
▁interne	-10.6459
▁taxe	-10.6459
▁répartition	-10.6465
▁H	-10.6466
▁drugs	-10.6471
▁ministers	-10.6474
▁prison	-10.6474
▁culturelle	-10.6477
▁l'eau	-10.6488
▁directrices	-10.6494
▁textile	-10.6494
▁l’avenir	-10.6496
▁Here	-10.6501
ag	-10.6511
▁proceed	-10.6514
▁positifs	-10.6519
▁preventing	-10.652
▁jour,	-10.6521
▁créé	-10.6526
▁sites	-10.6534
▁régimes	-10.6536
▁prove	-10.6544
▁Sans	-10.6545
▁Copenhagen	-10.6547
▁offers	-10.6549
▁commerciale	-10.6558
▁l'intérieur	-10.6559
▁ferme	-10.656
▁fulfil	-10.6562
▁réagir	-10.6562
▁l'approche	-10.6564
▁noted	-10.6566
▁soumettre	-10.6568
▁considérables	-10.6568
▁Head	-10.6572
id	-10.6572
▁programmes.	-10.6575
▁one.	-10.6582
▁Fundamental	-10.6585
▁auraient	-10.6588
▁goals	-10.6595
▁insurance	-10.6602
raient	-10.6604
▁effectiveness	-10.6608
▁compared	-10.6613
▁constantly	-10.6614
▁Barroso,	-10.662
▁l'avons	-10.662
▁transport.	-10.6621
▁facteur	-10.6622
▁referendum	-10.6622
▁happens	-10.6622
▁remarquer	-10.6625
▁montrent	-10.6632
▁products.	-10.6633
▁territorial	-10.6634
▁operational	-10.6636
▁Gaza	-10.6641
▁ressort	-10.6641
▁tentative	-10.6643
▁tasks	-10.6643
▁spoke	-10.6644
▁travaillé	-10.6644
▁considering	-10.6645
▁highest	-10.6647
▁preparing	-10.665
▁ONG	-10.6651
▁circonstances	-10.6661
▁jour.	-10.6663
▁tool	-10.6669
▁Concernant	-10.6672
▁gone	-10.6684
▁sortir	-10.6685
▁Then	-10.6697
algré	-10.6698
▁property	-10.6698
▁spoken	-10.6699
ine	-10.67
▁drawing	-10.6701
▁applying	-10.6702
▁régionales	-10.6706
▁tabac	-10.6714
▁tâches	-10.6718
▁reconnu	-10.673
▁référendum	-10.6735
▁suppose	-10.6741
▁case.	-10.6741
▁Report	-10.6742
▁organisé	-10.675
▁undoubtedly	-10.675
▁touche	-10.6755
▁NGOs	-10.6758
▁profits	-10.6764
▁visite	-10.6767
▁urgently	-10.6768
▁l'emploi.	-10.6772
▁Protection	-10.6777
▁insist	-10.6784
▁fuel	-10.6784
▁propriété	-10.6785
▁revanche	-10.6785
▁lancé	-10.6787
▁allows	-10.6788
▁freedoms	-10.6795
▁Canada	-10.68
▁importations	-10.6801
▁prennent	-10.6802
▁performance	-10.6802
▁Because	-10.6803
▁Croatia	-10.6807
▁l'obligation	-10.6807
▁programme-cadre	-10.6808
▁operations	-10.6809
▁reconnaît	-10.6809
▁determined	-10.681
▁commissaires	-10.6811
op	-10.6813
▁seconde	-10.6817
▁torture	-10.682
▁s'ils	-10.6826
▁alternatives	-10.6844
pe	-10.6848
▁procedure.	-10.6848
▁fishermen	-10.6851
ut	-10.6851
▁contribue	-10.6852
▁bout	-10.6853
▁Pourtant	-10.6853
▁aérien	-10.6853
▁mentionner	-10.6855
▁qualifications	-10.6855
▁introducing	-10.6856
▁prêt	-10.686
▁announced	-10.6861
▁d'a	-10.6862
▁Budgets	-10.6862
▁latest	-10.6863
▁relates	-10.6864
▁commencé	-10.6865
▁conseil	-10.6868
▁hors	-10.689
▁l'ouverture	-10.6896
▁stronger	-10.6899
▁bientôt	-10.69
▁souveraineté	-10.69
▁details	-10.6905
▁respecte	-10.6905
▁concitoyens	-10.6906
▁perdu	-10.6907
▁présidents	-10.6908
▁l'entrée	-10.6914
▁precise	-10.6916
▁counter	-10.6916
▁autrement	-10.6916
▁codecision	-10.6918
▁formal	-10.692
▁signé	-10.692
▁exclusion	-10.692
▁volume	-10.6921
▁month	-10.6928
▁construire	-10.6931
▁diminution	-10.6936
▁described	-10.6936
▁eux-mêmes	-10.6938
▁améliorations	-10.6939
▁represented	-10.6939
▁joué	-10.6941
▁prévoir	-10.6949
▁l'origine	-10.6954
▁gérer	-10.6954
▁Ombudsman	-10.6957
▁300	-10.696
▁extra	-10.6965
▁conduit	-10.6968
▁choose	-10.6972
▁contradiction	-10.6972
▁claires	-10.6973
▁majeure	-10.6975
▁keeping	-10.6985
▁l'époque	-10.699
▁complexe	-10.699
▁Organisation	-10.6995
▁Chypre	-10.7012
▁studies	-10.7012
▁transposition	-10.7012
▁répéter	-10.7019
▁languages	-10.702
▁guaranteed	-10.7023
▁2010.	-10.7024
A	-10.7026
▁resolution,	-10.7029
▁protection.	-10.7031
▁citer	-10.7034
▁statistics	-10.7035
▁dangers	-10.7036
▁historic	-10.7051
▁done.	-10.7051
transfrontalière	-10.7053
▁India	-10.7055
ment,	-10.706
▁biens	-10.7068
ts	-10.7071
▁meilleurs	-10.7071
▁continuent	-10.7071
▁Non	-10.7072
▁confirmed	-10.7073
urs	-10.7074
▁raisonnable	-10.7074
▁Fisheries	-10.7075
▁chef	-10.7076
▁actuels	-10.7077
▁scheme	-10.708
▁UE	-10.7081
▁régler	-10.709
▁scale	-10.709
▁pétrole	-10.709
▁anti-	-10.7093
▁femmes.	-10.7098
▁operating	-10.7107
▁barriers	-10.7113
▁invest	-10.7122
▁suggestion	-10.7123
▁3,	-10.7135
▁vehicles	-10.714
▁uniform	-10.7141
▁difference	-10.7142
▁viennent	-10.7144
▁Israeli	-10.7145
▁fais	-10.715
▁remarks	-10.7153
▁operators	-10.7154
▁debating	-10.7157
▁entrer	-10.7159
▁expliquer	-10.7161
▁préalable	-10.7172
▁sept	-10.7173
▁briefly	-10.7174
▁ayons	-10.7177
▁seven	-10.7181
co	-10.7185
▁exists	-10.7189
▁États-Unis.	-10.7189
ly,	-10.7189
▁organismes	-10.719
▁largely	-10.7192
▁regions.	-10.72
▁clarify	-10.7202
▁n’ont	-10.7204
▁considéré	-10.7204
▁2006,	-10.7208
▁introduit	-10.7213
▁l'an	-10.7214
▁condemn	-10.7215
▁submit	-10.7216
lu	-10.7219
▁menées	-10.722
▁kept	-10.7226
▁2.	-10.7228
▁coordinated	-10.7233
▁L'UE	-10.7235
▁realistic	-10.7244
▁incombe	-10.7251
▁difficiles	-10.7257
▁sincèrement	-10.7258
▁énergies	-10.7259
▁travaillent	-10.7266
▁again.	-10.7267
▁laisse	-10.727
▁Rome	-10.7272
ac	-10.7273
▁mouvement	-10.7285
▁politics	-10.7298
▁déficit	-10.7299
▁Alliance	-10.7299
▁intends	-10.7302
▁innovative	-10.7304
▁fine	-10.7304
ry	-10.7307
▁menée	-10.7309
▁abuse	-10.7311
▁j'en	-10.7312
terinstitutional	-10.7319
▁diseases	-10.732
▁marge	-10.732
▁trait	-10.732
▁individuals	-10.7323
▁politically	-10.7327
▁d'y	-10.7327
▁willing	-10.7331
▁Consumer	-10.7333
▁signature	-10.734
▁considérons	-10.7341
▁PAC	-10.7342
▁clauses	-10.7343
▁2007,	-10.7346
▁Pays-Bas	-10.7349
▁livre	-10.735
▁science	-10.7355
▁semblent	-10.7357
▁image	-10.7357
▁élevés	-10.7358
▁suffer	-10.7361
▁published	-10.7361
▁USA	-10.7361
▁compatible	-10.7364
▁imports	-10.7366
▁finding	-10.7368
▁D'un	-10.7372
▁coherent	-10.7375
▁consultations	-10.7377
iez	-10.7378
▁prête	-10.7381
▁V	-10.7382
▁observations	-10.7385
▁maintaining	-10.739
▁universal	-10.739
▁irlandais	-10.7392
▁industrie	-10.7396
vi	-10.74
▁resolved	-10.7401
▁Patten	-10.7402
▁d'avis	-10.7407
▁industrielle	-10.7409
▁répète	-10.7412
▁conserver	-10.7417
▁engage	-10.7418
▁farming	-10.742
▁room	-10.7422
▁places	-10.7425
▁activement	-10.7431
▁Constitutional	-10.7436
▁d'Amsterdam	-10.7436
▁réduit	-10.7438
▁usage	-10.7439
▁correspond	-10.7441
eurs	-10.7446
▁examples	-10.7446
mo	-10.745
▁ressortissants	-10.7452
▁liée	-10.7456
▁leader	-10.7458
ed.	-10.746
▁honour	-10.7461
▁advance	-10.7464
▁deliver	-10.7465
▁oppose	-10.7466
O	-10.7466
▁Employment	-10.7468
▁adhésion	-10.7468
▁perfectly	-10.7469
▁CE	-10.7472
▁conditions.	-10.7475
qui	-10.7481
▁evening	-10.7487
▁aurions	-10.7488
▁présents	-10.7492
▁socialistes	-10.7498
▁dumping	-10.7498
▁electricity	-10.7501
▁démocratie.	-10.7502
▁confusion	-10.7503
▁d'adhésion	-10.7508
▁enjoy	-10.7509
▁comprend	-10.7509
▁CAP	-10.7513
▁Solana	-10.7515
▁denrées	-10.7517
▁assumer	-10.7519
▁amending	-10.7523
▁Instead	-10.7524
▁proposition.	-10.7525
▁February	-10.7527
▁united	-10.7532
▁spécial	-10.7532
▁Group,	-10.7532
▁adapt	-10.7541
▁unfair	-10.7543
▁assess	-10.7543
▁villes	-10.7543
▁ambition	-10.7545
▁tiers.	-10.7547
▁undertaken	-10.7549
▁passengers	-10.7551
▁ongoing	-10.7552
▁démarche	-10.7554
▁significantly	-10.7555
▁ago.	-10.7556
▁largest	-10.7562
▁restructuring	-10.7572
▁abordé	-10.7574
▁communautaire,	-10.7575
▁near	-10.7575
▁vivement	-10.7577
▁ville	-10.7578
▁moyenne	-10.7579
▁l’accord	-10.7586
▁stratégies	-10.7587
▁l’aide	-10.7594
▁paroles	-10.7599
▁dependent	-10.76
▁shadow	-10.7605
▁felt	-10.7605
▁waiting	-10.7606
▁employment.	-10.7607
ver	-10.7608
▁migrants	-10.7614
▁l'Organisation	-10.7615
▁repose	-10.762
▁wait	-10.7636
▁comporte	-10.7636
▁offered	-10.7639
▁avancées	-10.7644
▁restructuration	-10.7648
▁agit	-10.7651
▁comportement	-10.7653
▁opportun	-10.7653
▁difficulty	-10.7654
▁regular	-10.7654
▁généralement	-10.7655
▁premiers	-10.7661
▁récente	-10.7661
▁globalisation	-10.7662
▁saluer	-10.7663
▁prévues	-10.7663
▁adéquate	-10.7669
ique	-10.7674
▁centaines	-10.7676
▁qualified	-10.7678
▁jobs.	-10.7678
▁concentrate	-10.7683
▁define	-10.7687
▁erreur	-10.7688
▁conséquence,	-10.7688
▁hands	-10.7689
▁intégrée	-10.7691
ille	-10.7694
',	-10.7694
▁2008,	-10.7695
▁Dur	-10.7697
▁formulation	-10.7701
▁participants	-10.7701
▁Zimbabwe	-10.7706
▁communs	-10.7711
▁brings	-10.7714
rs	-10.7716
▁contain	-10.7717
mi	-10.772
▁l'existence	-10.7721
▁visent	-10.7722
▁determination	-10.7725
▁holding	-10.7726
▁d'utiliser	-10.7735
▁Irlande	-10.7736
▁enfin,	-10.7737
▁viable	-10.774
▁enquête	-10.7741
▁school	-10.7743
▁perte	-10.7749
▁proved	-10.7752
▁Can	-10.7753
▁conforme	-10.7753
▁solide	-10.7755
ations	-10.7756
▁définitive	-10.7761
▁Assembly	-10.7765
▁apporte	-10.7771
▁Serbia	-10.7772
▁nécessite	-10.7776
▁fixé	-10.7778
▁observe	-10.7781
▁transport,	-10.7784
▁naturelles	-10.7787
▁cohérente	-10.7789
▁understood	-10.7793
▁exportations	-10.7793
▁careful	-10.7795
▁More	-10.7798
▁claim	-10.7802
ti	-10.7802
▁highlighted	-10.7804
▁est-il	-10.7813
▁envisage	-10.7817
▁d'association	-10.7817
▁changing	-10.7827
▁partenaire	-10.7827
▁détails	-10.7829
▁répercussions	-10.783
▁brief	-10.783
▁codécision	-10.7839
▁taille	-10.7842
▁out.	-10.7843
▁acknowledge	-10.7845
▁learning	-10.7845
ba	-10.7856
▁speaker	-10.7858
▁obligatoire	-10.7859
▁accroître	-10.7859
▁présentation	-10.786
▁stabilisation	-10.7862
▁distance	-10.7869
▁protected	-10.7878
▁pêche.	-10.7882
▁works	-10.7886
▁vessels	-10.7887
▁Commission'	-10.789
▁d'argent	-10.7894
▁extérieures	-10.7897
▁negotiations.	-10.7899
▁postes	-10.79
▁VAT	-10.79
▁valuable	-10.7905
▁release	-10.7906
no	-10.7907
▁composition	-10.791
▁d'atteindre	-10.791
▁West	-10.7913
▁l'établissement	-10.7915
▁bénéfices	-10.7916
▁security.	-10.7918
▁exceptions	-10.7919
ating	-10.792
▁pouvez	-10.792
▁medical	-10.792
▁transformation	-10.7922
▁commune,	-10.7924
▁tchèque	-10.7928
▁post	-10.7929
▁disposent	-10.7931
▁Last	-10.7932
▁succeed	-10.7935
▁Latin	-10.7935
▁radical	-10.7938
▁genuinely	-10.794
gouvernementale	-10.7943
▁dignity	-10.7944
▁2010,	-10.7945
▁britanniques	-10.7947
▁détail	-10.7949
▁provenance	-10.795
▁provenant	-10.7951
▁pilier	-10.7962
▁utilisées	-10.7963
▁legally	-10.7964
▁international.	-10.7964
▁Cooperation	-10.7969
▁listen	-10.7969
▁justified	-10.7974
▁significative	-10.7975
▁Plan	-10.7977
▁l'Irlande	-10.7979
▁accessible	-10.798
▁Doha	-10.798
▁ambitions	-10.7983
▁frontière	-10.7983
▁directe	-10.7993
▁plant	-10.8001
▁Dublin	-10.8004
vironnementales	-10.8006
▁1.	-10.8006
▁2007.	-10.8007
00	-10.8008
▁Austrian	-10.8009
▁Ashton	-10.8009
▁Parliament’s	-10.8012
▁dynamique	-10.8014
▁Hungarian	-10.8015
C	-10.8018
▁Finland	-10.8021
▁observation	-10.8022
▁transfrontalier	-10.8034
▁referring	-10.8034
▁brièvement	-10.8039
▁apart	-10.804
▁amended	-10.8043
▁driving	-10.8044
ign	-10.8046
▁seeing	-10.8048
▁tête	-10.805
▁siècle	-10.8054
ser	-10.8057
▁adopte	-10.8059
▁devient	-10.8064
▁basée	-10.8066
▁connaissons	-10.8069
▁function	-10.8072
▁habitants	-10.8075
ntergovernmental	-10.8076
▁penalty	-10.8077
▁reprendre	-10.808
▁tellement	-10.808
▁degré	-10.8081
▁agenda.	-10.8084
▁absolute	-10.8087
▁dangereux	-10.8095
▁negotiation	-10.8096
▁parties.	-10.8103
▁choisir	-10.8113
▁règlement.	-10.812
▁pro	-10.8122
▁resulting	-10.8124
▁française	-10.8124
▁Fischler	-10.8129
▁Control	-10.8134
▁Food	-10.8134
▁capitaux	-10.8136
▁organisée	-10.8145
▁urban	-10.8145
▁National	-10.8149
▁truth	-10.815
-t-il	-10.8151
▁majeur	-10.8152
▁reflète	-10.8152
▁Rapport	-10.8152
▁exercer	-10.8154
▁White	-10.8154
▁Schulz	-10.8164
▁Verheugen	-10.8164
▁l'Agence	-10.8165
▁playing	-10.8166
▁Quand	-10.8169
iser	-10.817
▁attention.	-10.8173
▁Internal	-10.8175
▁pleine	-10.8183
▁n°	-10.8185
▁choisi	-10.8199
▁essayer	-10.8203
▁télévision	-10.8205
▁Portugal,	-10.8207
va	-10.8207
▁remove	-10.8207
▁(vote)	-10.821
▁ferroviaire	-10.8214
▁orientale	-10.822
▁crédit	-10.8221
▁preparation	-10.8223
▁quota	-10.8224
▁soyons	-10.8227
▁approach.	-10.8228
▁discipline	-10.8231
▁durable.	-10.8235
▁dossiers	-10.8238
▁médiateur	-10.8238
▁life.	-10.824
▁conception	-10.8246
▁résolution,	-10.8246
▁l'impression	-10.8251
iste	-10.8254
▁Centre	-10.8256
▁étroitement	-10.8264
ve	-10.8266
▁importance.	-10.8273
▁Comité	-10.8276
▁assist	-10.8278
▁prospérité	-10.828
▁head	-10.828
▁n'ait	-10.828
▁répond	-10.8281
▁duquel	-10.8281
▁leads	-10.8282
▁grant	-10.8283
▁refus	-10.8286
▁primary	-10.8286
▁daily	-10.8286
▁PSE	-10.8291
▁milk	-10.8291
▁neighbouring	-10.8293
ni	-10.8298
▁pratiquement	-10.83
▁paper	-10.8302
▁ravi	-10.8303
▁television	-10.8307
▁avancée	-10.831
▁attentes	-10.8311
▁Rights,	-10.8314
▁wine	-10.8316
▁Thursday	-10.8317
▁strategies	-10.8324
▁informer	-10.8325
▁Brok	-10.8327
▁constitute	-10.833
▁investigation	-10.8331
per	-10.8332
▁spread	-10.8332
▁bons	-10.8336
▁4,	-10.834
▁donnée	-10.8341
▁Before	-10.8343
▁introduire	-10.8344
▁bit	-10.8347
▁amis	-10.8348
▁temps.	-10.8348
▁Northern	-10.8353
▁chiffre	-10.8363
▁libéraux	-10.8363
ence	-10.8366
▁behaviour	-10.8368
▁privé	-10.8368
▁accordée	-10.8372
am	-10.8372
▁century	-10.8373
L	-10.8374
▁ones	-10.8376
▁Once	-10.8376
▁remettre	-10.8379
ised	-10.838
▁réside	-10.8381
▁built	-10.8384
▁nationaux.	-10.8385
▁rules.	-10.8388
mp	-10.8388
▁actively	-10.8388
▁l'ONU	-10.8389
os	-10.8392
▁Britain	-10.8394
▁saw	-10.8398
▁Safety	-10.84
▁forward.	-10.8403
▁terre	-10.8403
ally	-10.8405
▁entier	-10.8405
▁purposes	-10.8407
▁2004.	-10.8409
▁représentation	-10.841
▁élaborer	-10.841
▁américain	-10.8411
▁l'interdiction	-10.8416
▁region,	-10.8417
▁2008.	-10.8419
environnementaux	-10.8422
honorable	-10.8423
▁check	-10.8425
▁p.m.	-10.8427
▁vague	-10.8431
▁quantité	-10.8431
▁souhait	-10.8431
▁catégorie	-10.8432
▁believes	-10.8434
▁multilateral	-10.8439
▁meat	-10.8439
▁Palestine	-10.844
▁Common	-10.8441
▁mutuelle	-10.8442
▁accounts	-10.8449
▁Méditerranée	-10.8452
▁identify	-10.8456
▁derrière	-10.8456
▁duties	-10.8461
▁inclure	-10.8462
▁suggested	-10.8462
▁someone	-10.8464
▁Are	-10.8465
▁tenue	-10.8466
▁previously	-10.8468
▁rejet	-10.8469
▁voit	-10.8472
▁ensemble.	-10.8472
▁feed	-10.8473
▁determine	-10.8475
▁ignore	-10.8481
▁connaissances	-10.8486
▁women.	-10.8487
▁Santer	-10.8488
▁wider	-10.8496
▁lié	-10.8497
▁d’euros	-10.8503
▁friends	-10.8505
▁constaté	-10.8507
▁chercher	-10.8508
▁20%	-10.8509
▁d'agir	-10.851
▁sécurité,	-10.8513
▁participé	-10.8514
▁External	-10.8519
▁aviation	-10.8519
▁civiles	-10.8534
▁contrats	-10.8535
▁adoptés	-10.8537
▁sud	-10.8539
▁coopérer	-10.854
▁drug	-10.8542
▁Regional	-10.8546
▁S'il	-10.855
▁indicated	-10.8553
▁écrit	-10.8566
▁proceedings	-10.8569
▁déposés	-10.857
▁justification	-10.8571
▁exemples	-10.8572
▁becomes	-10.858
▁retirer	-10.8582
▁moreover	-10.8585
▁sum	-10.8589
▁enfants.	-10.859
▁publication	-10.8592
▁greatly	-10.8593
▁euro.	-10.8596
▁possibles	-10.8601
▁flux	-10.8603
▁approprié	-10.8604
▁expectations	-10.8608
▁permettront	-10.8608
▁routes	-10.8609
▁speeches	-10.861
▁satisfaire	-10.8613
▁meant	-10.8617
▁possibly	-10.8619
▁importante.	-10.8619
▁profondément	-10.8624
▁gagner	-10.8627
▁legislation,	-10.8628
▁appropriée	-10.8628
▁transitional	-10.8629
▁liens	-10.863
▁année.	-10.863
▁gros	-10.8631
▁résolution.	-10.8635
▁oui	-10.8638
▁déclare	-10.8638
▁examen	-10.8642
▁thèmes	-10.8642
▁augmenté	-10.8646
▁basis.	-10.8647
▁privée	-10.8648
▁demeure	-10.8651
▁Without	-10.8651
▁section	-10.8651
▁essentielles	-10.8652
▁satisfied	-10.8656
▁excellente	-10.8656
▁strategy.	-10.8656
▁Tel	-10.866
▁e	-10.8662
▁confirmer	-10.8665
▁apparaît	-10.8665
▁revenu	-10.8666
▁santé.	-10.8667
▁requests	-10.8668
▁Quel	-10.8671
▁anciens	-10.8674
▁proposals.	-10.8675
▁l'examen	-10.8677
▁running	-10.8677
▁mois.	-10.8678
▁extensive	-10.8679
▁markets.	-10.8679
▁proche	-10.868
▁sufficiently	-10.8682
▁obliged	-10.8684
▁Moyen-Orient	-10.8685
▁intérieur.	-10.8687
K)	-10.8687
▁élargissement	-10.8691
▁clarté	-10.8693
▁dispute	-10.8694
▁Donc	-10.8694
▁l'exploitation	-10.8699
▁imagine	-10.8702
▁pillar	-10.8703
▁Qui	-10.8703
▁football	-10.8703
▁background	-10.8704
▁intéressant	-10.8706
che	-10.8708
▁mené	-10.8709
▁l'opposition	-10.8709
▁Consequently,	-10.871
tic	-10.8713
▁annoncé	-10.8714
▁opérateurs	-10.8714
▁m	-10.8716
▁suffered	-10.8718
▁susceptibles	-10.872
▁affects	-10.8722
▁Bosnia	-10.8725
▁actuelle.	-10.8727
▁chosen	-10.8729
▁depend	-10.873
▁internes	-10.8735
▁competent	-10.8738
▁l'Allemagne	-10.8741
▁enforcement	-10.8743
▁authorities.	-10.8744
▁humain	-10.8747
▁stands	-10.8749
▁l’industrie	-10.8752
▁caractéristique	-10.8752
B	-10.8758
▁Croatie	-10.8758
▁destiné	-10.8759
▁Kosovo.	-10.8761
▁culturel	-10.8764
▁cas.	-10.8766
▁himself	-10.8768
▁voitures	-10.8771
▁partly	-10.8771
▁mobilisation	-10.8773
▁thanking	-10.8777
▁matière.	-10.8777
▁riches	-10.8777
▁salaires	-10.8777
▁links	-10.878
▁recall	-10.878
▁fruits	-10.8783
▁compulsory	-10.8784
▁courant	-10.8784
N	-10.8784
▁identified	-10.8784
▁pêche,	-10.8786
▁Finlande	-10.8792
ising	-10.8794
▁Russie.	-10.8795
▁topic	-10.8797
▁prie	-10.8797
if	-10.8803
▁aid.	-10.8804
▁tenant	-10.8806
▁mondiale.	-10.8807
▁générales	-10.8811
▁nécessaires.	-10.8817
▁tragic	-10.8821
▁spend	-10.8821
▁sovereignty	-10.8822
▁prononcer	-10.8823
▁chapitre	-10.8829
▁hearing	-10.8831
▁Afrique	-10.8832
▁aériennes	-10.8839
ge	-10.8839
▁prisoners	-10.884
ol	-10.8841
ou	-10.8847
▁disant	-10.8849
▁red	-10.8851
▁entière	-10.8851
▁l'Afrique	-10.8853
▁Treaties	-10.8855
▁rappelé	-10.8856
▁interpretation	-10.8858
▁Thus	-10.8859
▁attempts	-10.8861
▁BSE	-10.8865
▁considers	-10.8865
▁debated	-10.8867
▁processes	-10.8868
▁g	-10.887
▁whole.	-10.8871
▁contribuera	-10.8882
▁helped	-10.8884
▁equipment	-10.8889
▁l'unanimité	-10.8891
▁possibilities	-10.8903
▁conducted	-10.8904
▁échange	-10.8904
▁bilan	-10.8908
▁complicated	-10.8908
▁deserves	-10.891
▁gap	-10.8911
▁inflation	-10.8914
▁applications	-10.8915
▁remplacer	-10.8925
▁Will	-10.8926
▁silence	-10.8928
▁domaine,	-10.893
▁efficace.	-10.8933
▁demain,	-10.8938
▁qu’en	-10.8939
▁production.	-10.8941
▁issued	-10.8944
▁dynamic	-10.8946
▁détriment	-10.8946
▁trouvons	-10.8946
▁spite	-10.8946
▁convenu	-10.8949
▁PIB	-10.8952
▁con	-10.8958
▁l'indépendance	-10.8962
▁problem,	-10.8963
▁libre-échange	-10.8968
▁respected	-10.8973
▁effectué	-10.8981
▁fields	-10.8986
▁signe	-10.8986
▁J'en	-10.8986
▁carrying	-10.8989
▁(CS)	-10.899
▁prosperity	-10.8993
▁technologique	-10.8993
▁existantes	-10.8995
▁J’espère	-10.8995
▁Grande-Bretagne	-10.9001
▁Having	-10.9001
▁initiative.	-10.9005
▁J	-10.9013
▁saisir	-10.9013
▁replace	-10.9016
▁l'OTAN	-10.9019
▁guaranteeing	-10.9021
▁poste	-10.9023
▁mettent	-10.9025
▁launched	-10.9026
▁suivant	-10.9028
▁déclarer	-10.9034
▁levée	-10.9035
▁vérifier	-10.9039
▁futures	-10.9039
▁Galileo	-10.9039
▁qu'aucun	-10.9039
’.	-10.9046
▁accomplis	-10.9047
▁locaux	-10.9049
▁époque	-10.9051
▁discuté	-10.9052
▁sets	-10.9054
▁poorest	-10.9062
▁énergétiques	-10.9062
▁intégration	-10.9062
▁information.	-10.9065
▁Russie,	-10.9066
▁intellectual	-10.9067
▁N	-10.907
▁su	-10.9071
▁l’article	-10.9073
▁évaluer	-10.9083
▁structurelles	-10.9083
▁sugar	-10.9084
▁pré	-10.9084
▁definitely	-10.9084
▁problèmes.	-10.9085
▁ratified	-10.9089
▁amendments.	-10.9095
▁d'accès	-10.9095
▁surely	-10.9096
S	-10.9096
▁rejeter	-10.9098
▁seeks	-10.9098
▁enhance	-10.9098
▁purely	-10.9102
▁Bosnie	-10.9106
▁compréhension	-10.9106
▁Union’s	-10.9113
▁qu’elles	-10.9115
▁erreurs	-10.9115
▁territoires	-10.9116
▁southern	-10.9117
▁d'intégration	-10.9117
▁approuver	-10.9117
▁complet	-10.9119
▁jusqu’	-10.9122
▁diplomatic	-10.9122
▁l'exécution	-10.9123
▁efficacité	-10.9123
▁Hungary	-10.9128
▁materials	-10.9132
▁conduire	-10.9133
▁Home	-10.9134
▁objectives.	-10.9135
▁eight	-10.9137
▁transatlantique	-10.9139
▁Danish	-10.9139
▁proof	-10.9139
▁négocier	-10.9141
▁civils	-10.9143
▁together.	-10.9146
▁size	-10.9148
considérablement	-10.9149
▁parliament	-10.9153
▁sorry	-10.9157
▁premièrement	-10.9161
▁interdiction	-10.9165
▁exclusivement	-10.9169
▁extreme	-10.917
▁faute	-10.9175
▁Act	-10.9177
▁automobile	-10.9179
▁capitale	-10.918
▁mains	-10.9181
▁somme	-10.9182
▁crains	-10.9184
▁tensions	-10.9185
▁ad	-10.9188
▁Belgian	-10.9189
eur	-10.9193
▁Just	-10.9196
▁cher	-10.9197
▁deficit	-10.9199
▁Bush	-10.92
▁commence	-10.9201
▁generation	-10.9201
▁gouvernementale	-10.9202
▁abus	-10.9202
▁pétitions	-10.9204
▁relance	-10.9205
▁green	-10.9206
▁l’importance	-10.9212
▁contract	-10.9217
▁2006.	-10.9218
▁terrorism.	-10.922
▁contracts	-10.922
▁Nor	-10.9225
▁quinze	-10.9228
▁Sommet	-10.9234
▁whereby	-10.9236
▁openness	-10.9238
▁standards.	-10.9239
▁chargé	-10.9242
▁Democrats)	-10.9244
▁concessions	-10.9249
▁scène	-10.9251
▁respectent	-10.9255
pa	-10.9255
▁mines	-10.9259
▁intensive	-10.9261
▁soulevé	-10.9263
▁forêts	-10.9269
▁d’action	-10.9273
▁venu	-10.9273
▁(Christian	-10.9274
institutionnelle	-10.9274
ap	-10.9279
▁suit	-10.9282
▁d'apporter	-10.9285
▁vente	-10.9288
▁modes	-10.9289
▁concrète	-10.9289
▁Corée	-10.9296
▁EC	-10.9303
▁paix.	-10.9305
▁Partnership	-10.9313
▁corps	-10.9313
▁démocratique.	-10.9318
ities	-10.9323
▁reiterate	-10.9327
▁successfully	-10.9327
▁procès	-10.933
▁Barcelona	-10.933
▁pénale	-10.9334
▁professionnels	-10.9336
▁wide	-10.9339
▁rédigé	-10.9342
▁Asia	-10.9342
▁opened	-10.9346
▁significance	-10.935
▁lacunes	-10.9352
▁agents	-10.9352
▁Hamas	-10.9353
emp	-10.9354
▁import	-10.9357
▁L'objectif	-10.9358
▁addressing	-10.9361
▁Subject	-10.9364
▁harmful	-10.937
▁hauteur	-10.9373
om	-10.9375
em	-10.9376
▁attendent	-10.9377
▁peur	-10.9381
▁Culture	-10.9382
▁answers	-10.9384
▁Polish	-10.9387
▁prisonniers	-10.9389
▁paix,	-10.9389
▁marketing	-10.9396
▁People	-10.9398
▁convaincre	-10.9398
▁strengthened	-10.94
▁worst	-10.941
▁Se	-10.941
▁Does	-10.941
▁répondu	-10.941
▁stressed	-10.9411
▁essentially	-10.9411
▁unanimously	-10.9412
▁wealth	-10.9413
▁Liberal	-10.9416
▁milieu	-10.9421
▁Belgium	-10.9421
ty	-10.9422
▁futurs	-10.9422
▁gauche	-10.9423
▁advertising	-10.9427
▁prospects	-10.943
▁identity	-10.943
▁passé,	-10.9431
▁surmonter	-10.9432
▁pressions	-10.9433
▁freedom,	-10.9438
pr	-10.9441
▁discutons	-10.9444
▁Peut-être	-10.945
▁visible	-10.9455
▁competition.	-10.9464
▁remplir	-10.9465
tergovernmental	-10.947
▁intégrer	-10.9473
▁posé	-10.9473
▁débattons	-10.9474
▁solely	-10.948
▁Arab	-10.9481
ab	-10.9482
▁went	-10.9484
▁producing	-10.9486
▁retrait	-10.9486
▁skills	-10.9488
▁Georgia	-10.9489
▁Saddam	-10.949
▁a-t-il	-10.9492
▁affirmé	-10.9492
▁acting	-10.9493
▁prétexte	-10.9501
▁governing	-10.9503
▁2005.	-10.9504
▁humaines	-10.9504
▁bénéficient	-10.9506
▁TVA	-10.9507
▁régulièrement	-10.9508
▁marque	-10.9509
▁prime	-10.9509
▁foremost	-10.9513
▁suspension	-10.9515
ca	-10.9521
▁pertes	-10.9521
▁suivante:	-10.9522
▁faibles	-10.9525
▁formulées	-10.9526
▁State.	-10.9528
▁dommages	-10.953
▁1999.	-10.9531
▁menaces	-10.9532
▁players	-10.9538
▁télécommun	-10.9539
▁easily	-10.9542
▁l'équilibre	-10.9543
▁administrations	-10.9545
ct	-10.9546
▁extending	-10.9547
▁existants	-10.9552
▁day,	-10.9552
▁renforcée	-10.9554
▁véritables	-10.9557
▁commis	-10.9558
▁électeurs	-10.9564
▁enabling	-10.9565
▁heavy	-10.9565
▁règlement,	-10.9566
▁allemande	-10.9566
▁Commissioner.	-10.9567
▁rejeté	-10.9568
▁Policy,	-10.9568
▁démontré	-10.9569
ll	-10.9569
un	-10.9571
▁vice-président	-10.9571
▁Serbie	-10.9577
▁racisme	-10.9578
▁pire	-10.9581
▁institutionnel	-10.9585
▁(LT	-10.9589
▁huit	-10.959
▁numbers	-10.9591
▁others.	-10.9591
▁génération	-10.9592
▁méritent	-10.9594
▁légitimité	-10.9594
▁équilibré	-10.9594
▁motifs	-10.9597
▁welcomed	-10.9597
▁force.	-10.9607
▁Under	-10.9613
▁demanding	-10.9615
-t-elle	-10.9617
▁deals	-10.9619
▁necessary.	-10.9621
▁Where	-10.9623
▁tools	-10.9624
▁remerciements	-10.9625
▁unique.	-10.9628
▁consacré	-10.9628
▁proud	-10.9629
▁health.	-10.9634
▁engagés	-10.9634
▁advice	-10.9635
ck	-10.9636
▁sustainability	-10.9636
d'investissement	-10.9638
▁example.	-10.9638
▁healthy	-10.964
▁clarification	-10.9642
▁fonctionner	-10.9643
▁enfants,	-10.9644
▁f	-10.9651
▁patrimoine	-10.9653
▁volontaire	-10.9654
▁intérieures	-10.9654
▁rapidly	-10.9659
▁rencontre	-10.9659
▁carbon	-10.9665
▁texts	-10.9668
▁regulation.	-10.9669
▁souci	-10.9669
▁all.	-10.9673
▁terrorisme.	-10.9675
▁hundreds	-10.9681
▁manufacturers	-10.9683
-nous	-10.9683
ure	-10.9687
▁extraordinaire	-10.9691
▁depends	-10.9692
▁promised	-10.9694
▁législations	-10.9695
▁continuera	-10.9695
▁disposal	-10.9696
▁dépendance	-10.9701
▁l’adhésion	-10.9705
▁Hongrie	-10.9706
▁prior	-10.9706
▁site	-10.9707
▁justifier	-10.9711
land	-10.9714
▁reliable	-10.9717
▁Both	-10.9718
▁utilisée	-10.9722
▁feeling	-10.9724
▁claims	-10.9725
▁indique	-10.9729
▁l’État	-10.9729
▁satisfait	-10.9731
▁launch	-10.9732
▁Growth	-10.9735
▁savings	-10.9736
▁légitime	-10.9739
▁considerably	-10.9747
▁l'activité	-10.9748
▁practice.	-10.9748
▁(FI	-10.975
▁problématique	-10.9752
▁chairman	-10.9753
▁savent	-10.9757
▁1992	-10.9762
▁tomorrow.	-10.9767
▁violence.	-10.9767
▁crée	-10.9774
▁facilement	-10.9775
▁venir.	-10.9777
▁core	-10.9777
▁focused	-10.9777
res	-10.978
▁clarifier	-10.978
▁Belgique	-10.9782
▁threats	-10.9784
▁tenté	-10.9787
▁recommande	-10.9789
▁timetable	-10.979
▁experienced	-10.9799
▁pacifique	-10.98
▁months.	-10.9801
▁différente	-10.9807
▁geographical	-10.9809
▁existant	-10.981
▁emphasised	-10.981
▁l'est	-10.9813
▁thorough	-10.9815
▁Christian	-10.9815
▁encouraged	-10.9816
▁revoir	-10.9818
▁achievement	-10.9819
▁élus	-10.9822
▁tribunal	-10.9824
▁advantages	-10.9824
▁postal	-10.9824
▁remaining	-10.9827
▁êtres	-10.983
▁d'égalité	-10.983
▁lire	-10.9832
▁lu	-10.9834
▁rich	-10.9834
▁s'assurer	-10.9836
▁minorité	-10.9836
▁45	-10.9838
▁énergie	-10.984
▁enlargement.	-10.9842
▁Stockholm	-10.9846
▁save	-10.9847
▁sert	-10.9852
▁resources,	-10.9854
▁l’année	-10.9854
▁strength	-10.9856
▁reaction	-10.9856
▁demain.	-10.9859
▁granting	-10.986
▁strictes	-10.986
▁hui	-10.9862
▁themselves.	-10.9864
▁cela.	-10.9866
▁Convention.	-10.9872
▁vingt	-10.9873
▁anti	-10.9875
-related	-10.9878
▁connaissent	-10.9879
▁merci	-10.9879
▁camps	-10.9881
▁enough.	-10.9881
▁clarity	-10.9884
▁3.	-10.9886
▁adresser	-10.9888
▁présentés	-10.9888
▁eye	-10.989
▁climatique.	-10.9893
▁Protocol	-10.9899
▁suitable	-10.9902
▁cooperation,	-10.9904
▁l'instant	-10.9908
▁entered	-10.9914
▁exports	-10.9916
▁5,	-10.9918
▁retire	-10.9918
▁satisfactory	-10.9919
▁systems.	-10.9919
▁exclusive	-10.9921
▁Tampere	-10.9925
▁dites	-10.9927
▁concurrence.	-10.9927
▁violent	-10.993
▁cuts	-10.9933
▁initiale	-10.9933
▁contributed	-10.9936
ler	-10.994
▁appartient	-10.9944
▁présentent	-10.9945
▁refuser	-10.9945
▁refers	-10.9947
▁favourable	-10.9953
▁allemand	-10.9953
▁passenger	-10.9955
▁c'était	-10.9956
▁wording	-10.9957
▁tend	-10.9966
▁admit	-10.9968
▁souhaité	-10.9968
▁indépendants	-10.9968
▁Turquie,	-10.9968
▁Toutes	-10.9969
▁nettement	-10.9969
▁patent	-10.9974
▁marine	-10.9977
▁organise	-10.9988
▁worse	-10.999
▁transmission	-10.9992
▁products,	-10.9996
▁reflected	-10.9997
pp	-10.9999
▁supposed	-11
▁jeudi	-11.0001
▁finale	-11.0002
rais	-11.0009
▁stratégiques	-11.0009
▁espagnole	-11.001
▁jeunesse	-11.0012
▁l'in	-11.0014
▁fil	-11.0019
▁l’énergie	-11.0023
▁tangible	-11.0023
▁Roms	-11.0023
▁declared	-11.0025
▁prenne	-11.0031
ill	-11.0033
▁heading	-11.0034
▁Certes	-11.0035
▁l'expérience	-11.0041
▁powerful	-11.0045
▁clés	-11.0046
▁biggest	-11.0047
▁mobile	-11.0052
▁increases	-11.0062
▁illégale	-11.0062
▁eastern	-11.0065
▁paying	-11.0069
▁ECB	-11.0071
▁modified	-11.0073
▁affirmer	-11.0078
▁protocol	-11.0079
▁disasters	-11.0081
▁simplifier	-11.0081
▁willingness	-11.0084
ier	-11.0084
ère	-11.0086
▁destinée	-11.0088
▁constitutes	-11.0088
▁beef	-11.0088
▁unnecessary	-11.009
ke	-11.009
ting	-11.0092
▁rapporteur's	-11.0093
▁succeeded	-11.0094
▁intervene	-11.0098
▁Procedure	-11.0099
▁island	-11.0105
▁navigation	-11.0108
▁fonctions	-11.0108
▁Géorgie	-11.011
▁écoles	-11.0111
▁tous.	-11.012
▁2013	-11.0121
▁l’élargissement	-11.0126
▁consumers.	-11.0128
▁net	-11.0129
▁400	-11.013
▁protest	-11.0138
▁Kinnock	-11.0139
▁BCE	-11.0139
▁Du	-11.014
▁applicables	-11.0144
▁plants	-11.0146
▁s'agissait	-11.0151
▁voyage	-11.0152
▁dirais	-11.0152
▁retraite	-11.0156
▁instances	-11.016
▁croissante	-11.0168
▁l’économie	-11.017
▁demandent	-11.0175
▁1990	-11.0177
▁recettes	-11.0177
▁cite	-11.0178
▁interests.	-11.018
▁pénal	-11.018
▁Civil	-11.0182
▁d'évaluation	-11.0182
▁users	-11.0184
▁bureaucratie	-11.0185
▁précédente	-11.0188
ven	-11.0191
▁fiscales	-11.0195
▁lie	-11.0196
▁GDP	-11.0197
▁tente	-11.0199
▁Madrid	-11.02
▁d'amendements	-11.02
▁commit	-11.0203
▁ouvrir	-11.0209
▁surprise	-11.0215
▁confirmé	-11.0217
▁légale	-11.0221
▁Son	-11.0222
▁liberté,	-11.0222
▁competences	-11.0226
▁régionaux	-11.0228
▁medicines	-11.023
▁disent	-11.0231
▁possède	-11.0233
▁difficulté	-11.0234
▁Allemagne	-11.0236
▁recourir	-11.0238
▁whereas	-11.0239
▁chimiques	-11.0241
▁mondial.	-11.0246
▁outil	-11.0251
▁tenus	-11.0252
▁terrorism,	-11.0253
ton	-11.0254
▁l’un	-11.0256
▁espérer	-11.0256
nes	-11.026
▁appliquée	-11.0262
▁entraîne	-11.0262
▁affecting	-11.0266
s:	-11.0267
▁(La	-11.0268
▁l'intervention	-11.0275
▁vie.	-11.0275
▁2003.	-11.0276
▁restore	-11.0276
▁children.	-11.0279
▁Parliamentary	-11.028
▁historical	-11.028
▁prospect	-11.0285
▁vast	-11.0289
▁responsibility.	-11.0289
▁siège	-11.029
▁chaîne	-11.0291
▁Turquie.	-11.0291
▁utmost	-11.0293
▁MM.	-11.0294
▁i.e.	-11.0294
▁d'examiner	-11.0294
▁atteinte	-11.0294
▁drogues	-11.03
▁engagée	-11.03
▁population,	-11.0304
▁élaboré	-11.0304
▁d'appliquer	-11.0306
▁nationales.	-11.0308
▁bénéficiaires	-11.0309
▁ships	-11.031
▁l'autorité	-11.0313
▁électronique	-11.0314
▁écologique	-11.0316
▁Danemark	-11.0318
▁aboutir	-11.0321
▁preuves	-11.0322
▁racism	-11.0324
▁hit	-11.0326
▁bank	-11.0327
▁negotiated	-11.0328
▁boost	-11.0332
▁regarded	-11.0333
▁privés	-11.0335
si	-11.0335
▁présentées	-11.0337
▁d'augmenter	-11.0338
▁sake	-11.0342
▁consequence	-11.0342
▁inquiétude	-11.0344
ted	-11.0348
▁undertakings	-11.0349
▁pencher	-11.0349
▁doubts	-11.0351
▁explanation	-11.0353
▁considérée	-11.0362
▁quelconque	-11.0362
▁retain	-11.0363
▁mettant	-11.0364
▁Russia,	-11.0371
▁Rur	-11.0373
▁concrètement	-11.0373
▁Denmark	-11.0375
▁healthcare	-11.0381
▁l’heure	-11.0382
▁reaching	-11.0383
▁exemple.	-11.0386
▁deep	-11.0386
▁Timor	-11.0388
he	-11.0388
▁deeply	-11.039
▁airlines	-11.0392
▁reservations	-11.0396
▁repris	-11.0398
▁there.	-11.0399
▁regulate	-11.0403
▁country's	-11.0403
▁temporaire	-11.0404
▁exprimées	-11.0405
▁publique.	-11.041
▁amend	-11.0412
▁things,	-11.0417
▁greenhouse	-11.0426
▁clairs	-11.0426
▁Association	-11.0428
▁l’Europe.	-11.0431
▁russe	-11.0433
▁involved.	-11.0434
fi	-11.0436
▁label	-11.0438
▁garantissant	-11.0438
ible	-11.0439
▁applicant	-11.044
▁break	-11.0442
▁weak	-11.0442
▁Joint	-11.0445
▁supplementary	-11.0445
▁profonde	-11.0445
ques	-11.0447
▁abolition	-11.0451
▁incorporated	-11.0453
▁consacrer	-11.0456
▁Slovakia	-11.0457
▁expansion	-11.0459
▁Netherlands	-11.0463
▁cherche	-11.0463
▁phrase	-11.0464
▁l'union	-11.0466
ins	-11.0467
▁presenting	-11.0467
▁objections	-11.0468
▁restrictive	-11.0468
▁crise.	-11.0469
▁mark	-11.0471
-based	-11.0472
T	-11.0473
tent	-11.0476
▁fixés	-11.0477
▁Congo	-11.0477
▁stimuler	-11.0479
▁quote	-11.0483
▁terrorisme,	-11.0489
▁privatisation	-11.0489
▁opposite	-11.049
▁soumise	-11.049
▁Monti	-11.0494
▁leçons	-11.0494
▁allocation	-11.0494
▁sought	-11.0496
▁negotiate	-11.0498
▁aspirations	-11.0513
▁completed	-11.0514
▁prochains	-11.0517
▁durabilité	-11.0521
▁juge	-11.0524
▁Quoi	-11.0527
▁She	-11.0534
sa	-11.0537
▁afraid	-11.054
▁progress.	-11.0543
▁supérieur	-11.0543
▁instamment	-11.0546
▁battle	-11.0546
▁sûre	-11.0549
▁âgées	-11.0549
▁convaincue	-11.055
▁aside	-11.0551
▁fairly	-11.0552
▁histoire	-11.0553
▁indiquer	-11.0555
▁hopes	-11.0557
▁Presidency.	-11.0559
▁voudrions	-11.0559
▁obtained	-11.0561
▁exact	-11.0562
▁accordé	-11.0563
▁lay	-11.0564
▁d’avoir	-11.0566
▁concrets	-11.057
men	-11.057
▁limitation	-11.0572
▁l'Espagne	-11.0572
ho	-11.0575
▁motions	-11.058
▁rapporteure	-11.0581
▁women's	-11.0587
▁expériences	-11.0589
▁devenu	-11.0589
▁occupation	-11.059
▁news	-11.0593
▁exiger	-11.0593
▁clean	-11.0598
▁maintained	-11.0603
▁everybody	-11.0604
▁eliminate	-11.0605
▁considérations	-11.0606
▁deserve	-11.0611
nd	-11.0612
▁limité	-11.0613
▁l'Ukraine	-11.0613
ments	-11.0615
▁jusqu'	-11.0615
▁voisinage	-11.0618
▁autres.	-11.0618
▁élu	-11.0622
sh	-11.0622
▁inspections	-11.0624
be	-11.0628
▁smaller	-11.063
▁l’égalité	-11.063
▁facts	-11.0631
▁rurales	-11.0634
▁fallait	-11.0634
▁dette	-11.0635
▁pouvant	-11.0636
▁espèces	-11.0642
par	-11.0642
▁raising	-11.0643
▁buy	-11.0645
▁firms	-11.0649
▁appris	-11.0649
▁preserve	-11.065
▁agreements.	-11.0653
▁32	-11.0654
▁neighbours	-11.0656
▁argent	-11.066
▁titre,	-11.0661
▁chaleureusement	-11.0662
▁approfondie	-11.0663
▁assurance	-11.0664
▁camp	-11.0664
▁tragedy	-11.0672
less	-11.0673
▁Al	-11.0675
▁(Parliament	-11.0675
▁excluded	-11.0677
▁satellite	-11.068
▁pact	-11.0681
▁Constitution.	-11.0682
F	-11.0683
▁messages	-11.0684
▁sauvegarde	-11.0685
▁nord	-11.069
▁citoyenneté	-11.0695
▁2011	-11.0701
▁heureuse	-11.0704
▁général.	-11.0704
▁Blair	-11.0708
▁authorities,	-11.0713
▁cars	-11.0714
▁s'applique	-11.0716
ies	-11.0716
▁analyses	-11.0716
▁seuil	-11.0718
▁species	-11.0719
▁targeted	-11.0722
▁candidat	-11.0723
▁contribuent	-11.0723
▁term.	-11.0728
▁electoral	-11.0734
▁minimales	-11.0736
▁contribuables	-11.0738
▁G20	-11.0741
▁actif	-11.0741
▁bureaucratic	-11.0742
▁2002.	-11.0743
▁démontre	-11.0743
▁sûreté	-11.0747
▁permanente	-11.0747
▁Over	-11.0747
▁l'avez	-11.0749
▁l’UE.	-11.0751
ot	-11.0753
▁funds.	-11.0754
▁l'exclusion	-11.0754
▁évoquer	-11.0757
▁leaving	-11.0758
▁employers	-11.0759
aire	-11.076
▁meaning	-11.076
▁promise	-11.0761
▁Europe’s	-11.0761
▁l	-11.0762
▁EU’s	-11.0765
▁l'enseignement	-11.0767
▁you.	-11.0767
▁Follow	-11.0773
▁l'harmonisation	-11.0773
▁librement	-11.0774
ig	-11.0778
▁ordinary	-11.078
▁d'écus	-11.0785
▁settlement	-11.0789
▁carte	-11.079
con	-11.0791
▁apparent	-11.0793
s"	-11.0797
▁manifestement	-11.0802
▁observer	-11.0806
institutionnel	-11.0812
▁incentives	-11.0813
▁piece	-11.0813
▁von	-11.0818
▁criminels	-11.0819
▁orientation	-11.0819
▁Industry	-11.0819
▁voulais	-11.0819
▁appliqué	-11.0822
▁radio	-11.0823
▁armed	-11.0828
▁Well	-11.0828
▁catégories	-11.083
▁committee.	-11.0833
▁d'amendement	-11.0839
▁worrying	-11.084
▁inadequate	-11.0844
▁l'excellent	-11.0846
▁pensent	-11.0853
▁combined	-11.0854
ative	-11.0857
▁bound	-11.0858
▁destination	-11.0859
▁aéroports	-11.086
▁vin	-11.0861
▁schemes	-11.0863
▁passé.	-11.0864
▁Milosevic	-11.0865
▁autorité	-11.087
▁i	-11.087
▁guère	-11.0872
▁engager	-11.0874
▁résistance	-11.0878
▁investir	-11.0885
▁struggle	-11.0885
▁Chaque	-11.0886
▁shortcomings	-11.089
▁jointly	-11.089
▁credible	-11.0892
▁voyons	-11.0898
▁Russia.	-11.09
▁renforcé	-11.0902
▁pesticides	-11.0904
▁aujourd'	-11.0905
▁disabled	-11.0905
▁portent	-11.091
▁Frontex	-11.0912
▁Moldova	-11.0914
▁territoriale	-11.0922
purement	-11.0922
▁stay	-11.0923
▁prenons	-11.0925
▁voies	-11.0925
▁trend	-11.093
▁Paris	-11.093
▁séjour	-11.0931
▁representation	-11.0933
ire	-11.0935
▁Telle	-11.0936
▁équilibrée	-11.0939
▁matters.	-11.0941
▁fleet	-11.0942
▁Déclaration	-11.0945
▁prendra	-11.095
▁qu'avec	-11.0952
▁réels	-11.0953
▁bord	-11.0956
▁couvrir	-11.0956
▁declarations	-11.0957
▁Députés	-11.0958
▁l’égard	-11.0958
▁familiar	-11.096
▁société.	-11.096
▁couple	-11.0961
ient	-11.0963
▁facilities	-11.0966
▁d’entre	-11.0967
▁souhaitable	-11.0968
▁surprised	-11.097
▁drafting	-11.0971
▁undertake	-11.0971
▁revised	-11.0973
▁necessarily	-11.0978
▁Office	-11.0979
▁organiser	-11.0984
D	-11.0985
▁fourni	-11.099
H	-11.099
▁accorde	-11.099
▁pleasure	-11.0992
▁réglementaire	-11.0993
▁phenomenon	-11.0993
▁répression	-11.0998
▁d'aider	-11.1
▁défini	-11.1004
▁showing	-11.1004
▁eyes	-11.1004
▁Grâce	-11.1005
▁schools	-11.1005
▁désir	-11.1008
P	-11.1011
▁puisqu'il	-11.1012
▁sexuelle	-11.1013
▁unies,	-11.1013
▁programmes,	-11.1014
▁examined	-11.1014
▁signalé	-11.1014
▁mistake	-11.1015
▁réductions	-11.1017
▁judiciaires	-11.1018
▁drogue	-11.102
▁shape	-11.1022
▁safety.	-11.1022
▁défaut	-11.1026
▁reconnaissant	-11.1028
▁restriction	-11.1028
▁crime.	-11.1034
▁rapprocher	-11.1036
▁turned	-11.1037
▁Parti	-11.1046
▁Time	-11.1047
▁promesses	-11.1052
▁d'encourager	-11.1053
▁flotte	-11.1055
▁2020.	-11.106
▁complaints	-11.1062
▁candidates	-11.1067
▁afford	-11.1068
▁Free	-11.107
▁américaine	-11.1075
▁said.	-11.1076
▁1993	-11.1077
▁raison,	-11.1078
▁economically	-11.1078
▁d'intervention	-11.1079
▁posée	-11.1081
▁prefer	-11.1085
▁étions	-11.1086
▁creates	-11.1087
▁repeatedly	-11.1088
▁declare	-11.109
▁générations	-11.109
▁d'initiative	-11.1095
▁underline	-11.1096
▁world's	-11.1097
▁arrest	-11.1098
▁veto	-11.1099
▁bearing	-11.11
▁suédoise	-11.1101
▁agence	-11.1105
▁feront	-11.1105
▁Palestiniens	-11.1109
▁l’objet	-11.1113
▁embargo	-11.1114
ables	-11.1114
▁belge	-11.1114
▁informé	-11.1116
▁fresh	-11.112
▁expressing	-11.1121
▁bienvenue	-11.1122
▁puissance	-11.1122
▁75	-11.1123
▁ici.	-11.1125
▁engagé	-11.1125
▁justify	-11.1129
▁pure	-11.1132
▁relate	-11.1132
▁affirme	-11.1133
▁outstanding	-11.1134
▁brevets	-11.1138
▁grow	-11.1142
▁environmentally	-11.1146
▁chose.	-11.1147
▁indication	-11.1147
▁indépendante	-11.1149
▁nearly	-11.115
▁charte	-11.1154
▁belief	-11.1158
▁censure	-11.1158
▁susceptible	-11.1159
▁planification	-11.1162
ful	-11.1166
▁incidents	-11.1169
▁campagnes	-11.117
▁partageons	-11.117
ecommunications	-11.1171
▁libres	-11.1172
▁forest	-11.1177
▁borders.	-11.1177
▁reflects	-11.1178
▁weight	-11.1179
▁diminuer	-11.118
▁constamment	-11.1181
▁correctly	-11.1183
▁coordonner	-11.1188
▁Presidents	-11.1191
▁p	-11.1192
▁posent	-11.1194
▁undermine	-11.1195
▁appelé	-11.1198
▁success.	-11.12
▁stations	-11.1205
▁progressivement	-11.1207
▁productive	-11.1208
▁48	-11.1208
▁slow	-11.1216
▁di	-11.1216
▁broader	-11.1216
▁Hussein	-11.1222
▁patient	-11.1226
▁exceptional	-11.1229
▁stance	-11.1229
▁50%	-11.1229
▁Japan	-11.1231
▁appliquées	-11.1234
▁unemployed	-11.1236
▁Helsinki	-11.1236
iv	-11.1237
▁suspended	-11.1238
▁salariés	-11.1238
▁foundations	-11.1242
▁subject.	-11.1243
▁suivante	-11.1243
▁continent.	-11.1245
▁students	-11.1247
▁Korea	-11.1249
▁considérant	-11.125
▁Therefore	-11.1252
▁moteur	-11.1254
▁dollars	-11.1254
▁intégré	-11.1261
▁cities	-11.1262
▁groups.	-11.1263
▁resulted	-11.1264
▁valid	-11.1265
▁conscient	-11.1266
▁précédemment	-11.1268
▁alcohol	-11.127
▁collaborer	-11.1273
▁s'avère	-11.1274
▁juridique.	-11.1275
-up	-11.1285
▁widespread	-11.1291
▁hardly	-11.1292
▁DG	-11.1292
form	-11.1293
▁warmly	-11.1293
▁l'affaire	-11.1298
▁liability	-11.1298
▁dirai	-11.1298
▁preparations	-11.1301
▁écrites	-11.1309
▁importantly	-11.131
▁promises	-11.131
▁voient	-11.1311
▁publié	-11.1313
▁journalistes	-11.1316
▁italien	-11.1316
▁vivant	-11.1322
▁fewer	-11.1324
▁150	-11.1325
▁belong	-11.1325
▁retrouver	-11.1329
▁concepts	-11.133
▁d'ordre	-11.1331
▁d'introduire	-11.1332
▁Compte	-11.1333
▁côtés	-11.1335
▁printemps	-11.1339
▁repeated	-11.1339
▁GUE/NGL	-11.1339
▁spécifiquement	-11.1341
▁formule	-11.1341
▁worldwide	-11.1345
▁nuit	-11.1347
▁concret	-11.1348
▁attentivement	-11.1355
▁count	-11.1355
▁welcomes	-11.1358
▁géographique	-11.1362
istes	-11.1364
▁civilian	-11.1365
▁d'expression	-11.1367
▁politiquement	-11.1369
▁partager	-11.1371
▁comparable	-11.1372
▁production,	-11.1373
▁l'énergie,	-11.1373
▁Américains	-11.1374
▁vérité	-11.1374
ction	-11.1375
▁critère	-11.1375
▁educational	-11.1377
▁money.	-11.1379
▁électorale	-11.138
▁Barcelone	-11.138
▁heure	-11.1383
▁vulnérables	-11.1384
▁physical	-11.1385
▁impliqués	-11.1386
▁penalties	-11.1388
▁waters	-11.139
▁made.	-11.1393
▁picture	-11.1393
▁sub	-11.1393
▁past.	-11.1394
▁Slovaquie	-11.1395
▁Representative	-11.1395
20	-11.1396
▁below	-11.1398
▁honest	-11.1417
▁opposés	-11.1419
▁licences	-11.142
▁deadline	-11.1421
▁afternoon	-11.1423
▁results.	-11.1424
▁rétablir	-11.1424
▁instaurer	-11.1427
▁tiendra	-11.1429
▁Con	-11.1429
▁Washington	-11.143
▁L’Union	-11.143
▁stake	-11.1431
▁night	-11.1431
▁motor	-11.1432
▁jouent	-11.1433
▁entrepreneurs	-11.1438
▁droite	-11.1439
▁Yes	-11.1443
▁fondamentaux.	-11.1445
▁transmettre	-11.1445
▁2012	-11.1457
▁category	-11.1458
▁l’occasion	-11.1458
▁nomination	-11.146
▁transatlantic	-11.1465
▁unfortunate	-11.1467
▁disagree	-11.1468
▁attaques	-11.1468
▁exploit	-11.1469
▁revenue	-11.1471
▁collecte	-11.1473
▁qu'aux	-11.1476
▁coalition	-11.1479
▁enhanced	-11.1486
▁delays	-11.1488
▁widely	-11.1489
▁positives	-11.1494
▁yes	-11.1497
▁Service	-11.1497
▁lasting	-11.1498
▁sucre	-11.15
▁Albania	-11.1505
▁négociations.	-11.151
▁Laeken	-11.1514
▁York	-11.1514
▁expense	-11.1514
▁President.	-11.1515
tant	-11.1518
▁l'exemple	-11.1521
▁unies.	-11.1526
▁d'États	-11.1526
▁nationals	-11.1527
▁33	-11.1528
▁EMU	-11.1528
▁Geneva	-11.1528
▁needed.	-11.1529
▁immense	-11.153
▁entraîné	-11.1535
▁tackling	-11.1535
▁processing	-11.1536
▁regulated	-11.1546
▁activities.	-11.1548
▁simples	-11.1548
▁subjects	-11.1552
▁digital	-11.1554
▁presentation	-11.1554
▁youth	-11.1555
▁Parmi	-11.1559
▁restricted	-11.1561
▁losses	-11.1561
▁unacceptable.	-11.1562
▁intérieure	-11.1569
▁OLAF	-11.1578
▁faith	-11.1579
▁garantit	-11.1579
dé	-11.1582
▁door	-11.1584
▁uncertainty	-11.1585
▁checks	-11.1585
gu	-11.1585
▁(article	-11.1586
▁manifeste	-11.1587
▁English	-11.1592
▁became	-11.1592
ak	-11.1593
▁ALDE	-11.1594
▁harm	-11.1596
der	-11.1598
▁fassent	-11.1599
▁libération	-11.1599
▁naturel	-11.1599
▁explained	-11.16
rie	-11.1601
▁fiscalité	-11.1601
G	-11.1602
▁dialogue.	-11.1603
▁respect.	-11.1606
▁gratitude	-11.1606
▁modalités	-11.1606
▁city	-11.1608
ssant	-11.1609
▁tragédie	-11.1612
▁34	-11.1612
▁occurred	-11.1613
tre	-11.1618
▁informés	-11.1619
▁lessons	-11.1621
▁Islamic	-11.1621
▁army	-11.1621
▁jobs,	-11.1622
▁systématique	-11.1623
▁legitimacy	-11.1631
▁certainty	-11.1635
▁information,	-11.1635
▁undertaking	-11.1636
▁falls	-11.1639
▁doutes	-11.164
▁préjudice	-11.1643
▁assisté	-11.1646
▁sovereign	-11.1649
▁withdraw	-11.1649
▁retards	-11.1654
mer	-11.1659
▁quatrième	-11.1663
▁plaintes	-11.1663
▁kinds	-11.1666
▁milliard	-11.1668
▁permit	-11.1668
▁expensive	-11.167
▁conseils	-11.1672
▁coordinate	-11.1674
▁récents	-11.1674
▁avantage	-11.1676
▁immédiate	-11.1676
▁condemned	-11.1678
▁demandeurs	-11.1678
▁societies	-11.1681
▁latine	-11.1682
▁représenter	-11.1682
▁receiving	-11.1685
▁informal	-11.1685
▁considerations	-11.1688
▁nonetheless	-11.1692
▁écouté	-11.1692
▁montants	-11.1693
▁communautaires.	-11.1695
▁offering	-11.17
▁d’État	-11.1705
▁manner.	-11.1707
▁workers,	-11.1712
▁soulever	-11.1713
▁souffrent	-11.1716
ning	-11.1717
▁part.	-11.1721
▁drafted	-11.1726
▁D'autre	-11.1727
▁suffisante	-11.1728
▁elections.	-11.1728
▁Italie	-11.1728
▁indications	-11.1729
ants	-11.173
▁bureau	-11.1735
out	-11.1736
▁noise	-11.1737
▁condamner	-11.1738
▁summer	-11.174
▁consolider	-11.1743
▁Convention,	-11.1744
▁regardless	-11.1745
▁doter	-11.1747
▁contrairement	-11.1748
▁flow	-11.1749
▁aircraft	-11.175
▁suédois	-11.175
▁Clearly	-11.175
▁unity	-11.1753
▁indicate	-11.1759
▁ecological	-11.1761
▁36	-11.1765
▁devienne	-11.1765
▁reserve	-11.1765
▁collection	-11.1767
▁courts	-11.1771
▁turning	-11.1772
▁l'octroi	-11.1772
▁sérieuse	-11.1774
▁field.	-11.1775
w	-11.1775
▁proposons	-11.1779
▁sensibles	-11.178
▁cesser	-11.1781
ue	-11.1781
▁espère	-11.1782
▁unanimous	-11.1782
▁larger	-11.1793
▁l’amendement	-11.1793
▁SIS	-11.1793
▁reflection	-11.1795
ru	-11.1795
▁ethical	-11.1798
▁excuse	-11.18
▁elderly	-11.18
▁échelle	-11.18
▁procurement	-11.1801
▁Lithuania	-11.1807
30	-11.1807
▁budgétaire.	-11.1809
▁railway	-11.1811
▁adaptation	-11.1811
E	-11.1811
▁récentes	-11.1812
▁causing	-11.1815
▁estimé	-11.1816
▁promis	-11.1817
▁Commissaire.	-11.1818
▁indicators	-11.1818
▁opportunité	-11.1819
▁demographic	-11.1822
▁workers.	-11.1825
▁Copenhague	-11.183
▁recommend	-11.1832
▁reality.	-11.1832
▁Union'	-11.1833
▁discussion.	-11.1834
▁heritage	-11.1835
▁Authority	-11.1836
▁team	-11.1839
▁freely	-11.1841
▁Obviously	-11.1844
▁expertise	-11.1845
▁deuxièmement	-11.1848
▁cur	-11.1848
ian	-11.185
▁Frattini	-11.1851
▁minister	-11.1851
▁permette	-11.1852
▁civilisation	-11.1858
▁accord.	-11.1859
▁insiste	-11.186
▁gradually	-11.1861
▁confirme	-11.1864
▁outils	-11.1868
▁den	-11.1872
▁secteur.	-11.1876
▁incident	-11.188
▁voilà	-11.188
▁warning	-11.1882
▁health,	-11.1885
▁borne	-11.1887
▁killed	-11.1889
▁Afin	-11.189
▁prévus	-11.1891
▁fermeture	-11.1892
▁opportunités	-11.1893
▁n'importe	-11.1895
▁bâtiments	-11.1897
▁programmation	-11.1902
▁Barnier	-11.1902
▁inutile	-11.1906
▁italienne	-11.1906
▁raw	-11.191
▁t	-11.191
▁occupe	-11.1911
aires	-11.1917
▁lorsqu'elle	-11.1918
R	-11.192
▁privées	-11.1922
▁précédents	-11.1923
▁Japon	-11.1924
ys	-11.1925
▁modifié	-11.1925
▁rapprochement	-11.1925
▁register	-11.1928
▁l'instar	-11.1932
▁6,	-11.1933
▁Swoboda	-11.1939
▁développements	-11.194
▁Palestinians	-11.1947
▁Investment	-11.1954
▁began	-11.1954
▁basically	-11.1955
▁inclus	-11.1955
▁listened	-11.1959
▁culturels	-11.1959
▁primordial	-11.196
▁engaged	-11.1966
▁spring	-11.1969
▁mo	-11.1969
▁hence	-11.1971
▁demonstrates	-11.1976
▁Lituanie	-11.1976
▁financed	-11.1978
▁San	-11.1978
▁severe	-11.1981
▁incapable	-11.1987
▁covers	-11.1987
▁donnent	-11.1991
▁shares	-11.1991
▁l’objectif	-11.1991
▁porté	-11.1994
▁Danube	-11.1998
▁bilatéraux	-11.1998
▁congratulations	-11.1998
▁urgence	-11.2
▁journalists	-11.2001
▁appropriées	-11.2004
▁none	-11.2004
▁dégâts	-11.2006
▁push	-11.2006
▁imposées	-11.2007
▁îles	-11.2011
▁project.	-11.2011
▁tribunaux	-11.2013
▁libéral	-11.2014
▁morts	-11.2014
bi	-11.2015
▁travailleurs.	-11.2018
▁arise	-11.2021
▁manifestations	-11.2021
▁secrétaire	-11.2026
fer	-11.2027
▁Parliament'	-11.2029
▁consent	-11.2031
▁culturelles	-11.2031
▁observed	-11.2035
▁extraordinary	-11.2035
▁allusion	-11.2036
▁dernier.	-11.2036
▁periods	-11.2037
▁certification	-11.2037
▁limitée	-11.2039
▁périodes	-11.2042
▁d'enfants	-11.2043
-elle	-11.2047
▁trade.	-11.2049
▁renforce	-11.2052
▁lecture.	-11.2056
▁devenue	-11.2057
all	-11.2059
▁right.	-11.206
▁justifie	-11.2061
▁précises	-11.2066
▁législatifs	-11.2067
U	-11.2068
▁III	-11.2071
▁Bolkestein	-11.2072
▁euro,	-11.2073
▁hommage	-11.2073
▁diffusion	-11.2073
▁Oui	-11.2075
▁up.	-11.2078
▁necessity	-11.208
▁stage.	-11.2082
▁text.	-11.2089
▁transformer	-11.2091
▁pourcentage	-11.2095
▁finir	-11.2099
▁reinforce	-11.2099
▁d'accorder	-11.2101
er.	-11.2106
▁mouvements	-11.2111
▁officielle	-11.2111
▁Second	-11.2113
▁sociales,	-11.2118
▁42	-11.2122
▁removed	-11.2124
▁expliqué	-11.2125
▁prudence	-11.2125
▁»	-11.2126
▁industriels	-11.2129
▁discrimination.	-11.213
▁lever	-11.213
▁REACH	-11.2132
▁l'exportation	-11.2132
▁génétiquement	-11.2134
▁d'immigration	-11.2136
min	-11.2138
▁reading.	-11.2138
▁absolue	-11.2138
▁croissant	-11.2143
▁d'armes	-11.2147
▁growth.	-11.2152
▁question:	-11.2157
▁day.	-11.2159
▁profession	-11.2159
▁serre	-11.2159
▁discriminations	-11.2165
▁blame	-11.2167
▁l'instrument	-11.2171
▁frequently	-11.2179
▁strike	-11.2179
▁humanitaires	-11.218
▁négatif	-11.2183
▁lecture,	-11.2183
▁foi	-11.2183
▁l'entreprise	-11.2186
▁bureaucracy	-11.2189
▁cap	-11.2191
▁rejette	-11.2192
▁l'Inde	-11.2193
▁abstained	-11.2195
▁Y	-11.2196
▁circonscription	-11.22
▁Communauté.	-11.2206
▁deaths	-11.2207
▁l'internet	-11.221
▁accepte	-11.2211
▁beneficial	-11.2215
▁réalité.	-11.2217
▁companies.	-11.2221
▁employés	-11.2221
▁Nonetheless	-11.2223
▁démocratisation	-11.2223
▁contamination	-11.2224
▁decades	-11.2224
▁rendent	-11.2233
▁promoted	-11.2235
▁présidente	-11.2236
▁structurelle	-11.2237
▁IGC	-11.2238
▁circumstances,	-11.2247
▁bref	-11.2248
▁rejection	-11.226
▁choses.	-11.226
▁prevented	-11.226
▁accomplir	-11.2264
▁s'agisse	-11.2268
▁troops	-11.2268
▁Labour	-11.2271
cul	-11.2273
▁pauvreté.	-11.2273
▁remédier	-11.2274
▁bénéfice	-11.2274
▁Nigeria	-11.2275
com	-11.2276
▁d'élaborer	-11.2276
▁opinion.	-11.2277
▁moderne	-11.2278
▁moved	-11.2278
▁tribute	-11.2279
03	-11.2281
▁auparavant	-11.2281
▁conclus	-11.2281
▁travaille	-11.229
▁sports	-11.2291
▁parallel	-11.2291
▁éventuellement	-11.2294
▁fiscaux	-11.2299
▁énergétique.	-11.23
▁ferons	-11.2303
▁mine	-11.2305
▁Soviet	-11.2306
ized	-11.2309
▁spécialement	-11.2309
▁éliminer	-11.2314
▁rare	-11.2314
▁félicitations	-11.2314
▁10%	-11.2315
▁domaines.	-11.2317
▁étudiants	-11.2317
▁brut	-11.2318
▁laissé	-11.232
▁compléter	-11.2322
▁past,	-11.2325
mé	-11.2326
▁Palacio	-11.2329
▁ça	-11.2329
▁impliquant	-11.2329
▁détention	-11.2329
▁qualifiée	-11.2331
▁sending	-11.2332
▁Egypt	-11.2332
▁beings	-11.2332
▁profondeur	-11.2333
▁allant	-11.2336
▁tomorrow,	-11.2336
▁turc	-11.234
▁Verts/ALE	-11.2343
▁bénéficie	-11.2344
▁London	-11.2345
▁Poettering	-11.2345
▁d'éducation	-11.2345
▁envoyer	-11.2346
▁noon.	-11.2349
▁auteurs	-11.2349
▁dangereuses	-11.2349
▁approach,	-11.235
▁communiste	-11.2351
▁Declaration	-11.2352
▁l’adoption	-11.2352
▁venons	-11.2352
▁race	-11.2355
▁chute	-11.2368
▁Year	-11.2368
▁remarquable	-11.2369
▁entraîner	-11.2372
▁respective	-11.2374
▁pursued	-11.2375
▁decision.	-11.2377
▁divided	-11.2378
▁couvre	-11.2381
▁jusqu'ici	-11.2382
▁Great	-11.2383
nant	-11.2385
▁convaincus	-11.2387
▁pilot	-11.2387
▁Parallèlement	-11.2391
▁Eurostat	-11.2391
▁liberal	-11.2391
▁admettre	-11.2392
▁extérieur	-11.2392
▁soutiennent	-11.2398
▁carbone	-11.2399
▁d’a	-11.2399
▁notice	-11.24
▁Verts	-11.2404
▁reçoivent	-11.2404
▁view.	-11.2409
▁examiné	-11.241
▁medium	-11.2411
▁compétentes	-11.2413
▁energy.	-11.2413
▁solid	-11.2414
ial	-11.2416
▁clearer	-11.2417
▁tentatives	-11.2418
▁déployés	-11.2418
▁4.	-11.2421
▁cru	-11.2421
▁emerging	-11.2422
▁utilisateurs	-11.2422
▁Every	-11.2422
▁cinquième	-11.2422
▁brevet	-11.2424
▁insisté	-11.2425
▁veille	-11.2429
▁établissant	-11.243
▁alongside	-11.2431
▁économiques.	-11.2435
▁achieved.	-11.2437
▁neuf	-11.2439
▁drivers	-11.2442
▁nécessairement	-11.2443
▁l'échange	-11.2445
▁constatons	-11.245
▁Toute	-11.245
▁talked	-11.2452
▁exploitations	-11.2453
▁différent	-11.2454
▁Turkey.	-11.2456
▁développés	-11.2458
▁parvenu	-11.246
▁Any	-11.246
▁l’utilisation	-11.2461
▁d'aborder	-11.2462
▁accompanied	-11.2468
▁arising	-11.2468
▁salaire	-11.247
▁fragile	-11.247
▁interest.	-11.247
▁seules	-11.2471
▁congratulating	-11.2476
▁récent	-11.2476
▁recherches	-11.2478
▁puts	-11.248
▁host	-11.2483
▁refusé	-11.2488
▁entamer	-11.2493
▁espoir	-11.2493
▁d'é	-11.2494
▁soutenue	-11.2495
▁mainte	-11.2496
▁deviennent	-11.2498
▁marche	-11.25
▁devaient	-11.2501
▁sincerely	-11.2501
▁simplify	-11.2502
▁wage	-11.2502
▁ratifié	-11.2502
▁tort	-11.2503
ment.	-11.2503
▁importants.	-11.2509
▁fondement	-11.2512
▁partant	-11.2514
port	-11.2517
▁vehicle	-11.2518
▁defending	-11.2521
▁react	-11.2523
▁2007-2013	-11.2523
▁a.m.	-11.2527
▁compétitive	-11.2528
▁(A5-	-11.253
▁Etats	-11.2539
▁exclusively	-11.2541
▁Americans	-11.2546
▁résolu	-11.2548
▁respecting	-11.255
▁d'enquête	-11.255
▁utiles	-11.2552
▁Socialists	-11.2553
▁banking	-11.2553
▁northern	-11.2554
▁personnes.	-11.2557
▁réponse.	-11.2558
▁mène	-11.2559
▁directeur	-11.2561
▁approximately	-11.2561
▁Mes	-11.2561
▁disponible	-11.2562
▁commun.	-11.2563
▁l'essentiel	-11.257
▁lancement	-11.2571
d.	-11.2572
▁l'attitude	-11.2579
▁nobody	-11.2585
▁touchés	-11.2589
▁period.	-11.2589
act	-11.259
▁inégalités	-11.259
▁Their	-11.2597
▁réaliste	-11.2598
▁droit.	-11.26
▁Ra	-11.2601
▁Est-ce	-11.2601
▁modèles	-11.2605
▁dégager	-11.2607
▁looked	-11.2608
▁s'agissant	-11.2609
▁judgment	-11.2609
▁lait	-11.261
▁expert	-11.2616
▁enlarged	-11.2617
▁accélérer	-11.2619
▁sinon	-11.2619
▁divergences	-11.2624
▁généraux	-11.2625
▁chemical	-11.2626
▁étrangers	-11.2627
▁harmonised	-11.2627
▁polonais	-11.2632
▁Mugabe	-11.2632
▁Otherwise	-11.2632
▁experiencing	-11.2632
▁élevées	-11.2634
▁po	-11.2636
▁culture.	-11.2638
▁Leur	-11.2639
(	-11.2639
▁irlandaise	-11.2639
▁respects	-11.2641
j	-11.2642
▁concrétiser	-11.2644
cre	-11.2644
▁suffisant	-11.2644
-là	-11.2649
▁surveiller	-11.2649
▁s'engager	-11.2655
▁Most	-11.2656
▁d'après	-11.2657
▁percentage	-11.2659
▁usual	-11.2662
▁well,	-11.2664
▁rising	-11.2664
▁soumises	-11.2665
▁contraintes	-11.2665
▁tenons	-11.2666
▁indépendant	-11.2668
ud	-11.267
dit	-11.267
▁Like	-11.2672
▁friend	-11.2675
▁fast	-11.2676
▁syndicats	-11.2677
▁self-	-11.2678
▁cruciale	-11.2684
vers	-11.2689
▁strictly	-11.2695
▁l'approbation	-11.2696
▁journée	-11.2697
▁elsewhere	-11.2699
▁rejoindre	-11.2704
▁Be	-11.2705
▁forests	-11.2708
▁organe	-11.2709
rcialisation	-11.2711
▁rythme	-11.2712
▁prisons	-11.2716
▁integration.	-11.2719
▁jurisdiction	-11.272
▁directed	-11.2737
ster	-11.2738
▁poverty.	-11.2742
▁suggère	-11.2743
▁prenant	-11.2747
):	-11.2748
▁Statute	-11.2749
▁evident	-11.2749
▁reasons.	-11.275
▁positive.	-11.2754
▁ruling	-11.2755
▁unanimity	-11.2759
▁disappointed	-11.276
▁textiles	-11.2762
▁pièces	-11.2762
▁Education	-11.2767
▁Objective	-11.2767
▁buildings	-11.2772
▁standing	-11.2774
▁débattu	-11.278
▁sanction	-11.2783
▁Atlantic	-11.2784
▁projects.	-11.2787
▁compete	-11.2788
▁licence	-11.2794
▁unions	-11.2796
▁rencontré	-11.2796
▁Traités	-11.2797
▁victim	-11.2797
▁intense	-11.2798
▁requiert	-11.28
▁Michel	-11.28
▁loans	-11.2802
▁d'entreprises	-11.2803
▁définis	-11.2804
▁exemption	-11.281
▁rational	-11.2811
dre	-11.2812
▁enquêtes	-11.2814
▁surrounding	-11.2824
▁difficile.	-11.2824
▁sûrs	-11.2825
s?	-11.2826
▁l'Italie	-11.2827
▁citizenship	-11.2829
▁S'agissant	-11.284
▁inacceptable.	-11.2842
▁poisson	-11.2845
▁w	-11.2846
▁Information	-11.2848
▁compétente	-11.2849
▁campaigns	-11.2851
▁Petitions	-11.2856
▁trans-European	-11.2856
▁contrast	-11.2861
▁après-midi	-11.2861
▁treat	-11.2863
▁coherence	-11.2864
▁8,	-11.2869
▁banque	-11.287
▁jugement	-11.2871
▁combler	-11.2874
▁relèvent	-11.2875
▁friendly	-11.2875
▁terres	-11.2876
▁Irak	-11.2878
▁43	-11.2878
▁figurent	-11.288
▁Cotonou	-11.288
▁l'Agenda	-11.2881
▁ultrapériphéri	-11.2886
▁Cohesion	-11.2888
▁2001.	-11.2893
▁l'Est	-11.2895
ten	-11.2895
▁disons	-11.2895
▁neighbourhood	-11.2896
▁St	-11.2901
▁profite	-11.2902
▁house	-11.2904
▁demandant	-11.2907
▁threatened	-11.2907
▁mere	-11.2909
▁timely	-11.2909
▁compromis.	-11.2911
▁essence	-11.2914
▁7,	-11.2917
mon	-11.292
▁défend	-11.292
▁Communist	-11.2921
▁sentence	-11.2922
▁competition,	-11.2926
▁changé	-11.2927
s;	-11.293
▁néerlandais	-11.293
▁sauf	-11.2931
▁guide	-11.2931
▁actions.	-11.2932
▁Finnish	-11.2937
▁utilise	-11.2938
▁membre.	-11.2942
▁indépendance	-11.2942
▁Two	-11.2945
▁énormes	-11.2947
▁risquent	-11.2952
▁desirable	-11.2953
▁Baltique	-11.2958
▁l’emploi	-11.2961
▁climatiques	-11.2961
▁Strasbourg.	-11.2966
▁l’esprit	-11.2969
▁procedural	-11.2969
▁yourself	-11.2969
▁begun	-11.2969
K	-11.297
▁blood	-11.2975
▁quelqu'un	-11.2978
▁authorisation	-11.2981
▁Macedonia	-11.2984
▁Sakharov	-11.2986
▁parallèlement	-11.2989
▁consulted	-11.299
▁intelligent	-11.2991
ors	-11.2992
▁sharing	-11.2994
▁déplore	-11.2995
▁acceptable.	-11.2999
▁clear.	-11.2999
ries	-11.2999
▁restrict	-11.3002
▁troupes	-11.3002
▁defining	-11.3002
▁entrepris	-11.3003
▁fourth	-11.3006
▁die	-11.3007
▁touch	-11.3011
▁replaced	-11.3015
▁universel	-11.302
▁vitesse	-11.3023
▁multiples	-11.3024
▁sight	-11.3028
▁Criminal	-11.3035
▁n'avait	-11.3035
▁consistant	-11.3036
▁connected	-11.3037
▁sections	-11.3039
▁examination	-11.3051
▁treaties	-11.3052
▁d'impact	-11.3052
▁passant	-11.3054
▁emission	-11.3054
▁fondé	-11.3056
▁assurances	-11.3058
lusieurs	-11.3061
▁resource	-11.3063
▁costs.	-11.3066
▁multinationales	-11.307
▁hoc	-11.3073
▁préoccupe	-11.3075
▁Allow	-11.3077
▁assemblée	-11.3077
▁million.	-11.3078
▁indispensables	-11.3078
▁réjouir	-11.3079
▁efficace,	-11.3079
▁refused	-11.3081
▁conformité	-11.3085
▁acceptance	-11.3087
▁urgency	-11.3089
car	-11.309
▁forgotten	-11.3093
▁j’espère	-11.3093
▁Malta	-11.3093
▁genetically	-11.3093
▁diversification	-11.3093
▁re-	-11.3093
▁processus.	-11.3095
▁renoncer	-11.3095
▁encourageant	-11.3097
▁spéciale	-11.31
▁régulation	-11.3101
▁utilisant	-11.3101
▁pursuan	-11.3101
▁permitted	-11.3101
▁restera	-11.3102
▁Defence	-11.3109
▁Ministre	-11.3109
▁serais	-11.311
ring	-11.311
▁lacking	-11.3112
▁procédure.	-11.3113
▁longues	-11.3115
▁fourniture	-11.3122
▁ideal	-11.3122
▁l'acquis	-11.3127
▁minimal	-11.3129
▁éventuelle	-11.3131
▁similaire	-11.3133
▁dizaines	-11.3133
▁Single	-11.3134
▁d'élargissement	-11.3134
▁Cher	-11.3137
▁pratique.	-11.314
▁soil	-11.3142
▁nine	-11.3142
▁1989	-11.3142
▁intellectuelle	-11.3144
▁El	-11.3146
▁Services	-11.3146
▁d'entreprise	-11.3148
▁d'accroître	-11.3151
▁reconciliation	-11.3151
▁opposé	-11.3151
▁supporter	-11.3152
▁systems,	-11.3152
▁majeurs	-11.316
pro	-11.3164
▁correcte	-11.3164
▁élargie	-11.3165
▁l’ordre	-11.3165
▁equivalent	-11.3167
▁stipule	-11.3167
▁financière.	-11.3167
▁feuille	-11.3167
ons-nous	-11.317
▁worthy	-11.3173
▁inadmissible	-11.3176
▁essayé	-11.3176
▁drive	-11.3179
▁observers	-11.3179
▁adéquat	-11.318
▁control.	-11.3181
▁accusations	-11.3191
▁Maroc	-11.3192
▁Mercosur	-11.3192
▁controversial	-11.3192
▁l’application	-11.3192
▁basé	-11.3198
▁impetus	-11.3201
▁housing	-11.3201
▁investisseurs	-11.3209
▁Forum	-11.3213
▁1994	-11.3215
▁integrity	-11.3217
▁consequently	-11.3218
▁showed	-11.322
▁participent	-11.3221
▁joined	-11.3221
▁nature.	-11.3223
▁agreements,	-11.3223
▁employeurs	-11.3224
▁jeune	-11.3224
▁rigueur	-11.3226
▁l'Amérique	-11.3226
▁instant	-11.323
▁Your	-11.3232
▁logical	-11.3232
▁l'inclusion	-11.3235
▁similaires	-11.3236
▁qualité.	-11.3243
á	-11.3245
▁m'ont	-11.3246
▁exprimée	-11.3249
▁r	-11.325
▁threshold	-11.325
▁soutien.	-11.3254
▁financières.	-11.3255
▁object	-11.3256
éc	-11.3257
▁underlying	-11.3259
hi	-11.326
▁offices	-11.3262
▁événement	-11.3267
▁reported	-11.3268
▁System	-11.3268
▁Africa.	-11.3268
ens	-11.3271
▁nous-mêmes	-11.3271
▁planète	-11.3272
use	-11.3274
▁uniforme	-11.3276
▁complémentaires	-11.3276
▁residence	-11.3276
▁démontrer	-11.3276
▁devions	-11.3276
▁solidarity.	-11.3278
▁hongroise	-11.328
▁aborde	-11.3283
▁portugaise	-11.3284
▁dramatic	-11.3284
▁Espagne	-11.3288
▁professions	-11.3291
▁subi	-11.3292
▁tolérance	-11.3293
▁feu	-11.3298
▁95	-11.33
▁Ba	-11.3301
▁follow-up	-11.3302
bo	-11.3302
▁bois	-11.3304
▁warm	-11.3307
▁décrit	-11.3314
▁orale	-11.3319
▁ethniques	-11.3321
▁statute	-11.3322
▁souhaiter	-11.3323
▁produisent	-11.3325
▁Natura	-11.3327
▁l’agriculture	-11.3327
▁substantielle	-11.3329
▁investigations	-11.333
▁sad	-11.3331
▁War	-11.3333
▁raises	-11.3334
▁démocratique,	-11.3335
▁Yugoslavia	-11.334
▁décennies	-11.334
▁agrees	-11.334
▁highlights	-11.334
hé	-11.3342
▁classification	-11.3344
▁augmente	-11.3344
▁finally,	-11.3346
▁Co	-11.3347
▁palestinien	-11.3347
▁constructif	-11.3352
-Mediterranean	-11.3352
▁Regarding	-11.3352
▁categories	-11.3352
▁d’autre	-11.3356
▁.-	-11.3357
▁négatifs	-11.3359
▁tension	-11.3359
▁maintenance	-11.336
▁insufficient	-11.3361
▁Traité.	-11.3364
▁grec	-11.3367
▁comprennent	-11.3368
▁notably	-11.3368
▁tiennent	-11.337
▁vaccination	-11.337
▁fire	-11.3373
▁obtenus	-11.3375
▁hoped	-11.3377
▁mépris	-11.3377
ritten	-11.3378
▁victime	-11.3379
▁américains	-11.3381
▁railways	-11.3382
▁helpful	-11.3384
▁sauver	-11.3385
▁énormément	-11.3386
▁décisif	-11.3386
▁publique,	-11.3387
▁l'Irak	-11.3391
▁Morocco	-11.3392
▁monétaires	-11.3392
▁(debate)	-11.3394
our	-11.3395
▁account.	-11.3396
da	-11.3402
▁systematic	-11.3403
▁Friday	-11.3403
stitutionnelles	-11.3403
▁judge	-11.341
▁prioritaire	-11.341
▁prostitution	-11.3412
▁contributing	-11.3412
▁resumed	-11.3413
▁fournit	-11.3414
▁funded	-11.3418
▁matériel	-11.3424
ish	-11.3426
▁interdit	-11.3427
▁Hong	-11.3429
▁coexistence	-11.3429
▁coastal	-11.343
▁fournisseurs	-11.3431
▁détaillée	-11.3432
▁keen	-11.3435
elle	-11.3436
▁confident	-11.3437
▁bateaux	-11.3437
▁indépendamment	-11.3437
▁peace,	-11.3438
▁slightly	-11.3438
nce	-11.3439
▁withdrawal	-11.3439
▁biodiversity	-11.3443
▁signing	-11.3445
▁preventive	-11.3449
▁fortes	-11.345
▁Ceux	-11.3452
ice	-11.3453
▁espagnol	-11.3454
▁Martin	-11.3456
▁mille	-11.3465
▁missing	-11.3465
▁interim	-11.3466
▁organizations	-11.3468
▁américaines	-11.3469
▁length	-11.3469
▁destroy	-11.3471
▁d'euros.	-11.3472
▁sold	-11.3474
▁absent	-11.3477
▁valable	-11.348
▁croyons	-11.348
▁gross	-11.348
▁woman	-11.3481
▁poissons	-11.3483
▁rencontrer	-11.3484
▁disputes	-11.3485
▁confrontée	-11.3486
▁arrivé	-11.3486
▁ca	-11.3487
▁hautement	-11.3487
▁obligatoires	-11.3493
▁coordonnée	-11.3494
▁transparente	-11.3495
▁Londres	-11.3497
▁Solidarity	-11.3497
▁short-term	-11.3497
▁virus	-11.3497
▁communiquer	-11.3498
▁Who	-11.35
▁légitimes	-11.3502
▁inspection	-11.3506
▁airports	-11.3508
▁juger	-11.3511
▁perfect	-11.3512
▁Posselt	-11.3514
▁Kong	-11.3515
▁dossier.	-11.3515
▁38	-11.352
▁universities	-11.3523
▁b	-11.3525
▁utilisent	-11.3526
▁subsequently	-11.3526
▁search	-11.3526
▁characteristics	-11.3531
▁1998.	-11.3532
▁l'alimentation	-11.3532
▁norme	-11.3533
▁objectif.	-11.3535
▁joining	-11.3536
cal	-11.3536
▁horizontal	-11.3537
▁perception	-11.354
▁rédaction	-11.354
▁inside	-11.3541
▁plays	-11.3541
né	-11.3543
▁comparison	-11.3543
▁solutions.	-11.3549
▁(débat)	-11.3549
▁masse	-11.3549
▁audit	-11.3551
▁m'en	-11.3552
▁définies	-11.3554
▁subsequent	-11.3555
▁block	-11.3555
▁Affaire	-11.3558
▁MEDA	-11.3558
▁devez	-11.3559
▁ouverture	-11.356
▁farms	-11.3561
▁regularly	-11.3563
▁items	-11.3563
▁lieux	-11.3566
▁Please	-11.3566
▁craintes	-11.3567
▁significatif	-11.3573
▁l'occurrence	-11.3575
▁faim	-11.3575
▁imposing	-11.3576
▁estimated	-11.3576
▁démographique	-11.3579
▁envisaged	-11.3581
▁another.	-11.3584
▁voterons	-11.3585
▁russes	-11.3587
▁Tunisie	-11.359
ph	-11.3591
ga	-11.3591
▁aérienne	-11.3591
▁biodiversité	-11.3592
▁preliminary	-11.3592
▁adopted.	-11.3593
▁approaches	-11.3593
▁réformer	-11.3593
▁l'instauration	-11.3594
▁imported	-11.3594
▁concert	-11.3595
▁fixe	-11.3595
▁commend	-11.3596
▁prouve	-11.3597
▁sales	-11.3599
▁managing	-11.3601
▁55	-11.3603
▁Deux	-11.3603
▁Monday	-11.361
▁l’éducation	-11.361
▁dimensions	-11.3612
▁chinois	-11.3612
▁breach	-11.3616
▁either.	-11.3618
▁nationale.	-11.362
▁chapter	-11.362
▁contenter	-11.3621
▁sang	-11.3624
▁envoyé	-11.363
▁integrate	-11.3633
outermost	-11.3636
▁values.	-11.3637
dy	-11.3642
du	-11.3642
▁Li	-11.3642
▁except	-11.3643
ob	-11.3644
▁adhérer	-11.3644
▁Burma	-11.3645
▁track	-11.3645
▁Italy,	-11.3647
▁representing	-11.3648
▁terrorists	-11.3652
▁condamnation	-11.3661
▁criteria.	-11.3661
▁Watson	-11.3662
▁30%	-11.3663
▁controlled	-11.3663
▁proches	-11.3664
▁outset	-11.3665
tri	-11.3665
▁sphere	-11.3672
▁appointment	-11.3673
▁dépendent	-11.3673
▁l’Assemblée	-11.368
▁n’en	-11.3684
▁fermer	-11.3685
15	-11.3685
▁contraignant	-11.3688
▁l’intégration	-11.3688
▁80%	-11.3689
▁respectant	-11.3689
▁fit	-11.369
▁j'avais	-11.3697
▁failing	-11.37
▁invitation	-11.3702
▁ethnique	-11.3703
▁advocate	-11.3706
▁proven	-11.3707
▁travaillons	-11.3707
▁Ka	-11.371
▁37	-11.371
▁Personne	-11.3715
▁65	-11.3716
▁l’intérêt	-11.3723
▁resistance	-11.3723
▁banned	-11.3724
▁Tunisia	-11.3725
▁Women	-11.3725
▁error	-11.3726
▁Africa,	-11.3734
gi	-11.3734
▁achievements	-11.3735
▁advanced	-11.3738
▁révolution	-11.374
▁d'eau	-11.3741
▁absurd	-11.3742
▁d'entendre	-11.375
▁d'Amérique	-11.375
▁individus	-11.3751
▁ferait	-11.3756
ability	-11.3759
▁Sudan	-11.376
▁entrée	-11.3761
▁murder	-11.3761
▁investors	-11.3761
▁rules,	-11.3762
▁August	-11.3767
▁priority.	-11.3769
▁règne	-11.3773
▁négatives	-11.3774
▁birth	-11.3776
▁exchanges	-11.3776
▁pouvons-nous	-11.378
▁publics.	-11.3782
lle	-11.3785
▁d'imposer	-11.3785
▁pretext	-11.3785
▁tolerance	-11.3785
▁étudier	-11.3786
▁bel	-11.3786
▁states.	-11.379
▁chemicals	-11.3793
▁aériens	-11.3794
▁U	-11.3797
▁effectuer	-11.3797
▁thousand	-11.3802
▁Tribunal	-11.3803
▁Outre	-11.3803
▁hundred	-11.3804
▁stages	-11.3804
▁br	-11.3808
▁fires	-11.3809
▁losing	-11.3812
▁inondations	-11.3812
▁Similarly	-11.3812
▁d'émission	-11.3819
▁maritimes	-11.3824
▁founded	-11.3828
ade	-11.3829
▁J'appelle	-11.383
ub	-11.3833
▁ratify	-11.3833
▁decisions.	-11.3837
▁exposé	-11.3837
▁inhabitants	-11.3838
▁oblige	-11.3843
ification	-11.3844
▁assessments	-11.3844
▁énergétique,	-11.3846
▁crédible	-11.3847
▁infringement	-11.3848
▁safeguarding	-11.3851
▁bovine	-11.3853
▁40%	-11.3857
▁south	-11.3857
ka	-11.3859
▁nucléaire.	-11.386
▁rares	-11.3861
▁tough	-11.3862
▁favorablement	-11.3864
▁participating	-11.3865
V	-11.3867
▁Iraqi	-11.3869
▁objection	-11.3869
▁crime,	-11.387
▁Democratic	-11.387
▁digne	-11.387
ach	-11.387
▁émis	-11.3872
▁eventually	-11.3875
▁résulte	-11.3876
▁prouvé	-11.3883
W	-11.3884
tu	-11.3888
▁occidentaux	-11.3888
▁chrétiens	-11.3892
▁ami	-11.3893
▁décision.	-11.3895
ition	-11.3895
▁mistakes	-11.3898
▁Wednesday	-11.3901
▁immigrés	-11.3901
▁l’idée	-11.3901
▁réussir	-11.3903
▁soulève	-11.3903
acc	-11.3904
▁5.	-11.3906
▁marqué	-11.3907
▁probable	-11.3907
▁Brazil	-11.391
▁fears	-11.391
▁considérés	-11.3912
▁plafond	-11.3917
▁covering	-11.3918
▁gained	-11.3918
▁flows	-11.3918
02	-11.3919
▁prochainement	-11.3919
▁anniversaire	-11.392
▁arrêter	-11.392
▁recherche.	-11.3921
▁organisations.	-11.3921
▁ferai	-11.3924
▁trial	-11.3924
▁indicateurs	-11.3925
▁comparaison	-11.3928
▁executive	-11.3928
▁autrichienne	-11.3929
▁Community.	-11.3932
▁popular	-11.3935
▁relations.	-11.3937
▁d'aller	-11.3937
▁commentaire	-11.3938
▁eux.	-11.3942
▁l'étiquetage	-11.3946
▁Ro	-11.3946
▁prends	-11.3946
▁continuation	-11.3946
▁accepting	-11.3947
▁dés	-11.3948
tes	-11.3951
▁Lebanon	-11.3955
▁hélas	-11.3955
▁implemented.	-11.3956
▁définitif	-11.3956
▁s'exprimer	-11.3963
▁Sarkozy	-11.3964
▁touchées	-11.3964
▁Citizens'	-11.3965
▁mineurs	-11.3968
▁prioritaires	-11.3968
▁convince	-11.397
ang	-11.3972
▁succès.	-11.3975
▁assurément	-11.3975
▁établies	-11.3977
▁Penda	-11.3981
▁foundation	-11.3981
▁Certaines	-11.3983
▁notification	-11.3985
▁approfondi	-11.3986
▁shift	-11.3991
▁l'espère	-11.3991
▁prouver	-11.3992
▁concertation	-11.3994
▁principle.	-11.3998
European	-11.4
▁transparence.	-11.4001
▁stockage	-11.4001
▁jusqu'au	-11.4002
▁courte	-11.4003
▁alimentaire.	-11.4005
▁basis,	-11.4006
▁Women's	-11.401
▁l'Iran	-11.4014
▁mentionne	-11.4016
▁Brésil	-11.4018
▁longtemps.	-11.4018
▁d'efficacité	-11.4019
a,	-11.4019
▁follows	-11.402
▁solved	-11.402
▁violences	-11.4021
▁supplies	-11.4024
▁barrières	-11.4024
▁Malte	-11.4026
▁pursuing	-11.4027
▁sit	-11.4031
-0	-11.4038
▁rely	-11.4039
▁mandatory	-11.4045
04	-11.4047
▁Balkans.	-11.4053
▁poursuit	-11.4054
and	-11.4055
▁l’accès	-11.4055
▁passée	-11.4057
-on	-11.4059
▁action,	-11.4062
▁hour	-11.4063
▁certitude	-11.4063
▁l'espoir	-11.4063
▁d’adhésion	-11.4063
▁ECHO	-11.4064
▁Tant	-11.4072
▁d'accepter	-11.4073
▁suscité	-11.4076
▁dépasse	-11.4077
▁considèrent	-11.4079
▁agi	-11.4081
▁voulez	-11.4082
▁d'évaluer	-11.4082
▁qu'est	-11.4087
▁posées	-11.4087
▁peace.	-11.4089
▁part-session	-11.409
▁l'issue	-11.4092
▁approuve	-11.4092
▁reductions	-11.4092
▁Président.	-11.4093
▁d'importance	-11.41
dis	-11.4101
▁vigueur.	-11.4102
▁Ni	-11.4102
▁conjointement	-11.4103
▁volet	-11.4104
▁négative	-11.4107
▁soin	-11.4108
▁lorsqu’il	-11.4109
▁particuliers	-11.4111
▁appeler	-11.4111
▁600	-11.4113
▁chargée	-11.4114
▁partisans	-11.4116
/CE	-11.4126
▁judicieux	-11.4127
▁respecté	-11.4128
▁effect.	-11.4129
▁stricte	-11.413
▁physique	-11.4132
▁design	-11.4132
▁freight	-11.4137
▁l'élimination	-11.4137
▁explicitement	-11.4139
▁handicap	-11.4141
▁abandon	-11.4143
▁procedures.	-11.4149
▁innocent	-11.4149
▁inviter	-11.4149
▁Chine.	-11.4157
▁incendies	-11.4158
▁providers	-11.4162
▁delegations	-11.4163
▁BEI	-11.4164
▁signer	-11.4164
▁bancaire	-11.4167
▁délégations	-11.4168
▁établit	-11.4169
▁communication.	-11.4169
▁decline	-11.417
▁abuses	-11.4173
▁victoire	-11.4173
▁ship	-11.4173
▁consistency	-11.4182
▁registration	-11.4182
▁surface	-11.4184
▁avancé	-11.4187
▁Genève	-11.4187
▁demi	-11.4188
▁universités	-11.4189
▁échéant	-11.4192
▁attach	-11.4192
▁sex	-11.4193
▁richesse	-11.4193
▁G8	-11.4193
▁constitué	-11.4197
▁sale	-11.4198
▁l'ampleur	-11.4201
▁incorporate	-11.4205
▁remise	-11.4209
▁anniversary	-11.421
▁rechercher	-11.4211
▁visited	-11.4214
▁eau	-11.4216
▁movements	-11.4217
▁ignorer	-11.4217
▁Sahara	-11.4219
▁naissance	-11.4219
▁piliers	-11.4223
/EC	-11.4224
▁Reform	-11.4224
▁totalité	-11.4226
01	-11.4226
▁d’en	-11.4227
▁Z	-11.4228
▁préservation	-11.4229
gé	-11.4231
▁Syria	-11.4232
led	-11.4235
▁d'actions	-11.4235
▁financiers.	-11.4238
▁funds,	-11.4238
▁modifiant	-11.4238
▁préférable	-11.4238
▁marked	-11.424
▁approuvée	-11.4243
▁older	-11.4243
tal	-11.4249
▁actifs	-11.4253
▁explications	-11.4256
▁charbon	-11.4256
▁fails	-11.4257
▁L'accord	-11.4257
▁contenues	-11.4261
▁president	-11.4261
▁étapes	-11.4262
▁page	-11.4265
▁chain	-11.4265
▁stringent	-11.4266
▁complexité	-11.4268
▁concern.	-11.4271
▁suffisantes	-11.4271
▁présent.	-11.4272
▁arrangement	-11.4273
▁Chairman	-11.4275
▁signs	-11.4277
▁danois	-11.4281
▁sectors.	-11.4285
▁survie	-11.4289
▁gradual	-11.4291
▁saluons	-11.4294
▁containing	-11.4295
▁chemins	-11.4295
▁exprimés	-11.4295
▁constante	-11.4296
▁l'être	-11.4297
▁rubrique	-11.43
▁Ms	-11.4301
▁Community's	-11.4301
▁supervisory	-11.4303
▁Hence	-11.4304
▁point:	-11.4308
oc	-11.4309
▁PHARE	-11.4312
▁chômeurs	-11.4312
▁législature	-11.4313
▁appelons	-11.4316
mb	-11.4319
▁concludes	-11.4323
▁listening	-11.4324
▁donnera	-11.4324
▁morale	-11.4325
▁grandement	-11.4325
▁impliquées	-11.4327
▁objet	-11.4328
▁l'extérieur	-11.4328
▁complémentaire	-11.4328
▁(Rule	-11.4331
▁suggests	-11.4334
▁Tibet	-11.4337
05	-11.4337
▁péril	-11.4338
▁invité	-11.4339
▁expressément	-11.434
▁Syrie	-11.434
▁actors	-11.4347
▁EIB	-11.435
▁albeit	-11.435
▁liked	-11.435
▁entreprendre	-11.4352
▁présentant	-11.4356
▁encouragement	-11.4357
cé	-11.4358
▁resolving	-11.4359
▁meantime	-11.436
▁assets	-11.4365
▁fictifs	-11.4365
▁compagnie	-11.4367
▁d'experts	-11.4368
▁réconciliation	-11.4369
▁l'Autriche	-11.437
▁appels	-11.4372
▁collapse	-11.4372
▁Liberals	-11.4376
▁s'attaquer	-11.4382
▁Left	-11.4387
▁personnelle	-11.4387
▁finish	-11.4387
▁invited	-11.4389
▁Code	-11.4389
val	-11.4391
▁wages	-11.4392
▁imperative	-11.4397
▁nourriture	-11.4397
▁territories	-11.4398
▁mentioned.	-11.4398
lic	-11.4401
▁this:	-11.4403
▁blind	-11.4403
▁particulières	-11.4404
▁sincere	-11.4405
▁Présidente	-11.4405
▁extrême	-11.4405
▁ra	-11.4406
▁importantes.	-11.4408
ization	-11.4412
▁OSCE	-11.4415
▁l'assistance	-11.4416
▁regimes	-11.4422
▁acknowledged	-11.4422
▁religieuses	-11.4425
▁female	-11.4425
▁Rien	-11.4425
pi	-11.4426
▁44	-11.4428
▁exigence	-11.4429
▁objectifs.	-11.4429
▁L'un	-11.4433
▁week.	-11.4433
▁accounting	-11.4434
▁Wallström	-11.4434
▁compromises	-11.4435
ly.	-11.4441
▁cope	-11.4444
▁do.	-11.4445
▁looks	-11.4446
▁n’avons	-11.4448
▁class	-11.4451
▁intervenants	-11.4452
▁alliance	-11.4454
▁issus	-11.4454
▁outlined	-11.4455
▁Libya	-11.4457
▁(C	-11.4458
▁reporting	-11.4459
▁d'assurance	-11.446
▁convictions	-11.4461
▁compromise.	-11.4461
▁douze	-11.4463
▁denied	-11.4463
▁farm	-11.4463
▁card	-11.4467
▁globalement	-11.447
▁organic	-11.447
▁fallu	-11.4471
▁stakeholders	-11.4472
▁refugee	-11.4473
▁taxpayers	-11.4473
▁ambitieuse	-11.4477
rions	-11.4479
▁concernés.	-11.4479
▁directs	-11.448
▁prétend	-11.4481
▁borders,	-11.4481
▁criterion	-11.4482
▁c’est-à-dire	-11.4482
▁disparition	-11.4482
▁gravité	-11.4482
▁falling	-11.4482
▁vendredi	-11.4482
▁dictature	-11.4486
▁amendements.	-11.4492
▁particulier.	-11.4496
▁l'A	-11.4497
▁vol	-11.45
▁experiences	-11.45
▁Liban	-11.4501
▁black	-11.4501
▁decent	-11.4504
▁complexes	-11.4509
▁Belarus.	-11.451
▁pharmaceutical	-11.451
non-governmental	-11.451
▁entamé	-11.4511
▁l'extension	-11.4511
▁functions	-11.4517
isant	-11.4517
▁1%	-11.4517
▁voudrait	-11.4529
▁furthermore	-11.453
▁décisionnel	-11.453
▁Reding	-11.4532
▁profitable	-11.4536
▁mercredi	-11.4539
▁(CE)	-11.4539
▁Iranian	-11.4541
▁juridiquement	-11.4545
ez-vous	-11.4546
▁vivons	-11.4548
▁immunity	-11.4548
▁consciente	-11.4551
▁efforts.	-11.4551
▁evaluate	-11.4554
▁backing	-11.4555
▁fifteen	-11.4558
▁classe	-11.456
▁égalité	-11.4561
▁occur	-11.4566
▁saurait	-11.4568
▁handicapées	-11.4572
▁rémunération	-11.4575
▁innovations	-11.4576
▁variety	-11.4577
▁fondamentaux,	-11.4579
▁ceiling	-11.4579
fin	-11.458
▁clients	-11.4582
▁Objet:	-11.4583
▁argue	-11.4583
ng	-11.4586
▁Suisse	-11.4587
▁Lomé	-11.4587
▁l'analyse	-11.4587
▁priorities.	-11.4587
▁apportée	-11.4588
▁died	-11.4589
▁coopération.	-11.4589
▁answered	-11.459
▁l’une	-11.4596
▁Maintenant	-11.4596
▁disastrous	-11.4596
▁proactive	-11.4596
▁third-country	-11.4596
▁d'exécution	-11.4597
▁unit	-11.4598
▁dead	-11.4598
▁usually	-11.4599
▁Romanian	-11.4599
▁tragique	-11.4603
▁regarder	-11.4604
▁learned	-11.4605
▁revolution	-11.4606
▁Could	-11.4606
ide	-11.4611
▁dates	-11.4612
▁Millennium	-11.4615
▁exhaustive	-11.4616
▁crops	-11.4618
▁win	-11.4618
▁nommé	-11.4619
▁terroriste	-11.462
▁décisive	-11.4621
▁disposé	-11.4622
▁traduire	-11.4625
▁quantités	-11.463
▁l'urgence	-11.4635
▁Pack	-11.4635
▁detention	-11.4635
▁satisfaits	-11.4636
▁partiellement	-11.4636
ha	-11.4637
▁Ar	-11.4639
▁harmonise	-11.4641
▁monétaire,	-11.4644
▁provoqué	-11.4646
▁étendre	-11.4647
-f	-11.4648
▁objective.	-11.4651
▁choices	-11.4654
▁1997.	-11.4655
▁employed	-11.4657
▁endeavour	-11.4659
pt	-11.4662
▁endorsed	-11.4662
▁disait	-11.4663
▁Greens	-11.4663
▁d'exprimer	-11.4664
▁apportées	-11.4664
r.	-11.4667
▁Other	-11.4668
▁sentir	-11.4672
▁incentive	-11.4673
▁D'autres	-11.4675
▁prompt	-11.4676
▁unilateral	-11.4678
▁vous-même	-11.4678
▁suscite	-11.4678
▁partners.	-11.4683
▁fifth	-11.4684
▁corresponding	-11.4684
▁réjouissons	-11.4686
▁features	-11.4693
▁autonomy	-11.4702
▁d’énergie	-11.4703
▁n'aurait	-11.4703
▁amélioré	-11.4704
▁fate	-11.4705
▁registre	-11.4713
▁d'échange	-11.4713
ard	-11.4713
▁entering	-11.4716
▁Decision	-11.4717
▁désire	-11.4717
▁released	-11.472
▁sympathy	-11.4722
▁notes	-11.4724
▁wind	-11.4725
▁mondiaux	-11.4725
▁o	-11.4726
▁Celle-ci	-11.4732
▁Scotland	-11.4732
▁examining	-11.4732
▁conservateurs	-11.4734
▁directive-cadre	-11.4734
▁character	-11.4737
▁déficits	-11.474
▁China.	-11.474
▁fossé	-11.4741
▁fabricants	-11.4741
▁vies	-11.4742
▁s'impose	-11.4742
▁saine	-11.4743
▁coal	-11.4745
▁born	-11.4746
▁moments	-11.4748
▁avance	-11.4749
▁recyclage	-11.4751
▁badly	-11.4752
▁answer.	-11.4753
▁déterminant	-11.4759
]	-11.4761
▁adequately	-11.4761
▁Mo	-11.4762
▁adoptant	-11.4762
▁l'effet	-11.4762
▁recognises	-11.4765
▁acted	-11.4766
▁stimulate	-11.4767
▁faisait	-11.4774
▁group.	-11.4775
▁procédé	-11.4775
ding	-11.4776
▁39	-11.4778
nu	-11.4778
▁modifiée	-11.4779
▁L'amendement	-11.4783
▁potentiels	-11.4783
▁biologique	-11.4786
▁comités	-11.4786
cent	-11.4788
▁interprétation	-11.479
▁désaccord	-11.479
▁contrat	-11.4791
▁échec	-11.4791
▁Ko	-11.4794
▁élevée	-11.4795
▁Bruxelles.	-11.4796
▁servent	-11.4798
▁sérieuses	-11.4803
▁disposée	-11.4805
▁diplomatique	-11.4806
▁productivité	-11.481
▁historiques	-11.4811
▁d'accords	-11.4812
▁dérogation	-11.4818
▁bloc	-11.4818
▁false	-11.482
▁storage	-11.482
▁consistently	-11.482
tor	-11.4822
▁appointed	-11.4822
▁placer	-11.4823
▁France.	-11.4827
▁financière,	-11.4827
▁résumé	-11.4829
▁damaging	-11.4829
▁productivity	-11.483
▁lives.	-11.4831
▁game	-11.4832
▁hopefully	-11.4832
▁corriger	-11.4832
▁régionale,	-11.4834
▁rang	-11.4835
▁ageing	-11.4837
▁accru	-11.4838
▁attractive	-11.4839
▁Beaucoup	-11.4839
▁mémoire	-11.4839
▁supranational	-11.4844
▁l'é	-11.4845
ite	-11.4846
▁plan.	-11.4847
▁privacy	-11.4849
▁explication	-11.4849
▁indirect	-11.4851
▁250	-11.4854
inter	-11.4857
▁faux	-11.4858
▁d'in	-11.4858
▁terms.	-11.4858
▁logement	-11.4859
▁Corbett	-11.4859
▁témoigne	-11.486
▁traduit	-11.4863
▁Taiwan	-11.4869
▁disposés	-11.4869
pos	-11.4875
▁Chechnya	-11.4877
▁minor	-11.4881
▁Tourism	-11.4882
▁strictement	-11.4883
▁biocarburants	-11.4887
▁devoted	-11.4891
▁réelles	-11.4892
▁apparently	-11.4893
▁fixed	-11.4893
▁explanations	-11.4894
▁développé	-11.4894
▁safeguards	-11.4895
è	-11.4898
▁virtually	-11.4899
▁ratifier	-11.4899
▁l’UE,	-11.4901
▁l'aspect	-11.4901
▁locale	-11.4904
'après	-11.4907
▁airport	-11.4908
▁continuerons	-11.4908
▁straight	-11.4908
▁Above	-11.4908
▁renewed	-11.491
▁limitations	-11.4914
▁models	-11.4916
▁0,	-11.4917
by	-11.4918
▁MEP	-11.4918
▁bruit	-11.4918
▁power.	-11.4922
▁elections,	-11.4923
▁routier	-11.4925
▁réglementer	-11.4926
▁substantially	-11.4928
▁souvenir	-11.4928
▁résolus	-11.4928
▁stick	-11.4933
▁prévisions	-11.4934
▁Moldavie	-11.4938
▁impératif	-11.4938
▁noter	-11.4939
▁électroniques	-11.4939
▁animale	-11.4939
pé	-11.494
▁mental	-11.4944
▁l'effort	-11.4948
▁remis	-11.4949
▁l’Europe,	-11.495
▁names	-11.495
▁scientists	-11.4951
▁appui	-11.4951
▁intégrante	-11.4955
▁chercheurs	-11.4958
▁sole	-11.4959
▁agriculture.	-11.4959
▁attentats	-11.4961
▁end.	-11.4961
▁statistical	-11.4963
▁âge	-11.4968
▁précision	-11.4968
▁initially	-11.4968
▁national.	-11.4969
▁vide	-11.497
▁empêche	-11.4971
▁votes.	-11.4972
▁shortly	-11.4976
▁closure	-11.4977
▁guise	-11.4978
▁Naturally	-11.4978
▁révélé	-11.4978
ja	-11.4978
▁l'agenda	-11.4979
▁Na	-11.4982
▁Vu	-11.4985
▁lundi	-11.4988
▁d'assistance	-11.4989
▁équipe	-11.499
▁Rights.	-11.4991
▁Europe'	-11.4992
▁leaves	-11.4995
gue	-11.4995
▁verte	-11.4997
▁technologiques	-11.4998
▁Jarzembowski	-11.4998
▁inquiry	-11.4998
▁donnant	-11.4998
▁(EC)	-11.4999
▁date.	-11.5001
ég	-11.5003
▁exploiter	-11.5004
▁unie	-11.5004
▁Procedure.	-11.5006
▁contenant	-11.5008
▁l’immigration	-11.5008
▁tourisme,	-11.501
▁humaine.	-11.5011
▁besoin.	-11.5012
▁rec	-11.5012
▁arrêt	-11.5013
▁suspect	-11.5018
▁Jusqu'	-11.5018
▁examinons	-11.5018
line	-11.5018
▁sévères	-11.5019
▁disparités	-11.5022
ications	-11.5025
▁match	-11.5026
Votre	-11.5027
▁traditionnelle	-11.5029
▁reform.	-11.5031
▁pain	-11.5036
▁civile.	-11.5036
▁d'accueil	-11.5038
▁socio-economic	-11.5038
▁l’efficacité	-11.5038
tan	-11.5047
▁Libye	-11.5048
▁community.	-11.5049
▁focusing	-11.5052
n-discrimination	-11.5052
▁l'énergie.	-11.5054
▁vues	-11.5055
▁Vi	-11.5056
▁modernes	-11.5057
▁portugais	-11.5058
▁title	-11.5058
▁USD	-11.5059
▁classes	-11.506
▁dream	-11.5067
▁struck	-11.5068
▁142)	-11.5069
▁exprime	-11.507
▁écouter	-11.5071
/9	-11.5075
▁serai	-11.5076
▁Erasmus	-11.508
▁pluriannuel	-11.5084
▁illégal	-11.5087
▁d'Israël	-11.5089
▁completion	-11.5089
▁transparency.	-11.5091
▁cast	-11.5096
▁inscrit	-11.5096
▁mur	-11.5098
▁démantèlement	-11.5099
▁reserves	-11.5103
▁heads	-11.5103
▁transnational	-11.5108
▁l'autre.	-11.5116
▁manoeuvre	-11.5119
▁programming	-11.5119
▁l’homme.	-11.5119
▁numérique	-11.5122
▁available.	-11.5122
▁décide	-11.5123
▁consolidate	-11.5125
▁d’origine	-11.5129
▁l'âge	-11.5129
▁subir	-11.5132
son	-11.5132
▁unanime	-11.5132
▁dollar	-11.5133
▁colleagues,	-11.5134
▁relief	-11.5139
▁rédiger	-11.5139
▁signatures	-11.5141
▁précaution	-11.5142
▁financements	-11.5143
▁workers'	-11.5144
▁Slovenia	-11.5147
▁personnelles	-11.5147
▁explique	-11.5147
▁Switzerland	-11.5149
▁Vitorino	-11.5149
▁pertinentes	-11.5154
â	-11.5155
▁fusion	-11.5156
▁associés	-11.5162
▁régions.	-11.5163
▁document.	-11.5163
▁aspects.	-11.5165
eux	-11.5165
▁government.	-11.5166
▁partenariats	-11.5166
▁identité	-11.5166
▁Face	-11.5167
▁repression	-11.517
▁joindre	-11.5171
▁observateurs	-11.5172
▁Euratom	-11.5172
▁d’Europe	-11.5173
▁l'en	-11.5174
▁catch	-11.5174
▁l'air	-11.5175
▁parole.	-11.5175
▁Liikanen	-11.5179
-t-on	-11.518
▁turque	-11.518
▁Ecofin	-11.5181
io	-11.5181
▁vols	-11.5183
ize	-11.5187
▁impôts	-11.5188
▁present.	-11.5189
▁légal	-11.5189
▁vain	-11.519
▁externes	-11.5191
▁technologies.	-11.5191
▁établis	-11.5192
▁rigorous	-11.5197
▁dramatique	-11.5199
ciaux-démocrates	-11.5199
▁Liberties	-11.52
▁d'intervenir	-11.52
▁TACIS	-11.52
▁arrived	-11.5204
▁brutal	-11.5205
▁Oomen-Ruijten	-11.521
▁évidente	-11.5212
▁présentera	-11.5213
▁évaluations	-11.5216
▁regard.	-11.5217
▁Aujourd’hui	-11.522
▁emerged	-11.5223
▁réalisées	-11.5223
▁mobiliser	-11.5226
▁découle	-11.5227
▁divide	-11.5227
uff	-11.5228
▁st	-11.5229
▁soldats	-11.5231
▁fiables	-11.5234
▁compare	-11.524
▁quantitative	-11.5241
▁precautionary	-11.5241
▁vocational	-11.5242
▁Annex	-11.5242
▁cheap	-11.5243
▁amendment.	-11.5244
▁soviétique	-11.5245
▁alone.	-11.525
▁d'ajustement	-11.5252
▁Directive.	-11.5253
▁roads	-11.5254
▁Affairs.	-11.5254
▁Sri	-11.5255
▁inappropriate	-11.5255
▁condamné	-11.5255
▁suspens	-11.5258
▁fundamentally	-11.5258
▁quitter	-11.526
ecretary-General	-11.5262
▁framework.	-11.5262
ux	-11.5262
▁partnerships	-11.5265
▁palestinienne	-11.5266
▁contradictions	-11.5271
▁semestre	-11.5271
▁other.	-11.5276
▁É	-11.5276
gen	-11.5276
▁présentes	-11.5277
▁desired	-11.5279
fe	-11.5279
▁adéquates	-11.5279
▁d'empêcher	-11.5282
▁précieux	-11.5282
ze	-11.5282
▁ouvre	-11.5283
▁l'appel	-11.5285
▁l’Union.	-11.529
▁qualitative	-11.5292
▁organisations,	-11.5294
▁accused	-11.5295
▁handling	-11.5295
▁traitées	-11.5296
▁annuelle	-11.5297
▁individuelle	-11.5298
▁cohérent	-11.5298
▁l’intention	-11.5303
▁écrite	-11.5304
▁équipements	-11.5304
▁clandestine	-11.5305
▁9,	-11.5306
▁tri	-11.5308
▁Aucun	-11.531
▁enabled	-11.531
▁120	-11.5311
▁d'intérêts	-11.5311
▁décès	-11.5313
▁interdire	-11.5313
▁entier.	-11.5313
▁linguistique	-11.5313
ateurs	-11.5314
▁qu'après	-11.5314
▁tackled	-11.5315
’,	-11.5316
▁far-reaching	-11.5323
▁book	-11.5324
▁effectively.	-11.5326
▁réclame	-11.533
▁d'A	-11.5331
▁l'ancienne	-11.5334
▁im	-11.5335
ration	-11.5336
▁déterminée	-11.5338
▁frontières.	-11.5339
▁actives	-11.5343
▁équitables	-11.5346
▁l’autre	-11.5349
▁education.	-11.535
▁fought	-11.5354
▁abord	-11.5362
▁Whilst	-11.5364
▁Costa	-11.5364
▁l’ai	-11.5368
▁autorisés	-11.5371
▁conflict.	-11.5372
▁touchent	-11.5374
▁sélection	-11.5375
▁Special	-11.5375
▁s’en	-11.5377
▁liaison	-11.5379
▁soulevées	-11.5379
▁tape	-11.538
▁enables	-11.538
▁assuré	-11.5384
▁things.	-11.5384
medicinal	-11.5385
▁fault	-11.5385
▁l’attention	-11.5385
▁'the	-11.5387
▁document,	-11.5389
▁congé	-11.5389
▁routière	-11.5392
▁rapidement.	-11.5394
▁d'animaux	-11.5395
▁cofinancement	-11.5396
tion	-11.54
▁Institute	-11.54
▁dépasser	-11.5405
▁exigent	-11.5405
▁Mexico	-11.5406
▁Globalisation	-11.5406
▁enshrined	-11.5407
▁cutting	-11.5407
pol	-11.5407
▁testing	-11.5414
▁Médiateur	-11.5416
▁agricole.	-11.5416
▁promesse	-11.5417
▁l'électricité	-11.5417
▁tomber	-11.5418
ave	-11.542
▁state.	-11.5422
/EEC	-11.5422
▁pre	-11.5423
▁œuvre.	-11.5426
▁illégaux	-11.5427
▁détenus	-11.5429
▁further.	-11.5431
▁exempt	-11.5433
▁Iraq.	-11.5433
▁sanitaires	-11.5435
▁deny	-11.5435
▁dommage	-11.5438
▁explicitly	-11.5439
▁soldiers	-11.544
▁punishment	-11.5441
▁era	-11.5443
▁incompatible	-11.5444
▁46	-11.5444
▁voters	-11.5446
▁suivie	-11.5446
▁Berlusconi	-11.5448
▁l’encontre	-11.5448
▁viabilité	-11.5448
▁paragraphs	-11.5448
▁traitements	-11.5448
▁reports.	-11.5449
▁j	-11.5451
▁sérieux.	-11.5451
▁social.	-11.5458
▁réunir	-11.5458
▁formulé	-11.5461
▁individuels	-11.5463
▁constat	-11.5466
▁scrutiny	-11.5467
▁irregularities	-11.5469
▁grecque	-11.5469
▁investigate	-11.5474
▁devise	-11.5477
▁n'étaient	-11.5479
▁paragraphes	-11.5483
side	-11.5484
▁lourds	-11.5484
▁Pro	-11.5485
▁adverse	-11.5487
▁sums	-11.5488
su	-11.5489
▁créant	-11.549
▁His	-11.5491
▁qua	-11.5493
ow	-11.5493
▁est-elle	-11.5495
tin	-11.5495
▁recommended	-11.5495
▁Birmanie	-11.5497
▁séparation	-11.55
▁lifelong	-11.55
▁d'environnement	-11.55
voir	-11.5502
▁emphasize	-11.5507
▁livres	-11.5509
▁profile	-11.5511
▁relancer	-11.5512
▁attitudes	-11.5513
▁deficits	-11.5514
▁requête	-11.5516
ably	-11.5516
▁trans	-11.5518
▁CIG	-11.5519
▁adapted	-11.5519
spir	-11.5521
▁Would	-11.5521
▁traduction	-11.5524
▁servi	-11.5524
▁component	-11.5525
▁maximale	-11.5526
▁delivered	-11.5531
▁ensured	-11.5535
▁industriel	-11.5536
▁gravement	-11.5536
▁ventes	-11.5536
▁respected.	-11.5537
▁'no'	-11.5545
▁consult	-11.5545
▁surpris	-11.5546
▁lobby	-11.5547
▁préparé	-11.555
▁sell	-11.5551
▁Böge	-11.5553
▁repercussions	-11.5553
▁shipping	-11.5553
▁sensiblement	-11.5554
▁adapter	-11.5555
▁Ho	-11.5561
▁description	-11.5562
▁Federal	-11.5563
▁l'armée	-11.5563
▁réalisée	-11.5564
▁helps	-11.5565
▁effective.	-11.5566
▁exposed	-11.5566
▁seekers	-11.5566
▁facto	-11.5567
▁prononcé	-11.557
▁commises	-11.5571
▁business.	-11.5572
▁participe	-11.5573
▁sensibilisation	-11.5574
▁transeuropéens	-11.5575
▁Day	-11.5578
▁wherever	-11.5581
▁approbation	-11.5582
▁post-	-11.5583
▁Slovénie	-11.5584
▁officiellement	-11.5589
▁croissance,	-11.5591
▁requirements.	-11.5592
▁rapides	-11.5593
▁sociaux.	-11.5594
▁fabrication	-11.5596
▁49	-11.5605
▁research.	-11.5607
▁attaque	-11.5607
▁l'OMC.	-11.5615
▁inevitably	-11.5616
▁permanence	-11.5616
▁pair	-11.5618
▁disadvantaged	-11.5619
▁résultats.	-11.562
▁detriment	-11.5621
tend	-11.5623
▁meets	-11.5625
ical	-11.5626
▁animaux.	-11.5628
▁évolutions	-11.5628
▁destroyed	-11.5629
▁pressing	-11.5631
▁néerlandaise	-11.5635
▁Naturellement	-11.5638
▁middle	-11.5638
▁dernière.	-11.5638
▁protégés	-11.5638
▁Fa	-11.5639
▁l'ESB	-11.5641
▁seat	-11.5641
▁reprend	-11.5643
▁recul	-11.5643
▁700	-11.5644
▁mentionnés	-11.5645
▁criticise	-11.5645
▁prochaine.	-11.5646
▁mette	-11.5648
▁removal	-11.5648
▁satisfaisante	-11.5655
▁conformer	-11.5657
▁papier	-11.5657
▁hémicycle	-11.5658
ateur	-11.5659
▁forestry	-11.5659
▁persecution	-11.566
▁d’ici	-11.566
▁intelligence	-11.5661
▁generations	-11.5661
▁commission.	-11.5663
▁formulée	-11.5666
▁d'ore	-11.5669
▁preparatory	-11.567
▁narrow	-11.567
▁democratisation	-11.567
▁l'échec	-11.5671
▁pertinent	-11.5674
▁pensée	-11.5676
▁s'appliquer	-11.5678
▁dur	-11.5678
▁reproductive	-11.5681
bil	-11.5681
▁notation	-11.5682
▁identification	-11.5686
▁exemptions	-11.5689
▁fixation	-11.5691
qua	-11.5692
▁stricter	-11.5696
▁bo	-11.5697
▁infractions	-11.5698
▁prix.	-11.57
lin	-11.5702
▁won	-11.5702
▁enjeux	-11.5702
▁regulations.	-11.5705
▁initiated	-11.5705
systématiquement	-11.5708
▁order.	-11.5711
▁Ferrero-Waldner	-11.5712
▁d'innovation	-11.5713
▁differ	-11.5713
▁flights	-11.5716
▁représentante	-11.5717
▁assistants	-11.5723
▁ownership	-11.5723
▁d'exercer	-11.5724
▁pace	-11.5724
▁AIDS	-11.5724
▁transferred	-11.5725
ff	-11.5728
▁constituera	-11.573
placing	-11.5733
▁directes	-11.5734
▁d’ailleurs	-11.5734
▁pourparlers	-11.5734
▁simplified	-11.5735
▁Mann	-11.5739
▁écologiques	-11.574
▁3%	-11.5741
▁voici	-11.5745
▁levels.	-11.5745
▁Procedure,	-11.5749
▁garanti	-11.5751
▁East.	-11.5751
ren	-11.5753
▁logic	-11.5754
▁J'invite	-11.5756
▁immigration.	-11.5759
▁potentially	-11.5761
▁parviendrons	-11.5763
▁ideological	-11.5766
▁Quatrièmement	-11.5767
▁shame	-11.5769
▁dangereuse	-11.577
des	-11.5771
▁dispositif	-11.5772
▁tourner	-11.5772
▁d'instaurer	-11.5777
▁desquels	-11.5777
▁Vienne	-11.5777
▁inclusive	-11.5778
▁positif.	-11.5779
▁gr	-11.5779
▁Pas	-11.5781
▁2011.	-11.5782
▁m’a	-11.5786
▁surplus	-11.5787
▁d'efforts	-11.5788
▁monétaire.	-11.5788
▁conviendrait	-11.5788
▁l’information	-11.5788
▁ministère	-11.5788
▁communautaires,	-11.5792
ran	-11.5793
/CEE	-11.5793
▁attached	-11.5794
▁foster	-11.5798
▁multiannual	-11.5799
▁cellules	-11.5802
▁enterprises.	-11.5803
▁laying	-11.5805
▁intérieures,	-11.5806
▁bataille	-11.581
▁dependence	-11.5811
▁exceptionnelle	-11.5811
▁trouble	-11.5811
▁ended	-11.5813
▁intéressante	-11.5815
iers	-11.5818
▁saving	-11.5819
▁monopoly	-11.582
▁prévoyant	-11.582
▁presidential	-11.5821
▁Ca	-11.5821
isé	-11.5822
▁parliamentarian	-11.5822
▁Deuxième	-11.5823
▁opt	-11.5825
▁considération.	-11.5825
▁efficiently	-11.5826
▁bananes	-11.583
▁apparemment	-11.5831
▁pouvaient	-11.5831
▁speculation	-11.5831
▁assured	-11.5834
▁Communautés	-11.5835
▁législation.	-11.5838
▁sociales.	-11.5838
▁démarches	-11.584
▁autorisé	-11.584
▁Fourthly	-11.5845
▁codes	-11.5845
▁signes	-11.585
▁maison	-11.5851
▁abortion	-11.5853
▁hunger	-11.5853
▁Autrement	-11.5855
▁Ireland.	-11.5855
▁foodstuffs	-11.5856
▁africains	-11.5858
▁vit	-11.586
▁enterprise	-11.5861
bre	-11.5862
▁wished	-11.5863
▁Celui-ci	-11.5864
▁d'organiser	-11.5864
▁jeux	-11.5865
fa	-11.5871
▁unemployment,	-11.5871
▁remboursement	-11.5875
▁bureaux	-11.5875
▁terror	-11.5876
▁islands	-11.5877
▁affronter	-11.5877
cu	-11.5877
▁sexe	-11.588
▁openly	-11.588
▁déposer	-11.5881
▁découlant	-11.5886
▁inequalities	-11.5886
▁établie	-11.5887
▁éducation	-11.5887
▁year's	-11.5888
▁immigration,	-11.5891
▁wholeheartedly	-11.5897
▁faillite	-11.5897
▁calcul	-11.59
▁socially	-11.5901
▁training,	-11.5903
▁reposer	-11.5903
▁li	-11.5904
▁41	-11.5905
▁emissions.	-11.5906
▁opération	-11.5907
▁Johannesburg	-11.5908
▁patience	-11.5908
▁unemployment.	-11.5908
▁réduite	-11.5911
▁errors	-11.5915
tage	-11.5918
▁Jacques	-11.5919
▁facility	-11.5919
▁d’améliorer	-11.5919
ger	-11.5919
▁loin.	-11.592
▁1996.	-11.592
▁alarming	-11.5922
▁publier	-11.5922
▁définitivement	-11.5926
▁feature	-11.5927
▁solides	-11.5929
▁j'étais	-11.593
▁Harbour	-11.593
▁explicite	-11.5932
▁democratically	-11.5932
▁enfant	-11.5932
▁transitoire	-11.5939
▁capital.	-11.5941
▁donors	-11.5945
▁matters,	-11.5946
▁investissement	-11.595
wi	-11.5953
▁service.	-11.5955
▁film	-11.5956
▁accurate	-11.5959
▁prices.	-11.596
▁définit	-11.5962
▁l'aviation	-11.5962
▁strive	-11.5963
▁7.	-11.5963
▁tableau	-11.5964
▁tu	-11.5965
▁félicitons	-11.5965
▁chaos	-11.5966
▁dénoncer	-11.5967
▁modest	-11.5973
▁l'expression	-11.5974
▁western	-11.5974
▁high-quality	-11.5974
▁characterised	-11.5974
▁vraie	-11.5976
▁pages	-11.5979
▁Youth	-11.5979
▁l’ont	-11.5979
▁effectués	-11.5991
▁tunnel	-11.5992
▁remained	-11.5993
▁solidarité.	-11.5994
rou	-11.5995
▁twice	-11.5996
▁Everyone	-11.5996
▁precedent	-11.5996
▁60%	-11.5996
▁l'exception	-11.5996
▁préférence	-11.5997
▁absurde	-11.5998
▁marks	-11.6
▁posts	-11.6003
▁arabe	-11.6005
DA)	-11.6005
▁naturelle	-11.6006
▁constituency	-11.6007
▁deciding	-11.6007
▁conjointe	-11.6007
▁inférieur	-11.6012
▁manifestation	-11.6018
▁linguistic	-11.6018
▁stopped	-11.6018
▁adjustment	-11.6019
▁fallen	-11.602
▁Tchétchénie	-11.6022
▁verts	-11.6025
▁ferroviaires	-11.6025
▁subsidiarité.	-11.6026
▁sol	-11.6027
▁tendances	-11.6028
▁est-ce	-11.6028
▁disponibilité	-11.6029
▁volontiers	-11.6029
▁Barón	-11.6029
▁homes	-11.603
▁internationally	-11.6035
▁broadly	-11.604
▁réflexions	-11.6041
▁résolument	-11.6044
▁station	-11.6044
▁generate	-11.6044
▁warrant	-11.6045
▁chair	-11.6048
▁pénales	-11.6049
▁Brussels.	-11.6052
▁combine	-11.6053
▁Lamy	-11.6053
▁opérationnel	-11.6057
▁bénéfique	-11.6059
▁lists	-11.6059
▁John	-11.6062
▁Bangemann	-11.6062
▁draftsman	-11.6062
abilité	-11.6062
▁avancés	-11.6063
▁réduits	-11.6063
▁jouets	-11.6063
▁décision-cadre	-11.6063
▁optique	-11.6063
▁apprendre	-11.6063
▁vieux	-11.6064
▁responsabilité.	-11.6064
▁qu’on	-11.6065
▁repos	-11.6069
▁bureaucratique	-11.6069
▁internet	-11.6069
▁bus	-11.6072
▁telling	-11.6072
▁appreciation	-11.6073
▁génocide	-11.6073
▁xenophobia	-11.6073
▁Hague	-11.6073
lam	-11.6076
▁réactions	-11.6076
▁monitored	-11.6077
▁quick	-11.6078
▁incidence	-11.6084
▁rid	-11.6084
▁6.	-11.6092
▁praise	-11.6092
▁convey	-11.6092
▁responses	-11.6094
▁presents	-11.6094
▁originally	-11.6095
▁large-scale	-11.6096
▁role.	-11.6097
▁remplacement	-11.6097
▁Pa	-11.6098
▁espoirs	-11.6104
▁PNR	-11.6107
▁s'inscrit	-11.6107
▁rating	-11.6107
▁assessing	-11.6108
▁requises	-11.6112
▁vote:	-11.6112
▁XXIe	-11.6118
▁serves	-11.6122
▁whatsoever	-11.6124
▁ravie	-11.6125
▁2013.	-11.6129
▁Vienna	-11.6129
▁égal	-11.6131
▁crainte	-11.6135
investissement	-11.6135
gar	-11.614
▁Actuellement	-11.614
▁soi-disant	-11.614
▁systematically	-11.614
▁circumstances.	-11.6141
▁divisions	-11.6142
▁coins	-11.6142
▁Latvia	-11.6143
▁criticised	-11.6144
sta	-11.6145
/02	-11.6145
▁47	-11.6146
▁Internet.	-11.6147
ward	-11.6148
▁deviendra	-11.6148
▁l'ancien	-11.6151
▁PESC	-11.6151
▁pourrais	-11.6153
▁refusal	-11.6155
▁quickly.	-11.6155
▁Also,	-11.6157
▁cod	-11.6158
▁possèdent	-11.6159
▁négocié	-11.6159
▁a-t-elle	-11.6168
▁estiment	-11.617
▁isolation	-11.6174
▁researchers	-11.6175
▁africaine	-11.6176
▁practically	-11.6178
▁travaillant	-11.6178
▁constraints	-11.6178
▁majeures	-11.6182
▁Portugal.	-11.6183
▁north	-11.6183
▁secrétariat	-11.6185
▁hazardous	-11.6185
▁qu'aujourd'hui	-11.6185
▁demanded	-11.6185
▁tuna	-11.6185
▁discriminatoire	-11.6186
▁confirmation	-11.6189
▁happen.	-11.6189
▁puissances	-11.6193
▁motif	-11.6193
▁quo	-11.6196
tons	-11.6196
▁appalling	-11.6196
▁complied	-11.6196
▁d'inclure	-11.6196
▁stating	-11.6197
▁l'opportunité	-11.6197
mm	-11.6197
▁appuyer	-11.6198
▁recorded	-11.6198
▁l'arrêt	-11.6198
▁OGM	-11.62
▁alloués	-11.62
▁dépassé	-11.6201
▁structurels.	-11.6202
▁requis	-11.6207
▁own-initiative	-11.6208
▁genres	-11.6209
▁consulter	-11.6213
▁irrespective	-11.6219
▁Rehn	-11.6219
▁légiférer	-11.622
▁Algeria	-11.6224
▁attendant	-11.6225
▁administratifs	-11.6227
▁guilty	-11.6231
▁cohesion.	-11.6231
▁location	-11.6234
▁subjected	-11.6236
▁inciter	-11.6237
▁l'euro.	-11.6238
▁IV	-11.6238
s)	-11.6238
▁impatience	-11.6242
▁survival	-11.6242
▁xénophobie	-11.6242
▁d'attention	-11.6242
▁parallèle	-11.6244
▁genocide	-11.6253
▁L’Europe	-11.6253
▁reconnais	-11.6259
ble	-11.6259
nelle	-11.6263
▁vieillissement	-11.6264
▁moratoire	-11.6264
▁recycling	-11.6266
▁chômage.	-11.6272
/01	-11.6273
lement	-11.6274
▁rendue	-11.6275
▁offences	-11.6276
▁sentiments	-11.6277
▁channels	-11.6278
▁suggéré	-11.628
▁images	-11.6284
▁concitoyens.	-11.6286
▁automatically	-11.6287
▁countries'	-11.6288
iques	-11.6289
▁dérogations	-11.6289
▁closing	-11.6289
▁announcement	-11.6293
▁taken.	-11.6295
▁partagent	-11.6296
▁perspective.	-11.6297
▁Amérique	-11.63
▁organization	-11.6303
▁findings	-11.6305
▁fixées	-11.6306
▁decade	-11.6308
▁douanière	-11.6308
up	-11.6309
▁impliquer	-11.6319
issement	-11.6319
▁Fund,	-11.632
▁Socrates	-11.6321
▁chypriote	-11.6321
-in	-11.6323
écu	-11.6324
z-vous	-11.6326
▁Sharon	-11.6333
▁interference	-11.6333
▁ill	-11.6335
▁possession	-11.6337
40	-11.6337
▁bénéficié	-11.6344
▁durables	-11.6345
▁uphold	-11.6347
▁mother	-11.6354
▁inclut	-11.6356
▁caution	-11.6356
▁concilier	-11.6358
▁méditerranéenne	-11.6361
lor	-11.6365
▁j’	-11.6366
▁triste	-11.6366
▁conversion	-11.6367
▁await	-11.6367
▁aujourd’hui.	-11.6368
▁n’ai	-11.637
▁remark	-11.6371
▁offrent	-11.6373
▁retirement	-11.6374
▁worried	-11.6378
▁elles-mêmes	-11.6378
▁d'Afrique	-11.6379
▁d’intérêt	-11.6379
▁Erika	-11.638
▁persistent	-11.6381
▁transferts	-11.6382
▁war.	-11.6383
▁references	-11.6384
▁wake	-11.639
▁ampleur	-11.639
▁contenus	-11.639
▁travelling	-11.6391
▁protectionnisme	-11.6392
▁l'offre	-11.6392
▁initiatives.	-11.6392
▁plénière.	-11.6394
ber	-11.6394
▁nul	-11.6398
▁Third	-11.6399
▁biofuels	-11.6399
▁croissance.	-11.6401
▁sanitaire	-11.6404
bli	-11.6406
ls	-11.6407
▁funding.	-11.6409
▁writing	-11.6411
▁thing.	-11.6412
▁pillars	-11.6415
▁intérimaire	-11.642
▁emplois.	-11.6424
▁voulait	-11.6424
investissements	-11.6428
▁donateurs	-11.6428
▁hasard	-11.643
▁computer	-11.643
bri	-11.643
▁Greens/	-11.6431
▁persuade	-11.6434
▁flag	-11.6435
▁précédentes	-11.6438
▁thoroughly	-11.6442
▁humains.	-11.6443
▁souffre	-11.6444
▁identifier	-11.6444
▁Macédoine	-11.6445
-free	-11.6447
▁producer	-11.6447
vent	-11.6448
so	-11.6453
▁pierre	-11.6457
▁confrontation	-11.6458
▁vérification	-11.6458
▁context.	-11.6463
▁obligés	-11.6466
▁heureusement	-11.6467
▁800	-11.6469
we	-11.6469
▁moratorium	-11.6471
▁d’information	-11.6471
▁nullement	-11.6473
▁ba	-11.6479
▁radioactive	-11.648
▁topical	-11.6481
▁Black	-11.6482
▁coordinating	-11.6482
▁défavorisées	-11.6483
▁Estonia	-11.6484
▁reminded	-11.6489
▁voie.	-11.649
emb	-11.6491
▁root	-11.6491
▁massacre	-11.6492
onformément	-11.6493
▁Kurdish	-11.6494
▁audiovisual	-11.6494
▁assessed	-11.6496
▁85	-11.6497
▁management.	-11.6498
▁Ex	-11.65
▁préconise	-11.65
▁immédiat	-11.6504
▁creative	-11.6505
▁Resolution	-11.6505
▁lesson	-11.6505
▁philosophie	-11.6505
▁over-	-11.6507
▁normalisation	-11.6507
▁correction	-11.6508
▁jeter	-11.6513
▁survive	-11.6514
▁coûte	-11.6515
▁transporteurs	-11.6516
▁consulté	-11.6517
▁figurer	-11.6517
▁Federation	-11.6517
▁venez	-11.6517
▁équivoque	-11.6517
▁strange	-11.6517
▁retraités	-11.652
▁carburants	-11.652
▁commerce.	-11.6521
▁financier.	-11.6527
cro	-11.6528
▁atmosphere	-11.6529
▁victory	-11.6529
▁trente	-11.653
mor	-11.6532
▁provoquer	-11.6532
▁développe	-11.6535
▁Venezuela	-11.6537
▁in-depth	-11.654
▁remedy	-11.654
▁accountability	-11.6543
▁Government.	-11.6545
▁Mar	-11.6545
▁amener	-11.6546
van	-11.6547
▁formally	-11.6549
▁comitology	-11.6552
▁mort.	-11.6554
▁Me	-11.6555
▁rendus	-11.6555
▁douane	-11.6562
▁religieux	-11.6564
▁fuels	-11.6565
▁deadlines	-11.6566
▁qu’au	-11.6569
▁required.	-11.657
▁leçon	-11.6573
▁sous-	-11.6574
▁Eurojust	-11.6575
▁parvenons	-11.6576
▁libérer	-11.6577
▁topics	-11.6582
▁tard.	-11.6582
▁prévoient	-11.6583
▁generous	-11.6584
▁Barrot	-11.6587
▁attendu	-11.6587
▁remit	-11.6588
▁criticisms	-11.6589
▁federal	-11.6593
a.	-11.6593
▁regime.	-11.6595
▁origine	-11.6596
▁condemnation	-11.6596
▁sympathie	-11.6599
▁contributes	-11.6599
end	-11.66
-de	-11.6603
one	-11.6604
▁affectés	-11.6604
▁compréhensible	-11.6608
▁d’aide	-11.6609
▁ridicule	-11.661
▁delicate	-11.661
▁traditionnelles	-11.6611
▁d'offrir	-11.6611
▁authorised	-11.6612
▁avéré	-11.6613
▁documents.	-11.6615
▁obtaining	-11.6617
▁alter	-11.6622
▁Soudan	-11.6622
▁accessibles	-11.6623
▁israélien	-11.6624
▁texte.	-11.6624
▁soutiendra	-11.6625
-A	-11.6625
▁arrivés	-11.6627
▁coupables	-11.6628
▁connais	-11.6629
▁Congress	-11.6634
▁l’initiative	-11.6635
▁scheduled	-11.6636
▁injuste	-11.6636
▁entendons	-11.6636
▁apprécié	-11.6637
▁traité.	-11.6637
▁prestations	-11.664
▁occuper	-11.6645
▁instability	-11.6646
▁prêter	-11.6648
▁cigarettes	-11.6648
▁suivants	-11.6648
▁formula	-11.6649
▁actuellement.	-11.6651
▁Lisbon.	-11.6651
▁prudent	-11.6652
▁arrested	-11.6654
▁attaquer	-11.6656
▁diverse	-11.6657
▁chacune	-11.6657
▁fédérale	-11.6658
▁d'où	-11.6659
▁da	-11.6661
▁abandonner	-11.6663
▁personnel.	-11.6664
nel	-11.6665
▁bar	-11.6666
▁honte	-11.6668
▁thirdly	-11.6669
▁Biélorussie	-11.6669
▁Crespo	-11.6669
▁ouvertement	-11.6669
▁carrière	-11.6669
▁David	-11.6669
▁urgente	-11.6672
▁result.	-11.6673
▁Law	-11.6673
▁dûment	-11.6675
▁imposé	-11.6676
▁na	-11.6677
▁reporter	-11.6679
▁établissements	-11.6681
▁unprecedented	-11.6681
▁résultant	-11.6681
▁couverture	-11.6682
▁créée	-11.6684
▁lance	-11.6685
▁civilians	-11.6687
▁Turkey's	-11.6687
▁venir,	-11.6688
▁évoluer	-11.669
▁l'image	-11.6694
hor	-11.6698
▁seriously.	-11.6702
▁oublié	-11.6705
▁reviewed	-11.6705
▁combination	-11.6705
▁zéro	-11.6705
▁émanant	-11.6705
▁connue	-11.6705
▁d'emplois.	-11.6707
▁protectionism	-11.6707
▁Asie	-11.6708
▁semble-t-il	-11.6708
▁l'unité	-11.671
ists	-11.671
▁demonstration	-11.6711
▁réagi	-11.6712
▁stem	-11.6714
▁millénaire	-11.6717
▁zero	-11.6717
▁tolérer	-11.6717
▁riche	-11.6718
▁électriques	-11.6718
▁estimates	-11.6719
▁realised	-11.672
▁répondent	-11.672
▁Di	-11.6722
▁faille	-11.6724
▁estimations	-11.6725
▁wonderful	-11.6728
▁précisé	-11.6728
▁facilitating	-11.6729
▁famine	-11.6729
▁Robert	-11.6729
▁récession	-11.6729
▁everyday	-11.6729
▁l’avis	-11.6729
▁favorise	-11.673
era	-11.6731
▁l’in	-11.6735
▁vitale	-11.6736
▁(L	-11.6737
▁throw	-11.6739
▁heavily	-11.674
▁avoiding	-11.6741
▁exist.	-11.6741
▁cherchent	-11.6742
▁Lanka	-11.6748
▁d'aides	-11.6748
▁cross	-11.6748
í	-11.6748
▁Pen	-11.6749
▁multi	-11.6749
▁table.	-11.6752
▁vigilant	-11.6752
▁réfère	-11.6752
▁anywhere	-11.6753
▁down.	-11.6757
▁hongrois	-11.6759
▁troubles	-11.6759
▁légales	-11.6764
▁Lettonie	-11.6764
▁Democrat	-11.6768
▁difficilement	-11.6768
▁conducteurs	-11.6771
▁carburant	-11.6773
▁passing	-11.6774
▁Bo	-11.6774
▁enceinte	-11.6776
▁monopole	-11.6776
▁pi	-11.6776
▁province	-11.6777
▁remarkable	-11.6777
▁tienne	-11.6778
▁concentre	-11.6778
▁floods	-11.678
▁consacrée	-11.6782
▁reverse	-11.6782
▁ressource	-11.6787
▁août	-11.6788
▁criminals	-11.6789
▁sanctions.	-11.679
can	-11.679
ip	-11.679
▁map	-11.6795
▁Afghanistan.	-11.68
▁concernées.	-11.68
▁valoir	-11.68
sur	-11.6801
▁d'utilisation	-11.6801
▁Relations	-11.6801
▁minds	-11.6801
▁symbolique	-11.6802
▁Su	-11.6802
lt	-11.6803
▁Secretary	-11.6811
▁Communication	-11.6812
▁teneur	-11.6814
▁exert	-11.6815
▁acceptée	-11.6816
▁Fund.	-11.6817
▁Christians	-11.6818
▁p.m.)	-11.682
▁Mexique	-11.6824
▁irresponsible	-11.6824
▁régissant	-11.6824
▁fermeté	-11.6825
▁consists	-11.6827
bl	-11.683
▁Dr	-11.6835
▁drop	-11.6836
za	-11.6839
▁technology.	-11.6839
ec	-11.684
▁onto	-11.6841
▁cour	-11.6843
▁scandal	-11.6845
▁25%	-11.6849
▁couverts	-11.685
▁21st	-11.6851
▁bi	-11.6855
▁candidats.	-11.6857
▁finlandaise	-11.6858
▁d'ouverture	-11.6861
▁grants	-11.6862
▁intervention.	-11.6862
▁causés	-11.6863
▁prerequisite	-11.6865
▁corruption.	-11.6868
▁réservé	-11.687
▁Perspective	-11.6872
▁businesses.	-11.6873
▁dépens	-11.6875
▁Aucune	-11.6876
▁exclude	-11.6876
▁enforce	-11.6876
▁2015	-11.6879
▁perform	-11.6881
▁arises	-11.6882
▁retrouve	-11.6883
▁assister	-11.6884
▁fragmentation	-11.6885
▁workforce	-11.6886
▁honorables	-11.6887
▁transfers	-11.6888
▁partial	-11.6889
année	-11.6892
ssent	-11.6895
▁beneficiaries	-11.6896
▁contrefaçon	-11.6896
▁self-employed	-11.6896
▁solving	-11.6898
▁returned	-11.6908
▁Should	-11.6908
▁integral	-11.6908
▁depth	-11.6909
▁contraignante	-11.691
▁Asian	-11.691
▁cohésion.	-11.6911
▁fi	-11.6912
▁qualifiés	-11.6913
int	-11.6914
▁d'affaires	-11.6915
▁industrielles	-11.6916
▁input	-11.6918
▁Ukraine.	-11.6918
▁quantity	-11.6918
▁parvenue	-11.6918
▁José	-11.6921
▁corporate	-11.6921
▁Basque	-11.6925
chi	-11.6927
▁côtes	-11.6932
▁genetic	-11.6933
▁fondées	-11.6933
▁souffrance	-11.6935
▁supérieure	-11.6935
▁disadvantage	-11.6937
▁démocratiques.	-11.6937
▁fournies	-11.694
issant	-11.6942
▁capture	-11.6942
▁brève	-11.6942
▁accéder	-11.6945
▁fonctionnent	-11.6948
▁serions	-11.6948
▁town	-11.695
▁k	-11.6951
▁imaginer	-11.6952
▁raisonnables	-11.6955
▁plainte	-11.6964
▁instruments.	-11.6965
▁devote	-11.6967
▁Ukraine,	-11.697
ious	-11.6974
cy	-11.6974
▁Lisbon,	-11.6979
▁abordés	-11.6981
▁Beijing	-11.6981
ek	-11.6983
ages	-11.6989
▁modifiés	-11.6989
▁sexes	-11.6991
▁addresses	-11.6991
▁atteints	-11.6993
▁disparities	-11.6994
▁disparaître	-11.6994
▁référendums	-11.7001
▁stresses	-11.7003
▁d'intégrer	-11.7006
▁Round	-11.7006
▁Br	-11.7007
▁distorsions	-11.701
▁consacrés	-11.7011
▁criteria,	-11.7014
oli	-11.7017
▁occidentale	-11.7017
▁assembly	-11.7018
▁précoce	-11.7018
▁recession	-11.7019
▁synergies	-11.7019
▁l'humanité	-11.7019
▁l'Afghanistan	-11.7019
▁intéressés	-11.7021
▁abolish	-11.7022
▁résolue	-11.7024
▁m'est	-11.7025
▁posed	-11.7026
▁spéculation	-11.7028
▁réalités	-11.7029
▁désarmement	-11.703
▁religieuse	-11.7031
▁indicates	-11.7032
▁witnessed	-11.7033
▁responding	-11.7036
▁familiale	-11.7036
▁concerné	-11.7038
▁phénomènes	-11.7041
▁emerge	-11.7041
▁Baroness	-11.7042
▁inevitable	-11.7042
▁fonde	-11.7044
▁dictatorship	-11.7045
▁him.	-11.7051
▁ultimate	-11.7052
▁C'était	-11.7055
▁d'exploitation	-11.7056
▁situe	-11.7059
▁voisin	-11.7061
▁consideration.	-11.7061
▁[	-11.7066
▁Through	-11.7067
▁McCreevy	-11.7067
▁telephone	-11.7067
▁soutenant	-11.7067
▁frappé	-11.7069
▁Jean	-11.7072
▁mauvaises	-11.7073
▁innovation.	-11.7073
▁tentent	-11.7077
▁migratoires	-11.7078
▁Democracy	-11.7079
▁propositions.	-11.7085
▁resort	-11.7086
▁l'appui	-11.7088
▁j'aurais	-11.7088
▁assistance.	-11.7089
▁continuons	-11.709
▁CFSP	-11.7092
▁Göteborg	-11.7092
▁Bonino	-11.7092
▁élan	-11.7092
▁d'ouvrir	-11.7093
▁complement	-11.7094
▁explicit	-11.7095
▁times.	-11.7097
▁voiture	-11.7097
▁(démocrates	-11.7104
▁clarified	-11.7105
▁proposant	-11.711
▁Iran.	-11.7113
▁Malmström	-11.7116
▁opérationnelle	-11.7117
▁sustained	-11.7119
bu	-11.7119
▁faiblesse	-11.7119
▁incomes	-11.7119
ft	-11.7123
ain	-11.7123
▁Nordic	-11.7123
▁placé	-11.7126
▁billion.	-11.7128
▁lendemain	-11.7129
▁Apart	-11.7131
▁billets	-11.7133
▁multinational	-11.7133
▁banana	-11.7136
▁justifié	-11.7137
▁(SL)	-11.7141
▁fréquemment	-11.7141
▁Delors	-11.7141
▁septième	-11.7141
▁PPE-DE.	-11.7142
▁Process	-11.7143
▁exister	-11.7146
▁initiate	-11.7151
▁préparatifs	-11.7153
▁renforçant	-11.7153
▁attempting	-11.7154
▁rappel	-11.7155
▁transmis	-11.7156
▁served	-11.7157
▁wise	-11.7158
▁détaillées	-11.7159
▁adding	-11.7159
▁satisfy	-11.716
▁registered	-11.716
▁reforms.	-11.7163
ship	-11.7164
▁Cancún	-11.7166
▁Caucasus	-11.7166
▁l'échelon	-11.7166
▁Annan	-11.7166
▁sixième	-11.7167
▁défenseurs	-11.7172
▁UEN	-11.7173
▁52	-11.7177
▁jurisprudence	-11.7178
▁monopolies	-11.7178
▁réchauffement	-11.7178
▁l'annexe	-11.7179
▁investing	-11.7181
▁identique	-11.7182
▁symbol	-11.7184
▁Moyen-Orient.	-11.7185
▁renouvelables.	-11.7185
▁islamique	-11.7189
▁progression	-11.7191
▁isolated	-11.7192
▁employ	-11.7193
▁prépare	-11.7195
▁annuels	-11.7199
és.	-11.72
▁délicat	-11.7202
▁smoking	-11.7203
▁trains	-11.7204
▁risk.	-11.7207
eff	-11.7207
▁reinforced	-11.721
▁package.	-11.721
▁manifester	-11.7211
▁remote	-11.7215
▁d’aujourd’hui	-11.7216
▁rétablissement	-11.7216
▁availability	-11.7216
▁l'étude	-11.7217
cer	-11.722
▁villages	-11.7222
ov	-11.7223
▁ouverts	-11.7224
mar	-11.7224
▁etc.,	-11.7225
▁symbolic	-11.7225
▁Florence	-11.7228
▁formidable	-11.7228
▁économiquement	-11.7229
▁1991	-11.723
▁religions	-11.7231
▁noir	-11.7231
▁ELDR	-11.7233
▁tonight	-11.7237
cher	-11.7238
▁l'enfant	-11.7238
▁sida	-11.724
▁Colombie	-11.7241
▁livestock	-11.7241
▁d'activité	-11.7241
▁institution.	-11.7241
▁toxic	-11.7242
▁lowest	-11.7242
tique	-11.7243
▁internationaux.	-11.7244
▁general,	-11.7246
▁towns	-11.7248
▁nationale,	-11.7251
▁describe	-11.7253
▁fur	-11.7254
▁procedures,	-11.7254
▁tarifs	-11.7257
▁suspendue	-11.7257
▁déclin	-11.7266
▁attiré	-11.7266
▁facilité	-11.7276
▁sols	-11.7276
od	-11.7278
▁Against	-11.7278
▁machine	-11.728
-S	-11.728
▁quotidienne	-11.7281
▁threatening	-11.7283
▁resolution)	-11.7285
▁enjoyed	-11.7288
▁révèle	-11.7289
▁continu	-11.7289
▁souhaits	-11.7291
▁mix	-11.7294
▁Pi	-11.7295
▁préféré	-11.7299
▁cases.	-11.73
▁vendre	-11.7303
▁Guantánamo	-11.7303
▁Medina	-11.7303
▁enthusiasm	-11.7303
▁proximité	-11.7303
▁twenty	-11.7303
▁ones.	-11.7304
▁l’absence	-11.7304
▁anglais	-11.7304
▁soulevée	-11.7305
▁humanity	-11.7305
▁"non"	-11.7306
▁mobilise	-11.7306
▁follows:	-11.7306
ju	-11.7308
cha	-11.7308
▁dépensé	-11.7308
▁unlike	-11.7309
▁course.	-11.731
▁policière	-11.7311
▁apportera	-11.7316
▁Questions	-11.7316
▁Montenegro	-11.7316
ria	-11.7317
▁mainstreaming	-11.7318
▁spécifiques.	-11.7318
▁misère	-11.732
▁exclus	-11.7321
▁particular.	-11.7328
▁(BG)	-11.7329
▁empty	-11.7329
▁excellence	-11.7329
▁recognising	-11.7329
▁consequences.	-11.7331
▁expand	-11.7331
▁Autriche	-11.7332
▁thon	-11.7333
▁d'instruments	-11.7338
▁wall	-11.734
▁removing	-11.7341
(2)	-11.7341
▁earmarked	-11.7342
▁passive	-11.7342
▁s'avérer	-11.7343
▁tire	-11.7343
▁unitaire	-11.7343
▁contraints	-11.7344
▁Olympic	-11.7348
▁considérées	-11.7348
▁Vietnam	-11.7354
▁d'hier	-11.7354
▁hospital	-11.7356
▁governed	-11.7357
▁whenever	-11.7357
▁GMOs	-11.736
▁aidera	-11.736
▁bilatérales	-11.7366
▁expenses	-11.7366
▁believed	-11.7374
▁bill	-11.7375
▁renouvelable	-11.7376
istic	-11.7378
▁applaud	-11.7379
▁Fontaine	-11.7379
▁Peace	-11.7379
▁caught	-11.7379
▁réexamen	-11.7379
▁détruire	-11.7382
▁d’emplois	-11.7383
▁signale	-11.7386
▁unité	-11.7387
▁González	-11.7392
▁céréales	-11.7392
▁manufacturing	-11.7392
▁langage	-11.7392
▁Slovak	-11.7393
▁frustration	-11.7394
▁Rio	-11.7394
▁author	-11.7394
▁11,	-11.7395
▁ignored	-11.7399
▁patents	-11.7399
▁suivants:	-11.7403
▁réparation	-11.7405
▁problematic	-11.7405
▁Cox	-11.7405
▁listes	-11.7405
▁portes	-11.7406
▁traitée	-11.7406
▁oriental	-11.7407
▁cells	-11.7407
▁publiques.	-11.7409
▁Eh	-11.7411
▁fournis	-11.7414
▁Wogau	-11.7417
▁sachant	-11.7417
han	-11.7418
▁Dis	-11.742
ifs	-11.7421
▁demanderai	-11.7426
▁forts	-11.7427
▁strikes	-11.7427
▁l'UEM	-11.7427
▁fondements	-11.7427
▁conformes	-11.743
▁Mandelson	-11.743
▁energies	-11.743
▁pluralisme	-11.7431
▁nationalité	-11.7432
▁charter	-11.7433
▁rejoins	-11.7434
▁n'aura	-11.7436
▁dure	-11.7441
▁modulation	-11.7443
▁terminé	-11.7443
▁intent	-11.7445
▁emphasises	-11.7446
▁enregistré	-11.745
▁adressée	-11.7451
▁honnête	-11.7452
▁géographiques	-11.7452
▁dépenser	-11.7453
▁abouti	-11.7453
▁Nord.	-11.7455
▁Byrne	-11.7456
▁Velzen	-11.7456
vis	-11.7456
▁implication	-11.7456
(1)	-11.7457
▁confirms	-11.7459
▁consentis	-11.7464
▁opportune	-11.7465
▁neutral	-11.7466
▁Caucase	-11.7468
▁Oostlander	-11.7468
▁Rwanda	-11.7468
▁democracies	-11.7468
▁traçabilité	-11.7468
▁Haye	-11.7468
▁victimes.	-11.7472
▁doive	-11.7475
▁stability.	-11.7477
▁nette	-11.7481
▁Lulling	-11.7481
▁doigt	-11.7481
▁faut-il	-11.7481
▁poorer	-11.7487
11	-11.749
▁autonome	-11.749
▁publicly	-11.7494
▁Lu	-11.7495
▁apparaître	-11.7496
▁translation	-11.7498
▁étrange	-11.7502
▁illegally	-11.7502
ult	-11.7503
▁warming	-11.7503
▁progressé	-11.7505
▁délits	-11.7507
▁Yougoslavie	-11.7507
▁d'envisager	-11.7507
▁steel	-11.7507
▁l'Autorité	-11.7507
▁however.	-11.7508
▁Directorate	-11.7508
▁cruel	-11.7508
▁frankly	-11.751
▁maybe	-11.7512
▁irakien	-11.7513
▁essayons	-11.7516
-General	-11.7517
▁profound	-11.7517
▁gases	-11.7519
▁Bangladesh	-11.752
▁vigilance	-11.752
▁occupied	-11.752
▁l’innovation	-11.752
▁Prize	-11.752
▁provisoire	-11.7522
▁ta	-11.7523
▁professionnel	-11.7523
▁exposés	-11.753
▁d'objectifs	-11.7531
▁Arctic	-11.7533
▁normally	-11.7533
▁trends	-11.7536
▁Aid	-11.7538
▁refuge	-11.754
▁partiel	-11.754
▁identiques	-11.7541
▁(I	-11.7543
▁continuité	-11.7546
▁l'orientation	-11.7546
▁focuses	-11.7552
▁obligations.	-11.7556
▁burdens	-11.7556
▁clubs	-11.7556
vel	-11.7557
▁dairy	-11.7558
▁l'usage	-11.7558
▁l’argent	-11.7558
▁résidence	-11.7559
▁Until	-11.7559
▁hide	-11.756
▁Netherlands,	-11.756
▁parlent	-11.7568
▁owe	-11.7568
▁fièvre	-11.7571
▁concluding	-11.7572
▁disappointment	-11.7572
▁mettons	-11.7573
▁history.	-11.7573
▁affecte	-11.7576
▁autoriser	-11.7577
▁assurée	-11.758
▁guerres	-11.7581
▁51	-11.7581
▁claimed	-11.7581
▁donor	-11.7582
▁réglementaires	-11.7583
▁arrière	-11.7587
▁Among	-11.7587
▁blocage	-11.7588
o-	-11.7589
▁needs.	-11.7592
lant	-11.7596
▁senior	-11.7597
▁securing	-11.7597
▁broken	-11.7597
▁super	-11.7598
▁d'émissions	-11.76
▁interpreted	-11.76
▁siècle.	-11.7609
▁suspend	-11.761
▁Belgrade	-11.761
▁yougoslave	-11.761
▁inequality	-11.761
tur	-11.7611
▁appeared	-11.7611
▁bras	-11.7613
▁diplomatiques	-11.7615
▁contraire.	-11.7615
▁parviennent	-11.7616
▁défendu	-11.7617
▁motivation	-11.7618
mit	-11.7619
▁split	-11.7623
▁philosophy	-11.7623
▁jours.	-11.7624
▁l'institution	-11.7624
▁Quite	-11.7624
▁D'	-11.7625
▁préoccupés	-11.7629
▁proportions	-11.7629
able.	-11.763
▁impossible.	-11.763
▁preference	-11.7633
▁ouvertes	-11.7633
▁Chacun	-11.7636
▁repair	-11.7636
▁forêt	-11.7636
▁Small	-11.7638
▁administratif	-11.7639
▁pragmatic	-11.7649
▁trilogue	-11.7649
▁condamne	-11.7652
▁activity.	-11.7655
▁reports,	-11.7656
▁5%	-11.7657
▁rassembler	-11.7658
▁tremendous	-11.7659
▁données.	-11.7661
▁l'OLAF	-11.7662
▁redistribution	-11.7662
▁dominant	-11.7663
▁aiming	-11.7664
▁définie	-11.7667
▁partisan	-11.7667
▁numéro	-11.7667
▁d’in	-11.7673
▁étendue	-11.7673
▁armées	-11.7673
▁co-	-11.7675
▁empêché	-11.7675
▁cattle	-11.7675
▁endroits	-11.7678
▁proprement	-11.768
▁reflètent	-11.7681
▁indiquent	-11.7687
▁monopoles	-11.7688
▁allait	-11.7688
▁durement	-11.7692
ée.	-11.7692
ug	-11.7693
▁delayed	-11.7693
▁limiting	-11.7695
▁tariff	-11.7695
mis	-11.7696
▁unilatérale	-11.7698
▁compte.	-11.7701
▁advances	-11.7703
▁governments.	-11.7704
▁handled	-11.7706
EC	-11.7706
▁biologiques	-11.7707
▁purchase	-11.7708
▁definitive	-11.7712
iens	-11.7713
▁concevoir	-11.7714
▁merit	-11.7715
▁rejoint	-11.7716
▁respectés	-11.7717
▁lourde	-11.7718
▁neighbour	-11.772
▁critiquer	-11.7721
▁gains	-11.7723
▁adaptée	-11.7724
▁journaux	-11.7728
▁Neither	-11.7728
%	-11.7731
▁renvoi	-11.7737
▁overwhelming	-11.7738
▁préférences	-11.7739
▁13,	-11.7739
nom	-11.774
▁displaced	-11.7741
▁requiring	-11.7741
▁regulating	-11.7742
ile	-11.7743
▁produits.	-11.7745
▁doors	-11.7747
▁micro	-11.7749
▁rural,	-11.775
▁swift	-11.775
▁propriétaires	-11.775
▁déloyale	-11.775
▁voulions	-11.7754
▁Each	-11.7755
▁persuadé	-11.7756
rog	-11.7757
une	-11.7761
▁pointing	-11.7763
▁Ta	-11.7764
▁web	-11.7765
▁contrôle.	-11.7765
▁write	-11.7766
▁Conciliation	-11.7767
▁l'intégrité	-11.7767
25	-11.7767
▁publish	-11.7768
▁coeur	-11.7769
▁Là	-11.7769
12	-11.7771
▁roots	-11.7779
▁d’adopter	-11.778
▁passent	-11.7782
▁quantities	-11.7783
▁plaide	-11.7785
▁distances	-11.7786
▁clair.	-11.7789
▁pousser	-11.779
▁Cologne	-11.7793
▁Prestige	-11.7793
▁restaurer	-11.7793
▁émettre	-11.7794
▁war,	-11.7795
▁ancien	-11.7795
▁nominal	-11.7796
▁Ou	-11.7799
▁partagée	-11.7804
▁contraignantes	-11.7804
▁cité	-11.7806
▁impulsion	-11.7807
▁désignation	-11.7807
-chrétiens)	-11.7808
▁assistons	-11.7808
▁prétendre	-11.7808
▁d'étendre	-11.7808
▁Noire	-11.781
▁qualification	-11.7811
▁danoise	-11.7811
▁jugé	-11.7814
▁limitées	-11.7815
▁budgets.	-11.7819
▁Neighbourhood	-11.782
▁maternité	-11.782
▁conjunction	-11.782
▁Nielson	-11.782
▁multilatéral	-11.7821
▁d'avancer	-11.7821
▁doctors	-11.7822
▁incapables	-11.7826
▁officiel	-11.7828
▁pauvres.	-11.7829
▁députée	-11.783
▁irrégularités	-11.7831
▁atteintes	-11.7831
▁relationships	-11.7832
▁Nobel	-11.7834
▁abordée	-11.7834
▁accueillir	-11.7836
▁rien.	-11.7836
▁sectoral	-11.7837
cour	-11.7839
▁Colombia	-11.7843
▁scandale	-11.7845
▁reconnaissons	-11.7845
▁54	-11.7847
▁impliqué	-11.785
vant	-11.785
▁pipeline	-11.7851
▁130	-11.7852
▁autumn	-11.7853
▁électoral	-11.7853
▁lancée	-11.7856
▁Aux	-11.7857
▁concernée	-11.7857
▁maintenant.	-11.7858
▁bottom	-11.786
▁dioxide	-11.786
bon	-11.786
▁century.	-11.7861
▁disproportionné	-11.7867
▁abandoned	-11.7868
▁expressly	-11.787
▁Fédération	-11.7873
▁Kazakhstan	-11.7873
article	-11.7873
▁70%	-11.7874
▁Arafat	-11.7874
▁East,	-11.7875
▁brefs	-11.7877
▁commenter	-11.7877
▁safer	-11.7885
▁poursuivi	-11.7885
▁elimination	-11.7886
▁uses	-11.7889
▁clear:	-11.789
▁enforced	-11.7892
▁indirectly	-11.7892
▁Indonesia	-11.7896
▁maintenu	-11.7897
▁distinct	-11.7897
▁nordique	-11.7899
▁Merkel	-11.79
▁assurant	-11.79
▁copyright	-11.79
▁automatiquement	-11.7902
▁soulevés	-11.7903
▁alert	-11.7905
▁soir.	-11.7907
Applaudissements	-11.7907
▁exploited	-11.791
▁quotidien	-11.7911
▁harmonization	-11.7913
▁biological	-11.7913
▁organized	-11.7914
▁149)	-11.7915
▁understandable	-11.7917
lar	-11.7919
▁licenciements	-11.792
ers,	-11.7921
▁nécessitent	-11.7922
▁mi-parcours	-11.7926
▁Rothley	-11.7927
▁imposition	-11.7927
▁pollution.	-11.7927
▁contiennent	-11.7928
▁déposée	-11.7928
-M	-11.7929
▁volontaires	-11.7929
▁everywhere	-11.7931
ché	-11.7931
▁éthique	-11.7933
▁sessions	-11.7935
▁peser	-11.794
▁indiquant	-11.794
hu	-11.7941
▁Jo	-11.7941
▁couvert	-11.7945
▁l'Alliance	-11.7946
▁individuelles	-11.7947
▁suffisants	-11.795
▁exemplaire	-11.7953
▁évoquée	-11.7955
▁fier	-11.7956
▁efficaces.	-11.7957
▁10,	-11.7958
▁profond	-11.796
▁n'aient	-11.796
▁adressées	-11.7961
▁abroad	-11.7961
▁susciter	-11.7963
▁annonce	-11.7964
▁Chancellor	-11.7967
▁d'ajouter	-11.7967
▁diplomatie	-11.7967
▁bio	-11.7969
▁player	-11.7971
▁secondary	-11.7976
▁délicate	-11.7976
▁positively	-11.7977
▁suivantes	-11.7978
▁médecins	-11.798
▁l'intermédiaire	-11.7981
▁mondiales	-11.7981
▁fleets	-11.7988
▁bâtiment	-11.7992
▁Adjustment	-11.7994
▁d'insister	-11.7994
▁d'énormes	-11.7994
▁determining	-11.7994
▁multinationals	-11.7997
▁wars	-11.7998
ight	-11.8
▁légalement	-11.8001
▁acceptés	-11.8001
▁weaknesses	-11.8003
▁Personnellement	-11.8007
▁judiciary	-11.8007
▁réclamer	-11.8007
▁Ceux-ci	-11.8007
▁FMI	-11.8007
-B	-11.8009
ko	-11.801
▁priorités.	-11.801
▁ground.	-11.8016
▁route.	-11.8018
▁éleveurs	-11.8021
▁dedicated	-11.8021
▁Hier	-11.8021
▁l'autorisation	-11.8021
▁offrant	-11.8021
▁haine	-11.8021
wa	-11.8022
▁injustice	-11.8024
▁postponed	-11.8025
▁community,	-11.8025
▁manipulation	-11.8027
▁développées	-11.8028
▁réalistes	-11.803
▁fiable	-11.8031
▁analyser	-11.8033
▁D'abord	-11.8034
▁mid-term	-11.8034
▁facilitation	-11.8034
▁faiblesses	-11.8035
▁postaux	-11.8035
▁compenser	-11.8036
▁driven	-11.8036
▁execution	-11.8041
▁touché	-11.8043
▁fatal	-11.8044
▁distributed	-11.8045
▁cease	-11.8047
[...]
