<s>	0
</s>	0
<unk>	0
<pad>	0
▁de	-3.41678
,	-3.56582
s	-3.61586
.	-3.93757
▁�	-4.12989
▁la	-4.22307
▁et	-4.46279
▁le	-4.59281
▁en	-4.77422
▁:	-4.78517
e	-4.84825
▁du	-4.86711
▁des	-4.97954
▁	-5.02036
▁les	-5.04494
▁est	-5.10928
)	-5.16856
▁|	-5.2789
▁-	-5.30157
▁?	-5.3081
▁un	-5.41852
▁une	-5.45194
▁par	-5.54596
▁dans	-5.58745
▁a	-5.6924
▁Le	-5.73243
▁(	-5.78401
▁au	-5.79924
▁pour	-5.82287
r	-5.82676
-	-5.88898
▁La	-5.88987
▁sur	-5.92834
▁qui	-5.93005
a	-6.05703
�	-6.082
▁que	-6.12699
▁the	-6.18464
▁il	-6.19602
▁Il	-6.29378
▁se	-6.29592
o	-6.30009
▁plus	-6.34407
es	-6.34437
▁son	-6.35344
▁avec	-6.35514
>	-6.36874
▁of	-6.3701
s,	-6.37432
▁l'	-6.38438
t	-6.39816
▁ou	-6.40761
▁Les	-6.44591
nt	-6.44828
d	-6.47042
:	-6.47502
er	-6.48219
▁sont	-6.49364
▁2	-6.53921
▁A	-6.54475
i	-6.55915
y	-6.61466
▁1	-6.61762
▁in	-6.62144
]]	-6.62472
s.	-6.64691
▁sa	-6.64822
▁pas	-6.69142
▁En	-6.70377
▁3	-6.7267
).	-6.80493
),	-6.8063
▁4	-6.83047
▁ne	-6.83307
▁ce	-6.8452
▁Portail	-6.85864
ment	-6.86083
▁aux	-6.86868
"	-6.86941
▁and	-6.90315
▁6	-6.9205
n	-6.97101
▁[[	-6.97182
▁;	-6.97621
▁comme	-6.98421
▁S	-7.01296
▁The	-7.03863
▁d'un	-7.0519
al	-7.05516
▁5	-7.0577
ant	-7.0612
▁article	-7.06246
▁ses	-7.07815
▁�t�	-7.07923
m	-7.09988
'	-7.10625
c	-7.11155
/	-7.11683
▁d'une	-7.12612
▁Cet	-7.1279
▁France	-7.13168
in	-7.13548
ra	-7.14173
z	-7.15155
▁m	-7.15707
u	-7.16822
▁to	-7.16975
▁E	-7.1742
ing	-7.18079
▁deux	-7.1992
2	-7.19946
ed	-7.21283
on	-7.24275
le	-7.24513
▁d'	-7.25109
l	-7.26136
▁7	-7.26826
?	-7.27025
it	-7.27116
▁concernant	-7.27354
▁mais	-7.27377
▁fait	-7.27607
en	-7.28541
h	-7.2864
▁Vous	-7.28789
▁connaissances	-7.29413
▁vos	-7.30011
▁pouvez	-7.30371
ne	-7.3068
▁partager	-7.30769
▁(Comment	-7.31608
▁fut	-7.31646
am�liorant.	-7.31688
▁�bauche	-7.32463
▁cette	-7.32853
3	-7.34771
▁0	-7.34959
▁De	-7.35084
re	-7.35122
▁entre	-7.35533
te	-7.37153
▁8	-7.39584
ur	-7.39935
▁on	-7.40583
▁m�me	-7.41095
▁C	-7.41948
▁I	-7.43928
▁10	-7.4451
g	-7.46249
▁9	-7.46751
▁B	-7.47829
▁ont	-7.48411
1	-7.48997
4	-7.49119
na	-7.49457
us	-7.49867
f	-7.5001
▁16	-7.5023
▁17	-7.50584
▁aussi	-7.50879
▁qu'il	-7.51131
▁�tait	-7.51338
k	-7.51574
▁?).	-7.51607
x	-7.51864
ta	-7.52669
an	-7.53147
▁leur	-7.53571
▁elle	-7.54659
▁15	-7.55818
▁sans	-7.57723
▁Elle	-7.57773
▁lui	-7.58108
▁nom	-7.59437
▁T	-7.59551
▁D	-7.60563
▁"	-7.61344
▁P	-7.61499
▁re	-7.61603
▁sous	-7.62366
▁�tre	-7.62904
ent	-7.63825
▁dont	-7.64764
▁12	-7.65494
▁commune	-7.66353
ly	-7.66508
▁F	-7.67
R	-7.6738
▁peut	-7.67674
ar	-7.67699
ation	-7.68009
▁y	-7.68083
6	-7.68104
▁o�	-7.68211
de	-7.6864
▁ville	-7.68774
▁Sa	-7.688
▁Cette	-7.71152
p	-7.71951
▁14	-7.72402
b	-7.72493
to	-7.72664
5	-7.72998
or	-7.73528
▁G	-7.73933
▁M	-7.73996
is	-7.75174
▁n�	-7.75327
et	-7.76108
▁11	-7.76227
▁Pour	-7.76778
▁Un	-7.77247
▁13	-7.77307
▁alors	-7.77672
ro	-7.78013
▁L'	-7.78081
man	-7.78092
el	-7.80027
ma	-7.80266
me	-7.80483
▁partie	-7.80565
▁tr�s	-7.80738
▁In	-7.81438
at	-7.81578
▁Ce	-7.81935
▁premier	-7.82219
th	-7.82581
▁mars	-7.82836
ia	-7.83251
no	-7.83575
la	-7.83619
▁20	-7.83679
▁d�	-7.84458
▁�galement	-7.84639
▁N	-7.85061
▁ainsi	-7.86612
e,	-7.87112
▁V	-7.87151
▁On	-7.87247
il	-7.87964
7	-7.88308
▁apr�s	-7.89156
ie	-7.8926
;	-7.89359
's	-7.89547
ton	-7.90008
▁contre	-7.90291
▁monde	-7.90425
B	-7.90954
▁K	-7.90985
da	-7.91274
S	-7.91703
8	-7.9179
▁O	-7.91947
(	-7.92215
▁Pays	-7.92417
▁tout	-7.93516
▁is	-7.94477
ch	-7.94648
w	-7.95413
18	-7.96091
▁1999	-7.96576
▁depuis	-7.9755
▁Au	-7.97883
▁L	-7.98279
�e	-7.98524
▁mai	-7.98695
co	-7.99234
▁si�cle	-7.99238
ce	-7.99559
▁Jean	-7.99586
9	-8.00375
▁000	-8.00462
▁groupe	-8.00482
▁premi�re	-8.01439
▁ann�es	-8.01485
▁2000	-8.01542
ter	-8.02048
eur	-8.02312
▁vers	-8.02385
▁Paris	-8.02837
▁fran�ais	-8.03639
▁18	-8.03663
▁encore	-8.03725
▁ces	-8.03794
que	-8.04197
▁juin	-8.04218
▁si	-8.04403
▁puis	-8.04702
▁di	-8.04923
]],	-8.0518
▁Re	-8.05238
▁voir	-8.05939
▁Liens	-8.06236
▁Dans	-8.06434
▁2001	-8.06465
age	-8.06651
▁bien	-8.06662
|	-8.07108
A	-8.07523
▁R	-8.07583
▁fin	-8.07628
▁cours	-8.08626
▁d	-8.092
▁trois	-8.093
▁C'est	-8.09453
▁septembre	-8.09472
▁San	-8.09599
ine	-8.10133
di	-8.10221
▁plusieurs	-8.10686
▁for	-8.11369
ir	-8.12775
T	-8.12928
ait	-8.13042
▁21	-8.13062
▁r�	-8.13285
lo	-8.13307
▁mort	-8.13348
▁*	-8.13439
▁/	-8.13674
▁janvier	-8.13964
li	-8.13974
▁tour	-8.14116
▁Al	-8.14724
▁25	-8.15049
um	-8.15375
▁30	-8.15561
▁W	-8.15698
go	-8.15698
ry	-8.16039
▁g�n�ral	-8.16243
▁partir	-8.16283
C	-8.16507
▁Nord	-8.16571
▁22	-8.16964
▁19	-8.17096
▁avril	-8.17427
▁politique	-8.17545
▁Son	-8.17919
t�	-8.18138
▁lors	-8.18299
▁externes	-8.18806
▁Une	-8.18865
▁octobre	-8.19083
ri	-8.19192
G	-8.19289
▁24	-8.19298
▁articles	-8.19387
]	-8.19563
▁vie	-8.19914
▁avant	-8.20116
▁autres	-8.20229
▁Liste	-8.20261
▁Co	-8.20692
▁2007	-8.20752
do	-8.20755
▁juillet	-8.21092
▁�tats-Unis	-8.21222
H	-8.21242
N	-8.21949
v	-8.22291
ck	-8.22432
▁n'est	-8.22467
▁film	-8.22471
ca	-8.22553
▁fois	-8.22563
▁r�gion	-8.22716
▁H	-8.22809
ve	-8.22854
it�	-8.23287
▁d�cembre	-8.23465
▁faire	-8.23491
au	-8.23818
▁ao�t	-8.2395
▁novembre	-8.24248
▁avait	-8.24282
▁Histoire	-8.24624
▁2006	-8.24696
▁tous	-8.25571
▁23	-8.25642
▁1er	-8.25705
▁Code	-8.26099
rent	-8.27139
▁U	-8.27207
ni	-8.27214
ga	-8.27269
▁ans	-8.27734
▁car	-8.27834
0	-8.27904
D	-8.28856
ez	-8.28889
l�	-8.28962
▁l'a	-8.29145
▁place	-8.30066
▁donc	-8.30102
▁Si	-8.30243
F	-8.30626
▁Pierre	-8.3063
▁an	-8.30936
▁grand	-8.31516
ul	-8.31743
▁(18	-8.31798
mo	-8.31871
▁non	-8.31878
▁Par	-8.31974
▁population	-8.32088
r�	-8.32145
▁Mar	-8.32463
▁II	-8.32672
E	-8.32716
▁Parti	-8.32974
▁v	-8.33117
▁f�vrier	-8.33359
va	-8.33719
-19	-8.33853
ion	-8.3394
K	-8.34015
son	-8.34198
id	-8.3441
▁temps	-8.34559
▁&	-8.34682
ti	-8.34739
▁famille	-8.34893
▁Ma	-8.35057
▁1990	-8.35066
▁2005	-8.35073
▁2004	-8.35275
17	-8.35276
▁28	-8.3534
ic	-8.35474
▁26	-8.35651
e.	-8.35683
�s	-8.36069
▁peu	-8.3624
▁New	-8.36302
▁s�rie	-8.36819
▁Me	-8.37024
▁2002	-8.37179
▁pays	-8.37206
▁musique	-8.37257
V	-8.37473
▁27	-8.38596
ou	-8.38838
▁1962	-8.39152
che	-8.39159
''	-8.39517
be	-8.39839
▁situ�e	-8.40493
▁projet	-8.40545
▁by	-8.40604
▁site	-8.41187
▁J	-8.4152
▁leurs	-8.41573
▁Population	-8.41802
▁page	-8.41821
ard	-8.42159
ge	-8.4227
▁km�	-8.42529
▁Grand	-8.42918
▁Du	-8.43198
ka	-8.43327
▁Ha	-8.43339
▁Bo	-8.4337
▁grande	-8.43472
▁soit	-8.43512
▁Louis	-8.43617
▁avoir	-8.43823
▁1998	-8.43861
P	-8.43911
j	-8.44434
der	-8.44908
▁<	-8.44928
▁d�partement	-8.44936
ure	-8.45323
▁jeu	-8.45927
iste	-8.45958
▁moins	-8.45973
ba	-8.4618
▁p.	-8.46366
vi	-8.4654
▁notamment	-8.46674
▁nombre	-8.46835
▁roi	-8.47005
▁guerre	-8.4702
(s)	-8.47153
▁29	-8.47443
▁lieu	-8.47538
ique	-8.47676
▁Charles	-8.4789
▁Ar	-8.48157
▁pro	-8.4825
▁with	-8.48525
▁c'est	-8.48781
M	-8.49162
isme	-8.49337
▁2003	-8.49434
▁suite	-8.49574
▁Mo	-8.49704
▁Con	-8.49892
mi	-8.49946
▁Car	-8.49987
▁Paris,	-8.50106
▁Ca	-8.50466
▁cas	-8.50576
▁X	-8.512
▁forme	-8.51238
▁No	-8.51337
▁John	-8.51452
am	-8.5175
os	-8.51915
▁Be	-8.52052
▁=	-8.52176
▁as	-8.5262
ci	-8.52938
im	-8.52991
▁that	-8.53039
▁pendant	-8.53071
ad	-8.53088
▁2008	-8.53144
▁Paul	-8.53232
▁or	-8.53233
▁R�gion	-8.53495
▁!	-8.53522
▁was	-8.5404
▁%	-8.54062
ville	-8.54117
▁Man	-8.54181
land	-8.54448
▁selon	-8.54615
ke	-8.54972
▁titre	-8.55072
▁quelques	-8.55203
lin	-8.55387
ner	-8.554
▁d�but	-8.55524
&quot;	-8.55612
les	-8.55623
▁comptes	-8.55701
▁Apr�s	-8.55769
able	-8.55847
▁fran�aise	-8.56059
▁�quipe	-8.56265
▁communes	-8.56698
▁be	-8.56755
ha	-8.56878
un	-8.57112
...	-8.57195
▁con	-8.57289
▁n'a	-8.57745
L	-8.57816
▁doubles	-8.58323
▁1982	-8.58432
▁Li	-8.5861
▁Superficie	-8.58656
O	-8.58774
aux	-8.58963
▁homonymes	-8.59099
▁hab.	-8.59213
ol	-8.59254
▁1968	-8.59595
▁doit	-8.6014
▁souvent	-8.60201
▁Canton	-8.6024
▁nationale	-8.60697
st	-8.60719
▁Pro	-8.60848
▁Robert	-8.61068
▁Des	-8.61418
▁officiel	-8.62354
as	-8.62815
pe	-8.62822
15	-8.63006
▁To	-8.6328
▁Mont	-8.63417
▁autre	-8.63835
▁Ka	-8.64161
aire	-8.64312
▁d'a	-8.64319
▁[	-8.64369
ler	-8.64556
▁El	-8.64802
▁(S	-8.64933
ver	-8.64982
▁Michel	-8.65142
▁d'A	-8.65269
▁Po	-8.65332
es,	-8.65351
16	-8.65577
▁Z	-8.66114
▁Site	-8.66193
▁1975	-8.66316
ier	-8.6644
▁km	-8.66551
ut	-8.66634
▁Se	-8.66949
▁nouveau	-8.67201
▁Saint	-8.67326
▁Val	-8.67824
▁fils	-8.6797
▁Na	-8.68176
▁d'autres	-8.68248
▁point	-8.68254
▁Densit�	-8.68457
tra	-8.6847
con	-8.68481
▁trouve	-8.68851
▁d'�	-8.68904
▁Ne	-8.68925
▁Or	-8.68982
10	-8.69142
▁Communes	-8.69161
ja	-8.69212
▁nombreux	-8.69705
▁devient	-8.69716
bo	-8.70041
▁syst�me	-8.70158
▁part	-8.7037
ko	-8.70495
▁Do	-8.70505
▁Ri	-8.70662
ement	-8.70682
ot	-8.7081
▁He	-8.70839
chi	-8.7097
▁Ta	-8.70992
▁Per	-8.71237
▁droit	-8.71261
▁but	-8.71278
▁jour	-8.71648
mer	-8.71835
▁+	-8.71952
▁pr�s	-8.71966
ian	-8.71974
ff	-8.71977
▁Jacques	-8.72033
▁Tour	-8.72057
▁''	-8.72355
ino	-8.72468
▁(�	-8.72514
▁Lo	-8.72568
▁al	-8.72706
pa	-8.72794
▁Lu	-8.72946
m�	-8.73223
▁jusqu'�	-8.73316
▁Arrondissement	-8.73652
if	-8.73937
io	-8.73942
ina	-8.73988
tte	-8.74004
mar	-8.74056
▁classique	-8.74512
▁Ier	-8.74633
▁Mais	-8.7467
lle	-8.74819
ano	-8.74842
W	-8.74892
▁Canada	-8.75126
▁ligne	-8.7517
[	-8.75548
em	-8.75565
▁Di	-8.75728
▁football	-8.75731
ana	-8.75855
</	-8.75864
▁donn�es	-8.75952
▁Vi	-8.76016
ise	-8.76107
▁nouvelle	-8.76169
▁Ro	-8.76204
U	-8.763
▁l'histoire	-8.76324
▁p	-8.76335
J	-8.76593
▁d�s	-8.76661
▁1997	-8.76841
n�	-8.76948
▁diff�rents	-8.77017
▁toute	-8.77023
▁31	-8.77083
po	-8.77253
▁(19	-8.77291
ron	-8.77376
ance	-8.77394
▁cet	-8.77422
mon	-8.77454
▁chez	-8.77457
▁Notes	-8.77695
▁gouvernement	-8.77752
▁habitants	-8.77804
za	-8.78124
14	-8.78183
▁ma	-8.78209
▁Ga	-8.78389
▁dernier	-8.78776
▁toujours	-8.78834
12	-8.7886
▁Pa	-8.78867
▁1996	-8.78877
▁sera	-8.78894
▁R�publique	-8.79027
isation	-8.79036
▁from	-8.79118
tes	-8.7933
▁club	-8.79342
_	-8.79405
▁province	-8.79424
sse	-8.79578
▁quatre	-8.79634
▁Cor	-8.79663
▁ils	-8.79689
▁1995	-8.79731
▁M.	-8.79774
▁saison	-8.79792
20	-8.80019
ac	-8.80079
rie	-8.80505
s)	-8.80598
tu	-8.8064
ze	-8.80758
▁Mon	-8.80843
▁Go	-8.80912
▁(en	-8.8092
▁s'est	-8.81009
-18	-8.81052
▁l'�tat	-8.81225
▁at	-8.81555
op	-8.81565
▁Da	-8.8157
I	-8.81619
▁Y	-8.81678
11	-8.81696
%	-8.81774
▁Coupe	-8.81896
bi	-8.81915
nes	-8.81953
▁Nom	-8.81972
▁village	-8.82004
▁hab./km�	-8.82088
▁1994	-8.82194
per	-8.82269
�n	-8.82515
�es	-8.82529
▁Guerre	-8.82549
▁l'�	-8.82802
▁Bar	-8.82856
▁tant	-8.83055
▁nous	-8.83166
▁Ces	-8.83223
▁permet	-8.8339
gue	-8.83544
47	-8.83637
▁l'A	-8.83654
mp	-8.83782
▁long	-8.83803
▁�taient	-8.83901
▁chaque	-8.83913
▁France.	-8.84084
ru	-8.84086
tre	-8.8429
▁tard	-8.84359
▁va	-8.84456
▁Nombre	-8.84515
one	-8.8468
▁D�	-8.84683
▁Fran�ois	-8.84708
▁pr�sident	-8.84779
▁Italie	-8.84929
cha	-8.84987
sh	-8.85082
▁dit	-8.85139
ber	-8.85311
▁celle	-8.85313
▁certains	-8.85411
▁celui	-8.85451
▁50	-8.85499
▁(C	-8.8569
▁1988	-8.85752
aient	-8.85759
▁peuvent	-8.85874
▁Club	-8.85892
▁reste	-8.85954
13	-8.86028
▁do	-8.86142
▁national	-8.8615
}}}	-8.86186
don	-8.86514
▁1993	-8.86547
▁G�ographie	-8.8656
ty	-8.866
ale	-8.86625
28	-8.86783
ence	-8.86794
tion	-8.87076
▁co	-8.87198
45	-8.87236
▁Prix	-8.8732
",	-8.87414
nce	-8.87456
▁toutes	-8.8758
▁Ba	-8.87598
▁section	-8.8765
▁r�le	-8.87771
ll	-8.87793
gen	-8.87799
▁sud	-8.87969
ers	-8.87986
▁(en)	-8.88006
▁postal	-8.88127
25	-8.88264
▁Altitude	-8.88304
den	-8.88312
▁Maire	-8.88422
49	-8.88435
▁100	-8.88632
▁centre	-8.88642
▁Ko	-8.88773
�t	-8.88887
▁are	-8.88918
es.	-8.88946
▁nord	-8.88983
]].	-8.89059
▁pouvoir	-8.89183
▁Administration	-8.89235
ho	-8.89315
▁exemple	-8.89409
▁compte	-8.89424
48	-8.89642
▁plan	-8.898
▁Pi	-8.89828
▁An	-8.89841
▁pr�	-8.89912
ley	-8.90108
▁1991	-8.90264
▁1992	-8.90287
gi	-8.90411
▁p�riode	-8.90415
X	-8.90494
35	-8.90894
27	-8.9091
▁joueur	-8.90911
26	-8.91038
▁ministre	-8.91086
▁(TV)	-8.91086
du	-8.91352
19	-8.91965
ki	-8.92079
ologie	-8.92595
lu	-8.92765
�me	-8.9311
39	-8.93225
▁finale	-8.93334
▁�tant	-8.93398
▁Genre	-8.93477
▁furent	-8.93585
▁chef	-8.93625
▁Su	-8.93777
▁David	-8.93886
vo	-8.93901
=	-8.93931
▁Ho	-8.93972
eurs	-8.93999
ux	-8.94245
▁assez	-8.9433
▁N�	-8.94485
▁l'un	-8.94516
▁Date	-8.95187
75	-8.95279
ive	-8.95364
▁type	-8.9542
▁(A	-8.95445
▁40	-8.95563
▁ann�e	-8.95847
▁connu	-8.96066
▁points	-8.9607
val	-8.96364
▁Sur	-8.96373
▁ayant	-8.9652
▁Henri	-8.96602
▁Sud	-8.96608
▁niveau	-8.96615
▁p�re	-8.96628
▁{{{	-8.96779
▁So	-8.96915
▁am�ricain	-8.97094
▁cin�ma	-8.97115
▁R�	-8.97177
▁�volution	-8.97243
▁P�riode	-8.97254
▁soci�t�	-8.97302
▁base	-8.97343
46	-8.97375
▁qu'elle	-8.97429
▁D�mographie	-8.97547
▁Belgique	-8.97647
▁corps	-8.97751
▁no	-8.97969
ient	-8.98078
▁Ni	-8.98085
24	-8.98098
lan	-8.98111
40	-8.9823
55	-8.98411
est	-8.98493
▁Cha	-8.98494
sa	-8.98534
▁mois	-8.98542
▁Hu	-8.98543
▁f	-8.98632
port	-8.98702
▁Chi	-8.99002
ya	-8.99002
44	-8.99016
min	-8.99022
nd	-8.99084
▁canton	-8.99097
▁ensuite	-8.99159
▁homme	-8.99202
▁Mandat	-8.99464
▁*[[	-8.99504
▁production	-8.99609
ix	-8.99727
▁Biographie	-8.998
the	-8.99829
hi	-9.0005
▁1980	-9.00339
▁service	-9.0045
▁Pe	-9.00466
▁d'or	-9.00644
▁travail	-9.00707
▁visite	-9.00713
▁personnes	-9.00722
43	-9.00919
▁terme	-9.01141
66	-9.01298
tor	-9.01376
50	-9.01378
▁(17	-9.01491
▁1989	-9.01513
▁hommes	-9.01582
▁Wikip�dia	-9.01621
ud	-9.01758
85	-9.01877
21	-9.01912
▁FC	-9.01955
31	-9.02171
▁face	-9.02193
▁1987	-9.02285
32	-9.02528
▁Communaut�	-9.02593
22	-9.02606
▁cause	-9.02739
ger	-9.02849
ster	-9.02884
07	-9.03003
▁version	-9.03042
▁ISBN	-9.03056
▁inter	-9.03106
▁afin	-9.03174
▁D�partement	-9.03201
▁aujourd'hui	-9.03215
▁liste	-9.03292
▁III	-9.03365
▁York	-9.03427
▁Ra	-9.03502
and	-9.0363
▁fer	-9.03672
▁rapport	-9.03705
▁mise	-9.03964
▁St	-9.04022
▁bi	-9.04041
▁situ�	-9.04105
▁nombreuses	-9.04181
05	-9.04241
ak	-9.04321
▁l'on	-9.04448
▁femme	-9.04482
▁(1	-9.04488
▁c	-9.04503
▁public	-9.04516
ven	-9.04517
eau	-9.04521
08	-9.04566
▁l'�quipe	-9.04635
▁&quot;	-9.04678
▁Ja	-9.04705
▁mer	-9.0474
▁e	-9.0479
qui	-9.04895
mont	-9.04951
▁membres	-9.05026
ate	-9.05261
ire	-9.05332
▁g	-9.05395
he	-9.05521
38	-9.05522
▁fonction	-9.05709
78	-9.05799
ny	-9.06107
▁Ver	-9.06163
51	-9.0623
▁petit	-9.0633
▁Mor	-9.06388
tin	-9.06403
cher	-9.06439
vin	-9.065
▁Ju	-9.06573
90	-9.06578
29	-9.06599
37	-9.06647
▁cr�ation	-9.06655
▁Ben	-9.06889
99	-9.06919
▁militaire	-9.07083
e)	-9.07268
65	-9.07383
▁Titre	-9.07386
▁ni	-9.07455
by	-9.0748
▁parti	-9.07553
pi	-9.07718
▁beaucoup	-9.07806
68	-9.07847
80	-9.0786
▁anglais	-9.07923
▁(P	-9.07937
▁successifs	-9.07951
v�	-9.08003
▁Marie	-9.08145
▁nomm�	-9.08192
▁1984	-9.08235
▁d'origine	-9.08242
▁Mi	-9.08281
▁construction	-9.0857
▁R�f�rence	-9.08662
▁si�cle,	-9.08724
idae	-9.08765
89	-9.08851
▁Ils	-9.08938
▁fille	-9.08997
▁1985	-9.09
41	-9.091
-B	-9.09122
▁seul	-9.09152
fa	-9.09351
▁code	-9.09384
▁l�	-9.09466
▁jeune	-9.09561
88	-9.09577
▁Te	-9.09647
▁l'ann�e	-9.09785
▁roman	-9.09805
23	-9.09866
▁membre	-9.09897
▁durant	-9.09963
83	-9.09992
▁date	-9.10147
Y	-9.10362
86	-9.10366
▁Suisse	-9.10391
36	-9.10401
42	-9.10455
▁ex	-9.1047
▁carri�re	-9.10498
ch�	-9.10498
▁Bou	-9.10802
77	-9.10896
▁LINEA	-9.10936
▁ancien	-9.1103
▁m�tres	-9.11062
[1]	-9.11072
57	-9.11116
▁Bu	-9.11154
▁jours	-9.11207
g�	-9.11269
▁Bi	-9.11304
72	-9.11366
▁album	-9.11452
▁r�f�rences	-9.11476
▁langue	-9.11512
berg	-9.11517
ex	-9.11546
▁deuxi�me	-9.11747
▁d�mographique	-9.11837
73	-9.11838
!	-9.11909
▁1983	-9.11999
eux	-9.12046
▁Qualit�	-9.12104
ist	-9.12124
cy	-9.1214
95	-9.12177
▁Russie	-9.12253
▁d�veloppement	-9.1226
ria	-9.12266
64	-9.12349
▁Van	-9.12367
34	-9.12407
dy	-9.12521
▁Jo	-9.12553
▁Philippe	-9.12574
▁succ�s	-9.12595
men	-9.12601
71	-9.12698
ante	-9.12858
▁his	-9.12993
▁mal	-9.12995
▁2e	-9.13013
59	-9.13227
▁partage	-9.13344
ig	-9.134
▁Ti	-9.13571
▁Mer	-9.13869
▁Ses	-9.13949
▁Ru	-9.14046
▁cinq	-9.14106
▁livre	-9.14118
▁he	-9.14188
▁35	-9.14236
tt	-9.14267
▁t�te	-9.144
79	-9.14451
elle	-9.14518
▁Martin	-9.14587
ey	-9.14598
▁Je	-9.14614
▁J.	-9.1485
▁Allemagne	-9.14865
74	-9.14881
▁Latitude	-9.14981
ach	-9.14989
ons	-9.15081
▁it	-9.15128
car	-9.15141
ek	-9.15166
▁ch�teau	-9.15278
▁?)	-9.15314
52	-9.1536
33	-9.15376
ten	-9.15406
▁sol	-9.15463
87	-9.1551
56	-9.15519
84	-9.15602
▁l'in	-9.15737
97	-9.15831
▁ha	-9.16046
oc	-9.16354
▁1986	-9.16378
ette	-9.16467
ris	-9.16497
fi	-9.16527
▁Identit�	-9.16591
▁Voir	-9.16662
▁Longitude	-9.16671
ite	-9.16827
-S	-9.16831
zo	-9.16962
ab	-9.17012
euse	-9.17138
▁m�	-9.17225
▁Toutes	-9.17408
▁(The	-9.1743
▁??	-9.17503
".	-9.17534
▁Qu�bec	-9.17672
▁Article	-9.17709
ateur	-9.17752
76	-9.17795
▁particulier	-9.17825
ng	-9.17841
ns	-9.17875
▁l'�glise	-9.17881
▁premiers	-9.17958
▁existe	-9.17964
tique	-9.17985
▁~	-9.18011
58	-9.1802
▁prend	-9.18212
▁retenu	-9.18313
▁1981	-9.18339
30	-9.18356
use	-9.18412
ront	-9.18473
82	-9.18508
▁bo	-9.18589
▁technique	-9.18594
tro	-9.18651
ius	-9.18821
art	-9.18847
ran	-9.18916
▁???	-9.18936
vis	-9.19007
▁recherche	-9.19045
up	-9.19164
▁n	-9.19174
▁b	-9.19406
▁Andr�	-9.19452
▁parfois	-9.19564
(en)	-9.19596
▁Joseph	-9.19677
98	-9.19688
istes	-9.19694
▁1979	-9.1971
ile	-9.19791
09	-9.19905
▁prix	-9.19914
▁eu	-9.20066
d�	-9.20103
▁produit	-9.20129
▁maires	-9.20207
-3	-9.20211
▁(B	-9.20242
▁mouvement	-9.20242
94	-9.20322
▁porte	-9.20331
▁ca	-9.20413
02	-9.20432
▁'	-9.20464
▁lettres	-9.2047
▁utilis�	-9.20523
▁Terre	-9.20524
▁route	-9.20556
▁gr�ce	-9.20595
▁ta	-9.20627
54	-9.20629
iens	-9.20683
ue	-9.20697
ole	-9.20709
▁division	-9.20756
mes	-9.20789
69	-9.20829
▁possible	-9.21001
▁poste	-9.21019
▁vid�o	-9.21042
▁mis	-9.21069
▁laquelle	-9.21126
▁60	-9.21127
ang	-9.21155
61	-9.21214
▁(1999)	-9.21252
▁Europe	-9.21357
lon	-9.21389
62	-9.21411
▁millions	-9.21458
53	-9.21759
▁France,	-9.218
▁1970	-9.21816
▁jamais	-9.21873
▁not	-9.21876
▁l'�poque	-9.2201
▁1977	-9.22088
▁Gi	-9.2212
04	-9.22509
▁raison	-9.22641
▁For	-9.22655
▁loi	-9.22746
}}	-9.22921
▁formation	-9.22993
▁Can	-9.23009
▁surtout	-9.23045
▁==	-9.23265
▁k	-9.23271
96	-9.2333
▁�ditions	-9.23347
▁Fa	-9.23367
ens	-9.23417
▁environ	-9.23418
q	-9.23432
rait	-9.23433
▁Conseil	-9.23475
▁comte	-9.2357
▁1972	-9.23906
▁can	-9.23909
70	-9.2392
▁haut	-9.23989
ations	-9.2405
▁World	-9.24059
▁Q	-9.24077
▁per	-9.24097
par	-9.24122
91	-9.24233
00	-9.24252
ov	-9.24256
▁simple	-9.24281
wa	-9.24402
▁rue	-9.24503
▁pu	-9.24526
▁Ve	-9.24594
▁bas	-9.24627
▁sens	-9.24641
tri	-9.24645
▁x	-9.2466
bert	-9.24739
ay	-9.24852
�re	-9.24961
92	-9.25038
03	-9.25048
res	-9.2506
06	-9.25126
▁terre	-9.25148
▁second	-9.25194
p�	-9.25262
67	-9.25291
van	-9.25328
▁me	-9.2549
▁sc�ne	-9.25514
▁Tu	-9.25643
pp	-9.25696
▁1978	-9.25755
od	-9.25795
▁seule	-9.25804
▁Mal	-9.25847
ham	-9.25914
[1].	-9.25939
ah	-9.25943
▁s'	-9.25946
63	-9.26016
c�	-9.26017
cu	-9.2605
▁bataille	-9.2605
net	-9.26199
60	-9.26224
▁(ou	-9.26258
tation	-9.26393
▁Ci	-9.26458
▁Richard	-9.26538
ph	-9.26603
▁genre	-9.26637
id>	-9.26661
▁sorti	-9.26697
ves	-9.26738
▁sortie	-9.26766
▁Bernard	-9.26897
▁�crit	-9.26919
▁bande	-9.26977
▁1976	-9.2698
81	-9.2711
ola	-9.27111
▁XIXe	-9.27231
▁George	-9.27332
▁which	-9.27427
ini	-9.27438
tz	-9.27549
▁r�alis�	-9.27744
vent	-9.27772
▁connues.	-9.27778
ts	-9.27921
ienne	-9.2796
▁d'�tre	-9.2802
han	-9.28023
▁Gu	-9.28046
▁Mac	-9.28054
▁s'agit	-9.28561
▁(T	-9.28607
tel	-9.28657
▁?(19	-9.28782
▁cr��	-9.28827
▁1973	-9.28899
ara	-9.28976
▁l'�le	-9.29037
▁1974	-9.29156
▁32	-9.29266
b�	-9.29394
ji	-9.29398
fer	-9.29529
▁�tudes	-9.29566
▁plupart	-9.29863
ker	-9.29916
▁�tat	-9.29967
▁enfants	-9.30013
ary	-9.30037
▁fit	-9.30103
▁B�	-9.30142
▁Am	-9.30192
ling	-9.30219
▁direction	-9.30242
ien	-9.30242
▁devant	-9.30268
▁maison	-9.30276
▁33	-9.3036
▁match	-9.30367
▁Famille	-9.30497
ring	-9.30511
▁important	-9.30521
▁80	-9.30665
mb	-9.30698
▁seulement	-9.31003
▁pr�sente	-9.31017
▁1960	-9.3103
▁ceux	-9.31355
▁Japon	-9.31429
ais	-9.31631
▁l'arm�e	-9.31779
▁monuments	-9.31793
'''	-9.31806
▁James	-9.31831
let	-9.3184
▁It	-9.31872
*	-9.31991
Z	-9.32213
▁Claude	-9.32224
▁charge	-9.32252
▁Rome	-9.32334
▁territoire	-9.32348
▁?uvres	-9.32351
▁Province	-9.32409
▁petite	-9.32567
cho	-9.32647
ob	-9.32812
▁Ab	-9.32925
▁Tri	-9.32952
▁d�j�	-9.33001
▁so	-9.33045
▁pa	-9.33118
000	-9.33154
▁Don	-9.33231
▁donne	-9.33242
▁milieu	-9.33305
▁quand	-9.33406
ity	-9.33465
▁Michael	-9.33594
tant	-9.33639
▁Art	-9.3372
sk	-9.33835
▁d'eau	-9.34055
▁Pan	-9.34088
▁travaux	-9.3411
ide	-9.34165
ille	-9.34183
ins	-9.34216
▁sujets	-9.34489
▁font	-9.34494
▁si�ge	-9.3451
▁Gar	-9.34525
ell	-9.34578
sta	-9.34682
▁IV	-9.3473
▁passe	-9.34754
▁l'�cole	-9.34866
▁Ville	-9.34889
▁Georges	-9.34959
▁bois	-9.35011
ella	-9.35043
▁grands	-9.35054
▁moyenne	-9.35158
01	-9.35267
ois	-9.35355
▁autour	-9.35382
▁Autres	-9.3553
urs	-9.35709
▁Lieux	-9.3584
▁s�	-9.35952
ales	-9.36154
▁m�re	-9.36185
▁l'article	-9.36189
▁donn�	-9.36201
▁mani�re	-9.36233
▁?????	-9.36243
ani	-9.36259
pin	-9.36265
▁?S	-9.36384
iques	-9.36405
▁personne	-9.3645
▁34	-9.36752
▁documents	-9.36769
▁qu'un	-9.36799
▁ans,	-9.3683
▁Espagne	-9.36849
▁William	-9.36851
si	-9.36858
▁Cu	-9.36861
▁Centre	-9.36911
sion	-9.36914
▁c�t�	-9.36978
▁vue	-9.37021
▁Ber	-9.37088
▁li�es	-9.37109
▁nom.	-9.37115
zi	-9.37198
lie	-9.37208
93	-9.37234
olo	-9.37245
ong	-9.37304
▁six	-9.3731
▁Depuis	-9.37332
nie	-9.37527
page	-9.37532
▁Tra	-9.37545
▁double	-9.37569
▁</	-9.37579
my	-9.37642
▁texte	-9.37787
▁aide	-9.37812
▁38	-9.37881
▁sein	-9.37971
des	-9.38034
▁poss�de	-9.38041
▁diff�rentes	-9.3813
a,	-9.38131
ev	-9.38153
▁My	-9.38159
▁marque	-9.38169
▁All	-9.38291
▁Thomas	-9.3838
-2	-9.38439
▁Est/	-9.38482
▁d'indications	-9.38545
▁faut	-9.38661
▁mot	-9.38755
▁Personnalit�s	-9.38868
.com	-9.389
▁We	-9.39065
▁litt�rature	-9.39138
▁domaine	-9.39186
▁style	-9.39211
▁position	-9.3922
▁War	-9.39221
rin	-9.39222
ade	-9.39338
▁rencontre	-9.39544
▁Br�sil	-9.39635
▁gauche	-9.39637
▁�poque	-9.39639
▁seconde	-9.39663
▁Daniel	-9.39683
▁(D	-9.3973
▁po	-9.39773
▁fr�re	-9.39853
▁historique	-9.39907
▁vol	-9.40036
▁th��tre	-9.40087
▁dis	-9.40106
▁moment	-9.40223
▁Ordre	-9.40248
▁Za	-9.40251
▁Pr�sident	-9.40254
▁Bre	-9.40261
▁...	-9.40371
Intercommunalit�	-9.40381
pr�s	-9.40437
▁combat	-9.40456
je	-9.40686
fran�aise,	-9.40708
-A	-9.40753
▁je	-9.40783
▁d'E	-9.408
▁Peter	-9.4081
▁port	-9.40814
▁d�taill�	-9.40892
▁Insee	-9.41155
▁1971	-9.41187
▁international	-9.41212
▁Fin	-9.4151
▁travers	-9.41513
▁�lu	-9.41538
ub	-9.41543
tier	-9.41611
ible	-9.41627
tter	-9.41693
▁demande	-9.41701
▁Pu	-9.41774
▁�lections	-9.41852
▁(G	-9.41852
▁moyen	-9.41896
ium	-9.41996
▁culture	-9.42065
gan	-9.42131
▁large	-9.42156
▁36	-9.42203
▁Classification	-9.42261
▁district	-9.42321
▁Ligue	-9.42358
▁fort	-9.42389
▁(n�	-9.42585
i�re	-9.42763
▁da	-9.42845
▁National	-9.42982
▁retour	-9.43056
▁cela	-9.43141
▁propose	-9.43241
▁1967	-9.43256
gar	-9.43353
ap	-9.43453
▁�conomique	-9.43497
▁bon	-9.4364
▁t	-9.4367
▁Is	-9.4376
▁(mini	-9.43879
▁si�cle.	-9.43939
▁L�	-9.4398
▁Pont	-9.44102
-T	-9.44265
line	-9.44289
▁derni�re	-9.44585
▁TV)	-9.44642
ice	-9.44646
▁tel	-9.44649
ous	-9.44665
h�	-9.44677
▁(F	-9.44728
▁Royaume-Uni	-9.44764
]]''	-9.44799
▁Vo	-9.44887
▁g�n�ralement	-9.44903
▁Cap	-9.45022
▁aurait	-9.45104
▁200	-9.45114
▁45	-9.45115
-17	-9.45119
▁1950	-9.45238
ari	-9.45262
▁Char	-9.4533
iz	-9.45368
▁Premier	-9.45384
▁70	-9.45484
▁certaines	-9.455
nel	-9.45594
▁parmi	-9.45743
gg	-9.45767
tic	-9.45959
▁appel�	-9.46001
▁Cour	-9.46045
▁c�l�bre	-9.46056
om	-9.46077
▁rivi�re	-9.46121
ification	-9.46174
▁all	-9.4621
▁droite	-9.46216
▁(maxi)	-9.4628
▁90	-9.46476
▁Christian	-9.46533
▁(M	-9.46552
▁(ISBN	-9.46606
out	-9.4667
▁troisi�me	-9.46721
▁duc	-9.46721
▁libre	-9.46794
oli	-9.46829
ai	-9.4683
�r	-9.46847
▁1969	-9.46863
▁sujet	-9.46867
▁(2	-9.46994
▁Jan	-9.47013
onne	-9.4707
▁3e	-9.47172
bu	-9.47259
▁conseil	-9.4728
▁allemand	-9.47285
▁fa�on	-9.47409
▁tu	-9.47433
qua	-9.47478
is�	-9.47484
▁Sal	-9.47502
Q	-9.47505
era	-9.47513
ju	-9.47548
▁Comme	-9.47654
▁Monte	-9.47688
▁jeux	-9.47738
▁vous	-9.47795
can	-9.47816
▁r�pertorie	-9.47891
▁l'aide	-9.47958
▁d'homonymie	-9.48053
▁zone	-9.48068
lement	-9.48175
▁Ex	-9.48222
▁minutes	-9.48333
▁Classe	-9.48418
▁av.	-9.48518
▁Ad	-9.48527
▁1964	-9.48667
▁italien	-9.48703
▁personnage	-9.48732
jo	-9.48771
▁Championnat	-9.48774
▁voix	-9.48932
ft	-9.49024
▁42	-9.49159
▁Chine	-9.49164
▁rouge	-9.49171
▁mesure	-9.49187
▁pass�	-9.49199
▁trop	-9.49296
▁force	-9.49301
text	-9.49318
▁bord	-9.49693
▁propre	-9.49815
▁sources	-9.4987
-C	-9.49934
▁Fiche	-9.50013
▁traduction	-9.50081
▁1966	-9.50111
▁?uvre	-9.50123
▁Et	-9.50162
cal	-9.50168
▁main	-9.50204
▁esp�ces	-9.5028
iser	-9.50333
gon	-9.50465
▁Premi�re	-9.50523
ica	-9.50576
▁d'abord	-9.50583
▁have	-9.50595
hu	-9.50621
▁Super	-9.50626
▁Love	-9.50691
▁contr�le	-9.5071
▁(E	-9.50738
ung	-9.50747
▁Har	-9.50793
▁Marc	-9.50904
▁r�seau	-9.50972
vel	-9.51111
▁biologie	-9.51158
▁mondiale	-9.51238
▁joue	-9.5126
▁effet	-9.51268
▁??????????	-9.51313
lis	-9.51411
▁500	-9.51419
▁Avec	-9.51434
lot	-9.51478
▁femmes	-9.51489
▁ra	-9.51503
▁ba	-9.51534
�l	-9.51621
voir	-9.51731
ku	-9.51774
▁compos�	-9.51784
-1	-9.51888
▁acteur	-9.51907
▁l'origine	-9.51922
▁d'in	-9.51927
▁cor	-9.51991
tan	-9.52126
▁qu'	-9.52141
▁del	-9.52144
▁cependant	-9.52148
▁original	-9.5218
▁d'O	-9.52204
▁su	-9.52356
▁(s�rie	-9.52377
▁d'Europe	-9.52383
gu	-9.52429
-4	-9.52464
▁Bal	-9.52468
mann	-9.52477
▁S�	-9.52482
▁qu'une	-9.52495
▁radio	-9.52504
▁Roger	-9.52561
nu	-9.52724
▁Ren�	-9.52767
▁Palmar�s	-9.5279
ita	-9.52842
▁Fe	-9.52894
▁ar	-9.5301
▁Tre	-9.53117
▁J.-C.	-9.53146
▁Sta	-9.53215
▁�crivain	-9.53284
▁Ge	-9.53307
bus	-9.53326
▁championnat	-9.53357
▁serait	-9.53456
sen	-9.53464
igne	-9.53479
▁l'autre	-9.53513
▁Est	-9.53553
▁(R	-9.53574
court	-9.53586
▁principal	-9.53612
▁Bon	-9.53672
tch	-9.53696
▁1965	-9.53838
▁importante	-9.54029
2007	-9.54043
▁tri	-9.54045
▁Va	-9.54049
▁na	-9.54052
kin	-9.54076
▁(16	-9.54093
▁Saint-	-9.54164
▁Mu	-9.54172
▁Men	-9.5418
her	-9.54226
▁Nu	-9.5424
ata	-9.54527
▁Pr�	-9.54546
▁Bibliographie	-9.54607
▁City	-9.54614
▁avaient	-9.54692
▁am�ricaine	-9.54948
▁Pays-Bas	-9.54955
▁1956	-9.54962
▁semble	-9.55022
▁britannique	-9.55082
▁37	-9.55091
▁rock	-9.55106
▁situation	-9.552
▁lorsque	-9.55254
�tre	-9.55345
▁Vol	-9.55396
▁Ger	-9.55459
▁Gr�ce	-9.55532
▁blanc	-9.55535
mat	-9.55542
▁commence	-9.55666
▁cadre	-9.55686
▁im	-9.55748
▁coup	-9.55809
▁Bel	-9.55838
▁Sch	-9.5585
�on	-9.55935
yn	-9.55953
▁s'a	-9.55954
▁meilleur	-9.56226
▁Red	-9.56279
▁lequel	-9.56284
bel	-9.56308
▁Selon	-9.56314
#	-9.56336
▁pratique	-9.56351
▁comt�	-9.56367
aud	-9.56375
▁valeur	-9.56383
▁naissance	-9.56464
com	-9.56576
▁mon	-9.56731
▁caract�res	-9.56764
▁capitale	-9.56768
rio	-9.56778
▁d'�tat	-9.56779
▁victoire	-9.5679
▁grandes	-9.56793
mor	-9.56812
▁�dition	-9.5682
▁Star	-9.56873
▁professeur	-9.5689
▁Ch�teau	-9.57045
▁th�orie	-9.57068
▁1940	-9.57075
▁Bri	-9.57086
▁nouvelles	-9.57102
▁voyage	-9.57116
tr�	-9.57149
fe	-9.57149
tal	-9.57225
▁rang	-9.57346
▁Pat	-9.57521
▁eux	-9.57539
▁jusqu'en	-9.57697
▁1945	-9.57703
pt	-9.57898
bar	-9.57901
▁pr�sence	-9.57937
▁this	-9.58003
ric	-9.58073
▁test	-9.58103
illon	-9.58173
▁populaire	-9.58189
▁actuel	-9.58195
▁(le	-9.58207
▁Cho	-9.5821
▁R�f�rences	-9.58233
▁Maurice	-9.58267
▁39	-9.58284
▁imp	-9.58351
▁directeur	-9.58384
▁met	-9.58389
ski	-9.58444
▁(voir	-9.58533
▁t�l�vision	-9.58564
▁Grande	-9.5858
▁�pouse	-9.58607
▁You	-9.58788
▁prendre	-9.58799
▁noir	-9.58936
nier	-9.5895
▁has	-9.5903
▁s'en	-9.59107
ill	-9.59134
▁Col	-9.59186
▁US	-9.59246
▁histoire	-9.59248
▁commun	-9.59309
▁fond	-9.59397
dia	-9.5945
▁Bra	-9.59474
din	-9.59484
▁chemin	-9.59501
hr	-9.59558
▁chanson	-9.59592
▁sou	-9.59607
▁cit�	-9.59683
▁o	-9.59706
▁Santa	-9.59729
▁Fi	-9.59873
▁Bien	-9.5989
rou	-9.59954
vers	-9.60018
▁1936	-9.601
▁l'eau	-9.60142
▁Guy	-9.60178
▁M�daille	-9.60203
duc	-9.60231
ea	-9.6031
▁Wi	-9.60313
▁1959	-9.60344
▁also	-9.60444
▁ensemble	-9.6057
▁(3	-9.60578
▁1963	-9.60588
▁kg	-9.60593
cle	-9.60616
▁contient	-9.60631
▁Dan	-9.60641
ida	-9.60648
r.	-9.60723
▁vit	-9.60734
▁Er	-9.60811
▁Ki	-9.60828
▁1958	-9.60895
er,	-9.60961
▁ans.	-9.60983
▁journal	-9.61026
▁Soci�t�	-9.61034
dor	-9.61048
ik	-9.61184
▁ch	-9.61258
bre	-9.61268
▁van	-9.61326
▁Com	-9.6135
▁lui-m�me	-9.61446
i,	-9.61495
▁Jeux	-9.61507
▁trans	-9.61581
low	-9.61585
▁l'ordre	-9.6159
▁Ya	-9.61613
cer	-9.61626
�o	-9.61649
har	-9.61663
ques	-9.61671
ef	-9.61712
▁pre	-9.6173
ies	-9.61756
▁R�gne	-9.61834
▁cour	-9.61877
▁#	-9.61939
▁Wa	-9.61944
iers	-9.6202
▁r�f�rence	-9.62099
teur	-9.62125
�te	-9.62143
▁peintre	-9.62154
ura	-9.62251
▁(N	-9.62257
▁march�	-9.62441
▁Albert	-9.62452
bat	-9.62473
▁Mag	-9.62478
▁were	-9.62531
ssa	-9.62535
oir	-9.62549
cre	-9.62575
▁l'est	-9.62714
▁dessin�e	-9.62831
lier	-9.62867
ial	-9.62886
▁nature	-9.62899
▁peuple	-9.62925
▁surface	-9.62977
tage	-9.63013
▁Dieu	-9.6307
▁Disney	-9.63106
-P	-9.6314
met	-9.63153
▁Plus	-9.63247
ros	-9.63251
og	-9.63268
▁Marcel	-9.63386
▁Sources	-9.63462
▁Fer	-9.63483
�ne	-9.63504
▁l'ensemble	-9.63563
▁mill�naire	-9.63563
▁Carri�re	-9.63586
▁mettre	-9.63603
▁d'argent	-9.63638
▁physique	-9.63726
-8	-9.63732
▁H�	-9.63763
▁prince	-9.63804
▁retrouve	-9.63812
y,	-9.63878
ord	-9.63885
▁passage	-9.63917
▁actrice	-9.6399
▁Saison	-9.64026
▁rapidement	-9.64032
▁g�n�rale	-9.64032
▁1.	-9.64045
▁�les	-9.64053
▁Ku	-9.64072
▁suivant	-9.64119
▁sport	-9.64126
sch	-9.64445
ello	-9.6445
▁Angleterre	-9.64515
▁1961	-9.64518
▁?B	-9.64586
gre	-9.64665
ish	-9.64674
[2]	-9.64729
▁rugby	-9.6485
▁Musique	-9.6486
▁qualit�	-9.64902
▁1944	-9.64919
vol	-9.6498
▁heures	-9.65049
▁Black	-9.65148
▁Gra	-9.6516
▁M�	-9.65166
▁Del	-9.65197
▁1954	-9.65232
▁troupes	-9.65237
▁mm	-9.6524
▁Che	-9.65325
▁reconnu	-9.65351
▁2007,	-9.6543
iano	-9.65439
▁quartier	-9.65456
ative	-9.65519
▁nuit	-9.65554
aires	-9.65565
yer	-9.656
▁communaut�	-9.65618
▁sp	-9.65641
▁L'A	-9.65644
▁l'Universit�	-9.65677
▁Su�de	-9.65681
▁compagnie	-9.65709
ec	-9.65744
▁Fo	-9.65797
▁suivante	-9.65808
▁l'une	-9.65938
▁mar	-9.65994
▁L'a	-9.66018
▁Min	-9.66089
]])	-9.66124
▁1952	-9.66137
bri	-9.66147
▁pr�sent	-9.66222
▁Tor	-9.66247
ning	-9.66305
▁etc.	-9.66315
▁Sigles	-9.66328
ule	-9.66357
sso	-9.66408
s]]	-9.66432
▁station	-9.66493
▁d'en	-9.6652
-6	-9.66537
len	-9.66549
▁Smith	-9.66639
▁construit	-9.66706
on,	-9.66724
ane	-9.6684
▁�glise	-9.66878
▁�v�nements	-9.66889
▁Rock	-9.66953
shi	-9.67015
▁principalement	-9.67017
▁classe	-9.67033
t.	-9.6716
▁Tom	-9.67178
▁internationale	-9.67211
tis	-9.67225
▁villes	-9.67231
▁Groupe	-9.67233
all	-9.67269
▁Division	-9.67285
▁(?	-9.67425
particuli�rement	-9.67485
▁Dur	-9.6749
▁faisant	-9.67517
▁pont	-9.67552
▁multim�dia	-9.67568
▁cha	-9.67621
▁mod�le	-9.67628
ult	-9.67643
▁41	-9.67669
▁Afrique	-9.67692
The	-9.67718
▁1946	-9.67776
▁Port	-9.67835
dre	-9.67873
our	-9.6789
▁47	-9.67909
▁Anne	-9.67919
+	-9.67951
▁premi�res	-9.67953
▁King	-9.67966
▁services	-9.68131
▁Comt�	-9.682
▁transport	-9.68209
▁Mel	-9.68216
▁d�taill�e	-9.68237
▁cm	-9.68323
▁comp	-9.68333
▁1948	-9.68335
tur	-9.6837
ture	-9.68394
▁Stade	-9.68437
▁taille	-9.68451
▁Lyon	-9.68497
▁vitesse	-9.68516
ther	-9.68533
▁44	-9.68543
▁footballeur	-9.68625
▁Nicolas	-9.68748
ag	-9.68785
▁court	-9.68821
ula	-9.68822
▁Fu	-9.68893
way	-9.68896
▁Open	-9.68909
▁publi�	-9.68935
▁pris	-9.69047
▁man	-9.69053
▁accord	-9.69142
ney	-9.69168
▁jeunes	-9.69174
▁trait�	-9.69188
▁Sol	-9.6924
▁ad	-9.69243
isse	-9.69264
ges	-9.69269
▁mode	-9.69352
▁commerce	-9.69367
▁�ge	-9.69497
▁other	-9.69501
ches	-9.69563
▁43	-9.6958
▁?(en)	-9.69643
▁Mark	-9.69717
▁politiques	-9.69756
▁groupes	-9.69778
▁royaume	-9.69901
▁qu'on	-9.69937
▁2002,	-9.69949
▁Type	-9.70105
▁�l�ments	-9.70113
�a	-9.70204
▁Parcour	-9.70281
▁�cole	-9.70283
ose	-9.70326
▁question	-9.70406
-5	-9.70406
▁produits	-9.70439
▁Commons	-9.70443
pro	-9.70495
▁XXe	-9.70519
▁L'�	-9.70531
▁jou�	-9.70584
▁57	-9.70618
▁von	-9.70626
ants	-9.70664
[2].	-9.70766
▁Monde	-9.70782
▁fran�ais.	-9.70844
▁01	-9.7092
▁municipalit�	-9.70935
▁Hi	-9.70969
▁Pri	-9.70972
▁techniques	-9.71069
ble	-9.71074
2006	-9.71113
▁Serbie	-9.71126
▁Fran�ais	-9.71137
▁ci	-9.7114
▁Beau	-9.71175
▁Pre	-9.71251
▁�pisode	-9.71347
▁structure	-9.71429
ical	-9.71537
▁1957	-9.71538
▁http://www.	-9.71568
▁m�decine	-9.71644
▁saint	-9.71679
▁Ch	-9.7175
▁signifie	-9.71819
▁l'E	-9.71828
▁s'il	-9.71873
▁Historique	-9.71946
vant	-9.72
▁sciences	-9.72003
iel	-9.72107
so	-9.7216
we	-9.72238
▁Deux	-9.72249
ser	-9.72286
ting	-9.72311
▁Frank	-9.72357
▁Source	-9.72376
▁effet,	-9.72394
cur	-9.72496
▁49	-9.72504
▁International	-9.72532
▁XV	-9.7255
ert	-9.72561
▁certain	-9.72565
uc	-9.72636
ori	-9.72851
▁46	-9.72875
▁utilis�e	-9.72928
▁(4	-9.72993
▁Ke	-9.73059
▁h	-9.73106
is�e	-9.73114
▁American	-9.73153
▁Localisation	-9.73195
nant	-9.73204
▁b?	-9.73223
▁ju	-9.7323
▁Dar	-9.73231
▁ro	-9.73291
▁West	-9.73316
die	-9.73359
pre	-9.73363
▁Australie	-9.73376
ret	-9.73543
▁terrain	-9.73544
▁i	-9.73578
▁russe	-9.73613
▁bonne	-9.73617
▁actuellement	-9.73687
-7	-9.73701
ford	-9.73715
▁Alain	-9.73723
▁Montr�al	-9.73763
▁voie	-9.73787
].	-9.7391
rit	-9.73958
▁Air	-9.7402
▁r�alisateur	-9.74036
▁'''	-9.74082
▁2006,	-9.74095
2005	-9.74116
▁Pologne	-9.74158
▁Her	-9.74179
▁source	-9.7421
▁Londres	-9.74216
.com/	-9.74217
▁1953	-9.74221
ore	-9.74222
▁1955	-9.74269
ines	-9.7438
bou	-9.74403
▁divers	-9.74548
ign	-9.74558
▁Bro	-9.74605
▁Sou	-9.74606
▁appel�e	-9.74617
▁elles	-9.74673
▁Luc	-9.74691
▁voit	-9.74696
▁centrale	-9.74701
▁qu'�	-9.74737
end	-9.74776
▁1930	-9.74826
ction	-9.74854
xi	-9.7488
ren	-9.7495
non	-9.74965
▁C.	-9.75012
lli	-9.75076
ces	-9.75081
▁social	-9.75104
▁d�part	-9.75184
▁sc	-9.75283
ment,	-9.75329
▁vient	-9.75361
enne	-9.75416
ures	-9.7542
▁District	-9.75451
▁proche	-9.75454
cus	-9.75457
ight	-9.75571
▁Portugal	-9.75576
ast	-9.75639
-G	-9.75701
�le	-9.75717
▁l'homme	-9.75717
▁devenu	-9.75851
▁Maria	-9.7592
▁vide,	-9.75931
kh	-9.75931
del	-9.7608
▁1939	-9.76133
▁Roman	-9.76136
▁fond�e	-9.7617
az	-9.76177
eu	-9.76193
▁fond�	-9.76229
uk	-9.7623
oul	-9.76286
ip	-9.76298
▁Guillaume	-9.76315
dou	-9.76328
▁bienvenue	-9.7638
su	-9.76428
▁nos	-9.76441
ima	-9.76485
▁comprend	-9.76532
▁d'I	-9.76605
▁l'Italie	-9.76619
▁56	-9.76647
▁Champion	-9.7668
▁52	-9.76689
▁Mai	-9.76691
rac	-9.76692
▁matchs	-9.76699
▁total	-9.76718
▁Cal	-9.76746
wi	-9.76781
▁faible	-9.76845
▁mus�e	-9.76889
▁sub	-9.76983
▁Ou	-9.77041
▁51	-9.77042
▁�tats	-9.77199
▁ga	-9.77221
▁l'�ge	-9.77338
▁bar	-9.77366
king	-9.77435
i�	-9.77463
und	-9.77467
▁gra	-9.77511
▁[[Category:	-9.7754
▁L.	-9.77546
▁pi	-9.77546
▁nouveaux	-9.77555
erie	-9.7762
▁incompl�te.	-9.77757
▁(de	-9.77885
▁vin	-9.77942
▁Henry	-9.77956
field	-9.78049
▁informations	-9.78071
▁Inter	-9.78084
▁entreprises	-9.78144
t,	-9.78148
▁d'Ar	-9.78162
hl	-9.78177
Le	-9.78201
▁gare	-9.78211
▁(1)	-9.78263
hn	-9.7828
▁XVIIIe	-9.78313
revision	-9.78328
▁circonscription	-9.78343
▁publique	-9.78357
▁principaux	-9.78416
▁Los	-9.7842
▁Island	-9.78576
▁puissance	-9.7861
▁Consult�	-9.78643
▁joueurs	-9.78709
▁48	-9.78731
off	-9.78751
▁l'ouest	-9.78784
▁2007.	-9.78826
quet	-9.78846
▁maire	-9.78858
▁europ�enne	-9.78869
osa	-9.78895
▁forces	-9.78905
▁rend	-9.78965
▁feu	-9.78992
▁University	-9.79007
▁53	-9.7908
ome	-9.7912
▁a?	-9.79132
cia	-9.79132
▁Maison	-9.79215
tta	-9.7931
▁vall�e	-9.79379
▁Petit	-9.7944
▁relative	-9.79449
▁l'album	-9.79477
▁tandis	-9.79525
▁Cependant,	-9.79562
ages	-9.79676
▁qu'en	-9.7968
mm	-9.79879
▁plut�t	-9.79896
elli	-9.79909
▁1947	-9.79916
▁54	-9.79948
▁w	-9.79988
gin	-9.80021
▁(fr)	-9.80115
▁Votr	-9.80189
▁CD	-9.8019
▁1920	-9.8021
▁d'apr�s	-9.80235
▁(Source	-9.80291
form	-9.80338
contributor	-9.80352
ato	-9.80375
▁mission	-9.80438
▁devint	-9.8045
▁sort	-9.80526
▁programme	-9.80534
▁Ser	-9.80582
2004	-9.80618
▁[[S	-9.80635
▁Web	-9.80638
▁Park	-9.80658
▁allemande	-9.80804
une	-9.80821
▁Tar	-9.81033
▁May	-9.81048
-9	-9.81137
nelle	-9.81163
ow	-9.81219
▁1949	-9.81234
illa	-9.8124
▁(15	-9.81283
▁Mus�e	-9.81446
▁2005,	-9.81487
▁55	-9.81532
▁Non	-9.81548
▁d�cide	-9.81607
▁400	-9.81682
▁A.	-9.81725
s:	-9.81768
▁v�ritable	-9.81853
▁jusqu'au	-9.81854
▁num�ro	-9.81929
▁Sha	-9.8195
▁Bru	-9.81956
▁presse	-9.8198
dis	-9.82012
▁web	-9.82047
ken	-9.82052
ena	-9.82064
�rent	-9.82068
ira	-9.82071
▁aucun	-9.8213
▁one	-9.82201
ban	-9.82334
▁�tape	-9.82399
pri	-9.82403
▁c?ur	-9.82495
▁As	-9.82514
▁caract�ristique	-9.82545
▁Olympiques	-9.82578
▁Cer	-9.82579
▁Sam	-9.82589
▁r�gne	-9.82646
▁(V	-9.82652
▁Jack	-9.82726
o-	-9.82735
ray	-9.82747
▁critique	-9.82794
dra	-9.82837
▁Seconde	-9.82903
▁t�l�	-9.82932
▁films	-9.82934
▁64	-9.83035
▁personnages	-9.8304
bal	-9.83059
naire	-9.83156
sco	-9.83157
▁who	-9.83163
▁nu	-9.83174
ste	-9.83241
▁n'y	-9.83287
▁d�c�d�	-9.83309
serv	-9.83358
▁Ann�es	-9.83451
▁1951	-9.83488
▁parc	-9.8355
ode	-9.83729
▁n�e	-9.8376
zzo	-9.838
▁their	-9.83819
in,	-9.83837
l�e	-9.83853
▁At	-9.83946
▁esp�ce	-9.83948
ct	-9.84013
▁moderne	-9.84022
▁R�volution	-9.84088
▁Lors	-9.84092
▁fi	-9.84111
ions	-9.84112
[3]	-9.84175
ZZ	-9.842
▁its	-9.84202
oire	-9.84222
▁Vainqueur	-9.84262
▁(H	-9.84268
▁n'	-9.84277
▁2004,	-9.84351
quin	-9.84438
lia	-9.84459
▁consid�r�	-9.84508
▁buts	-9.84523
▁lac	-9.84622
▁l'en	-9.84696
tent	-9.84699
▁300	-9.84726
▁Naissance	-9.84728
▁permettant	-9.84813
zza	-9.84833
▁auteur	-9.84909
bra	-9.84923
▁(I	-9.85002
▁l'universit�	-9.85032
▁eut	-9.85044
▁Fort	-9.85081
▁courant	-9.85117
�c	-9.85157
La	-9.85159
▁>	-9.85169
▁droits	-9.85177
▁tels	-9.85227
▁Dur�e	-9.85238
▁participe	-9.853
▁Han	-9.85336
▁continue	-9.85348
▁conditions	-9.85384
▁ancienne	-9.85396
▁Far	-9.85408
▁passer	-9.85471
▁majorit�	-9.85503
ments	-9.85506
▁1942	-9.8552
▁tournoi	-9.85564
gna	-9.85574
▁l'art	-9.85593
ides	-9.85595
bon	-9.85615
▁couleur	-9.85628
▁cap	-9.8564
▁cr��e	-9.85668
▁d'Al	-9.85676
▁donner	-9.85681
▁campagne	-9.85698
▁l'O	-9.85701
▁non-	-9.8578
lla	-9.85813
▁propos	-9.85868
▁pr�c�dent	-9.85998
gne	-9.86024
▁Tout	-9.86055
ans	-9.86126
▁concept	-9.86172
▁pi�ces	-9.86181
lant	-9.86191
▁lo	-9.86297
ich	-9.86311
▁Bay	-9.86339
▁Mc	-9.86481
▁Roi	-9.86484
▁sociale	-9.86591
▁Pendant	-9.86601
cri	-9.86671
▁sorte	-9.86713
ras	-9.86795
chant	-9.86799
▁champion	-9.86883
▁Sp	-9.86959
▁Raymond	-9.8696
▁charg�	-9.86989
cro	-9.86993
▁religion	-9.87037
▁petits	-9.87052
ero	-9.87138
▁??????	-9.87267
▁camp	-9.87315
▁obtient	-9.87321
▁montagne	-9.8739
cou	-9.87433
▁Berlin	-9.87479
▁lettre	-9.87558
▁D�s	-9.87571
gues	-9.87581
▁Bor	-9.87715
▁l	-9.87733
▁haute	-9.87738
▁secteur	-9.87742
▁Land	-9.87861
▁contenu	-9.87893
issant	-9.87946
▁�diteur	-9.87966
▁fil	-9.87982
▁s�curit�	-9.87996
▁S.	-9.88088
�d	-9.88227
gra	-9.88258
lic	-9.88268
▁dire	-9.88356
▁Statut	-9.8837
▁65	-9.88373
▁R.	-9.88383
▁1914	-9.88384
▁Ros	-9.8839
▁principale	-9.88407
▁min	-9.88465
▁record	-9.88475
gard	-9.88479
▁pi�ce	-9.88481
▁vivant	-9.88519
ada	-9.88527
mus	-9.88606
▁l'Union	-9.88723
▁officielle	-9.88741
▁c'est-�-dire	-9.88776
▁doivent	-9.88776
-de-	-9.88812
▁Vie	-9.88834
stre	-9.88942
▁Rou	-9.8901
ati	-9.89012
▁D'autres	-9.89057
-sur-	-9.89118
▁?C	-9.89126
▁???????	-9.89185
▁Ram	-9.89242
▁sup�rieur	-9.89329
dent	-9.89416
▁lutte	-9.89473
▁tra	-9.89485
▁sept	-9.89526
▁Cro	-9.89556
▁1935	-9.89561
n�e	-9.89595
▁libres	-9.896
▁Pen	-9.89604
ep	-9.898
of	-9.89893
sson	-9.89898
▁Gen	-9.89918
▁libert�	-9.89933
▁remporte	-9.89949
▁�lectrique	-9.89994
▁coupe	-9.90017
▁had	-9.90034
yl	-9.90071
ted	-9.90139
▁===	-9.90165
▁vu	-9.90168
iv	-9.90173
▁d'expression	-9.90173
rant	-9.9019
▁Bretagne	-9.90254
▁re�u	-9.90255
▁?M	-9.90306
zz	-9.90405
▁Mus	-9.90419
▁1938	-9.90456
zu	-9.90462
▁d�put�	-9.90573
▁Championnats	-9.90635
▁go	-9.90641
▁prise	-9.90673
af	-9.90711
▁Hy	-9.90723
ssent	-9.90792
▁PS	-9.90798
▁Villa	-9.9081
-16	-9.90826
igny	-9.90857
▁devenir	-9.90863
▁seigneur	-9.90905
issement	-9.90918
et,	-9.9093
▁situe	-9.90952
▁l'ex	-9.91038
▁change	-9.91107
aro	-9.9124
jou	-9.91252
▁sup�rieure	-9.91438
tif	-9.91488
[[	-9.91509
▁''[[	-9.91518
▁cou	-9.91522
▁Jos�	-9.91524
▁chant	-9.91566
▁Distribution	-9.91585
▁longue	-9.91599
uf	-9.91602
nement	-9.91618
▁P.	-9.91649
▁ma�tre	-9.91651
▁F�d�ration	-9.91704
qu�	-9.91733
▁59	-9.91734
ase	-9.91742
▁mandat	-9.91743
uff	-9.91765
mis	-9.91775
▁final	-9.91791
▁scientifique	-9.91809
nay	-9.91863
▁r�giment	-9.9191
▁celui-ci	-9.91921
ld	-9.92
▁�quipes	-9.92027
▁issu	-9.92074
cul	-9.92138
▁aucune	-9.92173
▁ordre	-9.92182
ami	-9.92191
▁TV	-9.92193
uel	-9.92228
nia	-9.92229
▁1937	-9.92236
ala	-9.92317
▁God	-9.9245
▁romaine	-9.92519
▁connue	-9.92547
oni	-9.92556
lais	-9.92639
▁--	-9.92663
▁presque	-9.92682
▁revue	-9.92684
t�r	-9.92696
▁mariage	-9.92809
▁Long	-9.92824
ated	-9.9284
▁fonctions	-9.92848
rain	-9.9289
▁1943	-9.9289
▁garde	-9.92999
side	-9.93005
ug	-9.9303
▁journaliste	-9.93071
▁Victor	-9.9308
bor	-9.9309
▁rien	-9.93115
▁Alexandre	-9.93116
▁?A	-9.93188
▁livres	-9.93192
▁more	-9.93264
▁finalement	-9.93268
ave	-9.93274
▁58	-9.93306
ago	-9.93311
cor	-9.93344
▁gestion	-9.93358
▁m�moire	-9.9336
▁Gri	-9.93404
lat	-9.93421
▁75	-9.93442
▁Gro	-9.93576
▁pape	-9.93604
▁profit	-9.93661
▁support	-9.93704
-F	-9.93734
▁forte	-9.93746
▁Bob	-9.93755
▁caract�re	-9.93799
▁r�gime	-9.938
▁Belle	-9.93869
▁collection	-9.93912
▁titres	-9.93929
▁inconnu	-9.93986
n�s	-9.93988
▁po�te	-9.93994
o,	-9.94013
▁Kar	-9.94027
pon	-9.94073
▁mont	-9.94077
▁Patrick	-9.94096
▁difficile	-9.94188
▁Var	-9.9419
▁Tan	-9.94316
uch	-9.94331
▁unique	-9.94341
gno	-9.94353
ky	-9.94364
sky	-9.94366
▁Rio	-9.94452
gy	-9.94455
▁Prince	-9.94489
▁grec	-9.94501
▁(L	-9.94501
ona	-9.9451
spect	-9.94583
▁basse	-9.94676
aceae	-9.94717
▁ami	-9.94726
▁bal	-9.94816
▁INSEE[1])	-9.94821
▁catholique	-9.94847
▁Lou	-9.94896
ente	-9.94988
nom	-9.95018
ense	-9.95037
▁correspond	-9.95072
ui	-9.95084
rom	-9.9509
▁suivi	-9.95112
▁latin	-9.95117
bin	-9.95164
ssant	-9.9517
▁Festival	-9.95197
▁Laurent	-9.9522
▁langues	-9.9523
lect	-9.95275
▁Th��tre	-9.95278
dal	-9.95283
▁intitul�	-9.95406
▁Mou	-9.95478
")	-9.95539
▁G�	-9.95543
▁dix	-9.95546
pan	-9.95581
gel	-9.95592
ls	-9.9561
▁Ol	-9.9561
nis	-9.95636
vit	-9.95655
▁hockey	-9.95656
▁1941	-9.95687
ppe	-9.95719
▁(la	-9.95842
▁d�signe	-9.95847
illy	-9.95866
▁1932	-9.95873
▁[1]	-9.95886
vie	-9.95888
▁1931	-9.959
▁doute	-9.95938
▁police	-9.95974
lar	-9.95983
▁fran�ais,	-9.96019
dan	-9.96021
▁02	-9.96046
▁Production	-9.96049
▁super	-9.96062
▁respect	-9.96128
▁belge	-9.96154
ault	-9.96191
▁Paris.	-9.96206
▁protection	-9.96219
▁anti	-9.96305
▁gaz	-9.96315
▁Am�rique	-9.96332
▁d�fense	-9.96339
ets	-9.96375
▁salle	-9.96405
▁lu	-9.96493
▁Bur	-9.96537
hen	-9.96594
bour	-9.96624
tive	-9.96649
▁rou	-9.96692
▁Milan	-9.96733
▁Finlande	-9.96745
▁principe	-9.96777
▁carte	-9.96791
▁statut	-9.968
▁Simon	-9.96847
▁kilom�tres	-9.96887
ok	-9.969
ei	-9.96989
▁G�rard	-9.9705
▁tradition	-9.97091
▁pal	-9.97109
▁Mur	-9.97183
▁Sun	-9.97209
iti	-9.97237
ain	-9.97273
▁Tro	-9.97292
▁rec	-9.97313
▁Day	-9.97453
▁Meilleur	-9.97527
▁H.	-9.97597
rat	-9.97611
▁Antoine	-9.97644
▁rejoint	-9.97729
▁veut	-9.9773
▁sous-	-9.97763
▁l'auteur	-9.97829
▁Bill	-9.97833
▁Max	-9.97834
ram	-9.97841
▁fondation	-9.97855
▁char	-9.97856
▁central	-9.97952
▁communication	-9.9796
▁savoir	-9.98011
▁appel	-9.98033
tus	-9.98048
▁(O	-9.98067
▁cr�e	-9.98124
dit	-9.98144
▁relations	-9.98178
▁Gor	-9.98194
▁This	-9.98217
▁Moyen	-9.9826
▁compositeur	-9.98261
▁Sar	-9.98397
ables	-9.98452
▁Angeles	-9.98495
▁�pisodes	-9.98542
▁[http://www.	-9.98558
▁Shi	-9.98583
▁activit�s	-9.98597
bb	-9.98612
qu	-9.98632
oy	-9.98672
▁first	-9.98703
▁Jean-Pierre	-9.9871
▁appara�t	-9.98773
▁champ	-9.98776
▁Yu	-9.98788
▁pied	-9.98844
▁(5	-9.98871
▁?T	-9.98895
▁Records	-9.9901
▁l'I	-9.99048
stro	-9.99073
OS	-9.99133
▁And	-9.99144
▁Langue	-9.99175
▁Cra	-9.99176
▁italienne	-9.99233
▁Animalia	-9.99264
▁pri	-9.99396
▁d'art	-9.99398
▁Christ	-9.9945
▁2.	-9.99457
llo	-9.99519
▁She	-9.99522
ism	-9.99525
▁Union	-9.99565
▁course	-9.99577
▁�conomie	-9.99669
▁Mad	-9.997
▁malgr�	-9.99706
ost	-9.99762
pen	-9.99765
▁r�gions	-9.99775
▁Mat	-9.99789
▁ru	-9.9981
▁Marseille	-9.99836
▁re�oit	-9.9988
▁Mort	-9.99912
▁notre	-9.99974
▁Bas	-9.99977
hy	-9.99981
tti	-10.0003
▁G.	-10.0005
rd	-10.0006
▁traitement	-10.0012
▁repr�sente	-10.0014
gro	-10.0017
th�	-10.0019
ne,	-10.0021
yo	-10.0023
▁Washington	-10.003
▁Music	-10.0032
▁choix	-10.0034
▁sang	-10.0035
▁juge	-10.0037
▁1934	-10.0037
vert	-10.004
ute	-10.0042
▁Filmographie	-10.0043
▁l'Allemagne	-10.0045
▁Boy	-10.0053
▁cent	-10.0059
tit	-10.006
tom	-10.0061
ral	-10.0062
eaux	-10.0062
▁bassin	-10.0062
▁2003,	-10.0065
▁probl�me	-10.0078
r�f.	-10.0081
ries	-10.0092
▁Pin	-10.0094
arch	-10.0104
▁River	-10.0121
▁enfin	-10.0126
▁XVIIe	-10.0127
▁????	-10.014
ER	-10.0145
▁l'Acad�mie	-10.0145
▁exemple,	-10.0145
▁mo	-10.0153
▁chanteur	-10.0158
tar	-10.0162
▁mou	-10.0166
cra	-10.0168
▁Cre	-10.017
ual	-10.0171
▁r�alisation	-10.0174
▁paix	-10.0174
▁disponibles	-10.0175
▁4e	-10.0176
▁VI	-10.0177
▁quelque	-10.0177
▁Royal	-10.0178
▁Hor	-10.018
▁Radio	-10.0183
rier	-10.0183
▁utilise	-10.019
▁com	-10.0195
ison	-10.0196
ss�	-10.0198
rum	-10.0199
▁longtemps	-10.02
zer	-10.0206
▁Fra	-10.0218
▁(2)	-10.0222
cept	-10.0223
gui	-10.0229
▁choisi	-10.0235
▁vent	-10.0245
ensis	-10.0246
▁li	-10.0248
▁been	-10.0248
▁producteur	-10.0251
▁Os	-10.0256
tain	-10.0256
r�e	-10.0257
▁rapide	-10.0263
�ro	-10.0263
mir	-10.0264
▁d'ailleurs	-10.0265
mond	-10.0273
cier	-10.0274
bourg	-10.0286
▁Big	-10.0291
rich	-10.0291
▁romain	-10.0293
▁Ministre	-10.0293
▁distance	-10.0295
▁Entre	-10.0296
▁D�but	-10.0312
ua	-10.0314
▁(avec	-10.0322
ple	-10.0328
▁glace	-10.0334
▁Ze	-10.0347
▁mati�re	-10.0349
cker	-10.035
100	-10.0369
-15	-10.0377
▁temp�rature	-10.0378
▁1926	-10.0379
▁Tableau	-10.0381
▁chapelle	-10.0388
▁auto	-10.0388
IN	-10.0391
-12	-10.0391
▁Bataille	-10.0391
▁North	-10.0393
▁Fr�d�ric	-10.0394
▁trouver	-10.0394
▁Pol	-10.0402
(fr)	-10.0405
▁s'�	-10.0405
▁Cas	-10.0409
▁Dor	-10.0416
▁contraire	-10.0416
▁Thi	-10.0417
▁(W	-10.0428
▁1933	-10.0432
mini	-10.0432
mu	-10.0444
▁seront	-10.045
▁suit	-10.0453
ib	-10.0454
▁signe	-10.0455
▁l'an	-10.0457
▁Green	-10.0459
▁about	-10.0461
▁Eu	-10.0462
▁futur	-10.0464
▁Si�ge	-10.0465
▁Maroc	-10.0469
▁fa	-10.0475
[3].	-10.0475
▁Bla	-10.0481
)|	-10.0491
▁Certains	-10.0492
nn	-10.0497
part	-10.0507
&lt;br&gt;	-10.0511
▁train	-10.0512
▁Rose	-10.0515
ace	-10.0519
▁moiti�	-10.0521
▁atteint	-10.0522
▁Pic	-10.0525
▁(La	-10.0529
▁G�n�ral	-10.053
▁ver	-10.0531
▁03	-10.0531
▁Mas	-10.0535
▁longueur	-10.054
tsu	-10.0548
▁LNH	-10.055
▁d�cision	-10.0551
▁juste	-10.0552
▁relation	-10.0552
▁figure	-10.0552
▁United	-10.0552
phi	-10.0557
▁montre	-10.0563
-K	-10.0565
atif	-10.0567
▁Livre	-10.0568
▁l'int�rieur	-10.0569
ition	-10.0569
▁E.	-10.057
lig	-10.0571
▁Carl	-10.0572
▁Football	-10.0572
▁ab	-10.0575
▁Cri	-10.0576
▁chambre	-10.0579
rus	-10.058
▁150	-10.058
▁rendre	-10.058
▁Trans	-10.0581
▁hors	-10.0582
nais	-10.0586
▁Ly	-10.0588
▁celles	-10.0596
▁vo	-10.0601
▁([[	-10.0605
▁1928	-10.0606
▁Cam	-10.0607
▁philosophie	-10.0608
▁Ainsi,	-10.0611
burg	-10.0612
▁Cat	-10.0617
tions	-10.0618
▁Dis	-10.0619
tour	-10.0626
▁Synopsis	-10.0627
▁"S	-10.0629
▁Vienne	-10.0629
▁Ste	-10.063
▁||	-10.0632
▁Finale	-10.0633
▁76	-10.0638
▁parties	-10.0639
▁prison	-10.0641
&gt;	-10.0641
▁compos�e	-10.0641
▁Gal	-10.0643
chen	-10.0663
▁Ali	-10.0664
las	-10.0668
▁religieux	-10.0676
z�	-10.0676
▁Inde	-10.0681
▁(K	-10.0685
ieux	-10.0687
▁some	-10.0689
▁Coordonn�es	-10.0695
▁ob	-10.0696
lay	-10.0696
▁Sous	-10.07
zy	-10.0701
▁?P	-10.0702
ffe	-10.0704
▁l'occasion	-10.0715
▁www.	-10.0715
▁ja	-10.0721
aki	-10.0722
gh	-10.0723
▁form�	-10.0723
▁Lac	-10.0724
▁6-3	-10.0725
▁h�	-10.0725
2000	-10.0727
gor	-10.0728
▁Qui	-10.0728
bas	-10.0735
lor	-10.0738
▁Ban	-10.0742
▁L�on	-10.0746
bit	-10.0746
▁maintenant	-10.0754
▁hauteur	-10.0757
illes	-10.0759
aga	-10.076
?)	-10.076
kov	-10.076
▁historiques	-10.0769
uit	-10.077
▁loin	-10.078
nal	-10.0781
AN	-10.0782
▁Act	-10.0783
▁lumi�re	-10.0783
▁Gui	-10.0785
▁compl�te	-10.0788
▁Ter	-10.0791
▁climat	-10.0791
▁Of	-10.0794
▁72	-10.0797
▁art	-10.0797
ett	-10.0798
-E	-10.0804
▁contrat	-10.0804
▁l'Empire	-10.0806
▁Stra	-10.0809
▁Ten	-10.0813
▁One	-10.0815
▁terres	-10.0824
eff	-10.083
▁directement	-10.083
nne	-10.0831
i�res	-10.0837
ator	-10.0844
▁complet	-10.0844
poli	-10.0848
illi	-10.0848
▁probl�mes	-10.0855
vier	-10.0856
▁tombe	-10.0858
▁devait	-10.0865
▁phase	-10.0865
▁couleurs	-10.0868
▁f�minin	-10.087
▁n�cessaire	-10.0874
▁artistique	-10.0884
▁principales	-10.0884
▁Cy	-10.0885
▁col	-10.0886
▁Game	-10.0889
▁d�c	-10.0889
▁espagnol	-10.0891
▁ho	-10.0895
mou	-10.0896
are	-10.0899
▁limitrophes	-10.09
▁d'entre	-10.0905
▁1925	-10.091
lam	-10.091
▁mieux	-10.0912
▁form	-10.0917
▁battue	-10.0917
▁cr�er	-10.0921
▁traduit	-10.0922
▁White	-10.0923
▁{{	-10.0925
▁commande	-10.0925
▁1924	-10.0928
ps	-10.0931
▁sommet	-10.0938
▁Embranchement	-10.0942
▁l'op�rateur	-10.0943
▁Sen	-10.0943
rage	-10.0946
▁(par	-10.0951
▁[[B	-10.0951
▁d'ex	-10.0951
▁time	-10.0957
ick	-10.0959
▁�d.	-10.0961
▁derniers	-10.0966
not	-10.097
▁Serge	-10.0972
s"	-10.0975
▁permettent	-10.0975
▁diverses	-10.0981
▁Cur	-10.0982
▁1912	-10.0982
▁ici	-10.0983
▁Pra	-10.0984
▁attaque	-10.0988
▁fe	-10.0991
▁meurt	-10.0997
▁1911	-10.1004
AC	-10.1005
▁sovi�tique	-10.1008
2003	-10.1009
▁Lang	-10.1011
▁l'Europe	-10.1014
▁personnalit�	-10.1015
▁d�sormais	-10.1023
▁l'espace	-10.1023
ateurs	-10.1026
▁Bell	-10.103
▁Durant	-10.103
▁influence	-10.1033
▁royale	-10.1036
▁masse	-10.1037
▁�v�que	-10.1037
▁d�velopp�	-10.1038
ath	-10.104
▁fran�aises	-10.104
plo	-10.1052
-le-	-10.1056
▁inscrit	-10.1064
tiques	-10.1066
jan	-10.1068
▁taux	-10.1071
▁ti	-10.1075
ili	-10.1076
▁acc	-10.1081
ama	-10.1086
▁1929	-10.1086
�ri	-10.1089
▁capitaine	-10.1094
▁regroupe	-10.1094
▁[[A	-10.1104
gal	-10.1108
▁Hall	-10.1109
▁co�t	-10.1119
[4]	-10.1119
�n�	-10.1122
comp	-10.1123
▁fr	-10.1124
▁Culture	-10.1125
▁internes	-10.1126
▁votre	-10.1126
▁am	-10.1129
▁comporte	-10.113
taire	-10.1132
▁gros	-10.1133
▁construite	-10.1136
var	-10.114
▁Dr	-10.1144
▁antique	-10.1148
▁pourrait	-10.1148
▁totale	-10.1149
▁personnel	-10.115
▁secr�taire	-10.1151
▁Que	-10.1156
▁Scott	-10.1156
-10	-10.1156
▁l'objet	-10.1158
log	-10.1161
▁militaires	-10.1165
▁61	-10.117
▁Rob	-10.1172
▁used	-10.1175
phe	-10.118
▁compl�ter	-10.118
2002	-10.1183
▁ouvert	-10.1183
▁anciens	-10.1185
▁th	-10.1186
▁Dom	-10.1187
▁fronti�re	-10.1191
ographie	-10.1205
▁parents	-10.1206
cent	-10.1207
▁over	-10.1208
gli	-10.1209
mel	-10.121
▁Jules	-10.1213
▁moteur	-10.1218
▁fu	-10.1221
▁$	-10.1226
▁repr�sentant	-10.1227
▁totalit�	-10.1231
▁jouer	-10.1231
▁mari	-10.1236
▁contact	-10.1237
▁Nouvelle	-10.124
IS	-10.1241
amp	-10.1246
ime	-10.125
▁cha�ne	-10.1256
▁Live	-10.1263
▁1921	-10.1264
ology	-10.1265
▁Chris	-10.1268
-La	-10.1272
sis	-10.1274
▁04	-10.1277
▁Toulouse	-10.1283
tern	-10.1283
▁b�timent	-10.1284
▁four	-10.1289
alit�	-10.1295
▁perd	-10.1299
▁08	-10.1303
▁jo	-10.1304
▁professionnel	-10.1306
▁textes	-10.1315
▁calcul	-10.1317
▁reine	-10.1318
▁bas�	-10.1322
▁("	-10.1325
▁quitte	-10.1325
▁06	-10.133
▁lieux	-10.1331
▁Universit�	-10.1332
i)	-10.1358
nou	-10.1364
▁r�alit�	-10.1365
oise	-10.1366
ici	-10.1367
fin	-10.137
▁exp	-10.1372
▁constitue	-10.1373
▁venir	-10.1374
▁d'avoir	-10.1375
▁Ur	-10.1376
▁(2005)	-10.1383
▁1918	-10.1385
▁fleuve	-10.1393
▁probablement	-10.1397
ulaire	-10.1397
▁Jones	-10.1398
▁Francis	-10.1401
▁[[Image:	-10.1402
dd	-10.1402
▁vont	-10.1405
▁1927	-10.1412
▁armes	-10.1412
▁val	-10.1413
▁r�cit	-10.1413
▁peinture	-10.1414
▁marche	-10.1418
ier,	-10.1419
▁n'ont	-10.1425
ora	-10.1425
▁Tim	-10.1431
k�	-10.1432
▁(ext.)	-10.1435
-Ma	-10.1441
▁rive	-10.1447
▁most	-10.1449
▁el	-10.1453
ii	-10.1458
ON	-10.146
abilit�	-10.1461
ship	-10.1462
▁parce	-10.1462
▁r�sultat	-10.1464
▁C�te	-10.1465
▁bro	-10.1466
stan	-10.1471
▁concert	-10.1471
▁Nationalit�	-10.1473
▁Ph	-10.1484
-de	-10.1486
hin	-10.1489
▁1919	-10.1491
▁fran�aise.	-10.1495
▁XVIe	-10.1498
▁proximit�	-10.1498
▁soldats	-10.1503
▁socialiste	-10.1503
ssi	-10.1512
▁into	-10.1512
nge	-10.1515
▁Life	-10.1515
well	-10.1519
▁perdu	-10.1519
▁composition	-10.152
▁blanche	-10.1522
▁m�decin	-10.1524
pic	-10.1527
▁chacun	-10.1532
▁fusion	-10.1536
pos	-10.1537
day	-10.1541
▁AS	-10.1542
In	-10.1545
▁Kra	-10.1545
▁�coles	-10.1548
-V	-10.1549
▁action	-10.1551
▁Moscou	-10.1552
▁concerne	-10.1554
▁japonais	-10.1555
▁pression	-10.1556
stra	-10.1562
▁(Le	-10.1564
▁Ag	-10.1573
▁{	-10.1579
long	-10.1579
▁Bour	-10.158
▁d�mocratique	-10.1583
nat	-10.1589
esse	-10.159
▁for�t	-10.1591
och	-10.1595
roy	-10.1596
j�	-10.1599
▁Mars	-10.1601
▁originale	-10.1603
s).	-10.1609
▁suisse	-10.1611
▁Trois	-10.1612
▁belle	-10.1618
▁Cor�e	-10.1618
hor	-10.1619
Re	-10.1621
▁Caract�ristique	-10.1626
▁jazz	-10.1627
▁R�compenses	-10.1629
▁Place	-10.1631
▁dispose	-10.1632
agne	-10.1634
▁europ�en	-10.1635
gent	-10.1637
▁zones	-10.1647
▁Parmi	-10.165
▁pan	-10.1651
▁Classement	-10.1653
▁Chicago	-10.1654
▁standard	-10.1659
▁than	-10.166
▁Association	-10.166
▁lignes	-10.166
▁South	-10.1662
▁Pla	-10.1663
lio	-10.1664
▁Dia	-10.1666
▁W.	-10.1666
▁such	-10.1674
▁Leur	-10.1675
▁Parc	-10.168
▁2006.	-10.1681
▁Rang	-10.1683
▁partiellement	-10.1685
▁Lieu	-10.1686
-Ro	-10.1689
▁68	-10.1691
▁tir	-10.1692
▁d'Espagne	-10.1692
▁D�c�s	-10.1694
▁Bois	-10.1696
▁?Le	-10.17
▁Bus	-10.1701
▁dur�e	-10.1703
fo	-10.1706
▁�lev�	-10.1708
▁05	-10.1712
▁formes	-10.1718
nde	-10.1719
ox	-10.1723
▁Hongrie	-10.1725
gie	-10.1726
▁micro	-10.1727
▁62	-10.1727
▁l'Assembl�e	-10.1734
rot	-10.1734
▁sant�	-10.1736
▁Journal	-10.174
▁outre	-10.174
cc	-10.1743
▁poly	-10.1744
▁Joe	-10.1745
▁63	-10.1746
▁t�l�vis�e	-10.1746
▁propri�t�	-10.175
▁Mexique	-10.1752
▁regard	-10.1752
▁Quelques	-10.1756
▁Rod	-10.1758
▁essentiellement	-10.1759
▁signal	-10.1764
▁parle	-10.1768
▁Ham	-10.1771
▁Jim	-10.1778
▁two	-10.1778
rk	-10.1778
-H	-10.1779
pel	-10.1785
▁pierre	-10.1787
▁piano	-10.1794
▁d'Or	-10.1797
▁Neu	-10.18
▁l'air	-10.1801
win	-10.1807
▁toutefois	-10.1821
▁Angel	-10.1829
▁07	-10.1832
▁Mil	-10.1833
▁permis	-10.1834
▁r�sultats	-10.1835
▁Night	-10.1838
▁Wood	-10.1841
▁Rh	-10.1842
elles	-10.1842
▁chansons	-10.1843
▁classement	-10.1843
▁her	-10.1851
▁limite	-10.1855
AS	-10.1856
▁tours	-10.1857
▁l'ancien	-10.1858
-14	-10.186
tha	-10.1862
▁noire	-10.1863
▁r�volution	-10.1865
▁offre	-10.1868
▁disque	-10.1868
a�	-10.1874
▁langage	-10.1876
cin	-10.1876
▁autonome	-10.1887
▁vert	-10.1888
▁Quand	-10.1889
EL	-10.1891
Ma	-10.1893
▁maladie	-10.1895
▁c�	-10.1896
▁Ker	-10.1896
▁Camp	-10.1899
wer	-10.1901
aison	-10.1902
▁Williams	-10.1903
▁gouverneur	-10.1911
▁travaille	-10.1917
▁eaux	-10.1918
table	-10.1918
gou	-10.1925
dar	-10.1926
▁lit	-10.193
ern	-10.1933
▁Cela	-10.1937
▁f�d�ral	-10.1939
▁inf�rieur	-10.1943
▁via	-10.1944
ctor	-10.1948
▁dite	-10.195
ances	-10.1952
wood	-10.196
vor	-10.1965
}	-10.1966
▁civile	-10.1966
bli	-10.1971
▁guitare	-10.1971
ttes	-10.1972
▁quant	-10.1974
sia	-10.1974
▁vote	-10.1976
▁plein	-10.1981
▁(2006)	-10.1987
▁Empire	-10.1988
▁Power	-10.1988
▁chasse	-10.1998
▁88	-10.2007
500	-10.2011
▁Num�ro	-10.2013
▁they	-10.2014
▁1re	-10.2014
▁1913	-10.2015
▁Mike	-10.2017
▁direct	-10.2026
▁Juan	-10.2027
▁Bad	-10.2027
antes	-10.2028
▁front	-10.2037
▁R�sultats	-10.204
▁maritime	-10.2043
▁Brown	-10.2044
▁tourn�e	-10.2044
▁Ann�e	-10.2049
vu	-10.2062
&amp;	-10.2067
▁Sport	-10.2068
▁vi	-10.2069
▁d�couverte	-10.2074
▁Ron	-10.2079
mas	-10.208
▁majeur	-10.208
▁bleu	-10.2084
===	-10.2085
▁arr�t�	-10.2086
ind	-10.2092
▁huit	-10.2093
cip	-10.2095
▁2001-2008	-10.2099
▁peine	-10.2103
▁activit�	-10.2108
▁Tur	-10.2112
▁77	-10.2112
▁Die	-10.2116
▁g�n�ration	-10.2121
▁jaune	-10.2122
▁ski	-10.2122
▁Gentil�	-10.2124
lique	-10.2128
▁Im	-10.213
▁m�daille	-10.2132
▁T�	-10.2133
▁Nor	-10.2136
▁P�	-10.2136
▁traditionnelle	-10.2142
for	-10.2154
▁temps,	-10.2154
bes	-10.2155
▁mondial	-10.2164
▁(6	-10.2165
▁Turquie	-10.2166
▁disparu	-10.2166
▁justice	-10.2166
▁envoy�	-10.2167
ie,	-10.2167
ico	-10.2168
▁�lectronique	-10.2172
??	-10.2173
▁mu	-10.2178
▁Mary	-10.218
▁(p	-10.2181
lou	-10.2185
fond	-10.2186
▁couple	-10.2188
▁House	-10.2193
▁67	-10.2193
vet	-10.2193
▁system	-10.2198
▁ferme	-10.2201
it�s	-10.2204
▁Esp	-10.2204
▁Bordeaux	-10.2205
▁volume	-10.2206
mba	-10.2211
▁possibilit�	-10.2211
▁Tower	-10.2213
▁Ren	-10.2215
tie	-10.2218
▁objets	-10.2218
▁Castel	-10.2218
▁effectu�	-10.2223
▁s'�tend	-10.2223
time	-10.2226
son,	-10.2231
▁D�c	-10.2233
▁Denis	-10.2237
▁administrative	-10.2249
▁locale	-10.2252
ward	-10.2254
▁m�thode	-10.2257
nk	-10.2263
▁)	-10.2264
▁(2004)	-10.2269
▁Articles	-10.2272
▁l'�conomie	-10.2273
old	-10.2276
▁Chronologie	-10.2279
▁vis	-10.2282
▁Roumanie	-10.2284
▁1917	-10.2285
▁Plan	-10.2286
wan	-10.2288
pu	-10.229
▁(qui	-10.2292
▁d'Angleterre	-10.2293
▁|-	-10.2294
▁chose	-10.2298
▁?G	-10.23
▁consiste	-10.2305
▁gens	-10.231
ES	-10.2312
mal	-10.2312
▁remplac�	-10.2319
-D	-10.232
▁types	-10.2321
▁naturel	-10.2322
▁Yo	-10.2323
▁Sho	-10.2323
assi	-10.2332
▁fondateur	-10.2334
oz	-10.2335
▁Victoire	-10.2338
▁(France)	-10.2344
▁telle	-10.2348
▁originaire	-10.2351
▁Pal	-10.2353
▁use	-10.2355
▁c�te	-10.2363
main	-10.2365
▁crise	-10.2365
▁Gold	-10.2367
lation	-10.237
▁r�ve	-10.2371
▁Gen�ve	-10.2372
▁Gabriel	-10.2376
▁d�crit	-10.2377
▁only	-10.2383
red	-10.2384
▁09	-10.239
2001	-10.2393
ally	-10.2393
lt	-10.2396
▁organis�	-10.2401
▁Dominique	-10.2402
ssin	-10.2406
▁arrive	-10.2406
▁ri	-10.2406
▁anglaise	-10.2406
�ge	-10.2407
▁rendu	-10.2409
▁Brian	-10.2414
atrice	-10.2414
▁1900	-10.2414
stein	-10.2418
▁Danemark	-10.2423
▁journ�e	-10.2424
-O	-10.2425
▁up	-10.2427
▁mots	-10.2428
▁magazine	-10.243
kan	-10.2431
▁science	-10.2438
mit	-10.244
▁capacit�	-10.244
▁d�faite	-10.244
▁bronze	-10.2441
▁localit�	-10.2447
▁Dictionnaire	-10.2453
▁Phil	-10.2455
aine	-10.2458
▁Chambre	-10.2459
▁�pi	-10.2459
xe	-10.2463
▁r�gles	-10.2463
▁professionnelle	-10.2464
▁2000,	-10.2465
▁trouv�	-10.2466
▁uniquement	-10.2469
plan	-10.2469
▁noter	-10.2469
▁ind�pendant	-10.2471
ect	-10.2471
cht	-10.2476
col	-10.2483
▁Euro	-10.2495
200	-10.2497
▁Matchs	-10.2497
▁vrai	-10.25
▁n'en	-10.2504
▁mi	-10.2505
▁Norv�ge	-10.2506
▁soutien	-10.2508
▁Sh	-10.2511
�que	-10.2512
▁Parlement	-10.2514
▁(12	-10.2517
▁F.	-10.252
▁Sc�nario	-10.2523
▁(a	-10.2528
▁appel�s	-10.2532
▁local	-10.2534
▁processus	-10.2537
▁meilleure	-10.2539
▁Champ	-10.2539
chy	-10.2543
▁Tru	-10.2546
▁minist�re	-10.2547
ova	-10.2548
▁Fau	-10.2549
▁(homonymie)	-10.2558
▁dynastie	-10.2558
▁syst�mes	-10.2559
▁Parcours	-10.2561
�r�	-10.2562
▁Vincent	-10.2563
▁Blanc	-10.2566
nois	-10.2567
-L	-10.2568
▁largement	-10.2572
ball	-10.2575
▁l'Institut	-10.2575
▁arm�e	-10.2577
▁plan�te	-10.2578
▁Clo	-10.2579
bro	-10.258
▁utilis�s	-10.2582
fort	-10.2585
▁cartes	-10.2585
▁66	-10.2586
▁Haut	-10.2589
▁peut-�tre	-10.2594
▁Sir	-10.2594
▁Fondation	-10.2598
▁connaissance	-10.2599
▁Mir	-10.26
▁Ed	-10.26
▁Mari	-10.2607
chet	-10.2608
▁(14	-10.2609
zan	-10.2611
dom	-10.2613
▁pilote	-10.2616
udi	-10.2619
▁Jeanne	-10.262
dam	-10.2623
▁Ball	-10.263
▁Ac	-10.2631
▁derni�res	-10.2632
▁plantes	-10.2632
▁Erreur	-10.2635
▁automobile	-10.2636
▁(un	-10.2642
▁Pop	-10.2643
▁Dou	-10.2648
▁comp�tition	-10.2649
town	-10.265
▁Formule	-10.2653
▁Californie	-10.2656
▁Pas	-10.2663
phy	-10.2664
▁notion	-10.2665
ika	-10.2665
▁Enfin	-10.2667
▁c�l�bres	-10.2667
▁palais	-10.2668
▁cu	-10.2668
▁publie	-10.2669
▁mono	-10.267
▁vingt	-10.2677
ding	-10.2679
▁z	-10.268
pouvant	-10.2687
tine	-10.2692
▁Arthur	-10.2695
▁chute	-10.2696
▁dirige	-10.2696
▁compris	-10.2699
char	-10.2699
▁temple	-10.2701
▁paroisse	-10.2701
▁enfant	-10.2711
▁celle-ci	-10.2713
▁r�forme	-10.2714
▁Ouest	-10.2723
▁te	-10.2727
isant	-10.2728
▁tu�	-10.2732
▁statue	-10.2734
▁many	-10.2735
▁B.	-10.2735
o�	-10.2746
▁former	-10.2749
enberg	-10.2755
ars	-10.2757
▁Tier	-10.2762
?n	-10.2764
▁quantit�	-10.2767
▁Avant	-10.2768
cade	-10.277
▁condition	-10.2779
▁Dal	-10.2781
▁stade	-10.2782
▁l�gende	-10.2785
▁superficie	-10.2785
▁collaboration	-10.2785
▁constitu�	-10.2785
▁Zi	-10.2787
▁�tudiants	-10.2787
RA	-10.2787
rien	-10.2791
anne	-10.2794
SC	-10.2796
mand	-10.2799
sie	-10.28
▁Francisco	-10.2801
int	-10.2801
try	-10.2804
oux	-10.2805
▁1915	-10.2806
▁600	-10.2812
▁Cr�ation	-10.2813
▁cy	-10.2816
▁entier	-10.2817
▁Madrid	-10.2821
▁affaires	-10.2823
▁cal	-10.2826
h�r	-10.2826
heim	-10.2826
▁suivantes	-10.2828
▁Op	-10.2828
▁anti-	-10.2832
NA	-10.2832
▁85	-10.2834
▁actuelle	-10.2834
etto	-10.2837
�l�	-10.2838
util	-10.2839
▁r�action	-10.2848
en,	-10.2853
▁conflit	-10.2855
ben	-10.286
hon	-10.2863
▁Edward	-10.287
▁cycle	-10.2871
▁Ana	-10.2874
ume	-10.2877
▁Wikimedia	-10.2882
▁jeunesse	-10.2882
▁ouvrage	-10.2882
▁naturelle	-10.2892
▁Giovanni	-10.2894
▁risque	-10.2896
▁Commune	-10.2897
▁disc	-10.2901
-13	-10.2902
issent	-10.2902
eng	-10.2904
oma	-10.2905
▁Franc	-10.2906
gr�	-10.2909
eg	-10.291
▁Napol�on	-10.2911
ado	-10.2914
▁binominal	-10.2918
-W	-10.2919
▁commercial	-10.2919
kar	-10.2926
rog	-10.2927
▁l'empereur	-10.293
▁Elles	-10.2934
▁Tous	-10.2935
▁V�	-10.2938
cco	-10.2951
▁dessin	-10.2952
▁Strasbourg	-10.2955
▁Eric	-10.2959
▁Kh	-10.296
mbo	-10.2961
▁obtenu	-10.2964
▁nucl�aire	-10.2967
▁r�sistance	-10.2967
▁f�	-10.2968
▁format	-10.2974
RE	-10.2978
▁Lorraine	-10.2979
i�me	-10.2979
▁Commission	-10.298
▁s�lection	-10.2981
▁musicale	-10.2982
▁�le	-10.2989
▁animaux	-10.2992
mie	-10.2992
▁Sim	-10.2992
ness	-10.2993
▁Albums	-10.2993
▁78	-10.2995
▁notes	-10.2995
eil	-10.2998
el,	-10.3001
▁Catherine	-10.3009
▁vite	-10.3014
▁photographie	-10.3016
▁R�alisation	-10.3017
▁L'in	-10.3017
nic	-10.3018
fran�ais	-10.3018
▁Sel	-10.3019
ites	-10.3021
sti	-10.3025
temp	-10.3026
pha	-10.303
▁120	-10.3035
▁varie	-10.3036
▁poids	-10.3041
▁symbole	-10.3041
▁Zo	-10.3041
ila	-10.3042
▁maximale	-10.3045
▁single	-10.3056
▁Sainte	-10.3058
▁Yves	-10.3058
es)	-10.3059
-N	-10.306
liv	-10.3062
dio	-10.3063
▁diffusion	-10.3065
uge	-10.3066
▁conseiller	-10.3068
▁250	-10.307
▁?D	-10.3073
▁Out	-10.3076
▁puisque	-10.3084
▁riche	-10.3085
dans	-10.3094
▁conna�t	-10.3096
▁d'�t�	-10.3099
▁1916	-10.3106
[5]	-10.3109
▁Puis	-10.311
ym	-10.3117
▁C�	-10.3118
▁canal	-10.3119
lit	-10.3119
ities	-10.3121
▁d�signer	-10.3123
▁refuse	-10.3123
sol	-10.3124
▁bout	-10.3126
▁Internet	-10.3127
▁pouvait	-10.3128
IC	-10.3131
▁Loire	-10.3132
▁civil	-10.3135
▁th�me	-10.314
▁complexe	-10.3141
bol	-10.3141
▁associ�	-10.3141
lus	-10.3143
▁5e	-10.3146
▁lance	-10.3146
▁arabe	-10.3147
▁800	-10.3149
▁Pou	-10.3149
▁festival	-10.3153
pend	-10.3155
▁Wil	-10.3157
▁Bert	-10.3159
▁commandant	-10.316
▁Chant	-10.316
▁Th�	-10.3161
▁annonce	-10.3165
ort	-10.3174
▁bras	-10.3179
▁Hill	-10.3181
▁Hal	-10.3183
▁S�rie	-10.3187
▁yeux	-10.3189
▁Malgr�	-10.3191
vre	-10.3203
▁work	-10.3203
bot	-10.3204
▁Movie	-10.3206
▁fou	-10.3208
▁m�canique	-10.3215
▁lyc�e	-10.3215
▁League	-10.3216
.html	-10.3219
uz	-10.3225
▁parler	-10.3229
▁XIIe	-10.3229
▁London	-10.3238
▁we	-10.3243
AL	-10.3245
▁No�l	-10.3246
▁Court	-10.3249
▁soient	-10.325
▁(Ma	-10.3253
▁occidentale	-10.3254
▁l'Est	-10.3255
▁Hans	-10.3256
▁conduit	-10.3256
▁g�ographique	-10.3256
tim	-10.3257
▁�crite	-10.3262
▁dos	-10.3264
▁74	-10.3267
▁73	-10.3269
ique,	-10.327
▁Cou	-10.3271
▁candidat	-10.3271
▁autant	-10.3272
▁Luxembourg	-10.3272
▁Longueur	-10.328
cour	-10.3282
▁�tabli	-10.3285
ito	-10.3288
▁Ligne	-10.329
▁Sin	-10.3291
▁circuit	-10.3291
▁commission	-10.3292
▁1923	-10.3297
▁Lille	-10.3301
▁bu	-10.3302
bul	-10.3303
▁T.	-10.3303
▁auteurs	-10.3304
▁Hol	-10.3314
lage	-10.3321
▁Time	-10.3321
▁fixe	-10.3322
▁priv�e	-10.3329
1998	-10.3333
US	-10.3341
▁Ann	-10.3345
▁Kat	-10.3347
▁Four	-10.3348
nc	-10.335
oth	-10.3353
▁morts	-10.3357
▁tome	-10.3361
▁my	-10.3362
▁pays.	-10.3365
▁h�ros	-10.3368
▁b�timents	-10.337
▁Bruxelles	-10.3371
▁ouverte	-10.3374
▁capable	-10.3377
▁patron	-10.338
AR	-10.338
▁C�sar	-10.338
'',	-10.3386
cat	-10.3386
▁Unicode	-10.3387
▁Pyr�n�es	-10.339
avi	-10.339
▁pr�c�dente	-10.339
▁petites	-10.339
venir	-10.3391
▁n'�tait	-10.3394
▁permettre	-10.34
▁Miss	-10.3403
▁math�matiques	-10.3405
▁new	-10.3406
▁�volue	-10.3406
▁vir	-10.3407
▁College	-10.3407
top	-10.341
▁pages	-10.3416
u�	-10.3417
▁d�couvre	-10.3419
g�n	-10.3419
ates	-10.3422
▁Sor	-10.3423
dge	-10.3423
▁fortement	-10.3426
▁fr�res	-10.3428
▁mains	-10.3431
▁cheval	-10.3436
ssel	-10.3438
▁Plusieurs	-10.3444
▁lois	-10.345
▁destin�	-10.3451
▁Sea	-10.3453
▁[[P	-10.3457
▁artistes	-10.346
via	-10.3462
▁71	-10.3464
ton,	-10.3467
▁America	-10.3472
stic	-10.3477
position	-10.348
==	-10.3497
▁Mill	-10.3499
▁communiste	-10.3499
▁d�bit	-10.3501
▁ans)	-10.3503
▁(re	-10.3507
zen	-10.351
▁d'Italie	-10.351
▁propres	-10.3511
▁Constitution	-10.3513
▁Fri	-10.3515
lly	-10.3516
▁s�r	-10.3517
ful	-10.3525
▁Ven	-10.3525
▁r�el	-10.3526
▁Film	-10.353
rique	-10.353
▁Ray	-10.3531
▁2005.	-10.3533
cide	-10.3534
lles	-10.3534
▁would	-10.3535
-11	-10.3536
▁ait	-10.354
nica	-10.3543
▁d�cor	-10.3545
▁(voix)	-10.3553
euil	-10.3555
222	-10.3557
Prix	-10.3562
▁Chaque	-10.3562
▁l'?uvre	-10.3564
▁VII	-10.3568
▁active	-10.3569
▁(f	-10.3573
▁plat	-10.3573
▁responsable	-10.3577
▁Med	-10.3585
▁usage	-10.3585
▁Wild	-10.3585
tou	-10.3586
▁gu	-10.3587
▁moyens	-10.3587
▁faisait	-10.3587
▁82	-10.3588
▁may	-10.3593
vr	-10.3595
▁biblioth�que	-10.36
▁Kim	-10.3602
▁exploit	-10.3603
▁Matt	-10.361
uve	-10.3613
▁demeure	-10.3615
▁st	-10.3619
▁69	-10.3621
▁table	-10.3625
▁message	-10.3627
cca	-10.3631
▁Loi	-10.3633
ving	-10.3634
uvr	-10.3635
▁Will	-10.3635
iennes	-10.3636
▁But	-10.3637
▁Blue	-10.3637
▁Lorsque	-10.3644
5%	-10.3646
le,	-10.3649
▁sc�nariste	-10.3652
atoire	-10.3653
▁visible	-10.3653
-en-	-10.3659
▁derri�re	-10.3666
▁Notre-Dame	-10.3667
▁Ken	-10.3669
▁Ap	-10.3669
aille	-10.3669
▁p�	-10.3674
▁95	-10.3675
▁K.	-10.3676
bla	-10.368
▁manque	-10.3685
▁ren	-10.3688
▁op.	-10.3691
dine	-10.3693
l�s	-10.3696
▁out	-10.3703
▁lorsqu'il	-10.3706
▁particuli�re	-10.3708
▁Street	-10.3709
▁Autriche	-10.3711
▁chinois	-10.3713
sser	-10.3714
▁Cl	-10.3716
▁liaison	-10.3719
▁Kong	-10.3719
▁reprises	-10.372
rand	-10.3723
▁arrondissement	-10.3723
▁objet	-10.3724
▁plac�	-10.3727
▁simplement	-10.3727
▁d�couvert	-10.3731
matique	-10.3732
▁3.	-10.3734
ange	-10.3734
▁Olivier	-10.3735
▁fonde	-10.3736
▁Corn	-10.3737
bach	-10.3737
▁municipal	-10.3738
▁Ainsi	-10.374
▁Roy	-10.374
iller	-10.3741
▁indique	-10.3741
▁tch�que	-10.3744
▁Discographie	-10.3745
aut	-10.3745
▁number	-10.3745
▁Alfred	-10.3746
r�s	-10.3755
▁Sto	-10.3755
nan	-10.3757
-M	-10.3758
ize	-10.376
▁XIIIe	-10.376
▁air	-10.376
▁f�minine	-10.3761
cie	-10.3761
▁vieux	-10.3762
▁(les	-10.3763
▁construire	-10.3771
▁d'environ	-10.3774
▁image	-10.3776
▁1910	-10.3782
▁Juin	-10.3782
▁Sc	-10.3783
action	-10.3785
▁Sortie	-10.3792
isson	-10.3792
▁s?ur	-10.3794
▁(au	-10.3798
▁d�veloppe	-10.3799
▁certaine	-10.3799
▁l'architecture	-10.38
▁f�te	-10.3804
▁Bat	-10.3805
▁comment	-10.3806
▁conventions	-10.3809
▁sable	-10.381
inter	-10.3811
▁appelle	-10.3812
Al	-10.3813
▁vivre	-10.3816
▁Description	-10.3816
uer	-10.3821
▁when	-10.3825
rg	-10.3828
▁Mol	-10.383
▁Tal	-10.3835
▁navigateur	-10.3838
▁Johnson	-10.3839
▁leader	-10.3842
▁Karl	-10.3844
uri	-10.3845
▁1922	-10.3846
▁East	-10.3847
▁�conomiques	-10.3851
▁ITIS	-10.3851
▁d'Am�rique	-10.3852
▁Gou	-10.3856
▁Der	-10.3856
man,	-10.3856
▁Young	-10.3857
lim	-10.3862
▁?N	-10.3863
house	-10.3864
▁l'Espagne	-10.3869
▁Gil	-10.3874
EC	-10.3874
AT	-10.3875
▁condamn�	-10.3878
▁under	-10.3878
-R	-10.3879
▁marine	-10.388
sses	-10.388
▁note	-10.3881
▁**	-10.3883
▁parlementaire	-10.3883
▁animal	-10.3892
i?	-10.3897
▁l'industrie	-10.3898
▁enti�rement	-10.3899
▁pur	-10.3899
▁race	-10.3901
l.	-10.3902
▁Gare	-10.3902
...)	-10.3903
▁r�ussi	-10.3904
Nouvelle-Z�lande	-10.3905
ine,	-10.3906
▁data	-10.3906
mic	-10.3908
glio	-10.3908
▁Droit	-10.3913
▁mur	-10.3913
▁Cla	-10.3915
▁culturel	-10.3919
▁mat�riel	-10.392
▁explique	-10.3921
▁Fou	-10.3924
▁multi	-10.3928
rey	-10.3928
▁79	-10.3929
▁II,	-10.3932
▁participation	-10.3934
▁Conseiller	-10.3937
▁pen	-10.3943
ige	-10.3945
▁couronne	-10.3947
▁prit	-10.3949
▁majeure	-10.3953
▁retraite	-10.3958
▁philosophe	-10.3959
▁Science	-10.3961
uses	-10.3963
▁comportement	-10.3966
▁Nantes	-10.398
▁1/4	-10.398
▁Walter	-10.3982
▁victoires	-10.3982
▁royal	-10.3982
▁photo	-10.3983
▁Lin	-10.3986
▁apparition	-10.3986
▁voiture	-10.3987
iana	-10.399
▁pp.	-10.3992
▁Irlande	-10.3994
▁grecque	-10.3997
▁dirig�	-10.3999
▁2008-2014	-10.3999
▁remport�	-10.3999
▁particip�	-10.3999
1999	-10.4002
▁Membre	-10.4004
▁internet	-10.4009
illard	-10.4013
▁Bourgogne	-10.4013
▁d'honneur	-10.4013
act	-10.4014
▁canadien	-10.4014
▁em	-10.4017
ssement	-10.4017
lain	-10.4017
En	-10.4018
▁Qu	-10.4027
▁81	-10.4028
▁2001,	-10.403
▁(13	-10.403
▁1906	-10.4035
san	-10.4035
▁coll�ge	-10.4041
▁Force	-10.4042
▁86	-10.4043
▁d'o�	-10.4045
OR	-10.4054
▁Vers	-10.4054
▁Jacob	-10.4055
inger	-10.4059
▁Alors	-10.4059
▁Isra�l	-10.4061
air	-10.4065
▁Gre	-10.4065
t�e	-10.4066
teurs	-10.4066
▁S�o	-10.407
mour	-10.4074
hom	-10.4076
▁Simpson	-10.4081
▁noms	-10.4084
▁Ir	-10.4086
▁culte	-10.4087
▁Front	-10.4092
▁bloc	-10.4094
▁after	-10.4095
s),	-10.4097
▁d'im	-10.4099
▁tient	-10.4106
▁revient	-10.4109
▁sign�	-10.411
nz	-10.4116
▁humaine	-10.4116
nov	-10.4119
▁nouvel	-10.4122
▁ouvrages	-10.4122
▁(10	-10.4122
▁g�n�raux	-10.4123
▁secret	-10.4125
▁d�sir	-10.4126
▁�l�ment	-10.4127
▁c�t�s	-10.4128
▁mille	-10.4136
▁sc�nario	-10.4136
▁faveur	-10.4136
▁bat	-10.4137
zon	-10.4138
asco	-10.4139
dition	-10.4147
vil	-10.4149
▁cardinal	-10.415
xa	-10.4158
▁D.	-10.4165
▁valeurs	-10.4166
pul	-10.417
▁dollars	-10.417
oud	-10.4174
▁familles	-10.4174
▁Rue	-10.4176
▁"Le	-10.4177
▁sert	-10.4179
▁Mos	-10.4181
▁Route	-10.4188
▁recherches	-10.4188
▁Company	-10.4192
uni	-10.4197
ough	-10.4201
mine	-10.4202
▁Dam	-10.4204
ude	-10.4205
▁pens�e	-10.4206
ust	-10.4207
ava	-10.421
▁vente	-10.4213
▁interne	-10.4215
ond	-10.4217
▁Cup	-10.4217
in�	-10.4218
▁Cad	-10.4225
▁(7	-10.4225
aux,	-10.4231
tto	-10.4233
▁(et	-10.4236
▁Argentine	-10.4245
▁ap	-10.4245
▁l'�ducation	-10.425
▁port�	-10.425
▁Bol	-10.4254
▁litt�raire	-10.4257
▁men	-10.4258
▁Tome	-10.426
▁Ch�	-10.4262
▁state	-10.4265
pol	-10.4267
▁laisse	-10.4271
▁Manuel	-10.4274
▁Cr�	-10.4278
▁vaste	-10.428
▁parall�le	-10.4289
▁num�rique	-10.4289
▁British	-10.4289
▁distribution	-10.4294
pat	-10.4294
▁Tony	-10.4295
▁continent	-10.4295
▁Mau	-10.4296
.C.	-10.4307
▁Boston	-10.4308
▁IIe	-10.4308
▁franc	-10.4309
▁97	-10.4311
▁Walt	-10.4312
▁conception	-10.4313
▁class�	-10.4315
-il	-10.4317
▁tennis	-10.4317
▁fran�aise,	-10.4319
▁Anna	-10.4324
▁cat�gorie	-10.4327
▁commenc�	-10.4329
▁volont�	-10.4331
▁Suivi	-10.4331
▁s�par�	-10.4331
▁administratif	-10.4331
▁tend	-10.4334
[6]	-10.4334
ax	-10.4337
▁arm�es	-10.4338
▁Palais	-10.4338
▁Steve	-10.4349
▁Ross	-10.4349
gu�	-10.4351
▁lib�ral	-10.4351
▁�tats-Unis.	-10.4356
eta	-10.4359
▁puissant	-10.4364
.A.	-10.4367
▁Rouge	-10.4369
▁Torre	-10.437
▁basket-ball	-10.4373
▁diff�rence	-10.4376
nique	-10.4376
▁PC	-10.4377
▁informatique	-10.4384
itude	-10.4385
▁Free	-10.4389
▁don	-10.4396
ill�	-10.4396
▁XVe	-10.4397
▁r�gional	-10.4398
▁(2003)	-10.4402
▁cr�	-10.4411
▁besoin	-10.4411
▁(3)	-10.4413
▁DVD	-10.4413
euses	-10.4417
▁liens	-10.442
los	-10.4422
hel	-10.4426
▁m�tro	-10.4426
▁(J	-10.4428
-Saint-	-10.4429
▁Sous-classe	-10.443
▁Harry	-10.4431
ote	-10.4434
▁Real	-10.4437
▁arri�re	-10.4437
fre	-10.4439
ska	-10.444
▁r�uni	-10.4442
▁Grande-Bretagne	-10.4444
▁Croix	-10.4446
▁c?	-10.445
chan	-10.4451
▁reprend	-10.4452
laire	-10.4452
▁cro	-10.4457
row	-10.446
▁F�	-10.446
▁Congo	-10.4463
▁passant	-10.4464
▁foi	-10.4468
ors	-10.4468
rick	-10.4469
▁t�t	-10.447
▁tableau	-10.447
av	-10.4471
l�g	-10.4472
▁IIIe	-10.4473
▁million	-10.4475
▁Ass	-10.4476
▁trouvent	-10.448
▁vision	-10.4483
▁????????	-10.4483
▁quatri�me	-10.4487
▁Para	-10.4487
▁conservation	-10.4488
ration	-10.4489
�e,	-10.4489
pes	-10.4491
▁pr�sent�	-10.4491
▁ve	-10.4493
▁Couleurs	-10.4496
dale	-10.4499
nard	-10.4499
ij	-10.4501
dic	-10.4501
▁Mario	-10.4506
rian	-10.4514
crit	-10.4516
▁Toutefois	-10.4516
ingen	-10.4521
tat	-10.4525
▁entreprise	-10.4528
▁l'arriv�e	-10.453
▁Antonio	-10.4532
▁�l�ves	-10.4532
▁Service	-10.4534
▁Taille	-10.4534
gine	-10.4536
▁2:	-10.4537
▁Comit�	-10.4538
▁d'An	-10.4545
g�e	-10.4545
ks	-10.4546
▁84	-10.4548
▁Nice	-10.4548
▁carr�	-10.455
▁chevalier	-10.4555
▁r�alise	-10.4556
▁Hel	-10.4558
▁Version	-10.4561
asse	-10.4562
teau	-10.4563
▁cre	-10.4564
▁l'U	-10.4564
[4].	-10.4565
cio	-10.4567
.org/	-10.4568
▁repr�sentation	-10.4568
300	-10.457
▁D'	-10.4572
▁recueil	-10.4573
De	-10.4581
▁Lan	-10.4583
▁�toiles	-10.4586
▁Auto	-10.4588
▁Alex	-10.4592
▁distingue	-10.4594
▁(in	-10.4594
rad	-10.4595
▁l'ancienne	-10.4597
▁Asie	-10.4598
icien	-10.46
▁voire	-10.4601
▁bra	-10.4601
▁nations	-10.4601
lite	-10.4602
rica	-10.4603
▁d'histoire	-10.4604
ifi�	-10.4605
▁(2002)	-10.4609
▁industrielle	-10.461
▁89	-10.4612
voy	-10.4616
▁telles	-10.4616
▁Pr�c�d�	-10.4616
▁concours	-10.4617
▁d�finition	-10.4622
▁Jackson	-10.4625
▁officiellement	-10.4626
▁amis	-10.4627
▁Win	-10.4629
▁(9	-10.4629
▁d�roule	-10.463
▁Temps	-10.463
▁accident	-10.4631
-et-	-10.4637
▁Ji	-10.4639
dri	-10.4644
pho	-10.4644
▁Fond	-10.4649
▁contraint	-10.465
▁Carlos	-10.4652
▁constitution	-10.4654
▁Good	-10.4656
1997	-10.4657
▁consid�r�e	-10.4657
▁preuve	-10.4662
▁Page	-10.4665
▁1991,	-10.4665
▁l'existence	-10.4665
�t�	-10.4666
▁1901	-10.4672
▁l'organisation	-10.4674
▁Origine	-10.4676
hou	-10.4678
habit	-10.4679
▁jardin	-10.4681
▁Rad	-10.4683
▁Arts	-10.4688
hol	-10.4689
▁Nam	-10.4693
see	-10.4694
▁Pascal	-10.4695
▁publication	-10.4698
400	-10.4702
▁souverain	-10.4703
▁Dragon	-10.4706
dem	-10.4707
▁tente	-10.471
▁Up	-10.4711
mun	-10.4714
mbre	-10.4715
▁km/h	-10.4718
alis	-10.4721
nder	-10.4725
▁l'�lection	-10.4727
TS	-10.473
▁rose	-10.473
2008	-10.4733
▁Juifs	-10.4734
▁d�put�s	-10.4735
▁Spi	-10.4737
Les	-10.4737
▁commandement	-10.4738
▁Anti	-10.4738
over	-10.474
▁Anglais	-10.4741
▁lesquels	-10.4749
▁si�cles	-10.4749
▁Chap	-10.4752
▁Ang	-10.4753
▁moi	-10.4755
▁States	-10.4757
1992	-10.4757
▁Personnages	-10.4761
▁comptait	-10.4762
p�t	-10.477
imp	-10.4772
ffer	-10.4775
▁branche	-10.4776
▁navires	-10.4776
▁proc�s	-10.4778
tang	-10.4779
▁Tr�	-10.478
▁Mode	-10.4781
nger	-10.4784
▁termine	-10.4787
▁changement	-10.4791
▁Girl	-10.4792
▁Vin	-10.4792
▁SC	-10.4793
▁maisons	-10.4799
▁us	-10.4801
▁chr�tienne	-10.4802
▁Br	-10.4805
▁System	-10.4806
▁l'utilisation	-10.481
1993	-10.4816
etti	-10.4816
rel	-10.4818
▁chapitre	-10.4821
▁vainqueur	-10.4821
▁Ay	-10.4822
▁neuf	-10.4825
▁Mans	-10.4831
▁Sau	-10.4831
▁botanique	-10.4836
▁r�ponse	-10.4836
ouche	-10.4836
▁reprise	-10.4838
sac	-10.484
▁AC	-10.4848
▁d'hiver	-10.485
▁pr�t	-10.4855
▁Em	-10.4861
▁Chordata	-10.4865
▁tentative	-10.4866
▁Galerie	-10.4867
▁toile	-10.4867
▁chanteuse	-10.4869
▁industriel	-10.4872
▁Cara	-10.4873
▁cri	-10.4875
▁Little	-10.4881
▁2004.	-10.4882
uan	-10.4883
▁1999,	-10.489
hal	-10.4892
▁1870	-10.4894
▁Jean-Claude	-10.4896
▁r�volutionnaire	-10.4898
niste	-10.4899
▁utilisant	-10.4899
▁r�serve	-10.49
centr	-10.4901
gas	-10.4905
▁vol.	-10.4909
▁ailleurs	-10.491
▁g�	-10.4918
▁Jar	-10.4921
▁couche	-10.4926
▁Band	-10.4934
▁quart	-10.4935
issa	-10.4935
▁consacr�	-10.4937
▁Tunisie	-10.4937
neau	-10.4939
rice	-10.4939
s/	-10.4941
▁effets	-10.4942
▁Album	-10.4945
�s,	-10.4948
sou	-10.4951
lade	-10.4951
st�r	-10.4951
▁Imp	-10.4953
xml:	-10.4955
▁gueules	-10.4955
▁ram	-10.4955
▁utiliser	-10.4959
▁metal	-10.4961
▁1/2	-10.4968
▁between	-10.497
▁occasion	-10.497
▁Sul	-10.4971
▁pr�nom	-10.4975
▁r�pond	-10.4978
▁Marine	-10.4978
g�ne	-10.4981
▁aura	-10.4982
inae	-10.4984
zar	-10.4988
lien	-10.4989
br	-10.499
▁saut	-10.4991
▁devenue	-10.4994
▁Royaume	-10.5
▁locaux	-10.5
fil	-10.5
▁Rouen	-10.5002
▁calendrier	-10.5002
sp	-10.5003
▁importants	-10.5004
ville,	-10.5005
▁[[H	-10.5009
feld	-10.501
zio	-10.5013
SA	-10.5013
▁Az	-10.5014
bl	-10.5015
▁actif	-10.5019
lip	-10.502
▁mouvements	-10.5021
ologue	-10.5021
nale	-10.5022
ard,	-10.5022
tien	-10.5026
▁massif	-10.5031
▁Savoie	-10.5031
lette	-10.5032
quer	-10.5033
tru	-10.5036
space	-10.5037
-20	-10.5039
EN	-10.5039
nam	-10.5039
▁Bull	-10.5041
▁pat	-10.5043
title>	-10.5043
▁(l'	-10.5045
▁Gouvernement	-10.5045
▁patrimoine	-10.5045
pper	-10.5046
▁<title>	-10.5047
isme,	-10.5047
▁ressources	-10.5049
▁d�pend	-10.5049
▁years	-10.505
▁ville.	-10.505
rt	-10.5052
▁1908	-10.5053
▁nage	-10.5053
▁chi	-10.5054
rina	-10.5056
▁th�	-10.5057
▁Dream	-10.5062
▁Den	-10.5065
oxy	-10.5066
.org	-10.5068
▁Suite	-10.5068
nor	-10.5075
▁Vic	-10.508
▁ka	-10.5082
aise	-10.5083
gni	-10.5084
nch	-10.5087
▁Composition	-10.5091
hem	-10.5092
▁Auguste	-10.5094
rri	-10.5097
▁interdit	-10.5097
▁servir	-10.5104
▁actions	-10.5106
▁monument	-10.5107
bie	-10.5107
▁will	-10.5107
▁Fred	-10.5108
▁mondiale,	-10.5108
▁sauf	-10.5114
uelle	-10.5115
▁banque	-10.5117
▁State	-10.5118
▁(+version(en))	-10.5121
▁[[D	-10.5121
▁humain	-10.5123
▁composant	-10.5124
iale	-10.5127
▁Gilles	-10.5127
�rie	-10.513
num	-10.5131
▁there	-10.5134
▁Noir	-10.5138
ature	-10.514
▁portant	-10.5141
an,	-10.5144
▁Post	-10.515
▁juridique	-10.5151
app	-10.5155
▁1896	-10.5158
�de	-10.5159
▁(2001)	-10.5159
▁terrestre	-10.5159
▁Aux	-10.516
eb	-10.516
▁Hong	-10.5162
Z</ti	-10.5166
mestamp>	-10.5166
▁Politique	-10.5167
▁School	-10.5167
▁Mis	-10.5168
▁Vit	-10.5171
▁r�guli�rement	-10.5175
▁Nov	-10.5176
▁monde.	-10.5177
▁l'abbaye	-10.5182
▁people	-10.5182
▁s�jour	-10.5182
▁aller	-10.5185
▁Poly	-10.5188
&	-10.5192
▁fini	-10.5195
aria	-10.5196
▁Note	-10.5197
▁mineur	-10.5198
▁flotte	-10.5198
▁d'Afrique	-10.5198
▁r�aliser	-10.52
▁*[http://www.	-10.5202
ne.	-10.5203
);	-10.5205
▁km2	-10.5205
tron	-10.5207
▁disponible	-10.5207
▁fleurs	-10.5207
▁Barcelone	-10.5217
▁r�gle	-10.5218
▁Pass	-10.5223
▁Format	-10.5226
▁Kan	-10.5227
▁discussion	-10.5228
▁solution	-10.5231
▁l'Ar	-10.5236
▁Cher	-10.5239
▁1990,	-10.5242
▁oiseaux	-10.5245
▁Nancy	-10.5245
▁110	-10.5246
▁install�	-10.5247
-U	-10.5247
▁autorit�s	-10.5249
▁�tude	-10.5251
▁Group	-10.5253
FC	-10.5257
▁retrouv�	-10.5258
▁l'Ouest	-10.5261
▁arts	-10.5262
▁l�gislatives	-10.5265
▁entr�e	-10.5266
PS	-10.5267
▁label	-10.5268
arn	-10.5268
▁personnelle	-10.5274
▁d�cid�	-10.5276
▁(d�	-10.5277
▁�tats-Unis,	-10.5278
nik	-10.5282
▁villages	-10.5284
more	-10.5286
▁courte	-10.5286
▁Hen	-10.5286
▁Mr.	-10.529
oun	-10.5291
venu	-10.5295
▁(2000)	-10.5298
arm	-10.5304
▁fabrication	-10.5305
ido	-10.5306
▁m�le	-10.5309
▁"P	-10.531
▁game	-10.5312
-la-	-10.5312
▁rare	-10.5315
▁Ry	-10.5321
▁dessins	-10.5321
▁correspondant	-10.5321
▁87	-10.5325
▁Bruno	-10.5328
▁Ye	-10.533
▁solaire	-10.534
shire	-10.5343
tten	-10.5346
▁�dit�	-10.5348
▁DE	-10.5348
▁Steven	-10.535
▁(2007)	-10.5352
▁mod�les	-10.5353
▁group	-10.5354
▁(11	-10.5355
▁L'E	-10.5357
▁Nations	-10.5362
▁bri	-10.5363
▁Jean-Paul	-10.5368
▁"C	-10.5368
▁high	-10.5368
▁(c	-10.5369
▁CA	-10.5369
▁General	-10.538
▁publi�e	-10.538
▁Song	-10.5381
▁Corporation	-10.5382
▁semaine	-10.5383
▁g�ographie	-10.5383
face	-10.5385
aba	-10.5386
1986	-10.5386
ph�	-10.5388
▁County	-10.5389
▁l'im	-10.5389
▁voies	-10.5395
RS	-10.5396
nin	-10.5396
▁accompagn�	-10.5396
▁soleil	-10.54
▁compose	-10.5403
▁Bertrand	-10.5405
▁Nous	-10.541
▁suffisamment	-10.5414
▁cercle	-10.5414
vision	-10.5415
▁organisation	-10.5416
▁baron	-10.5417
2)	-10.5417
▁publics	-10.542
▁portugais	-10.5421
trice	-10.5423
blo	-10.5425
▁sites	-10.5428
pression	-10.5432
▁Hard	-10.5434
l'	-10.5434
us,	-10.5434
▁[[G	-10.5439
▁ki	-10.5444
▁occupe	-10.5445
▁l'Ordre	-10.5445
▁d'infanterie	-10.5446
▁commen�a	-10.545
neur	-10.545
▁(U	-10.5451
▁participer	-10.5451
▁d�bat	-10.5455
▁sul	-10.5455
til	-10.5456
▁raisons	-10.5456
▁gal	-10.5459
▁Si�cle	-10.5461
▁chien	-10.5461
graphie	-10.5463
▁formule	-10.5464
▁croix	-10.547
▁hu	-10.5472
▁tension	-10.5472
▁cath�drale	-10.5477
▁monast�re	-10.5477
▁n�cessaire]	-10.5477
▁Porte	-10.5492
▁importantes	-10.5492
▁clubs	-10.5498
pus	-10.5498
�se	-10.5499
▁Team	-10.55
▁versions	-10.55
▁Cast	-10.5502
▁meilleurs	-10.5503
pla	-10.5504
agnol	-10.5506
▁Porto	-10.5508
▁l'id�e	-10.5514
ever	-10.5517
▁K�	-10.552
▁degr�	-10.5522
▁logiciel	-10.5523
CI	-10.5523
right	-10.5524
▁navire	-10.5525
▁Gilbert	-10.5525
▁fourni	-10.5527
venant	-10.5529
▁92	-10.5529
ail	-10.5531
▁machine	-10.5533
mari	-10.5533
�res	-10.5535
aw	-10.5536
▁l'image	-10.5536
ache	-10.5536
vy	-10.5536
less	-10.5538
▁lien	-10.5539
▁Monsieur	-10.554
▁po�sie	-10.554
▁l'action	-10.555
omys	-10.5551
▁tenu	-10.5554
AM	-10.5555
ET	-10.5556
▁R�sum�	-10.5556
yan	-10.5556
▁Mes	-10.5557
▁Cab	-10.5558
una	-10.556
▁[[T	-10.556
▁vaut	-10.557
▁App	-10.5573
▁d�truit	-10.558
tens	-10.5581
▁Point	-10.5584
▁Vis	-10.5584
▁somme	-10.5586
gua	-10.5588
▁l'�nergie	-10.5589
ista	-10.5592
'apr�s	-10.5592
Ch	-10.5593
organ	-10.5594
▁Chef	-10.5597
▁Dr.	-10.5598
▁Tam	-10.5598
▁plai	-10.5599
aka	-10.56
▁com�die	-10.5601
▁Mun	-10.5603
▁Venise	-10.5606
1981	-10.5618
▁color	-10.5619
filmographiques.	-10.562
▁discours	-10.562
▁�lectro	-10.5622
▁By	-10.5626
1989	-10.563
▁Moteur	-10.5632
▁sp�cialiste	-10.5633
▁espace	-10.5635
▁Museum	-10.5636
▁Who	-10.5636
gr	-10.5641
1983	-10.5645
▁ph�nom�ne	-10.5646
▁Berg	-10.5647
ment.	-10.5647
▁Score	-10.5649
▁papier	-10.5652
]]</	-10.5654
pie	-10.5655
t�s	-10.5657
�C	-10.5659
▁Wal	-10.566
yant	-10.5661
fect	-10.5661
▁aff	-10.5666
▁d�clare	-10.5668
▁McC	-10.5669
omb	-10.5669
▁Directeur	-10.567
▁donn�e	-10.5671
▁organise	-10.5673
▁pourtant	-10.5673
▁Davis	-10.5674
mission	-10.5677
tisme	-10.568
▁Part	-10.5682
▁rejoindre	-10.5684
▁connexes	-10.5684
▁Sciences	-10.5686
▁Top	-10.5692
▁[[C	-10.5694
DA	-10.5694
▁?E	-10.5698
▁d'interrogation	-10.57
▁Great	-10.5703
▁Rosa	-10.5707
▁Temple	-10.5708
▁canon	-10.571
▁donna	-10.5711
ign�	-10.5712
1990	-10.5713
▁discipline	-10.5716
▁interpr�t�	-10.5716
ugh	-10.5717
uy	-10.5718
vid	-10.572
▁l'univers	-10.572
▁comit�	-10.5724
▁p�che	-10.5727
▁b�	-10.5728
tres	-10.573
▁these	-10.5731
▁Congr�s	-10.5732
place	-10.5733
▁docteur	-10.5733
▁disposition	-10.5733
▁Santo	-10.5735
/10	-10.574
▁83	-10.5745
▁Adam	-10.5748
▁Lake	-10.5749
▁Ran	-10.5751
▁proposition	-10.5752
▁l'Afrique	-10.5752
prim	-10.5753
▁orientale	-10.5756
▁Mme	-10.5757
▁Cass	-10.5758
toire	-10.5759
tum	-10.576
▁talent	-10.5765
▁l'�t�	-10.5768
▁canadienne	-10.5769
iff	-10.5769
▁Windows	-10.5773
ister	-10.5774
ifier	-10.5775
▁1904	-10.5776
▁Ivan	-10.5777
▁danger	-10.5777
▁sociales	-10.578
▁Troisi�me	-10.5781
▁Haute	-10.5792
▁Jean-Baptiste	-10.5792
eva	-10.5795
▁Toronto	-10.5797
mettant	-10.5798
�ra	-10.58
t�re	-10.5801
▁trou	-10.5804
▁USA	-10.5805
▁"D	-10.5811
lock	-10.5812
▁primaire	-10.5814
▁Rom	-10.5818
▁Hart	-10.5819
▁soir	-10.582
▁l'or	-10.5824
yr	-10.5824
rim	-10.5825
lire	-10.5826
itaire	-10.5829
▁Arc	-10.5831
▁elle-m�me	-10.5833
▁d�c�s	-10.5839
vic	-10.5839
▁r�publique	-10.5846
▁r�sidence	-10.5847
▁sait	-10.5848
▁clo	-10.585
▁(ex	-10.585
▁rares	-10.5851
▁mit	-10.5851
▁espagnole	-10.5853
▁inspir�	-10.5855
atus	-10.5858
▁l'inter	-10.5859
▁contexte	-10.5862
▁j	-10.5866
▁Finaliste	-10.5868
▁d'autre	-10.587
▁portes	-10.5876
▁appartenant	-10.5879
spir	-10.588
▁Li�ge	-10.5881
▁Center	-10.5882
▁pe	-10.5884
nar	-10.5886
▁th�se	-10.5888
Co	-10.589
roi	-10.5892
▁Alexander	-10.5893
▁agricole	-10.5897
▁Jon	-10.5899
▁Somme	-10.5899
▁tendance	-10.59
▁Kor	-10.59
leur	-10.5901
▁Stephen	-10.5902
▁700	-10.5911
▁appartient	-10.5911
▁ben	-10.5914
▁choses	-10.5914
pid	-10.5915
▁scientifiques	-10.5917
▁99	-10.5918
▁ligue	-10.5921
▁6-4	-10.5921
▁Compagnie	-10.5928
▁succ�de	-10.5928
nda	-10.5929
▁Maur	-10.5931
▁(con	-10.5932
▁Lance	-10.5934
▁Gene	-10.5935
▁d'ar	-10.5935
▁juive	-10.5935
1995	-10.5936
▁Gros	-10.5939
▁pose	-10.594
▁Fro	-10.594
allemand	-10.5945
▁contemporain	-10.5947
▁exemplaires	-10.595
fu	-10.5954
▁pouvoirs	-10.5956
▁Tournoi	-10.5956
1980	-10.5957
▁?La	-10.5958
▁Pres	-10.596
▁D�cennie	-10.5961
▁termes	-10.5963
▁pou	-10.5965
▁Dun	-10.5967
▁nationales	-10.5968
▁sports	-10.5968
▁Fur	-10.5972
▁Roland	-10.5973
▁Villes	-10.5976
▁Julien	-10.5977
],	-10.5978
▁unit�s	-10.5981
▁r�alis�e	-10.5984
▁Shin	-10.5985
▁Wolf	-10.5985
▁Ob	-10.5987
▁name	-10.5988
▁world	-10.5989
▁habit	-10.5992
quette	-10.5993
▁Diffusion	-10.5994
▁domaines	-10.5995
▁Galles	-10.5999
volution	-10.6
▁filles	-10.6003
▁conna�tre	-10.6003
▁Costa	-10.6003
gle	-10.6004
▁bureau	-10.6006
▁diff�rent	-10.6008
guer	-10.6009
ario	-10.601
nette	-10.6014
▁Joueur	-10.6014
ali	-10.6016
▁Anton	-10.6017
▁repr�sent�	-10.6019
▁Texas	-10.6021
▁propri�taire	-10.6023
▁Second	-10.6023
▁00	-10.6024
▁Nar	-10.6025
iro	-10.6027
▁l'�dition	-10.6027
eri	-10.6029
▁Normandie	-10.603
▁introduit	-10.6033
▁bas�e	-10.6035
.htm	-10.6037
mark	-10.6038
ech	-10.6041
▁d�velopper	-10.6042
ades	-10.6047
▁ciel	-10.605
▁gen	-10.6052
▁"B	-10.6056
▁91	-10.6058
RI	-10.606
▁(carr�s	-10.6061
▁semaines	-10.6061
▁coll.	-10.6061
AP	-10.6062
▁recensement	-10.6063
BA	-10.6064
▁Gon	-10.6066
rance	-10.6068
▁paysage	-10.6068
nova	-10.6068
▁fonctionnement	-10.607
scription	-10.6071
▁association	-10.6071
fait	-10.6071
▁albums	-10.6073
-Sa	-10.6078
▁With	-10.6078
rap	-10.608
▁Ai	-10.6081
▁Comp	-10.6083
▁actes	-10.6085
ssen	-10.6086
▁servi	-10.6087
▁Gla	-10.6088
ignon	-10.609
▁Mali	-10.6091
ia,	-10.6093
▁<#50	-10.6094
▁mourut	-10.6094
▁(dont	-10.6095
▁Brun	-10.6096
▁Ancien	-10.6096
▁Sab	-10.6106
▁nomm�e	-10.6107
chon	-10.6109
▁d'identit�	-10.6111
▁fr�quence	-10.6111
▁Clark	-10.6112
▁5.	-10.6112
▁Cit�	-10.6121
1978	-10.6122
▁00"	-10.6122
▁musicien	-10.6122
▁Sous-embr	-10.6126
▁obtenir	-10.6128
▁rayon	-10.6129
▁d'Allemagne	-10.613
ur�	-10.613
▁Bau	-10.6135
▁ton	-10.6135
▁(r�	-10.6136
▁Jun	-10.6138
thi	-10.614
▁dimension	-10.614
▁show	-10.6141
▁Label	-10.6141
mber	-10.6143
▁German	-10.6143
▁Romain	-10.6143
▁Laval	-10.6143
1994	-10.6144
▁Database	-10.6145
assa	-10.6145
▁d�cret	-10.6146
1982	-10.6149
▁id�es	-10.6149
▁Br�	-10.615
TA	-10.615
▁s�lections	-10.6151
fra	-10.6156
▁Ceci	-10.6158
▁Lion	-10.6158
els	-10.6159
▁�trangers	-10.6159
▁Lord	-10.616
▁Donald	-10.6162
IT	-10.6168
lev	-10.6168
▁Ma�tre	-10.6168
▁tonnes	-10.6169
▁pieds	-10.617
▁dia	-10.617
▁analyse	-10.617
▁�trang�res	-10.617
▁quotidien	-10.6172
▁d'�tudes	-10.6172
▁consul	-10.6176
▁(8	-10.6176
▁<timestamp>200	-10.6177
Com	-10.6178
▁potentiel	-10.6178
▁lanc�	-10.618
bury	-10.6181
▁laiss�	-10.6183
tail	-10.6184
▁anciennes	-10.6185
▁Stone	-10.6187
ngle	-10.619
▁Story	-10.6194
▁pointe	-10.6194
▁d�bute	-10.6195
▁li�	-10.6195
▁L'�glise	-10.6197
ota	-10.6197
▁Soul	-10.6198
zel	-10.6202
▁Florence	-10.6203
quis	-10.6203
mier	-10.6203
�che	-10.6204
▁feuilles	-10.6205
▁gagne	-10.6205
▁croissance	-10.6212
▁r�volte	-10.6212
▁modern	-10.6213
band	-10.6216
nen	-10.6216
▁any	-10.6221
▁Johnny	-10.6222
▁Od	-10.6224
etta	-10.6229
▁n�anmoins	-10.6229
▁Christophe	-10.6234
MA	-10.6242
▁96	-10.6243
▁dessus	-10.6245
▁ferroviaire	-10.6246
class	-10.6246
rem	-10.6247
▁basque	-10.6249
mma	-10.6252
▁Bulgarie	-10.6252
▁Bank	-10.6259
▁Fan	-10.6259
urg	-10.6261
cq	-10.6262
▁sentiment	-10.6263
1970	-10.6263
▁Sil	-10.6266
ela	-10.627
is�s	-10.6273
▁Dj	-10.6273
▁Vert	-10.6273
▁Por	-10.6273
ution	-10.6274
&amp;nbsp;	-10.628
▁affirme	-10.6281
▁Total	-10.6282
1996	-10.6283
-les-	-10.6283
eur,	-10.6284
▁Secret	-10.6287
nent	-10.6291
▁T�l�	-10.6293
point	-10.6297
▁ing�nieur	-10.6297
▁????????????	-10.63
▁P�re	-10.6303
▁habitants.	-10.6303
▁[[M	-10.6304
▁XIVe	-10.6304
nage	-10.6304
prise	-10.6307
▁capital	-10.6311
▁raconte	-10.6315
▁His	-10.6315
▁destin�e	-10.6318
▁parcours	-10.6319
ives	-10.6319
▁Vel	-10.6325
chin	-10.6327
An	-10.6327
▁F�te	-10.6331
▁<#32	-10.6332
▁images	-10.6339
▁Cent	-10.6343
�ration	-10.6344
back	-10.6345
tica	-10.6347
ique.	-10.635
▁travailler	-10.6351
▁Mah	-10.6356
▁Show	-10.636
▁�crits	-10.6361
▁sta	-10.6364
▁similaire	-10.6366
▁Revue	-10.6367
ior	-10.6375
▁studio	-10.6377
ifi	-10.6377
▁tax	-10.6379
▁destruction	-10.6381
▁Collection	-10.6384
l�n	-10.6385
▁logique	-10.6389
▁"A	-10.6389
▁priv�	-10.6389
l�ve	-10.6394
▁Voyage	-10.6401
▁plaque	-10.6401
▁l'environnement	-10.6403
▁Chevalier	-10.6403
▁Colombie	-10.6403
▁Spa	-10.6404
▁invit�	-10.6406
▁document	-10.641
duction	-10.6413
▁Andre	-10.6417
▁Your	-10.6419
▁mor	-10.642
▁Bart	-10.6421
▁�quivalent	-10.6424
ao	-10.6425
▁origines	-10.6425
FFF	-10.6429
▁che	-10.643
hir	-10.643
▁Luis	-10.6432
cycl	-10.6437
▁Marco	-10.6438
eille	-10.6439
▁6-1	-10.6439
▁?O	-10.6441
rite	-10.6442
▁Call	-10.6443
▁musical	-10.6443
sha	-10.6443
▁S�n�gal	-10.6443
RC	-10.6448
ologique	-10.645
▁assure	-10.6452
▁l'entr�e	-10.6453
▁"T	-10.6454
▁l'esprit	-10.6455
tran	-10.6456
▁ouest	-10.6457
▁Andrea	-10.6458
▁(il	-10.6459
▁projets	-10.646
bru	-10.6461
uck	-10.6461
dig	-10.6463
▁contes	-10.6464
▁plateau	-10.6467
▁dimanche	-10.647
dier	-10.6474
▁sp�cifique	-10.6475
liste	-10.6478
▁SA	-10.6479
dium	-10.6483
sio	-10.6485
▁Fran�oise	-10.6485
▁conc	-10.6486
▁milliards	-10.6487
▁J�rusalem	-10.6487
▁linguistique	-10.6487
▁disput�	-10.6487
m�r	-10.6488
ambi	-10.6494
itz	-10.6495
▁op�rations	-10.6496
▁volumes	-10.6498
▁Fal	-10.6501
▁Fab	-10.6503
▁Pau	-10.6504
▁"M	-10.6506
▁d�sign�	-10.6507
▁2003.	-10.6511
▁b�ti	-10.6513
-l�	-10.6514
▁98	-10.6516
▁Press,	-10.652
▁Photographie	-10.6523
▁abrite	-10.6524
▁Cuba	-10.6525
aque	-10.6529
▁m�ne	-10.6533
eau,	-10.6537
▁d'int�r�t	-10.654
▁2008.	-10.654
mmer	-10.6541
iya	-10.6546
▁instrument	-10.6549
TP	-10.6549
▁cherche	-10.655
▁Roche	-10.6551
sign	-10.6555
▁chance	-10.6557
illo	-10.6559
▁saisons	-10.6565
▁top	-10.6565
terre	-10.6567
▁Tir	-10.6569
▁d�clin	-10.6571
▁Nick	-10.6575
▁esc	-10.6575
▁Montpellier	-10.6575
▁l'entreprise	-10.6575
▁n'avait	-10.6575
▁lecture	-10.6575
▁Vitesse	-10.6575
▁called	-10.6578
▁Water	-10.6581
awa	-10.6583
▁gris	-10.6584
▁coll	-10.6584
▁Ferdinand	-10.6584
▁marqu�	-10.6588
▁d'action	-10.6589
▁sp�cial	-10.6589
▁1905	-10.6591
IV	-10.6592
▁Casal	-10.6594
▁live	-10.66
ME	-10.6601
DF	-10.6608
pr�	-10.6609
▁revanche	-10.661
ele	-10.6612
▁design	-10.6613
mant	-10.6614
-Re	-10.6615
▁continu	-10.6622
▁Jou	-10.6625
bia	-10.6627
�g	-10.6632
▁Gran	-10.6637
▁emb	-10.664
oro	-10.6642
▁Cin�ma	-10.6643
ulation	-10.6645
▁Syst�me	-10.6646
▁produire	-10.6646
▁Masse	-10.6646
▁ordres	-10.6647
▁Alpes	-10.665
▁Fall	-10.6652
eck	-10.6653
▁manga	-10.6653
▁finit	-10.666
▁Nova	-10.666
▁monnaie	-10.6663
▁gar�on	-10.6664
▁Lor	-10.6666
uche	-10.667
▁qu'au	-10.6671
ious	-10.6671
llier	-10.6672
rer	-10.6673
wil	-10.6674
▁Syn	-10.6675
▁Bir	-10.6676
Con	-10.6676
put	-10.6676
▁Dark	-10.6679
cel	-10.668
ndi	-10.6683
ri�re	-10.6683
▁Argent	-10.6684
▁l'Internet	-10.6685
▁rep	-10.6686
▁consid�re	-10.6687
cas	-10.6694
▁Points	-10.6697
▁O'	-10.6698
▁Thierry	-10.6699
▁prot�g�	-10.6699
▁contenant	-10.6699
▁l'association	-10.6701
▁s'installe	-10.6701
�li	-10.6701
▁St.	-10.6703
▁Gaston	-10.6705
▁enregistr�	-10.6708
▁Chau	-10.671
▁sportif	-10.6711
▁Chili	-10.6711
gur	-10.6713
ni�re	-10.6714
▁responsabilit�	-10.6717
▁Sous-famille	-10.6717
kel	-10.6717
▁ext�rieur	-10.6717
▁There	-10.6718
▁(1998)	-10.6718
▁civilisation	-10.6719
▁mention	-10.672
▁Fre	-10.672
▁portrait	-10.672
is,	-10.6722
▁Vau	-10.6726
▁classes	-10.6727
s'y	-10.6728
▁territoires	-10.6729
vern	-10.6734
▁baseball	-10.6736
▁transformation	-10.6737
▁urbaine	-10.6739
gir	-10.6739
▁d'aide	-10.674
▁proches	-10.6742
▁l'�tude	-10.6743
gis	-10.6744
▁pense	-10.6745
▁Victoria	-10.6746
▁Fils	-10.6746
▁organis�e	-10.6748
▁Road	-10.6749
▁Pot	-10.6749
▁6e	-10.6752
é	-10.6752
gny	-10.6752
▁titulaire	-10.6752
▁STS-	-10.6753
got	-10.6753
▁m�thodes	-10.6753
▁touristique	-10.6755
▁l'amour	-10.6756
nus	-10.6758
▁tr�ne	-10.6759
▁r�publicain	-10.6762
▁matin	-10.6762
▁Boul	-10.6765
▁Mak	-10.6767
core	-10.6768
bio	-10.6772
▁totalement	-10.6776
▁Zone	-10.678
▁Editions	-10.6784
▁Jam	-10.6786
▁Duc	-10.6786
▁possession	-10.6788
▁Best	-10.6789
▁origine	-10.679
am�ricain	-10.6794
▁red	-10.6796
▁High	-10.6796
▁Otto	-10.6801
▁soci�t�s	-10.6804
▁Ak	-10.6804
▁marchand	-10.6806
▁94	-10.6806
�tes	-10.6806
▁britanniques	-10.6807
gl	-10.6807
▁�viter	-10.6808
stru	-10.6808
fr	-10.6808
mul	-10.681
erne	-10.6812
▁1998,	-10.6812
▁Nationale	-10.6816
chu	-10.6818
-I	-10.6818
gliano	-10.6818
▁os	-10.682
▁dehors	-10.6825
▁gardien	-10.6826
▁douze	-10.6826
▁chiffre	-10.683
▁RC	-10.6832
▁Ferrari	-10.6833
▁(4)	-10.6836
▁francophone	-10.6843
[12]	-10.6843
▁[[R	-10.6845
▁enti�re	-10.6846
▁Vall�e	-10.6847
[7]	-10.6849
usse	-10.6851
▁fleur	-10.6852
AD	-10.6853
CE	-10.6854
▁Metz	-10.6855
▁Zu	-10.6855
▁Kam	-10.6856
pl	-10.6857
▁Society	-10.686
▁Donn�es	-10.6861
▁Lewis	-10.6864
||	-10.6864
▁Party	-10.6866
MS	-10.6872
▁Biblioth�que	-10.6872
uro	-10.6875
▁Wo	-10.6876
▁Oscar	-10.6878
▁religieuse	-10.6879
▁music	-10.6879
▁marquis	-10.6879
▁known	-10.6887
▁masculin	-10.6887
▁History	-10.6889
▁lib�ration	-10.6897
▁d�p	-10.6899
▁SS	-10.6899
chev	-10.69
▁far	-10.6911
zzano	-10.6912
▁taxon	-10.6913
-du-	-10.6914
▁hommage	-10.6915
▁l'enseignement	-10.6915
▁maximum	-10.6915
▁printemps	-10.6915
▁l'ind�pendance	-10.6915
▁forment	-10.6917
▁har	-10.6919
pot	-10.692
▁93	-10.6923
▁Tokyo	-10.6924
far	-10.6929
iga	-10.6929
▁1909	-10.6929
assemb	-10.693
▁cho	-10.6932
▁1881	-10.6933
▁Madame	-10.6934
▁co-	-10.6935
▁1907	-10.6936
▁plans	-10.6936
▁?V	-10.6939
▁g�ant	-10.6941
[5].	-10.6943
ming	-10.6943
▁vieille	-10.6943
▁Mission	-10.6944
▁Maz	-10.6945
▁laisser	-10.6948
▁baie	-10.6948
p.	-10.695
iste,	-10.6951
▁�toile	-10.6951
mos	-10.6951
▁transmission	-10.6953
▁Six	-10.6957
▁quitter	-10.6958
~	-10.6958
▁marqu�s	-10.6961
ggio	-10.6961
mil	-10.6965
Site	-10.6973
▁China	-10.6976
▁Plat	-10.6983
▁conduite	-10.6984
ieu	-10.6987
▁investi	-10.6989
▁utile	-10.6992
▁d�fini	-10.6992
{	-10.6994
▁Heart	-10.6996
▁Minist�re	-10.6997
br�	-10.6997
},	-10.6998
led	-10.7
▁1800	-10.7001
▁empereur	-10.7006
▁d'Au	-10.7009
▁bio	-10.7011
▁cite	-10.7012
▁More	-10.7014
▁pr�vu	-10.7016
▁2008,	-10.7017
adi	-10.7018
▁peau	-10.7019
▁(du	-10.7021
▁grave	-10.7025
▁d'Ivoire	-10.7025
▁historien	-10.7027
▁passion	-10.7029
tical	-10.7031
aya	-10.7038
inus	-10.7039
▁solo	-10.704
hum	-10.7042
▁chimie	-10.7043
▁m�lange	-10.7044
▁concentration	-10.7044
▁reconnaissance	-10.7044
▁�mission	-10.7046
▁Lune	-10.7048
▁f�t	-10.7052
▁Championship	-10.7053
ope	-10.7056
▁Barbara	-10.7057
L'	-10.7058
▁questions	-10.7058
uma	-10.7058
▁acquis	-10.7059
▁Versailles	-10.7062
▁Racing	-10.7062
▁promotion	-10.7064
▁Transport	-10.7064
▁colonel	-10.7064
CA	-10.7066
▁XIe	-10.7068
▁Central	-10.707
▁mod	-10.7071
):	-10.7073
▁Animal	-10.7076
▁vend	-10.7077
▁March	-10.7079
BC	-10.7079
▁drapeau	-10.708
▁gi	-10.7082
▁l'empire	-10.7083
▁Statistiques	-10.7088
▁"La	-10.7094
▁menace	-10.7096
fri	-10.7096
eno	-10.7096
comment>	-10.7096
▁<comment>	-10.7101
▁Hell	-10.7101
▁(+	-10.7102
▁Dra	-10.7104
▁Ford	-10.7105
mort	-10.711
▁tir�	-10.7111
▁major	-10.7114
▁XIV	-10.7114
▁Cat�gorie	-10.7117
▁Nouveau	-10.7117
▁Deuxi�me	-10.7118
▁VIII	-10.7122
\	-10.7125
▁plante	-10.7126
▁Affaires	-10.7126
�mi	-10.7127
gri	-10.7128
ssy	-10.7128
roux	-10.7128
slav	-10.7129
▁�change	-10.7134
▁constitu�e	-10.7136
▁Kid	-10.7136
nisme	-10.7138
iri	-10.7147
▁Alg�rie	-10.7148
▁(De	-10.7152
▁Wall	-10.7154
▁r�cemment	-10.7154
▁L�gion	-10.7155
▁Casa	-10.7155
▁technologie	-10.7156
voi	-10.7158
▁?K	-10.7158
.fr	-10.7164
SI	-10.7166
corp	-10.7167
▁Moon	-10.7167
-Le	-10.7167
eto	-10.717
ith	-10.7171
▁tourne	-10.7172
▁Coll�ge	-10.7173
trop	-10.7174
cit�	-10.7175
▁d'H	-10.7176
▁l'Angleterre	-10.7178
▁Rennes	-10.7179
▁acte	-10.718
▁humains	-10.7181
▁entra	-10.7182
▁violon	-10.7183
▁you	-10.7183
▁avocat	-10.7184
SE	-10.7184
-Marie	-10.7187
�dition	-10.7188
▁sh	-10.7189
RO	-10.719
▁Renaissance	-10.7192
▁Wei	-10.7194
▁compl�tement	-10.7195
▁suivre	-10.7195
gun	-10.7198
ibilit�	-10.7198
-Ba	-10.72
▁eau	-10.72
▁Peu	-10.7204
1984	-10.7205
1985	-10.7207
▁con�u	-10.721
olf	-10.721
▁Caroline	-10.7213
▁l'In	-10.7213
▁cons	-10.7216
▁s�ries	-10.7218
▁barre	-10.722
p�ri	-10.7222
d�tail	-10.7224
▁suivants	-10.7227
LE	-10.7228
m�n	-10.7228
▁r�seaux	-10.7229
▁Oct	-10.7229
▁conqu�te	-10.7229
▁them	-10.7232
▁S�lection	-10.7233
▁(comme	-10.7235
▁gla	-10.7236
ot,	-10.7241
ghe	-10.7246
▁dipl�me	-10.7248
▁efficace	-10.7248
▁nourri	-10.7248
▁Pam	-10.7249
▁lui,	-10.725
▁altitude	-10.7252
thy	-10.7253
▁Divers	-10.7254
▁�tienne	-10.7256
▁diffus�e	-10.7258
▁statistiques	-10.7259
▁Old	-10.726
dorf	-10.726
phon	-10.7263
lag	-10.7268
▁Campo	-10.7268
▁Dub	-10.7269
▁August	-10.7271
▁description	-10.7275
Pro	-10.7277
▁�lev�e	-10.7278
aye	-10.7278
irent	-10.728
▁Fire	-10.7282
m�ne	-10.7284
▁sud-est	-10.7286
▁Sous-ordre	-10.7286
anda	-10.7286
▁English	-10.7286
▁exp�dition	-10.7287
▁fiction	-10.7287
▁combats	-10.7289
▁information	-10.729
▁r�ussit	-10.7291
▁documentaire	-10.7292
▁d'inter	-10.7292
▁Gall	-10.7293
pur	-10.7294
glo	-10.7294
▁graphique	-10.7297
▁porter	-10.7297
▁qu�b�cois	-10.7302
▁erreur	-10.7305
light	-10.7305
▁(?)	-10.731
▁U.S.	-10.7311
▁Retour	-10.7311
▁Franco	-10.7312
▁often	-10.7313
▁tube	-10.7314
�e.	-10.7315
▁Bureau	-10.7316
▁Sub	-10.732
teint	-10.7321
l'administration	-10.7323
worth	-10.7324
▁facile	-10.7331
▁perte	-10.7332
otte	-10.7332
rig	-10.7333
▁tre	-10.7337
▁pleine	-10.7338
anche	-10.7338
▁d�sert	-10.734
▁Jordan	-10.734
px	-10.7341
▁bataillon	-10.7342
▁d�clar�	-10.7343
▁mondiale.	-10.7347
▁URSS	-10.7347
pit	-10.7347
pal	-10.7347
yon	-10.7351
▁Pie	-10.7351
▁dure	-10.7357
▁Action	-10.7358
?ng	-10.736
▁(1/32)	-10.7361
▁Face	-10.7362
ame	-10.7362
▁montagnes	-10.7365
▁f�d�rale	-10.7366
dique	-10.7374
▁critiques	-10.7376
▁spectacle	-10.7377
▁solide	-10.7379
�m	-10.7382
▁d'enfant	-10.7383
▁http://	-10.7384
rov	-10.7387
mn	-10.7387
ats	-10.739
▁piste	-10.739
▁d'U	-10.7391
▁architecte	-10.7396
▁victimes	-10.7396
▁transports	-10.7397
EP	-10.7401
▁l'�mission	-10.7401
▁XIII	-10.7401
▁port�e	-10.7402
hab	-10.7404
▁inconnue	-10.7404
cens	-10.7404
▁Blues	-10.7406
▁Not	-10.7409
▁Commentaire	-10.7409
▁Home	-10.7409
grand	-10.7412
▁prisonniers	-10.7417
HL	-10.742
▁Nan	-10.742
▁quoi	-10.7421
ifs	-10.7427
▁Kal	-10.7428
▁unit�	-10.7431
▁Cau	-10.7433
▁extra	-10.7436
d�s	-10.7437
▁1980,	-10.7438
▁junior	-10.7438
▁t�moin	-10.7438
▁parvient	-10.7438
range	-10.7441
▁victime	-10.7441
▁Dead	-10.7441
para	-10.7442
Di	-10.7442
▁Rec	-10.7446
▁plaine	-10.7447
▁app	-10.7448
▁retrouver	-10.7449
▁japonaise	-10.745
star	-10.7451
▁Hay	-10.7452
fle	-10.7456
▁Taylor	-10.7457
▁Mouvement	-10.7457
▁star	-10.7457
▁pr�cise	-10.7459
▁Photo	-10.7459
▁consommation	-10.746
▁where	-10.7461
▁successeur	-10.7462
▁ter	-10.7463
▁m�trage	-10.7463
▁made	-10.7464
▁syn	-10.7464
▁Stu	-10.7465
▁adapt�	-10.7466
▁Double	-10.7467
▁Louise	-10.7467
zin	-10.7471
▁prot�ger	-10.7474
▁?F	-10.7476
▁conscience	-10.7477
▁Gallimard	-10.7485
alisation	-10.7486
▁occup�	-10.7488
▁1996,	-10.7491
▁(pour	-10.7491
spiration	-10.7494
▁tro	-10.7497
▁Samuel	-10.7497
▁Down	-10.75
▁vide	-10.7503
▁d'affaires	-10.7505
▁facilement	-10.7508
1979	-10.7511
▁1848	-10.7514
▁opposition	-10.7515
▁Eug�ne	-10.7515
▁48�	-10.7516
▁1000	-10.752
▁mesures	-10.752
▁Bourg	-10.7521
▁M�n	-10.7523
▁Billy	-10.7524
▁Space	-10.7528
motion	-10.7531
▁�lection	-10.7532
▁Monaco	-10.7536
▁Comte	-10.7537
1973	-10.7537
▁Miller	-10.754
▁r�daction	-10.7541
▁Poste	-10.7543
▁Year	-10.7546
▁multiples	-10.7547
▁Roll	-10.7548
nner	-10.7548
▁Sav	-10.7549
▁(X	-10.7551
▁[[E	-10.7553
▁approche	-10.7554
▁milliers	-10.7554
▁Saint-Pierre	-10.7555
France	-10.756
▁Wilson	-10.7561
▁Ara	-10.7562
▁Mod	-10.7567
▁1789	-10.7569
1991	-10.7569
▁1997,	-10.7571
▁cimeti�re	-10.7573
▁J�sus	-10.7573
▁batterie	-10.7574
▁Sy	-10.7575
ements	-10.7577
▁Magic	-10.7579
▁bus	-10.7583
ignant	-10.7584
▁130	-10.7584
▁6-2	-10.7586
▁contemporaine	-10.7586
▁Chan	-10.7588
▁Andrew	-10.7589
▁Allen	-10.759
ized	-10.7593
▁cru	-10.7606
quant	-10.7606
▁Qu�bec.	-10.7608
bles	-10.7609
▁1793	-10.7609
▁Hugo	-10.7609
ador	-10.761
▁ge	-10.7612
▁sp�ciale	-10.7612
▁horaire	-10.7612
c�e	-10.7612
▁Justice	-10.7613
-p	-10.7613
▁Vent	-10.7616
omi	-10.7623
matic	-10.7624
▁105	-10.7627
S.	-10.7627
▁Spe	-10.7629
▁NCBI	-10.7632
▁oppos�	-10.7632
▁45�	-10.7632
▁Fernand	-10.7632
▁1830	-10.7634
▁deviendra	-10.7636
nig	-10.7637
▁guerre,	-10.7638
▁7e	-10.764
rais	-10.7643
▁[2]	-10.7648
pop	-10.765
▁atteindre	-10.7651
▁nord-ouest	-10.7652
▁Activit�	-10.7652
▁Soleil	-10.7652
▁hiver	-10.7657
▁r�side	-10.7659
DE	-10.766
▁suis	-10.7661
resse	-10.7661
▁paru	-10.7663
▁tiers	-10.7667
▁Fil	-10.7667
press	-10.7667
▁l'usage	-10.7671
▁command	-10.7671
▁violence	-10.7672
▁Sky	-10.7672
▁machines	-10.7681
▁off	-10.7682
▁Julie	-10.7683
▁acteurs	-10.7685
username>	-10.7688
stone	-10.7688
▁enseigne	-10.7691
lice	-10.7692
▁<username>	-10.7692
▁conservateur	-10.7693
▁Petite	-10.7693
▁della	-10.7697
▁1981,	-10.7697
▁Jura	-10.7697
▁officier	-10.7699
▁rat	-10.7703
▁Blanche	-10.7704
lem	-10.7707
▁?I	-10.7707
c�ne	-10.771
▁Pacifique	-10.771
▁D�put�	-10.771
▁re�ut	-10.7711
�d�	-10.7712
▁Gun	-10.7712
▁Jean-Louis	-10.7712
▁Kon	-10.7713
▁au-dessus	-10.7716
III	-10.7717
▁Rocca	-10.7718
▁Pts	-10.7724
cession	-10.7729
▁pic	-10.7729
Taxonomy	-10.773
▁programmes	-10.7733
▁chefs	-10.7734
tout	-10.7734
▁arr�t	-10.7736
▁Grenoble	-10.7737
▁Flam	-10.7737
▁125	-10.7739
▁s'in	-10.7739
▁interpr�te	-10.774
fran�ais.	-10.7741
▁2002.	-10.7746
▁boule	-10.7748
▁[[J	-10.7749
▁minimale	-10.7754
▁Flo	-10.7755
▁comp�titions	-10.7756
▁Sep	-10.7757
▁Xe	-10.7758
1987	-10.7761
1944	-10.7765
▁0,0	-10.7766
▁Ski	-10.7766
▁bateau	-10.7768
▁Dick	-10.7768
▁8e	-10.7768
▁Convention	-10.7769
▁trafic	-10.7769
For	-10.7769
▁Glo	-10.777
▁Direction	-10.7771
▁Some	-10.7772
▁olympique	-10.7772
▁Town	-10.7772
rate	-10.7772
▁sensible	-10.7773
DS	-10.7774
▁1886	-10.7777
▁R�giment	-10.7781
▁morale	-10.7782
rol	-10.7783
▁1891	-10.7787
but	-10.7788
▁Celui-ci	-10.7789
▁l'�tranger	-10.7789
▁�pousa	-10.7789
▁souvenir	-10.779
▁sociaux	-10.7791
ettes	-10.7792
vas	-10.7793
nit	-10.7795
▁Adventure	-10.7795
▁Rat	-10.7796
▁cousin	-10.7796
▁Fran	-10.7797
rag	-10.7799
▁musiciens	-10.7802
▁Ant	-10.7804
▁romans	-10.7805
▁(Re	-10.7808
▁mar�chal	-10.7809
▁phrase	-10.7809
▁include	-10.7809
wo	-10.781
▁r�union	-10.781
▁l'�volution	-10.7811
▁Golden	-10.7815
run	-10.7818
▁missions	-10.7821
engo	-10.7826
▁BC	-10.7829
ia]]	-10.783
▁r�partition	-10.783
▁irr	-10.783
▁Projet	-10.783
▁UMP	-10.7831
ular	-10.7832
bout	-10.7832
▁Rhin	-10.7833
▁�tudie	-10.7836
▁pays,	-10.7837
▁Gru	-10.7839
CD	-10.7846
▁partis	-10.7848
activ	-10.7855
▁admis	-10.7859
km	-10.7859
▁places	-10.786
▁conserv�	-10.7863
▁tuer	-10.7864
▁war	-10.7865
▁und	-10.7867
▁surnomm�	-10.7868
▁scolaire	-10.7869
PC	-10.7869
▁paroles	-10.7869
▁chat	-10.787
▁apprend	-10.7872
ved	-10.7873
▁dieu	-10.7874
-Saint	-10.7879
gate	-10.7881
1967	-10.7883
▁am�ricain.	-10.7884
▁0�	-10.7885
mble	-10.7886
▁v�rit�	-10.7889
▁variante	-10.7892
▁ind�pendante	-10.7896
▁r�guli�re	-10.7897
▁Hommes	-10.7898
▁Ton	-10.7898
▁propri�t�s	-10.7899
▁surnom	-10.7899
ss�e	-10.7899
m�trique	-10.79
▁mes	-10.79
lov	-10.7901
▁found	-10.7907
▁Pr�fixe	-10.7909
▁�cosse	-10.791
▁cl�s	-10.791
▁citer	-10.791
▁qualifi�	-10.791
▁Volume	-10.791
▁Canal	-10.7912
▁am�ricains	-10.7913
▁Pel	-10.7915
▁remonte	-10.7915
1975	-10.7919
▁d�fenseur	-10.7921
▁syndrome	-10.7929
▁laboratoire	-10.7929
▁trente	-10.7929
tle	-10.7931
ndre	-10.7932
uba	-10.7935
▁princesse	-10.7936
▁lancer	-10.7936
▁auquel	-10.7937
1988	-10.794
ological	-10.7941
▁Arm	-10.7942
▁Dave	-10.7943
▁Institut	-10.7946
▁ISO	-10.7947
▁nul	-10.7952
grad	-10.7952
▁Voix	-10.7954
r�ne	-10.7961
▁term	-10.7961
▁s'engage	-10.7962
▁si�ges	-10.7966
dance	-10.7967
▁nord-est	-10.797
▁crue	-10.7973
▁pot	-10.7975
▁enqu�te	-10.7976
▁Lettres	-10.7983
▁d�buts	-10.7984
▁Robin	-10.7985
▁faite	-10.7988
▁politique.	-10.7988
▁Profession	-10.799
▁lieutenant	-10.799
▁Vierge	-10.799
▁converti	-10.7991
vez	-10.7992
y]]	-10.7995
logie	-10.7998
view	-10.8
▁quartiers	-10.8002
Lo	-10.8008
▁dioc�se	-10.801
▁Earth	-10.801
▁Tr�s	-10.802
▁su�dois	-10.8021
▁sortir	-10.8022
1968	-10.8022
git	-10.8028
enza	-10.8028
▁essais	-10.8029
▁pourquoi	-10.803
▁L'�quipe	-10.8031
▁europ�ens	-10.8031
▁l'information	-10.8031
▁Cons	-10.8032
▁p�ri	-10.8032
▁nation	-10.8033
▁morceaux	-10.8034
CO	-10.8035
▁Om	-10.8036
▁Seine	-10.8039
▁Office	-10.804
▁Lucien	-10.8042
▁sportive	-10.8044
▁demi-	-10.8046
▁go�t	-10.8047
yne	-10.805
▁accueille	-10.8051
▁Mass	-10.8053
/03	-10.8054
▁acc�s	-10.8058
▁Iran	-10.8061
AF	-10.8062
pis	-10.8063
amo	-10.8063
▁Italie.	-10.8064
▁connus	-10.8065
kon	-10.8066
▁Gr�	-10.8066
▁associations	-10.8067
▁codes	-10.8067
▁Rem	-10.8067
▁repos	-10.8068
▁cons�quence	-10.8068
▁Marguerite	-10.8071
▁los	-10.8072
▁140	-10.8074
oo	-10.8077
▁Saint-Martin	-10.8081
▁indien	-10.8082
IP	-10.8082
ating	-10.8086
mper	-10.8086
▁(m	-10.8086
▁Valle	-10.8087
▁mauvais	-10.809
ffre	-10.8091
▁brigade	-10.8092
▁�tudi�	-10.8092
▁Jean-Fran�ois	-10.8095
chat	-10.8096
-25	-10.8096
▁touche	-10.8107
iac	-10.811
cl�	-10.8111
▁fa�ade	-10.8112
▁judiciaire	-10.8112
▁maintien	-10.8115
gnon	-10.8117
▁cellules	-10.8117
▁Bourbon	-10.8121
ov�	-10.8122
cell	-10.8126
id�	-10.8128
Il	-10.8129
▁d'information	-10.8129
▁101	-10.813
▁provisoire	-10.8133
▁t�l�phonique	-10.8133
▁ch?ur	-10.8133
▁dirig�e	-10.8133
▁pr�sidentielle	-10.8134
▁Rai	-10.8137
ping	-10.8137
diction	-10.8138
▁Ami	-10.8141
istique	-10.8143
▁th�mes	-10.8143
▁Carr	-10.8146
▁p�le	-10.8146
▁franchi	-10.8146
▁consid�rable	-10.815
▁Emmanuel	-10.8152
▁Certaines	-10.8153
alla	-10.8158
▁norme	-10.816
PA	-10.8161
qual	-10.8164
▁Beno�t	-10.8168
.[1]	-10.8169
▁like	-10.817
illage	-10.8171
▁Station	-10.8172
▁christianisme	-10.8174
▁cuisine	-10.8174
▁extension	-10.8174
▁accepte	-10.8175
▁mobile	-10.8176
▁1871	-10.8176
▁fera	-10.8177
wing	-10.8178
▁Rub	-10.818
▁1876	-10.818
▁cabinet	-10.818
▁Yougoslavie	-10.818
▁verre	-10.818
arc	-10.8183
▁�nergie	-10.8184
▁Award	-10.8188
yle	-10.8189
▁1903	-10.819
▁pr�tend	-10.8193
▁L'un	-10.8193
gio	-10.8194
▁usine	-10.8194
▁partenaire	-10.8195
▁minimum	-10.8196
▁Pietro	-10.8196
mettent	-10.8196
▁Reich	-10.8199
MP	-10.8199
rop	-10.8204
▁fonds	-10.8204
von	-10.8208
▁p�re,	-10.8208
-Ha	-10.821
vari	-10.8211
▁St�phane	-10.8215
▁repris	-10.8216
▁succession	-10.8217
type	-10.8217
▁6-4,	-10.8221
▁Carlo	-10.8221
▁b�ton	-10.8221
▁Ash	-10.8226
nac	-10.8226
▁universitaire	-10.8227
▁(�tats-Unis)	-10.8228
rab	-10.8228
▁Hil	-10.8228
▁S�nat	-10.8229
▁Trait�	-10.8231
▁Georg	-10.8231
1974	-10.8233
▁soi	-10.8235
▁lecteur	-10.8236
▁auparavant	-10.8236
▁strat�gie	-10.8236
▁Jusqu'	-10.8236
▁Seigneur	-10.8236
▁licence	-10.8236
▁Munich	-10.8237
▁Reims	-10.8237
▁Major	-10.8238
▁retrait	-10.8239
ours	-10.8239
onde	-10.8239
▁pr�cis	-10.8241
▁pratiques	-10.8244
600	-10.8244
▁Hou	-10.8244
▁issue	-10.8245
▁modernes	-10.8246
▁constitutionnel	-10.8247
▁limit	-10.8253
▁1995,	-10.8254
BS	-10.8256
▁Architecture	-10.8257
▁Jour	-10.8257
1960	-10.8257
arra	-10.8257
▁gagn�	-10.8257
▁men�e	-10.8258
▁�glises	-10.8258
isa	-10.8259
bur	-10.8261
▁imm�diatement	-10.8262
lumin	-10.8262
EM	-10.8265
ington	-10.8267
head	-10.8267
▁1880	-10.8267
▁being	-10.8268
pace="preserve">	-10.827
▁esprit	-10.8271
▁difficult�s	-10.8273
asso	-10.8276
▁sp�cialis�	-10.8276
essa	-10.8277
ttle	-10.8277
▁d�couvrir	-10.8278
▁Rich	-10.8278
▁adjoint	-10.8278
onia	-10.8279
▁Didier	-10.8279
▁secondaire	-10.8281
▁quel	-10.8282
cast	-10.8283
1976	-10.8283
▁York,	-10.8283
▁univers	-10.8283
-f	-10.8285
▁battu	-10.8285
eira	-10.8289
▁relais	-10.829
▁Colle	-10.8292
▁Record	-10.8294
▁1890	-10.8296
▁2-2	-10.8297
▁Abd.	-10.8297
▁Run	-10.8298
▁adopte	-10.8299
▁accessible	-10.8299
▁Chelem	-10.8299
▁Ple	-10.8301
▁Coup	-10.8305
▁Cru	-10.8306
nny	-10.8307
v.	-10.8307
ut�	-10.8311
iformes	-10.8312
800	-10.8312
▁1898	-10.8314
cap	-10.8315
▁tru	-10.8318
▁Benjamin	-10.8319
▁Vertebrata	-10.8319
▁s�nateur	-10.8319
▁sud-ouest	-10.832
▁Exp	-10.8321
▁Fla	-10.8325
▁d�fi	-10.8329
▁amour	-10.833
▁Sainte-	-10.8331
▁post	-10.8332
�tique	-10.8333
▁niveaux	-10.8333
osse	-10.8336
ress	-10.8337
reux	-10.8339
last	-10.834
▁favorable	-10.834
▁avanc�	-10.834
▁Classic	-10.8341
▁autoris�	-10.8341
NO	-10.8341
▁voulu	-10.8342
▁cas,	-10.8345
flex	-10.8345
▁Bond	-10.8346
▁Sydney	-10.8347
cteur	-10.8348
▁(pro	-10.8352
▁bo�te	-10.8352
▁SE	-10.8352
▁jette	-10.8353
▁Bab	-10.8356
kha	-10.8359
Gu	-10.836
�na	-10.836
▁Provence	-10.8361
▁devrait	-10.8365
▁Chal	-10.8366
▁provoque	-10.8368
▁parlement	-10.8368
graphe	-10.8369
▁artiste	-10.8373
sey	-10.8375
lieu	-10.8375
rue	-10.8377
▁coups	-10.8377
dol	-10.838
▁Gouverneur	-10.8382
▁sculpture	-10.8382
▁2000.	-10.8383
bis	-10.8383
▁Quatre	-10.8384
▁allemands	-10.8384
▁r�gionale	-10.8385
quier	-10.8386
▁Taxon	-10.8386
SP	-10.8386
▁Pap	-10.8389
▁m�ta	-10.839
▁utilis�es	-10.8391
1972	-10.8391
nium	-10.8391
▁Av	-10.8392
cale	-10.8393
▁?H	-10.8395
▁Charlie	-10.8395
▁Alice	-10.8396
▁Bos	-10.8397
▁Reg	-10.84
▁Cle	-10.8403
▁�l�ve	-10.8404
▁power	-10.8405
ardo	-10.8407
▁entra�neur	-10.8408
▁Bible	-10.841
tifs	-10.8411
ivre	-10.8412
Or	-10.8413
vocat	-10.8416
acc	-10.8417
lib	-10.8417
▁roche	-10.8418
▁Sans	-10.8418
▁Mid	-10.8419
▁nomme	-10.8419
icon	-10.842
▁Kir	-10.8421
[8]	-10.8421
ucci	-10.8424
▁1993,	-10.8424
▁mythologie	-10.8425
▁ban	-10.8426
▁Auteur	-10.8429
▁Autre	-10.8429
▁d�finitivement	-10.843
▁sec	-10.8432
▁�v�nement	-10.8432
▁stations	-10.8432
minor	-10.8433
▁Rey	-10.8436
OT	-10.8439
▁portent	-10.8443
celle	-10.8444
▁l'agriculture	-10.8446
▁prennent	-10.8446
▁proc�dure	-10.8446
▁heure	-10.845
▁160	-10.8452
▁case	-10.8454
▁(Ch	-10.8455
▁Philip	-10.8456
▁�mile	-10.8458
▁Nicole	-10.8459
▁Ernest	-10.8459
▁passa	-10.846
▁Bag	-10.8461
▁employ�	-10.8461
ichi	-10.8464
▁example	-10.8467
▁rencontr�	-10.8467
▁r�compense	-10.8467
▁dramatique	-10.8467
▁rempli	-10.847
▁plage	-10.847
ac�es	-10.8471
▁G�orgie	-10.8476
▁constituent	-10.8478
▁IX	-10.8479
▁Alan	-10.848
jar	-10.8481
[9]	-10.8486
▁Tha	-10.8486
▁inf�rieure	-10.8487
▁�gypte	-10.8488
▁170	-10.849
OL	-10.8493
▁distinction	-10.8494
▁2007)	-10.8494
▁Douglas	-10.8495
▁Law	-10.8495
▁balle	-10.8495
▁<id>1	-10.8498
1977	-10.8499
▁r�elle	-10.8501
MI	-10.8502
▁Bran	-10.8504
-Z	-10.8507
uto	-10.8508
▁Baron	-10.8508
card	-10.8509
▁Play	-10.8509
▁contribue	-10.851
▁jours,	-10.851
rose	-10.8515
o�de	-10.8517
-X	-10.8519
▁Over	-10.8525
▁Caen	-10.8526
isme.	-10.8528
▁Pon	-10.853
▁alphab�tique	-10.8531
▁lesquelles	-10.8531
▁chevaux	-10.8531
▁s'�tait	-10.8531
▁participa	-10.8533
▁repose	-10.8535
▁populations	-10.8536
▁vague	-10.8537
aux.	-10.8538
issi	-10.854
▁directe	-10.8544
Ar	-10.8547
omo	-10.855
cte	-10.8551
quel	-10.8552
▁1902	-10.8552
▁nazi	-10.8556
uda	-10.8558
▁provinces	-10.8559
Li	-10.856
▁Cava	-10.8562
b�r	-10.8566
▁modifications	-10.8571
rell	-10.8573
▁d'Orl�ans	-10.8574
▁obligatoire	-10.8574
▁dispute	-10.8574
mme	-10.8575
mate	-10.8575
'N	-10.8575
CH	-10.8577
▁retourne	-10.8579
▁well	-10.8583
hib	-10.8584
▁Press	-10.8589
▁1850	-10.859
▁???????,	-10.8591
landais	-10.8592
▁qu'elles	-10.8593
Par	-10.8594
▁Saint-�tienne	-10.8596
▁Jeune	-10.8596
▁mat�riaux	-10.8598
▁progressivement	-10.8599
▁guide	-10.8612
▁comprendre	-10.8615
vat	-10.8618
▁classification	-10.8618
▁liquide	-10.8618
Ba	-10.8618
▁Greg	-10.8619
▁Lisa	-10.862
▁vigne	-10.8625
▁Jr.	-10.8631
▁Course	-10.8632
lk	-10.8632
▁conserve	-10.8633
anga	-10.8634
chel	-10.8634
▁Bonne	-10.8637
▁Fox	-10.8638
itch	-10.8638
▁J�	-10.8641
▁a�rienne	-10.8641
oll	-10.8642
▁Public	-10.8643
▁Back	-10.8644
▁Main	-10.8648
▁Beach	-10.8651
▁existant	-10.8652
▁Queen	-10.8653
▁Gy	-10.8654
▁1992,	-10.8656
gnano	-10.8656
▁Avr	-10.8657
▁manuscrit	-10.866
▁r�put�	-10.866
▁circulation	-10.8661
wick	-10.8661
▁Rivi�re	-10.8661
bl�	-10.8662
▁(1997)	-10.8662
▁nombres	-10.8662
▁r�duit	-10.8662
▁malade	-10.8665
▁moulin	-10.8666
▁1970,	-10.8674
▁alpin	-10.8676
ielle	-10.8679
in'	-10.868
▁Thor	-10.8683
▁d'Australie	-10.8683
▁gamme	-10.8683
▁collectif	-10.8683
OC	-10.8685
▁Allemands	-10.8688
agon	-10.8688
▁organ	-10.8689
▁engag�	-10.8691
▁Johann	-10.8693
▁estime	-10.8693
oso	-10.8696
▁(dans	-10.8696
▁associ�e	-10.8697
▁pr�tre	-10.8697
▁abord	-10.8699
▁po�me	-10.8699
bad	-10.8701
▁illustr�	-10.8704
▁restaurant	-10.8704
▁barrage	-10.8705
▁biographie	-10.8706
▁Hand	-10.8708
IM	-10.871
▁peuples	-10.8712
▁1994,	-10.8713
cule	-10.8713
▁d�riv�	-10.8714
▁application	-10.8716
lever	-10.8717
▁2009	-10.8717
▁li�e	-10.8718
▁G�n	-10.872
▁institutions	-10.8722
iko	-10.8722
▁popular	-10.8723
▁d'ann�es	-10.8725
▁lendemain	-10.8725
Un	-10.8728
▁Command	-10.8729
▁descend	-10.8731
rise	-10.8731
▁fri	-10.8731
▁sac	-10.8732
▁Croatie	-10.8732
path	-10.8733
▁Anthony	-10.8733
ienne,	-10.8734
vide	-10.8736
▁supp	-10.8739
▁chiffres	-10.8741
clu	-10.8745
▁l'honneur	-10.8747
▁cycliste	-10.8747
▁normal	-10.875
▁Death	-10.8753
▁Fran�aise	-10.8756
este	-10.8757
▁Burg	-10.8758
mbert	-10.8758
pra	-10.8759
▁travaill�	-10.8761
▁Fun	-10.8764
chou	-10.8764
quo	-10.8766
▁profession	-10.8767
▁Thr	-10.8767
▁religieuses	-10.8769
▁bless�	-10.8769
▁From	-10.8769
▁pinyin	-10.8769
▁concerts	-10.8772
lois	-10.8772
▁Isabelle	-10.8772
nomie	-10.8772
▁Metal	-10.8772
▁score	-10.8774
▁Hur	-10.8776
▁recommandations	-10.8777
▁Bio	-10.878
▁Colomb	-10.8782
▁Lady	-10.8782
▁restent	-10.8782
▁Ul	-10.8785
ene	-10.8788
TT	-10.8789
IE	-10.8791
▁importance	-10.8791
▁int�gre	-10.8791
▁transfert	-10.8791
R�publicain	-10.8791
▁annonc�	-10.8791
▁�douard	-10.8791
f�	-10.8792
▁Sala	-10.8793
▁Chronologies	-10.8793
American	-10.8794
▁Sept	-10.8796
▁affluent	-10.88
▁m)	-10.8801
war	-10.8806
cque	-10.8808
▁crois	-10.8809
▁traverse	-10.8812
▁v�hicules	-10.8812
▁n'existe	-10.8813
▁ailleurs,	-10.8814
▁exc	-10.8815
▁Chapelle	-10.8816
▁Howard	-10.8818
▁trac�	-10.882
[1],	-10.882
▁ma�trise	-10.8822
cord	-10.8823
▁confi	-10.8823
anza	-10.8827
▁XXIe	-10.883
▁1861	-10.8831
▁Gray	-10.8834
▁"The	-10.8834
cchi	-10.8834
▁????????,	-10.8834
▁lourd	-10.8834
▁toit	-10.8835
▁R�union	-10.8835
igner	-10.8835
▁Mountain	-10.8836
▁rotation	-10.8838
▁l'Australie	-10.8839
▁Basse	-10.8839
igno	-10.8839
▁protestant	-10.8839
▁p�t	-10.884
▁chaud	-10.8842
▁Ec	-10.8843
lica	-10.8845
▁Montagne	-10.8848
▁hydro	-10.8848
▁l'H	-10.8849
▁envers	-10.8849
▁Series	-10.885
▁Amb	-10.885
eux,	-10.8852
gress	-10.8852
▁&amp;	-10.8852
homme	-10.8854
▁chr�tiens	-10.8856
guin	-10.8858
▁Surface	-10.8859
▁galerie	-10.886
▁Ny	-10.8861
▁Lau	-10.8861
▁Jean-Marie	-10.8861
▁d'Art	-10.8862
▁expression	-10.8863
▁l'Inde	-10.8864
▁mari�	-10.8869
1962	-10.887
▁structures	-10.8871
clin	-10.8871
▁profondeur	-10.8873
▁2-0	-10.8874
▁noyau	-10.8874
▁colonie	-10.8875
▁etc.),	-10.8877
beau	-10.8877
TE	-10.8877
▁Plu	-10.8877
dj	-10.8879
▁densit�	-10.888
ception	-10.888
▁g�n�tique	-10.8881
▁Renault	-10.8882
▁charg�e	-10.8886
▁Viol	-10.8886
▁(de)	-10.8888
hat	-10.8891
▁Gau	-10.8891
maire	-10.8893
▁peint	-10.8893
▁Sand	-10.8894
▁Stan	-10.8895
▁h�tel	-10.8901
▁Principaux	-10.8902
▁donnant	-10.8902
▁tribu	-10.8908
▁Conte	-10.891
eth	-10.891
enti	-10.8911
h?	-10.8913
▁1866	-10.8917
▁urbain	-10.8919
▁Tours	-10.8919
▁him	-10.8923
▁internationales	-10.8923
▁R�partition	-10.8924
▁?0M	-10.8924
▁pop	-10.8925
▁remplacer	-10.8925
umi	-10.8926
{{	-10.8928
lin,	-10.8929
▁Lot	-10.893
▁900	-10.893
▁Bruce	-10.893
▁d�fend	-10.8931
▁Wind	-10.8931
▁1872	-10.8933
▁personnalit�s	-10.894
ash	-10.8942
▁chacune	-10.8943
▁Motor	-10.8943
▁orthodoxe	-10.8946
▁conseillers	-10.8948
ux,	-10.8949
▁year	-10.8949
▁Gordon	-10.895
▁D�fense	-10.8953
▁Archi	-10.8957
▁Awards	-10.8958
▁secours	-10.8959
▁distinct	-10.8961
▁That	-10.8964
▁seuls	-10.8965
▁orchestre	-10.8968
▁l'influence	-10.8968
▁Xian	-10.8968
graph	-10.8974
▁veille	-10.8975
ruption	-10.8979
tari	-10.8979
rousse	-10.8979
▁visage	-10.8981
▁locales	-10.8982
▁wa	-10.8982
▁1860	-10.899
cation	-10.899
▁d�faut	-10.8991
▁l'ext�rieur	-10.8991
▁d�mon	-10.8992
▁Jimmy	-10.8992
hier	-10.8993
▁Sex	-10.8994
▁m�tal	-10.8995
▁Our	-10.8997
▁v�cu	-10.8998
▁180	-10.9001
uth	-10.9002
OM	-10.9004
glia	-10.9004
▁principes	-10.9004
▁then	-10.9006
▁1948,	-10.9009
ignan	-10.9012
▁Fr�	-10.9012
▁government	-10.9013
▁sous-marin	-10.9013
▁Gh	-10.9014
rano	-10.9017
▁Qua	-10.9018
�quation	-10.902
▁Guide	-10.9021
▁fruits	-10.9021
▁gar	-10.9022
key	-10.9022
▁chinoise	-10.9022
▁Mickey	-10.9023
flu	-10.9025
▁1897	-10.9026
loi	-10.9027
▁grade	-10.9033
▁c�r�monie	-10.9035
▁l'Am�rique	-10.9036
▁Titres	-10.9037
ardi	-10.9037
▁future	-10.9038
▁Bridge	-10.904
▁Quint	-10.9041
▁Thu	-10.9042
▁book	-10.905
ashi	-10.9051
rine	-10.9055
▁Serra	-10.9056
▁Entra�neur	-10.9058
▁century	-10.9058
▁Bord	-10.9058
▁2006)	-10.9059
▁axe	-10.906
▁trouvait	-10.9062
▁7-6	-10.9062
▁Final	-10.9062
▁soul	-10.9062
▁1999.	-10.9064
▁Cross	-10.9068
ather	-10.9069
▁Z�	-10.907
▁1889	-10.9072
▁li�s	-10.9074
▁clair	-10.9075
▁cl�	-10.9075
�s.	-10.9078
.000	-10.9079
▁1971,	-10.908
▁through	-10.908
▁Patrimoine	-10.9081
▁proc�d�	-10.9081
▁substance	-10.9081
▁femelle	-10.9081
tia	-10.9081
citation	-10.9082
▁Pha	-10.9082
ographique	-10.9083
▁�clair	-10.9085
bord	-10.9085
▁Lind	-10.9087
▁(Les	-10.9088
hot	-10.9088
med	-10.9093
▁t�che	-10.9097
▁pure	-10.9098
zone	-10.9101
▁Drapeau	-10.9103
inte	-10.9105
▁lire	-10.9105
nell	-10.9105
STAT	-10.9106
▁courants	-10.9107
pil	-10.9108
▁jug�	-10.911
▁Tol	-10.9111
n�es	-10.9116
▁g�nie	-10.9118
▁Kou	-10.9121
esca	-10.9121
▁Hei	-10.9122
▁d�finie	-10.9125
▁f�d�ration	-10.9126
▁policier	-10.9126
▁CO	-10.9128
▁objectif	-10.9129
rif	-10.9131
▁fo	-10.9132
▁See	-10.9133
▁Quant	-10.9135
▁(Ca	-10.9135
▁conf�rence	-10.9135
vine	-10.9139
IA	-10.9141
pos�	-10.9142
ddy	-10.9143
▁Chu	-10.9143
▁g�n�rales	-10.9145
▁tourisme	-10.9148
▁chef-lieu	-10.9149
▁d'exploitation	-10.9149
▁forteresse	-10.9149
▁environnement	-10.915
asca	-10.915
vaux	-10.9151
▁jou�s	-10.9151
▁Kevin	-10.9153
dien	-10.9153
▁Moulin	-10.9154
▁poissons	-10.9157
▁revenu	-10.9157
vice	-10.916
▁normale	-10.916
▁biens	-10.9162
▁pol	-10.9163
▁Kara	-10.9164
700	-10.9166
▁fr�quent	-10.917
▁officiers	-10.917
▁Kings	-10.9171
▁�preuves	-10.9171
▁hectares	-10.9171
▁dynamique	-10.9172
tract	-10.9173
ark	-10.9174
wen	-10.9177
▁arriv�	-10.9178
▁wi	-10.9182
▁Armand	-10.9183
▁Berne	-10.9184
▁conclu	-10.919
▁a�n�	-10.919
▁communaut�s	-10.9192
py	-10.9193
▁Fel	-10.9194
hard	-10.9194
▁jusque	-10.9195
-Ford	-10.9196
gol	-10.9196
▁gr�	-10.9196
cine	-10.9196
▁Jazz	-10.9197
urie	-10.9197
▁Manche	-10.9198
▁nationaux	-10.9198
▁Via	-10.9202
▁Pedro	-10.9203
▁Anecdotes	-10.9203
▁cr�ateur	-10.9206
▁motif	-10.9206
▁prises	-10.9208
▁int�r�t	-10.921
▁latine	-10.9211
▁avion	-10.9212
II	-10.9214
▁l'absence	-10.9217
▁l'�criture	-10.9217
▁science-fiction	-10.9217
▁cyclisme	-10.9217
▁vari�	-10.9218
▁tomb�	-10.9218
fan	-10.9219
champ	-10.9222
phor	-10.9225
▁2001.	-10.9226
flo	-10.9234
▁g�ographiques	-10.9234
▁both	-10.9235
▁vivent	-10.9235
d�e	-10.9236
/06/	-10.9238
▁Nintendo	-10.924
▁Saint-Louis	-10.9242
ien,	-10.9246
▁Hot	-10.9249
urus	-10.9251
▁Gamb	-10.9251
▁m�dias	-10.9255
▁GP	-10.9261
▁europ�ennes	-10.9262
▁tenue	-10.9262
-Ch	-10.9263
▁phylog�n�tique	-10.9263
▁Serv	-10.9263
▁pr�paration	-10.9264
▁Come	-10.9266
▁semi-	-10.9268
aco	-10.9269
▁battues	-10.9269
▁Brad	-10.9272
▁[[K	-10.9273
▁l'activit�	-10.9273
moto	-10.9273
lta	-10.9274
▁(sur	-10.9275
y�	-10.9275
▁d'auto	-10.9277
▁cur	-10.9277
▁ennemis	-10.9279
▁enregistre	-10.9282
▁entra�ne	-10.9284
oko	-10.9285
▁Retrouve	-10.9286
▁Flandre	-10.9286
▁[[F	-10.9289
tric	-10.9291
▁Films	-10.9292
▁life	-10.9298
▁Way	-10.9302
▁rest�	-10.9303
▁Dela	-10.9305
�ni	-10.9307
traction	-10.9308
▁genres	-10.9309
▁doctrine	-10.9309
▁l'affaire	-10.9309
▁l'autorit�	-10.9309
▁Jersey	-10.9309
▁Quin	-10.931
▁puisse	-10.9311
vaient	-10.9312
▁M�l	-10.9312
▁Colli	-10.9313
ivit�	-10.9313
▁Shan	-10.9315
Mont	-10.9319
▁po�mes	-10.932
▁Londres,	-10.932
▁Get	-10.9321
▁flore	-10.9324
▁Syrie	-10.9325
▁fruit	-10.9325
▁exp�rience	-10.9327
TI	-10.9328
?u	-10.9328
▁(fr+en)	-10.9328
▁allant	-10.933
▁d�di�	-10.9332
▁m�canisme	-10.9332
▁r�putation	-10.9332
▁ceux-ci	-10.9332
▁avantage	-10.9333
▁d'�nergie	-10.9333
▁Gaulle	-10.9334
aj	-10.9334
▁l'An	-10.9335
▁trains	-10.9336
▁Institute	-10.9337
▁%)	-10.9337
▁r�v�le	-10.9338
▁breton	-10.9338
▁avions	-10.9339
▁?Ma	-10.9339
▁Battle	-10.9341
lac	-10.9346
▁op	-10.9347
▁extrait	-10.9349
▁1831	-10.935
▁Age	-10.935
▁bouche	-10.9352
▁Bleu	-10.9352
▁M�diterran�e	-10.9356
[14]	-10.9356
▁Bern	-10.9357
▁(1996)	-10.9357
▁(Paris	-10.9358
▁350	-10.9362
▁int�gr�	-10.9364
mod	-10.9366
▁Light	-10.9366
lf	-10.9366
▁fur	-10.9367
▁Fontaine	-10.9369
▁guerres	-10.9369
▁beau	-10.937
italien	-10.9371
120	-10.9372
▁manifeste	-10.9373
ffa	-10.9376
▁Just	-10.9377
▁endroit	-10.9378
▁86-84433-	-10.9379
▁cinqui�me	-10.9379
▁congr�s	-10.9379
▁Poids	-10.9379
idi	-10.9379
franc	-10.9383
1)	-10.9384
▁rester	-10.9386
▁�tablissements	-10.9387
▁ennemi	-10.939
▁1961,	-10.939
▁Montage	-10.9395
▁lin�aire	-10.9395
illeur	-10.9395
▁Match	-10.9396
▁Nav	-10.9396
▁tire	-10.9396
1969	-10.9399
rang	-10.9399
El	-10.94
train	-10.9401
▁N�anmoins	-10.9402
▁d'euros	-10.9402
333333	-10.9402
▁Navarre	-10.9402
▁Mala	-10.9403
sindac	-10.9405
▁pr�sentation	-10.9407
useau	-10.9408
▁resta	-10.9409
▁Jeu	-10.941
▁Tou	-10.941
▁for�ts	-10.941
▁sy	-10.941
parti	-10.9411
▁l�g�rement	-10.9413
▁103	-10.9414
▁issus	-10.9419
▁Cours	-10.9422
▁R�alisateur	-10.9423
-Mar	-10.9423
▁Uni	-10.9424
▁arch�ologique	-10.9425
▁Kingdom	-10.9427
cut	-10.9428
▁Prague	-10.9429
change	-10.9429
DI	-10.943
licit	-10.9431
▁conserver	-10.9432
1940	-10.9432
/S	-10.9433
gat	-10.9433
igh	-10.9434
rock	-10.9434
▁bourg	-10.9438
tina	-10.9438
▁l�g�re	-10.9439
▁diffus�	-10.944
▁connect	-10.9442
▁(Mo	-10.9443
▁Are	-10.9443
▁individus	-10.9444
▁�tapes	-10.9445
▁lion	-10.9445
▁troupe	-10.9448
▁Dy	-10.9448
▁s'oppose	-10.9449
▁serbe	-10.9451
▁Publications	-10.9453
orn	-10.9454
erre	-10.9455
fus	-10.9458
▁Gas	-10.9459
▁changer	-10.946
NT	-10.946
ket	-10.9463
▁d'Is	-10.9465
ein	-10.9465
ube	-10.9466
▁B�r	-10.9473
▁(?????	-10.9474
▁Seul	-10.9475
▁r�glement	-10.9476
▁n�erlandais	-10.9477
▁Aujourd'hui,	-10.9478
▁seraient	-10.9478
▁Carol	-10.9478
▁arabes	-10.948
jet	-10.9482
appa	-10.9484
▁First	-10.9489
ock	-10.9489
▁�lus	-10.949
▁1878	-10.9491
▁French	-10.9493
150	-10.9495
▁M�me	-10.9495
▁relatif	-10.9496
anger	-10.9496
▁savant	-10.9497
▁Russell	-10.9497
ery	-10.9498
▁qu'a	-10.9499
▁[[I	-10.9499
▁l'informatique	-10.95
tsch	-10.9502
PE	-10.9502
▁Nation	-10.9503
▁Cl�ment	-10.9504
▁froid	-10.9505
▁applications	-10.9506
▁Indien	-10.9508
▁IVe	-10.9509
o�des	-10.951
▁rappelle	-10.951
ulus	-10.9514
No	-10.9515
▁mineure	-10.9517
▁1894	-10.9519
▁dispositif	-10.9519
▁th�orique	-10.9519
▁Ath�nes	-10.952
▁retard	-10.9524
hydr	-10.9524
▁Had	-10.9525
▁1-0	-10.9525
▁Burn	-10.9527
▁apparu	-10.9532
�ve	-10.9534
uli	-10.9537
▁culturelle	-10.9537
▁Navr�tilov�	-10.9543
▁Wikispecies	-10.9543
▁pr�fecture	-10.9543
▁douce	-10.9544
▁L'O	-10.9547
▁Jeff	-10.9548
▁1851	-10.9548
ley,	-10.9549
▁l'enfant	-10.955
dieu	-10.9551
▁hard	-10.9553
▁(Li	-10.9553
▁Dru	-10.9553
▁variable	-10.9555
▁Cannes	-10.9556
▁Banque	-10.9556
▁Pur	-10.9557
▁Bac	-10.9566
▁comprenant	-10.9567
▁character	-10.9567
▁facult�	-10.9567
▁op�ra	-10.9569
1971	-10.9574
▁d�placement	-10.9574
histori	-10.9574
▁Moore	-10.9575
�k	-10.9575
▁M�dia	-10.9575
▁contra	-10.9576
fran�aise	-10.9577
▁etc.)	-10.9577
▁Olympique	-10.9581
onn�	-10.9583
▁Fiat	-10.9583
vance	-10.9584
▁nationalit�	-10.9584
▁Gu�	-10.9585
gramme	-10.9588
Ex	-10.9589
tag	-10.959
-l�s-	-10.959
▁Effectif	-10.9591
▁pr�senter	-10.9593
▁d�claration	-10.9594
▁divis�	-10.9597
▁Charlotte	-10.9599
urier	-10.96
▁neige	-10.9602
RT	-10.9602
▁Pier	-10.9602
▁1836	-10.9609
stal	-10.9615
▁Fair	-10.9615
kka	-10.962
▁photos	-10.9622
▁Sophie	-10.9624
▁propos�	-10.9627
R�	-10.9628
-Co	-10.963
▁(ma	-10.9631
130	-10.9631
nci	-10.9633
cision	-10.9634
▁cesse	-10.9636
▁initiale	-10.9637
reau	-10.9638
▁Hawk	-10.9639
▁?Ar	-10.9639
▁[http://	-10.9639
▁area	-10.9645
▁secondaires	-10.9647
▁1856	-10.9649
wel	-10.965
▁Image	-10.9651
tale	-10.9653
▁alli�	-10.9655
▁Saint-G	-10.9656
chard	-10.9657
▁vaisseau	-10.9657
▁Recherche	-10.9662
▁Field	-10.9662
▁rythme	-10.9663
▁italiennes.	-10.9663
▁Constantin	-10.9664
▁d'Ha	-10.9664
Grand	-10.9665
liga	-10.9668
▁emploi	-10.9671
NE	-10.9671
▁d'In	-10.9673
▁arm	-10.9674
▁Salon	-10.9675
rai	-10.9678
▁Vas	-10.9679
▁1899	-10.9679
▁plu	-10.968
▁poursuit	-10.968
▁limites	-10.968
▁u	-10.9681
uil	-10.9682
m�di	-10.9683
▁essai	-10.9684
▁human	-10.9684
▁refus	-10.9686
▁fr�quemment	-10.9686
▁great	-10.9686
▁diam�tre	-10.9686
▁(di	-10.9687
dict	-10.969
▁venant	-10.9691
▁Oui	-10.9691
yp	-10.9691
▁Dame	-10.9692
▁instruments	-10.9693
▁d�fendre	-10.9693
▁arbres	-10.9694
▁saisi	-10.9694
▁CH	-10.9695
▁1852	-10.9695
lum	-10.9695
▁ST	-10.9698
▁Sauv	-10.9702
▁utilisent	-10.9703
▁copie	-10.9703
▁N'	-10.9705
▁XI	-10.9706
/04/	-10.9708
▁disparition	-10.971
▁int�ressant	-10.971
▁addition	-10.9711
▁territoriale	-10.9712
▁humaines	-10.9712
▁naturelles	-10.9719
fici	-10.972
▁Modern	-10.9721
▁travers�e	-10.9722
▁1989,	-10.9723
mite	-10.9724
ignano	-10.9725
▁constante	-10.9726
-en	-10.9729
▁1895	-10.9731
▁fils,	-10.9732
sburg	-10.9733
lling	-10.9734
pine	-10.9735
cence	-10.9735
▁Stanley	-10.9736
▁arc	-10.9737
ignac	-10.9738
▁impossible	-10.9741
tral	-10.9743
-Mont	-10.9743
mage	-10.9744
naires	-10.9745
▁mixte	-10.9747
-Ca	-10.9749
logue	-10.9749
▁Liban	-10.975
yama	-10.9751
▁1892	-10.9755
▁queue	-10.9757
▁sculpteur	-10.9758
▁fragment	-10.9758
[13]	-10.9759
▁Terra	-10.9759
SM	-10.9763
▁Guer	-10.9763
▁Langue(s)	-10.9764
▁assassin�	-10.9764
▁(20	-10.9765
alo	-10.9766
ots	-10.9766
▁virus	-10.977
▁sc�nes	-10.9771
-Fran�ois	-10.9774
▁gagner	-10.9774
▁DC	-10.9775
C)	-10.9776
▁Indian	-10.9782
▁anglais)	-10.9782
▁Chef-lieu	-10.9783
▁l'oc�an	-10.9783
▁Rugby	-10.9783
▁vice-pr�sident	-10.9783
▁play	-10.9784
▁Mono	-10.9784
▁sombre	-10.9786
▁46�	-10.9794
▁meurtre	-10.9795
oku	-10.9796
▁d�velopp�e	-10.9796
cite	-10.9796
morph	-10.9797
▁Valence	-10.9797
▁Anderson	-10.9797
astro	-10.9798
▁poli	-10.98
[6].	-10.9802
-des-	-10.9804
▁exclu	-10.9806
▁compagnon	-10.9807
▁dragon	-10.9807
bet	-10.9808
▁capture	-10.9809
▁id�e	-10.9811
mobil	-10.9812
▁Ponte	-10.9814
▁liant	-10.9814
▁sonore	-10.9815
▁language	-10.9817
▁statistique	-10.9817
▁if	-10.9818
▁peur	-10.9819
isseur	-10.9821
▁�g�	-10.9822
-J	-10.9823
-Mo	-10.9823
▁Sud,	-10.9824
trans	-10.9829
▁Carte	-10.9829
ssage	-10.983
▁Kin	-10.983
▁Cr��	-10.983
gem	-10.9831
▁d�l�gu�	-10.9831
▁restauration	-10.9831
▁Line	-10.9832
▁press	-10.9832
▁day	-10.9834
▁repr�sentants	-10.9834
▁How	-10.9834
had	-10.9835
▁performance	-10.9836
▁d�mission	-10.9837
▁routes	-10.9839
▁�trang�re	-10.9843
▁pluie	-10.9843
▁Arn	-10.9849
imer	-10.9849
gus	-10.9852
ST	-10.9853
▁organisations	-10.9854
get	-10.9854
▁constructeur	-10.9856
▁moteurs	-10.9856
▁Houten	-10.9857
▁couvre	-10.9858
▁Francesco	-10.986
ch�re	-10.9861
▁-1	-10.9862
▁Brand	-10.9863
▁Nat	-10.9863
▁Quart	-10.9864
imi	-10.9871
▁pair	-10.9873
ried	-10.9873
▁d�terminer	-10.9879
▁r�sistant	-10.988
▁transf�r�	-10.988
▁atelier	-10.9881
▁mauvaise	-10.9881
▁(1995)	-10.9882
▁murs	-10.9882
▁particularit�	-10.9882
▁traces	-10.9883
▁back	-10.9884
burn	-10.9884
▁Test	-10.9886
scope	-10.9888
▁l�ger	-10.9889
▁auraient	-10.9889
▁put	-10.9889
▁Under	-10.989
▁coureur	-10.989
tam	-10.9892
▁chemins	-10.9893
▁Rand	-10.9897
gia	-10.9898
▁Hauteur	-10.9899
Universit	-10.9902
▁Met	-10.9902
▁magasin	-10.9905
▁1846	-10.9905
▁7-5	-10.9906
▁Dog	-10.9906
▁Id	-10.9906
▁d�cida	-10.9907
uta	-10.9908
▁milieux	-10.9909
▁Shu	-10.9911
▁d�p�t	-10.9913
raient	-10.9914
▁catholiques	-10.9916
▁Cependant	-10.9916
▁cordes	-10.9919
lau	-10.992
▁pr�sents	-10.9925
▁proportion	-10.9929
▁Mill�naires	-10.9929
istic	-10.9929
▁Us	-10.9929
▁Canada.	-10.993
▁Hameaux	-10.993
▁(fin	-10.9931
chir	-10.9932
▁tissu	-10.9935
▁frais	-10.9938
anus	-10.994
▁Two	-10.9941
Port	-10.9944
▁N.	-10.9945
dos	-10.9946
▁Mit	-10.9946
▁mentionn�	-10.9947
▁Ath	-10.9947
ois,	-10.9951
▁C'�tait	-10.9954
▁byzantin	-10.9954
▁Territoire	-10.9954
▁Junior	-10.9954
▁vecteur	-10.9954
▁�quip�	-10.9955
▁�voque	-10.9956
ffin	-10.9956
▁provenant	-10.9957
▁abandonn�	-10.996
vois	-10.996
▁pain	-10.9961
▁l'ouverture	-10.9962
iba	-10.9962
▁besoins	-10.9963
▁Saint-Jean	-10.9964
odi	-10.9966
▁person	-10.9967
▁entretien	-10.9967
▁Scar	-10.9968
▁Dre	-10.9968
▁augmente	-10.9973
▁Sant�	-10.9976
▁2�	-10.9977
illac	-10.9977
▁chimique	-10.9977
▁LC	-10.9978
▁c'�tait	-10.9978
▁d'athl�tisme	-10.9978
110	-10.9979
▁moindre	-10.9979
▁Docteur	-10.998
kes	-10.9981
▁j'ai	-10.9982
mment	-10.9982
�ens	-10.9984
gil	-10.9985
m�re	-10.9986
▁Fat	-10.9987
▁Paulo	-10.9987
▁Sign	-10.999
Bo	-10.9991
gger	-10.9991
▁F�v	-10.9992
nico	-10.9995
�galit�	-10.9998
-d'A	-10.9999
▁vou	-10.9999
▁r�gionales	-11.0001
▁Cameroun	-11.0003
▁th�or�me	-11.0003
▁d�mocrate	-11.0003
▁caf�	-11.0005
emme	-11.0005
▁confiance	-11.0005
▁Chine.	-11.0007
▁couverture	-11.0009
▁poss�dent	-11.0009
1950	-11.0009
▁Hit	-11.0009
▁Saint-P	-11.001
zano	-11.0011
▁souhaite	-11.0012
?a	-11.0012
▁Turin	-11.0012
▁colonies	-11.0013
▁Mise	-11.0015
▁souhait	-11.0015
▁Fle	-11.0015
CC	-11.0016
▁M�d	-11.0016
▁Alphonse	-11.002
▁Forest	-11.0022
▁termina	-11.0023
▁Fonction	-11.0028
▁Technique	-11.0028
▁Friedrich	-11.0028
puis	-11.0029
▁Valentin	-11.003
▁visit	-11.0031
▁Rick	-11.0032
▁L'�le	-11.0035
(VF	-11.0035
RM	-11.0037
▁champs	-11.0042
▁47�	-11.0043
tics	-11.0043
▁clan	-11.0047
▁�gal	-11.0047
▁rois	-11.0048
▁Gian	-11.0049
▁AD	-11.0052
▁banlieue	-11.0053
▁juridiction	-11.0053
а	-11.0053
▁run	-11.0054
▁familiale	-11.0058
▁cit.	-11.0059
▁n�cessaires	-11.0059
▁faux	-11.006
▁1893	-11.006
▁n�cessaire].	-11.0065
▁d�partementale	-11.0066
▁A�roport	-11.0066
▁ordinateur	-11.0067
▁very	-11.0072
▁moines	-11.0074
OU	-11.0076
▁Marne	-11.0076
▁Gala	-11.0077
▁davantage	-11.0078
▁including	-11.0078
▁internationaux	-11.0078
▁Nelson	-11.0078
▁l'h�tel	-11.0078
▁After	-11.0078
ann	-11.0078
▁sociologie	-11.0079
▁men�	-11.0086
▁1815	-11.0087
▁magique	-11.0088
rest	-11.0088
"N	-11.0089
jour	-11.0092
▁Femmes	-11.0093
▁centaines	-11.0094
▁Din	-11.0095
▁Fern�ndez	-11.0103
▁n�cessite	-11.0103
▁anim�	-11.0103
'importe	-11.0108
▁Rangers	-11.0108
▁Off	-11.011
luc	-11.011
▁l'�v�que	-11.011
▁professionnels	-11.0116
▁fronti�res	-11.0117
▁partielle	-11.0118
▁just	-11.0122
rak	-11.0122
▁physiques	-11.0123
vir	-11.0126
▁noirs	-11.0128
▁because	-11.0128
obligation	-11.0128
▁d'armes	-11.013
rid	-11.013
▁Camille	-11.013
▁1792	-11.0131
▁consacr�e	-11.0133
▁trace	-11.0134
jeu	-11.0134
▁Base	-11.0136
▁m�di	-11.0138
roll	-11.0142
▁Dol	-11.0142
▁band	-11.0145
▁Nature	-11.0146
▁Monta	-11.0152
▁concurrence	-11.0153
▁crat�re	-11.0153
▁Dance	-11.0154
▁Sicile	-11.0154
▁Buck	-11.0157
▁Book	-11.0157
▁g�ne	-11.016
▁Tyr	-11.0161
▁moto	-11.0161
hm	-11.0162
m�e	-11.0163
▁correspondance	-11.0165
▁d�finit	-11.0167
▁Bach	-11.0169
g�nie	-11.0169
▁agent	-11.017
lina	-11.0171
▁imp�riale	-11.0173
play	-11.0178
▁Canavese	-11.0178
▁Vladimir	-11.0178
▁math�maticien	-11.0178
▁journaux	-11.0178
▁signifiant	-11.0178
▁became	-11.0178
ography	-11.0179
▁illustra	-11.0179
▁fiables	-11.018
color	-11.0185
▁l'Association	-11.0186
GE	-11.0187
▁Jean-	-11.0187
▁francs	-11.0191
mbe	-11.0192
▁Romains	-11.0192
illot	-11.0197
▁Jen	-11.0197
▁Mam	-11.0198
▁Litt�rature	-11.02
▁Milieu	-11.0201
bien	-11.0202
▁l'importance	-11.0203
▁l'effet	-11.0203
▁chaleur	-11.0205
▁Colon	-11.0205
▁fla	-11.0205
▁utilisation	-11.0205
▁envahi	-11.0206
IL	-11.0206
▁profonde	-11.0208
▁Cit	-11.0208
▁1'	-11.021
▁Abd	-11.0211
▁effectue	-11.0213
▁alimentaire	-11.0213
▁�cossais	-11.0214
▁Cambridge	-11.0215
▁d�truite	-11.0215
▁Pac	-11.0219
▁publiques	-11.0224
mid	-11.0224
▁pierres	-11.0228
▁frappe	-11.0229
▁l'expression	-11.023
▁Voici	-11.0231
ware	-11.0231
▁1841	-11.0233
▁Gard	-11.0234
▁remplace	-11.0241
yen	-11.0242
▁Jane	-11.0242
0,000	-11.0243
▁Columbia	-11.0245
tori	-11.0245
▁laissant	-11.0246
▁S�bastien	-11.025
▁mol	-11.0253
▁Capitaine	-11.0254
▁Social	-11.0255
▁exerce	-11.0255
▁populaires	-11.026
▁secr�te	-11.026
▁polonais	-11.0262
▁l'�pisode	-11.0264
orum	-11.0265
▁perdue	-11.0267
John	-11.0269
ilier	-11.0273
dus	-11.0274
apa	-11.0275
yu	-11.0275
▁Mira	-11.0276
▁F�lix	-11.028
▁Religion	-11.028
▁CE	-11.028
▁alternative	-11.028
▁Last	-11.0281
ographe	-11.0281
▁tenir	-11.0282
▁m�tier	-11.0282
▁assurer	-11.0283
3%	-11.0283
▁Stein	-11.0284
▁Berger	-11.0284
iva	-11.0288
bil	-11.029
▁autrefois	-11.0292
rie,	-11.0295
▁attribu�	-11.0295
n't	-11.0296
▁Audi	-11.0301
▁Pia	-11.0301
▁appr	-11.0301
▁lou	-11.0302
▁colonne	-11.0302
▁Aussi	-11.0302
▁jour,	-11.0304
iron	-11.0304
▁Micro	-11.0305
`	-11.0305
▁Xavier	-11.0305
▁lib�r�	-11.0306
▁Sant'	-11.0306
▁domination	-11.0307
▁Scho	-11.0307
aku	-11.0307
▁combattant	-11.031
▁montrer	-11.0313
▁limit�e	-11.0313
▁Saint-A	-11.0314
iter	-11.0318
▁AG	-11.0319
▁Whit	-11.0322
▁set	-11.0324
qu�e	-11.0324
▁chinois.	-11.0325
mph	-11.0325
▁Maj	-11.0326
tir	-11.033
▁r�flexion	-11.0331
▁Miguel	-11.0331
▁viennent	-11.0331
▁If	-11.0335
ische	-11.0338
ego	-11.0339
▁Franz	-11.0341
▁Village	-11.0342
Mo	-11.0343
▁1806	-11.0344
▁richesse	-11.0348
rium	-11.035
▁ouvre	-11.035
▁pts	-11.0355
▁Mini	-11.0356
-Atlantiques	-11.0356
▁budget	-11.0356
▁zoologie	-11.0357
▁clavier	-11.0357
ombre	-11.0357
fou	-11.0358
▁Rh�ne	-11.0358
▁same	-11.0359
▁Parker	-11.036
▁?(fr)	-11.0362
asi	-11.0363
▁voitures	-11.0365
▁brun	-11.0366
▁revenir	-11.0366
azi	-11.0367
▁Colorado	-11.0367
▁risques	-11.0371
etz	-11.0371
▁Barba	-11.0371
▁106	-11.0376
-Nord	-11.0378
▁Liber	-11.038
g�re	-11.038
▁bases	-11.0382
▁fabriqu�	-11.0382
▁t�moignage	-11.0382
▁attach�	-11.0382
▁(Italie)	-11.0382
▁1882	-11.0382
migr	-11.0383
▁against	-11.0383
▁annuel	-11.0383
▁Pala	-11.0384
▁part,	-11.0385
post	-11.0385
▁cancer	-11.0386
▁ant�rieure	-11.0387
▁pr�cision	-11.0389
pou	-11.0389
▁Bun	-11.0389
▁maladies	-11.0389
▁Gram	-11.039
▁could	-11.039
cum	-11.0391
▁Sing	-11.0392
orte	-11.0397
▁satellite	-11.0401
▁Ble	-11.0406
▁vraiment	-11.0407
▁Secr�taire	-11.0408
▁influenc�	-11.0408
▁three	-11.0408
▁accus�	-11.0408
▁Mod�le	-11.0408
▁P�rou	-11.0408
▁d'entr�e	-11.0408
▁module	-11.0412
▁confirme	-11.0412
west	-11.0413
▁relief	-11.0413
eus	-11.0415
▁D'un	-11.0417
zh	-11.0417
▁Devil	-11.0423
▁Virginia	-11.0424
laine	-11.0425
▁free	-11.0426
▁Ari	-11.0427
▁int�rieure	-11.0429
▁timbres	-11.0431
▁traction	-11.0431
▁aspects	-11.0433
▁�voluant	-11.0434
▁massacre	-11.0434
▁identique	-11.0434
▁dialogue	-11.0434
▁XII	-11.0435
▁sch	-11.0444
▁relie	-11.0449
▁juifs	-11.045
-m�me	-11.0451
▁Sports	-11.0451
▁acide	-11.0453
▁marqu�e	-11.0456
94)	-11.0458
tienne	-11.0459
▁Membres	-11.046
▁Wilhelm	-11.046
▁concurrent	-11.046
▁fen�tre	-11.046
▁provient	-11.046
▁retir�	-11.046
▁convention	-11.046
▁d'altitude	-11.0463
▁int�r�ts	-11.0468
▁wallonne	-11.0468
oh	-11.047
Sa	-11.0472
▁op�ration	-11.0473
▁reprendre	-11.0474
▁t�	-11.0476
▁cible	-11.0476
▁cat�gories	-11.0477
▁troubles	-11.048
usa	-11.0481
▁own	-11.0483
▁(Ba	-11.0484
▁115	-11.0485
▁different	-11.0486
▁Mathieu	-11.0486
▁�tablissement	-11.0487
▁bient�t	-11.0488
▁Jardin	-11.0488
�vre	-11.049
▁int�rieur	-11.049
thon	-11.049
▁adopt�	-11.0491
1965	-11.0492
▁Comment	-11.0494
▁accompli	-11.0495
▁vari�t�	-11.0497
▁quelle	-11.0499
▁attaques	-11.0499
iche	-11.0502
▁(ce	-11.0503
mol	-11.0505
icus	-11.0506
ops	-11.0509
▁assis	-11.051
�ti	-11.0511
ni�res	-11.0512
▁espoir	-11.0512
▁J'ai	-11.0512
▁word	-11.0514
▁Rain	-11.0514
▁annuelle	-11.052
▁vertu	-11.0521
ango	-11.0523
tention	-11.0525
▁109	-11.0526
▁individuel	-11.0527
ains	-11.0528
▁soutenu	-11.0528
▁vraie	-11.053
psi	-11.0533
▁centres	-11.0534
arme	-11.0537
▁occidental	-11.0537
▁Entertainment	-11.0538
▁guitariste	-11.054
▁order	-11.054
▁timbre	-11.0542
▁bombe	-11.0543
▁extr�mement	-11.0546
▁Take	-11.0547
▁franchise	-11.0548
TV	-11.0552
▁Riva	-11.0552
ienne.	-11.0554
▁Anth	-11.0559
▁Western	-11.056
f�r	-11.0562
anna	-11.0562
▁�difice	-11.0564
▁confirm�	-11.0564
▁1986,	-11.0564
▁affronte	-11.0564
▁�lectorale	-11.0565
▁(en)Site	-11.0566
▁Sara	-11.0566
▁Tch�coslovaquie	-11.0568
▁cop	-11.0568
▁Havre	-11.0568
▁rues	-11.0569
▁Vari	-11.057
▁remarquable	-11.0572
▁Gue	-11.0572
▁1953,	-11.0574
▁soumis	-11.0574
▁Stre	-11.0575
ID	-11.0576
▁compagnies	-11.0576
▁Sche	-11.0578
▁l'anglais	-11.0579
▁cultures	-11.0579
▁Ful	-11.0581
▁tr�sor	-11.0582
▁(co	-11.0583
rill	-11.0583
▁Yama	-11.0583
▁Autour	-11.0585
▁Troph�e	-11.059
▁Jean-Jacques	-11.059
▁Lien	-11.0591
▁pr�sidence	-11.0591
▁d�co	-11.0592
▁Grim	-11.0593
▁renomm�e	-11.0595
▁[[United	-11.0595
▁optique	-11.0595
▁Hat	-11.0595
▁since	-11.0595
▁subit	-11.0597
▁102	-11.06
-De	-11.06
▁California	-11.06
▁l'US	-11.0601
ifi�e	-11.0605
▁Pos	-11.0605
▁morte	-11.0607
▁r�serves	-11.0609
▁McG	-11.0609
is�es	-11.0614
▁III,	-11.0616
vette	-11.0616
▁d'animation	-11.0616
▁pr�cis�ment	-11.0616
▁oeuvre	-11.0617
▁contribution	-11.0619
▁atteign	-11.062
▁Artist	-11.0621
rew	-11.0624
▁rel�ve	-11.0625
▁sainte	-11.0631
▁Cinq	-11.0632
article	-11.0633
wall	-11.0634
▁grosse	-11.0634
▁demander	-11.0635
▁"F	-11.0635
illant	-11.0637
▁salles	-11.0639
▁Gua	-11.0641
nau	-11.0642
▁Wimbledon	-11.0643
▁maintenir	-11.0643
▁mourir	-11.0643
-c	-11.0643
▁Zurich	-11.0643
▁Studio	-11.0644
▁Vir	-11.0645
▁ligne]	-11.0646
▁�gale	-11.0646
▁arm�	-11.0651
▁ajout�	-11.0651
agi	-11.0652
▁penser	-11.0652
▁rapports	-11.0652
▁Rev	-11.0652
▁plac�e	-11.0653
▁line	-11.0656
▁Well	-11.0656
▁death	-11.0657
▁coin	-11.0657
▁104	-11.0658
|C	-11.0658
▁107	-11.066
▁efforts	-11.0663
▁@	-11.0664
▁d'h	-11.0665
▁traite	-11.0665
▁dirigeants	-11.0667
▁ronde	-11.0669
▁prononc�	-11.0669
▁voulait	-11.0669
▁before	-11.0669
▁Position	-11.067
ega	-11.0675
OP	-11.0675
version	-11.0677
▁simples	-11.0678
▁Reine	-11.068
board	-11.0682
▁Master	-11.0682
▁muni	-11.0683
r�n	-11.0683
▁country	-11.0683
nome	-11.0683
mur	-11.0684
ouk	-11.0686
▁mani	-11.0688
▁ferm�	-11.0691
▁1887	-11.0693
▁Tele	-11.0693
▁observ�	-11.0696
ch�e	-11.0696
▁bruit	-11.0696
▁Temp	-11.0696
▁interpr�tation	-11.0697
VI	-11.0699
▁Acc	-11.0701
▁Am�liorez	-11.0702
▁traditionnel	-11.0705
▁Nobel	-11.0705
boul	-11.0706
▁destination	-11.0706
▁R�g	-11.0707
[7].	-11.0712
▁Messi	-11.0713
dot	-11.0715
▁Train	-11.0717
gnac	-11.0717
▁End	-11.0721
▁n�cessit�	-11.0722
▁cr�a	-11.0725
▁collections	-11.0725
▁Prusse	-11.0726
▁arme	-11.0726
▁Kit	-11.0726
SS	-11.0727
▁seigneurs	-11.0728
▁Prim	-11.0728
▁Meilleure	-11.0729
▁modifi�	-11.0731
▁1�	-11.0734
▁player	-11.0734
jon	-11.0735
kou	-11.0737
ody	-11.0744
nation	-11.0746
book	-11.0749
▁ex�cut�	-11.0749
▁Avril	-11.0751
▁d�pos�	-11.0754
▁Bomb	-11.0757
▁member	-11.0758
▁Diego	-11.0758
6%	-11.0758
▁remise	-11.0761
▁restant	-11.0761
▁q	-11.0764
▁\	-11.0764
▁Valley	-11.0765
▁dirigeant	-11.0766
posit	-11.077
▁PJ	-11.0772
D)	-11.0772
mbi	-11.0773
ded	-11.0775
▁Church	-11.0775
50)	-11.0776
▁Lincoln	-11.0776
▁l'urbanisme	-11.0776
&lt;/td&gt;	-11.0776
▁Bron	-11.0776
▁?Ch	-11.0776
▁deviennent	-11.0776
▁(date	-11.0777
▁v�hicule	-11.0777
lah	-11.0779
▁Jeunesse	-11.0779
▁citoyens	-11.078
A)	-11.0781
▁Ian	-11.0781
▁(In	-11.0781
1951	-11.0782
▁chr�tien	-11.0783
tape	-11.0783
▁chronique	-11.0785
▁quotidienne	-11.0786
▁Corps	-11.0787
any	-11.0791
▁Schu	-11.0791
uka	-11.0791
▁�tablie	-11.0792
▁isol�	-11.0795
▁128	-11.0797
borg	-11.0799
/3	-11.0799
-Po	-11.08
zie	-11.08
▁publications	-11.0801
▁honneur	-11.0803
▁Capri	-11.0803
▁respectivement	-11.0803
id�s	-11.0804
▁*''[[	-11.0804
▁class�e	-11.0805
▁Hubert	-11.0806
▁noblesse	-11.0806
▁2005)	-11.0807
▁Kol	-11.0808
FA	-11.0812
▁serveur	-11.0813
ovi?	-11.0814
▁Carter	-11.0814
DC	-11.0814
▁cher	-11.0816
LA	-11.0816
▁Saint-S	-11.0817
▁pr�vue	-11.0818
▁1885	-11.0821
▁repr�sentent	-11.0823
ander	-11.0824
▁Chat	-11.0827
▁(n�e	-11.0827
▁aspect	-11.0828
pulsion	-11.083
▁Diversity	-11.0831
▁office	-11.0832
▁Raoul	-11.0834
▁catalogue	-11.0835
cz	-11.0835
.M.	-11.0836
▁apparaissent	-11.0837
▁Hamilton	-11.0838
▁lune	-11.0838
▁fall	-11.0839
m�tre	-11.0839
▁Pr�sentation	-11.0841
EA	-11.0842
▁"H	-11.0845
oidea	-11.0846
-Pa	-11.0846
▁Naissances	-11.0849
▁neveu	-11.0851
▁fid�le	-11.0854
▁rap	-11.0855
▁Palestine	-11.0856
▁Ukraine	-11.0857
▁bless�s	-11.0857
▁Texte	-11.0857
▁d'Autriche	-11.0858
▁L'histoire	-11.0859
▁Spring	-11.086
▁M�r	-11.086
▁client	-11.0861
▁tournage	-11.0861
▁Cata	-11.0866
▁Ky	-11.0866
▁49�	-11.0868
aster	-11.0869
http://www.	-11.0871
li�	-11.0873
erg	-11.0874
▁th�matiques	-11.0874
▁fr�quente	-11.0874
▁9e	-11.0878
▁Pav	-11.0878
▁1840	-11.0879
hui	-11.0879
leg	-11.088
▁Rib	-11.088
▁d�roul�	-11.0884
▁baptis�	-11.0884
▁Claire	-11.0884
▁Hitler	-11.0886
▁Jerry	-11.0886
▁1997.	-11.0886
/2	-11.0887
▁l'Ancien	-11.0889
▁NBA	-11.089
li�re	-11.0895
▁Garde	-11.0896
▁Maxim	-11.0896
emi	-11.0896
clus	-11.09
▁architecture	-11.0902
▁gr�ve	-11.0902
▁Ty	-11.0903
alia	-11.0904
▁rarement	-11.0905
[10]	-11.0907
▁accept�	-11.0907
agin	-11.0909
▁Monferrato	-11.0911
▁Nathalie	-11.0911
▁l'opposition	-11.0911
▁l'apparition	-11.0911
▁tribunal	-11.0911
▁administration	-11.0911
▁Pho	-11.0912
▁Baby	-11.0912
▁enterr�	-11.0913
▁Portrait	-11.0915
▁112	-11.0916
▁class	-11.0918
▁2-1	-11.0919
▁Wayne	-11.0922
▁Organisation	-11.0922
rons	-11.0922
▁envoie	-11.0923
▁(Di	-11.0924
▁s'impose	-11.0924
ovo	-11.0926
▁(Bo	-11.0927
▁stock	-11.0929
▁XVI	-11.0929
cl	-11.0929
▁Bande	-11.0929
▁individuelle	-11.0929
▁sto	-11.0931
▁rurale	-11.0936
▁Mega	-11.0937
▁perspective	-11.0938
▁remporta	-11.0938
▁ressort	-11.0938
▁visant	-11.0938
▁result	-11.0938
▁huile	-11.094
▁Cooper	-11.094
▁Mann	-11.0943
formation	-11.0944
gag	-11.0947
▁technologies	-11.0947
▁conte	-11.0948
▁R�gime	-11.0949
▁Kha	-11.095
▁retire	-11.0951
▁�crire	-11.0952
▁even	-11.0953
IUCN	-11.0953
enn	-11.096
▁para�t	-11.0961
▁Salle	-11.0961
▁consulte	-11.0961
▁appareils	-11.0962
▁cache	-11.0963
▁Naples	-11.0965
▁Moselle	-11.0968
chef	-11.0968
▁d'amour	-11.0969
▁Inc.	-11.0969
▁chercher	-11.097
r�al	-11.097
▁pr�sentent	-11.0971
rod	-11.0973
▁L'ex	-11.0974
▁hi	-11.0976
▁donnent	-11.0977
GA	-11.0978
▁Div	-11.098
▁CF	-11.0981
nate	-11.0987
▁Dio	-11.0988
▁Work	-11.0989
▁box	-11.099
Lu	-11.0991
shima	-11.0991
▁sexuelle	-11.0991
▁Bass	-11.0991
▁cadastral	-11.0992
▁alliance	-11.0992
▁s'empare	-11.0993
▁commissaire	-11.0993
▁Qu�bec,	-11.0993
▁Bis	-11.0993
▁Derni�re	-11.0994
▁Juillet	-11.0995
▁chantier	-11.0997
boy	-11.0999
doc	-11.0999
▁Chev	-11.1001
mann,	-11.1001
▁psycho	-11.1001
250	-11.1001
▁parisien	-11.1003
▁(si	-11.1004
▁sources.	-11.1005
▁rassemble	-11.1005
▁promu	-11.1005
▁planche	-11.1007
▁Barry	-11.1008
▁Gary	-11.1019
istance	-11.102
666667	-11.102
▁fameux	-11.102
▁cr�ature	-11.1021
▁project	-11.1023
rik	-11.1024
ization	-11.1024
▁d'activit�	-11.1025
▁py	-11.1025
▁d'El	-11.1025
▁Rein	-11.1025
▁sin	-11.1027
▁inclus	-11.1028
law	-11.1032
▁�rig�	-11.1032
▁Cook	-11.1035
▁all�	-11.1036
▁baisse	-11.1036
▁massive	-11.1037
▁1996.	-11.1037
▁content	-11.104
▁1821	-11.1041
▁Poli	-11.1042
▁sacr�	-11.1044
▁fibr	-11.1045
▁vendu	-11.1045
▁transcription	-11.1047
▁foyer	-11.1048
▁servant	-11.1048
▁Wallonie	-11.1049
oka	-11.105
▁CN	-11.105
norm	-11.1052
▁r�serv�	-11.1053
▁impose	-11.1054
▁Ras	-11.1054
▁longues	-11.1054
▁sexe	-11.1055
▁cat	-11.1056
▁Machine	-11.1056
▁sp�cialis�e	-11.1057
▁Cul	-11.1058
▁v�rifier	-11.1058
To	-11.106
▁sent	-11.1064
▁while	-11.1075
▁indiqu�	-11.1075
▁pouvaient	-11.1075
B)	-11.1076
▁�chelle	-11.1077
▁Tin	-11.1078
▁neuro	-11.1079
stad	-11.1081
ette,	-11.1083
▁environs	-11.1084
info	-11.1086
▁Chen	-11.1092
▁rappel	-11.1092
▁�v�ques	-11.1097
▁favori	-11.1097
▁Eli	-11.1101
tura	-11.1102
?i	-11.1102
▁s'appelle	-11.1102
▁Microsoft	-11.1102
▁l'issu	-11.1103
▁vides	-11.1103
▁appareil	-11.1105
▁facteur	-11.1107
▁Massif	-11.1107
▁Outre	-11.1107
▁argent	-11.1108
▁humide	-11.1109
▁When	-11.1112
▁1995.	-11.1113
▁Mgr	-11.1116
▁1884	-11.1118
▁blancs	-11.1119
444	-11.1121
▁m�dicale	-11.1122
▁history	-11.1124
▁CS	-11.1125
▁Virginie	-11.1125
dron	-11.1127
▁faute	-11.113
▁1960,	-11.113
▁semblable	-11.113
▁Campbell	-11.113
▁l'exception	-11.1131
2%	-11.1131
zard	-11.1131
▁much	-11.1132
Mar	-11.1132
▁(1994)	-11.1132
▁abandonne	-11.1133
fen	-11.1133
▁voile	-11.1134
▁cons�quences	-11.1135
▁Ans	-11.1136
UT	-11.1136
▁Bruxelles,	-11.1136
▁aliment	-11.1137
ory	-11.114
berger	-11.114
cott	-11.1145
�enne	-11.1147
▁correct	-11.1148
▁ouvriers	-11.115
onnais	-11.115
▁Masters	-11.1151
▁choisit	-11.1152
▁�mis	-11.1152
▁vive	-11.1154
▁dimensions	-11.1156
▁Fernando	-11.1157
enburg	-11.1157
▁ext�rieure	-11.1157
anges	-11.1158
▁r�duire	-11.1158
▁p�trole	-11.1158
Musulman	-11.1158
▁celtique	-11.1158
dro	-11.1159
script	-11.1159
/1	-11.116
▁option	-11.1162
fon	-11.1165
▁symbolis	-11.1167
▁archev�que	-11.1168
ophy	-11.117
▁Morgan	-11.1172
▁Wer	-11.1173
▁Java	-11.1179
abi	-11.118
▁�missions	-11.1182
▁demand�	-11.1185
▁pr�fet	-11.1186
▁psychologie	-11.1186
▁qualifie	-11.1186
nnes	-11.1187
▁Stadium	-11.1187
▁et/ou	-11.1187
▁candidats	-11.1189
:1	-11.1189
▁r�solution	-11.1189
▁Chanson	-11.1191
plex	-11.1192
plication	-11.1194
▁litt�raires	-11.1194
George	-11.1195
Me	-11.1195
▁riches	-11.1196
▁Villar	-11.1198
▁pay	-11.1198
▁sauvage	-11.1199
▁Times	-11.1205
▁alli�s	-11.1206
▁Rome,	-11.1206
▁175	-11.1212
▁obtint	-11.1214
▁ottoman	-11.1214
[15]	-11.1214
▁signature	-11.1214
▁photographe	-11.1216
▁na�t	-11.1216
▁ind�pendantes.	-11.1216
-01	-11.1218
▁puissante	-11.122
xon	-11.122
▁divise	-11.122
stig	-11.1221
1966	-11.1224
▁c�tes	-11.1225
▁Madagascar	-11.1226
▁108	-11.1226
▁OS	-11.1238
gone	-11.1238
▁d�nomination	-11.1242
▁philosophique	-11.1242
▁early	-11.1242
▁crime	-11.1242
▁Archives	-11.1243
▁Jay	-11.1244
▁facteurs	-11.1244
▁Khan	-11.1245
▁Joan	-11.1245
n�ant	-11.1246
▁adversaire	-11.1248
▁(5)	-11.1249
▁(Mar	-11.125
▁partout	-11.1251
▁fournit	-11.1255
isent	-11.1256
▁d�termin�	-11.1257
-02	-11.1258
▁Ring	-11.1259
iden	-11.1264
▁113	-11.1265
▁cantonal	-11.1268
▁financi�re	-11.1269
deau	-11.1269
101	-11.1269
▁disques	-11.127
▁d�mocratie	-11.127
▁inaugur�	-11.127
▁J�r�me	-11.127
-t-il	-11.127
acteur	-11.1272
ssus	-11.1273
▁Sud.	-11.1273
▁Herbert	-11.1274
▁Robinson	-11.1275
▁feuille	-11.1278
▁Police	-11.1278
▁fondamentale	-11.1286
ulf	-11.1286
/05/	-11.1286
▁matches	-11.1289
▁Pomp	-11.1293
tino	-11.1293
▁limit�	-11.1294
▁rival	-11.1295
hall	-11.1296
enstein	-11.1297
ack	-11.1297
r?	-11.1298
▁mol�cule	-11.1298
▁l'attaque	-11.1298
▁sauver	-11.1299
riv	-11.1299
▁chang�	-11.1299
isan	-11.1301
▁travailleurs	-11.1301
▁arriva	-11.1301
▁999)	-11.1303
▁Marti	-11.1303
1961	-11.1303
▁Alt	-11.1304
▁produite	-11.1304
▁make	-11.1305
▁Laura	-11.1305
▁l'�tablissement	-11.1308
▁Boris	-11.1308
▁montr�	-11.1309
cit	-11.131
▁(1er	-11.1318
ussi	-11.1319
▁l'unit�	-11.1322
▁consacre	-11.1323
▁Express	-11.1323
▁Sci	-11.1324
▁partisans	-11.1324
▁way	-11.1325
lich	-11.1326
liers	-11.1326
▁vapeur	-11.1326
▁dossier	-11.1327
ophone	-11.1328
▁Voie	-11.1329
▁monstre	-11.133
▁passagers	-11.1332
isto	-11.1332
▁durable	-11.1333
▁Kill	-11.1333
▁1867	-11.1336
▁HC	-11.1336
▁1883	-11.1342
▁(An	-11.1342
▁Arm�e	-11.1343
Football	-11.1345
▁suppose	-11.1347
▁arbre	-11.135
fur	-11.135
▁viol	-11.1352
▁1790	-11.1353
d'administration	-11.1354
▁d'obtenir	-11.1354
▁L'ann�e	-11.1354
▁germanique	-11.1354
▁Equipe	-11.1354
▁poursuivi	-11.1354
1%	-11.1355
▁Lumi�re	-11.1355
▁enfance	-11.1355
▁Floride	-11.1355
▁Licence	-11.1357
▁2006-2007	-11.1358
333	-11.1359
[11]	-11.1359
▁d'auteur	-11.136
firm	-11.1361
▁Dix	-11.1366
▁biologique	-11.1367
▁duch�	-11.1367
v�r	-11.1367
pl�	-11.1368
▁oct	-11.1368
ED	-11.137
▁take	-11.137
▁Kru	-11.137
▁R�seau	-11.1371
▁bandes	-11.1373
▁courbe	-11.1376
iki	-11.138
▁coup�	-11.138
▁Philadelphie	-11.1383
▁s�quence	-11.1383
▁Square	-11.1383
cot	-11.139
▁Paolo	-11.1392
▁?????????	-11.1392
1939	-11.1393
▁Barr	-11.1393
▁Coll	-11.1393
mbra	-11.1396
embre	-11.14
▁diff�rente	-11.14
▁Castro	-11.1402
late	-11.1404
▁process	-11.141
cross	-11.141
▁qua	-11.1411
▁dictionnaire	-11.1411
▁physicien	-11.1412
▁fiscal	-11.1412
▁fan	-11.1413
cis	-11.1417
▁africain	-11.1419
tration	-11.1419
▁marquant	-11.142
▁d'Am	-11.1421
▁Kur	-11.1421
▁modifier	-11.1423
-Joseph	-11.1423
▁pr�sent�e	-11.1425
▁Dro	-11.1425
▁Beat	-11.1426
▁avance	-11.1426
▁stra	-11.1427
-Al	-11.1427
igo	-11.1428
▁tableaux	-11.1432
▁oncle	-11.1434
▁Aires	-11.1434
▁DJ	-11.1437
▁Jonathan	-11.144
▁programmation	-11.144
▁small	-11.144
P)	-11.1442
▁prenant	-11.1443
▁Nominations	-11.1443
▁pourra	-11.1445
▁mairie	-11.1449
▁Franck	-11.1449
trie	-11.1453
veille	-11.1453
▁difficult�	-11.1455
▁permanent	-11.1455
DP	-11.1455
▁Taka	-11.1456
▁People	-11.1457
▁Cole	-11.1459
▁poisson	-11.146
azzo	-11.1465
▁poche	-11.1466
▁d�taill�s	-11.1466
/07/	-11.1468
▁Bonaparte	-11.1469
▁caution.	-11.1469
▁Amsterdam	-11.1469
▁Blood	-11.1469
▁s�paration	-11.147
i�re,	-11.147
▁Hollywood	-11.147
▁verte	-11.147
▁Picardie	-11.1471
▁destin	-11.1472
▁affect	-11.1472
naise	-11.1473
▁Head	-11.1476
▁gain	-11.1486
▁Critique	-11.1489
▁Sco	-11.149
▁d�passe	-11.1491
▁Grant	-11.1492
nni	-11.1496
▁(???	-11.1496
▁Gour	-11.1497
▁l'ouvrage	-11.1497
▁l�gislature	-11.1497
▁ressemble	-11.1497
▁cinquante	-11.1497
▁progr�s	-11.1497
▁conduis	-11.1498
▁dame	-11.1501
ground	-11.1502
rail	-11.1502
AV	-11.1504
▁Pir	-11.1504
nding	-11.1509
cub	-11.1511
▁russes	-11.1512
onie	-11.1512
▁bre	-11.1515
New	-11.1516
▁couvert	-11.1521
8%	-11.1521
▁versant	-11.1526
▁tunnel	-11.1526
▁universelle	-11.1526
▁Saint-Laurent	-11.1527
▁(ca	-11.1527
▁dissolution	-11.1527
▁affect�	-11.153
▁employ	-11.1531
▁Hugues	-11.1531
▁salon	-11.1532
ien.	-11.1532
▁(Ro	-11.1533
hara	-11.1534
▁collective	-11.1535
-sous-	-11.1538
▁canons	-11.1541
stat	-11.1542
▁radical	-11.1542
▁Jac	-11.1542
mot	-11.1543
▁mari�e	-11.1544
▁Africa	-11.1546
▁Russe	-11.1547
-Y	-11.1548
▁accueilli	-11.155
atta	-11.1551
▁concern�	-11.1551
▁s'affiche	-11.1555
▁Cardinal	-11.1555
mut	-11.156
▁angle	-11.1561
▁Def	-11.1563
▁Stefan	-11.1565
▁[[Ma	-11.1565
▁in�dit	-11.1566
▁etc.).	-11.1569
▁changements	-11.157
▁MA	-11.1573
▁aime	-11.1576
▁spatiale	-11.1576
92)	-11.158
ped	-11.1582
iger	-11.1582
▁d?	-11.1583
&lt;/math&gt;	-11.1584
▁Plantae	-11.1584
▁Jean-Luc	-11.1585
born	-11.1586
▁hautes	-11.1587
▁croissant	-11.1588
l�ne	-11.1588
▁enseignant	-11.1589
gale	-11.159
▁forc�	-11.1592
▁Hau	-11.1592
uze	-11.1592
-An	-11.1595
▁Lausanne	-11.1595
▁repr�senter	-11.1596
▁Ober	-11.1597
▁Herbe	-11.1597
ilo	-11.1599
▁voisins	-11.16
▁choisir	-11.1601
▁They	-11.1603
▁commerciale	-11.1605
ism]]	-11.1607
▁Tel	-11.1607
▁h�ritier	-11.1607
▁cit�s	-11.1609
stitu�	-11.1611
▁Cost	-11.1612
▁anniversaire	-11.1613
▁l'�gypte	-11.1613
▁rupture	-11.1613
▁Lib�ration	-11.1613
▁Civil	-11.1615
▁ailes	-11.1616
▁puisqu'il	-11.1616
▁hyper	-11.1617
tech	-11.162
▁Font	-11.1623
▁monte	-11.1624
coup	-11.1626
AA	-11.163
zia	-11.1633
▁FR	-11.1634
bonne	-11.1635
▁semblent	-11.1635
▁administratives	-11.1635
▁cellule	-11.1636
▁perdre	-11.1636
▁�ducation	-11.1636
▁Sound	-11.1639
-Ar	-11.164
▁Corse	-11.164
▁am�liorer	-11.164
▁Adams	-11.1641
▁Tab	-11.1641
▁municipalit�s	-11.1642
▁temporaire	-11.1642
▁synth�se	-11.1642
▁control	-11.1643
▁Borg	-11.1643
bier	-11.1643
▁AL	-11.1643
▁(Pa	-11.1645
TC	-11.1646
▁Sher	-11.1646
▁Plant	-11.1652
sten	-11.1656
▁Project	-11.1658
▁manifestations	-11.166
odo	-11.1661
left	-11.1662
▁Midi-Pyr�n�es	-11.1663
game	-11.1664
▁volontaire	-11.1667
▁produis	-11.1667
▁tourn�	-11.1668
▁135	-11.167
▁coalition	-11.1671
▁d'utiliser	-11.1671
▁l'emploi	-11.1671
▁reliant	-11.1672
▁Saint-Denis	-11.1672
▁Informations	-11.1675
▁Alba	-11.1677
-Louis	-11.1679
▁Mr	-11.1683
111	-11.1683
▁"I	-11.1684
▁charte	-11.1685
▁cot�	-11.1685
[2],	-11.1685
▁reconnue	-11.1686
NS	-11.1689
▁branches	-11.169
▁parisienne	-11.1691
▁Cop	-11.1692
▁ceci	-11.1692
�en	-11.1692
LI	-11.1694
espagnol	-11.1694
▁courante	-11.1695
▁Justin	-11.1696
▁pri�re	-11.1698
▁Fleur	-11.1699
▁b�n�ficie	-11.1699
▁Andy	-11.1699
▁Capitale	-11.17
▁fusil	-11.17
▁Indicatif	-11.1701
▁Slovaquie	-11.1701
▁However,	-11.1701
▁illustre	-11.1701
▁SF	-11.1701
-2007	-11.1703
▁Brook	-11.1704
▁Commun	-11.1704
▁lancement	-11.1705
▁Graham	-11.1705
/64)	-11.1708
logique	-11.1708
▁Boss	-11.1708
▁Elizabeth	-11.1709
▁r�les	-11.171
ider	-11.1711
pet	-11.1711
▁Franklin	-11.1711
▁right	-11.1716
▁compter	-11.1716
▁pousse	-11.1717
▁Gaz	-11.1717
▁Was	-11.1717
▁L'I	-11.1717
route	-11.1718
▁Nuit	-11.1721
section	-11.1722
▁gri	-11.1722
terie	-11.1723
▁existence	-11.1723
yst	-11.1723
box	-11.1724
▁championnats	-11.1724
▁morceau	-11.1725
▁situ�s	-11.1726
psych	-11.1728
▁Beaux-Arts	-11.173
▁p�ninsule	-11.173
▁provoqu�	-11.173
▁gothique	-11.173
▁d'azur	-11.173
▁boulevard	-11.173
▁116	-11.1731
owa	-11.1731
▁Chamb	-11.1734
▁Bobby	-11.1734
tico	-11.1736
▁now	-11.1736
▁attendre	-11.1737
▁117	-11.1739
alisme	-11.174
▁145	-11.1741
ppen	-11.1742
▁EC	-11.1744
vard	-11.1744
his	-11.1745
|S	-11.1745
▁Japon.	-11.1745
▁initial	-11.1746
▁tenta	-11.1747
ride	-11.1749
▁object	-11.1749
-2006	-11.1749
▁modeste	-11.1751
▁Suisse.	-11.1753
▁nationaliste	-11.1754
-pr�fecture	-11.176
▁cons�quent	-11.176
▁reconstruction	-11.176
▁livr�	-11.176
public	-11.176
▁Contraire	-11.1761
▁turc	-11.1762
▁portail	-11.1762
▁subi	-11.1766
/01/	-11.1766
▁Barbe	-11.1767
▁Colin	-11.1769
▁(Ar	-11.1769
illet	-11.1771
▁Pil	-11.1771
▁termin�	-11.1772
iot	-11.1773
▁CC	-11.1773
▁Aucun	-11.1773
rach	-11.1774
▁�trange	-11.1778
▁6-2,	-11.1778
▁Juil	-11.1785
uter	-11.1785
.net	-11.1786
▁renomm�	-11.1787
▁S�nchez	-11.1789
▁suffrage	-11.1789
▁prononce	-11.1789
▁Vieux	-11.179
▁Bavi�re	-11.179
▁Traduction	-11.1791
H�breu	-11.1792
▁Rap	-11.1792
mouth	-11.1795
▁rouges	-11.1795
...).	-11.1796
▁aventures	-11.1797
▁assiste	-11.1797
▁infini	-11.1797
▁l'argent	-11.18
▁Mora	-11.1803
▁am�ricaines	-11.1803
▁Hunt	-11.1803
quit	-11.1804
▁Guard	-11.1805
▁universit�s	-11.1805
▁Japan	-11.1806
gram	-11.1806
▁Saxe	-11.1807
▁city	-11.1808
▁dot�	-11.1808
fensive	-11.1809
▁agents	-11.1809
▁Ala	-11.1811
▁#1	-11.1813
▁CAS	-11.1815
12)	-11.1816
▁adaptation	-11.1817
▁puni	-11.1817
-Li	-11.1818
▁Celle-ci	-11.1819
▁Airlines	-11.1819
▁subdivision	-11.1819
▁conversion	-11.1821
Cha	-11.1822
▁SP	-11.1822
▁Moi	-11.1822
▁Gand	-11.1823
front	-11.1823
:00	-11.1825
▁Venezuela	-11.1827
rive	-11.1829
▁repr�sent�e	-11.1833
▁allait	-11.1836
▁mac	-11.1839
▁jugement	-11.184
novation	-11.184
MO	-11.184
▁Buts	-11.1844
▁br�l	-11.1847
▁sp�ciaux	-11.1849
▁vestiges	-11.1849
▁Dates	-11.185
rade	-11.185
▁lourde	-11.1851
Saint	-11.1851
▁fortune	-11.1852
▁rebelle	-11.1854
▁Spin	-11.1854
tory	-11.1857
▁complexes	-11.186
Michel	-11.1865
▁inscription	-11.1873
verse	-11.1876
▁volant	-11.1876
avec	-11.1877
owski	-11.1878
▁affaire	-11.1879
▁Stewart	-11.1879
▁cultiv�	-11.1879
hai	-11.1882
lop	-11.1885
▁aigu	-11.1887
Paris	-11.1887
hil	-11.1888
▁Quartier	-11.1889
▁Marche	-11.189
▁fonctionne	-11.189
40)	-11.189
▁franco-	-11.1892
ologiste	-11.1893
IR	-11.1894
▁Mix	-11.1896
hof	-11.1899
rama	-11.1901
▁ajoute	-11.1901
▁Breton	-11.1903
▁Kay	-11.1904
▁1865	-11.1908
▁Pr�fecture	-11.1909
▁cavalerie	-11.1909
▁incendie	-11.1909
▁EP	-11.1912
▁act	-11.1912
riot	-11.1913
rib	-11.1915
▁l'architecte	-11.1915
celles	-11.1915
bilis	-11.1916
▁spo	-11.1917
por	-11.1917
▁publia	-11.1917
p�re	-11.1917
▁altern	-11.1918
▁each	-11.1922
▁juif	-11.1927
▁Scha	-11.193
�nes	-11.1932
britannique	-11.1932
▁d'elle	-11.1933
▁poule	-11.1934
�mie	-11.1937
▁compilation	-11.1939
▁Lyc�e	-11.1939
▁id�al	-11.194
▁�tendue	-11.194
▁achev�	-11.194
▁d'Irlande	-11.194
▁montant	-11.1941
anglais	-11.1941
▁accord�	-11.1942
▁renseignement	-11.1943
wald	-11.1943
▁r�duction	-11.1944
▁Bush	-11.1944
▁Monuments	-11.1951
▁Britanniques	-11.1952
▁inconnue)	-11.1953
▁session	-11.1954
▁venus	-11.1955
▁Ryan	-11.1956
tait	-11.1958
▁Diff	-11.1959
naient	-11.1964
▁Terme	-11.1968
▁s'int�resse	-11.1969
▁Construction	-11.1969
▁Beatles	-11.1971
c�s	-11.1971
▁comptant	-11.1973
▁Renaud	-11.1974
▁domine	-11.1975
▁Coul	-11.1976
▁mensuelle	-11.1978
▁Albin	-11.1979
chia	-11.198
▁hypoth�se	-11.1982
master	-11.1983
▁S�ries	-11.1984
▁1888	-11.1987
ivo	-11.1989
GM	-11.1993
▁Fantasy	-11.1999
▁identifi�	-11.1999
▁intervention	-11.1999
▁appear	-11.1999
▁Gustave	-11.2
▁assistant	-11.2
▁financi�res	-11.2
Pa	-11.2
ival	-11.2001
▁brut	-11.2002
▁exclusivement	-11.2003
▁refus�	-11.2009
▁vice	-11.2009
dina	-11.2009
phone	-11.2009
▁suivie	-11.2011
xo	-11.2011
▁L'H	-11.2011
▁Graf	-11.2011
▁paysans	-11.2012
▁garder	-11.2012
▁s�lectionn�	-11.2015
▁typique	-11.202
1958	-11.2022
▁Tho	-11.2024
source	-11.2025
▁Kre	-11.2027
▁joua	-11.2028
▁Tribu	-11.2028
▁Giorgio	-11.2029
▁Macintosh	-11.2029
▁l'heure	-11.2029
▁l'islam	-11.2029
▁MHz	-11.2029
▁r�f�re	-11.203
Roman	-11.203
▁Xi�n	-11.2031
simo	-11.2031
▁logiciels	-11.2032
lion	-11.2033
▁partag�	-11.2033
▁commis	-11.2034
▁�norme	-11.2034
▁d'informations	-11.2035
1963	-11.2038
-2004	-11.2039
▁fans	-11.204
▁d'ordre	-11.2041
▁visiteurs	-11.2041
55)	-11.2042
illus	-11.2042
▁mont�e	-11.2042
anti	-11.2043
▁permanente	-11.2043
▁M�t	-11.2044
rend	-11.2044
▁flu	-11.2051
▁si�cle)	-11.2051
uca	-11.2053
▁Papa	-11.2053
▁plume	-11.2057
▁mines	-11.2057
�dre	-11.2058
▁Constantinople	-11.206
▁Salvador	-11.206
▁domicile	-11.206
▁pseudonyme	-11.206
▁s'occupe	-11.206
▁Conf�rence	-11.2061
▁s�pare	-11.2061
▁Dijon	-11.2062
▁(1993)	-11.2062
Jean	-11.2063
▁menac�	-11.2064
▁offert	-11.2065
▁Arme	-11.2066
▁Bot	-11.2067
▁Principales	-11.2068
▁Nik	-11.2069
▁Tsu	-11.2071
▁universel	-11.2071
▁initialement	-11.2076
▁fact	-11.2079
omp	-11.2084
▁pratiquement	-11.2084
gru	-11.2084
graphic	-11.2085
▁outils	-11.2087
▁pratiqu�	-11.209
▁supr�me	-11.209
▁surveillance	-11.209
▁Challenge	-11.209
▁several	-11.209
▁(plus	-11.2092
▁d�coration	-11.2095
▁Kelly	-11.2096
▁L'Ar	-11.2099
▁caract�rise	-11.2099
▁bateaux	-11.21
▁publicit�	-11.2103
1964	-11.2105
▁colline	-11.2105
▁d'Ab	-11.2107
igan	-11.2111
Her	-11.2111
▁Ard	-11.2112
▁arriv�e	-11.2112
▁mix	-11.2114
▁finance	-11.2116
/C	-11.2117
▁Sang	-11.2118
▁gratuit	-11.2119
▁Professeur	-11.2121
▁oblig�	-11.2121
▁Contr�le	-11.2121
▁douleur	-11.2121
▁imprim�	-11.2122
▁(1992)	-11.2123
aldo	-11.2124
telli	-11.2125
▁spectateurs	-11.2126
▁union	-11.2127
▁111	-11.2129
▁tournant	-11.2134
1942	-11.2136
▁Kri	-11.2136
▁cadet	-11.2136
▁recul	-11.2136
▁Blo	-11.2137
▁Perse	-11.2138
▁Cala	-11.214
ouin	-11.214
▁restera	-11.214
▁dizaine	-11.2141
▁Aujourd'hui	-11.2144
llus	-11.2144
▁Jason	-11.2144
▁Gab	-11.2145
▁performances	-11.2146
UC	-11.2146
lv	-11.2147
▁Taux	-11.2148
▁chercheurs	-11.2148
▁author	-11.2149
Robert	-11.215
▁guerrier	-11.2151
▁Ontario	-11.2151
▁anc�tre	-11.2151
▁prototype	-11.2151
External	-11.2153
'')	-11.2153
▁(1991)	-11.2153
▁fichiers	-11.2153
▁archives	-11.2154
▁doctorat	-11.2154
▁remis	-11.2157
cop	-11.2157
▁fuite	-11.2157
▁Sens	-11.2159
▁solutions	-11.216
▁fournir	-11.2162
▁d'y	-11.2164
▁pes	-11.2168
▁mi-	-11.217
▁Sarah	-11.217
Val	-11.2171
onic	-11.2174
PD	-11.2174
▁trait	-11.2176
▁Pakistan	-11.2182
▁interm�diaire	-11.2182
▁au-del�	-11.2182
▁recevoir	-11.2182
▁l'abb�	-11.2182
[16]	-11.2183
▁what	-11.2183
quisition	-11.2183
▁Comics	-11.2183
▁Travail	-11.2183
▁couvent	-11.2186
▁Coast	-11.2187
▁Bryan	-11.2189
▁Colonel	-11.2189
▁constituant	-11.219
▁LA	-11.2191
ende	-11.2192
▁Flor	-11.2193
▁Card	-11.2194
-Sud	-11.2197
▁exposition	-11.2197
(km	-11.2198
Indian	-11.2199
160	-11.22
▁d�lai	-11.2202
▁sommes	-11.2204
▁racines	-11.2205
▁Ave	-11.2206
icit�	-11.2207
bell	-11.2207
▁Saint-Ma	-11.2207
▁Brest	-11.2207
iglio	-11.2208
▁product	-11.2208
▁foule	-11.2211
▁Attaquant	-11.2213
▁Cleveland	-11.2213
▁hab./km2	-11.2213
▁confondu	-11.2213
th�rapie	-11.2213
▁r�gulier	-11.2213
▁Eye	-11.2214
uvi	-11.2216
▁Aga	-11.2217
(C	-11.2218
▁still	-11.2218
▁indienne	-11.2219
▁traditions	-11.2222
avait	-11.2223
▁Augustin	-11.2223
ania	-11.2225
]]'s	-11.2227
▁Winter	-11.2227
▁she	-11.2232
ctus	-11.2234
▁Anciens	-11.2237
I.	-11.2239
▁punk	-11.2241
▁revenus	-11.2242
▁What	-11.2242
▁�criture	-11.2242
29)	-11.2243
▁Circonscription	-11.2244
▁Marshall	-11.2245
lb	-11.2246
▁Serbes	-11.2246
FL	-11.2247
iso	-11.2247
som	-11.2247
th�se	-11.2247
▁permit	-11.2247
euvre	-11.2249
190	-11.2249
▁1862	-11.225
▁cin�matographi	-11.2251
▁Most	-11.2253
▁Cha�ne	-11.2255
▁parution	-11.2256
93)	-11.226
▁appliqu�e	-11.2262
▁marins	-11.2263
▁Lim	-11.2263
bois	-11.2264
▁parcs	-11.2265
tec	-11.2266
▁Rh�ne-Alpes	-11.2272
▁caract�ris�	-11.2273
▁Champions	-11.2274
lard	-11.2274
▁(1/16)	-11.2275
▁Slov�nie	-11.2275
▁d�truire	-11.2275
▁strat�gique	-11.2275
▁Atlantique	-11.2275
▁protocole	-11.2275
▁doigt	-11.2275
▁Human	-11.2275
▁S�lectionneur	-11.2275
▁cuivre	-11.2276
chus	-11.2276
active	-11.2277
▁�valuation	-11.2279
▁Silver	-11.2279
.E.	-11.2281
an�	-11.2281
▁flux	-11.2282
▁Stars	-11.2283
▁th�ologie	-11.2284
actif	-11.2285
-en-B	-11.2286
Paul	-11.2286
Persan	-11.2286
▁Alban	-11.2287
brun	-11.2289
hua	-11.229
Vi	-11.229
indre	-11.2294
rist	-11.2296
▁Christopher	-11.2298
▁FM	-11.2298
▁seigneurie	-11.2305
▁construits	-11.2305
▁Giuseppe	-11.2306
▁s'agissait	-11.2306
▁L�gende	-11.2306
▁vicomte	-11.2306
▁AITA	-11.2306
▁blason	-11.2306
▁colons	-11.2307
▁places)	-11.2307
▁d�di�e	-11.2307
▁Bed	-11.2307
▁(St	-11.2308
▁Multi	-11.2308
▁Albi	-11.2309
▁Form	-11.231
▁Lombardie	-11.231
ules	-11.2311
▁charbon	-11.2311
▁ventes	-11.2313
▁Shel	-11.2316
▁irlandais	-11.2321
▁jardins	-11.2323
▁p�nal	-11.2323
▁pistes	-11.2327
▁D�fenseur	-11.2328
▁l'avant	-11.2328
▁secondes	-11.233
▁VIe	-11.2332
1945	-11.2333
▁perce	-11.2335
▁Pet	-11.2335
▁historiens	-11.2335
▁Athl�te	-11.2337
▁assembl�e	-11.2337
▁�quipage	-11.2338
▁suicide	-11.2338
night	-11.2339
▁sultan	-11.2339
▁pauvres	-11.234
▁Nau	-11.2341
▁espaces	-11.2341
eries	-11.2342
▁Mayenne	-11.2342
▁Oxford	-11.2342
▁flor	-11.2345
▁Pape	-11.2346
▁physi	-11.2346
nio	-11.2347
�ron	-11.2349
eiro	-11.2351
13)	-11.2352
▁protest	-11.2353
-21	-11.2353
/4	-11.2353
▁Toulon	-11.2354
▁duquel	-11.2356
cti	-11.2356
nait	-11.2357
/M	-11.236
▁1794	-11.236
camp	-11.2362
▁employ�s	-11.2362
▁matrice	-11.2362
/02/	-11.2363
ifiant	-11.2363
mori	-11.2363
▁text	-11.2367
Inter	-11.2368
▁accompagne	-11.2369
▁serpent	-11.2369
▁param�tre	-11.2369
▁360	-11.237
▁l'affichage	-11.237
▁Com�die	-11.237
▁Friend	-11.237
▁Combat	-11.2372
▁mil	-11.2375
thes	-11.2376
▁dessinateur	-11.2376
▁Latin	-11.2379
▁Never	-11.238
▁l'analyse	-11.2381
▁paire	-11.2383
igue	-11.2385
valle	-11.2385
▁Terri	-11.2385
▁132	-11.2387
▁desservie	-11.2387
210	-11.239
bbi	-11.2391
▁118	-11.2392
▁volcan	-11.2393
iaux	-11.2393
▁Sem	-11.2396
▁Producteur	-11.2399
▁conserva	-11.2399
▁d�tenu	-11.24
▁esclaves	-11.24
▁(int.)	-11.24
▁eux-m�mes	-11.24
▁augment�	-11.24
▁ruisseau	-11.2401
▁Abbaye	-11.2401
nick	-11.2401
▁Tibet	-11.2402
▁Wie	-11.2403
lom	-11.2403
▁(6)	-11.2404
guet	-11.2404
▁Summer	-11.2404
▁Knight	-11.2404
▁Orange	-11.2405
icul	-11.2408
▁�tranger	-11.2409
▁Aff	-11.2409
fol	-11.241
▁Vol.	-11.2412
▁Titan	-11.2413
▁form�e	-11.2413
LM	-11.2414
▁land	-11.2416
▁tenant	-11.2419
1-1	-11.2419
▁�preuve	-11.242
scen	-11.2423
▁Gaule	-11.2426
VA	-11.2428
ph�n	-11.2429
▁Kom	-11.2429
phal	-11.2429
▁IXe	-11.2429
-22	-11.243
▁Edition	-11.2431
▁Thompson	-11.2432
▁Academy	-11.2432
hampagne-Ardenne	-11.2432
▁Septembre	-11.2432
▁habituellement	-11.2432
▁signification	-11.2432
aver	-11.2433
.P.	-11.2433
▁nourriture	-11.2433
▁Edmond	-11.2433
▁Larry	-11.2434
▁estim�e	-11.2434
▁Janvier	-11.2434
▁�cran	-11.2435
ink	-11.2436
ouille	-11.2437
down	-11.2438
▁quitt�	-11.2441
▁Bear	-11.2442
▁indication	-11.2442
▁f�tes	-11.2445
▁positions	-11.2447
naud	-11.245
▁lin	-11.2451
▁pomme	-11.2451
▁Case	-11.2451
naut	-11.2452
▁+1	-11.2452
vey	-11.2453
▁Services	-11.2457
▁cr�dit	-11.2457
roche	-11.246
akh	-11.2461
▁Wel	-11.2462
▁Magazine	-11.2463
▁tramway	-11.2463
▁blues	-11.2463
▁plaisir	-11.2464
pia	-11.2465
▁Cassi	-11.2465
▁amoureux	-11.2466
▁Marin	-11.2466
▁beaut�	-11.2468
▁Bud	-11.2468
▁opposant	-11.2469
▁associ�s	-11.247
▁Oz	-11.247
▁suppl�mentaires	-11.247
verb	-11.247
▁travailla	-11.247
▁mythe	-11.2471
9%	-11.2473
▁clairement	-11.2475
▁bleue	-11.2476
icide	-11.2477
▁[[O	-11.2478
.D.	-11.2478
▁soldat	-11.2481
▁remarquer	-11.2483
▁villa	-11.2485
▁suc	-11.2489
90)	-11.2494
▁Wiktionnaire.	-11.2495
▁Produit	-11.2495
▁d�finir	-11.2496
date	-11.2496
▁tribus	-11.2497
▁those	-11.2497
▁1500	-11.2499
▁Penn	-11.25
▁m�t	-11.2501
▁Lorenzo	-11.2502
tendant	-11.2505
roman	-11.2505
▁Cherche	-11.2505
mise	-11.2508
▁England	-11.2508
▁campagnes	-11.2509
▁export	-11.2512
-du	-11.2513
dica	-11.2514
▁�tudier	-11.2516
▁144	-11.2517
▁radi	-11.2518
▁divis�e	-11.2518
ti�re	-11.2518
jin	-11.2518
▁Clair	-11.252
▁2014	-11.252
▁nomination	-11.2522
▁did	-11.2523
▁theory	-11.2524
▁Contre	-11.2524
▁Borgo	-11.2524
▁expert	-11.2526
▁financier	-11.2526
▁Situation	-11.2527
▁croyance	-11.2527
▁acc�l�r	-11.2527
▁official	-11.2527
▁r�dig�	-11.2527
▁touch�	-11.2528
▁viande	-11.2528
▁SG	-11.2528
▁title	-11.2528
FF	-11.2529
▁vocation	-11.2529
envoyer	-11.2532
▁prisonnier	-11.2533
▁attire	-11.2534
▁l'�me	-11.2535
▁propri�taires	-11.2536
witz	-11.2539
▁comp�tences	-11.254
otto	-11.2542
▁Wol	-11.2544
-Lo	-11.2544
▁Cry	-11.2545
�cu	-11.2545
▁Ao�	-11.2548
▁SI	-11.2548
▁�l�mentaire	-11.255
140	-11.255
/A	-11.2551
89)	-11.2554
▁existent	-11.2554
▁B�le	-11.2555
▁catholicisme	-11.2559
▁Jumelage	-11.2559
▁Poitiers	-11.2559
▁cheveux	-11.2559
▁l'Arm�e	-11.2559
▁Petr	-11.256
▁l'�preuve	-11.256
▁soir�e	-11.2564
??????????	-11.2564
clave	-11.2564
▁Martina	-11.2566
▁profond	-11.2569
vage	-11.2571
▁Vaud	-11.2572
▁President	-11.2577
▁distinguer	-11.2577
▁Other	-11.2577
▁1879	-11.2578
▁Cruz	-11.258
male	-11.2581
▁Silva	-11.2582
Hindou	-11.2583
▁reconna�t	-11.2584
▁1874	-11.2586
.F.	-11.2587
1959	-11.2587
▁Acteur	-11.2588
▁transforme	-11.259
▁Research	-11.2591
▁n?ud	-11.2591
▁R�sistance	-11.2591
construct	-11.2592
▁payer	-11.2593
▁Arnaud	-11.2594
▁114	-11.2595
▁220	-11.2598
▁1875	-11.2598
▁nef	-11.2598
▁Communication	-11.26
▁hand	-11.261
▁(Sa	-11.2611
▁sel	-11.2612
14)	-11.2613
▁sp�cifiques	-11.2615
oper	-11.2615
▁121	-11.2621
▁L�opold	-11.2623
▁Officier	-11.2623
▁l'animation	-11.2623
▁Susan	-11.2623
▁Harvard	-11.2624
▁�cologique	-11.2625
▁Publication	-11.2625
▁(1989)	-11.2625
▁brutal	-11.2627
▁r�acteur	-11.2627
▁modification	-11.2628
ager	-11.2628
[8].	-11.2629
base	-11.2629
zac	-11.2629
▁Duck	-11.2631
▁apporte	-11.2631
▁?Ba	-11.2632
▁report	-11.2633
▁Kno	-11.2634
▁l'arri�re	-11.2634
icule	-11.2635
occi	-11.2635
▁Alexis	-11.2638
real	-11.2639
-Mu	-11.2639
▁manuel	-11.2639
▁Montr�al,	-11.264
image	-11.264
fel	-11.264
uki	-11.2641
▁---	-11.2642
▁general	-11.2643
▁Horn	-11.2645
▁moments	-11.2649
1920	-11.2649
AI	-11.2649
▁entendu	-11.2651
▁agricoles	-11.2651
▁d'agglom�ration	-11.2655
▁Special	-11.2655
▁l'acc�s	-11.2655
▁chronologie	-11.2655
▁exprim�	-11.2655
▁grotte	-11.2656
▁grain	-11.2656
▁lign�e	-11.2656
▁Villeneuve	-11.2656
▁Standard	-11.2657
▁adh�re	-11.2657
▁Ost	-11.2657
▁Paradis	-11.2658
▁Louvre	-11.2659
▁symp	-11.2659
▁s�che	-11.266
▁fonctionnaire	-11.266
annon	-11.2661
IO	-11.2664
▁australien	-11.2665
bres	-11.2665
▁pilotes	-11.2667
1946	-11.2668
▁Formation	-11.2669
▁remplacement	-11.267
Car	-11.2673
cla	-11.2673
▁fondateurs	-11.2673
icole	-11.2674
▁240	-11.2676
▁S�ville	-11.2677
pass	-11.2677
▁reconnaiss	-11.2686
▁bits	-11.2687
▁ex�cutif	-11.2688
▁Commerce	-11.2688
marocain	-11.2689
▁Rav	-11.2692
▁Psych	-11.2693
▁dieux	-11.2693
34)	-11.2694
▁Minnesota	-11.2695
vocation	-11.2697
▁Tai	-11.2701
guy	-11.2702
▁tu�s	-11.2704
-Ga	-11.2705
▁habit�	-11.2705
▁froide	-11.2709
▁Wu	-11.2711
ggia	-11.2712
▁Like	-11.2717
▁r�cent	-11.2718
▁avons	-11.2719
▁Bak	-11.272
▁d�monstration	-11.272
▁l'exploitation	-11.272
▁d'attaque	-11.272
▁instruction	-11.2721
▁enfants.	-11.2721
pli	-11.2722
▁interview	-11.2722
▁Capital	-11.2723
▁provide	-11.2725
▁Herv�	-11.2726
-2000	-11.2727
▁�tablit	-11.2731
▁Lamb	-11.2732
▁ph�nom�nes	-11.2732
d�c	-11.2733
▁r�cente	-11.2735
▁d'Eu	-11.2735
▁Maine	-11.2736
enko	-11.2737
▁Emil	-11.2738
Charles	-11.2738
cadre	-11.2738
▁registre	-11.2739
▁universit�	-11.274
▁wallon	-11.2742
omy	-11.2743
▁Beck	-11.2744
▁1863	-11.2745
▁RN	-11.2747
tard	-11.2751
▁f�r	-11.2752
combe	-11.2753
▁combinaison	-11.2753
▁contribu�	-11.2753
▁r�sulte	-11.2753
▁carbone	-11.2753
▁orient�	-11.2753
work	-11.2754
35)	-11.2755
▁Germain	-11.2755
ists	-11.2755
▁d'Henri	-11.2756
1930	-11.2756
gul	-11.2758
▁Guill	-11.2758
▁Erik	-11.2759
▁Gill	-11.2761
-Cha	-11.2761
▁SO	-11.2762
MC	-11.2762
▁43�	-11.2762
▁subject	-11.2764
▁patient	-11.2764
affi	-11.2765
▁Brass	-11.2766
▁phare	-11.2766
▁municipale	-11.2767
IG	-11.2769
isy	-11.2774
litz	-11.2775
75)	-11.2776
▁externe	-11.2778
▁Mut	-11.2779
▁com�dien	-11.2779
▁Ani	-11.2779
▁soins	-11.2779
▁Kent	-11.278
hod	-11.2781
▁fausse	-11.2782
▁Apollo	-11.2782
-2005	-11.2783
▁commentaire	-11.2784
▁britannique.	-11.2785
á	-11.2785
▁Ouverture	-11.2785
▁contr�l�	-11.2786
▁r��lu	-11.2786
▁d'autant	-11.2786
▁enseignement	-11.2786
▁Accord	-11.2787
hang	-11.2787
▁disposa	-11.2787
▁figures	-11.2788
▁Cercle	-11.2788
▁pra	-11.2789
[9].	-11.279
▁l'Irlande	-11.279
bau	-11.2791
bridge	-11.2791
▁compl�mentaire	-11.2793
▁exactement	-11.2794
▁moral	-11.2796
endra	-11.2797
flamm	-11.2797
▁(Al	-11.28
ept	-11.28
1947	-11.2803
32)	-11.2804
▁hasard	-11.2806
▁probable	-11.2807
▁objectifs	-11.281
▁122	-11.2812
▁Lombard	-11.2814
▁a�riennes	-11.2814
vrier	-11.2817
▁Kennedy	-11.2818
▁immense	-11.2818
▁domestique	-11.2818
▁plastique	-11.2818
▁d�clenche	-11.2818
▁Margaret	-11.2818
▁Buenos	-11.2818
▁Vosges	-11.2818
▁restaur�	-11.2819
▁subsiste	-11.2819
▁constat	-11.2821
11)	-11.2821
▁exceptionnelle	-11.2821
▁Tang	-11.2823
eller	-11.2823
▁Canadiens	-11.2824
�ral	-11.2826
▁para�tre	-11.2827
pelle	-11.2827
▁PCF	-11.2828
▁Totale	-11.2829
▁choc	-11.283
1954	-11.2832
▁r�pondre	-11.2833
▁attend	-11.2833
▁Fol	-11.2833
▁series	-11.2834
▁d'�dition	-11.2835
▁r�ellement	-11.2838
stadt	-11.2839
▁firent	-11.284
▁stable	-11.2841
▁L'en	-11.2841
TO	-11.2843
▁Edit	-11.2844
Star	-11.2844
▁m�di�vale	-11.2845
▁colon	-11.2845
s==	-11.2846
-26	-11.2848
MD	-11.2848
▁D�veloppeur	-11.2851
▁Mexico	-11.2851
▁excellent	-11.2851
▁positif	-11.2851
▁r�colte	-11.2851
▁pirate	-11.2853
▁syndicat	-11.2854
▁d'important	-11.2854
▁Baker	-11.2854
▁julien	-11.2854
omique	-11.2854
▁Dallas	-11.2855
▁d'acc�s	-11.2856
▁Att	-11.286
▁natural	-11.2861
▁Grave	-11.2864
▁Som	-11.287
▁align=&quot;	-11.2871
▁Eva	-11.2871
▁"E	-11.2872
▁Op�ration	-11.2873
▁globale	-11.2873
haus	-11.2876
▁"G	-11.2878
▁crit�res	-11.288
uga	-11.288
▁gou	-11.288
▁m�nage	-11.288
▁Sca	-11.2881
forme	-11.2881
-les-Bains	-11.2884
▁(vid�o)	-11.2884
▁souterrain	-11.2884
▁cardiaque	-11.2884
▁thermique	-11.2884
▁Pi�mont	-11.2884
▁�volu�	-11.2884
▁Pictures	-11.2884
▁Essai	-11.2885
▁(1990)	-11.2887
▁Raf	-11.2887
▁Alberto	-11.2887
▁reproduction	-11.2887
▁136	-11.2887
▁Forces	-11.2887
▁nulle	-11.2888
▁l'Alg�rie	-11.2889
▁down	-11.289
▁AAA	-11.2891
ing]]	-11.2891
▁Lituanie	-11.2892
telle	-11.2892
▁ten	-11.2893
▁Krist	-11.2893
▁Blason	-11.2893
▁Lambert	-11.2894
▁pr�sentant	-11.2896
|B	-11.2897
▁Hero	-11.2899
87)	-11.2901
▁(??)	-11.2903
▁crypt	-11.2905
cien	-11.2905
▁exige	-11.2906
▁Ao�t	-11.2906
▁municipales	-11.291
▁clients	-11.2911
▁clocher	-11.2914
r�g	-11.2915
▁n'�t	-11.2916
▁agit	-11.2916
▁attribue	-11.2917
▁eccl�siastique	-11.2917
▁l'�crivain	-11.2917
▁quarante	-11.2917
▁SNCF	-11.2917
ption	-11.2917
▁Kansas	-11.2918
▁close	-11.2918
▁augmentation	-11.2918
▁d�tails	-11.2919
▁magn�tique	-11.292
▁�ric	-11.2922
▁courses	-11.2923
▁1868	-11.2924
TR	-11.2925
ois.	-11.2926
-Me	-11.2926
▁combattre	-11.2927
kg	-11.293
▁�quipements	-11.2931
▁Disneyland	-11.2936
belle	-11.2937
/09/	-11.2937
▁Garden	-11.2937
38)	-11.2938
l'arrondissement	-11.2938
andre	-11.294
▁unies	-11.294
▁"J	-11.2941
▁Nil	-11.2941
31)	-11.2942
▁Industrie	-11.2946
uperordre	-11.2946
▁sha	-11.295
▁Etats-Unis	-11.295
▁d'enseignement	-11.295
▁l'emplacement	-11.295
▁supprim�	-11.2951
и	-11.2951
▁Malte	-11.2951
▁Verdun	-11.2951
▁[?]	-11.2952
▁2007-2008	-11.2952
▁l'ad	-11.2954
▁d'?uvre	-11.2954
▁stri	-11.2955
▁Oh	-11.2955
▁Gauche	-11.2955
▁team	-11.2957
▁Chez	-11.2957
▁Key	-11.2958
▁adultes	-11.2958
▁R�le	-11.2959
▁d'acc	-11.2962
▁transform�	-11.2963
▁ch�teaux	-11.2963
170	-11.2964
▁Born	-11.2965
▁Namur	-11.2967
ties	-11.2967
▁manifestation	-11.2968
▁dames	-11.297
▁intellectuel	-11.297
▁retirer	-11.2973
54)	-11.2974
▁particules	-11.2975
Tour	-11.2976
ibi	-11.2978
ci�	-11.2978
▁contre-	-11.298
▁Ludwig	-11.2984
▁pavillon	-11.2984
▁Vatican	-11.2984
▁intense	-11.2985
�r�s	-11.2985
IF	-11.2986
4%	-11.2986
▁Manchester	-11.2987
cular	-11.2988
▁musulmans	-11.2988
▁�tudiant	-11.2989
▁1814	-11.2989
bian	-11.299
▁Giu	-11.2992
erson	-11.2992
10)	-11.2993
▁Octobre	-11.2996
▁gu�ri	-11.2997
1953	-11.2998
▁Isaac	-11.3
▁Tiger	-11.3001
▁Femme	-11.3004
riel	-11.3005
▁Marcus	-11.3007
▁Rab	-11.3007
AG	-11.3011
colo	-11.3013
▁clip	-11.3014
▁old	-11.3014
▁r�duite	-11.3014
ingham	-11.3016
xie	-11.3016
film	-11.3016
kara	-11.3016
thor	-11.3017
▁cad	-11.3017
▁l'h�pital	-11.3017
▁l'�chelle	-11.3017
▁Family	-11.3017
▁Figaro	-11.3017
▁l'ennemi	-11.3017
▁Network	-11.3017
▁Houston	-11.3018
▁(Canada)	-11.3018
33)	-11.3019
▁exprime	-11.302
�crit	-11.302
▁routier	-11.302
▁Mess	-11.3021
▁devaient	-11.3022
▁comt�s	-11.3023
▁croisade	-11.3024
▁Pru	-11.3024
-Jean	-11.3024
▁parfaitement	-11.3026
trange	-11.3026
▁consist	-11.3029
alter	-11.3032
▁publi�s	-11.3035
▁Aucune	-11.3038
▁automatique	-11.3039
ISS	-11.304
▁Iron	-11.3041
▁1855	-11.3042
▁joueuse	-11.3043
▁consid�rer	-11.3043
pole	-11.3044
▁calendriers	-11.3045
▁Cham	-11.3048
-d'	-11.305
▁European	-11.305
▁Spo	-11.305
▁garnison	-11.3051
▁l'�cran	-11.3051
▁drame	-11.3051
▁QIX	-11.3052
▁common	-11.3052
gier	-11.3052
▁Schi	-11.3052
667	-11.3054
▁Basil	-11.3054
▁Pun	-11.3055
▁Ire	-11.3056
▁1864	-11.3056
▁ballon	-11.3056
EF	-11.3056
▁transition	-11.3056
▁recours	-11.3057
▁Hydro	-11.3057
▁Tea	-11.3057
opter	-11.306
hong	-11.3061
▁(Ha	-11.3068
▁Helen	-11.3068
▁pr�-	-11.3069
▁Singles	-11.307
▁(b	-11.307
chal	-11.3072
▁sw	-11.3073
tting	-11.3075
charge	-11.3075
mois	-11.3076
▁Hunter	-11.3077
2}}}	-11.308
neuf	-11.308
�rien	-11.308
articul	-11.3082
▁Media	-11.3082
99)	-11.3083
Bois	-11.3083
▁ordinaire	-11.3085
▁Apple	-11.3085
▁become	-11.3085
▁Tennis	-11.3087
▁Morris	-11.3087
▁figura	-11.3087
▁2005-2006	-11.3087
▁conclusion	-11.3087
▁expose	-11.3088
1943	-11.3089
▁Gay	-11.309
▁155	-11.309
▁notables	-11.3091
▁Solo	-11.3091
▁post-	-11.3091
llon	-11.3093
-Ra	-11.3095
▁BBC	-11.3095
gression	-11.3095
▁Norman	-11.3096
▁165	-11.3097
▁studios	-11.3098
▁apport	-11.31
▁rentre	-11.3104
▁Hermann	-11.3105
▁(L'	-11.3107
▁Arch	-11.3109
▁manche	-11.3109
▁Stock	-11.3109
UN	-11.311
▁Ner	-11.3112
vais	-11.3112
loge	-11.3112
▁cur�	-11.3115
▁Mach	-11.3116
encontre	-11.3117
▁Batt	-11.3117
1957	-11.3118
▁Mac�doine	-11.3118
▁appr�ci�	-11.3118
▁entour�	-11.3118
▁Michigan	-11.3118
▁m�tallique	-11.3119
▁D2	-11.3119
▁d'entreprise	-11.3119
▁Galli	-11.3124
▁c.	-11.3124
-Est	-11.3125
arro	-11.3127
▁camps	-11.3127
▁?W	-11.3128
▁Bess	-11.3129
mina	-11.313
may	-11.3131
▁Christine	-11.3132
mination	-11.3132
▁IUCN	-11.3133
▁engagement	-11.3133
uco	-11.3135
▁cross	-11.3139
g�r	-11.314
-de-B	-11.3143
Pays	-11.3144
▁vain	-11.3145
▁descendants	-11.3146
zhou	-11.3149
hart	-11.3149
vou	-11.3151
▁p�d	-11.3151
AB	-11.3152
teen	-11.3152
▁(feuilleton	-11.3152
▁poss�dant	-11.3152
▁pianiste	-11.3152
▁Jacqueline	-11.3153
▁vingtaine	-11.3153
▁tirer	-11.3153
max	-11.3154
▁Murray	-11.3154
▁radar	-11.3155
▁d'Ho	-11.3157
▁Soit	-11.3159
▁d�rive	-11.3159
▁hypo	-11.3159
▁fief	-11.3159
:'''	-11.316
▁AM	-11.3161
▁Table	-11.3161
phan	-11.3161
▁op�rateur	-11.3161
▁l'Iran	-11.3164
wich	-11.3166
oche	-11.3168
▁empire	-11.3171
▁Arab	-11.3172
▁d�pendant	-11.3172
▁fix�	-11.3173
|A	-11.3174
▁fl�che	-11.3176
▁?Z	-11.3176
▁Kenya	-11.3176
kor	-11.3177
▁voisin	-11.3179
▁1877	-11.318
▁honor	-11.318
▁l'Al	-11.3181
▁organismes	-11.3181
▁dat�	-11.3183
▁argument	-11.3183
▁Navy	-11.3184
▁incoh�rent	-11.3186
▁Abraham	-11.3186
▁symbolique	-11.3186
▁jambe	-11.3187
▁quinze	-11.3187
▁filiale	-11.3188
▁traits	-11.3188
vienne	-11.3188
▁Bird	-11.3188
▁por	-11.3189
▁Bett	-11.319
PR	-11.3191
▁profil	-11.3191
▁voyageurs	-11.3193
▁amen�	-11.3197
▁cha�nes	-11.3197
▁militants	-11.3198
▁Hockey	-11.32
style	-11.3201
▁Fen	-11.3204
▁autorit�	-11.3208
▁L'In	-11.3208
▁Rag	-11.3208
▁participants	-11.3208
▁eurent	-11.3209
▁macro	-11.3211
▁consid�r�s	-11.3211
▁Tunis	-11.3212
�tude	-11.3214
▁RD	-11.3214
▁d'appel	-11.3215
NF	-11.3216
pac	-11.3217
▁mener	-11.3217
▁Islam	-11.3217
▁fantastique	-11.322
▁enceinte	-11.322
▁(Allemagne)	-11.3221
▁audiovisuelle	-11.3222
▁gu�re	-11.3223
▁l'Autriche	-11.3225
jection	-11.3225
▁Sig	-11.3227
▁apport�	-11.3228
▁Section	-11.3229
tivit�	-11.323
arque	-11.323
▁�chec	-11.3231
▁Mul	-11.3232
▁Centrale	-11.3233
▁remarque	-11.3233
▁amie	-11.3233
▁abus	-11.3234
▁Box	-11.3236
▁Stockholm	-11.3237
▁Bassin	-11.3237
▁Don't	-11.3239
using	-11.3239
clos	-11.324
▁3000	-11.3241
EE	-11.3241
80)	-11.3242
titre	-11.3242
nca	-11.3242
▁liber	-11.3242
▁Mori	-11.3244
▁Geo	-11.3244
▁commencent	-11.3245
▁Astro	-11.3248
▁actuelles	-11.325
▁home	-11.3251
▁secrets	-11.3252
ologiques	-11.3253
▁MI	-11.3254
е	-11.3255
▁attentat	-11.3255
▁troph�e	-11.3255
chemin	-11.3255
▁nettement	-11.3255
▁costume	-11.3255
rion	-11.3255
DR	-11.3257
▁short	-11.3257
▁CR	-11.3259
▁Jer	-11.3261
▁exception	-11.3261
dite	-11.3261
▁mag	-11.3262
▁Race	-11.3263
▁G�r	-11.3264
▁{{{image}}}	-11.3265
▁oppose	-11.3266
▁qu�b�coise	-11.3267
tives	-11.3269
phonie	-11.3269
▁Lionel	-11.327
mai	-11.3271
unda	-11.3275
t?	-11.3279
▁1-1	-11.328
doubl	-11.328
▁parole	-11.3281
▁best	-11.3283
▁citoyen	-11.3283
▁chasseurs	-11.3285
52)	-11.3287
agh	-11.3287
▁Vend�e	-11.3287
▁Voyez	-11.3288
▁?(sr)	-11.3289
▁Ah	-11.3289
▁D�couverte	-11.3289
▁Structure	-11.3289
р	-11.3289
▁annexe	-11.3289
▁collabore	-11.3289
iza	-11.329
▁Gren	-11.329
▁Spirou	-11.329
▁rite	-11.3291
▁(1988)	-11.3291
▁Dernier	-11.3291
▁UAA	-11.3292
▁descendant	-11.3292
plu	-11.3293
▁supporter	-11.3293
▁&quot;[[	-11.3294
ongo	-11.3296
rond	-11.3298
enbach	-11.3299
vio	-11.33
▁venu	-11.3301
020	-11.3301
▁assist�	-11.3303
▁iso	-11.3303
uration	-11.3309
cken	-11.331
lian	-11.3314
▁Noire	-11.3316
▁love	-11.3317
herb	-11.3319
c�n	-11.3319
▁hongrois	-11.3323
▁d'�cosse	-11.3323
▁positive	-11.3324
▁oblige	-11.3324
▁Arnold	-11.3324
▁l'op�ration	-11.3325
▁atomique	-11.3325
▁Producteur(s)	-11.3326
▁Republic	-11.3327
▁(0)	-11.3327
4-0	-11.3327
SL	-11.3328
▁come	-11.3329
▁signes	-11.3334
▁modes	-11.3335
▁does	-11.3335
▁connues	-11.3336
▁Bang	-11.3337
▁<id>4	-11.3339
▁Camb	-11.3339
▁intention	-11.3341
▁(non	-11.3343
vain	-11.3344
▁Pete	-11.3345
tenu	-11.3345
-b	-11.3346
▁134	-11.3346
96)	-11.3346
▁extr�me	-11.3347
ovac	-11.335
ill�e	-11.3354
issait	-11.3355
hun	-11.3355
dice	-11.3357
▁Besan�on	-11.3358
▁Madeleine	-11.3358
▁clandestin	-11.3358
▁poursuivre	-11.3358
▁privil�ge	-11.3358
▁martyr	-11.3358
▁[[de:	-11.3359
[17]	-11.3359
▁(Jean	-11.3359
hman	-11.336
▁robot	-11.336
▁brevet	-11.3361
▁Fayard	-11.3366
833	-11.3367
▁Woman	-11.3367
▁Liv	-11.337
arre	-11.337
▁d'Arc	-11.3372
▁Document	-11.3372
axi	-11.3373
▁These	-11.3373
▁progress	-11.3376
▁quai	-11.3376
▁surprise	-11.3378
▁Pul	-11.3378
▁Palm	-11.3382
-1999	-11.3383
▁Municipalit�	-11.3384
▁Jet	-11.3387
isi	-11.3387
220	-11.3388
▁230	-11.3389
▁l'�re	-11.3393
▁ordonn�	-11.3393
▁cerveau	-11.3393
▁Novembre	-11.3393
Gr�gorien	-11.3393
▁d�c�de	-11.3394
▁Eddie	-11.3395
320	-11.3395
▁collaborateur	-11.3396
ordre	-11.3396
Chinois	-11.3397
▁PA	-11.3397
▁bl�	-11.3397
▁m'a	-11.3398
-Na	-11.3398
-Ouest	-11.3399
▁access	-11.3399
.J.	-11.3401
industrie	-11.3401
▁venue	-11.3402
▁repr�sentations	-11.3406
▁�gyptien	-11.3406
▁Rep	-11.3407
droit	-11.3407
▁Emp	-11.341
basse	-11.341
▁Rapport	-11.3412
240	-11.3413
▁1791	-11.3414
230	-11.3416
98)	-11.3419
▁cul	-11.3419
▁(pr�	-11.342
National	-11.3421
▁Lie	-11.3421
lik	-11.3424
▁permettra	-11.3426
reg	-11.3426
▁l'humanit�	-11.3428
▁navigation	-11.3428
▁pyramide	-11.3428
▁soutenir	-11.3428
▁Belgrade	-11.3428
▁Lawrence	-11.3428
▁Detroit	-11.3428
▁minorit�	-11.3428
▁Stuart	-11.3429
▁plonge	-11.343
▁Orient	-11.3431
▁concile	-11.3431
▁l'institut	-11.3433
▁Barb	-11.3433
Musique	-11.3433
▁Wings	-11.3434
▁Wright	-11.3434
▁verticale	-11.3436
▁Harrison	-11.3436
1955	-11.3439
▁expos�	-11.3441
struct	-11.3441
▁Gio	-11.3443
▁sucre	-11.3444
▁institut	-11.3444
▁[3]	-11.3445
other	-11.3445
▁Hollande	-11.3448
▁Potter	-11.3449
▁Cali	-11.3449
78)	-11.345
AU	-11.3451
▁Intel	-11.3451
▁Univers	-11.3452
▁ferm�e	-11.3453
83)	-11.3453
▁install�e	-11.3454
▁a�rien	-11.3455
▁?Li	-11.3455
▁g�r�	-11.3455
grin	-11.3456
On	-11.3456
▁Compa	-11.3457
▁d�clara	-11.346
▁rejet	-11.3461
▁poursuite	-11.3462
&lt;/sub&gt;	-11.3463
▁Conf�d�ration	-11.3463
▁l'initiative	-11.3463
▁prot�ine	-11.3463
▁g�n�rique	-11.3463
▁encourage	-11.3463
▁cam�ra	-11.3463
▁veuve	-11.3463
▁entra�n�	-11.3464
▁280	-11.3464
▁s'ex	-11.3464
▁coloniale	-11.3465
▁attraction	-11.3465
▁mati�res	-11.3465
▁peintures	-11.3466
▁P�ri	-11.3466
▁souci	-11.3466
▁Yoshi	-11.3469
NC	-11.3471
▁0,1	-11.3471
-2003	-11.3475
▁germ	-11.3475
▁Say	-11.3479
▁Yan	-11.348
09)	-11.3482
84)	-11.3482
oxyde	-11.3482
option	-11.3483
▁impr	-11.3484
▁Barre	-11.3484
igi	-11.3484
▁conf�rences	-11.3486
cup	-11.3487
mail	-11.3492
▁Rica	-11.3492
▁Alger	-11.3495
▁Alc	-11.3498
▁D�veloppement	-11.3498
▁dipl�m�	-11.3498
&lt;sub&gt;	-11.3498
▁r�dacteur	-11.3498
▁incluant	-11.3498
н	-11.3498
▁bonheur	-11.3498
▁�crivit	-11.3498
▁Ronald	-11.3498
▁l'a�roport	-11.3498
▁every	-11.3498
▁M�moires	-11.3499
▁Saturn	-11.3499
▁Notre	-11.35
▁invent�	-11.35
ol�	-11.35
▁region	-11.3503
-Du	-11.3504
▁reconna�tre	-11.3505
▁ruines	-11.3506
▁Legend	-11.3508
▁violent	-11.3509
▁270	-11.3509
▁Catholic	-11.3509
tunisien	-11.351
▁remain	-11.3513
▁d�cor�	-11.3517
▁d�me	-11.3526
▁Sti	-11.3527
enheim	-11.3527
/08/	-11.3528
▁bourgeois	-11.3528
▁1859	-11.3528
noy	-11.3528
▁(Buts)	-11.3533
▁Plate-forme	-11.3533
▁Spacewatch	-11.3533
-30	-11.3534
▁(To	-11.3534
▁Bronze	-11.3535
▁[[W	-11.3536
▁Vegas	-11.3536
]]&quot;	-11.3537
$	-11.3537
▁Miami	-11.3538
▁137	-11.3538
▁Epi	-11.3539
▁(Y	-11.3539
▁Dublin	-11.3539
▁pin	-11.3539
-Car	-11.354
▁nobles	-11.3542
▁RDA	-11.3544
▁Oliver	-11.3546
▁venait	-11.3546
gion	-11.3547
ender	-11.3547
annu	-11.3549
▁2008)	-11.3549
▁L�o	-11.3549
▁pertes	-11.355
23)	-11.3557
22)	-11.3557
mac	-11.3558
ML	-11.3559
▁190	-11.3561
-23	-11.3561
fl�	-11.3563
▁hameau	-11.3563
▁noble	-11.3564
Book	-11.3568
▁Kurt	-11.3568
▁Ast�ro�de	-11.3568
▁communautaire	-11.3568
▁impliqu�	-11.3568
▁mon�taire	-11.3568
▁gloire	-11.3568
▁d�marche	-11.3568
▁d�voile	-11.3568
▁insectes	-11.3568
▁Missouri	-11.3568
▁Beaucoup	-11.3569
ign�e	-11.3571
▁fortes	-11.3573
▁�clat	-11.3573
▁�ventuellement	-11.3575
▁batteur	-11.3577
▁pourraient	-11.3578
ghi	-11.358
▁l'artiste	-11.358
▁dizaines	-11.3581
shed	-11.3582
▁occup�e	-11.3582
▁Betty	-11.3583
▁126	-11.3587
encia	-11.3588
▁Mind	-11.3588
▁Corb	-11.3588
tories	-11.3589
▁Joy	-11.3592
▁triple	-11.3596
▁refusa	-11.3596
▁chante	-11.3598
▁g�o	-11.3599
alpha	-11.36
▁d�tail	-11.3601
▁enregistrement	-11.3601
▁Wars	-11.3602
▁l'Int�rieur	-11.3604
▁Chronique	-11.3604
▁Actuellement	-11.3604
▁l'usine	-11.3604
▁Limoges	-11.3604
▁pionnier	-11.3605
▁�loign�	-11.3605
▁Vig	-11.3605
▁d'Isra�l	-11.3606
▁sixi�me	-11.3606
-Vi	-11.3606
▁Ok	-11.3607
▁suivent	-11.3608
torial	-11.3609
▁porteur	-11.3609
▁tenter	-11.3609
▁pente	-11.3611
rown	-11.3613
▁Loc	-11.3615
▁allow	-11.3618
link	-11.362
▁dor�	-11.3621
▁Aero	-11.3622
36)	-11.3627
▁450	-11.3627
UD	-11.3631
▁D�finition	-11.3639
▁Gr�goire	-11.3639
▁Santiago	-11.3639
▁diplomatique	-11.3639
о	-11.3639
▁affirma	-11.3639
▁g�om�trie	-11.364
�ng	-11.364
▁Peuple	-11.364
▁po�tique	-11.3641
LP	-11.3641
▁Frei	-11.3641
▁Cologne	-11.3641
▁achet�	-11.3642
▁Pink	-11.3643
▁Tommy	-11.3644
ability	-11.3644
iane	-11.3645
▁strict	-11.3646
▁contain	-11.3647
▁impact	-11.3649
▁parl�	-11.3651
lide	-11.3652
Histoire	-11.3652
zier	-11.3655
15)	-11.3656
▁Lotus	-11.3656
acci	-11.3659
▁Ted	-11.366
▁Lib	-11.3662
udo	-11.3663
now	-11.3663
▁verbe	-11.3665
thro	-11.3665
-Mi	-11.3666
foot	-11.3668
▁Evert	-11.3668
gren	-11.3669
invest	-11.3669
▁fichier	-11.3673
▁Matthew	-11.3675
▁r�servoir	-11.3675
▁Lettonie	-11.3675
▁couramment	-11.3675
▁L'�cole	-11.3675
appel	-11.3675
�sme	-11.3677
▁claim	-11.3677
athlon	-11.368
villa	-11.368
▁Vichy	-11.3681
▁r�unit	-11.3682
▁Bow	-11.3683
▁l'�toile	-11.3683
▁hum	-11.3683
1956	-11.3684
▁pr�tres	-11.3686
unt	-11.3686
▁138	-11.3687
migration	-11.3687
▁communistes	-11.3688
▁masque	-11.369
inho	-11.369
▁utilisateurs	-11.3692
▁l'Histoire	-11.3692
▁119	-11.3692
iaceae	-11.3693
▁accent	-11.3693
▁Chapitre	-11.3694
▁H�tel	-11.3695
▁Rud	-11.3697
/11/	-11.3698
▁tort	-11.3701
▁(Z	-11.3702
coll	-11.3706
four	-11.3706
blon	-11.3709
▁Studios	-11.3709
leu	-11.3709
▁montrent	-11.3709
tland	-11.371
▁l'exp�dition	-11.3711
▁l'exp�rience	-11.3711
▁pr�liminaire	-11.3711
▁similar	-11.3711
▁Chypre	-11.3711
▁Ernst	-11.3711
▁clar	-11.3711
▁sch�ma	-11.3712
▁colonisation	-11.3712
▁1839	-11.3713
fraction	-11.3714
▁Roc	-11.3715
▁l'Homme	-11.3716
▁capacit�s	-11.3716
350	-11.3716
[10].	-11.3716
▁model	-11.3717
ivement	-11.3722
pier	-11.3722
chot	-11.3725
▁intellectuelle	-11.3726
25)	-11.3726
▁head	-11.3726
▁1858	-11.3727
asque	-11.3727
▁Fille	-11.3728
▁Middle	-11.3729
▁entit�	-11.3729
ubi	-11.3729
▁pr�f�re	-11.373
▁jouant	-11.373
91)	-11.373
▁jet	-11.3731
xx	-11.3733
▁water	-11.3739
arabe	-11.374
▁146	-11.3741
▁solid	-11.3742
▁Khal	-11.3743
t�ria	-11.3746
▁l'auto	-11.3747
▁l'essentiel	-11.3747
▁l'arr�t	-11.3747
▁Zan	-11.3748
▁financiers	-11.3748
▁coop�ration	-11.3749
thal	-11.375
▁Ghost	-11.3751
▁poss�dait	-11.3751
430	-11.3751
PG	-11.3752
▁1,5	-11.3753
cours	-11.3753
▁narr	-11.3754
▁confie	-11.3757
mara	-11.3759
30)	-11.3762
WA	-11.3763
rige	-11.3764
▁143	-11.3765
▁oriental	-11.3766
▁loup	-11.3766
.R.	-11.3768
ppa	-11.3768
urin	-11.3768
cino	-11.3769
▁1873	-11.3769
260	-11.3771
27)	-11.3771
▁Py	-11.3771
▁&lt;	-11.3772
37)	-11.3772
▁amateur	-11.3773
▁1801	-11.3774
▁ouverture	-11.3775
▁vocal	-11.3776
▁(Mi	-11.3777
▁coupable	-11.3783
▁s'arr�te	-11.3783
▁vigueur	-11.3783
▁Heinrich	-11.3783
▁[[fr:	-11.3783
▁parfait	-11.3783
▁d�missionne	-11.3783
▁(''	-11.3783
▁LE	-11.3784
▁Ferra	-11.3785
▁g�n�re	-11.3785
▁r�dige	-11.3786
▁billet	-11.3786
Cl	-11.3788
▁Battu	-11.3789
▁139	-11.3795
▁biais	-11.3796
▁financement	-11.3798
▁UK	-11.38
97)	-11.38
▁tourner	-11.3801
▁Army	-11.3805
▁Zen	-11.3805
▁continuer	-11.3806
cock	-11.3806
▁militant	-11.3807
quill	-11.3807
▁variations	-11.3809
▁view	-11.381
▁Lens	-11.3813
▁refer	-11.3813
baud	-11.3814
▁Quel	-11.3815
▁joint	-11.3815
▁Thur	-11.3817
▁Fried	-11.3818
▁Distributeur	-11.3819
▁Pas-de-Calais	-11.3819
▁suspendu	-11.3819
▁miroir	-11.3819
▁clinique	-11.3819
&lt;sup&gt;	-11.3819
▁�poux	-11.382
▁r�clame	-11.382
▁technologique	-11.382
▁Cl�	-11.3822
▁(Me	-11.3824
▁euros	-11.3825
▁Flu	-11.3831
420	-11.3832
kai	-11.3832
▁MS	-11.3833
▁Wy	-11.3834
▁l'ont	-11.3835
▁Luna	-11.3841
1948	-11.3841
▁tent�	-11.3841
vig	-11.3843
▁131	-11.3844
▁mine	-11.3846
t�t	-11.3851
▁Pacific	-11.3852
▁Proc	-11.3852
▁Asia	-11.3855
▁Vu	-11.3855
▁Conservatoire	-11.3855
▁Pittsburgh	-11.3855
▁Performance	-11.3855
▁incorrects).	-11.3856
quart	-11.3857
▁domin�	-11.3857
▁Resort	-11.3859
▁fid�les	-11.3859
95)	-11.386
▁conflits	-11.3861
lc	-11.3861
World	-11.3863
▁maternelle	-11.3863
&lt;td&gt;	-11.3864
wal	-11.3867
▁sortant	-11.3868
1949	-11.3869
330	-11.3872
▁Fres	-11.3873
▁retrouvent	-11.3874
▁Mei	-11.3875
▁fontaine	-11.3875
plic	-11.3875
▁entend	-11.3877
▁corde	-11.3877
▁Edgar	-11.3878
48)	-11.3878
▁Walker	-11.3878
▁Ot	-11.3878
yenne	-11.3879
▁dessous	-11.3881
▁Vi�t	-11.3881
▁Arena	-11.3883
news	-11.3885
▁Mich	-11.3886
▁Flore	-11.3888
▁Mettr	-11.3889
HA	-11.389
▁ma�tres	-11.3891
▁recueilli	-11.3892
-03	-11.3892
▁(notamment	-11.3892
▁r�v�l�	-11.3892
▁s�v�re	-11.3892
&lt;/sup&gt;	-11.3892
76)	-11.3895
▁Hambourg	-11.3895
▁cla	-11.3896
▁kilo	-11.3897
▁Presses	-11.3897
▁effectif	-11.3898
William	-11.3899
▁l'actuelle	-11.3901
Mon	-11.3901
Origin	-11.3902
▁Nag	-11.3903
▁Pit	-11.3904
▁surviv	-11.3904
▁comtesse	-11.3906
▁grandeur	-11.3908
▁N�mes	-11.3908
59)	-11.3909
▁cosmo	-11.391
cchio	-11.3912
David	-11.3913
SD	-11.3915
▁organique	-11.3915
alys	-11.3917
▁must	-11.3917
▁cyclo	-11.3923
▁n�gociations	-11.3927
▁�tendu	-11.3927
▁Ever	-11.3928
▁Buffalo	-11.3929
▁susceptible	-11.3929
▁v�g�tal	-11.3929
▁Gestion	-11.3929
▁Sierra	-11.3929
▁F�vrier	-11.393
▁avenue	-11.393
▁Spirit	-11.393
▁loge	-11.3931
▁1849	-11.3932
clip	-11.3933
▁Warren	-11.3933
-Jo	-11.3934
▁br�silien	-11.3935
entra�neur	-11.3936
▁d'Asie	-11.3936
ssard	-11.3937
▁diffuse	-11.3937
▁finances	-11.3937
360	-11.3938
▁Ensuite	-11.3939
▁210	-11.3939
-Ja	-11.3939
▁s?urs	-11.394
▁Oc�anie	-11.3941
▁extraits	-11.3942
gla	-11.3943
▁centaine	-11.3944
▁soutient	-11.3945
▁Exemple	-11.3946
▁Alliance	-11.3946
▁based	-11.3948
▁750	-11.3949
▁quantique	-11.395
▁sp�cialement	-11.3952
▁rencontrer	-11.3952
ctuelle	-11.3954
▁jouent	-11.396
-sur-A	-11.3961
vul	-11.3963
▁Gan	-11.3965
▁Council	-11.3965
▁galaxie	-11.3965
▁terrible	-11.3965
▁invasion	-11.3965
▁drogue	-11.3966
▁Springfield	-11.3966
▁Champagne	-11.3966
▁came	-11.397
▁contract	-11.397
▁lanc�e	-11.397
▁m'	-11.3971
▁Ed.	-11.3971
▁civils	-11.3972
▁nominations	-11.3973
UL	-11.3973
▁Aki	-11.3976
/D	-11.3976
▁Break	-11.3977
ranger	-11.3978
m�nage	-11.3979
▁Bin	-11.398
vons	-11.3981
▁142	-11.3982
omorph	-11.3984
▁c�de	-11.3985
▁1832	-11.3986
▁Lili	-11.3988
▁navale	-11.3989
▁contr�ler	-11.3989
NI	-11.399
t�n	-11.3994
olph	-11.3995
▁Kil	-11.3995
▁1843	-11.4002
▁Massachusetts	-11.4002
▁cylindre	-11.4002
▁recouvert	-11.4002
▁identit�	-11.4002
▁attitude	-11.4002
▁Clermont	-11.4002
▁Porsche	-11.4002
▁percussion	-11.4003
▁circulaire	-11.4003
▁impression	-11.4003
▁caus�	-11.4004
05)	-11.4004
▁"O	-11.4005
▁Tourisme	-11.4006
▁Evans	-11.4006
▁d'ouverture	-11.4007
▁commencer	-11.4008
▁(8)	-11.4009
itor	-11.4009
▁Syl	-11.401
▁battre	-11.4011
▁Juda	-11.4013
▁meilleures	-11.4013
▁argentin	-11.4013
▁Terry	-11.4014
▁VIIIe	-11.4014
▁faune	-11.4014
▁Irak	-11.4015
▁(vers	-11.4015
▁demanda	-11.4015
▁soci	-11.4019
▁J'	-11.402
▁calcul�	-11.4021
▁dessert	-11.4022
▁Patrice	-11.4023
▁athl�te	-11.4024
▁Net	-11.4026
rache	-11.4027
-Di	-11.4029
▁cyrilliques	-11.403
▁Baie	-11.4031
▁Jin	-11.4032
▁list	-11.4032
▁147	-11.4033
-pro	-11.4033
▁geste	-11.4033
▁Newton	-11.4034
▁t�l�vis�	-11.4035
lach	-11.4036
▁configuration	-11.4039
▁l'invasion	-11.4039
▁refuge	-11.4039
▁Torinese	-11.4039
▁successivement	-11.4039
▁LONE	-11.4039
▁culturelles	-11.404
▁function	-11.404
▁ethnique	-11.404
[18]	-11.4041
▁Amphibia	-11.4041
▁golfe	-11.4041
▁Country	-11.4042
▁Personne	-11.4042
craft	-11.4042
▁exploitation	-11.4042
▁naturellement	-11.4042
▁Carpet	-11.4042
▁Australian	-11.4043
▁(Pro	-11.4045
▁spectacles	-11.4046
▁servit	-11.4046
▁156	-11.4047
[...]
