<s>	0
</s>	0
<unk>	0
<pad>	0
,	-3.30104
▁the	-3.49982
▁de	-3.69295
.	-3.86021
▁of	-4.17744
▁la	-4.19436
▁to	-4.2498
▁and	-4.41511
▁et	-4.48918
s	-4.5472
▁a	-4.60927
▁le	-4.61957
▁in	-4.63273
▁à	-4.70509
▁les	-4.70562
▁des	-4.75165
▁que	-4.89989
▁that	-4.90504
▁is	-4.94148
▁en	-5.10631
▁for	-5.32532
▁I	-5.32866
▁du	-5.35828
▁on	-5.39344
▁dans	-5.50548
▁pour	-5.51892
▁nous	-5.52051
▁qui	-5.54018
▁be	-5.55706
▁this	-5.5737
▁we	-5.60846
▁une	-5.66011
▁un	-5.6611
▁ce	-5.72274
▁est	-5.74328
▁are	-5.75687
▁have	-5.80234
▁pas	-5.80603
▁-	-5.81108
▁sur	-5.81967
▁not	-5.83076
▁it	-5.83792
▁au	-5.84438
▁with	-5.91968
▁as	-5.92985
▁par	-5.9477
▁which	-5.9511
▁European	-5.98255
▁ne	-5.98519
▁Commission	-6.03414
▁The	-6.08589
e	-6.10433
▁will	-6.11008
▁by	-6.11901
▁plus	-6.19586
▁has	-6.23468
▁je	-6.24321
▁	-6.2844
▁Mr	-6.38802
▁Je	-6.45042
▁cette	-6.4611
▁aux	-6.46582
▁an	-6.47457
▁il	-6.51583
▁at	-6.53902
▁sont	-6.55412
▁would	-6.55678
▁also	-6.57022
▁should	-6.60928
▁all	-6.64484
▁from	-6.66314
▁We	-6.66862
▁avec	-6.67195
▁but	-6.68543
▁our	-6.68702
▁se	-6.69851
▁must	-6.69953
s.	-6.71183
▁Nous	-6.72886
▁Il	-6.72984
ing	-6.75959
▁mais	-6.77752
▁been	-6.78253
▁Monsieur	-6.79003
▁être	-6.80564
▁pays	-6.83603
▁ces	-6.85963
▁La	-6.86424
:	-6.8734
▁été	-6.87914
▁ont	-6.87965
r	-6.88147
▁européenne	-6.88583
▁It	-6.88735
▁can	-6.8944
▁Le	-6.91594
▁President,	-6.92163
▁fait	-6.93342
▁was	-6.9434
▁Member	-6.94369
▁you	-6.95442
▁important	-6.96011
▁more	-6.96581
▁or	-6.9718
s,	-6.97564
▁do	-6.9776
▁vous	-6.97864
?	-6.97903
▁l'	-6.99694
▁politique	-7.00175
▁comme	-7.00384
▁rapport	-7.00548
▁qu'il	-7.00675
▁Parlement	-7.01355
▁its	-7.02955
▁tout	-7.0305
▁question	-7.03505
▁their	-7.04336
es	-7.05111
▁there	-7.05183
▁like	-7.05229
d	-7.07152
▁Président,	-7.07977
▁l'Union	-7.08002
▁États	-7.08601
▁very	-7.08989
▁ou	-7.08999
▁également	-7.09871
▁In	-7.1037
ed	-7.10978
▁This	-7.13274
▁Union	-7.14102
▁these	-7.15738
▁aussi	-7.16588
▁they	-7.18628
▁si	-7.21414
▁d'une	-7.21421
▁one	-7.21848
▁report	-7.2197
▁Conseil	-7.22504
▁me	-7.22528
▁notre	-7.22898
er	-7.22999
▁point	-7.23207
▁Parliament	-7.23271
▁faire	-7.24157
▁so	-7.24836
▁who	-7.25125
nt	-7.25546
▁d'	-7.25948
▁about	-7.26849
▁other	-7.27599
▁Europe	-7.27962
▁Council	-7.27985
▁leur	-7.28453
▁situation	-7.29617
▁avons	-7.29747
▁doit	-7.2977
▁what	-7.29771
▁need	-7.30187
▁membres	-7.3054
▁tous	-7.30842
▁M.	-7.31322
▁son	-7.33161
▁EU	-7.33485
▁très	-7.3367
;	-7.33927
-	-7.35041
▁my	-7.35087
▁Les	-7.35284
▁même	-7.35308
▁no	-7.35334
▁bien	-7.35689
▁d'un	-7.35738
▁y	-7.35788
▁States	-7.36273
▁new	-7.37242
▁En	-7.37458
▁européen	-7.38388
▁only	-7.38603
▁entre	-7.39365
▁us	-7.4
▁part	-7.41101
▁because	-7.43284
▁if	-7.43641
▁Ce	-7.4403
▁devons	-7.46263
▁am	-7.47241
▁time	-7.48916
ment	-7.49934
▁people	-7.50039
▁droits	-7.50306
▁up	-7.50418
▁nos	-7.51825
▁out	-7.53399
▁countries	-7.54954
▁support	-7.55141
▁such	-7.55333
▁contre	-7.5683
▁take	-7.56961
▁make	-7.57128
a	-7.58533
ly	-7.59495
▁into	-7.60113
▁directive	-7.61015
▁between	-7.61102
▁voudrais	-7.61311
▁those	-7.61611
▁vote	-7.62454
▁possible	-7.63164
▁social	-7.63645
)	-7.64326
▁now	-7.64847
▁protection	-7.65446
▁donc	-7.65613
▁peut	-7.66647
▁sa	-7.67574
▁non	-7.67603
y	-7.67768
ant	-7.67923
▁when	-7.68375
▁dont	-7.68614
'	-7.68659
▁therefore	-7.68732
é	-7.69128
▁some	-7.69415
▁being	-7.69778
▁C'est	-7.69947
▁proposition	-7.70207
▁any	-7.70801
▁soit	-7.70806
▁sans	-7.71076
▁cela	-7.71177
t	-7.71404
▁rapporteur	-7.72885
▁encore	-7.73007
▁policy	-7.73051
▁political	-7.7323
▁work	-7.73857
's	-7.73972
▁made	-7.74135
▁commission	-7.7455
▁were	-7.75008
▁deux	-7.75049
▁place	-7.76373
▁than	-7.77163
▁ainsi	-7.77324
▁economic	-7.77376
▁believe	-7.77708
▁c'est	-7.79057
▁travail	-7.80035
▁say	-7.81094
ons	-7.81214
▁ses	-7.81313
▁car	-7.81569
▁suis	-7.8164
▁public	-7.81684
▁position	-7.81756
▁fact	-7.82233
▁faut	-7.82765
▁développement	-7.83771
▁cas	-7.83906
▁against	-7.84569
▁many	-7.84641
▁programme	-7.84706
n	-7.84755
▁mesures	-7.85198
▁budget	-7.85411
▁n'est	-7.855
▁national	-7.8655
▁first	-7.87267
▁pense	-7.87596
▁respect	-7.88085
▁matière	-7.88849
▁marché	-7.8944
▁groupe	-7.89874
▁think	-7.9057
▁leurs	-7.91509
▁sécurité	-7.91516
▁That	-7.91591
▁mon	-7.91869
▁doivent	-7.92023
▁way	-7.92107
▁cet	-7.92326
▁proposal	-7.92588
▁afin	-7.92747
▁just	-7.92913
▁international	-7.93716
▁rights	-7.94282
▁Committee	-7.94437
al	-7.94656
▁déjà	-7.94756
▁human	-7.94797
▁questions	-7.95116
▁manière	-7.95326
▁sommes	-7.95459
▁cadre	-7.959
▁dire	-7.96339
▁où	-7.96342
▁elle	-7.96351
▁order	-7.97079
▁droit	-7.9755
▁services	-7.98215
c	-7.98593
▁citoyens	-7.98696
tte	-7.98937
▁debate	-7.99079
▁concerne	-7.99229
▁want	-7.99821
▁right	-8.00048
▁Madame	-8.00256
ra	-8.00547
▁As	-8.00578
▁A	-8.00581
▁two	-8.01499
▁cannot	-8.01533
▁débat	-8.02152
▁same	-8.0223
▁them	-8.02542
▁conditions	-8.02707
▁even	-8.03008
▁does	-8.03205
▁had	-8.03293
▁politiques	-8.04354
▁tant	-8.04797
▁niveau	-8.04899
▁d’un	-8.05492
▁s	-8.05715
▁most	-8.05899
▁sera	-8.0629
▁could	-8.06412
▁said	-8.07056
ent	-8.0742
▁good	-8.09425
▁already	-8.1018
▁personnes	-8.10214
▁President	-8.10288
▁where	-8.10539
▁certain	-8.10808
▁clear	-8.10895
▁much	-8.10916
▁measures	-8.1128
▁dit	-8.1138
▁over	-8.11453
▁development	-8.11893
▁–	-8.12047
▁lors	-8.12777
▁financial	-8.12781
▁under	-8.13007
▁within	-8.13394
▁d’	-8.13659
▁use	-8.13751
▁issue	-8.13893
▁long	-8.14182
▁still	-8.14826
▁well	-8.15333
▁how	-8.15725
▁toute	-8.15784
▁common	-8.16206
▁(	-8.16309
▁see	-8.16385
▁particular	-8.16411
▁There	-8.16517
▁here	-8.16991
▁both	-8.1702
▁view	-8.17163
▁action	-8.17349
▁fois	-8.17715
▁problème	-8.17809
▁agreement	-8.17882
▁vue	-8.17999
▁parce	-8.18195
▁Dans	-8.18205
▁concernant	-8.18572
▁sein	-8.19151
▁However,	-8.19231
▁Mrs	-8.19435
▁hope	-8.19614
▁plan	-8.19664
ation	-8.1967
▁toutes	-8.20112
▁certains	-8.20154
▁coopération	-8.20399
▁l'UE	-8.20915
▁On	-8.20992
▁efforts	-8.2128
▁d'autres	-8.21319
▁Mme	-8.21366
▁ensure	-8.21506
▁market	-8.21614
▁your	-8.21906
▁"	-8.22381
▁système	-8.2251
▁base	-8.22524
▁institutions	-8.22541
ait	-8.22676
▁taken	-8.22946
▁moins	-8.2298
▁future	-8.22994
▁too	-8.23311
▁économique	-8.23371
▁l’	-8.2392
▁his	-8.243
▁he	-8.24315
▁Si	-8.24842
▁Community	-8.24947
▁able	-8.25666
▁own	-8.25957
▁raison	-8.26051
▁seulement	-8.26162
▁compte	-8.26485
▁européenne.	-8.26742
▁nom	-8.27078
▁mise	-8.2745
▁L'	-8.27828
▁mettre	-8.28313
▁particulier	-8.28354
▁information	-8.28433
▁why	-8.28948
▁put	-8.28992
▁pourquoi	-8.29456
▁last	-8.29632
▁number	-8.30266
▁know	-8.30317
▁energy	-8.30369
l	-8.30649
▁secteur	-8.31172
▁regard	-8.31658
▁may	-8.31676
▁means	-8.31731
▁%	-8.32705
▁case	-8.3282
▁nombre	-8.32921
▁avoir	-8.33289
▁Pour	-8.334
▁processus	-8.33564
▁lieu	-8.33814
▁autres	-8.3402
▁problèmes	-8.34149
que	-8.34154
▁relations	-8.34268
▁accord	-8.34349
▁transport	-8.34385
▁savoir	-8.34663
▁without	-8.34692
▁end	-8.34715
▁grande	-8.34768
▁temps	-8.34857
▁demande	-8.34866
▁through	-8.35223
▁Mais	-8.35328
▁aujourd'hui	-8.35511
▁s'agit	-8.3569
▁toujours	-8.35834
▁cooperation	-8.35881
▁re	-8.35981
▁devrait	-8.36186
▁however	-8.36232
re	-8.36278
▁avant	-8.36468
▁gentlemen,	-8.3691
▁points	-8.36962
▁If	-8.37459
▁today	-8.37771
▁beaucoup	-8.38132
▁gouvernement	-8.38383
in	-8.38558
▁continue	-8.38914
▁country	-8.3902
▁'	-8.39032
▁dialogue	-8.39182
▁laquelle	-8.39237
▁citizens	-8.39247
i	-8.3925
▁Madam	-8.39361
▁Commissioner	-8.39444
▁solution	-8.39545
▁cours	-8.3962
▁notamment	-8.39634
▁À	-8.3978
▁particularly	-8.39991
▁rôle	-8.40794
▁partie	-8.408
▁give	-8.40857
▁ceux	-8.40941
▁prendre	-8.40945
▁great	-8.41156
▁importance	-8.41216
▁years	-8.41261
it	-8.41324
▁domaine	-8.41374
▁before	-8.4166
▁n'a	-8.41806
▁moment	-8.41829
u	-8.42331
▁j'ai	-8.42348
▁l'Europe	-8.42359
▁legal	-8.42379
▁Cela	-8.42458
▁production	-8.42745
▁faveur	-8.42747
▁mesure	-8.43189
▁.	-8.43687
▁Commission,	-8.44324
▁effet	-8.44504
▁given	-8.44509
se	-8.4466
▁besoin	-8.44825
▁far	-8.44902
▁traité	-8.44923
▁propositions	-8.45496
▁soutien	-8.45557
▁président	-8.45878
▁programmes	-8.46138
▁votre	-8.465
▁necessary	-8.46535
▁soient	-8.4655
▁De	-8.46783
▁qu'elle	-8.47104
▁résolution	-8.47483
▁then	-8.47623
▁favour	-8.47944
▁thank	-8.48498
▁system	-8.49045
"	-8.49281
▁l'a	-8.4942
▁world	-8.49524
▁set	-8.49766
▁large	-8.49848
▁nouvelle	-8.4988
▁role	-8.4999
▁ladies	-8.50014
▁whether	-8.50275
▁problems	-8.50324
o	-8.50576
▁pouvons	-8.50855
▁face	-8.50887
▁qu’il	-8.51018
▁attention	-8.51078
▁pouvoir	-8.51098
▁United	-8.51452
▁amendements	-8.51555
▁nouveau	-8.51657
▁l’Union	-8.51964
▁security	-8.52007
▁opinion	-8.52128
▁since	-8.52258
▁objectifs	-8.5232
▁further	-8.52735
▁décision	-8.52824
▁présent	-8.53015
▁behalf	-8.53067
▁autre	-8.53161
▁santé	-8.53251
▁sujet	-8.53317
▁serait	-8.54066
▁peuvent	-8.54276
z	-8.54434
▁peu	-8.54584
▁était	-8.548
▁trade	-8.54913
▁problem	-8.55023
▁cha	-8.55145
/	-8.55222
▁present	-8.55254
▁help	-8.55288
▁terms	-8.55333
▁next	-8.55502
▁dé	-8.55529
▁commissaire	-8.55531
▁ma	-8.55575
▁contrôle	-8.55888
!	-8.55934
▁agree	-8.56014
▁issues	-8.56326
le	-8.56916
▁come	-8.5772
▁femmes	-8.57753
▁règlement	-8.57834
▁process	-8.58157
▁Europe.	-8.58228
▁Par	-8.58355
▁produits	-8.584
▁area	-8.58402
▁Commission.	-8.58733
▁millions	-8.58733
▁depuis	-8.58772
▁façon	-8.58814
▁monde	-8.58908
▁different	-8.59072
▁better	-8.59192
▁fin	-8.59315
▁adopted	-8.59479
▁jour	-8.59632
▁framework	-8.59891
▁amendments	-8.59895
▁alors	-8.5995
▁ni	-8.59962
▁Members	-8.60035
▁l'on	-8.60166
▁crois	-8.60363
▁présidence	-8.60427
g	-8.60439
▁aid	-8.60593
▁again	-8.60679
▁change	-8.61156
▁nécessaire	-8.61252
▁:	-8.61272
▁ici	-8.61272
▁stratégie	-8.61329
▁vie	-8.61605
▁eu	-8.61655
▁principe	-8.61696
▁matter	-8.61914
▁areas	-8.61968
▁For	-8.61998
▁level	-8.62038
▁qu'	-8.62273
▁commune	-8.62587
▁va	-8.62988
▁House	-8.63083
▁basis	-8.63298
▁ask	-8.63561
▁entreprises	-8.63926
▁députés	-8.64068
▁première	-8.64095
▁What	-8.64272
▁Commissioner,	-8.64299
▁ils	-8.64389
▁women	-8.6475
▁But	-8.64873
▁Commissaire,	-8.64973
▁C	-8.65041
▁s'	-8.65091
▁proposals	-8.65195
▁health	-8.6524
▁positive	-8.65293
▁second	-8.65508
▁bonne	-8.65549
▁bon	-8.6565
▁règles	-8.65985
▁progress	-8.66034
▁group	-8.66119
▁européenne,	-8.66133
▁recherche	-8.66223
▁actions	-8.66282
▁régions	-8.66504
▁crise	-8.66709
▁wish	-8.66817
▁vers	-8.66999
▁needs	-8.67058
▁resolution	-8.67298
▁projet	-8.67318
▁communication	-8.67345
▁decision	-8.67447
▁Mesdames	-8.67554
▁grand	-8.67709
▁year	-8.67768
▁after	-8.67905
▁rules	-8.6794
▁S	-8.68091
▁result	-8.6841
▁fonds	-8.68419
▁garantir	-8.68501
▁l'homme	-8.69331
▁done	-8.6938
▁mes	-8.69417
▁aspects	-8.69532
▁lutte	-8.6966
▁going	-8.69858
▁welcome	-8.70041
▁million	-8.70059
▁go	-8.70127
▁sector	-8.70171
▁nouveaux	-8.70211
▁quelques	-8.70323
▁qualité	-8.70712
▁Union.	-8.70741
▁working	-8.70805
▁force	-8.70924
▁three	-8.71157
▁législation	-8.71236
▁après	-8.71476
▁few	-8.7153
▁towards	-8.72102
▁Treaty	-8.72441
▁voted	-8.72595
p	-8.72614
▁européens	-8.72764
▁principle	-8.72882
▁trois	-8.73043
▁something	-8.73062
▁lui	-8.73137
▁sous	-8.73633
▁parties	-8.73899
▁selon	-8.74103
▁œuvre	-8.74506
▁clairement	-8.74508
or	-8.74536
▁Présidente,	-8.74557
▁population	-8.74786
▁procédure	-8.7508
▁remercier	-8.75481
▁current	-8.75735
▁J'ai	-8.75745
▁là	-8.75928
▁nouvelles	-8.76169
▁voté	-8.76212
▁specific	-8.76231
e.	-8.764
▁nombreux	-8.76665
ticulièrement	-8.76838
▁State	-8.76864
▁provide	-8.77077
▁cause	-8.77478
▁1	-8.77732
▁state	-8.77857
▁including	-8.78121
▁proposed	-8.78245
és	-8.78408
▁nécessité	-8.78498
▁approach	-8.78508
▁seront	-8.78642
▁opportunity	-8.78734
▁increase	-8.78835
▁really	-8.78902
▁down	-8.79029
▁did	-8.791
▁shall	-8.79233
▁find	-8.79235
able	-8.79275
▁account	-8.79366
▁s'est	-8.7953
▁initiative	-8.79669
ri	-8.79712
dès	-8.79898
▁justice	-8.79974
▁effective	-8.80512
▁voir	-8.80634
▁forward	-8.80904
▁used	-8.81159
▁No	-8.81163
▁pourrait	-8.81239
▁whole	-8.81253
▁Group	-8.81272
▁global	-8.81531
▁general	-8.81535
▁maintenant	-8.81592
ions	-8.81674
f	-8.81819
▁during	-8.81838
▁contribution	-8.81845
▁négociations	-8.81867
▁subject	-8.81949
▁real	-8.81951
▁especially	-8.8229
h	-8.82409
▁every	-8.82601
▁trop	-8.82705
ur	-8.82821
▁membre	-8.82853
▁law	-8.8307
m	-8.83354
▁plusieurs	-8.83404
▁service	-8.83405
▁000	-8.83451
▁course	-8.8346
▁mis	-8.8365
▁become	-8.83889
▁premier	-8.83891
te	-8.83901
▁clearly	-8.8437
▁autorités	-8.84419
ne	-8.84422
ir	-8.84444
ité	-8.84608
▁another	-8.84871
ion	-8.84897
▁terme	-8.85038
▁Nations	-8.85169
▁reason	-8.85524
▁visant	-8.85592
▁environmental	-8.85682
▁greater	-8.85686
▁least	-8.8577
▁organisations	-8.85791
▁quite	-8.85813
▁serious	-8.85942
▁concerned	-8.85947
▁So	-8.85952
▁reste	-8.86116
▁prix	-8.86239
▁«	-8.86356
ci	-8.86465
▁chose	-8.86967
▁aucun	-8.87155
▁surtout	-8.8722
▁rather	-8.87273
▁?	-8.87503
▁discussion	-8.87505
▁research	-8.87537
▁ressources	-8.87704
▁Une	-8.87823
▁main	-8.88023
▁Presidency	-8.88045
▁They	-8.88448
▁donner	-8.88457
▁certaines	-8.8854
▁Europe,	-8.8865
▁mois	-8.89001
▁responsabilité	-8.89266
▁back	-8.8927
ch	-8.89289
▁access	-8.89343
▁euro	-8.89351
▁At	-8.89412
▁Messieurs,	-8.89585
▁course,	-8.89969
▁call	-8.89995
▁l'environnement	-8.90018
▁conséquent	-8.90171
▁legislation	-8.9023
▁small	-8.90266
▁get	-8.9036
▁voulons	-8.90419
▁Elle	-8.90461
▁tiens	-8.90548
▁always	-8.90739
▁fundamental	-8.9088
▁difficult	-8.91035
▁Ces	-8.91043
▁ré	-8.91092
▁Au	-8.91122
▁essential	-8.91167
▁10	-8.91457
▁sorte	-8.91611
▁making	-8.91703
▁States.	-8.91744
▁impact	-8.91789
▁excellent	-8.91837
▁major	-8.91842
▁achieve	-8.91893
▁third	-8.9196
▁avez	-8.92025
▁société	-8.92032
▁comment	-8.92032
▁once	-8.92051
▁Et	-8.92088
▁together	-8.9217
ter	-8.92244
▁regulation	-8.92269
▁croissance	-8.92363
an	-8.92528
il	-8.92573
▁These	-8.92585
▁hand	-8.92671
th	-8.92886
▁instruments	-8.92901
▁Commission's	-8.93122
▁Comme	-8.93145
▁inter	-8.9337
ar	-8.93415
▁davantage	-8.93427
▁employment	-8.93851
▁donné	-8.94013
▁government	-8.9418
▁internal	-8.94207
▁taking	-8.94392
▁soutenir	-8.94449
▁based	-8.94479
▁democratic	-8.94483
▁final	-8.94539
▁implementation	-8.94633
en	-8.95391
▁free	-8.9547
▁juridique	-8.95679
▁12	-8.95987
▁deal	-8.96032
▁Un	-8.96042
▁démocratie	-8.96478
▁constitue	-8.9649
ront	-8.965
▁semble	-8.96664
▁compris	-8.96679
▁various	-8.96754
▁safety	-8.96814
▁responsibility	-8.96991
▁lorsque	-8.97014
▁strategy	-8.97179
▁propos	-8.97285
▁nature	-8.97296
▁actuellement	-8.97367
▁création	-8.9754
es.	-8.9761
▁violence	-8.9764
li	-8.97672
▁EUR	-8.97736
▁20	-8.97741
ée	-8.97762
▁accept	-8.97829
▁propose	-8.9788
▁initiatives	-8.98257
▁negotiations	-8.9831
▁policies	-8.98344
▁document	-8.98414
▁dernière	-8.98517
▁each	-8.98597
▁crisis	-8.98713
▁type	-8.98714
▁État	-8.98757
▁souligner	-8.98822
▁liberté	-8.98873
is	-8.98892
▁dis	-8.98915
▁elles	-8.9895
▁réponse	-8.99059
▁instrument	-8.99231
ce	-8.997
▁région	-8.9986
▁progrès	-8.99883
▁allow	-9.00094
▁souhaite	-9.00212
▁pêche	-9.00397
ive	-9.00432
▁reform	-9.00464
▁yet	-9.00469
▁example,	-9.00491
▁é	-9.00696
▁To	-9.007
▁différents	-9.00747
▁while	-9.00747
▁industry	-9.01006
▁participation	-9.01085
▁consider	-9.01455
▁coordination	-9.01489
▁look	-9.01615
▁food	-9.01649
▁texte	-9.01791
▁Government	-9.01899
▁sociale	-9.01912
b	-9.02104
▁itself	-9.02106
▁power	-9.02189
’s	-9.02192
▁souvent	-9.02358
▁single	-9.02382
on	-9.02451
▁économiques	-9.02472
▁avait	-9.02535
▁full	-9.02587
im	-9.02671
▁avis	-9.02684
▁travailleurs	-9.02914
▁toutefois	-9.03041
▁Convention	-9.03283
▁her	-9.03344
st	-9.03401
▁authorities	-9.03445
▁européennes	-9.03469
▁high	-9.03496
▁commerce	-9.03599
▁termes	-9.03599
▁qu'une	-9.03631
▁form	-9.03689
▁report.	-9.0369
▁affaires	-9.03712
▁rien	-9.03989
us	-9.04036
at	-9.04107
▁freedom	-9.04172
▁gestion	-9.0418
▁aura	-9.0418
▁resources	-9.04205
▁having	-9.04209
▁années	-9.04282
▁mieux	-9.04438
▁importante	-9.04543
▁dernier	-9.04655
▁sûr	-9.04711
▁concern	-9.04785
▁objective	-9.04995
▁n'	-9.05158
▁pu	-9.0524
▁concerns	-9.05303
▁collègues	-9.05385
▁données	-9.05462
▁exemple	-9.05565
▁membres.	-9.05643
▁concurrence	-9.05706
▁possibilité	-9.05807
▁15	-9.05841
▁telle	-9.06079
ro	-9.062
▁aucune	-9.06215
▁créer	-9.06234
lo	-9.06276
▁local	-9.06345
▁step	-9.0644
▁interests	-9.06444
▁lequel	-9.06544
▁trouver	-9.06606
▁things	-9.06674
▁existe	-9.06798
aient	-9.07071
▁France	-9.07071
▁peace	-9.07103
▁Lisbon	-9.0732
▁money	-9.07468
▁décisions	-9.07512
▁best	-9.07536
▁culture	-9.07605
▁demander	-9.07623
▁objectif	-9.07835
▁pris	-9.0786
▁résultats	-9.07975
▁amendment	-9.08009
▁moyens	-9.08097
▁étant	-9.08133
▁renforcer	-9.08137
▁discussions	-9.08151
7	-9.08219
▁ait	-9.08289
▁voie	-9.08356
5	-9.08402
▁majority	-9.08466
▁Président	-9.08475
▁2	-9.08496
▁Toutefois	-9.08533
▁communautaire	-9.08644
▁democracy	-9.08685
▁financement	-9.08837
▁quality	-9.08857
▁celui	-9.09173
▁peut-être	-9.09251
▁période	-9.09393
▁permettre	-9.09606
▁d'abord	-9.09711
▁regions	-9.09804
▁11	-9.09883
▁fully	-9.09903
▁recent	-9.10253
v	-9.10351
▁européen.	-9.10465
▁d'être	-9.1051
▁certainly	-9.10618
▁tel	-9.10622
▁simply	-9.10702
▁devraient	-9.10739
▁européen,	-9.10744
▁majorité	-9.10772
▁relation	-9.10868
▁nombreuses	-9.10894
▁following	-9.10941
▁often	-9.10944
▁sens	-9.10974
▁quelque	-9.11338
▁domaines	-9.11418
▁bring	-9.115
▁E	-9.11502
▁application	-9.11677
▁juste	-9.11808
▁agricultural	-9.11937
▁normes	-9.12244
▁d'accord	-9.12248
▁States,	-9.12258
▁And	-9.12354
▁committee	-9.12359
ity	-9.12558
▁solutions	-9.12747
▁extremely	-9.12945
▁countries.	-9.12974
▁deuxième	-9.13021
▁control	-9.13112
▁unique	-9.1315
▁risk	-9.13325
▁con	-9.13481
▁decisions	-9.13489
▁aware	-9.13672
▁create	-9.13677
▁(DE)	-9.13723
▁entendu	-9.13931
me	-9.14156
▁Enfin	-9.14227
▁Article	-9.14236
▁réforme	-9.14567
▁accords	-9.14581
isation	-9.14978
▁internationale	-9.15016
▁funds	-9.15096
▁5	-9.15235
▁start	-9.15237
ance	-9.15254
▁projets	-9.15322
▁growth	-9.15511
et	-9.1563
▁essentiel	-9.15719
▁groupes	-9.1576
▁relative	-9.15794
▁competition	-9.15877
▁fight	-9.15895
▁celle	-9.15907
▁improve	-9.15999
▁(EN)	-9.16138
▁involved	-9.16163
▁open	-9.16209
▁Parliament,	-9.16506
▁might	-9.16553
▁conclusions	-9.16603
▁égard	-9.1664
▁M	-9.1665
age	-9.16733
▁exemple,	-9.16773
▁3	-9.16991
▁simplement	-9.17033
▁qu'un	-9.17253
▁Court	-9.173
▁understand	-9.17337
▁companies	-9.17358
▁products	-9.17518
▁developing	-9.1756
▁interest	-9.17701
▁approche	-9.17772
▁Union,	-9.17963
▁actually	-9.17965
▁doute	-9.17966
▁général	-9.18001
es,	-9.18092
▁example	-9.18305
▁consommateurs	-9.18392
▁mentioned	-9.18437
▁regional	-9.18558
▁meeting	-9.18842
▁écrit.	-9.18906
’	-9.18912
▁devrions	-9.18922
▁society	-9.19195
▁available	-9.19416
ement	-9.19574
▁procedure	-9.19654
▁economy	-9.19757
▁crucial	-9.19792
▁stabilité	-9.19807
▁states	-9.19905
▁Let	-9.19949
▁efficace	-9.1997
▁appropriate	-9.20101
▁contexte	-9.20121
▁suite	-9.2015
▁l'accord	-9.20352
▁climate	-9.20382
▁objectives	-9.20405
▁risque	-9.20693
▁message	-9.20715
▁indeed	-9.20717
6	-9.20802
▁Finally	-9.20812
▁report,	-9.20827
▁environment	-9.20841
▁You	-9.21022
▁collègues,	-9.21062
▁marchés	-9.21111
▁aim	-9.21263
▁currently	-9.21318
▁quant	-9.21327
▁intérêts	-9.21442
▁concerning	-9.21692
▁clair	-9.2171
▁dispositions	-9.21835
▁six	-9.21885
▁ailleurs	-9.22033
▁policy.	-9.22084
▁P	-9.22087
▁choses	-9.22154
▁forces	-9.22299
▁propre	-9.22318
▁individual	-9.22432
ic	-9.2247
▁vraiment	-9.22596
▁l'avenir	-9.22677
▁l'ensemble	-9.22762
▁seule	-9.22832
▁education	-9.22958
▁Assemblée	-9.23012
▁promote	-9.23146
▁text	-9.23375
▁cependant	-9.23377
▁responsible	-9.23387
▁period	-9.23544
ées	-9.23544
▁changement	-9.23817
est	-9.23863
▁standards	-9.24126
▁jamais	-9.2418
▁aide	-9.24195
▁Vous	-9.24244
▁data	-9.24263
▁convient	-9.2427
▁formation	-9.24326
I	-9.24542
▁États-Unis	-9.24551
▁C’est	-9.24749
▁D	-9.24776
ez	-9.24786
▁compromis	-9.24831
▁tax	-9.24926
▁n'y	-9.25167
▁Conseil,	-9.25181
▁compromise	-9.25184
▁feel	-9.2533
▁civil	-9.25367
▁key	-9.25372
▁Cour	-9.25376
▁agreements	-9.25541
▁children	-9.25665
ie	-9.25859
▁date	-9.26045
▁thing	-9.26112
▁let	-9.26123
▁principes	-9.26195
▁quand	-9.26345
▁simple	-9.26385
▁réalité	-9.26681
▁kind	-9.26725
▁management	-9.26756
▁doing	-9.26774
▁activités	-9.2682
▁members	-9.26849
▁extrêmement	-9.26863
▁raisons	-9.26911
▁plutôt	-9.26916
▁font	-9.26932
▁nécessaires	-9.26995
▁rendre	-9.272
▁l'article	-9.27233
▁n'ont	-9.27276
▁With	-9.27528
3	-9.27578
di	-9.27582
▁publique	-9.27697
de	-9.27702
▁lack	-9.27721
▁direction	-9.27761
▁parler	-9.27805
▁transparence	-9.27862
▁titre	-9.27884
▁promotion	-9.28048
▁it.	-9.28198
▁répondre	-9.2826
as	-9.28639
▁rapidement	-9.28844
▁remercie	-9.29144
▁volonté	-9.29214
▁8	-9.29281
▁l'emploi	-9.29368
▁effect	-9.29461
▁année	-9.29498
▁met	-9.29518
▁prevent	-9.29566
1	-9.29889
▁conséquences	-9.29949
▁appelle	-9.30128
▁dernières	-9.30141
▁groups	-9.30186
4	-9.30333
▁19	-9.30402
▁sommet	-9.30547
rait	-9.30549
▁Cependant	-9.30585
▁Parliament's	-9.30637
▁déclaration	-9.30684
▁act	-9.30739
▁c	-9.30828
▁joint	-9.30882
▁cases	-9.30885
▁c’est	-9.30914
▁capital	-9.31086
▁principles	-9.31118
▁réduire	-9.3117
▁démocratique	-9.31198
▁signifie	-9.31233
".	-9.31306
▁zone	-9.31326
▁congratulate	-9.31427
▁though	-9.31455
▁draft	-9.31481
▁tels	-9.31538
▁countries,	-9.31593
▁benefit	-9.31596
▁preuve	-9.31598
▁pay	-9.31677
ont	-9.31728
▁membres,	-9.31732
▁puisse	-9.31834
▁informations	-9.3202
▁vu	-9.32179
▁n’est	-9.32314
▁l'aide	-9.32365
▁collègue	-9.32369
ul	-9.32518
▁idea	-9.32525
▁Affairs	-9.32629
▁commitment	-9.32665
▁special	-9.32669
▁effort	-9.32775
▁Council,	-9.32782
▁intervention	-9.32845
▁line	-9.32895
▁regards	-9.32939
▁funding	-9.3295
▁Turkey	-9.32977
▁enlargement	-9.33045
▁life	-9.33082
▁discrimination	-9.33117
▁différentes	-9.33129
▁rural	-9.33181
▁among	-9.33182
x	-9.33249
▁moyen	-9.33263
▁assistance	-9.33369
▁paix	-9.33546
▁field	-9.33584
▁solidarité	-9.33591
▁représente	-9.33618
▁devant	-9.33741
▁chers	-9.33749
▁meilleure	-9.33914
▁longer	-9.34076
▁My	-9.3414
▁difficile	-9.34181
▁significant	-9.34221
▁Fonds	-9.34283
▁young	-9.344
2	-9.34684
▁writing.	-9.34705
▁due	-9.34717
▁peux	-9.34902
▁mean	-9.35054
▁although	-9.35246
▁them.	-9.35265
▁total	-9.35351
▁conclusion	-9.35357
▁true	-9.35559
▁nationaux	-9.3572
▁jeunes	-9.35777
▁dimension	-9.3591
▁adopté	-9.3595
»	-9.35959
▁little	-9.35983
▁legislative	-9.36047
▁encourage	-9.36153
▁qu'en	-9.3616
▁systèmes	-9.36239
▁mention	-9.36269
▁savons	-9.36275
▁note	-9.36474
ers	-9.36512
▁cohésion	-9.36623
op	-9.36685
▁adopt	-9.36692
▁ago	-9.36722
▁context	-9.3686
▁grâce	-9.36917
▁financière	-9.3696
aux	-9.36994
▁25	-9.371
▁results	-9.37191
▁forme	-9.37206
▁pendant	-9.37223
▁nothing	-9.37224
▁gouvernements	-9.3724
▁B	-9.37345
▁strong	-9.37353
▁Tout	-9.37372
té	-9.37496
▁provided	-9.37556
▁régime	-9.37663
▁commun	-9.37683
▁Directive	-9.3769
la	-9.37783
▁war	-9.37813
▁frontières	-9.37816
▁féliciter	-9.37912
▁aspect	-9.37914
▁guarantee	-9.37918
▁9	-9.37931
▁personne	-9.3794
▁manque	-9.37963
▁Amendment	-9.38003
▁F	-9.38143
▁sustainable	-9.38145
▁agricole	-9.38203
▁perhaps	-9.38203
▁remain	-9.38233
▁assurer	-9.38254
▁lead	-9.38359
▁30	-9.38371
▁seul	-9.38498
▁trouve	-9.38507
▁contraire	-9.38527
▁include	-9.3864
▁confiance	-9.3871
▁move	-9.38749
▁nuclear	-9.38793
▁governments	-9.3882
▁foreign	-9.38825
▁début	-9.38895
▁documents	-9.38898
▁labour	-9.38948
▁mondiale	-9.39036
▁intérieur	-9.39105
▁sanctions	-9.39133
▁ans	-9.39213
▁possible.	-9.3934
▁réduction	-9.39665
▁occasion	-9.39703
▁speak	-9.39755
▁perspective	-9.39807
vo	-9.39843
▁critères	-9.39937
▁ministre	-9.40093
▁résultat	-9.40214
▁protect	-9.40275
▁all,	-9.4033
▁above	-9.40357
▁taux	-9.40574
▁ensemble	-9.40626
▁aurait	-9.40645
▁play	-9.4077
▁Parliament.	-9.40784
▁addition	-9.4081
▁workers	-9.40816
k	-9.40871
tra	-9.41027
▁guerre	-9.41086
▁technologies	-9.41309
▁agreed	-9.41378
▁véritable	-9.41382
-in-Office	-9.41428
▁;	-9.41434
ou	-9.41453
ence	-9.41454
▁regarding	-9.41465
▁exercice	-9.41571
▁telles	-9.41735
▁qu'à	-9.41928
▁off	-9.4195
ise	-9.42016
▁business	-9.42146
▁budgétaire	-9.42192
▁libre	-9.42441
▁ex	-9.42442
▁close	-9.42497
▁consumer	-9.42625
▁needed	-9.42687
▁Constitution	-9.42826
▁seen	-9.42893
▁words	-9.43114
▁answer	-9.43151
▁Ma	-9.43203
▁consumers	-9.43344
▁4	-9.43348
▁construction	-9.43453
▁transparency	-9.43497
▁response	-9.43532
▁7	-9.43536
▁enfants	-9.43606
▁valeurs	-9.43621
▁améliorer	-9.43624
▁themselves	-9.43648
▁procédures	-9.43684
ate	-9.43733
▁présente	-9.43807
▁several	-9.4385
▁Our	-9.4395
▁balance	-9.43951
▁police	-9.43969
▁G	-9.44068
▁reasons	-9.44195
▁sure	-9.44273
▁travers	-9.44285
▁vital	-9.44326
▁months	-9.44357
▁All	-9.44389
pe	-9.44528
▁consensus	-9.4459
ma	-9.44681
▁relatives	-9.44707
8	-9.45034
▁share	-9.45035
▁tiers	-9.45117
▁l’Europe	-9.45158
▁durable	-9.45209
▁T	-9.45238
▁apply	-9.45407
▁6	-9.4551
▁prises	-9.45648
▁achieved	-9.45718
▁projects	-9.45815
▁chance	-9.45829
▁propres	-9.45924
▁g	-9.45986
▁parti	-9.46028
▁costs	-9.46043
▁uniquement	-9.46123
▁demand	-9.46142
▁upon	-9.46163
▁comes	-9.46244
▁référence	-9.46264
▁réellement	-9.46356
▁motion	-9.4639
▁rapports	-9.46406
▁rappeler	-9.46465
▁certainement	-9.4647
▁prise	-9.4657
▁élections	-9.46613
▁Minister	-9.46619
▁matters	-9.46837
▁mer	-9.47006
▁direct	-9.47117
▁priority	-9.47154
▁technical	-9.47165
▁reports	-9.47229
▁combat	-9.47291
▁13	-9.47351
▁l’a	-9.47363
▁victimes	-9.47398
▁l'industrie	-9.4757
▁l'amendement	-9.47602
▁plans	-9.47637
▁condition	-9.47853
▁investment	-9.47863
▁makes	-9.47893
▁him	-9.47914
▁promouvoir	-9.4798
▁rapport.	-9.4799
▁enough	-9.48037
▁per	-9.48072
▁content	-9.48378
▁mind	-9.48478
▁concept	-9.4853
▁accession	-9.48582
▁l'économie	-9.4864
▁outre,	-9.48673
▁pleased	-9.48703
▁pays.	-9.48713
▁demandé	-9.48724
▁active	-9.48761
▁veut	-9.48831
▁activities	-9.48951
ré	-9.49065
▁s'il	-9.49122
▁One	-9.49129
▁pratique	-9.49145
▁systems	-9.49198
▁provisions	-9.49211
▁colleagues	-9.49219
▁veiller	-9.4922
▁draw	-9.49239
▁J'espère	-9.49316
▁tenir	-9.49355
▁she	-9.49376
▁Bien	-9.49391
nd	-9.49395
).	-9.49433
▁seems	-9.49434
ex	-9.4948
▁l'année	-9.49536
▁existing	-9.49633
▁fondamentaux	-9.49644
▁personnel	-9.4966
▁voting	-9.49715
▁vrai	-9.49761
ique	-9.49798
▁express	-9.49949
▁protéger	-9.50023
vi	-9.50023
▁moi	-9.50077
▁session	-9.50078
▁obligations	-9.50084
▁Thank	-9.501
▁Des	-9.50315
▁nationales	-9.50379
▁Re	-9.50492
▁UN	-9.5055
▁Turquie	-9.50551
ated	-9.50556
ism	-9.50557
lé	-9.50622
▁autant	-9.50624
▁défense	-9.50624
▁region	-9.50632
▁sources	-9.50692
▁mission	-9.50699
▁ourselves	-9.50773
▁influence	-9.50812
▁Secondly,	-9.50905
▁central	-9.50988
▁L’	-9.51033
▁parvenir	-9.51046
ry	-9.51117
▁stability	-9.51126
▁Communauté	-9.5116
ais	-9.51168
▁short	-9.51182
▁porte	-9.51189
▁urgent	-9.51397
▁l'importance	-9.51438
▁minimum	-9.51516
▁others	-9.51572
id	-9.51578
▁Parlement,	-9.51607
▁priorité	-9.51686
▁respecter	-9.51737
▁Kosovo	-9.51788
▁mal	-9.51875
▁évidemment	-9.51923
▁centrale	-9.51973
▁China	-9.52002
▁Union's	-9.52059
▁soon	-9.52075
▁commercial	-9.52145
▁présenter	-9.52172
▁reduce	-9.52243
A	-9.52296
▁dois	-9.5249
▁changes	-9.52501
▁cohesion	-9.52516
▁coûts	-9.53
▁cultural	-9.53129
▁until	-9.53159
▁develop	-9.53201
▁creation	-9.53219
▁impossible	-9.53299
O	-9.53303
▁basic	-9.53341
▁agenda	-9.53354
ill	-9.53392
▁question.	-9.5355
▁everyone	-9.53597
va	-9.53653
▁project	-9.53656
▁directives	-9.53721
▁solidarity	-9.53787
co	-9.53839
lu	-9.53925
▁never	-9.54011
▁voter	-9.54171
▁financier	-9.54321
▁grandes	-9.54327
▁rule	-9.54402
▁statement	-9.5445
▁conflict	-9.54496
▁18	-9.54586
▁carried	-9.54613
▁vigueur	-9.54736
▁military	-9.5483
▁saying	-9.55186
▁petites	-9.55191
▁equal	-9.55232
▁éléments	-9.55317
▁tabled	-9.55326
▁collaboration	-9.554
▁sense	-9.55519
▁agriculture	-9.55566
▁rapporteurs	-9.55627
▁absolument	-9.55718
▁Ils	-9.56032
▁increased	-9.56159
▁value	-9.56176
▁amendement	-9.56189
▁consequences	-9.56214
▁held	-9.56226
rons	-9.56285
▁asked	-9.56323
▁request	-9.56358
▁relating	-9.5637
ating	-9.564
▁sociaux	-9.5647
▁item	-9.56479
▁farmers	-9.56513
▁précisément	-9.56543
▁priorités	-9.56582
▁zones	-9.56761
▁ten	-9.56789
▁travailler	-9.56975
▁show	-9.57028
▁future.	-9.57076
▁générale	-9.57083
▁namely	-9.57154
▁‘	-9.57198
▁consultation	-9.57232
▁keep	-9.57249
ad	-9.5725
▁increasing	-9.57299
▁training	-9.57336
▁énergétique	-9.57341
▁pressure	-9.57358
▁tenu	-9.57433
▁d'a	-9.5774
▁non-	-9.57804
▁réunion	-9.5784
▁continuer	-9.5784
▁produit	-9.57891
▁permet	-9.57908
▁everything	-9.58047
▁integration	-9.58101
▁accepter	-9.58112
go	-9.5816
▁paragraphe	-9.58161
▁requirements	-9.58183
▁required	-9.58206
▁qu'elles	-9.58219
les	-9.58246
▁loin	-9.58248
▁étaient	-9.58298
▁fishing	-9.58301
▁parole	-9.58302
▁ban	-9.58415
▁regulations	-9.58445
▁When	-9.58538
▁crime	-9.58615
▁meet	-9.58622
▁totalement	-9.58677
▁job	-9.58792
▁14	-9.58837
▁l'un	-9.58864
▁traitement	-9.58867
▁d’autres	-9.58875
ut	-9.58971
▁d'avoir	-9.58975
▁dépenses	-9.59056
▁transports	-9.59101
▁hommes	-9.59172
▁thus	-9.59273
▁développer	-9.59376
▁proposé	-9.59428
▁prochaine	-9.59558
▁l’UE	-9.59653
▁K	-9.59668
▁organisation	-9.59702
▁2000	-9.59829
▁presented	-9.59869
▁parmi	-9.59874
▁l'utilisation	-9.59902
▁peuple	-9.59907
▁water	-9.59912
▁pré	-9.59915
▁billion	-9.59933
▁doubt	-9.59975
▁statut	-9.59986
▁policy,	-9.59986
▁jobs	-9.60028
▁adoption	-9.6003
▁conférence	-9.60165
qui	-9.60189
▁He	-9.60196
▁jusqu'à	-9.60209
ge	-9.60279
▁Russie	-9.60299
isme	-9.60321
▁Or	-9.60349
▁package	-9.60394
▁four	-9.60413
▁celles	-9.60576
▁O	-9.60622
▁substances	-9.60641
am	-9.60653
▁success	-9.60657
▁partenaires	-9.60811
▁opportunities	-9.60853
▁quel	-9.60853
N	-9.60883
▁administrative	-9.60893
▁throughout	-9.6095
▁review	-9.60978
ta	-9.60985
ness	-9.61018
▁task	-9.61056
um	-9.61098
▁gens	-9.61133
▁réformes	-9.61133
▁external	-9.61141
▁train	-9.61205
▁immigration	-9.61256
▁phase	-9.61299
ag	-9.61367
▁relevant	-9.61385
▁live	-9.61431
▁capacité	-9.61457
mp	-9.61508
▁convention	-9.61532
▁signal	-9.61569
▁considération	-9.61598
▁e	-9.61639
▁structure	-9.61794
▁financières	-9.61799
▁l'objet	-9.61834
▁d'action	-9.61894
▁présenté	-9.61917
▁rest	-9.61961
au	-9.61977
to	-9.61978
▁17	-9.62276
▁valeur	-9.6228
▁budgetary	-9.62365
▁co	-9.62525
▁called	-9.62632
▁charge	-9.62687
▁criteria	-9.62703
▁pratiques	-9.62715
▁quoi	-9.62868
▁difficultés	-9.62869
▁semaine	-9.62889
▁road	-9.62892
▁résoudre	-9.62928
9	-9.62945
▁l'heure	-9.62967
ist	-9.63013
▁peine	-9.63066
pp	-9.63228
▁men	-9.63274
▁monétaire	-9.63333
▁Party	-9.63373
ia	-9.63374
▁potential	-9.63388
w	-9.63399
▁fort	-9.63463
▁pleinement	-9.63524
▁tell	-9.63597
che	-9.6367
ns	-9.63681
▁community	-9.63691
▁Fund	-9.63808
▁around	-9.6383
▁sais	-9.63867
▁secteurs	-9.64006
na	-9.64025
▁prepared	-9.64052
▁lesquels	-9.64094
▁institution	-9.64177
▁mort	-9.64181
▁jouer	-9.64188
▁decided	-9.64236
▁values	-9.64401
▁constituent	-9.64408
▁Schengen	-9.64495
▁Rights	-9.64541
▁attitude	-9.64604
▁côté	-9.64629
▁sort	-9.64653
▁movement	-9.64745
▁qu'on	-9.64918
▁grands	-9.64924
aire	-9.6499
▁contribuer	-9.65021
▁cost	-9.65094
rai	-9.65121
▁50	-9.65237
▁W	-9.65321
▁eux	-9.65327
▁séance	-9.65487
▁Russia	-9.65602
▁16	-9.65678
▁(PL)	-9.65695
▁quatre	-9.65937
▁passer	-9.66015
▁partenariat	-9.66035
▁market.	-9.66037
▁stress	-9.66049
▁monitoring	-9.66066
),	-9.66118
▁financiers	-9.66259
▁l'énergie	-9.66269
▁reached	-9.66288
▁félicite	-9.66321
▁permettant	-9.66473
▁commencer	-9.66502
▁previous	-9.66576
▁aujourd’hui	-9.66802
▁procedures	-9.66811
▁constructive	-9.66834
▁address	-9.66845
▁l'agriculture	-9.66856
▁partage	-9.66921
▁expressed	-9.66938
▁raised	-9.66985
ll	-9.67104
ca	-9.67123
▁focus	-9.67203
▁puissent	-9.67213
▁waste	-9.67229
▁Notre	-9.67295
▁talking	-9.6734
▁déclaré	-9.6744
▁amount	-9.67456
▁2004	-9.67476
▁considère	-9.67507
▁circulation	-9.67521
mo	-9.67559
▁perspectives	-9.67569
▁communauté	-9.67822
▁establish	-9.67847
▁temps,	-9.67848
▁danger	-9.67855
▁vos	-9.67907
▁elections	-9.67908
▁Therefore,	-9.67916
▁illegal	-9.67992
ting	-9.68034
▁exigences	-9.68145
▁light	-9.68148
▁pourra	-9.68151
▁experience	-9.68277
▁using	-9.68304
▁renforcement	-9.68366
▁across	-9.6837
▁parlementaire	-9.68567
▁Lisbonne	-9.68598
▁Parlement.	-9.68627
▁réglementation	-9.68741
▁moi,	-9.6875
▁pourraient	-9.68793
▁liste	-9.68845
▁private	-9.68961
▁fair	-9.69036
▁expect	-9.69111
▁implement	-9.69184
▁travaux	-9.69272
▁pro	-9.69275
▁cinq	-9.69304
ary	-9.69315
▁actuelle	-9.69336
▁Chine	-9.69347
▁vient	-9.69372
▁try	-9.69541
▁devoir	-9.69637
▁markets	-9.69684
▁poursuivre	-9.69773
▁mandat	-9.69809
▁Ireland	-9.69836
▁reduction	-9.69893
▁l'occasion	-9.69919
▁f	-9.69933
▁structures	-9.69949
▁1999	-9.69979
▁included	-9.70121
▁fellow	-9.70151
▁permis	-9.70157
▁turn	-9.70172
▁powers	-9.70183
▁civile	-9.70218
▁practice	-9.70241
▁risques	-9.70288
▁compétences	-9.70383
▁comprendre	-9.70422
▁donne	-9.70457
mi	-9.70506
▁reach	-9.70583
▁fisheries	-9.70594
▁hard	-9.70637
▁absolutely	-9.70657
▁27	-9.70695
▁quickly	-9.70752
▁grave	-9.70792
▁permettra	-9.70831
▁chômage	-9.70879
▁found	-9.70886
à	-9.71049
▁compétitivité	-9.7107
▁apporter	-9.71107
▁dû	-9.71111
▁French	-9.71118
▁décidé	-9.71208
▁challenges	-9.71213
ner	-9.71316
▁Deuxièmement	-9.71351
el	-9.71478
▁engagement	-9.71491
▁série	-9.71593
▁poverty	-9.71633
▁l'objectif	-9.71716
▁adopter	-9.71733
▁add	-9.71742
▁n’a	-9.71758
▁presidency	-9.71773
▁established	-9.71801
▁talk	-9.71821
▁l'élargissement	-9.71885
▁besoins	-9.71961
▁modèle	-9.71969
▁price	-9.71975
▁recently	-9.71989
▁victims	-9.72035
▁malheureusement	-9.72094
▁spécifiques	-9.72196
▁enable	-9.72228
▁pauvreté	-9.72319
▁éviter	-9.72333
▁day	-9.72342
▁loi	-9.72353
▁vision	-9.72371
▁coming	-9.72401
▁ensuite	-9.7248
▁acceptable	-9.72509
▁times	-9.72633
▁outside	-9.72649
▁Conference	-9.72658
▁strengthen	-9.72697
▁élément	-9.72723
con	-9.72819
▁five	-9.72866
▁correct	-9.72944
▁week	-9.73032
▁possibilités	-9.73056
▁court	-9.7306
▁rapport,	-9.73063
▁assez	-9.73101
▁criminal	-9.73154
▁profit	-9.73176
▁supported	-9.73194
▁quelle	-9.733
▁years.	-9.73333
D	-9.73356
▁source	-9.7337
▁lot	-9.73373
▁révision	-9.7339
▁choix	-9.73584
▁Council.	-9.73596
▁Development	-9.736
▁past	-9.73672
▁positions	-9.73758
▁additional	-9.73797
▁term	-9.73803
▁pression	-9.73866
▁l'État	-9.73921
▁j'	-9.73933
▁ministres	-9.73938
▁table	-9.73943
▁candidats	-9.73967
▁structural	-9.74009
ti	-9.74096
▁particulière	-9.74187
▁d'euros	-9.74196
▁list	-9.74313
▁Conseil.	-9.74391
▁levels	-9.7444
▁completely	-9.74447
▁pollution	-9.74453
▁consiste	-9.74563
▁vis-à-vis	-9.74618
▁begin	-9.74714
▁pose	-9.74884
min	-9.75139
▁ever	-9.75198
ine	-9.7527
▁giving	-9.75379
▁lutter	-9.75432
▁model	-9.75592
▁aides	-9.75601
▁effects	-9.75612
▁l'UE.	-9.75618
▁remind	-9.7563
▁derniers	-9.75653
▁h	-9.75674
▁brought	-9.75678
em	-9.75759
ts	-9.75778
ign	-9.75922
▁treatment	-9.75951
▁air	-9.75959
▁enfin	-9.76122
▁fournir	-9.76123
▁aider	-9.76126
R	-9.76194
▁rights.	-9.76247
▁fonctionnement	-9.76263
▁US	-9.76532
▁December	-9.76582
▁opposition	-9.76717
▁près	-9.76779
▁défis	-9.7696
▁maritime	-9.7698
▁réjouis	-9.77001
▁emissions	-9.77002
▁regret	-9.77015
▁responsables	-9.7708
▁thanks	-9.77085
▁summit	-9.77089
▁représentants	-9.77267
▁vont	-9.77308
▁extent	-9.77313
▁Republic	-9.77393
▁received	-9.77425
▁2009	-9.77466
▁applied	-9.77495
▁plupart	-9.77546
▁year.	-9.77587
ire	-9.77693
▁ayant	-9.77703
▁d'ailleurs	-9.77716
▁possibility	-9.77784
▁décembre	-9.77801
▁indispensable	-9.77811
▁surveillance	-9.77852
▁along	-9.77889
▁chacun	-9.77947
▁avoid	-9.77959
▁priorities	-9.77999
▁time.	-9.78026
▁milliards	-9.78053
▁stop	-9.78075
▁prices	-9.78085
▁unemployment	-9.78176
ordre	-9.78194
▁stage	-9.7825
▁heard	-9.78271
▁centre	-9.78345
▁almost	-9.78381
▁EU's	-9.78395
▁passé	-9.78432
▁puisque	-9.78455
▁communautaires	-9.78459
▁passe	-9.78621
▁Of	-9.78652
res	-9.78684
▁Firstly	-9.78702
▁took	-9.78719
▁jours	-9.78727
▁businesses	-9.78751
▁approved	-9.78785
▁effets	-9.78797
▁representatives	-9.78809
▁natural	-9.78861
ac	-9.78892
▁importants	-9.7893
▁(S	-9.78939
▁International	-9.78965
▁ensuring	-9.79
▁L'Union	-9.79003
▁devra	-9.79037
tant	-9.79072
▁Agreement	-9.79137
F	-9.79177
▁reforms	-9.79227
ai	-9.79277
▁away	-9.79295
▁proper	-9.79331
▁either	-9.79365
▁British	-9.79414
▁Bank	-9.79472
▁May	-9.79484
ous	-9.79557
▁assessment	-9.79636
▁years,	-9.79664
ard	-9.79681
ations	-9.79755
▁2005	-9.79757
▁constitution	-9.79768
iser	-9.79854
▁travail.	-9.79867
▁living	-9.79899
▁situations	-9.79981
▁discussed	-9.80001
▁constater	-9.80021
▁East	-9.80054
▁Justice	-9.80231
ve	-9.80258
▁contribute	-9.80321
▁side	-9.80367
▁troisième	-9.80377
▁2003	-9.80397
▁practical	-9.80404
▁investissements	-9.80433
▁left	-9.80445
▁care	-9.80461
ling	-9.80471
▁creating	-9.80475
▁intention	-9.80486
▁double	-9.80527
▁actuel	-9.80528
un	-9.80562
",	-9.80671
▁lesquelles	-9.80685
00	-9.80741
▁competitiveness	-9.80918
▁sitting	-9.8093
do	-9.80977
▁quotas	-9.80997
▁offer	-9.81004
▁budgets	-9.81041
▁Furthermore	-9.81088
▁behind	-9.81106
▁yeux	-9.81113
▁you,	-9.81142
▁environnemental	-9.81144
▁publics	-9.81297
▁discuss	-9.81441
▁conflit	-9.81607
▁Europe's	-9.81686
▁conclure	-9.81743
▁l'application	-9.81759
▁importantes	-9.81887
▁souligné	-9.81919
▁connection	-9.82
▁confidence	-9.82185
M	-9.82335
▁events	-9.82335
▁innovation	-9.82339
▁sociales	-9.82376
▁territoire	-9.82399
▁conformément	-9.82454
▁guidelines	-9.82478
▁level.	-9.82568
▁fonction	-9.8258
▁c'est-à-dire	-9.82613
▁unies	-9.82615
▁l'ordre	-9.82691
▁vise	-9.82699
▁l'adoption	-9.82738
▁parliamentary	-9.82912
▁capacity	-9.82989
▁reçu	-9.83007
▁techniques	-9.83066
▁2002	-9.83128
▁rate	-9.83144
▁rapide	-9.83153
▁year,	-9.83362
▁succès	-9.83378
ed.	-9.83416
▁émissions	-9.83564
▁challenge	-9.83655
▁receive	-9.83674
▁agriculteurs	-9.83745
▁situation.	-9.83866
▁introduction	-9.83919
▁favorable	-9.84016
▁mondial	-9.84029
▁etc.	-9.84061
▁certaine	-9.8411
▁emplois	-9.84112
▁d'entre	-9.84134
▁gaz	-9.84271
▁defence	-9.84307
▁montre	-9.8431
▁Regulation	-9.84361
ct	-9.84422
▁Mon	-9.84477
▁forte	-9.84518
▁remains	-9.84596
▁suivi	-9.84604
▁huge	-9.84615
▁positif	-9.84647
▁scope	-9.84707
▁nations	-9.84731
▁pensons	-9.84746
▁capable	-9.84758
▁récemment	-9.84834
man	-9.84866
▁nor	-9.84882
▁old	-9.84903
▁violations	-9.85009
▁changements	-9.85073
▁2001	-9.85181
▁s’agit	-9.85311
▁family	-9.85347
▁world.	-9.85349
▁origin	-9.85432
▁Permettez-moi	-9.85439
▁animaux	-9.85512
▁effectivement	-9.8564
▁mener	-9.85765
▁importe	-9.85798
▁days	-9.85913
▁Central	-9.85936
ants	-9.85943
▁effectively	-9.85955
▁transparent	-9.8596
▁République	-9.85992
▁considered	-9.85997
▁structurels	-9.86025
▁humanitarian	-9.8605
▁despite	-9.86121
▁alternative	-9.86132
▁World	-9.86158
▁difficulties	-9.86171
▁claire	-9.86207
▁affected	-9.86217
▁technique	-9.86245
▁aimed	-9.86262
▁return	-9.86318
▁Internet	-9.8645
▁considérable	-9.86528
urs	-9.8656
▁responsable	-9.86612
▁alimentaire	-9.86667
ly,	-9.86714
▁puis	-9.86785
▁soutiens	-9.86862
pr	-9.86867
▁trying	-9.86982
B	-9.86984
▁l'égard	-9.87051
▁caractère	-9.87069
▁désormais	-9.87125
▁veux	-9.87183
▁asylum	-9.872
▁producteurs	-9.87246
▁hold	-9.87316
▁implemented	-9.87357
▁First	-9.87373
▁contenu	-9.87378
▁Economic	-9.87406
▁precisely	-9.87429
▁sérieux	-9.87502
▁souhaiterais	-9.87583
▁supply	-9.87631
▁media	-9.87631
▁(PT)	-9.87725
▁n'en	-9.87776
▁Nord	-9.87797
▁efficiency	-9.87819
▁regime	-9.87914
▁haut	-9.87948
▁sport	-9.87958
▁partnership	-9.88029
▁j’ai	-9.88047
▁export	-9.88051
▁suivre	-9.88064
▁reference	-9.8807
▁responsabilités	-9.88099
ck	-9.88153
▁shown	-9.88153
▁limit	-9.88203
▁définition	-9.88231
▁Sur	-9.88271
▁V	-9.88368
▁rights,	-9.88385
▁June	-9.88522
▁supplémentaires	-9.88572
▁produce	-9.88604
▁accordance	-9.88699
▁carry	-9.88706
if	-9.88824
▁union	-9.8886
▁conciliation	-9.88878
▁obstacles	-9.88942
▁conscience	-9.88954
▁fond	-9.88991
▁today.	-9.89003
▁continent	-9.89055
▁partners	-9.89088
▁ACP	-9.89093
▁instead	-9.89107
▁personal	-9.89115
▁animal	-9.89134
▁developed	-9.8914
ni	-9.89182
L	-9.89352
▁déchets	-9.89374
no	-9.8942
▁évident	-9.89446
▁decide	-9.89451
'.	-9.89587
▁beginning	-9.89588
▁années,	-9.89674
▁adoptée	-9.89695
▁atteindre	-9.89699
▁libéralisation	-9.89722
▁dealing	-9.89768
▁utile	-9.89859
▁parle	-9.89896
▁honourable	-9.89918
▁home	-9.89983
▁technology	-9.89987
▁purpose	-9.90109
▁prévention	-9.90122
▁maintenir	-9.90238
▁oil	-9.90287
per	-9.90293
▁juin	-9.90295
▁dix	-9.90303
▁half	-9.90315
▁ligne	-9.904
▁takes	-9.90467
▁qu’elle	-9.90516
▁former	-9.90518
▁directive.	-9.90531
▁improving	-9.90547
▁II	-9.9062
▁maintain	-9.90763
▁internationales	-9.90774
▁stand	-9.90838
▁route	-9.90854
▁death	-9.90913
▁biais	-9.90958
▁providing	-9.91012
▁étrangère	-9.91017
▁libertés	-9.91064
aires	-9.91092
▁l'euro	-9.91185
▁mêmes	-9.91227
▁Royaume-Uni	-9.91245
▁paquet	-9.91265
▁created	-9.91281
▁longtemps	-9.91335
▁institutional	-9.91358
▁citizens.	-9.91365
eur	-9.91407
▁permanent	-9.91429
▁reading	-9.9146
▁corruption	-9.91461
▁tard	-9.91497
▁committed	-9.915
▁publiques	-9.91509
▁2020	-9.91538
▁demain	-9.91543
▁disposition	-9.91568
▁causes	-9.91576
▁speech	-9.91616
▁scientific	-9.91655
▁Germany	-9.91699
▁provision	-9.91711
▁via	-9.91722
▁parfois	-9.91733
▁principal	-9.91736
▁allowed	-9.91738
▁Voilà	-9.91753
▁according	-9.9179
▁status	-9.91798
▁voix	-9.91832
▁(FR)	-9.9185
▁j'espère	-9.9187
▁suffisamment	-9.9187
om	-9.91952
▁independent	-9.91966
▁niveaux	-9.91967
▁po	-9.92008
▁wrong	-9.92027
▁consideration	-9.92032
▁d'en	-9.92089
▁présence	-9.92106
▁climatique	-9.92134
▁partir	-9.92176
▁measure	-9.92185
▁work.	-9.92284
▁goes	-9.9232
▁engagements	-9.92334
▁réaliser	-9.92335
▁menace	-9.92403
▁d'autre	-9.92404
▁agir	-9.92456
▁défi	-9.92517
▁Social	-9.9253
▁maximum	-9.92599
▁(IT)	-9.92657
▁malgré	-9.92816
▁relatif	-9.92845
▁restrictions	-9.92881
▁enterprises	-9.92897
▁genre	-9.92924
▁accepted	-9.93006
▁terrorisme	-9.93016
▁crimes	-9.93233
▁considerable	-9.93234
▁colleague	-9.93282
▁rightly	-9.93326
▁important.	-9.93366
▁Nos	-9.9338
▁d'énergie	-9.93416
▁l'accès	-9.93416
▁21	-9.93463
▁juridiques	-9.93478
▁WTO	-9.9351
ient	-9.93608
ue	-9.93615
▁40	-9.93618
▁join	-9.93643
▁populations	-9.93685
▁comptes	-9.93693
▁exist	-9.93712
▁intérêt	-9.93715
▁déclarations	-9.93724
▁successful	-9.93784
▁100	-9.93878
▁poor	-9.93896
nce	-9.94
ven	-9.94006
▁Brussels	-9.94009
▁exchange	-9.94077
less	-9.94083
ap	-9.94098
ssent	-9.94099
▁étrangères	-9.94143
▁Do	-9.94152
▁Euro	-9.94204
▁sociétés	-9.94257
▁Israel	-9.94291
▁prévoit	-9.9431
os	-9.94373
tic	-9.94421
▁ra	-9.94465
▁Présidence	-9.94491
▁strategic	-9.94511
▁augmentation	-9.9452
▁port	-9.94521
▁meilleur	-9.94641
▁l'information	-9.94701
▁Now	-9.94707
▁promoting	-9.94732
▁unfortunately	-9.94844
▁area.	-9.94845
▁outre	-9.94871
▁industrial	-9.94882
eurs	-9.94889
▁participer	-9.94891
▁événements	-9.94906
▁benefits	-9.94979
▁obtenir	-9.95015
▁stated	-9.95021
ver	-9.95051
▁n’	-9.95087
S	-9.9511
▁provides	-9.95114
▁allons	-9.95155
▁collective	-9.9516
▁tâche	-9.95162
▁votes	-9.95173
▁implementing	-9.95205
▁German	-9.95415
▁liés	-9.95473
▁closely	-9.95532
▁infrastructure	-9.95563
▁l'égalité	-9.95605
▁administration	-9.95686
ment,	-9.95739
▁thought	-9.95753
▁goods	-9.95823
▁clause	-9.95833
end	-9.95843
▁comments	-9.95902
▁ratification	-9.95909
▁rester	-9.95943
▁monde.	-9.96016
▁similar	-9.96072
▁n'avons	-9.96094
▁seriously	-9.96102
▁H	-9.9617
▁respond	-9.96195
▁Merci	-9.96197
▁directement	-9.96197
▁knowledge	-9.96213
▁Banque	-9.96218
▁élevé	-9.96221
ty	-9.96229
▁coup	-9.96358
▁Group.	-9.96369
▁press	-9.96396
▁l'Europe.	-9.96409
▁sectors	-9.96414
▁visa	-9.96462
▁calls	-9.9649
▁beyond	-9.96502
▁Human	-9.96504
▁An	-9.96504
▁referred	-9.96586
▁transition	-9.96626
▁overall	-9.96627
▁européens.	-9.96738
ens	-9.96763
▁specifically	-9.96783
▁veulent	-9.9679
▁venir	-9.96844
▁reality	-9.96889
▁accès	-9.96906
▁happen	-9.96906
▁urge	-9.96939
▁t	-9.97029
▁l’homme	-9.97029
pro	-9.97115
▁remember	-9.9714
ère	-9.97218
▁issue.	-9.9736
▁know,	-9.97529
▁p	-9.97571
▁celle-ci	-9.97764
▁réfugiés	-9.97768
▁country,	-9.97853
▁aller	-9.97859
▁fondamental	-9.97871
▁history	-9.97887
▁lignes	-9.98065
▁long-term	-9.98199
▁mot	-9.98214
▁forms	-9.98225
▁borders	-9.98235
gu	-9.98386
▁courage	-9.98441
▁graves	-9.98448
▁imp	-9.98465
▁border	-9.98476
▁poser	-9.98493
▁wanted	-9.98524
ot	-9.98539
▁mai	-9.98547
▁finally	-9.98593
▁financing	-9.98639
▁faisant	-9.98687
E	-9.98715
▁Ukraine	-9.98765
▁auquel	-9.98765
▁dispose	-9.98919
▁expenditure	-9.98954
dé	-9.99092
▁peuples	-9.99145
▁complete	-9.99172
▁Iran	-9.99176
▁here.	-9.99238
▁expression	-9.99276
▁accompli	-9.99315
H	-9.99359
▁Mediterranean	-9.99396
▁follow	-9.99414
▁directly	-9.99478
▁study	-9.99629
▁efficient	-9.99637
▁réalisation	-9.99726
▁Today	-9.99756
▁reconnaissance	-9.9982
▁Irish	-9.99841
▁ans,	-9.99938
▁agricoles	-9.99947
val	-10.0004
▁conference	-10.001
▁process.	-10.001
▁l'adhésion	-10.0016
▁s’	-10.0023
ies	-10.0024
▁qu’	-10.0043
▁product	-10.0047
▁préoccupations	-10.0056
▁annual	-10.0061
▁Traité	-10.0063
▁contact	-10.0064
▁utiliser	-10.0064
▁devenir	-10.0069
▁man	-10.0073
▁prochain	-10.0077
▁pourrons	-10.0077
▁Premièrement	-10.0083
près	-10.0086
▁harmonisation	-10.0091
▁useful	-10.0093
▁leave	-10.0093
▁compensation	-10.0096
▁spirit	-10.0099
▁setting	-10.0103
▁britannique	-10.0104
▁coût	-10.0107
▁requires	-10.0107
ru	-10.0109
▁procès-verbal	-10.0117
▁économique,	-10.0119
▁spécifique	-10.0128
▁analyse	-10.0133
▁event	-10.0142
▁activity	-10.0143
ille	-10.0143
▁l'efficacité	-10.0144
▁d'Europe	-10.0149
▁January	-10.0153
▁gas	-10.0154
▁réseaux	-10.0156
▁obligation	-10.0158
▁name	-10.0167
▁myself	-10.0168
▁sait	-10.0183
▁défendre	-10.0186
▁montrer	-10.0186
▁garantie	-10.0191
▁Balkans	-10.0192
▁soutenu	-10.0195
▁ceci	-10.0201
▁nucléaire	-10.0202
▁tomorrow	-10.0202
▁bonnes	-10.0203
▁equality	-10.0208
▁experts	-10.0208
▁intended	-10.0212
▁délégation	-10.0214
▁refer	-10.0219
▁néanmoins	-10.022
▁entire	-10.0221
▁How	-10.0233
▁envers	-10.0234
▁dossier	-10.0237
▁maintien	-10.0238
▁connaissance	-10.0242
▁1996	-10.0244
▁damage	-10.0247
».	-10.0253
▁paragraph	-10.0255
▁tirer	-10.0258
▁sufficient	-10.0259
▁pre	-10.026
▁Green	-10.0265
▁Summit	-10.0266
▁consommation	-10.0268
▁steps	-10.0277
▁paid	-10.0277
▁état	-10.0277
▁terrorism	-10.028
▁introduce	-10.0285
▁commitments	-10.0299
▁distribution	-10.0308
▁mérite	-10.0311
▁l'intérêt	-10.0312
▁Cet	-10.0324
▁reconnaître	-10.0325
▁duty	-10.0325
▁oral	-10.0325
▁normal	-10.0328
▁convergence	-10.0332
▁party	-10.0333
▁principaux	-10.0334
▁naturellement	-10.0336
▁code	-10.0338
▁militaire	-10.034
▁outcome	-10.0349
T	-10.0352
▁highly	-10.0352
▁1998	-10.0358
ction	-10.0358
▁nationale	-10.0359
▁represent	-10.0365
▁b	-10.0366
▁fund	-10.0367
▁crédits	-10.037
▁trafic	-10.0371
ial	-10.0373
▁speaking	-10.0376
▁exprimer	-10.0376
▁bodies	-10.0378
▁figure	-10.0395
▁janvier	-10.0396
▁débats	-10.0398
▁sensible	-10.0404
▁lorsqu'il	-10.0409
▁Prodi	-10.041
▁candidate	-10.0422
▁di	-10.0423
▁version	-10.0425
▁supporting	-10.043
▁closed.	-10.043
▁traite	-10.044
▁pauvres	-10.0447
▁patients	-10.0448
▁country.	-10.0449
▁Greece	-10.0456
▁modification	-10.0457
▁bear	-10.0457
▁souligne	-10.0457
▁comité	-10.0457
▁ambitious	-10.0458
▁views	-10.0464
▁properly	-10.0464
▁words,	-10.0466
▁anything	-10.0467
▁soumis	-10.0468
▁CO2	-10.0469
▁Luxembourg	-10.0473
▁permettez-moi	-10.0473
▁Portugal	-10.0477
▁demands	-10.0486
ted	-10.05
▁limited	-10.0502
▁competitive	-10.0514
▁d’a	-10.0516
▁économie	-10.0527
▁conclude	-10.0529
▁rise	-10.053
▁higher	-10.0552
▁humains	-10.0564
▁R	-10.0568
▁increasingly	-10.0571
▁parlé	-10.0578
▁traiter	-10.0583
▁discussing	-10.0589
▁medium-sized	-10.0592
▁Selon	-10.0592
▁Although	-10.0599
▁Rules	-10.0599
▁Commissaire	-10.06
ol	-10.0601
▁l'idée	-10.0605
▁known	-10.0616
P	-10.0621
▁Unfortunately	-10.0626
▁budgétaires	-10.0627
▁appel	-10.0628
▁Se	-10.0637
▁procéder	-10.0642
▁bas	-10.0646
▁pacte	-10.0652
▁vote.	-10.0658
▁Car	-10.0659
C	-10.0659
▁compétence	-10.0665
▁broad	-10.067
▁genuine	-10.0671
▁Ceci	-10.0672
▁humanitaire	-10.0677
▁24	-10.0685
▁whom	-10.0685
▁l'é	-10.0687
cé	-10.069
▁authority	-10.07
▁March	-10.0704
▁laisser	-10.0704
▁semaines	-10.0707
▁emploi	-10.0712
▁qu'au	-10.0716
▁clos.	-10.0716
▁establishing	-10.0718
▁tourisme	-10.0727
▁médias	-10.0728
▁monnaie	-10.0731
▁(A	-10.0733
▁23	-10.0738
▁improved	-10.0739
▁flexible	-10.074
▁Elles	-10.0742
tre	-10.0743
▁word	-10.0744
▁early	-10.0747
▁shows	-10.0747
▁caused	-10.0749
▁calling	-10.075
▁hear	-10.0756
▁happened	-10.0771
▁weeks	-10.0773
▁impose	-10.078
▁achieving	-10.0781
▁uvre	-10.0788
▁salue	-10.0793
▁emphasise	-10.0796
▁développement.	-10.0799
▁threat	-10.0799
▁violation	-10.0806
▁r	-10.0812
▁rend	-10.0815
▁market,	-10.0817
▁Security	-10.0823
▁stocks	-10.0824
▁opinions	-10.0824
▁l'autre	-10.0824
▁represents	-10.0839
ments	-10.0841
▁l'éducation	-10.0842
emp	-10.0852
▁démocratiques	-10.0854
▁discuter	-10.0865
▁people.	-10.0869
▁trust	-10.0869
▁cent	-10.0876
▁l'intégration	-10.088
▁contributions	-10.0883
▁député	-10.0885
▁definition	-10.0885
▁Sa	-10.0892
▁produced	-10.0894
▁professionnelle	-10.0898
▁sign	-10.09
▁l'Assemblée	-10.0906
ally	-10.0911
▁reducing	-10.0915
▁Minutes	-10.0918
▁producers	-10.0918
▁taxes	-10.0919
▁l'attention	-10.0922
com	-10.0925
▁obviously	-10.0934
▁lecture	-10.0935
▁populaire	-10.0936
▁pourtant	-10.0938
▁arguments	-10.0938
▁réseau	-10.0942
ler	-10.0943
▁affaire	-10.0952
▁strengthening	-10.0976
▁comprehensive	-10.0978
▁proposer	-10.0978
▁encourager	-10.0979
si	-10.0984
▁Néanmoins	-10.0988
▁language	-10.0989
▁Since	-10.0998
▁fer	-10.0999
land	-10.1003
ier	-10.1008
▁require	-10.1011
▁excessive	-10.1011
▁fall	-10.1014
▁moyennes	-10.1021
▁establishment	-10.1021
ten	-10.1022
▁types	-10.1024
▁économies	-10.1028
▁heureux	-10.1035
oc	-10.1037
▁ways	-10.104
▁failure	-10.1045
▁Sud	-10.1048
▁partis	-10.1053
par	-10.1058
▁migration	-10.106
ud	-10.1062
▁recognise	-10.107
▁building	-10.1076
▁Amsterdam	-10.1078
▁low	-10.108
▁currency	-10.1084
▁read	-10.1085
sh	-10.1086
▁retard	-10.1086
▁régionale	-10.1087
▁unacceptable	-10.1087
▁risks	-10.1087
▁largement	-10.1088
▁Foreign	-10.1094
▁sector.	-10.1096
▁cut	-10.1097
▁contrôles	-10.1098
▁Moreover	-10.1099
▁l'in	-10.1103
▁EU.	-10.1105
▁convinced	-10.111
▁send	-10.112
▁citoyens.	-10.1122
▁member	-10.1122
▁mars	-10.1126
▁infrastructures	-10.1132
▁communes	-10.1133
▁institutions.	-10.1133
▁pouvoirs	-10.1136
▁industries	-10.1137
▁reconstruction	-10.1141
▁alimentaires	-10.1142
▁critique	-10.1146
▁looking	-10.1152
▁chez	-10.1163
▁rapporteur.	-10.1165
responsibilities	-10.1165
▁22	-10.117
▁br	-10.1171
▁conflits	-10.1171
▁combating	-10.1175
▁balanced	-10.1188
▁so-called	-10.1189
▁law.	-10.119
ible	-10.1192
▁statements	-10.1199
▁divers	-10.1199
ile	-10.1201
▁d'État	-10.1202
▁monetary	-10.1208
▁parfaitement	-10.1212
▁s'en	-10.1213
▁nouvel	-10.1215
▁aient	-10.1224
▁bo	-10.1225
▁aims	-10.1226
▁actes	-10.1226
▁substance	-10.1236
▁earlier	-10.1244
▁firstly	-10.1247
▁pourront	-10.1249
▁American	-10.1249
▁test	-10.1258
▁sometimes	-10.1261
▁PME	-10.1264
▁article	-10.1266
▁Grèce	-10.1273
▁ai	-10.1276
▁gives	-10.1278
ig	-10.1279
▁destruction	-10.1281
▁person	-10.1287
▁staff	-10.1298
▁1997	-10.1298
▁dangerous	-10.1306
emb	-10.1309
▁contrary	-10.131
▁internationaux	-10.1324
▁recognition	-10.1327
▁espérons	-10.1331
▁soins	-10.1335
▁delegation	-10.1335
▁entirely	-10.1338
▁appeal	-10.1339
▁taxation	-10.1339
tion	-10.1339
▁Programme	-10.1341
▁(NL)	-10.1351
▁avenir	-10.1351
▁mécanisme	-10.1354
▁animals	-10.1359
▁Romania	-10.136
▁recours	-10.1368
▁st	-10.1372
ger	-10.1379
▁Ainsi	-10.138
▁na	-10.1381
▁concrete	-10.1385
▁décider	-10.1386
▁introduced	-10.1386
▁prévu	-10.1386
▁protocole	-10.1395
▁implique	-10.1402
▁ad	-10.1402
▁becoming	-10.1405
▁estime	-10.1407
▁debate.	-10.1408
▁Spanish	-10.1409
▁l'esprit	-10.1417
▁Some	-10.1418
▁Strasbourg	-10.1422
▁mondialisation	-10.1423
▁instance	-10.1423
▁Russian	-10.1423
▁définir	-10.1426
mer	-10.1427
▁assure	-10.1428
▁analysis	-10.1434
▁d	-10.1438
▁standard	-10.1442
▁globale	-10.1444
▁land	-10.1446
▁européens,	-10.1447
▁pension	-10.1448
▁soir	-10.1449
▁facing	-10.1451
▁visit	-10.1453
▁discours	-10.1456
▁prevention	-10.1462
▁avaient	-10.1466
and	-10.1467
▁durant	-10.1468
▁elements	-10.1471
▁montré	-10.1473
▁Nevertheless	-10.1478
▁relationship	-10.1486
▁reduced	-10.1487
▁conclu	-10.1488
▁Après	-10.1492
▁disposer	-10.1495
▁strict	-10.1497
▁parlementaires	-10.1497
▁ground	-10.1498
▁option	-10.1504
men	-10.1506
▁thinking	-10.1508
ès	-10.151
▁later	-10.1511
▁1,	-10.1524
▁d'in	-10.1525
▁cross-border	-10.1528
▁regrettable	-10.1528
▁voice	-10.1528
▁us.	-10.153
▁actual	-10.154
▁au-delà	-10.1542
▁l'ai	-10.1543
▁fraud	-10.1552
▁pointed	-10.1554
▁efficaces	-10.1559
▁fear	-10.1559
▁Ne	-10.1559
▁South	-10.156
▁climat	-10.1564
▁Iraq	-10.1565
▁UK	-10.1567
▁Conférence	-10.157
▁Belarus	-10.1571
▁network	-10.1574
▁After	-10.1582
▁negative	-10.1582
▁recommandations	-10.1591
▁differences	-10.1592
▁budget.	-10.1592
▁Messieurs	-10.1594
▁flexibility	-10.1597
ab	-10.16
▁liberalisation	-10.161
G	-10.1612
▁supplémentaire	-10.1617
mon	-10.1625
▁added	-10.1626
▁Malheureusement	-10.1627
▁J'	-10.1628
▁finance	-10.1628
▁stable	-10.1635
▁évaluation	-10.1636
▁morning	-10.164
▁Européens	-10.164
▁September	-10.1645
▁plénière	-10.1645
▁atteint	-10.1654
▁soi	-10.1655
▁négociation	-10.1668
▁van	-10.167
▁faudrait	-10.1672
▁(A5-	-10.1675
▁raise	-10.1675
▁immigrants	-10.1678
▁décharge	-10.168
▁septembre	-10.1685
▁forget	-10.1689
▁méthode	-10.1694
▁d'information	-10.1701
▁office	-10.1704
ba	-10.1705
▁Spain	-10.1712
▁Indeed	-10.1719
▁équilibre	-10.1732
ins	-10.1736
▁America	-10.174
▁simplification	-10.174
▁asking	-10.174
▁2007	-10.1741
▁matin	-10.1746
▁sea	-10.1749
▁devront	-10.1751
▁législatif	-10.1755
▁obtenu	-10.1759
▁d'améliorer	-10.1764
▁closer	-10.1764
▁faudra	-10.1766
▁critical	-10.1769
▁souhaitons	-10.1772
▁fondamentale	-10.1776
▁yesterday	-10.1779
▁Italian	-10.1781
▁repeat	-10.1783
ure	-10.1783
▁attend	-10.1784
iste	-10.1784
▁massive	-10.1787
▁armes	-10.1787
▁liées	-10.1794
▁developments	-10.1798
▁child	-10.1801
▁probably	-10.1801
▁l'une	-10.1801
▁Roumanie	-10.1804
s:	-10.1804
▁recommendations	-10.1811
▁body	-10.1812
du	-10.1812
▁sound	-10.1817
▁examine	-10.1822
▁explain	-10.1825
▁Afghanistan	-10.1839
▁avantages	-10.1851
▁strongly	-10.1852
▁method	-10.1854
ward	-10.1861
▁aborder	-10.1869
act	-10.1877
qua	-10.1878
▁minutes	-10.1882
▁bénéficier	-10.1885
▁seraient	-10.1885
U	-10.1886
▁faisons	-10.1892
▁else	-10.1898
▁stratégique	-10.1907
▁essentielle	-10.1912
▁mandate	-10.1921
▁Aujourd'hui	-10.1924
led	-10.1937
▁futur	-10.1938
▁conclusion,	-10.1939
▁applies	-10.1942
▁Palestinian	-10.1943
▁2006	-10.1943
▁exactly	-10.195
▁avions	-10.1953
ak	-10.1956
▁leaders	-10.1958
▁affect	-10.1969
▁chances	-10.1978
ful	-10.1979
▁celui-ci	-10.1979
▁représentent	-10.1983
▁run	-10.1991
▁original	-10.1996
▁faciliter	-10.2001
▁presse	-10.2001
▁Environment	-10.2012
▁system.	-10.2013
▁mécanismes	-10.2019
▁réserve	-10.202
▁Bruxelles	-10.2022
▁constitutionnel	-10.2026
▁lives	-10.203
▁drawn	-10.203
▁d'ici	-10.2035
▁renewable	-10.2036
▁networks	-10.2038
▁attempt	-10.204
gé	-10.2042
▁l'initiative	-10.205
▁November	-10.2051
▁methods	-10.2052
▁fraude	-10.2054
cul	-10.2055
▁seek	-10.2056
▁fera	-10.2056
▁discharge	-10.2062
▁milliers	-10.2062
▁mechanism	-10.2068
▁build	-10.2068
▁thème	-10.2069
▁Po	-10.2071
▁Pact	-10.2073
▁services.	-10.2074
▁presque	-10.2075
nes	-10.2081
▁opening	-10.2086
▁company	-10.2088
cu	-10.209
▁reply	-10.209
▁équitable	-10.2091
▁!	-10.2098
▁potentiel	-10.21
▁l'Union.	-10.2101
▁point.	-10.2102
isé	-10.211
▁reprises	-10.2113
▁demandons	-10.2116
▁age	-10.2117
▁Africa	-10.2128
▁Premier	-10.2135
▁auxquels	-10.2145
▁credit	-10.2148
ga	-10.215
▁novembre	-10.2156
V	-10.2157
▁submitted	-10.2159
▁examiner	-10.216
▁parlons	-10.2164
▁famille	-10.2168
▁Pakistan	-10.2169
▁modifier	-10.2175
▁médicaments	-10.218
▁extend	-10.2187
▁idée	-10.2209
▁refugees	-10.2213
▁dealt	-10.2215
▁domaine.	-10.2216
▁initial	-10.2218
▁wants	-10.222
▁su	-10.223
▁agencies	-10.223
▁regrette	-10.2233
▁consommateur	-10.2236
▁longue	-10.2238
▁big	-10.2244
▁anti-	-10.2246
▁départ	-10.2251
▁PPE-DE	-10.2251
▁Ladies	-10.2257
▁politique.	-10.2262
▁limite	-10.2264
▁Paper	-10.2268
▁Why	-10.2268
▁réelle	-10.227
▁vais	-10.2273
▁faible	-10.2275
▁heart	-10.2276
▁exercise	-10.2285
eux	-10.2285
▁improvement	-10.2289
▁professional	-10.2291
▁enormous	-10.2293
▁choice	-10.2295
▁rail	-10.2295
▁practices	-10.2302
▁defend	-10.2304
▁burden	-10.2305
▁happy	-10.231
▁development.	-10.2317
▁MEPs	-10.2318
▁s’est	-10.2319
▁m'	-10.2325
▁governance	-10.2326
ative	-10.2327
▁targets	-10.2328
▁addressed	-10.2328
▁réussi	-10.2331
▁m'a	-10.2343
▁degree	-10.2345
▁mutual	-10.2348
tent	-10.2356
▁laws	-10.2359
▁1995	-10.237
▁Ministers	-10.2376
▁Ro	-10.2376
▁seem	-10.2377
ities	-10.238
▁By	-10.2383
▁d'aide	-10.2384
▁crises	-10.2387
▁délai	-10.239
▁inform	-10.2391
▁laid	-10.2394
▁minorités	-10.2396
▁entièrement	-10.2398
▁complex	-10.24
▁montant	-10.2403
vent	-10.2404
▁Kyoto	-10.2404
port	-10.2406
▁informed	-10.2406
▁cela,	-10.2411
▁champ	-10.2414
▁putting	-10.2417
▁integrated	-10.2418
▁operation	-10.2418
▁offre	-10.2426
▁sub	-10.2427
▁stade	-10.2432
pa	-10.2434
▁pied	-10.2439
▁hier	-10.244
▁led	-10.2444
▁occasions	-10.2444
▁flexibilité	-10.2445
▁came	-10.2446
▁500	-10.2447
▁contract	-10.2454
▁confrontés	-10.2455
▁2008	-10.2457
▁growing	-10.2458
▁people,	-10.2462
▁ports	-10.2466
▁principalement	-10.2467
▁Even	-10.2467
▁servir	-10.2474
▁invite	-10.2474
▁d'emplois	-10.2476
▁l'argent	-10.2478
▁Kingdom	-10.2486
▁question,	-10.2497
▁concrètes	-10.2499
▁oeuvre	-10.2499
uv	-10.2502
▁Co	-10.2503
▁l'action	-10.2505
▁New	-10.2506
▁sujet.	-10.251
▁l'ont	-10.2511
▁managed	-10.2512
▁diversité	-10.2515
▁l'intention	-10.252
▁Middle	-10.2524
▁arrive	-10.2529
▁moindre	-10.2532
▁Trade	-10.2535
▁accidents	-10.2539
▁immediately	-10.2542
▁logique	-10.2543
ables	-10.2543
▁considérer	-10.2549
▁lumière	-10.2549
0	-10.255
▁concentrer	-10.2551
▁mainly	-10.2558
▁future,	-10.256
▁contient	-10.2568
▁direction.	-10.257
▁October	-10.2571
▁organised	-10.2575
▁probablement	-10.2581
▁n'ai	-10.2581
▁maladies	-10.259
▁fish	-10.261
▁ahead	-10.261
▁level,	-10.2621
▁réalisé	-10.2621
▁Nice	-10.2627
▁dés	-10.2627
▁sensitive	-10.2631
▁d'asile	-10.2631
▁Barroso	-10.2635
▁parliaments	-10.2636
▁Prime	-10.2637
▁judiciaire	-10.2639
▁Agency	-10.264
▁acteurs	-10.2643
▁fondamentales	-10.2645
▁limiter	-10.265
▁catastrophe	-10.2652
▁remarque	-10.2657
▁gouvernance	-10.2667
▁ideas	-10.2669
▁understanding	-10.2671
▁dépend	-10.2673
▁remarques	-10.2679
▁rejected	-10.268
▁Pourquoi	-10.2681
▁prêts	-10.2682
▁merely	-10.2683
▁unable	-10.2689
▁Democrats	-10.2691
▁appliquer	-10.2706
▁contains	-10.271
ising	-10.2712
▁signed	-10.272
all	-10.2724
▁indiqué	-10.2726
▁alone	-10.273
▁Strategy	-10.2731
▁l'encontre	-10.2731
▁locales	-10.2733
▁evidence	-10.2737
▁red	-10.2737
▁easy	-10.274
▁finalement	-10.2742
▁satisfaction	-10.2748
▁mechanisms	-10.275
ian	-10.276
hi	-10.2764
▁resolve	-10.2764
▁serve	-10.2769
▁concitoyens	-10.277
▁Charter	-10.2775
mé	-10.2778
ser	-10.2781
▁proposal.	-10.2791
tin	-10.2795
▁2,	-10.2796
▁o	-10.2799
▁programme.	-10.2799
▁orientations	-10.2801
▁femme	-10.2803
▁desire	-10.2804
ub	-10.2805
▁parlements	-10.2805
▁Health	-10.2813
▁parts	-10.2819
▁advantage	-10.2821
ho	-10.2822
▁leading	-10.2827
▁intentions	-10.2831
▁disaster	-10.2831
s'	-10.2835
▁Que	-10.2837
▁rappelle	-10.2841
ition	-10.286
fe	-10.286
▁convaincu	-10.2878
▁safe	-10.2881
▁modifications	-10.2882
▁exprimé	-10.2887
▁proportion	-10.2896
▁Chamber	-10.2897
▁mots	-10.2899
▁limites	-10.2902
▁operate	-10.2909
▁reject	-10.2913
ph	-10.2914
▁continuing	-10.2917
▁connu	-10.2918
▁prochaines	-10.2919
▁Turkish	-10.2923
▁thousands	-10.2925
▁efficacement	-10.2926
▁60	-10.2939
▁accorder	-10.2939
▁travel	-10.2945
▁préparation	-10.2946
▁oublier	-10.2947
▁représentant	-10.2948
▁Al	-10.2954
▁says	-10.2964
▁sent	-10.2971
▁l'immigration	-10.2974
iv	-10.2975
▁Many	-10.2988
▁debt	-10.2988
▁commerciales	-10.2989
▁recommandation	-10.2993
▁l'homme.	-10.2994
▁persons	-10.3001
▁adequate	-10.3002
▁extérieure	-10.3005
▁scientifiques	-10.3006
▁Même	-10.3006
▁Comment	-10.301
▁centres	-10.3013
▁ought	-10.3015
▁approuvé	-10.3045
▁recommendation	-10.3046
▁interventions	-10.3053
dre	-10.3055
▁substantial	-10.306
▁cover	-10.3063
▁range	-10.3072
▁années.	-10.3082
-f	-10.3083
▁profiter	-10.3087
▁lost	-10.3087
▁évoqué	-10.3093
▁campaign	-10.3093
▁criminalité	-10.3095
▁retour	-10.3096
▁appear	-10.3096
▁independence	-10.3098
▁véhicules	-10.3102
▁soutient	-10.3103
▁income	-10.3106
▁scientifique	-10.3107
-il	-10.3108
▁speed	-10.3108
▁l'absence	-10.311
▁disposons	-10.3111
▁services,	-10.3115
▁told	-10.3116
▁qu'a	-10.3124
▁secret	-10.313
▁elected	-10.3132
▁critiques	-10.3134
▁institutions,	-10.3136
▁worked	-10.3142
▁totale	-10.3143
▁conduct	-10.3144
▁l'Europe,	-10.3146
▁terrain	-10.315
▁méthodes	-10.3158
▁petits	-10.3171
▁euros	-10.3174
▁record	-10.3175
io	-10.3176
▁speakers	-10.3178
▁totally	-10.3179
▁finances	-10.3179
▁J’ai	-10.3183
▁comp	-10.3187
vers	-10.3189
▁problem.	-10.319
▁facile	-10.319
▁intend	-10.3195
▁établir	-10.3195
▁Amendments	-10.3196
▁argument	-10.3203
▁tient	-10.3207
dit	-10.3209
▁prend	-10.3209
iez	-10.3215
ques	-10.3217
su	-10.3226
▁guarantees	-10.3227
▁26	-10.323
▁subsidiarity	-10.3235
▁enter	-10.3243
▁elle-même	-10.3248
▁complète	-10.325
V)	-10.325
▁voisins	-10.3255
20	-10.3262
▁(The	-10.3265
▁31	-10.3268
▁transfer	-10.3276
▁well.	-10.328
▁failed	-10.3283
▁traffic	-10.3285
▁delay	-10.3286
▁wishes	-10.3287
be	-10.3291
▁conduite	-10.3291
▁payments	-10.33
▁revenir	-10.33
▁related	-10.3307
▁secure	-10.3317
▁African	-10.3318
▁1er	-10.3329
▁moi-même	-10.333
▁Mo	-10.3331
▁figures	-10.3334
▁globalisation	-10.3335
▁path	-10.3335
▁linked	-10.3343
▁lui-même	-10.3345
▁economies	-10.3348
▁territory	-10.3348
▁traités	-10.3353
▁includes	-10.3353
▁target	-10.3357
▁nation	-10.3359
▁evaluation	-10.3359
▁import	-10.3361
▁attirer	-10.3363
▁official	-10.3364
▁passagers	-10.3369
▁garanties	-10.3369
▁favoriser	-10.3369
sa	-10.3375
▁endorse	-10.3383
▁matter.	-10.3383
▁d'origine	-10.3386
▁lois	-10.3394
▁affairs	-10.3397
▁fiscal	-10.3399
bi	-10.3401
▁(ES)	-10.3401
▁cycle	-10.3402
▁bringing	-10.341
▁place.	-10.3411
▁demandes	-10.3417
▁vaste	-10.3421
▁Cuba	-10.3424
▁voire	-10.3426
ite	-10.3426
administration	-10.3427
▁sens,	-10.3431
▁attack	-10.3435
▁2010	-10.3435
ke	-10.3441
▁families	-10.3443
▁grateful	-10.3446
▁siècle	-10.3449
▁SMEs	-10.345
▁involvement	-10.3452
ification	-10.3461
▁lettre	-10.3462
▁précis	-10.3466
▁Structural	-10.347
▁moral	-10.3472
▁goal	-10.3472
▁environnement	-10.3473
▁membership	-10.3473
av	-10.3474
da	-10.3475
acc	-10.3478
▁Monetary	-10.3479
use	-10.3479
▁Pro	-10.3479
▁sentiment	-10.3483
▁mobilité	-10.3485
▁firm	-10.3487
▁régional	-10.3493
der	-10.3495
▁citoyen	-10.3495
▁treaty	-10.3499
▁obvious	-10.35
▁formes	-10.3502
▁intérieures	-10.3503
ring	-10.3506
▁navires	-10.3506
out	-10.3506
▁problème.	-10.351
▁l'avis	-10.3511
fa	-10.3512
▁involving	-10.3512
▁faites	-10.3514
▁lower	-10.3519
▁now,	-10.352
▁element	-10.3528
▁facilitate	-10.3536
▁modern	-10.3543
▁changer	-10.3545
▁envisage	-10.3547
▁way,	-10.3549
▁Alors	-10.3552
▁areas.	-10.3553
▁round	-10.3553
▁réussite	-10.3562
▁Policy	-10.3563
▁referendum	-10.3564
▁disease	-10.3566
▁trafficking	-10.3567
03	-10.3568
▁d'application	-10.357
▁opposed	-10.357
▁them,	-10.3572
▁terrible	-10.3573
▁(RO)	-10.3573
▁Depuis	-10.3573
▁nucléaires	-10.3575
▁resolutions	-10.3581
▁humaine	-10.3587
▁étape	-10.3589
▁weapons	-10.3593
▁getting	-10.3594
ability	-10.3594
fi	-10.3595
▁précédent	-10.36
▁29	-10.3602
▁way.	-10.3614
▁highlight	-10.3616
▁conventions	-10.3617
▁tackle	-10.3617
▁européennes.	-10.3618
▁North	-10.3619
▁poursuite	-10.3619
▁28	-10.3622
▁Bo	-10.3622
▁ready	-10.3624
▁actuelle,	-10.3625
▁Council's	-10.3626
▁renouvelables	-10.3626
ach	-10.3628
▁rates	-10.363
▁consistent	-10.3637
▁factor	-10.3639
▁impression	-10.364
▁empêcher	-10.3642
▁Cyprus	-10.3643
▁évidence	-10.3652
gouvernementale	-10.3658
raient	-10.3658
▁law,	-10.3661
▁ca	-10.3668
▁échanges	-10.3674
▁existence	-10.3678
▁ajouter	-10.3682
▁chefs	-10.3683
▁Mar	-10.3684
▁idées	-10.3686
▁truly	-10.3689
▁penser	-10.369
elle	-10.3692
▁extra	-10.3692
▁faced	-10.3695
▁Con	-10.3698
▁immediate	-10.3699
▁extension	-10.3701
▁vertu	-10.3701
▁perdu	-10.3703
lle	-10.3706
▁circonstances	-10.3707
▁correspond	-10.3712
ha	-10.3713
▁relever	-10.3714
▁agences	-10.3715
▁terroristes	-10.3716
▁campagne	-10.3717
▁gr	-10.3719
▁protecting	-10.3725
▁drugs	-10.3727
▁election	-10.3728
▁technologie	-10.3739
▁accrue	-10.374
▁haute	-10.3741
▁Certains	-10.3742
▁plenary	-10.3748
▁quelles	-10.3753
▁religion	-10.3753
▁commerciaux	-10.3754
▁crisis.	-10.3756
▁supervision	-10.3763
▁augmenter	-10.3766
▁justement	-10.3769
lic	-10.3771
▁durée	-10.3775
▁bad	-10.3784
▁insist	-10.3794
▁recognised	-10.3794
fin	-10.3797
▁proceed	-10.38
ised	-10.3806
▁gender	-10.3813
▁tourism	-10.3813
▁happening	-10.3818
ning	-10.3826
▁sociale.	-10.3829
▁communautaire.	-10.3834
▁chiffres	-10.3834
▁decision-making	-10.3838
▁économique.	-10.3842
▁déterminer	-10.3843
▁véritablement	-10.3843
▁greatest	-10.3845
▁pensions	-10.3847
▁forced	-10.3848
▁historique	-10.3855
▁concernées	-10.3857
▁St	-10.3869
▁starting	-10.3871
▁charges	-10.3873
▁extérieures	-10.3876
▁heures	-10.3877
▁ans.	-10.3884
▁progresser	-10.3891
▁granted	-10.3897
d.	-10.3902
▁souhait	-10.3902
▁disponibles	-10.3903
▁législative	-10.3905
▁Poland	-10.391
▁Van	-10.3914
01	-10.392
▁d'urgence	-10.3922
▁prison	-10.3927
▁produire	-10.3935
▁issues.	-10.3935
▁relatifs	-10.3936
▁followed	-10.3937
▁acts	-10.3944
pos	-10.3944
▁mentionné	-10.3946
▁estimons	-10.3948
▁raisonnable	-10.3948
né	-10.395
▁talks	-10.3953
▁absence	-10.396
ière	-10.3965
▁sujets	-10.3973
▁confirm	-10.3977
▁juillet	-10.3979
▁arrangements	-10.3984
▁Budget	-10.3987
▁Roma	-10.3989
▁insister	-10.3997
▁attendre	-10.4001
▁dirigeants	-10.4001
▁porter	-10.4002
▁covered	-10.4002
▁spécial	-10.4004
▁diversity	-10.4004
▁us,	-10.4006
▁vite	-10.4012
▁ceux-ci	-10.4015
▁préalable	-10.4017
▁exploitation	-10.4018
▁interesting	-10.4021
ran	-10.4026
▁distinction	-10.4029
-t-il	-10.403
▁Lorsque	-10.4044
▁Maastricht	-10.4046
▁calendrier	-10.4046
▁bilateral	-10.4046
▁d'é	-10.4048
▁forum	-10.405
▁immédiatement	-10.405
▁reflect	-10.4051
▁minorities	-10.4055
▁entend	-10.4055
▁July	-10.4056
▁accepté	-10.4056
▁cancer	-10.4059
/9	-10.4059
▁français	-10.406
▁petit	-10.4062
vis	-10.4067
▁devait	-10.4068
▁adopting	-10.4069
▁fiscale	-10.4069
▁board	-10.4069
▁competence	-10.4073
▁legislation.	-10.4074
▁mobility	-10.4074
▁faite	-10.4076
▁controls	-10.408
▁l'amélioration	-10.4082
▁répond	-10.4085
▁applicable	-10.4095
▁délais	-10.4098
▁Funds	-10.4105
▁conséquence	-10.4106
▁UE	-10.4108
▁sides	-10.4109
▁d'aujourd'hui	-10.411
▁seeking	-10.4113
▁chemin	-10.4116
▁inacceptable	-10.4117
lar	-10.4126
▁ferme	-10.4127
▁PSE	-10.4133
▁shared	-10.4136
▁USA	-10.4137
▁lines	-10.4137
▁assume	-10.4139
▁cultures	-10.4142
▁suffering	-10.4142
▁letter	-10.4143
▁comply	-10.4149
▁avancer	-10.4163
▁utilisation	-10.4165
ration	-10.4166
ton	-10.4167
▁réaction	-10.4173
▁d'emploi	-10.4174
▁tonnes	-10.4174
▁Sweden	-10.418
▁d'éviter	-10.418
▁ability	-10.4183
ide	-10.4183
▁militaires	-10.4185
▁visas	-10.4187
▁involve	-10.4198
▁sp	-10.4199
▁l'innovation	-10.42
▁carefully	-10.4205
▁règlements	-10.4207
▁l'introduction	-10.4209
▁acquis	-10.4212
▁Avec	-10.4213
▁mises	-10.4216
▁Thirdly,	-10.4216
▁l'état	-10.4223
▁(EL)	-10.4226
▁society.	-10.4227
▁criticism	-10.4228
▁Socialist	-10.4229
cro	-10.423
▁fi	-10.4231
ious	-10.4232
▁ressort	-10.4232
▁presence	-10.4232
▁contacts	-10.4234
hé	-10.4238
▁bi	-10.4238
▁General	-10.4242
▁science	-10.4242
▁ouverte	-10.4245
▁manage	-10.4246
▁subventions	-10.4248
▁créé	-10.4249
▁l’on	-10.4256
▁Question	-10.4259
▁monitor	-10.4259
▁changed	-10.4259
▁l’avenir	-10.4261
▁Pologne	-10.4268
▁Affairs,	-10.4269
ish	-10.4271
▁Public	-10.4274
he	-10.4287
▁Greek	-10.4294
▁floor	-10.4294
▁signé	-10.4297
▁fail	-10.4298
▁pi	-10.4301
▁devrons	-10.4302
▁minute	-10.4302
▁m	-10.4304
▁j'aimerais	-10.4304
pprovisionnement	-10.4306
▁contrôler	-10.4315
▁établi	-10.4315
▁ordre	-10.4318
▁House.	-10.432
▁octobre	-10.432
▁fins	-10.432
▁While	-10.4323
▁Berlin	-10.4327
▁front	-10.4328
▁200	-10.4329
▁soutenons	-10.433
▁vehicles	-10.4335
▁subsidies	-10.4338
▁concentration	-10.4339
▁espace	-10.4343
▁puissions	-10.4343
/2001	-10.4346
▁N	-10.4346
▁thereby	-10.4348
▁auront	-10.4353
▁Bulgaria	-10.4356
▁monde,	-10.4357
ng	-10.4358
▁worth	-10.4359
ka	-10.436
▁detailed	-10.4365
▁PPE	-10.4366
▁diverses	-10.4368
▁detail	-10.4369
▁proposing	-10.4373
▁jeu	-10.4375
▁maladie	-10.4379
▁mé	-10.438
▁réponses	-10.438
▁torture	-10.438
▁différences	-10.4382
▁month	-10.4383
▁suppression	-10.4383
▁communities	-10.4384
▁marchandises	-10.4395
▁debates	-10.44
▁designed	-10.4401
▁Bureau	-10.4402
▁États-Unis,	-10.4403
▁portant	-10.441
▁citizens,	-10.4412
▁judicial	-10.4414
▁J	-10.4414
▁viande	-10.4416
▁relève	-10.4416
nant	-10.4417
▁ambitieux	-10.4425
▁eaux	-10.4431
▁Israël	-10.4431
▁utilisés	-10.4432
▁compagnies	-10.4434
▁vert	-10.4442
▁Troisièmement	-10.4444
▁socialiste	-10.4447
▁too.	-10.4456
▁Swedish	-10.4459
▁refuse	-10.4465
▁statistiques	-10.4466
▁sociale,	-10.4466
fer	-10.4468
▁langues	-10.4468
▁parlement	-10.4473
▁exception	-10.4474
pé	-10.4478
▁réflexion	-10.4479
▁accident	-10.4488
▁circumstances	-10.4488
▁fonctionne	-10.4491
▁options	-10.4495
▁traditional	-10.4499
▁Sea	-10.4501
▁spent	-10.4505
▁Italy	-10.4506
▁l'évolution	-10.4509
▁action.	-10.4509
tor	-10.4512
▁aujourd'hui.	-10.4513
▁Auditors	-10.4515
▁head	-10.4516
▁aurons	-10.4516
▁series	-10.452
tal	-10.4527
▁emphasis	-10.453
▁arms	-10.4531
éc	-10.4532
▁participate	-10.4533
▁qu’une	-10.4535
▁Ra	-10.4536
▁essentiels	-10.4537
▁utilisé	-10.4538
▁prove	-10.4543
▁planning	-10.4545
▁separate	-10.4546
▁étroite	-10.4548
▁portée	-10.4549
▁Suède	-10.4552
▁revenus	-10.4556
▁fulfil	-10.4558
▁poids	-10.4559
tri	-10.4562
▁assist	-10.4562
▁développement,	-10.4564
sta	-10.4572
▁langue	-10.4572
▁essentiellement	-10.4574
▁approval	-10.4578
▁l'opinion	-10.459
▁correctement	-10.4593
▁anyone	-10.4595
▁binding	-10.4596
▁exactement	-10.4597
▁minority	-10.46
ages	-10.46
▁seuls	-10.4602
▁naturally	-10.4606
▁expected	-10.4614
▁fasse	-10.4615
▁banques	-10.4616
▁suffit	-10.4618
▁declaration	-10.4619
▁reasonable	-10.4632
pplaudissements)	-10.4637
▁fil	-10.4642
▁parents	-10.4642
▁familles	-10.4644
▁lancer	-10.4645
▁counter	-10.4645
▁passage	-10.4648
▁Rule	-10.4653
▁representative	-10.4657
▁rendu	-10.466
▁economy.	-10.4664
▁hours	-10.4674
▁2000,	-10.4682
▁reconnu	-10.4685
▁mo	-10.4687
▁combien	-10.4694
▁consumption	-10.4697
▁trouvent	-10.4697
▁otherwise	-10.4704
▁tests	-10.4706
▁environ	-10.4708
▁offrir	-10.4708
▁n'était	-10.4711
▁Europol	-10.4711
▁credibility	-10.4714
ably	-10.4715
▁d’accord	-10.4715
ade	-10.4717
▁paper	-10.4718
▁crisis,	-10.4718
▁règle	-10.4728
▁Eastern	-10.4728
▁consommateurs.	-10.473
▁tend	-10.473
▁apporté	-10.4731
▁Be	-10.4734
▁amend	-10.4734
▁Energy	-10.4735
rs	-10.4737
▁exige	-10.4737
▁d'informations	-10.4738
▁l'avenir.	-10.4745
tandis	-10.4748
▁obtain	-10.4751
▁financer	-10.4752
▁People'	-10.4752
▁region.	-10.4752
▁tour	-10.4758
▁peaceful	-10.4759
▁préserver	-10.4767
tu	-10.4772
ber	-10.4776
▁organisée	-10.4776
▁l’environnement	-10.4779
▁Tous	-10.4786
▁implications	-10.4786
ris	-10.4792
▁d’être	-10.4794
▁agreement.	-10.4795
▁80	-10.4804
▁transactions	-10.4805
▁points.	-10.4805
▁frais	-10.4807
▁meetings	-10.481
▁April	-10.481
▁joue	-10.4811
rie	-10.4816
▁réalisés	-10.4817
▁House,	-10.4817
▁improvements	-10.4821
▁employees	-10.4833
▁lose	-10.4835
▁préparer	-10.4841
▁garde	-10.4845
lement	-10.4846
▁choisi	-10.4848
▁then,	-10.4849
▁adoptées	-10.485
▁inclusion	-10.4851
ding	-10.487
▁Ha	-10.4871
▁worse	-10.4872
▁rec	-10.4872
▁rapid	-10.4873
▁im	-10.4873
▁pourrions	-10.4873
▁Procedure	-10.4874
▁gave	-10.4879
▁conviction	-10.4881
▁committees	-10.4881
▁manner	-10.4886
▁continues	-10.4888
▁Bulgarie	-10.4896
▁citizen	-10.4898
▁Such	-10.4904
▁amongst	-10.4907
▁questions.	-10.4909
▁terrorist	-10.4911
▁fortement	-10.4914
▁parvenus	-10.4915
▁religious	-10.4921
▁entreprise	-10.4925
▁wonder	-10.4927
▁annuel	-10.4928
▁fermement	-10.4934
▁certes	-10.4934
lin	-10.4935
▁étude	-10.4939
od	-10.4944
▁souci	-10.4948
hor	-10.4953
▁hausse	-10.4955
ble	-10.4957
▁payer	-10.4958
▁Only	-10.4964
▁Agriculture	-10.4976
▁Treaty.	-10.4977
ons-nous	-10.4977
▁domestic	-10.498
ice	-10.4981
▁1.	-10.4984
nel	-10.4985
▁decisive	-10.4987
▁environment.	-10.4996
▁destinés	-10.4999
▁solve	-10.5002
▁regulatory	-10.5005
▁neither	-10.5008
▁d'adopter	-10.5008
▁d'assurer	-10.5008
▁restent	-10.501
▁premières	-10.5012
▁glad	-10.5014
gen	-10.5018
▁Assemblée,	-10.5021
▁crédibilité	-10.5022
▁eux-mêmes	-10.5025
▁entry	-10.5029
▁mauvaise	-10.5033
▁politicians	-10.504
▁êtes	-10.5043
▁adéquate	-10.5046
▁pl	-10.5046
▁lies	-10.5055
▁catastrophes	-10.5055
▁late	-10.5059
▁supports	-10.506
uel	-10.5066
way	-10.5069
▁j'estime	-10.5071
▁started	-10.5074
▁link	-10.5082
our	-10.5087
▁rejet	-10.5088
ay	-10.5089
▁voulu	-10.5092
▁esprit	-10.5099
▁transit	-10.51
▁meilleures	-10.5103
▁comprends	-10.5106
▁organisé	-10.5108
▁fais	-10.5109
▁Those	-10.511
▁recovery	-10.5112
▁cesse	-10.5115
▁association	-10.5122
▁abuse	-10.5124
▁generally	-10.5127
▁Agenda	-10.5129
▁viens	-10.5133
▁tabac	-10.5134
▁invest	-10.5135
ors	-10.5138
▁Czech	-10.5149
▁précise	-10.5151
ob	-10.5152
▁encouraging	-10.5153
▁limits	-10.516
uff	-10.5162
▁whilst	-10.5163
▁savez,	-10.5167
▁bases	-10.5168
▁concernés	-10.5175
▁w	-10.5183
rais	-10.5184
▁From	-10.5188
▁cœur	-10.5195
▁problems.	-10.5199
▁acknowledge	-10.5207
▁States'	-10.5212
mit	-10.5212
▁complexe	-10.5212
car	-10.5215
▁concerned.	-10.5219
▁factors	-10.5222
▁communications	-10.5225
▁easier	-10.5228
▁Yet	-10.5228
▁réfléchir	-10.5231
istes	-10.5233
▁sexual	-10.5254
▁arriver	-10.5255
▁visite	-10.5261
▁hors	-10.5261
investissement	-10.5262
ical	-10.5264
02	-10.5267
▁material	-10.5268
▁signaler	-10.527
▁bien-être	-10.5274
▁l'A	-10.5276
▁connaît	-10.5277
▁combattre	-10.5279
▁Commission’s	-10.5282
▁culturelle	-10.5293
▁Gaza	-10.5296
▁goals	-10.5297
▁delighted	-10.53
▁viable	-10.53
▁notion	-10.5307
▁proposée	-10.5317
▁n'existe	-10.5321
▁paraît	-10.5322
è	-10.5323
»,	-10.5325
▁revêt	-10.5326
▁Zimbabwe	-10.5329
▁commentaires	-10.5334
▁autres,	-10.5335
▁grounds	-10.5335
ys	-10.5348
▁moving	-10.535
▁l'espace	-10.5352
▁Western	-10.5354
▁Lisbonne.	-10.5355
▁pacifique	-10.5358
▁cohérente	-10.5366
▁Legal	-10.537
▁scale	-10.5372
▁commune.	-10.5374
king	-10.5374
▁dehors	-10.5379
▁Research	-10.5379
▁d’abord	-10.538
▁welfare	-10.5383
▁entière	-10.5388
▁région.	-10.5389
▁cohérence	-10.5394
▁requirement	-10.5399
▁legitimate	-10.5405
▁imposed	-10.5408
▁principales	-10.5413
▁fut	-10.5416
▁Quelle	-10.5418
▁volume	-10.5419
▁(Le	-10.5426
▁stock	-10.5427
▁appears	-10.5427
▁attacks	-10.5429
▁politics	-10.543
▁tôt	-10.5434
▁lancé	-10.5435
▁l'OMC	-10.5435
▁L	-10.5436
▁equally	-10.5444
▁contribué	-10.5445
▁reprise	-10.5446
ries	-10.5446
▁constituer	-10.5448
▁introduit	-10.545
▁fruit	-10.545
▁trouvé	-10.545
▁enjoy	-10.5451
▁Market	-10.5452
▁(Applause)	-10.5453
▁débat.	-10.5455
▁attendons	-10.5457
▁préoccupation	-10.5458
▁l'an	-10.546
▁constitutional	-10.5461
▁dire,	-10.5466
▁l'élaboration	-10.5467
▁compatible	-10.5471
▁associations	-10.5473
▁revient	-10.5474
▁compliance	-10.5478
▁J'estime	-10.5482
▁Lisbonne,	-10.5484
▁l'eau	-10.5487
▁déposé	-10.5488
▁ouvert	-10.5497
▁positifs	-10.5498
▁Rome	-10.5498
▁Israeli	-10.55
▁modernisation	-10.5501
▁banks	-10.5502
chi	-10.5503
▁cooperate	-10.5504
▁Chypre	-10.5511
▁commerciale	-10.5511
▁constate	-10.5513
▁paiement	-10.552
▁partner	-10.5522
▁uniform	-10.5533
isée	-10.5534
▁system,	-10.5546
▁interne	-10.5548
▁française	-10.555
▁vaut	-10.5557
▁seven	-10.5557
▁fonctionnaires	-10.556
▁languages	-10.556
▁approve	-10.5561
▁souhaitent	-10.5561
▁leadership	-10.5571
▁cooperation.	-10.5577
▁century	-10.5582
▁actuelles	-10.5582
▁exclusion	-10.5591
▁suggestions	-10.5601
▁spending	-10.5605
▁Moyen-Orient	-10.5608
▁post	-10.5609
▁aérien	-10.5609
-t-elle	-10.561
▁évolution	-10.5611
form	-10.5616
▁L'Europe	-10.5617
▁qu’un	-10.5618
▁conservation	-10.5623
▁juge	-10.5629
▁resolved	-10.5631
▁entendre	-10.5633
▁Livre	-10.5634
▁missions	-10.5638
ju	-10.5638
▁permettent	-10.564
▁evening	-10.564
▁observations	-10.5644
▁c'	-10.5648
▁convenu	-10.5649
▁safeguard	-10.5652
▁opérations	-10.5658
▁marge	-10.5661
bre	-10.5664
▁protest	-10.5666
▁réserves	-10.5666
▁Not	-10.5671
▁fighting	-10.5673
▁suppose	-10.568
▁forthcoming	-10.5682
▁appropriations	-10.5682
▁comportement	-10.5685
▁Netherlands	-10.5686
issent	-10.5688
▁truth	-10.569
▁interested	-10.5691
▁progressive	-10.5695
▁payment	-10.5696
▁Action	-10.5708
▁acte	-10.571
▁auxquelles	-10.5712
▁formal	-10.5712
▁guaranteed	-10.5715
▁Copenhague	-10.5716
▁erreur	-10.5716
▁terminer	-10.5717
▁communautés	-10.5718
▁count	-10.5722
▁d'intérêt	-10.5731
▁tobacco	-10.5731
▁garder	-10.5738
▁personally	-10.574
▁negotiating	-10.5743
▁today's	-10.5744
▁fixer	-10.5744
mar	-10.5747
▁NATO	-10.575
▁considérables	-10.5751
▁supprimer	-10.5754
▁Charte	-10.5755
▁Stability	-10.5758
▁placed	-10.5761
iers	-10.5764
▁Copenhagen	-10.5765
▁moitié	-10.5765
▁d'Amsterdam	-10.5777
▁helping	-10.578
▁labelling	-10.5785
▁entreprises.	-10.5791
ux	-10.5797
▁conseil	-10.5805
▁mode	-10.5807
▁violent	-10.5814
▁référendum	-10.5815
▁capitale	-10.5821
▁entreprises,	-10.5828
tes	-10.5831
▁suffer	-10.5832
▁clarify	-10.5834
▁intéressant	-10.5837
▁likely	-10.5837
eff	-10.5838
tique	-10.5841
▁alternatives	-10.5843
side	-10.5847
ster	-10.585
▁issue,	-10.5852
▁area,	-10.5856
▁operations	-10.5857
▁tendance	-10.587
▁Baltic	-10.5872
cre	-10.5874
▁faits	-10.5877
▁learn	-10.5882
▁Ex	-10.5883
nn	-10.5886
▁vouloir	-10.5895
▁CE	-10.5897
▁trading	-10.5899
▁obligatoire	-10.5903
▁realise	-10.5905
rant	-10.5906
▁customs	-10.5909
▁wide	-10.5913
nu	-10.5914
▁l'impact	-10.5918
▁Non	-10.5919
▁scheme	-10.592
▁articles	-10.5921
▁defined	-10.5924
▁vivre	-10.5925
▁Croatia	-10.5929
▁numerous	-10.5929
▁renforcée	-10.5933
▁plein	-10.5934
▁expérience	-10.5935
▁allowing	-10.5936
▁mass	-10.5938
▁touche	-10.5947
▁Consumer	-10.5948
▁l'accent	-10.5952
▁J'aimerais	-10.5952
▁vivent	-10.5956
▁conflicts	-10.5959
▁proposés	-10.5959
mm	-10.5962
und	-10.5962
▁législatives	-10.5962
▁voluntary	-10.5964
▁demonstrate	-10.5965
▁débattre	-10.5965
▁According	-10.5967
s;	-10.5973
▁freedoms	-10.5976
des	-10.5982
▁Canada	-10.5983
▁lien	-10.5989
▁continued	-10.5992
▁difficiles	-10.5998
▁codécision	-10.5999
▁diseases	-10.5999
gue	-10.6004
▁Aussi	-10.6006
▁Organisation	-10.6007
▁ECU	-10.6009
▁prêt	-10.6011
▁différence	-10.6011
▁d'adhésion	-10.6014
▁subsidiarité	-10.6016
▁politiques.	-10.6023
▁tenter	-10.6025
▁universal	-10.6026
▁blanc	-10.6033
rou	-10.6035
▁l	-10.6035
▁sérieusement	-10.6037
▁demonstrated	-10.6039
ang	-10.6041
▁majeure	-10.6045
▁l'échelle	-10.6045
er.	-10.6045
▁gain	-10.6049
▁personnellement	-10.605
▁fine	-10.6061
▁associated	-10.6062
▁effectiveness	-10.6065
▁consommateurs,	-10.6068
▁pêcheurs	-10.6075
▁régionales	-10.6082
ég	-10.6085
ateur	-10.6087
▁ho	-10.6095
issant	-10.61
▁pétrole	-10.6108
▁concernent	-10.611
▁Plus	-10.611
▁activité	-10.6113
▁remarks	-10.6114
▁Fa	-10.6117
▁détail	-10.6118
▁solution.	-10.6123
iques	-10.6124
▁investments	-10.6126
ping	-10.6131
▁phénomène	-10.6133
▁études	-10.6134
▁suggest	-10.6136
▁revision	-10.6136
ff	-10.6138
▁constant	-10.6144
non	-10.6146
▁Méditerranée	-10.6147
▁condemn	-10.615
▁recevoir	-10.6151
▁tr	-10.6153
▁Another	-10.6155
▁Vice-President	-10.6155
▁Head	-10.6157
▁honour	-10.6157
▁actuels	-10.6169
▁Framework	-10.6171
▁connaître	-10.6171
▁Quant	-10.6171
▁amélioration	-10.6173
(	-10.6176
▁démocrates	-10.6177
▁l'augmentation	-10.6177
▁High	-10.6179
▁qualifications	-10.6179
▁sécurité.	-10.6181
▁space	-10.6182
ateurs	-10.6185
▁imposer	-10.6189
▁profits	-10.619
▁Éta	-10.6192
▁functioning	-10.6205
▁proposes	-10.6209
▁présentée	-10.6209
▁Lastly	-10.6209
▁tchèque	-10.621
▁written	-10.621
▁carte	-10.6216
▁process,	-10.6218
▁tasks	-10.6221
ain	-10.6224
▁énorme	-10.6226
▁tried	-10.6227
▁fuel	-10.6231
▁incombe	-10.6232
▁comporte	-10.6233
▁oppose	-10.6234
▁ultimately	-10.6236
gi	-10.6243
▁destinées	-10.6244
▁average	-10.6246
-up	-10.6248
▁Alliance	-10.625
▁tradition	-10.6251
▁élevés	-10.6253
▁ethnic	-10.6258
▁India	-10.6264
▁prête	-10.6269
▁d'obtenir	-10.6273
▁engage	-10.6277
▁harm	-10.6278
▁contained	-10.6281
▁industry.	-10.6281
▁justice.	-10.6285
▁Br	-10.6287
▁clé	-10.6289
▁discuté	-10.6289
▁celles-ci	-10.629
▁Assemblée.	-10.6294
30	-10.6295
▁aliments	-10.6298
▁appropriée	-10.6298
▁préciser	-10.6299
▁Portuguese	-10.6301
cour	-10.6305
▁partout	-10.631
▁dangereux	-10.631
▁propriété	-10.6313
▁U	-10.6314
▁support.	-10.6314
▁brief	-10.6318
▁technological	-10.6321
▁transfert	-10.6323
▁operators	-10.6323
▁capacités	-10.6333
▁spoke	-10.6334
▁Ombudsman	-10.6337
int	-10.6338
▁Budgets	-10.6339
▁confusion	-10.6342
▁significative	-10.6345
▁l'histoire	-10.6345
▁fondée	-10.6346
▁concluded	-10.6347
▁réel	-10.6349
▁chapitre	-10.6349
▁protected	-10.6351
▁ba	-10.6354
▁accordée	-10.6358
▁respective	-10.6361
▁primarily	-10.6361
▁policies.	-10.6364
▁gap	-10.6367
▁irlandais	-10.6373
▁Pays-Bas	-10.6378
▁seconde	-10.6382
▁anti	-10.6384
▁Financial	-10.6386
▁avril	-10.6386
▁visible	-10.6386
▁pilier	-10.6387
▁claires	-10.6388
▁dignité	-10.6398
▁industrielle	-10.64
▁justified	-10.6408
▁voyage	-10.641
▁facteurs	-10.6411
▁PAC	-10.6414
▁appreciate	-10.6419
▁privé	-10.6424
▁cons	-10.6427
antes	-10.6433
▁prepare	-10.6437
▁Austria	-10.6439
▁l'engagement	-10.644
▁Avant	-10.6441
▁succeed	-10.6445
▁élargissement	-10.6446
▁terre	-10.645
▁nécessite	-10.6451
▁orientale	-10.6453
▁overcome	-10.6454
▁vo	-10.6461
▁relativement	-10.6462
▁dignity	-10.6462
▁statistics	-10.6463
▁wine	-10.6464
cal	-10.6465
▁awareness	-10.6465
▁C'	-10.6466
▁entitled	-10.6466
▁l'exercice	-10.6475
▁2.	-10.6477
▁difference	-10.6479
bli	-10.648
▁conscients	-10.6481
▁feed	-10.6487
▁naturelles	-10.6487
▁...	-10.6487
▁division	-10.6487
ization	-10.6495
▁purposes	-10.6498
▁paiements	-10.65
▁disasters	-10.65
▁electronic	-10.6503
▁Lors	-10.6505
▁l'évaluation	-10.6507
▁problématique	-10.6507
▁work,	-10.6511
isant	-10.6513
▁define	-10.6515
▁matières	-10.652
▁exists	-10.6528
▁obstacle	-10.6531
▁quels	-10.6536
▁réunions	-10.6539
▁passed	-10.6542
lor	-10.6546
▁taxe	-10.6551
▁?uvre	-10.6553
▁ajoutée	-10.6555
▁dépit	-10.6561
▁ignore	-10.6561
▁penalty	-10.6568
▁change.	-10.6569
▁marque	-10.657
▁Despite	-10.6572
▁played	-10.6573
▁sortir	-10.6575
▁plant	-10.6577
▁hearing	-10.6589
▁Li	-10.659
▁allocated	-10.6591
▁favorables	-10.6593
▁petite	-10.6595
▁adhésion	-10.6597
▁involves	-10.66
▁officials	-10.6605
▁heures.	-10.6608
▁population.	-10.6617
▁sens.	-10.6619
▁égard.	-10.6625
▁35	-10.6631
▁permettrait	-10.6632
▁Given	-10.6634
▁2000.	-10.6636
▁got	-10.6637
▁intervenir	-10.6638
▁d'autant	-10.6638
▁centrales	-10.664
ja	-10.6644
▁résolutions	-10.6644
▁emergency	-10.6647
▁vois	-10.6647
▁existent	-10.6651
▁prévue	-10.6654
▁inquiétudes	-10.6654
▁audit	-10.6657
tend	-10.6657
▁loss	-10.6658
▁Dutch	-10.6659
▁Irlande	-10.6659
▁Treaties	-10.6663
▁treated	-10.6664
▁ver	-10.6666
ment.	-10.6666
▁complètement	-10.6668
▁ir	-10.6668
▁principale	-10.6679
▁serons	-10.6679
▁Chinese	-10.6682
▁répéter	-10.6684
▁Transport	-10.6684
▁traditions	-10.6686
▁migrants	-10.6687
▁firmly	-10.6687
▁savez	-10.6688
▁livre	-10.6688
▁Treaty,	-10.6689
▁humain	-10.6694
▁whatever	-10.6694
vant	-10.6698
▁février	-10.6705
▁opt	-10.6705
▁dumping	-10.6705
▁democracy.	-10.6705
▁Georgia	-10.6709
▁nevertheless	-10.6709
▁holding	-10.6709
▁prime	-10.6711
▁pursue	-10.6711
▁ambition	-10.6722
▁vulnerable	-10.6725
▁closed	-10.6728
▁position.	-10.6731
▁farming	-10.6732
▁extended	-10.6734
▁context,	-10.6742
▁temporary	-10.6746
▁mentionner	-10.6748
▁suit	-10.675
▁development,	-10.675
▁baisse	-10.6754
▁requested	-10.6756
▁capables	-10.6757
▁organ	-10.6761
▁amounts	-10.6768
▁consolidation	-10.6771
▁pouvait	-10.6771
▁organes	-10.6772
▁peoples	-10.6773
▁homme	-10.6774
▁détermination	-10.6784
▁l’ensemble	-10.6789
▁1990	-10.6789
▁compter	-10.6791
▁70	-10.6792
▁bar	-10.6792
▁planned	-10.6794
▁publicité	-10.6801
▁vague	-10.6802
▁Dur	-10.6804
▁abus	-10.6804
mb	-10.6805
▁(HU	-10.6809
▁prévenir	-10.6809
pol	-10.6811
▁proposées	-10.6813
▁mauvais	-10.6814
▁mutuelle	-10.6827
▁lu	-10.6828
▁recall	-10.683
ly.	-10.6834
▁formulation	-10.6836
ici	-10.6837
▁perdre	-10.6838
▁Palestine	-10.6838
▁formuler	-10.6846
▁s’il	-10.685
▁installations	-10.6853
▁d'établir	-10.6856
▁90	-10.686
▁autour	-10.6861
▁February	-10.6864
▁CAP	-10.6864
▁unless	-10.6866
stitut	-10.6871
▁nécessaire.	-10.6875
▁siège	-10.6876
▁communs	-10.688
▁rep	-10.6883
▁citizens'	-10.6887
▁Ensuite	-10.6889
▁plaisir	-10.6889
▁realistic	-10.689
▁faire.	-10.6891
▁itself.	-10.6895
▁passengers	-10.6898
▁textile	-10.6899
▁territorial	-10.69
▁l'organisation	-10.6905
▁Perhaps	-10.6906
▁latter	-10.6906
▁check	-10.6906
▁Can	-10.6908
▁somewhat	-10.691
▁Ca	-10.6917
▁d'argent	-10.6919
▁croire	-10.6923
▁agency	-10.6923
▁administratives	-10.6924
line	-10.6927
▁please	-10.6928
▁refus	-10.6928
over	-10.6929
▁nu	-10.693
▁Assembly	-10.6936
▁imports	-10.6939
▁vérité	-10.6944
pt	-10.6944
▁Pa	-10.6945
▁américain	-10.6946
▁répartition	-10.6949
▁ravi	-10.6952
▁orateurs	-10.6953
▁3,	-10.6957
▁mené	-10.6957
▁désir	-10.6964
ight	-10.6966
â	-10.6969
▁directrices	-10.697
▁jour,	-10.6983
▁réglementations	-10.6989
iel	-10.699
▁secondly	-10.6993
▁terme.	-10.6994
▁patent	-10.6996
▁Here	-10.6997
▁constaté	-10.6998
▁ministers	-10.7002
▁envisager	-10.7011
▁silence	-10.7013
▁auraient	-10.7013
▁sous-	-10.7014
▁Ta	-10.7019
▁venu	-10.7019
▁comprend	-10.7024
▁ambitions	-10.7025
▁preventing	-10.703
▁capitaux	-10.703
▁villes	-10.7032
▁individuals	-10.7039
we	-10.704
▁facteur	-10.7042
▁l'intérieur	-10.7043
▁conception	-10.7045
▁Du	-10.7047
▁Vi	-10.705
▁l'approche	-10.705
▁soumettre	-10.7051
▁tenue	-10.7061
▁radical	-10.7067
▁2009.	-10.7068
▁tentative	-10.7068
▁Fundamental	-10.7068
▁l'avons	-10.7069
▁temporaire	-10.7073
▁hui	-10.7074
honorable	-10.7075
▁sites	-10.7083
▁insurance	-10.7086
▁Sans	-10.7086
▁More	-10.7088
▁advance	-10.7093
▁clarification	-10.7094
▁constantly	-10.71
▁compared	-10.7102
%	-10.7105
gra	-10.7108
met	-10.711
▁déficit	-10.7111
▁voisinage	-10.7112
▁sum	-10.7113
▁Commissioners	-10.7116
▁montrent	-10.7117
▁operational	-10.7123
▁commissaires	-10.7126
▁réagir	-10.7129
▁rédigé	-10.7129
▁wait	-10.7129
▁l'ONU	-10.713
▁ONG	-10.7133
▁preparing	-10.7133
▁highest	-10.7134
▁remarquer	-10.7135
▁travaillé	-10.7138
bl	-10.7145
▁resources.	-10.7146
▁1994	-10.7147
▁examples	-10.7147
▁exploit	-10.7147
▁Concernant	-10.7155
▁Barroso,	-10.7157
▁considering	-10.7161
▁top	-10.7169
▁majeur	-10.7173
▁gone	-10.7175
▁so.	-10.7178
▁unfair	-10.7181
algré	-10.7181
▁property	-10.7182
ture	-10.7184
▁spoken	-10.7185
▁contribue	-10.7186
▁offers	-10.7186
▁2011	-10.7187
sur	-10.7189
ec	-10.7193
▁behaviour	-10.7194
▁function	-10.7198
▁opportun	-10.7198
▁enquête	-10.72
▁détails	-10.7204
▁applying	-10.7205
▁drawing	-10.7207
▁feeling	-10.7209
▁privée	-10.721
▁allemand	-10.721
▁demeure	-10.7216
▁recommend	-10.7216
▁performance	-10.7217
▁répète	-10.722
▁approprié	-10.7225
▁Report	-10.7226
▁dynamique	-10.7229
▁undoubtedly	-10.7234
▁régimes	-10.7235
▁proche	-10.7243
▁tool	-10.7245
▁Asia	-10.7247
▁degré	-10.7251
▁ren	-10.7253
▁NGOs	-10.7254
▁Protection	-10.726
▁pillar	-10.7261
▁urgently	-10.7263
▁revanche	-10.7269
▁Doha	-10.727
▁existantes	-10.7272
▁internationale.	-10.7272
▁importations	-10.7274
▁couple	-10.7275
ieux	-10.7277
▁prennent	-10.7278
▁West	-10.7279
▁Because	-10.7286
▁Dublin	-10.7286
▁d’euros	-10.7286
▁adapt	-10.729
▁reconnaît	-10.729
▁programme-cadre	-10.7293
▁l'obligation	-10.7293
▁ferroviaire	-10.7296
tons	-10.7297
cent	-10.7298
▁determined	-10.7298
▁textes	-10.7308
▁measures.	-10.7311
▁prospérité	-10.7313
▁Hungarian	-10.7317
▁l'Irlande	-10.7317
▁%.	-10.7322
▁différente	-10.7323
▁expectations	-10.7323
son	-10.7325
▁oblige	-10.7331
▁adopte	-10.7333
▁fishermen	-10.7335
▁introducing	-10.7339
▁Pourtant	-10.7341
▁bout	-10.7342
▁announced	-10.7346
▁commencé	-10.7348
▁tâches	-10.7356
▁posé	-10.7356
▁civilisation	-10.7357
▁happens	-10.7358
▁j'en	-10.7362
▁contain	-10.7362
▁contradiction	-10.737
▁latest	-10.7375
▁vol	-10.7377
▁l'ouverture	-10.7379
▁discipline	-10.738
▁bientôt	-10.7384
▁souveraineté	-10.7384
▁proceedings	-10.7384
▁relates	-10.7385
ized	-10.7385
▁cite	-10.7386
▁trait	-10.7389
▁duties	-10.7392
▁precise	-10.7396
▁l'entrée	-10.7397
▁self-	-10.74
▁stronger	-10.7401
▁codecision	-10.7402
▁défaut	-10.741
▁described	-10.7411
ze	-10.7411
era	-10.7413
▁construire	-10.7415
▁diminution	-10.7419
▁historic	-10.7424
▁joué	-10.7429
▁crédit	-10.743
▁respecte	-10.7432
▁conduit	-10.7433
▁prévoir	-10.7433
▁represented	-10.7434
▁300	-10.7434
▁l'origine	-10.7437
▁prosperity	-10.7437
▁gérer	-10.7438
▁autrement	-10.7438
ste	-10.7439
▁Then	-10.7446
▁products.	-10.7455
▁choose	-10.7455
▁l'OTAN	-10.746
▁resolution,	-10.7465
▁l'unanimité	-10.7469
▁Y	-10.7471
▁l'époque	-10.7473
▁resolution.	-10.7474
▁transformation	-10.7483
▁hands	-10.7486
▁reconnaissant	-10.7487
naire	-10.7488
▁suggestion	-10.7489
▁keeping	-10.7491
▁multilateral	-10.7491
▁laisse	-10.7493
ize	-10.7494
▁élu	-10.7494
▁studies	-10.7495
▁transposition	-10.7496
▁quote	-10.7497
▁s'ils	-10.7499
▁culturel	-10.75
▁strategies	-10.75
▁améliorations	-10.75
up	-10.7501
gg	-10.7502
▁regular	-10.7503
▁sept	-10.7504
▁chef	-10.7504
▁Z	-10.7505
▁deliver	-10.751
▁mobile	-10.7518
▁générales	-10.752
▁details	-10.7521
▁inclus	-10.7524
érer	-10.7526
▁l'ex	-10.7528
▁citer	-10.7531
▁commence	-10.7533
transfrontalière	-10.7536
▁calcul	-10.7537
▁li	-10.7539
▁ta	-10.754
lli	-10.7542
▁vin	-10.7542
▁pire	-10.7548
▁l'emploi.	-10.7549
▁réduit	-10.7551
ifs	-10.7553
▁marché.	-10.7558
▁Fisheries	-10.7559
▁react	-10.7563
▁confirmed	-10.757
vel	-10.7572
▁Croatie	-10.7572
▁d'agir	-10.7572
▁régler	-10.7572
▁moment.	-10.7574
▁efficacité	-10.7575
spir	-10.758
▁processes	-10.7588
▁m’	-10.759
▁operating	-10.759
▁allows	-10.7591
▁continuent	-10.7595
▁welcomed	-10.7602
apport	-10.7606
▁abordé	-10.7608
▁considéré	-10.7614
▁barriers	-10.7616
▁2010.	-10.7616
▁conforme	-10.7622
▁viennent	-10.7625
▁knows	-10.7628
ans	-10.7633
▁naturel	-10.7639
▁debating	-10.7641
▁sexuelle	-10.7645
▁engagée	-10.7649
lam	-10.765
▁entier	-10.7654
▁l’é	-10.7655
▁v	-10.7657
▁procedure.	-10.7661
▁briefly	-10.7663
▁agit	-10.767
▁timetable	-10.7672
▁n’ont	-10.7675
▁label	-10.7675
▁ayons	-10.7675
▁rencontre	-10.7681
▁tête	-10.7682
cor	-10.7682
▁expliquer	-10.7683
▁near	-10.7689
▁meilleurs	-10.7691
▁rejeté	-10.7691
▁organismes	-10.7693
▁2006,	-10.7695
▁submit	-10.7699
▁now.	-10.7701
▁largely	-10.7704
▁chaîne	-10.7706
▁kept	-10.7709
▁mouvement	-10.771
▁strengthened	-10.7711
▁L'UE	-10.7719
▁coordinated	-10.772
▁public.	-10.7721
-là	-10.7725
▁Ar	-10.7737
▁Protocol	-10.7741
▁industrie	-10.7742
▁signature	-10.7742
▁entrer	-10.7742
▁sincèrement	-10.7742
bil	-10.7748
▁travaillent	-10.7748
▁dangers	-10.7748
▁écologique	-10.7751
▁menée	-10.7752
▁jour.	-10.7755
▁commissions	-10.7756
▁publication	-10.7757
mor	-10.7761
hu	-10.7763
▁EC	-10.7765
▁willing	-10.7765
▁mi	-10.7766
▁Ka	-10.7768
▁image	-10.7777
▁menées	-10.7777
▁constitute	-10.7779
▁déclare	-10.778
▁existants	-10.7781
▁courant	-10.7786
▁innovative	-10.7788
▁sovereignty	-10.7788
▁légitime	-10.7792
▁intensive	-10.7792
▁vingt	-10.7797
▁Time	-10.7798
terinstitutional	-10.7801
▁Afrique	-10.7802
▁noted	-10.7805
▁énergies	-10.7806
pu	-10.7812
▁vivant	-10.7815
▁médiateur	-10.7816
▁pe	-10.7817
▁finding	-10.782
...	-10.7824
▁considérons	-10.7825
▁2007,	-10.7828
▁apporte	-10.7828
▁trans	-10.783
ship	-10.783
nci	-10.783
▁author	-10.7834
▁interdiction	-10.7838
▁eight	-10.7839
▁interpretation	-10.7847
▁published	-10.7849
ute	-10.785
▁equipment	-10.785
▁l'Afrique	-10.785
▁prospect	-10.7852
▁semblent	-10.7853
jo	-10.7857
ever	-10.7857
▁coherent	-10.7857
▁D'un	-10.7863
ssons	-10.7866
▁clean	-10.7866
▁échange	-10.7876
▁intends	-10.7878
ssant	-10.788
▁Patten	-10.7885
▁leader	-10.7886
▁liée	-10.789
▁maintaining	-10.789
▁extensive	-10.789
▁d'avis	-10.7891
▁politically	-10.7891
▁fonctionner	-10.7898
▁Finland	-10.7902
▁programmes.	-10.7903
▁room	-10.7904
▁l’un	-10.7904
▁d'y	-10.791
▁identity	-10.7913
▁Constitutional	-10.7927
▁activement	-10.7927
▁ressortissants	-10.7927
▁ville	-10.793
▁conserver	-10.7933
▁abord	-10.7933
▁works	-10.7941
isse	-10.7945
▁usage	-10.7946
cup	-10.7946
position	-10.7947
cing	-10.7948
▁Employment	-10.7951
▁pénal	-10.7954
▁perfectly	-10.7955
▁locaux	-10.7956
▁transport.	-10.7956
▁2012	-10.796
▁essentielles	-10.7971
▁automobile	-10.7972
▁démarche	-10.7973
▁clauses	-10.7978
▁aurions	-10.7978
hy	-10.7979
▁routes	-10.798
▁Per	-10.7982
▁electricity	-10.7984
▁quota	-10.7985
vert	-10.799
voir	-10.7991
▁États-Unis.	-10.7992
▁i	-10.7994
▁j	-10.7996
▁ALDE	-10.7998
▁Solana	-10.7998
▁denrées	-10.7998
issement	-10.7998
ified	-10.8002
W	-10.8003
ez-vous	-10.8007
▁Instead	-10.8008
▁assess	-10.8009
▁fl	-10.801
▁moyenne	-10.8012
o-	-10.8013
▁Group,	-10.8015
▁communautaire,	-10.8018
▁amending	-10.8019
▁technologique	-10.8019
▁united	-10.8023
▁case.	-10.8027
▁dispute	-10.803
▁ongoing	-10.8031
▁undertaken	-10.8034
▁urgency	-10.8041
▁fruits	-10.8042
▁volontaire	-10.8046
▁retraite	-10.8049
▁parliament	-10.8051
▁largest	-10.8053
▁significantly	-10.8053
▁restructuring	-10.8055
rog	-10.8057
▁vivement	-10.8063
aff	-10.8069
▁l’accord	-10.8071
▁school	-10.8073
▁repose	-10.8075
▁dependent	-10.8077
▁regions.	-10.8077
▁Me	-10.8079
▁l’aide	-10.808
▁récente	-10.8081
▁Plan	-10.8082
▁assumer	-10.8082
▁done.	-10.8088
▁felt	-10.8088
▁shadow	-10.8088
J	-10.8089
▁limité	-10.809
▁Serbia	-10.8093
▁waiting	-10.8096
▁l'Organisation	-10.8098
▁justification	-10.8099
▁fixé	-10.8102
▁réside	-10.8107
▁intégrée	-10.811
▁socialistes	-10.811
▁consultations	-10.8117
▁materials	-10.8121
ène	-10.8124
ieuse	-10.8125
▁restructuration	-10.8132
▁offered	-10.8137
▁endeavour	-10.8141
wa	-10.8142
▁présidents	-10.8144
▁seuil	-10.8149
▁libre-échange	-10.8151
▁difficulty	-10.8153
▁centaines	-10.8155
▁généralement	-10.8157
▁humaines	-10.8157
▁réuni	-10.8159
▁saluer	-10.8159
▁gross	-10.816
▁examen	-10.816
▁concentrate	-10.8161
▁qualified	-10.8163
-elle	-10.8166
▁tangible	-10.817
▁perte	-10.8172
▁solide	-10.8173
ché	-10.8179
▁enfin,	-10.8183
mat	-10.8185
▁l’in	-10.8185
▁concrète	-10.819
▁belong	-10.8192
dis	-10.8194
▁avancées	-10.8197
▁claim	-10.8201
▁l'existence	-10.8207
▁determination	-10.8208
▁partenaire	-10.8212
▁participants	-10.8213
▁femmes.	-10.8214
▁visent	-10.8215
▁2008,	-10.8215
▁riches	-10.8215
▁d'utiliser	-10.8218
▁équilibré	-10.8219
▁Quel	-10.8222
ug	-10.8229
▁institutionnel	-10.8232
▁conséquence,	-10.8237
lla	-10.8238
▁prévues	-10.8241
▁définitive	-10.8241
▁4,	-10.8244
able.	-10.8244
▁proved	-10.8245
iens	-10.8247
▁laissé	-10.8252
▁imagine	-10.8254
rent	-10.826
▁underline	-10.8261
▁deficit	-10.8266
▁distance	-10.8268
▁exportations	-10.8268
▁legally	-10.8268
▁careful	-10.8275
▁understood	-10.8276
▁wealth	-10.8276
▁speaker	-10.8277
▁contracts	-10.8285
▁prie	-10.829
▁sud	-10.8295
▁highlighted	-10.8297
▁d'association	-10.8301
▁tiers.	-10.8301
▁changing	-10.831
▁est-il	-10.8311
▁commis	-10.8311
-c	-10.8313
▁répercussions	-10.8317
▁rurales	-10.8318
lant	-10.8319
▁jusqu’	-10.8325
▁taille	-10.8326
▁illégale	-10.8331
▁observe	-10.8333
▁Bosnia	-10.8335
▁learning	-10.8335
▁ago.	-10.8338
▁cher	-10.8338
▁frontière	-10.834
▁Under	-10.8342
▁stabilisation	-10.8346
▁accroître	-10.8348
▁piece	-10.8349
▁moteur	-10.835
▁Tel	-10.8352
▁commune,	-10.8353
inter	-10.8356
▁again.	-10.8358
art	-10.8363
gent	-10.8363
▁énergie	-10.8364
▁présentation	-10.8364
ron	-10.8364
▁observation	-10.8366
▁break	-10.8377
▁heading	-10.8381
▁Latin	-10.8382
▁release	-10.8383
▁VAT	-10.8384
▁persist	-10.8384
▁Na	-10.8386
▁accessible	-10.8387
▁auto	-10.8388
▁valuable	-10.8389
▁vessels	-10.8392
▁supérieur	-10.8393
▁espagnol	-10.8393
▁équilibrée	-10.8393
▁d'atteindre	-10.8394
vie	-10.8394
▁composition	-10.8394
▁exemples	-10.8394
▁Commission'	-10.8399
▁disposal	-10.84
▁l'établissement	-10.8401
▁pouvez	-10.8403
▁medical	-10.8404
▁disposent	-10.8411
rée	-10.8411
▁d’in	-10.8411
▁paroles	-10.8414
po	-10.8418
▁2010,	-10.8419
▁jobs.	-10.8424
▁directe	-10.8429
▁genuinely	-10.8429
▁inadequate	-10.8433
▁provenance	-10.8434
▁provenant	-10.8437
▁significance	-10.8438
▁résulte	-10.8443
▁bénéfices	-10.8446
▁électronique	-10.8448
cur	-10.845
▁Cooperation	-10.8453
▁transport,	-10.8454
▁d’action	-10.8456
▁listen	-10.8458
▁Last	-10.8459
▁postes	-10.846
▁démocratie.	-10.8465
▁bit	-10.8465
▁Di	-10.8467
▁énergétiques	-10.847
▁accordé	-10.8471
▁Food	-10.8478
▁th	-10.848
▁1992	-10.8483
-based	-10.8492
▁Ashton	-10.8492
▁boost	-10.8493
▁Austrian	-10.8496
▁extraordinaire	-10.8497
▁espagnole	-10.8498
▁enhance	-10.8498
▁Lo	-10.8502
▁negotiation	-10.8502
▁Parliament’s	-10.8503
▁excellente	-10.8505
bo	-10.8506
▁défend	-10.8507
▁applicant	-10.8507
▁basée	-10.8507
▁radio	-10.8508
▁brings	-10.851
▁élaboré	-10.8514
▁transfrontalier	-10.8517
▁referring	-10.8518
▁utilisées	-10.8521
▁brièvement	-10.8522
▁ha	-10.8524
European	-10.8526
▁électeurs	-10.8527
▁driving	-10.8527
▁destination	-10.8527
j	-10.8528
▁amended	-10.8538
qué	-10.8542
▁ob	-10.8543
ntergovernmental	-10.8544
▁employment.	-10.8545
dy	-10.8548
▁devient	-10.8548
▁rich	-10.8548
▁indépendants	-10.8552
▁connaissons	-10.8552
▁fields	-10.8556
▁apart	-10.8559
▁exceptions	-10.8563
▁reprendre	-10.8564
▁slow	-10.8565
▁tragic	-10.8567
▁absolute	-10.8568
▁premiers	-10.857
▁settlement	-10.8572
▁arrest	-10.8576
▁remarquable	-10.8577
tan	-10.8583
▁habitants	-10.8583
▁tellement	-10.8586
▁Will	-10.859
▁motor	-10.8592
▁Representative	-10.8592
▁Roms	-10.8592
▁sé	-10.8593
▁depend	-10.8595
▁satisfactory	-10.8597
▁drug	-10.8601
abilité	-10.8601
▁cru	-10.8601
▁Pri	-10.8602
▁stratégies	-10.8604
▁systématique	-10.8611
▁Fischler	-10.8612
▁complet	-10.8613
▁Control	-10.8617
ren	-10.8622
▁seeing	-10.8624
ult	-10.8625
▁urban	-10.8628
▁neighbours	-10.8628
▁stake	-10.8629
▁accounts	-10.8629
▁National	-10.8633
▁TVA	-10.8633
▁2007.	-10.8635
▁Rapport	-10.8636
▁reflète	-10.8636
▁drogue	-10.8637
▁White	-10.8638
▁preparation	-10.8638
▁strictes	-10.8638
▁ship	-10.8639
▁res	-10.8642
ates	-10.8646
▁Schulz	-10.8648
▁Verheugen	-10.8648
▁l'Agence	-10.8648
▁britanniques	-10.8652
▁Quand	-10.8653
▁Act	-10.866
▁exercer	-10.8661
▁Internal	-10.8661
▁resulting	-10.8664
▁n°	-10.8668
▁satellite	-10.8668
▁sustainability	-10.8668
5%	-10.8669
▁concrets	-10.8673
▁essayer	-10.8676
▁playing	-10.8677
▁Géorgie	-10.8678
▁remove	-10.8682
▁levée	-10.8682
▁grant	-10.8682
▁renforcé	-10.8683
▁pleine	-10.8685
▁choisir	-10.8685
▁télévision	-10.8688
▁(vote)	-10.8693
▁accomplis	-10.8697
▁reinforce	-10.8698
▁prononcer	-10.87
▁résolution,	-10.8702
▁allemande	-10.8707
▁GUE/NGL	-10.8708
▁soyons	-10.8712
▁prudent	-10.8714
):	-10.8714
▁Nor	-10.8715
▁né	-10.8715
▁initiale	-10.8715
és.	-10.8716
duc	-10.8723
▁présents	-10.8723
▁confirmé	-10.8725
▁Serbie	-10.8729
▁avancée	-10.8731
cha	-10.8732
▁investigation	-10.8732
▁l'impression	-10.8734
▁protocol	-10.8734
▁précédente	-10.8736
▁Centre	-10.8739
▁urgence	-10.874
▁souhaité	-10.8749
▁étroitement	-10.8754
▁qu’en	-10.8756
▁l’emploi	-10.876
▁Comité	-10.876
red	-10.8762
▁duquel	-10.8765
▁chiffre	-10.8765
▁informer	-10.8767
▁Second	-10.8769
▁primary	-10.877
▁daily	-10.877
▁valid	-10.8772
▁italien	-10.8773
ov	-10.8773
▁milk	-10.8775
▁neighbouring	-10.878
▁restrictive	-10.8781
▁medicines	-10.8781
ld	-10.8789
▁television	-10.879
▁n'ait	-10.8794
▁pratiquement	-10.8798
nés	-10.8799
▁sécurité,	-10.88
▁Thursday	-10.88
7/	-10.8801
',	-10.8805
▁Congo	-10.8807
▁donnée	-10.8807
▁spread	-10.8809
▁Brok	-10.8811
▁attentes	-10.8813
▁perform	-10.8818
▁appelé	-10.8819
▁faibles	-10.882
▁GDP	-10.8821
▁Portugal,	-10.8821
trait	-10.8822
▁Before	-10.8826
▁introduire	-10.8829
▁agenda.	-10.8831
▁territoriale	-10.8834
vé	-10.8835
▁Northern	-10.8836
▁negotiations.	-10.8837
▁replace	-10.8841
▁remplacer	-10.8843
▁size	-10.8844
▁catégorie	-10.8844
▁libéraux	-10.8847
isés	-10.8853
▁quantité	-10.8857
▁answers	-10.8859
▁applications	-10.886
▁remettre	-10.8864
▁Ba	-10.8864
▁built	-10.8867
▁pêche.	-10.8868
▁region,	-10.887
▁Once	-10.8872
lit	-10.8872
▁mu	-10.8873
▁Gu	-10.8877
▁multi	-10.8877
▁Britain	-10.8877
cer	-10.888
▁inflation	-10.888
▁annoncé	-10.8881
▁Safety	-10.8883
▁actively	-10.8884
▁revenu	-10.8886
▁J'en	-10.8892
▁représentation	-10.8893
▁retain	-10.8895
▁saw	-10.8895
▁Verts/ALE	-10.8898
▁l'interdiction	-10.89
ç	-10.8902
▁élaborer	-10.8902
▁stay	-10.8904
▁lié	-10.8904
▁dossiers	-10.8908
▁Stockholm	-10.8908
▁p.m.	-10.8909
rez	-10.8911
ifié	-10.8914
4/	-10.8914
▁re-	-10.8921
▁Common	-10.8924
▁huit	-10.8925
▁approuver	-10.8927
▁undermine	-10.8928
▁Rights,	-10.893
▁cap	-10.8931
▁identify	-10.8933
▁Where	-10.8934
▁honnête	-10.894
▁derrière	-10.894
▁évaluer	-10.8941
▁inclure	-10.8945
▁écrit	-10.8945
▁sûre	-10.8949
▁someone	-10.895
▁gros	-10.8953
▁suggested	-10.8953
▁determine	-10.8953
▁meat	-10.8954
▁poll	-10.8955
lan	-10.8955
▁voit	-10.8957
▁amis	-10.896
▁turc	-10.896
▁contribuera	-10.8963
▁previously	-10.8965
▁Santer	-10.8972
tation	-10.8977
▁wider	-10.8991
▁20%	-10.8993
▁poste	-10.8993
▁somme	-10.8996
▁participé	-10.8997
▁users	-10.8998
▁External	-10.9002
▁aviation	-10.9002
▁Are	-10.9005
s"	-10.9006
pi	-10.9009
▁perd	-10.901
▁elsewhere	-10.9013
▁chercher	-10.9017
▁leads	-10.902
▁coopérer	-10.9023
rate	-10.9024
ée.	-10.9027
▁design	-10.9028
▁ri	-10.9029
▁Regional	-10.903
▁legislation,	-10.9033
▁S'il	-10.9034
▁bank	-10.9037
▁durable.	-10.9037
▁indicated	-10.9041
▁maintained	-10.9043
▁bio	-10.9044
▁friends	-10.9047
ê	-10.9051
▁Tampere	-10.9055
▁2008.	-10.9057
▁contrats	-10.906
▁phrase	-10.906
one	-10.9064
tions	-10.9069
▁life.	-10.9069
▁Tibet	-10.9074
▁protection.	-10.9074
▁d'A	-10.9076
▁moreover	-10.9077
▁signe	-10.9085
▁reaction	-10.9086
▁flux	-10.9087
▁permettront	-10.9091
▁section	-10.9096
▁satisfaire	-10.9097
▁conditions.	-10.9098
▁Christian	-10.91
▁geographical	-10.9102
van	-10.9102
▁possibly	-10.9102
▁camps	-10.9103
▁k	-10.9104
▁plants	-10.9105
▁profondément	-10.9107
▁russe	-10.9111
▁greatly	-10.9116
▁retirer	-10.9116
▁security.	-10.9117
▁transitional	-10.9117
-nous	-10.9119
▁speeches	-10.9123
▁augmenté	-10.9123
▁régionaux	-10.9124
▁futures	-10.9124
▁Allemagne	-10.9129
▁Without	-10.9135
▁satisfied	-10.9139
▁historical	-10.9139
▁2004.	-10.9147
▁apparaît	-10.9147
▁cur	-10.9151
▁exports	-10.9154
▁habit	-10.9156
▁l'examen	-10.916
▁team	-10.916
▁running	-10.9161
▁jeudi	-10.9161
so	-10.9164
▁Ni	-10.9165
▁connaissances	-10.9165
▁déposés	-10.9168
▁destiné	-10.9168
K)	-10.9169
ib	-10.9173
▁sufficiently	-10.9174
▁obliged	-10.9176
the	-10.9176
▁clarté	-10.9176
▁Donc	-10.9176
▁gauche	-10.9182
▁oui	-10.9182
▁l'exploitation	-10.9185
▁background	-10.9187
▁football	-10.9187
ev	-10.9189
▁nationaux.	-10.9191
▁Consequently,	-10.9192
▁l'opposition	-10.9192
▁opérateurs	-10.9192
▁liens	-10.9193
▁Qui	-10.9204
▁San	-10.9204
▁électorale	-10.9206
▁trial	-10.9207
▁anciens	-10.921
▁distinct	-10.921
▁suffered	-10.921
▁difficulté	-10.9211
▁opposite	-10.9214
▁Jo	-10.9218
▁meant	-10.9221
▁competent	-10.9224
▁l'Allemagne	-10.9227
▁enforcement	-10.9228
▁bureaucratie	-10.923
org	-10.9231
▁chosen	-10.9232
▁confirmer	-10.9234
▁caractéristique	-10.9235
▁l’industrie	-10.9236
▁démontré	-10.924
-0	-10.9242
▁susceptibles	-10.9247
▁himself	-10.9251
▁parties.	-10.9253
tage	-10.9253
▁topic	-10.9255
▁mobilisation	-10.9256
▁prior	-10.9259
▁strength	-10.9262
▁ensemble.	-10.9263
▁rencontré	-10.9263
▁thèmes	-10.9263
bri	-10.9264
▁marine	-10.9265
▁compulsory	-10.9267
▁identified	-10.9267
▁gagner	-10.9272
▁clo	-10.9277
▁publié	-10.9283
▁places	-10.9284
ore	-10.9285
▁Liberal	-10.9288
▁voitures	-10.9289
▁Finlande	-10.9292
▁spend	-10.9299
▁règlement.	-10.9302
▁0	-10.9307
environnementaux	-10.9308
▁prisoners	-10.9309
▁tenant	-10.931
▁croissante	-10.9311
▁domaine,	-10.9313
▁forest	-10.9318
▁salaires	-10.932
04	-10.9321
▁El	-10.9322
▁37	-10.9324
▁chimiques	-10.933
▁afternoon	-10.9332
atrice	-10.9332
▁histoire	-10.9333
07	-10.9334
▁qualifiée	-10.9334
▁thanking	-10.9336
▁affects	-10.9342
▁Thus	-10.9343
▁âgées	-10.9346
▁BSE	-10.9349
▁privés	-10.9353
▁partly	-10.9357
▁rappelé	-10.9358
▁disant	-10.9359
▁pesticides	-10.936
ois	-10.9367
▁clairs	-10.9367
cus	-10.9368
▁suivant	-10.937
▁links	-10.937
▁internes	-10.9371
K	-10.9373
▁effectué	-10.9375
▁problem,	-10.9376
▁chargé	-10.9376
▁aériennes	-10.9377
▁enfants.	-10.9383
▁possibilities	-10.9386
▁chairman	-10.9386
▁demain,	-10.9391
▁bilan	-10.9392
▁complicated	-10.9392
▁pêche,	-10.9394
▁attention.	-10.9396
▁privatisation	-10.9397
▁intervene	-10.9397
▁conducted	-10.9398
▁afford	-10.94
▁adoptés	-10.94
▁completed	-10.94
▁approfondie	-10.94
▁mistake	-10.94
▁She	-10.9402
▁generation	-10.9402
▁Irak	-10.9402
▁approach.	-10.9405
ya	-10.9405
▁É	-10.9406
▁mène	-10.9412
▁biens	-10.9417
▁societies	-10.9419
igne	-10.9419
▁helped	-10.9428
▁bons	-10.9429
▁dynamic	-10.9429
▁détriment	-10.9429
▁trouvons	-10.9429
▁belge	-10.943
▁spite	-10.943
▁PIB	-10.9435
▁requests	-10.9442
▁l'indépendance	-10.9446
▁organise	-10.9453
▁actuelle.	-10.9455
▁manifeste	-10.9456
med	-10.9461
▁défini	-10.9464
▁ret	-10.9464
▁attempts	-10.9465
▁debated	-10.9466
▁bomb	-10.9467
▁stands	-10.9467
▁deserves	-10.9467
▁vulnérables	-10.9468
▁année.	-10.9469
▁lourde	-10.9471
▁(CS)	-10.9473
▁forward.	-10.9478
▁J’espère	-10.9479
▁vérifier	-10.9483
▁Grande-Bretagne	-10.9484
▁Italie	-10.9484
▁Having	-10.9484
ira	-10.9485
▁carrying	-10.949
▁intérieur.	-10.9494
▁3.	-10.9497
▁markets.	-10.95
▁respected	-10.9505
▁Russie,	-10.9508
▁mettent	-10.9509
▁becomes	-10.9511
▁launched	-10.9515
▁possibles	-10.9515
▁suivante	-10.9517
▁Galileo	-10.9523
▁qu'aucun	-10.9523
for	-10.9523
▁issued	-10.9525
tar	-10.9526
▁l'Ukraine	-10.9528
▁Kosovo.	-10.953
og	-10.9532
▁physique	-10.9534
▁époque	-10.9534
▁guaranteeing	-10.9534
▁déclarer	-10.9535
▁contribuables	-10.9536
▁formule	-10.9537
▁civiles	-10.9537
ept	-10.9537
▁meaning	-10.9538
05	-10.9541
▁Russie.	-10.9541
▁intégration	-10.9545
▁poorest	-10.9547
▁intellectual	-10.955
▁species	-10.9556
▁l’article	-10.9557
je	-10.9558
▁suffisant	-10.9566
▁nord	-10.9566
▁worldwide	-10.9567
▁sugar	-10.9567
▁definitely	-10.9569
▁retire	-10.9573
▁d'écus	-10.9573
▁ratified	-10.9574
mis	-10.9577
▁importance.	-10.9579
▁d'accès	-10.9579
institutionnel	-10.9583
▁admit	-10.9584
▁representation	-10.9584
▁purely	-10.9588
▁Bosnie	-10.9589
▁compréhension	-10.9589
▁proposition.	-10.959
▁rejeter	-10.959
▁saisir	-10.9592
▁d’entre	-10.9594
▁surely	-10.9596
▁fixés	-10.9599
▁rules.	-10.9599
▁d'intégration	-10.96
▁southern	-10.96
▁Union’s	-10.9606
▁diplomatic	-10.9606
▁l'exécution	-10.9609
▁adaptation	-10.9609
▁Hungary	-10.9611
▁négocier	-10.9613
▁importante.	-10.9613
▁liberal	-10.9613
▁Lu	-10.9615
▁conduire	-10.9617
▁exact	-10.9618
▁Home	-10.9619
▁belief	-10.9622
▁transatlantique	-10.9622
▁Danish	-10.9622
▁proof	-10.9623
rice	-10.9624
▁considérant	-10.9628
▁strategy.	-10.9628
▁argent	-10.9628
▁ouvrir	-10.9629
▁surprise	-10.9631
▁structurelles	-10.9635
▁sorry	-10.9639
▁soulevé	-10.9645
fo	-10.965
▁extreme	-10.9651
lt	-10.9653
▁communiste	-10.9654
ow	-10.9655
▁exclusivement	-10.9656
▁one.	-10.9658
▁1993	-10.9664
▁mondiale.	-10.9664
▁bloc	-10.9666
▁crains	-10.9667
▁tragedy	-10.9667
▁occur	-10.9672
▁Belgian	-10.9672
▁women.	-10.9679
▁relance	-10.9679
▁Just	-10.9683
▁Bush	-10.9684
▁d'ex	-10.9687
▁green	-10.9689
▁authorities.	-10.9692
▁l’importance	-10.9695
▁seeks	-10.9703
mission	-10.9705
▁gouvernementale	-10.9705
▁vente	-10.9712
▁facilities	-10.9712
▁quinze	-10.9712
▁temps.	-10.9713
▁Sommet	-10.9717
▁heavy	-10.9717
▁innocent	-10.9717
▁s'avère	-10.9717
▁tensions	-10.9719
▁whereby	-10.972
▁openness	-10.9721
▁immense	-10.9723
▁l'en	-10.9725
▁Democrats)	-10.9732
▁considers	-10.9734
▁scène	-10.9734
▁euro.	-10.9735
▁mois.	-10.9736
▁pétitions	-10.9736
▁orientation	-10.9736
▁nécessaires.	-10.9737
▁premièrement	-10.9738
▁erreurs	-10.974
▁Martin	-10.974
▁international.	-10.9742
▁consacré	-10.9743
▁demi	-10.9749
br	-10.975
▁finale	-10.9753
▁qu’elles	-10.9755
▁(Christian	-10.9757
▁correcte	-10.9761
▁pénale	-10.9762
▁intelligent	-10.9767
▁d'apporter	-10.9768
▁concessions	-10.9768
▁l'est	-10.977
ces	-10.977
▁Corée	-10.9781
▁respectent	-10.9782
▁rational	-10.9783
▁latine	-10.9787
rer	-10.9787
▁Barcelone	-10.9791
-ils	-10.9791
▁forêts	-10.9791
▁revenue	-10.9793
▁murder	-10.9796
▁Partnership	-10.9796
▁corps	-10.9796
á	-10.9803
af	-10.9803
▁reiterate	-10.9804
▁retrait	-10.9808
▁prendra	-10.981
▁suffisante	-10.9811
▁Barcelona	-10.9813
▁procès	-10.9813
▁paix,	-10.9817
▁blood	-10.9819
▁agents	-10.9821
▁successfully	-10.9822
▁withdraw	-10.9823
▁abandon	-10.9824
▁mines	-10.9829
▁Hamas	-10.9836
quer	-10.9838
▁d’en	-10.984
▁Japan	-10.9842
▁deserve	-10.9842
▁L'objectif	-10.9842
▁continu	-10.9846
▁territoires	-10.9847
▁Subject	-10.9847
▁modes	-10.9849
▁part-session	-10.9853
▁harmful	-10.9854
▁lacunes	-10.9856
▁professionnels	-10.9858
▁Ho	-10.9858
▁Timor	-10.9859
▁hauteur	-10.986
▁planète	-10.986
▁2006.	-10.9864
▁Culture	-10.9864
▁prisonniers	-10.9864
▁permanente	-10.9865
▁opened	-10.9866
▁attendent	-10.9866
▁addressing	-10.9868
▁Polish	-10.987
EC	-10.9876
▁handicapées	-10.9878
▁worrying	-10.988
▁convaincre	-10.9882
▁terrorism.	-10.9883
▁sphere	-10.9887
▁examiné	-10.9888
▁rapporteure	-10.9893
▁worst	-10.9893
▁différent	-10.9894
▁serre	-10.9894
▁directeur	-10.9894
▁dirais	-10.9895
▁cruciale	-10.9896
▁répondu	-10.9897
▁unanimously	-10.9899
ications	-10.9899
▁milieu	-10.9904
▁basis.	-10.9904
▁Belgium	-10.9904
▁Japon	-10.9904
▁efficace.	-10.9906
▁santé.	-10.9907
▁terres	-10.9908
▁handicap	-10.991
▁advertising	-10.991
▁américaine	-10.9911
ori	-10.9911
▁cities	-10.9912
▁Does	-10.9913
▁jusqu'	-10.9913
50	-10.9914
▁surmonter	-10.9916
▁stressed	-10.9916
▁immédiate	-10.9919
▁essentially	-10.9922
▁peur	-10.9923
▁warning	-10.9923
▁discutons	-10.9927
▁indépendante	-10.9932
▁Peut-être	-10.9933
▁digital	-10.9933
▁2007-2013	-10.9933
▁register	-10.9934
▁whole.	-10.9941
ord	-10.9945
▁fit	-10.9946
dict	-10.9947
vit	-10.995
▁censure	-10.995
▁résolution.	-10.9952
▁dommages	-10.9956
▁intégrer	-10.9956
▁faute	-10.9957
▁satisfait	-10.9957
▁italienne	-10.9959
▁(La	-10.9959
’.	-10.996
▁débattons	-10.9961
▁prefer	-10.9965
▁solely	-10.9966
▁génération	-10.9968
▁proposals.	-10.9969
tergovernmental	-10.9971
▁producing	-10.9971
▁Saddam	-10.9973
▁phenomenon	-10.9973
▁télécommun	-10.9979
▁marketing	-10.9979
▁règlement,	-10.998
▁schemes	-10.9981
▁prétexte	-10.9985
▁souhaitable	-10.9987
▁bénéficient	-10.9989
▁governing	-10.999
▁Arab	-10.999
▁affirmé	-10.9993
▁régulièrement	-10.9994
▁nomination	-10.9995
▁foremost	-10.9996
▁suspension	-10.9999
▁passé,	-11.0001
▁Parti	-11.0001
▁irlandaise	-11.0002
▁hit	-11.0004
▁core	-11.0005
▁suivante:	-11.0007
▁continuera	-11.0007
▁précédemment	-11.0008
eau	-11.0009
▁bienvenue	-11.001
▁acting	-11.0013
▁Korea	-11.0014
▁day,	-11.0015
ray	-11.0019
nk	-11.0019
▁freedom,	-11.0021
▁easily	-11.0025
cher	-11.0025
▁l'équilibre	-11.0027
▁crée	-11.0028
▁skills	-11.003
ros	-11.0037
▁familiar	-11.0037
▁valable	-11.0037
▁45	-11.0037
▁prospects	-11.0037
▁island	-11.0038
▁a-t-il	-11.004
isées	-11.0042
▁vice-président	-11.0042
ES	-11.0044
SA	-11.0044
▁extending	-11.0045
▁enabling	-11.0049
▁card	-11.0049
▁formulées	-11.0054
▁d’État	-11.0055
99	-11.0056
▁aid.	-11.0056
▁existant	-11.0058
▁players	-11.006
▁net	-11.006
▁devenue	-11.0071
▁mark	-11.0072
▁compétitive	-11.0072
▁(LT	-11.0072
tur	-11.0073
▁ideal	-11.0073
▁racisme	-11.0074
▁dollars	-11.0075
▁légitimité	-11.0078
▁méritent	-11.0081
▁pertes	-11.0082
▁enfants,	-11.0087
za	-11.0092
▁tragédie	-11.0095
▁futurs	-11.0097
▁objectives.	-11.0098
▁remplir	-11.0101
▁Mes	-11.0102
▁vide	-11.0102
▁initiative.	-11.0102
▁remerciements	-11.0104
▁civils	-11.0107
▁house	-11.0113
▁proud	-11.0114
▁advice	-11.0118
▁waters	-11.0121
▁motifs	-11.0124
▁carbon	-11.0124
-de	-11.0129
▁mains	-11.013
▁demanding	-11.0132
ned	-11.0135
▁standards.	-11.0135
▁patrimoine	-11.0136
▁manufacturers	-11.0136
▁pressions	-11.0138
/2003	-11.0138
bat	-11.0143
▁attach	-11.0145
▁paix.	-11.0145
▁Left	-11.0145
▁rapidly	-11.0149
▁healthy	-11.0149
▁utilisée	-11.0152
▁heritage	-11.0159
▁Policy,	-11.0162
▁site	-11.0166
▁together.	-11.0169
▁minorité	-11.0171
▁correctly	-11.0173
▁Ga	-11.0175
institutionnelle	-11.0178
▁super	-11.0178
atory	-11.0182
▁engagés	-11.0182
▁indique	-11.0183
▁entraîne	-11.0185
▁believes	-11.0186
▁promised	-11.0188
▁dépendance	-11.0188
ï	-11.0188
▁pencher	-11.0189
▁l’adhésion	-11.0189
▁Hongrie	-11.0189
▁bound	-11.019
▁Bi	-11.0192
ging	-11.0195
ule	-11.0195
▁reliable	-11.0201
▁jugé	-11.0201
▁environmentally	-11.0201
▁Both	-11.0203
▁launch	-11.0203
▁hundreds	-11.0204
▁tools	-11.021
▁Pas	-11.0212
▁l’État	-11.0213
▁Socialists	-11.0215
éré	-11.0217
nic	-11.0218
▁(FI	-11.0218
▁Growth	-11.0218
▁auparavant	-11.0218
▁fast	-11.0219
▁schools	-11.022
▁appropriées	-11.0222
▁2005.	-11.0229
▁sets	-11.0229
▁menaces	-11.0232
▁considerably	-11.0232
▁savent	-11.0234
ists	-11.0234
▁l'activité	-11.0236
]	-11.0236
▁cooperation,	-11.0239
▁justifier	-11.0242
▁chapter	-11.0248
▁l'Italie	-11.025
▁achievement	-11.0251
▁depends	-11.0261
▁resources,	-11.0263
▁tenté	-11.0264
▁démocratique.	-11.0264
▁intérieure	-11.0264
▁savings	-11.0265
▁Belgique	-11.0266
▁Bar	-11.0266
▁fourni	-11.0266
▁facilement	-11.0268
▁bureaucracy	-11.0272
▁administrations	-11.028
▁focused	-11.0282
▁1999.	-11.0283
▁démographique	-11.0289
▁appliquées	-11.0293
▁thorough	-11.0294
▁arrêt	-11.0295
▁eye	-11.0297
▁claims	-11.0299
▁clarifier	-11.03
▁shape	-11.0301
▁revoir	-11.0304
▁recommande	-11.0305
▁experienced	-11.0306
▁tribunal	-11.0307
▁postal	-11.0312
▁justifie	-11.0316
▁d'égalité	-11.0318
▁passenger	-11.0319
▁s'assurer	-11.032
▁véritables	-11.032
économ	-11.032
▁emphasised	-11.032
▁lire	-11.0322
nent	-11.0325
▁alcohol	-11.0331
-on	-11.0333
▁sert	-11.0335
▁out.	-11.0336
▁encouraged	-11.0337
▁Moldova	-11.0337
▁tiendra	-11.0337
▁d'expression	-11.0337
▁l’année	-11.0339
▁save	-11.0339
▁employ	-11.0339
▁l'internet	-11.0343
▁remaining	-11.0343
▁granting	-11.0351
sen	-11.0351
▁grec	-11.0352
onne	-11.0352
▁inutile	-11.0356
den	-11.0361
ert	-11.0361
-related	-11.0361
▁connaissent	-11.0361
▁fa	-11.0363
▁decades	-11.0367
▁clarity	-11.0367
▁terrorisme.	-11.0367
▁merci	-11.0368
▁équipe	-11.0368
▁amendments.	-11.0369
ham	-11.0373
▁adresser	-11.0382
ject	-11.0383
▁com	-11.0386
▁suitable	-11.0388
▁l'instant	-11.0391
▁exclusive	-11.0398
▁Turquie,	-11.0402
▁moderne	-11.0405
▁entered	-11.0409
▁People	-11.0409
▁apparent	-11.0415
▁brevet	-11.0415
▁repris	-11.0418
▁alarm	-11.0423
▁products,	-11.0425
lée	-11.0426
▁appartient	-11.0427
▁aboutir	-11.0429
▁production.	-11.043
▁sold	-11.0439
▁c'était	-11.0439
▁contributed	-11.044
oli	-11.044
uelle	-11.0448
▁favourable	-11.0451
▁tomorrow.	-11.0452
▁nettement	-11.0452
▁exiger	-11.0455
▁élus	-11.0455
▁absent	-11.0457
▁physical	-11.0457
▁wording	-11.0457
▁présentent	-11.0459
▁Fi	-11.046
▁fu	-11.0463
can	-11.0468
▁legitimacy	-11.0469
▁picture	-11.0469
▁ratifié	-11.0469
ps	-11.0471
▁competition.	-11.0472
▁sou	-11.0473
▁carbone	-11.0474
▁transmission	-11.0476
ls	-11.0479
tiques	-11.0481
▁advantages	-11.0481
▁rang	-11.0488
▁avantage	-11.049
▁reflected	-11.0491
utili	-11.0491
▁supposed	-11.0492
▁simplifier	-11.05
▁threats	-11.05
▁Da	-11.05
▁sanction	-11.0501
▁practice.	-11.0501
▁encourageant	-11.0501
▁jeunesse	-11.0501
▁refuser	-11.0501
▁l’énergie	-11.0507
▁vit	-11.0511
▁declared	-11.0514
▁cité	-11.0514
▁fragile	-11.0518
▁Certes	-11.0518
▁prenne	-11.0524
▁Toutes	-11.0524
▁l'expérience	-11.0526
▁destinée	-11.0527
▁powerful	-11.053
▁après-midi	-11.053
▁biggest	-11.053
▁dites	-11.0531
▁venir.	-11.0532
▁2013	-11.0535
▁soutenue	-11.0539
sol	-11.0541
▁bus	-11.0542
▁préjudice	-11.0542
▁cross	-11.0543
▁eastern	-11.0549
ix	-11.0549
▁pure	-11.055
▁constructif	-11.055
▁demain.	-11.0554
▁ECB	-11.0555
▁s'applique	-11.0556
▁certainty	-11.0558
▁modified	-11.0558
▁permit	-11.056
▁suédoise	-11.0561
▁couvrir	-11.0567
▁willingness	-11.0568
▁libéral	-11.0571
▁unnecessary	-11.0573
▁écoles	-11.0573
▁unique.	-11.0576
▁Son	-11.0578
▁Macedonia	-11.0579
▁rapporteur's	-11.0579
▁file	-11.0579
▁affirmer	-11.0581
▁beef	-11.0583
▁basé	-11.0584
▁object	-11.0587
▁succeeded	-11.0587
bu	-11.0587
▁cré	-11.0587
▁paying	-11.059
▁navigation	-11.0591
▁example.	-11.0591
▁5,	-11.0595
▁climatique.	-11.0595
▁espère	-11.0597
▁refers	-11.0601
▁tente	-11.0601
▁conscient	-11.0602
▁deals	-11.0606
▁cuts	-11.0606
▁vast	-11.0606
▁l’élargissement	-11.061
▁arise	-11.0611
15	-11.0611
▁appliquée	-11.0611
▁satisfaisante	-11.0617
▁Kinnock	-11.0622
▁weight	-11.0623
▁BCE	-11.0623
▁dangereuses	-11.0626
▁400	-11.0629
▁légale	-11.0633
▁s'agissait	-11.0634
▁problèmes.	-11.0637
▁instant	-11.0639
▁summer	-11.0641
▁texts	-11.0644
▁information.	-11.0648
▁jugement	-11.0649
▁constitutes	-11.0652
▁l’économie	-11.0653
▁recettes	-11.0653
▁clés	-11.0657
▁months.	-11.0658
▁limitée	-11.0658
▁d'échange	-11.0659
▁others.	-11.0663
▁Civil	-11.0665
▁removed	-11.0667
CO	-11.0668
ole	-11.0669
▁d'évaluation	-11.0669
▁(P	-11.0672
▁commit	-11.0682
▁présentés	-11.0683
▁Madrid	-11.0684
▁evident	-11.069
▁themselves.	-11.0693
▁Baltique	-11.0696
▁es	-11.0697
▁j’	-11.0697
▁enough.	-11.0697
▁consequence	-11.0698
▁uniforme	-11.0702
▁stratégiques	-11.0706
▁terrorism,	-11.0707
▁courts	-11.0708
▁adéquat	-11.0709
▁enlargement.	-11.071
▁State.	-11.0712
▁demandent	-11.0714
▁crédible	-11.0715
▁possède	-11.0715
▁disent	-11.0718
▁population,	-11.0718
téri	-11.0719
▁outil	-11.0719
▁considerations	-11.072
▁recourir	-11.0721
TA	-11.0724
▁restrict	-11.0725
▁matériel	-11.0726
har	-11.0728
put	-11.0732
▁whereas	-11.0734
▁regulation.	-11.0736
▁matière.	-11.0738
▁espérer	-11.0739
▁transform	-11.0747
▁atteinte	-11.0749
▁justify	-11.075
▁séjour	-11.0752
▁inquiétude	-11.0753
▁restore	-11.0753
▁liberté,	-11.0754
▁lie	-11.0755
▁applicables	-11.0755
▁dirai	-11.0758
▁l'intervention	-11.0758
▁d'amendements	-11.0762
las	-11.0767
▁affecting	-11.0767
▁explanation	-11.0769
▁familiale	-11.0774
▁Parliamentary	-11.0775
▁utmost	-11.0777
▁i.e.	-11.0777
▁MM.	-11.0777
▁d'examiner	-11.0778
▁réaliste	-11.078
▁Ri	-11.0783
▁Authority	-11.0789
▁d'appliquer	-11.0789
née	-11.079
▁racism	-11.0794
▁violence.	-11.0794
▁l'autorité	-11.0799
ip	-11.08
▁Danemark	-11.0802
▁considérée	-11.0802
▁went	-11.0805
dra	-11.0806
mér	-11.0807
▁bénéficiaires	-11.0808
▁Paris	-11.0808
ienne	-11.081
▁chargée	-11.0813
▁quatrième	-11.0814
▁negotiated	-11.0817
▁d'augmenter	-11.0821
▁instances	-11.083
▁sake	-11.0831
SE	-11.0833
œ	-11.0833
vironnementales	-11.0833
▁ruling	-11.0833
▁collect	-11.0836
▁législations	-11.0843
▁Russia,	-11.0845
▁quelconque	-11.0846
▁mettant	-11.0849
▁32	-11.0854
▁block	-11.0856
▁Denmark	-11.0858
▁orale	-11.0859
lf	-11.0862
▁force.	-11.0863
▁concrètement	-11.0864
▁healthcare	-11.0865
▁ecological	-11.0865
▁profonde	-11.0865
▁l’heure	-11.0866
ko	-11.0866
▁Convention.	-11.0875
▁fonctions	-11.0876
▁deeply	-11.0876
▁substantielle	-11.0878
▁regulate	-11.088
▁cas.	-11.088
▁country's	-11.0886
ième	-11.0889
mu	-11.0891
▁reaching	-11.0892
▁fiscales	-11.0896
▁mother	-11.0897
▁pa	-11.0898
▁Over	-11.0899
▁reservations	-11.0899
▁systems.	-11.09
▁regarded	-11.0901
▁absolue	-11.0902
▁excuse	-11.0903
▁competences	-11.0906
▁insufficient	-11.0909
▁greenhouse	-11.0909
▁citizenship	-11.0909
▁undertakings	-11.0911
▁Association	-11.0912
▁airlines	-11.0912
▁allocation	-11.0913
▁(C	-11.0913
▁tri	-11.0915
▁confirme	-11.0916
nom	-11.0917
▁cherche	-11.092
▁Rur	-11.0921
▁garantissant	-11.0922
▁drogues	-11.0922
▁accorde	-11.0923
▁Joint	-11.0928
▁supplementary	-11.0928
▁concurrence.	-11.0933
▁Slovakia	-11.0933
▁abolition	-11.0934
▁terrorisme,	-11.0938
▁fondé	-11.094
▁incorporated	-11.0942
▁soumise	-11.0943
enne	-11.0946
▁expansion	-11.0946
▁bat	-11.0947
▁devise	-11.0947
▁cor	-11.0947
▁réduite	-11.0952
▁l'union	-11.0953
▁changé	-11.0953
▁flag	-11.0955
▁ill	-11.0955
▁exprimées	-11.0956
shed	-11.0961
titu	-11.0962
▁ships	-11.0964
▁weak	-11.0965
▁deep	-11.0968
▁négatif	-11.0968
▁brutal	-11.0969
▁Monti	-11.0971
▁health.	-11.0972
▁negotiate	-11.0976
▁présentées	-11.0976
▁stimuler	-11.0976
tric	-11.0977
▁devenu	-11.098
▁sought	-11.0982
▁limitation	-11.0985
q	-11.0986
10	-11.0989
▁collecte	-11.0991
▁l'Est	-11.0993
▁75	-11.0997
▁necessary.	-11.1
▁mondial.	-11.1003
▁durabilité	-11.1004
▁camp	-11.1004
▁objections	-11.1005
onie	-11.1007
ped	-11.1009
han	-11.101
▁pilot	-11.101
▁Quoi	-11.1011
▁sensibles	-11.1011
▁extrême	-11.1012
▁aspirations	-11.1014
▁Any	-11.1015
▁2003.	-11.1017
▁rappel	-11.1021
▁tenus	-11.1022
▁afraid	-11.1023
▁étrangers	-11.1024
▁consacrer	-11.1025
rm	-11.1026
▁wage	-11.1029
▁instamment	-11.103
▁Nigeria	-11.103
▁battle	-11.103
ccident	-11.1031
▁assurance	-11.1033
▁candidat	-11.1033
▁consumers.	-11.1035
▁presenting	-11.1036
▁indépendant	-11.1039
▁voudrions	-11.1043
▁chain	-11.1045
▁Commissioner.	-11.1046
▁jusqu'ici	-11.1049
▁d’avoir	-11.105
▁fairly	-11.1051
▁lever	-11.1053
▁représenter	-11.1054
▁obtained	-11.1055
▁d'immigration	-11.1055
▁l'Espagne	-11.1055
▁threshold	-11.1055
▁unit	-11.1056
▁numbers	-11.1057
-in	-11.1059
▁bref	-11.1065
▁things,	-11.1065
▁convaincue	-11.1066
▁indiquer	-11.1066
▁remédier	-11.1068
▁women's	-11.1068
nement	-11.107
▁occupation	-11.1071
▁investi	-11.1072
▁leçons	-11.1073
▁plafond	-11.1075
▁command	-11.1078
▁eliminate	-11.1081
▁rejette	-11.1083
▁retrouver	-11.1083
▁veille	-11.1085
▁fixe	-11.1087
▁condamnation	-11.1088
▁everybody	-11.1088
ok	-11.1093
▁mine	-11.1095
tat	-11.1107
▁Turquie.	-11.1109
▁insiste	-11.111
▁l’égalité	-11.1115
▁pouvant	-11.112
▁pourcentage	-11.112
▁watch	-11.112
▁extérieur	-11.112
▁fallait	-11.1121
▁authorities,	-11.1123
▁échec	-11.1124
▁buy	-11.1126
▁preserve	-11.1126
▁raising	-11.1128
▁appris	-11.1133
▁turque	-11.1133
ban	-11.1135
ili	-11.1137
ers,	-11.1141
▁chaleureusement	-11.1146
▁pact	-11.115
Euro	-11.1152
▁actif	-11.1153
▁espèces	-11.1155
▁smaller	-11.1156
▁(Parliament	-11.1159
▁sauvegarde	-11.1159
▁promise	-11.1166
▁fermeture	-11.1166
▁excluded	-11.1166
1999	-11.1166
▁doubts	-11.1167
▁inspections	-11.117
▁aside	-11.117
▁nationales.	-11.1171
▁C4-0	-11.1172
▁affirme	-11.1173
work	-11.1174
▁suspect	-11.1176
▁fire	-11.1176
elles	-11.1177
▁subi	-11.1177
▁increases	-11.1178
▁citoyenneté	-11.1179
ria	-11.1181
▁heureuse	-11.1181
▁expériences	-11.1185
▁développés	-11.1186
▁titre,	-11.119
▁démontre	-11.1191
▁Blair	-11.1191
▁Tourism	-11.1191
▁children.	-11.1196
▁contribuent	-11.1196
▁appliqué	-11.1198
nelle	-11.1199
▁annex	-11.1202
ern	-11.1205
▁interdit	-11.1205
▁pan	-11.1209
▁connais	-11.1211
▁prochains	-11.1215
▁electoral	-11.1217
▁treaties	-11.1218
▁cour	-11.1218
▁targeted	-11.1218
2006	-11.1219
▁élargie	-11.1221
▁bureaucratic	-11.1224
▁preuves	-11.1224
▁G20	-11.1226
▁observer	-11.1227
▁sûreté	-11.1231
▁l'avez	-11.1234
▁chair	-11.1237
▁l'exclusion	-11.1237
▁Traités	-11.1238
▁coordonnée	-11.1239
▁d'amendement	-11.124
ft	-11.124
pla	-11.1243
▁soulève	-11.1244
▁l'enseignement	-11.125
▁shift	-11.125
▁Europe’s	-11.1255
▁Follow	-11.1256
▁l'harmonisation	-11.1256
▁débattu	-11.1258
▁EU’s	-11.1258
▁leaving	-11.1259
▁minimales	-11.126
▁ordinary	-11.1263
▁vitesse	-11.1263
▁évoquer	-11.1264
by	-11.1266
▁employers	-11.1275
19	-11.1276
▁croissant	-11.1277
▁librement	-11.128
▁engagé	-11.1284
▁36	-11.1284
▁finir	-11.1288
▁manifestement	-11.1291
▁interests.	-11.1292
▁prompt	-11.1294
▁York	-11.1296
▁ambitieuse	-11.1296
▁palestinienne	-11.1296
▁informé	-11.1297
▁autorité	-11.1298
▁Industry	-11.1302
▁voulais	-11.1302
▁von	-11.1306
▁armed	-11.1318
▁intellectuelle	-11.132
lier	-11.132
ues	-11.1321
▁blame	-11.1322
ose	-11.1328
▁criminels	-11.1328
▁Well	-11.1328
▁trend	-11.1331
▁l'excellent	-11.1331
Europe	-11.1335
▁fleet	-11.1341
nov	-11.1341
▁combined	-11.1342
▁Milosevic	-11.1349
▁responsibility.	-11.1349
▁incentives	-11.1349
▁firms	-11.1352
▁l’Europe.	-11.1353
▁guère	-11.1355
▁Yugoslavia	-11.1358
▁résistance	-11.1362
▁shortcomings	-11.1362
▁struggle	-11.1368
▁Chaque	-11.137
wi	-11.1371
▁pertinent	-11.1373
▁modifiée	-11.1374
▁credible	-11.1375
▁invité	-11.1377
▁motions	-11.1379
▁voyons	-11.1382
▁pensent	-11.1388
▁aujourd'	-11.1388
▁disabled	-11.1388
▁dramatique	-11.1389
▁transmis	-11.1394
▁Frontex	-11.1395
▁jointly	-11.1396
▁chinois	-11.1398
▁réglementaire	-11.14
▁aéroports	-11.1401
▁involved.	-11.1402
▁digne	-11.1403
▁rempli	-11.1404
▁catégories	-11.1404
-elles	-11.1408
▁traduit	-11.1408
▁prenons	-11.1409
▁restriction	-11.1409
▁occidentaux	-11.1415
▁contrast	-11.1415
▁match	-11.1416
▁portent	-11.1416
▁approuvée	-11.1419
▁publique.	-11.1421
▁considérations	-11.1424
▁engager	-11.1426
▁investir	-11.1428
▁Déclaration	-11.1428
▁analyses	-11.1435
▁qu'avec	-11.1435
▁unanime	-11.1435
▁universel	-11.1436
▁[	-11.1438
▁bord	-11.1439
▁exemple.	-11.1439
▁Telle	-11.1439
▁l’égard	-11.1442
uvre	-11.1449
▁envoyé	-11.1451
▁undertake	-11.1452
ifier	-11.1458
▁revised	-11.1459
▁unies,	-11.146
▁necessarily	-11.1462
▁ethical	-11.1463
ear	-11.1464
▁surprised	-11.1464
▁Office	-11.1465
▁flotte	-11.147
▁stations	-11.1475
▁pleasure	-11.1475
bon	-11.1482
▁répression	-11.1483
ik	-11.1485
▁Grâce	-11.1488
▁medium	-11.1488
▁drafting	-11.1493
▁entamé	-11.1495
▁puisqu'il	-11.1496
tter	-11.1496
▁mainte	-11.1496
▁d'aider	-11.1501
▁numérique	-11.1502
▁posée	-11.1502
▁authorisation	-11.151
▁term.	-11.1512
▁2002.	-11.1514
▁d'initiative	-11.1514
offre	-11.1514
▁examined	-11.1514
▁agence	-11.1514
▁showing	-11.1517
▁neuf	-11.1519
▁Députés	-11.1521
▁cruel	-11.1523
tig	-11.1531
▁organiser	-11.1534
▁Macédoine	-11.1535
▁puissance	-11.1536
▁ones	-11.1536
▁patient	-11.1537
▁d'encourager	-11.1538
▁facts	-11.1541
▁Constitution.	-11.1542
▁Free	-11.1542
▁Hu	-11.1543
▁turned	-11.1544
gar	-11.1546
▁exempt	-11.1546
▁signalé	-11.155
▁relate	-11.1552
nder	-11.1554
▁d'intervention	-11.1562
▁indication	-11.1567
▁chi	-11.1567
▁declare	-11.1567
▁economically	-11.1568
▁él	-11.1569
▁étions	-11.1571
d'investissement	-11.1572
▁feront	-11.1572
▁eyes	-11.1574
▁repeatedly	-11.1575
▁transparente	-11.1576
▁formula	-11.1577
▁réservé	-11.1577
▁world's	-11.1578
▁réels	-11.1578
▁veto	-11.1583
▁complaints	-11.1584
▁rapprocher	-11.1586
▁susceptible	-11.1587
▁promesses	-11.1588
lais	-11.1588
▁Palestiniens	-11.159
▁48	-11.1592
▁embargo	-11.1596
▁l’objet	-11.1596
AC	-11.1598
▁War	-11.1598
▁fou	-11.1599
▁fresh	-11.1603
▁declarations	-11.1604
▁bearing	-11.1605
▁tire	-11.1605
▁l'Irak	-11.161
▁élevées	-11.1617
▁outstanding	-11.1618
▁perfect	-11.1618
▁grow	-11.1619
-je	-11.1621
▁charte	-11.1623
▁concret	-11.1624
▁conclus	-11.1629
agin	-11.1631
▁expressing	-11.1637
▁nearly	-11.1638
▁l’UE.	-11.1638
▁33	-11.164
exprim	-11.164
ecommunications	-11.1644
▁a.m.	-11.1644
ties	-11.1648
▁intégré	-11.165
▁planification	-11.165
▁Inter	-11.1651
▁messages	-11.1651
▁l'acquis	-11.1653
▁palestinien	-11.1653
▁refusé	-11.1661
roi	-11.1662
▁bureau	-11.1663
▁constamment	-11.1664
▁fusion	-11.1665
▁partageons	-11.1665
▁win	-11.1666
▁passé.	-11.1669
▁générations	-11.1669
▁décennies	-11.167
bor	-11.1672
▁positives	-11.1674
▁coordonner	-11.1675
▁opérationnel	-11.1675
▁vie.	-11.168
▁biodiversité	-11.1685
ust	-11.1686
▁morale	-11.1688
▁posent	-11.1688
▁Pen	-11.169
▁utiles	-11.1696
▁progressivement	-11.1698
▁productive	-11.17
mun	-11.1704
▁Russia.	-11.1705
▁Hussein	-11.1705
▁solid	-11.1706
euses	-11.1707
▁sad	-11.1712
▁frappé	-11.1712
▁50%	-11.1713
▁exceptional	-11.1714
▁broader	-11.1714
▁stance	-11.1715
▁Helsinki	-11.1719
▁unemployed	-11.1719
▁incidents	-11.1724
ki	-11.1725
▁Presidency.	-11.1727
▁suspended	-11.1729
▁général.	-11.1732
▁salariés	-11.1733
▁contest	-11.1735
▁déterminant	-11.174
▁judiciaires	-11.1742
▁Therefore	-11.1749
▁indicate	-11.1749
▁civilian	-11.175
▁géographique	-11.1752
▁brevets	-11.1753
▁students	-11.1754
▁micro	-11.1759
▁Burma	-11.176
▁notice	-11.1764
▁crise.	-11.1768
▁comparable	-11.1771
▁biodiversity	-11.1774
▁widespread	-11.1774
cle	-11.1775
▁DG	-11.1777
▁warmly	-11.1779
▁assuré	-11.1781
▁l'affaire	-11.1781
▁intense	-11.1781
▁diminuer	-11.1781
▁liability	-11.1781
▁host	-11.1782
▁foundations	-11.1785
▁hardly	-11.1789
▁heure	-11.179
▁critère	-11.1795
▁reflects	-11.1795
▁agreements.	-11.1797
▁transitoire	-11.1802
▁campagnes	-11.1802
2004	-11.1804
▁2020.	-11.1804
▁candidates	-11.1807
▁resulted	-11.1812
vol	-11.1813
▁150	-11.1813
une	-11.1813
▁journée	-11.1814
▁deadline	-11.1815
▁d'introduire	-11.1816
▁tough	-11.1817
▁Compte	-11.1817
alité	-11.182
▁voient	-11.1821
▁printemps	-11.1823
▁précaution	-11.1823
▁similaires	-11.1823
▁utilise	-11.1823
▁d'ordre	-11.1823
▁climatiques	-11.1824
ui	-11.1826
▁nuit	-11.1833
▁journalistes	-11.1834
▁collaborer	-11.1836
▁Ch	-11.1836
▁pluriannuel	-11.1836
▁spécifiquement	-11.1837
▁repeated	-11.1839
▁attentivement	-11.1841
▁funds.	-11.1842
▁arabe	-11.1843
don	-11.1845
▁réductions	-11.1846
gri	-11.1852
▁annuelle	-11.1854
▁rare	-11.1854
▁Américains	-11.1857
▁suggère	-11.1857
▁fewer	-11.1861
▁consult	-11.1863
▁écrites	-11.1864
▁Maroc	-11.1866
▁percentage	-11.1871
▁Michel	-11.1871
▁penalties	-11.1871
▁educational	-11.1875
▁preparations	-11.1878
▁Slovaquie	-11.1878
▁committee.	-11.1882
her	-11.1884
▁door	-11.1884
▁constitué	-11.1885
▁promises	-11.1891
▁col	-11.1892
▁honest	-11.1893
▁modifié	-11.1894
▁below	-11.1895
▁plain	-11.19
▁entrepreneurs	-11.1906
▁expense	-11.1908
▁partager	-11.1912
▁Washington	-11.1913
▁night	-11.1913
▁L’Union	-11.1913
▁instaurer	-11.1914
tour	-11.1915
▁Service	-11.1917
ett	-11.1917
▁jouent	-11.1917
▁s'é	-11.1917
▁foster	-11.192
▁législature	-11.192
▁Most	-11.192
▁voies	-11.1923
▁post-	-11.1925
▁suscite	-11.1925
▁définis	-11.1925
▁rétablir	-11.1927
▁volet	-11.1929
▁airports	-11.1932
▁douanière	-11.1934
▁ratify	-11.1934
▁transmettre	-11.1935
▁disagree	-11.1938
rage	-11.194
ller	-11.194
▁category	-11.1941
▁d'enquête	-11.1941
▁l’occasion	-11.1942
pass	-11.1944
▁unfortunate	-11.1944
▁rely	-11.1947
▁crime.	-11.1947
▁transatlantic	-11.1948
▁progress.	-11.1956
▁coalition	-11.1962
▁nous-mêmes	-11.1963
▁impliqués	-11.1963
▁opposés	-11.1967
▁compete	-11.1968
▁matters.	-11.1968
▁Yes	-11.1968
▁accepte	-11.1969
▁Albania	-11.1969
▁qu'aux	-11.197
▁alter	-11.197
▁attract	-11.1971
▁négocié	-11.1975
▁enhanced	-11.1975
▁treat	-11.1976
▁licences	-11.1979
▁widely	-11.198
▁alliance	-11.1983
▁sucre	-11.1984
▁cesser	-11.1986
▁fourth	-11.199
▁attaques	-11.1994
▁Laeken	-11.1997
▁track	-11.1998
lib	-11.1998
▁creates	-11.1999
▁borders.	-11.2001
▁buildings	-11.2003
▁l'exemple	-11.2004
▁EMU	-11.2011
▁Geneva	-11.2011
▁34	-11.2015
▁entraîné	-11.2019
▁tackling	-11.2019
▁apparu	-11.2026
▁l'énergie,	-11.2029
▁undertaking	-11.2032
▁enceinte	-11.2033
▁éloign	-11.2033
▁regulated	-11.2037
▁Espagne	-11.204
▁continent.	-11.2046
▁Parmi	-11.2048
ées.	-11.205
rable	-11.2051
▁restricted	-11.2052
PA	-11.2053
▁Ge	-11.2056
▁respecté	-11.2058
▁Cor	-11.2058
▁correspondant	-11.2059
▁OLAF	-11.2061
▁losses	-11.2063
▁unilatérale	-11.2063
▁précision	-11.2064
-S	-11.2064
▁révélé	-11.2064
▁garantit	-11.2065
▁uncertainty	-11.2068
▁presentation	-11.207
▁(article	-11.207
culture	-11.2073
▁English	-11.2075
▁became	-11.2075
guer	-11.2077
▁jobs,	-11.2078
▁libération	-11.2082
▁fiscalité	-11.2086
▁exposé	-11.2089
▁gratitude	-11.2089
▁modalités	-11.2089
▁fassent	-11.2091
▁SIS	-11.2091
▁milliard	-11.2091
▁success.	-11.2094
important	-11.2095
▁youth	-11.2097
▁occurred	-11.2097
▁correction	-11.2097
▁libres	-11.2099
▁city	-11.21
▁explained	-11.2102
▁cars	-11.2103
▁lasting	-11.2103
▁politiquement	-11.2104
▁dictatorship	-11.2104
▁Islamic	-11.2105
▁2015	-11.2105
▁processing	-11.2106
▁assemblée	-11.2106
▁army	-11.2107
▁prononcé	-11.2111
▁absurd	-11.2118
▁décisionnel	-11.212
▁dépasse	-11.212
▁safety.	-11.2127
▁faith	-11.213
▁workers,	-11.2131
▁sovereign	-11.2132
▁applaud	-11.2132
▁coordinate	-11.2132
▁suédois	-11.2132
ers.	-11.2135
▁Convention,	-11.2135
▁Morocco	-11.2139
▁dépensé	-11.2144
nou	-11.2145
▁flow	-11.2147
▁D'autre	-11.2152
▁expensive	-11.2154
▁reserve	-11.2158
▁demandeurs	-11.2159
▁dictature	-11.2161
▁l'E	-11.2163
▁société.	-11.2164
▁émis	-11.2165
▁hopes	-11.2166
▁receiving	-11.2168
▁tu	-11.2168
▁assisté	-11.2172
▁condemned	-11.2174
▁préparé	-11.2175
▁nonetheless	-11.2175
▁écouté	-11.2175
▁0,	-11.2178
▁sérieuse	-11.218
▁informal	-11.2181
▁logical	-11.2182
▁game	-11.2183
▁past.	-11.2186
▁appointment	-11.2188
▁Su	-11.2188
▁côtés	-11.219
ame	-11.219
▁plaintes	-11.2191
▁informés	-11.2196
▁railway	-11.2197
▁soulever	-11.2197
-m	-11.2197
▁souffrent	-11.2201
▁Genève	-11.2204
▁consolider	-11.2204
▁d'États	-11.2205
▁contenter	-11.2206
▁coast	-11.2208
▁offering	-11.2209
▁consist	-11.221
col	-11.2211
98	-11.2212
▁concepts	-11.2215
▁earn	-11.2219
▁récents	-11.2222
▁checks	-11.2227
▁fourniture	-11.2227
▁exceptionnelle	-11.2228
part	-11.2228
viv	-11.2232
▁Clearly	-11.2233
▁aircraft	-11.2233
▁outset	-11.2233
▁regardless	-11.2235
▁co-	-11.2236
▁noise	-11.2236
▁delays	-11.2237
▁droite	-11.2239
▁urgente	-11.2239
▁opportunité	-11.2239
▁devienne	-11.2246
▁drafted	-11.2249
▁condamner	-11.2252
▁contrairement	-11.2253
▁unacceptable.	-11.2254
cteur	-11.2254
▁collection	-11.2256
atif	-11.2256
▁minister	-11.2257
udi	-11.2258
uf	-11.226
▁l'octroi	-11.2261
▁lessons	-11.2261
▁américains	-11.2261
▁unanimous	-11.2261
▁promis	-11.2268
plication	-11.227
▁Union'	-11.2275
▁abstenu	-11.2276
▁l’amendement	-11.2276
▁pri	-11.2277
▁locale	-11.2277
▁entrave	-11.2277
▁doter	-11.2279
▁tiré	-11.2279
▁failing	-11.228
▁reflection	-11.2281
▁elderly	-11.2284
▁échelle	-11.2284
▁indications	-11.2285
▁turning	-11.2286
▁Lithuania	-11.2286
▁procurement	-11.2288
▁groups.	-11.229
▁incident	-11.229
▁proposons	-11.2291
▁unies.	-11.2292
▁J’	-11.2298
▁masse	-11.2298
▁causing	-11.2298
▁ceiling	-11.2298
▁estimé	-11.2302
▁conseils	-11.2303
▁demographic	-11.2305
▁logement	-11.2306
ulation	-11.2308
▁marche	-11.2309
▁autres.	-11.2311
PE	-11.2313
▁douane	-11.2313
▁attache	-11.2315
▁défendu	-11.2316
▁bénéficie	-11.2317
▁grecque	-11.2317
▁renforce	-11.2318
ica	-11.2318
▁borne	-11.2319
▁Syria	-11.232
▁indicators	-11.2321
▁exert	-11.2322
▁falls	-11.2323
are	-11.2325
▁Obviously	-11.2327
▁vigilant	-11.2327
▁expertise	-11.2329
▁4.	-11.233
▁chose.	-11.2331
▁class	-11.2331
cho	-11.2332
▁Frattini	-11.2335
▁manner.	-11.2335
▁occupe	-11.2336
▁montants	-11.2337
stitutionnelles	-11.234
▁gradually	-11.2347
▁indispensables	-11.2347
▁permette	-11.2353
▁déco	-11.2355
▁prioritaire	-11.2357
(1)	-11.2358
▁coll	-11.2363
▁freely	-11.2363
▁voilà	-11.2364
▁killed	-11.2377
▁procédé	-11.2378
▁n'importe	-11.2378
▁Afin	-11.2379
▁larger	-11.2381
▁Barnier	-11.2386
▁programmation	-11.2386
▁character	-11.2393
▁interprétation	-11.2393
issons	-11.2395
▁raw	-11.2395
oir	-11.2396
▁fondamentaux.	-11.2396
▁profite	-11.2396
▁cod	-11.2401
▁lorsqu'elle	-11.2402
▁rom	-11.2402
gression	-11.2403
▁deuxièmement	-11.241
▁rapprochement	-11.241
▁récentes	-11.2411
▁incapable	-11.2411
▁primordial	-11.2414
▁retards	-11.2414
▁inférieur	-11.2415
ann	-11.2415
▁l'instar	-11.2415
habi	-11.2416
▁juridique.	-11.2416
▁activities.	-11.2419
▁Swoboda	-11.2422
▁began	-11.2423
▁outils	-11.2425
▁results.	-11.2426
▁sports	-11.2428
▁bâtiments	-11.243
▁importantly	-11.2432
▁désire	-11.2433
▁Va	-11.2437
▁Investment	-11.2437
▁porté	-11.2439
▁basically	-11.244
▁money.	-11.2443
▁needed.	-11.2445
▁opportunités	-11.2448
▁listened	-11.245
▁spring	-11.2453
ny	-11.2456
▁Lituanie	-11.2459
écu	-11.246
▁engaged	-11.2461
▁severe	-11.2462
▁95	-11.2463
▁hence	-11.2466
▁décisif	-11.2467
▁invitation	-11.2467
▁qua	-11.2467
▁aborde	-11.2469
▁l’objectif	-11.2475
▁entraîner	-11.248
▁financed	-11.2481
▁push	-11.2481
▁Danube	-11.2482
▁bilatéraux	-11.2482
▁congratulations	-11.2482
▁symbol	-11.2486
▁unity	-11.2487
▁dégâts	-11.2489
▁Parliament'	-11.2489
▁subject.	-11.2491
▁donnent	-11.2491
cy	-11.2495
▁mondiaux	-11.2496
▁tribunaux	-11.2496
page	-11.2497
▁consent	-11.2498
ines	-11.2498
▁ici.	-11.2503
▁Other	-11.2504
▁officielle	-11.2505
▁varie	-11.2507
▁transformer	-11.2508
▁fill	-11.2511
▁secrétaire	-11.2511
▁tort	-11.2512
▁intervenu	-11.2512
▁îles	-11.2515
▁certification	-11.2519
▁extraordinary	-11.2519
▁allusion	-11.2519
▁III	-11.2519
▁journalists	-11.2523
▁d'enfants	-11.2526
-year	-11.2528
▁imposées	-11.253
(2)	-11.2534
▁observed	-11.2535
▁42	-11.2537
▁portugaise	-11.254
▁welcomes	-11.254
▁comparison	-11.2542
▁bu	-11.255
▁manifestations	-11.2551
▁Bolkestein	-11.2556
▁diffusion	-11.2556
▁hommage	-11.2556
▁objet	-11.2556
▁supranational	-11.2556
▁Oui	-11.2561
▁necessity	-11.2563
▁reality.	-11.2564
▁Commissaire.	-11.2565
▁profession	-11.2566
▁règne	-11.2571
▁placé	-11.2572
▁occidentale	-11.2573
▁demonstrates	-11.2575
▁breach	-11.2575
▁predict	-11.2579
▁(E	-11.2582
▁formulé	-11.2584
▁foi	-11.2585
▁terrorists	-11.2586
ari	-11.2587
▁situe	-11.259
▁don	-11.2591
▁disadvantage	-11.2591
▁Chechnya	-11.2593
▁strike	-11.2597
▁cohérent	-11.2597
grad	-11.2603
25	-11.2604
▁brut	-11.2606
▁communautaires.	-11.2606
▁prudence	-11.2608
▁augmente	-11.2613
▁REACH	-11.2616
▁l'exportation	-11.2616
▁personnelle	-11.2619
▁génétiquement	-11.262
▁covers	-11.2621
▁prévus	-11.2623
▁territories	-11.2623
▁d'accorder	-11.2624
▁privées	-11.2625
▁expliqué	-11.2626
▁kinds	-11.2628
▁d'armes	-11.2631
▁culturels	-11.2631
▁lecture,	-11.2632
▁6,	-11.2633
▁structurelle	-11.2633
iz	-11.2637
▁elections.	-11.264
▁résolu	-11.2642
▁Ko	-11.2645
▁commend	-11.2651
ity.	-11.2652
▁supplement	-11.2653
▁l'Inde	-11.2653
▁adhere	-11.2654
▁simples	-11.2655
▁causé	-11.2656
fic	-11.2658
▁l'instrument	-11.2658
▁incorporate	-11.2659
ek	-11.266
▁supplies	-11.2661
▁frequently	-11.2664
▁animale	-11.2667
gal	-11.2667
▁prioritaires	-11.2668
▁proven	-11.2671
▁l'entreprise	-11.2671
▁Palestinians	-11.2673
▁»	-11.2675
▁B5-	-11.2676
ina	-11.2676
▁question:	-11.2677
euse	-11.2681
▁complémentaire	-11.2682
▁industriels	-11.2682
▁circonscription	-11.2683
▁rubrique	-11.2683
▁l'Iran	-11.2684
▁abstained	-11.2684
▁bénéfice	-11.2686
▁doutes	-11.2688
▁yes	-11.2688
▁mouvements	-11.2689
▁recul	-11.269
▁n’en	-11.2694
▁beneficial	-11.2699
▁parvenu	-11.2701
▁poursuivi	-11.2704
▁précédents	-11.2705
▁circumstances,	-11.2706
▁Nonetheless	-11.2706
▁contamination	-11.2706
▁démocratisation	-11.2706
▁emphasize	-11.2706
étique	-11.2707
rions	-11.2707
▁Malte	-11.2708
▁travaille	-11.271
▁popular	-11.2714
▁generations	-11.2714
▁rendent	-11.2716
▁justifiée	-11.2718
▁IGC	-11.2721
ologie	-11.2727
▁budgétaire.	-11.2729
▁field.	-11.2733
▁Brazil	-11.2737
urg	-11.2737
▁culturelles	-11.2737
▁suspend	-11.2738
teur	-11.274
▁suffi	-11.274
▁workers.	-11.2742
▁rejection	-11.2746
ien	-11.2746
▁s'agisse	-11.2752
▁troops	-11.2752
çant	-11.2752
▁d'après	-11.2754
lia	-11.2758
▁Labour	-11.2759
ane	-11.2759
▁d'élaborer	-11.2759
▁tribute	-11.2759
▁past,	-11.276
▁lecture.	-11.2761
▁provoqué	-11.2763
ral	-11.2765
▁précises	-11.2767
▁promoted	-11.277
▁cri	-11.2771
▁négociations.	-11.2773
▁l'I	-11.2773
▁parallel	-11.2775
▁connue	-11.2775
▁employés	-11.2777
▁saine	-11.2777
▁éventuellement	-11.2781
▁fiscaux	-11.2782
▁liaison	-11.2782
ritten	-11.279
▁Soviet	-11.279
▁minimal	-11.279
▁prevented	-11.279
▁mini	-11.2791
ana	-11.2795
▁éliminer	-11.2795
▁fur	-11.2797
▁classe	-11.2797
▁félicitations	-11.2797
▁Libya	-11.2797
▁spécialement	-11.2798
▁10%	-11.28
▁moved	-11.2801
▁Iraqi	-11.2802
▁Face	-11.2802
▁s’en	-11.2803
▁compléter	-11.2805
▁search	-11.2805
▁noon.	-11.2806
▁sociales,	-11.2807
▁registre	-11.281
▁Egypt	-11.2812
▁finish	-11.2813
▁Palacio	-11.2813
▁ça	-11.2813
▁détention	-11.2813
▁impliquant	-11.2813
▁étudiants	-11.2816
▁profondeur	-11.2818
▁sole	-11.2819
▁tomorrow,	-11.2822
ères	-11.2822
▁D'	-11.2822
▁vehicle	-11.2823
▁déf	-11.2824
▁réagi	-11.2828
▁London	-11.2828
▁Poettering	-11.2828
▁cible	-11.2831
▁d'éducation	-11.2831
▁envoyer	-11.2832
mination	-11.2834
▁sending	-11.2835
▁Declaration	-11.2836
▁l’adoption	-11.2836
▁venons	-11.2836
▁législatifs	-11.2838
▁insuffisant	-11.2838
▁favorise	-11.2844
▁race	-11.2846
▁accru	-11.2847
▁shares	-11.2847
▁accomplir	-11.2848
▁m'en	-11.285
▁chute	-11.2851
▁Year	-11.2851
▁shortly	-11.2858
ats	-11.2858
▁réussir	-11.2863
▁subjects	-11.2866
▁divided	-11.2866
▁Great	-11.2866
▁surface	-11.2867
▁salaire	-11.2867
▁couvre	-11.2868
▁pursued	-11.287
venant	-11.287
▁stage.	-11.2871
▁récent	-11.2873
▁Parallèlement	-11.2874
▁Eurostat	-11.2874
▁polonais	-11.2874
▁disponible	-11.2874
▁admettre	-11.2875
▁souhaiter	-11.2877
▁opérationnelle	-11.2879
▁Verts	-11.288
▁soutiennent	-11.2882
▁entamer	-11.2882
▁reçoivent	-11.2886
tta	-11.2887
▁chrétiens	-11.2887
▁reading.	-11.2888
▁ferons	-11.2889
let	-11.289
merge	-11.2898
▁alongside	-11.2898
▁38	-11.2899
▁espoir	-11.2902
gène	-11.2904
▁Every	-11.2905
▁bénéfique	-11.2905
▁cinquième	-11.2905
▁décisive	-11.2905
▁emerging	-11.2905
▁utilisateurs	-11.2905
▁dépassé	-11.2913
▁présidente	-11.2913
▁établissant	-11.2913
▁insisté	-11.2916
▁project.	-11.2918
▁entrée	-11.2919
▁collapse	-11.292
gli	-11.2921
rat	-11.2924
▁amélioré	-11.2927
▁rémunération	-11.2928
▁l'échange	-11.2929
▁pen	-11.2929
▁L'a	-11.2933
▁approuve	-11.2933
▁none	-11.2935
▁devaient	-11.2936
▁auteurs	-11.2939
▁déployés	-11.294
▁fondement	-11.2941
-C	-11.2942
▁l’utilisation	-11.2945
purement	-11.2947
▁faux	-11.2948
▁accompanied	-11.2951
▁rigorous	-11.2951
▁arising	-11.2952
▁drivers	-11.2953
▁Toute	-11.2954
▁congratulating	-11.2959
▁l'extérieur	-11.2959
▁Pre	-11.2959
▁talked	-11.296
▁constatons	-11.2961
▁insuffisante	-11.2972
▁harmonisé	-11.2975
▁nécessairement	-11.2975
▁day.	-11.2977
▁simplify	-11.2979
▁Go	-11.2979
▁vaccin	-11.2982
▁certifi	-11.2983
▁évidente	-11.2984
▁deviennent	-11.2984
▁d'aborder	-11.2987
▁compétentes	-11.2987
▁sincerely	-11.2987
char	-11.2996
ales	-11.3
être	-11.3001
▁persuadé	-11.3006
▁provisoire	-11.3006
▁améliorée	-11.3007
▁tentatives	-11.3007
▁judgment	-11.3011
▁enregistré	-11.3011
▁deaths	-11.3012
▁president	-11.3013
▁keen	-11.3014
▁Etats	-11.3015
AS	-11.302
▁clearer	-11.3021
▁chemical	-11.3021
pou	-11.3021
▁indirect	-11.3023
/01	-11.3023
▁expert	-11.3023
▁defending	-11.3024
▁périodes	-11.3025
▁Présidente	-11.3025
arm	-11.3026
▁coûte	-11.3026
ming	-11.3028
▁exclusively	-11.3029
▁northern	-11.3037
▁approximately	-11.3044
▁decline	-11.3045
▁convaincus	-11.3047
▁banking	-11.3048
▁l'essentiel	-11.3053
▁déçu	-11.3053
-b	-11.3055
▁Ju	-11.3056
▁passion	-11.3057
▁lancement	-11.3058
bro	-11.306
▁birth	-11.3061
▁inégalités	-11.3062
▁morts	-11.3064
ath	-11.3064
-A	-11.3065
▁friend	-11.3065
▁l'attitude	-11.3066
▁quotidienne	-11.3066
▁discussion.	-11.3066
▁nobody	-11.3069
▁officiel	-11.3074
▁cheap	-11.3076
place	-11.3078
▁Est-ce	-11.3084
▁pauvreté.	-11.3085
▁follows	-11.3088
▁humanitaires	-11.3089
-M	-11.3092
▁mental	-11.3092
▁accurate	-11.3092
▁s'agissant	-11.3092
▁Communauté.	-11.3097
▁discrimination.	-11.3099
▁Com	-11.3099
▁allant	-11.3101
▁enlarged	-11.3102
▁exprime	-11.3103
▁dégager	-11.3107
▁généraux	-11.3108
▁margin	-11.3108
▁revolution	-11.3109
▁sinon	-11.3115
▁harmonised	-11.3116
▁exploitations	-11.3116
▁Mugabe	-11.3116
▁Otherwise	-11.3116
▁experiencing	-11.3116
▁text.	-11.3118
▁accélérer	-11.3123
▁Ou	-11.3123
▁absurde	-11.3124
▁Women	-11.3127
▁victim	-11.3129
▁divergences	-11.3136
▁looked	-11.3142
▁usual	-11.3142
▁surveiller	-11.3142
▁travailleurs.	-11.3148
▁periods	-11.3149
▁rising	-11.3149
▁pé	-11.3152
▁Birmanie	-11.3155
▁Like	-11.3156
mal	-11.316
▁dernier.	-11.3162
▁touch	-11.3164
▁touchés	-11.3165
▁prevail	-11.3168
▁organe	-11.3169
ologique	-11.3173
É	-11.3176
▁concrétiser	-11.3176
▁syndicats	-11.3178
▁capture	-11.3179
istic	-11.318
▁l’en	-11.318
▁contraintes	-11.3181
▁l'approbation	-11.3181
▁crops	-11.3182
▁rejoindre	-11.3187
▁requête	-11.3188
▁strictly	-11.3189
▁licence	-11.3191
▁tenons	-11.3192
▁rythme	-11.3195
RE	-11.3195
▁quarter	-11.3197
▁amené	-11.3198
▁efficiently	-11.32
▁discriminations	-11.32
▁jurisdiction	-11.3203
▁stem	-11.3205
▁mar	-11.3206
▁threaten	-11.3206
▁growth.	-11.3208
▁argue	-11.3212
▁bill	-11.3214
▁exemption	-11.3215
▁partant	-11.3216
▁satisfaisant	-11.3218
▁tunnel	-11.3219
▁prenant	-11.322
▁isolé	-11.3222
▁bois	-11.3223
▁consacrée	-11.3226
▁respecting	-11.3232
ators	-11.3233
▁s'engager	-11.3234
▁resource	-11.3234
▁Statute	-11.3235
amin	-11.3236
▁poisson	-11.324
▁unanimity	-11.3243
▁géré	-11.3244
▁disappointed	-11.3244
▁soumises	-11.3249
▁Education	-11.3251
▁Objective	-11.3251
▁identifié	-11.3251
▁compétente	-11.3251
▁Decision	-11.3252
ivité	-11.3258
▁directed	-11.3264
▁stick	-11.3267
▁voulez	-11.3267
▁Their	-11.3269
▁pièces	-11.3269
▁43	-11.327
▁Atlantic	-11.327
▁suivie	-11.3272
▁Ré	-11.3272
▁routière	-11.3275
alisation	-11.3276
▁énergétique.	-11.3277
ome	-11.3279
▁banque	-11.3282
▁requiert	-11.3283
▁Leur	-11.3285
▁avance	-11.3287
▁standing	-11.3287
▁Americans	-11.3291
ié	-11.3292
▁Mu	-11.3292
▁réalité.	-11.3292
▁ferai	-11.3293
load	-11.3298
▁companies.	-11.3299
just	-11.3301
▁mur	-11.3302
▁clandestine	-11.3302
▁disons	-11.3305
▁demanderai	-11.3305
▁surrounding	-11.3307
▁déterminé	-11.3307
été	-11.3308
til	-11.3308
▁Presidents	-11.3309
▁légal	-11.3309
▁écart	-11.3311
▁catch	-11.3312
í	-11.3315
▁loans	-11.3316
▁sentence	-11.3317
▁visé	-11.3321
▁routier	-11.3321
▁S'agissant	-11.3323
▁soviétique	-11.3323
attaque	-11.333
▁Information	-11.3331
▁adult	-11.3339
▁Petitions	-11.3339
▁d'assurance	-11.3339
▁ultrapériphéri	-11.3339
▁trans-European	-11.3339
▁opposé	-11.334
▁Ben	-11.3345
own	-11.3346
▁coherence	-11.3347
▁Jusqu'	-11.3347
▁relèvent	-11.3356
▁Reform	-11.3357
▁friendly	-11.3362
▁combler	-11.3363
ö	-11.3363
▁Cotonou	-11.3363
▁choses.	-11.3365
▁l'Agenda	-11.3365
▁d'entreprises	-11.3366
▁encouragement	-11.3368
approuve	-11.3368
année	-11.337
▁Cohesion	-11.3372
▁impératif	-11.3373
▁figurent	-11.3373
40	-11.3375
▁maximale	-11.3379
▁imposé	-11.3379
▁mou	-11.338
▁neighbourhood	-11.338
▁emission	-11.3381
jou	-11.3382
▁néerlandais	-11.3383
▁forests	-11.3384
▁guide	-11.3385
▁nôtre	-11.3388
▁surplus	-11.3388
range	-11.3394
▁essence	-11.3396
▁courte	-11.3397
▁textiles	-11.3397
rge	-11.3398
▁threatened	-11.3399
▁modèles	-11.3402
▁Communist	-11.3404
ani	-11.3404
aine	-11.3406
▁demandant	-11.341
EA	-11.341
▁agi	-11.3411
▁differ	-11.3413
▁sauf	-11.3417
▁Finnish	-11.342
ali	-11.342
▁achieved.	-11.3422
▁communiqué	-11.3428
▁suscité	-11.3428
▁Ad	-11.3428
▁Two	-11.3429
▁indépendance	-11.3432
▁d’Europe	-11.3432
▁desirable	-11.3437
▁enquêtes	-11.3439
▁similaire	-11.3445
▁désaccord	-11.3445
els	-11.345
▁l'ESB	-11.3453
▁l’esprit	-11.3453
▁procedural	-11.3453
▁yourself	-11.3453
▁begun	-11.3453
▁risquent	-11.3454
ider	-11.3456
accord	-11.3458
▁entrepris	-11.346
▁incompatible	-11.3461
▁quelqu'un	-11.3461
of	-11.3464
▁uphold	-11.3466
▁da	-11.3469
▁Sakharov	-11.3469
▁dream	-11.3469
▁réjouir	-11.3469
▁déplore	-11.3471
▁négative	-11.3472
▁marked	-11.3473
uni	-11.3474
X	-11.3475
▁seules	-11.3477
▁computer	-11.3477
▁sharing	-11.3477
▁parallèlement	-11.3478
▁décrit	-11.3478
▁abordée	-11.348
▁consulted	-11.3483
+	-11.3483
▁complexes	-11.3484
▁troupes	-11.3485
▁defining	-11.3486
▁israélien	-11.3486
▁Turkey.	-11.3488
onn	-11.3489
▁acceptée	-11.3493
▁Tchétchénie	-11.3494
▁l’autre	-11.3494
ering	-11.3494
▁Sch	-11.3499
rich	-11.3507
▁inacceptable.	-11.3507
▁replaced	-11.3508
▁n'é	-11.351
▁rigoureuse	-11.3511
▁sight	-11.3517
▁Criminal	-11.3518
▁n'avait	-11.3518
▁65	-11.352
▁55	-11.3521
tting	-11.3522
▁connected	-11.3522
▁constante	-11.3523
▁écrite	-11.3525
right	-11.3525
▁consistant	-11.3526
▁sélection	-11.3528
▁prisons	-11.3529
▁domaines.	-11.3532
▁examination	-11.3535
▁d'impact	-11.3536
▁multinationales	-11.3538
venu	-11.3542
-t	-11.3543
▁closure	-11.3543
▁multiples	-11.3545
lusieurs	-11.3546
▁éventuelle	-11.3546
▁préoccupe	-11.3546
▁passant	-11.3548
▁survie	-11.3548
▁spéciale	-11.3549
▁déterminée	-11.3551
▁d'entreprise	-11.3551
▁retiré	-11.3551
intégr	-11.3553
▁restera	-11.3557
▁Allow	-11.3561
▁arrêté	-11.3563
hold	-11.3567
▁conformité	-11.3568
▁timely	-11.3571
▁poverty.	-11.3573
▁forgotten	-11.3576
▁j’espère	-11.3576
▁genetically	-11.3576
▁Malta	-11.3577
▁diversification	-11.3577
▁acceptance	-11.3579
▁mere	-11.3579
ency	-11.3581
Q	-11.3584
▁régulation	-11.3584
▁utilisant	-11.3584
▁pursuan	-11.3585
▁permitted	-11.3585
ime	-11.3585
▁conjointe	-11.3586
çons	-11.3592
▁refused	-11.3592
▁Defence	-11.3592
▁Ministre	-11.3592
▁énormes	-11.3594
▁renoncer	-11.3596
▁serais	-11.3601
▁adverse	-11.3601
▁integration.	-11.3602
▁jeune	-11.3605
▁individuels	-11.3606
▁consulté	-11.3608
▁protégé	-11.3609
▁lacking	-11.3611
▁art	-11.3613
ged	-11.3613
▁campaigns	-11.3614
▁sections	-11.3616
ort	-11.3617
▁1991	-11.3617
▁d'élargissement	-11.3617
▁Single	-11.3617
▁hoped	-11.3621
▁injuste	-11.3622
▁interest.	-11.3622
▁dizaines	-11.3625
▁province	-11.3626
vir	-11.3626
▁1989	-11.3626
▁sang	-11.3628
▁reconciliation	-11.3634
▁d'accroître	-11.3634
▁électroniques	-11.3634
▁nine	-11.364
▁praise	-11.3643
action	-11.3645
▁Vo	-11.3645
▁assurances	-11.3647
▁hoc	-11.3649
▁equivalent	-11.3651
▁stipule	-11.3651
▁prétend	-11.3651
▁feuille	-11.3651
▁quotidien	-11.3652
▁drive	-11.3653
▁l’ordre	-11.3655
IC	-11.3656
▁root	-11.3656
▁inadmissible	-11.3659
▁worthy	-11.3662
▁établis	-11.3664
▁essayé	-11.3664
▁commun.	-11.3664
▁pur	-11.3665
▁period.	-11.3667
▁explique	-11.3668
▁UEN	-11.3669
NA	-11.3675
▁Mercosur	-11.3676
▁controversial	-11.3676
▁l’application	-11.3676
-B	-11.3682
▁Strasbourg.	-11.3682
▁événement	-11.3683
duct	-11.3683
▁hospital	-11.3684
▁impetus	-11.3684
▁housing	-11.3684
CE	-11.3685
▁beings	-11.3686
▁Cher	-11.3688
▁soil	-11.3689
▁ouvre	-11.3691
▁investisseurs	-11.3692
▁employeurs	-11.3693
▁south	-11.3695
▁exprimée	-11.3698
▁régi	-11.37
▁integrity	-11.3701
▁news	-11.3701
▁participent	-11.3702
▁accusations	-11.3702
▁s'impose	-11.3703
▁Forum	-11.3703
▁consequently	-11.3703
▁Services	-11.3705
lève	-11.3706
▁choices	-11.3708
▁l'Amérique	-11.3709
▁rigueur	-11.3709
▁remark	-11.3711
▁facilité	-11.3717
▁l'inclusion	-11.372
flu	-11.372
ep	-11.3723
▁persuade	-11.3725
▁joined	-11.3728
▁m'ont	-11.3729
▁franc	-11.373
lever	-11.3734
▁économiques.	-11.3735
▁showed	-11.3735
▁frappe	-11.3743
▁underlying	-11.3743
atch	-11.3746
▁Dé	-11.3749
▁2001.	-11.375
▁System	-11.3751
▁victime	-11.3753
▁découle	-11.3758
▁réponse.	-11.3758
▁Conservative	-11.3759
▁residence	-11.3759
▁devions	-11.3762
▁tension	-11.3765
▁projects.	-11.3767
▁dramatic	-11.3767
▁personnelles	-11.3775
▁feu	-11.3776
▁tolérance	-11.3776
▁Your	-11.3778
▁d’autre	-11.3778
▁observers	-11.3778
▁7,	-11.3779
▁finally,	-11.378
▁wise	-11.378
▁supporter	-11.3781
tout	-11.3782
▁hongroise	-11.3784
▁CIG	-11.3785
▁follow-up	-11.3786
▁scrutiny	-11.3787
ches	-11.3788
▁culture.	-11.379
▁particulières	-11.3791
▁ministère	-11.3793
▁d’aide	-11.3794
-out	-11.3796
▁judge	-11.3797
▁démontrer	-11.3801
▁horizontal	-11.3803
▁Pack	-11.3803
▁reasons.	-11.3803
▁die	-11.3804
▁longues	-11.3805
▁produisent	-11.3808
▁gather	-11.381
▁Natura	-11.381
▁l’agriculture	-11.3811
▁sauver	-11.3818
▁sol	-11.382
▁importants.	-11.3825
▁classification	-11.3827
▁adéquates	-11.3828
RA	-11.3834
▁majeurs	-11.3835
-Mediterranean	-11.3835
▁Regarding	-11.3835
▁categories	-11.3835
▁difficile.	-11.3836
▁développe	-11.3839
▁tiennent	-11.3842
égalité	-11.3843
▁disregard	-11.3844
▁maintenance	-11.3844
▁comprennent	-11.3844
▁détaillée	-11.3853
▁quick	-11.3854
▁concerné	-11.3857
▁rendue	-11.3859
ym	-11.386
▁execution	-11.3861
▁purchase	-11.3861
▁mépris	-11.3861
▁vaccination	-11.3861
rel	-11.3868
▁nommé	-11.3869
▁découvert	-11.3869
▁énormément	-11.3869
▁helpful	-11.387
▁warm	-11.3872
▁communiquer	-11.3874
▁professions	-11.3875
▁arrivé	-11.3876
▁(debate)	-11.3878
▁mentionne	-11.3883
▁résolue	-11.3886
▁systematic	-11.3886
▁.-	-11.3886
▁Friday	-11.3886
▁ruin	-11.3888
▁embryo	-11.3894
▁prostitution	-11.3895
▁contributing	-11.3895
inte	-11.3895
ED	-11.3896
▁resumed	-11.3899
▁exceed	-11.3899
▁fournit	-11.39
▁notably	-11.39
êt	-11.3902
ong	-11.3903
▁(I	-11.3904
▁recherches	-11.3904
▁attribu	-11.3904
▁ethniques	-11.3904
▁divergent	-11.3905
▁complémentaires	-11.3906
▁inspection	-11.3908
▁north	-11.391
▁confrontée	-11.3911
▁Hong	-11.3913
▁coexistence	-11.3913
▁acceptable.	-11.3914
éli	-11.3915
▁coastal	-11.3916
▁confident	-11.392
▁indépendamment	-11.3921
▁bateaux	-11.3921
▁slightly	-11.3923
▁withdrawal	-11.3926
▁funded	-11.3926
▁blind	-11.3929
▁désigné	-11.3929
rig	-11.3937
▁hémicycle	-11.3938
▁répété	-11.3938
▁destroy	-11.3939
▁fournisseurs	-11.3939
▁preventive	-11.3939
row	-11.394
▁nationals	-11.3941
▁Ceux	-11.3948
▁missing	-11.3948
▁length	-11.395
▁investigations	-11.3952
▁signing	-11.3954
▁unions	-11.3955
▁identité	-11.3955
▁l'humanité	-11.3955
▁pair	-11.3956
▁interim	-11.396
▁distributed	-11.3963
▁generate	-11.3963
▁croyons	-11.3963
▁woman	-11.3963
▁statute	-11.3964
▁mix	-11.3967
▁significatif	-11.3968
▁rid	-11.3971
eu	-11.3972
▁illustrate	-11.3972
▁exclu	-11.3977
▁norme	-11.3979
ignor	-11.3979
▁Londres	-11.3981
▁Solidarity	-11.3981
▁short-term	-11.3981
▁virus	-11.3981
▁anglais	-11.3981
▁pierre	-11.3981
▁railways	-11.3982
▁compromis.	-11.3982
▁hautement	-11.3983
EU	-11.3985
▁rating	-11.3986
▁négatifs	-11.3986
▁mille	-11.3988
▁highlights	-11.3989
▁aérienne	-11.399
▁Who	-11.3991
uc	-11.3991
▁créée	-11.3997
asso	-11.3997
▁Posselt	-11.3998
▁whatsoever	-11.3998
▁Kong	-11.3999
▁Africa.	-11.3999
▁individuelle	-11.4001
▁devez	-11.4003
▁universities	-11.4006
ave	-11.4008
▁utilisent	-11.4009
▁subsequently	-11.4013
▁l'alimentation	-11.4015
▁raises	-11.4019
▁organizations	-11.4021
cut	-11.4021
▁transeuropéens	-11.4022
▁perception	-11.4024
▁rédaction	-11.4024
rk	-11.4025
▁Han	-11.4027
▁Pi	-11.4028
▁(débat)	-11.4032
▁Tunisie	-11.4032
▁préventive	-11.4032
▁d'aller	-11.4033
tif	-11.4034
▁subsequent	-11.4035
cide	-11.4035
▁L'un	-11.4036
▁intermédiaire	-11.4037
▁publish	-11.404
▁MEDA	-11.4041
▁compliment	-11.4041
▁stimulate	-11.4041
▁Affaire	-11.4041
▁characteristics	-11.4041
▁immédiat	-11.4042
▁ouverture	-11.4043
▁reprend	-11.4047
▁joining	-11.4048
▁prouve	-11.4048
▁contraignant	-11.4048
uit	-11.4049
▁Please	-11.405
▁regularly	-11.4053
▁costs.	-11.4055
▁imposing	-11.4058
▁l'occurrence	-11.4058
▁faim	-11.406
▁estimated	-11.4062
▁lieux	-11.4062
▁poissons	-11.4062
-P	-11.4063
▁Muslim	-11.4067
▁fausse	-11.4067
▁unilateral	-11.4068
▁concert	-11.4068
▁puts	-11.4072
▁preliminary	-11.4076
▁l'instauration	-11.408
▁ethnique	-11.4083
▁examinée	-11.4084
▁quo	-11.4084
▁managing	-11.4085
▁envisaged	-11.4086
▁destroyed	-11.4089
▁concentre	-11.4091
▁sûrs	-11.4092
▁Deux	-11.4092
▁Monday	-11.4093
▁l’éducation	-11.4094
▁voterons	-11.4097
considérablement	-11.4101
lock	-11.4102
▁observé	-11.4103
▁impliqué	-11.4104
▁définies	-11.4106
▁craintes	-11.4107
▁marginal	-11.4108
▁verte	-11.411
▁integrate	-11.411
▁reported	-11.4111
▁scandal	-11.4111
▁respectés	-11.4116
▁advocate	-11.4117
outermost	-11.4119
▁describe	-11.4121
▁offices	-11.4125
▁except	-11.4125
▁plaide	-11.4126
▁adhérer	-11.4128
▁imported	-11.4128
▁error	-11.4129
DE	-11.413
▁voisin	-11.4131
▁farms	-11.4134
▁Traité.	-11.4134
▁parallèle	-11.4136
▁illustre	-11.4137
▁jou	-11.414
▁s’a	-11.4143
▁réformer	-11.4144
▁Watson	-11.4145
▁30%	-11.4147
▁disputes	-11.4148
▁américaines	-11.4148
▁controlled	-11.4149
▁OGM	-11.4154
▁representing	-11.4156
▁Air	-11.4159
▁flu	-11.4162
▁l’Assemblée	-11.4163
▁dépendent	-11.4164
▁congé	-11.4166
▁sales	-11.4167
▁pratique.	-11.4172
▁l’intégration	-11.4172
▁80%	-11.4172
▁marqué	-11.4175
▁inside	-11.4177
▁rencontrer	-11.4177
▁obtenus	-11.4178
lev	-11.418
▁j'avais	-11.418
▁location	-11.418
▁préconise	-11.418
▁emerge	-11.4189
▁légitimes	-11.4189
▁travaillons	-11.4193
▁financières.	-11.4197
▁Annex	-11.4198
▁Personne	-11.4198
▁complement	-11.4198
▁individus	-11.4198
▁effectuer	-11.4199
▁solidarity.	-11.4202
▁Tunisia	-11.4204
isent	-11.4206
▁autonome	-11.4207
▁l’intérêt	-11.4207
▁investors	-11.4208
▁resistance	-11.4208
▁banned	-11.4208
▁attractive	-11.4208
▁X	-11.4209
▁développements	-11.4211
ough	-11.4216
▁Latvia	-11.4216
▁prop	-11.4217
▁d'émission	-11.422
▁révolution	-11.4225
▁thousand	-11.4227
▁hundred	-11.4229
▁d'Amérique	-11.4233
▁d'entendre	-11.4233
▁approaches	-11.4234
▁advanced	-11.4234
▁fermer	-11.4235
-cadre	-11.4238
▁ferait	-11.4247
▁Sudan	-11.4247
▁obligatoires	-11.4249
▁August	-11.4251
▁Africa,	-11.4253
▁russes	-11.4254
▁éventuel	-11.4257
▁vain	-11.4257
▁infringement	-11.4258
▁pouvons-nous	-11.4263
▁Italy,	-11.4267
▁respectant	-11.4268
▁financière.	-11.4268
▁d'imposer	-11.4269
▁pretext	-11.4269
▁tolerance	-11.4269
▁fermé	-11.427
▁d'eau	-11.427
▁accordingly	-11.4272
termin	-11.4272
▁dossier.	-11.4279
▁objection	-11.428
/CE	-11.428
▁subsidi	-11.4283
▁donnera	-11.4286
▁Tribunal	-11.4286
▁Outre	-11.4287
▁Similarly	-11.4295
▁losing	-11.4295
▁inondations	-11.4295
lon	-11.4295
lut	-11.4296
bus	-11.4296
▁approfondi	-11.4298
▁payé	-11.4303
▁commentaire	-11.4306
▁1998.	-11.4306
▁ph	-11.4308
fully	-11.4311
▁J'appelle	-11.4313
▁supérieure	-11.4315
▁compréhensible	-11.4315
-20	-11.4316
▁inhabitants	-11.4322
▁d'euros.	-11.4323
▁Ab	-11.4327
-free	-11.433
▁bovine	-11.4331
▁tourist	-11.4331
▁proches	-11.4333
8/9	-11.4338
▁juger	-11.4338
▁Taiwan	-11.434
▁40%	-11.4341
time	-11.4342
▁achievements	-11.4344
▁roads	-11.4344
▁étudier	-11.4346
▁mobilise	-11.4348
▁participating	-11.4349
▁safeguarding	-11.4349
▁founded	-11.4349
▁Penda	-11.435
▁Democratic	-11.4354
▁négatives	-11.4354
▁poursuit	-11.4356
▁profound	-11.4357
▁eventually	-11.4359
▁autorisée	-11.4363
▁favorablement	-11.4366
▁prouvé	-11.4366
▁trace	-11.4367
▁arrêter	-11.4372
▁convey	-11.4375
▁chemicals	-11.4376
▁auteur	-11.438
▁arriv	-11.4382
▁gel	-11.4384
▁Wednesday	-11.4384
▁description	-11.4384
▁immigrés	-11.4385
▁indicateurs	-11.4386
▁l’idée	-11.4386
▁monitored	-11.4386
IS	-11.4387
▁probable	-11.4387
/EC	-11.439
bb	-11.4392
▁écologiques	-11.4393
▁papier	-11.4393
ures	-11.4393
▁foundation	-11.4398
▁anniversaire	-11.4404
▁écho	-11.4405
▁hour	-11.4408
ack	-11.4409
▁stricte	-11.441
▁comparaison	-11.4411
▁executive	-11.4411
▁pensée	-11.4413
▁autrichienne	-11.4414
▁gained	-11.4414
▁impartial	-11.4419
▁covering	-11.442
(COD))	-11.442
▁control.	-11.4423
▁plays	-11.4423
▁touchées	-11.4424
▁l'étiquetage	-11.4429
▁traduction	-11.4429
back	-11.4429
▁continuation	-11.4434
▁well-	-11.4437
▁prochainement	-11.4437
pression	-11.4437
bal	-11.4438
▁Lebanon	-11.4438
▁hélas	-11.4438
▁définitif	-11.444
▁fortes	-11.4441
▁Citizens'	-11.4447
▁Sarkozy	-11.4447
▁intérimaire	-11.4447
▁perturb	-11.4447
▁VI	-11.4448
▁convince	-11.4448
▁dead	-11.4449
▁either.	-11.4455
▁péril	-11.4461
▁humanity	-11.4462
▁ancien	-11.4463
▁mère	-11.4464
▁assurément	-11.4464
▁Certaines	-11.4469
▁rares	-11.4472
▁fires	-11.4474
▁pain	-11.4474
▁l'espère	-11.4474
▁concertation	-11.448
▁situé	-11.4483
▁stockage	-11.4487
▁Women's	-11.4488
▁ami	-11.4489
▁Brésil	-11.4501
▁suggéré	-11.4501
60	-11.4502
▁considérés	-11.4507
▁d'efficacité	-11.4507
▁s'exprimer	-11.4507
point	-11.4507
▁pursuing	-11.451
▁accepting	-11.4511
▁items	-11.4513
▁prouver	-11.4514
▁coal	-11.4518
▁flows	-11.452
▁nationale.	-11.4522
▁barrières	-11.4522
▁solved	-11.4522
érant	-11.4523
▁notification	-11.4526
▁mandatory	-11.4529
▁tir	-11.4531
ef	-11.4535
▁passée	-11.4536
▁mineurs	-11.4537
▁réfléchi	-11.4537
▁straight	-11.4538
▁nordique	-11.4538
▁l’accès	-11.4539
▁aériens	-11.4539
▁adjust	-11.454
ût	-11.454
gne	-11.4541
▁établies	-11.4547
▁ECHO	-11.4547
▁certitude	-11.4547
▁d’adhésion	-11.4547
▁l'espoir	-11.4547
▁fixed	-11.4547
▁bel	-11.4549
▁d'accepter	-11.4556
▁islamique	-11.4556
▁avancé	-11.4557
▁bancaire	-11.4558
▁sit	-11.4558
▁mistakes	-11.4563
▁qu'est	-11.4563
tonne	-11.4564
▁considèrent	-11.4564
employ	-11.4564
▁ELDR	-11.4565
▁Indonesia	-11.4565
▁l'appel	-11.4567
▁jusqu'au	-11.4568
▁d'évaluer	-11.4569
▁résident	-11.457
gy	-11.457
▁trouble	-11.4573
ick	-11.4573
▁OSCE	-11.4574
▁l'issue	-11.4574
▁abroad	-11.4574
▁values.	-11.4579
▁d'importance	-11.4583
▁warrant	-11.4585
taire	-11.4589
▁conjointement	-11.4592
▁détruit	-11.4592
▁lorsqu’il	-11.4592
▁disparu	-11.4592
▁frein	-11.4592
▁richesse	-11.4595
▁Tant	-11.4596
éné	-11.4596
▁modeste	-11.46
opération	-11.4601
▁déroulé	-11.4602
ER	-11.4602
4%	-11.4604
11	-11.4606
▁fears	-11.4607
▁respects	-11.4607
gram	-11.4608
▁liquid	-11.4609
▁prends	-11.4609
▁providers	-11.461
▁judicieux	-11.4611
▁appeler	-11.4613
▁align	-11.4614
gie	-11.4616
▁freight	-11.462
▁l'élimination	-11.462
▁envisagée	-11.4621
▁explicitement	-11.4626
▁exchanges	-11.4626
▁honte	-11.4628
lou	-11.4628
long	-11.4629
▁incendies	-11.4629
▁600	-11.463
▁director	-11.4631
▁nucléaire.	-11.4636
▁soin	-11.4637
▁arrangement	-11.4639
▁exécution	-11.4639
pprobation	-11.4639
▁compar	-11.4642
▁BEI	-11.4647
▁sale	-11.4649
ctive	-11.4653
▁inviter	-11.4653
▁précédentes	-11.4653
▁requis	-11.4654
▁victoire	-11.4657
▁universités	-11.4657
▁symbole	-11.4658
▁établit	-11.466
▁monétaires	-11.4661
▁puni	-11.4662
▁registration	-11.4666
OP	-11.4666
▁consistency	-11.4666
▁criteria.	-11.4669
pêche	-11.4671
▁déloyale	-11.4675
▁échéant	-11.4675
▁partisans	-11.4675
▁reconnais	-11.468
▁G8	-11.4681
▁l'ampleur	-11.4684
▁menacée	-11.4687
▁attribué	-11.4688
▁over-	-11.4688
▁page	-11.4691
▁combine	-11.4692
▁infect	-11.4693
▁anniversary	-11.4694
▁naissance	-11.4703
▁Sahara	-11.4703
▁reaffirm	-11.4706
▁avéré	-11.4707
▁dangereuse	-11.4708
▁signer	-11.471
▁adapté	-11.471
▁préservation	-11.4712
▁convert	-11.4714
▁totalité	-11.4715
▁posées	-11.4716
▁sex	-11.4719
▁remise	-11.4721
▁gratuit	-11.4721
▁modifiant	-11.4721
▁préférable	-11.4722
▁stages	-11.4724
▁iron	-11.4724
▁eau	-11.4726
▁ignorer	-11.4728
6%	-11.4729
/02	-11.4732
▁danois	-11.4734
▁norm	-11.4734
izing	-11.4737
▁visited	-11.4738
▁charbon	-11.474
▁ignored	-11.4741
group	-11.4742
▁L'accord	-11.4743
▁cont	-11.4746
ocrat	-11.4746
▁priority.	-11.4748
active	-11.4749
06	-11.4749
▁emprunt	-11.4749
▁stringent	-11.4749
▁older	-11.475
vin	-11.4753
ther	-11.4754
▁complexité	-11.4754
▁contenues	-11.4756
▁injustice	-11.4757
▁réunir	-11.4758
▁dimensions	-11.4759
▁Chairman	-11.4759
▁Dis	-11.4759
pon	-11.4761
▁insult	-11.4761
▁l'avant	-11.4764
▁44	-11.4764
▁maintenu	-11.4766
▁Code	-11.4766
▁qu’a	-11.4766
▁prépare	-11.4768
▁gradual	-11.4771
rust	-11.4777
▁saluons	-11.4777
▁implemented.	-11.4779
▁impliquées	-11.478
▁partagée	-11.4781
▁assessments	-11.4785
▁Community's	-11.4786
▁l'étranger	-11.4786
▁vérification	-11.4786
▁supervisory	-11.4787
▁l'être	-11.4788
▁Th	-11.4789
▁compagnie	-11.4791
▁dépens	-11.4791
▁containing	-11.4792
▁Hence	-11.4793
▁PHARE	-11.4796
▁chômeurs	-11.4796
▁déplacement	-11.4796
ski	-11.4798
article	-11.4803
bel	-11.4805
ôt	-11.4806
▁explications	-11.4806
pic	-11.4807
▁succès.	-11.4808
▁actors	-11.481
▁(Rule	-11.4814
▁prerequisite	-11.4814
▁refugee	-11.4815
▁rechercher	-11.4815
45	-11.4816
▁s'attaquer	-11.4816
▁maritimes	-11.4818
ves	-11.482
▁listening	-11.482
▁faille	-11.482
ood	-11.4821
▁Syrie	-11.4824
▁arrière	-11.4824
▁expressément	-11.4824
▁décide	-11.4824
▁longtemps.	-11.4828
▁accountability	-11.4828
▁multinational	-11.4829
▁l’ex	-11.483
▁logic	-11.483
▁appelons	-11.483
▁EIB	-11.4833
▁albeit	-11.4833
▁Balkans.	-11.4833
▁point:	-11.4835
▁entreprendre	-11.4838
▁alimentaire.	-11.4838
ken	-11.4841
▁éco	-11.4841
▁resolving	-11.4842
▁engine	-11.4843
▁Bas	-11.4843
▁meantime	-11.4844
▁eux.	-11.4844
▁actifs	-11.4849
▁exigence	-11.4849
▁réconciliation	-11.4852
▁d'experts	-11.4852
▁Finance	-11.4853
▁agrees	-11.4855
▁l'Autriche	-11.4856
▁l’ai	-11.4857
▁os	-11.4859
ify	-11.4864
▁financé	-11.4865
▁publics.	-11.4866
ense	-11.4868
az	-11.4869
▁complain	-11.4871
▁recover	-11.4876
▁Sha	-11.4877
▁beau	-11.4879
▁Third	-11.4879
▁imperative	-11.488
▁Ja	-11.488
▁nourriture	-11.488
▁farm	-11.4884
▁motivation	-11.4889
▁invited	-11.4892
▁présentant	-11.4893
▁assets	-11.4895
▁grandement	-11.4896
iment	-11.4899
▁vraie	-11.49
▁fictifs	-11.49
18	-11.49
ccept	-11.49
▁l'assistance	-11.4905
ât	-11.4907
▁pharmaceutique	-11.4908
▁female	-11.4908
▁législateur	-11.4908
▁intervenants	-11.4908
▁radioactive	-11.4909
▁Rien	-11.4911
12	-11.4913
▁Wallström	-11.4918
▁sincere	-11.4919
off	-11.492
▁confi	-11.4922
▁acknowledged	-11.4925
▁terror	-11.4925
▁mountain	-11.4927
▁issus	-11.4929
▁fails	-11.493
▁"p	-11.4932
▁wind	-11.4935
uche	-11.4939
tron	-11.494
▁piliers	-11.4942
▁shortage	-11.4944
▁outlined	-11.4945
▁douze	-11.4946
▁wall	-11.4947
▁denied	-11.4947
▁modest	-11.4948
▁abuses	-11.495
▁égal	-11.4953
▁n’avons	-11.4954
▁cope	-11.4955
▁stakeholders	-11.4956
▁sentir	-11.4956
▁d’intérêt	-11.4956
▁audition	-11.4959
▁fallu	-11.4962
2010	-11.4963
▁taxpayers	-11.4965
▁apprécié	-11.4965
▁criterion	-11.4965
▁c’est-à-dire	-11.4965
▁disparition	-11.4965
▁gravité	-11.4965
▁vendredi	-11.4966
▁chemins	-11.4966
▁terroriste	-11.4966
▁suffisantes	-11.4967
▁s'engage	-11.4969
▁mette	-11.4969
▁reductions	-11.4981
▁étapes	-11.4981
▁black	-11.4984
▁Liban	-11.4984
▁globalement	-11.4984
▁Liberals	-11.4985
▁religieuses	-11.4988
▁falling	-11.4993
▁pharmaceutical	-11.4994
▁Estonia	-11.4994
non-governmental	-11.4994
▁l'extension	-11.4998
▁suggests	-11.5
▁distort	-11.5
▁recital	-11.5003
-même	-11.5004
▁tragique	-11.5007
▁1%	-11.5008
▁accounting	-11.5013
▁brève	-11.5013
▁furthermore	-11.5013
▁rêve	-11.5013
▁voudrait	-11.5013
▁confrontation	-11.5013
▁délégations	-11.5014
rég	-11.5015
▁Reding	-11.5015
▁africaine	-11.5015
activité	-11.5016
▁exprimés	-11.5016
▁delegations	-11.5017
▁organic	-11.5019
▁disposé	-11.5022
▁(CE)	-11.5022
▁mercredi	-11.5022
▁tonight	-11.5022
▁impliquer	-11.5022
▁Iranian	-11.5024
▁fier	-11.5026
▁evaluate	-11.503
bord	-11.5032
▁immunity	-11.5032
▁vivons	-11.5032
▁profitable	-11.5033
équ	-11.5035
atoire	-11.5037
▁prohibit	-11.5039
▁apportée	-11.5039
▁fifteen	-11.5041
▁concludes	-11.5041
▁oriental	-11.5044
▁wages	-11.5047
▁Chine.	-11.5049
▁justifié	-11.5052
▁saurait	-11.5052
▁garanti	-11.5055
tech	-11.5057
▁vigueur.	-11.506
▁variety	-11.5061
▁égalité	-11.5064
▁parvenue	-11.5066
▁Objet:	-11.5067
▁policière	-11.507
▁Suisse	-11.507
▁Lomé	-11.5071
▁juridiquement	-11.5072
▁signs	-11.5073
▁l'analyse	-11.5075
▁conjoint	-11.5078
▁His	-11.5079
▁incentive	-11.5079
▁Maintenant	-11.508
▁disastrous	-11.508
▁third-country	-11.508
▁proactive	-11.508
▁m’a	-11.5081
▁d'exécution	-11.5084
▁usually	-11.5086
▁consciente	-11.5086
▁maison	-11.5088
▁Could	-11.5089
▁perpétré	-11.5089
exige	-11.5091
▁Millennium	-11.5099
▁exhaustive	-11.51
▁Romanian	-11.5102
▁learned	-11.5102
▁genres	-11.5104
▁harmonise	-11.5105
▁touché	-11.5107
▁l'enfant	-11.5108
▁traduire	-11.5108
▁oublié	-11.5109
▁l’une	-11.511
▁origine	-11.5112
▁39	-11.5116
▁étendue	-11.5117
▁lancée	-11.5117
(CNS))	-11.5118
▁experiment	-11.5118
▁l'urgence	-11.5118
▁remplacé	-11.5118
▁effectif	-11.5119
▁detention	-11.5119
▁died	-11.5121
▁partiellement	-11.5122
▁federal	-11.5125
▁personnalité	-11.5128
▁empêche	-11.5129
▁servi	-11.5129
▁appels	-11.5129
▁attentats	-11.513
▁privilégié	-11.513
▁backing	-11.5131
▁answered	-11.5132
▁clients	-11.5133
▁station	-11.5138
▁fuels	-11.5138
▁essaie	-11.5139
git	-11.5139
▁inscrit	-11.5139
▁étendre	-11.5141
▁d'exprimer	-11.5147
▁regarder	-11.5147
▁d'actions	-11.5147
MI	-11.515
▁employed	-11.5153
▁feature	-11.5155
▁délicate	-11.5155
▁concernés.	-11.516
▁socialist	-11.5161
matic	-11.5164
▁vous-même	-11.5166
▁fifth	-11.5166
▁endorsed	-11.5167
▁disait	-11.5171
▁Man	-11.5172
▁sache	-11.5172
▁exclude	-11.5172
▁biologique	-11.5173
▁Vu	-11.5177
▁réjouissons	-11.5177
▁équivalent	-11.5181
ved	-11.5182
▁développé	-11.5183
▁autonomy	-11.5186
ctor	-11.5186
▁d’énergie	-11.5187
▁n'aurait	-11.5188
▁durables	-11.5193
▁corresponding	-11.5193
▁caution	-11.5196
▁protège	-11.5196
▁sectors.	-11.5196
berg	-11.5199
▁financiers.	-11.5199
▁contrat	-11.52
▁excessif	-11.52
▁convictions	-11.52
▁élevée	-11.5203
▁sympathy	-11.5205
▁diplomatique	-11.5206
▁fabricants	-11.5206
▁entering	-11.5206
▁reveal	-11.5206
▁couvert	-11.5208
mbi	-11.5208
▁airport	-11.5211
▁functions	-11.5212
▁sexes	-11.5212
éro	-11.5214
ü	-11.5215
▁Celle-ci	-11.5215
▁Scotland	-11.5215
▁examining	-11.5215
▁released	-11.5217
14	-11.5218
▁directive-cadre	-11.522
▁saisi	-11.5221
▁fournis	-11.5223
▁procedures.	-11.5224
▁fossé	-11.5225
▁fate	-11.5226
▁movements	-11.5226
▁dérogation	-11.5226
▁quantités	-11.523
▁préparatoire	-11.5234
▁slaughter	-11.5234
▁recyclage	-11.5235
▁D'autres	-11.5237
▁puissant	-11.5238
▁l'effet	-11.5244
▁précieuse	-11.5244
▁wave	-11.5245
▁délicat	-11.5246
▁apportées	-11.5246
▁badly	-11.5246
▁conservateurs	-11.5247
ium	-11.5248
▁scandale	-11.5249
▁modifiés	-11.5252
▁transnational	-11.5253
▁roumain	-11.5254
▁satisfaits	-11.5256
▁adequately	-11.5256
▁minor	-11.5256
▁s'appliquer	-11.5257
z-vous	-11.526
▁decent	-11.5261
▁faisait	-11.5261
▁explication	-11.5264
▁features	-11.5266
▁L'amendement	-11.5267
nage	-11.5271
▁adoptant	-11.5273
▁Pat	-11.5273
▁enfant	-11.5274
▁servent	-11.5275
▁Belarus.	-11.5278
▁await	-11.5282
▁participe	-11.5283
▁condamné	-11.5284
pin	-11.5289
▁suivantes	-11.5292
▁corriger	-11.5293
▁communicate	-11.5293
▁productivité	-11.5294
▁cutting	-11.5296
▁born	-11.5296
▁rue	-11.5297
S)	-11.53
▁storage	-11.5303
▁false	-11.5303
▁enforce	-11.5303
▁halt	-11.5304
2002	-11.5304
AR	-11.5306
cons	-11.5306
▁appointed	-11.5308
▁violences	-11.531
▁250	-11.5312
▁résumé	-11.5313
▁autorisation	-11.5313
▁damaging	-11.5313
▁productivity	-11.5313
▁consistently	-11.5315
▁hopefully	-11.5316
▁lit	-11.5316
war	-11.5317
▁acted	-11.5317
▁témoigne	-11.5318
stre	-11.5318
nées	-11.532
▁lis	-11.5321
▁disposée	-11.5322
▁Beaucoup	-11.5323
▁mémoire	-11.5323
▁MEP	-11.5325
▁rigid	-11.5328
▁liked	-11.5329
▁privacy	-11.5332
▁présentera	-11.5339
▁Corbett	-11.5342
▁évalué	-11.5342
▁Albanian	-11.5343
▁réparti	-11.5344
▁ageing	-11.5347
▁subsiste	-11.5351
▁l'O	-11.5352
▁vive	-11.5354
▁l'UEM	-11.5354
In	-11.5362
▁biocarburants	-11.5362
▁provoque	-11.5363
▁triste	-11.5369
▁everywhere	-11.5372
▁strictement	-11.5373
regulation	-11.5373
▁devoted	-11.5379
▁appui	-11.5382
▁apparently	-11.5383
▁collectif	-11.5383
▁virtually	-11.5384
▁déficits	-11.5384
▁l'aspect	-11.5387
▁sérieuses	-11.5388
▁Europe'	-11.5389
▁reporting	-11.5389
▁Above	-11.5392
▁renewed	-11.5396
▁voici	-11.54
▁manifesté	-11.54
'après	-11.5401
▁ménage	-11.5402
▁bruit	-11.5402
hen	-11.5403
▁week.	-11.5404
000	-11.5406
▁remis	-11.5407
ifiant	-11.5411
▁souvenir	-11.5412
fait	-11.5412
▁importantes.	-11.5413
▁réglementer	-11.5413
▁disposés	-11.5414
▁continuerons	-11.5414
2008	-11.5415
▁doté	-11.5416
human	-11.5416
ivity	-11.5417
▁tolerate	-11.5418
▁nourri	-11.542
ecretary-General	-11.542
▁provoquer	-11.5421
▁regimes	-11.5421
▁Moldavie	-11.5421
▁scientists	-11.5421
▁substantially	-11.5423
▁portugais	-11.5423
▁adressé	-11.5427
▁1997.	-11.5429
▁traditionnelle	-11.5431
▁l'effort	-11.5431
▁sell	-11.5435
▁toxic	-11.5435
▁Ver	-11.5439
▁ratifier	-11.544
▁chercheurs	-11.5442
aï	-11.5443
▁intégrante	-11.5443
▁statistical	-11.5446
▁composante	-11.5448
▁âge	-11.5451
▁map	-11.5451
▁dollar	-11.5456
▁EP	-11.5457
▁atteints	-11.5458
▁survive	-11.5459
▁Naturally	-11.5461
▁comitologie	-11.5461
▁l'agenda	-11.5461
▁pipeline	-11.5461
▁guise	-11.5461
▁Colombia	-11.5461
▁prévisions	-11.5462
▁priorities.	-11.5465
▁initially	-11.5465
▁produite	-11.547
▁lundi	-11.5471
▁manufacture	-11.5472
▁experiences	-11.5474
▁democrat	-11.5476
▁d'assistance	-11.5476
▁qu’au	-11.5481
▁Jarzembowski	-11.5481
▁inquiry	-11.5481
▁(EC)	-11.5481
▁donnant	-11.5482
▁explanations	-11.5483
mark	-11.5484
attache	-11.5485
▁envisagé	-11.549
▁municipal	-11.5491
▁contenant	-11.5491
▁l’immigration	-11.5491
▁recognises	-11.5492
-le	-11.5494
▁GMOs	-11.5495
▁égale	-11.5498
▁examinons	-11.5501
/2005	-11.5505
▁exploiter	-11.5511
▁John	-11.5511
▁limitations	-11.5518
ciaux-démocrates	-11.5519
▁disparités	-11.5519
▁d'accueil	-11.5521
▁satisfy	-11.5521
▁socio-economic	-11.5521
▁l’efficacité	-11.5524
▁Est	-11.5527
▁exigeant	-11.5528
▁incorrect	-11.5531
▁Libye	-11.5531
▁arm	-11.5535
▁résolus	-11.5539
▁partners.	-11.554
▁Ms	-11.554
▁Bruxelles.	-11.5541
▁Venezuela	-11.5541
▁title	-11.5541
▁écoulé	-11.5541
▁Greens	-11.5544
▁USD	-11.5545
omp	-11.5548
▁comités	-11.5548
▁142)	-11.5551
▁definitive	-11.5551
▁struck	-11.5551
▁profond	-11.5557
▁Erasmus	-11.5564
▁innovations	-11.5565
▁spéculation	-11.5568
▁journey	-11.5573
▁directs	-11.5574
▁completion	-11.5574
▁d'Israël	-11.5575
▁focusing	-11.5577
▁safeguards	-11.5578
▁serai	-11.5578
▁potentiels	-11.5581
▁démantèlement	-11.5582
▁resort	-11.5582
▁illégal	-11.5583
▁partisan	-11.5588
▁avoided	-11.5591
▁looks	-11.5596
▁Islam	-11.5602
▁consolidate	-11.5602
▁manoeuvre	-11.5602
▁programming	-11.5602
kin	-11.5604
▁riche	-11.5604
▁placer	-11.5608
▁télé	-11.5612
▁délocalisation	-11.5612
▁l'âge	-11.5612
▁d’origine	-11.5612
▁sévères	-11.5623
▁relief	-11.5623
▁pourrais	-11.5626
▁unie	-11.5627
▁Slovenia	-11.5627
▁affirm	-11.5628
▁originaire	-11.563
▁lives.	-11.5631
▁sain	-11.5631
cir	-11.5631
▁workers'	-11.5632
▁Switzerland	-11.5632
▁Vitorino	-11.5632
▁régulier	-11.5632
-t-on	-11.5643
▁observateurs	-11.5643
▁écouter	-11.5643
▁pick	-11.5645
7%	-11.5645
▁ge	-11.5645
▁rédiger	-11.5649
▁Ru	-11.5651
▁juridiction	-11.5653
aménagement	-11.5653
▁joindre	-11.5654
▁repression	-11.5655
évaluation	-11.5656
▁Euratom	-11.5657
CC	-11.5658
n-discrimination	-11.5659
▁champion	-11.5661
▁Ecofin	-11.5663
▁Liikanen	-11.5663
▁overlook	-11.5663
▁accueilli	-11.5664
▁étendu	-11.5668
▁colonial	-11.5668
▁historiques	-11.5669
▁nutrition	-11.5673
▁Liberties	-11.5683
▁d'intervenir	-11.5683
▁TACIS	-11.5683
dge	-11.5686
▁exercée	-11.5688
▁classes	-11.5692
▁Oomen-Ruijten	-11.5693
▁réelles	-11.5694
▁linguistique	-11.5697
▁impôts	-11.5701
▁nul	-11.5702
▁Aujourd’hui	-11.5704
▁generous	-11.5704
ator	-11.5704
▁divide	-11.5704
▁soldats	-11.5704
▁reserves	-11.5706
▁associés	-11.5709
▁technologiques	-11.5709
▁accumul	-11.5713
▁s'adresse	-11.5714
▁emerged	-11.5714
▁négoci	-11.572
▁arrived	-11.5722
2009	-11.5723
▁frustration	-11.5724
▁quantitative	-11.5724
▁precautionary	-11.5724
▁book	-11.5725
▁vocational	-11.5727
▁l'air	-11.5728
ology	-11.5728
duction	-11.5729
▁pertinentes	-11.5729
euro	-11.5731
▁humaine.	-11.5732
comprehensible	-11.5734
▁inappropriate	-11.5734
▁precondition	-11.5734
tude	-11.5736
▁d'ajustement	-11.5738
▁constat	-11.5739
Votre	-11.5739
▁suspens	-11.574
▁externes	-11.5741
▁leaves	-11.5745
▁fréquent	-11.5745
▁appren	-11.5745
▁mobiliser	-11.5745
▁dure	-11.5749
▁assister	-11.5751
ifying	-11.5754
▁semestre	-11.5755
▁qu’on	-11.5759
▁d’A	-11.5761
▁Sri	-11.5761
▁nationalité	-11.5763
▁d'empêcher	-11.5765
▁précieux	-11.5765
▁servant	-11.5765
▁write	-11.5765
▁desired	-11.5768
pha	-11.5771
ON	-11.5772
obs	-11.5773
▁qualitative	-11.5775
▁équipements	-11.5776
▁dates	-11.5781
▁Aucun	-11.5781
▁handling	-11.5783
▁planet	-11.5785
▁accused	-11.5786
08	-11.5786
▁l’intention	-11.5787
▁120	-11.5789
▁fiables	-11.579
▁fundamentally	-11.579
len	-11.5791
▁benchmark	-11.5796
▁décès	-11.5796
▁interdire	-11.5796
▁qu'après	-11.5798
/EEC	-11.5798
▁réclame	-11.5802
▁names	-11.5803
▁autorisé	-11.5805
▁signatures	-11.5805
▁far-reaching	-11.5806
▁tissu	-11.5806
▁Law	-11.5808
▁quitter	-11.5809
▁heads	-11.5809
▁génétique	-11.5811
uler	-11.5812
▁modernes	-11.5815
étude	-11.5815
▁vieille	-11.5816
▁redress	-11.5817
▁réalisées	-11.5817
▁l'ancienne	-11.5818
▁promesse	-11.5819
▁tackled	-11.582
▁tape	-11.5826
▁translation	-11.5827
▁enabled	-11.583
▁universelle	-11.5836
▁council	-11.5837
▁fought	-11.5837
▁subir	-11.5844
▁Whilst	-11.5848
▁numéro	-11.5848
▁Costa	-11.5849
▁bal	-11.5851
▁Procedure.	-11.5851
▁aliment	-11.5853
▁dommage	-11.5855
▁pre-	-11.5857
medicinal	-11.5858
▁Special	-11.5858
mbo	-11.5862
ological	-11.5863
▁subvention	-11.5865
individu	-11.5868
▁l’attention	-11.5868
▁tué	-11.5869
▁fault	-11.5869
-ci	-11.5869
▁touchent	-11.5871
▁compromises	-11.5873
▁'the	-11.5875
▁cat	-11.5876
▁élargi	-11.5876
▁autumn	-11.5879
▁d'animaux	-11.5879
▁accusé	-11.5879
▁Institute	-11.5879
▁cofinancement	-11.5882
▁Mexico	-11.5889
▁semblable	-11.5889
▁Globalisation	-11.589
▁enshrined	-11.5891
▁reverse	-11.5892
-vous	-11.5894
gro	-11.5895
▁Médiateur	-11.59
▁traitées	-11.59
▁platform	-11.59
▁exigent	-11.5901
▁l'autre.	-11.5902
▁l'électricité	-11.5906
▁46	-11.5906
▁surpris	-11.5909
▁facto	-11.591
lav	-11.591
▁illégaux	-11.591
▁soldiers	-11.5911
▁Cha	-11.5914
▁compare	-11.5918
▁component	-11.5919
Européen	-11.592
ET	-11.5923
▁vols	-11.5924
▁industriel	-11.5924
▁explicitly	-11.5925
▁models	-11.5925
▁testing	-11.5929
▁Berlusconi	-11.5931
▁l’encontre	-11.5931
▁viabilité	-11.5931
▁fatal	-11.5931
▁punishment	-11.5932
▁autorisés	-11.5937
▁east	-11.5938
▁abstain	-11.5941
▁dégagé	-11.5941
▁middle	-11.5941
▁Lanka	-11.5942
▁l’homme.	-11.5947
▁soulevées	-11.5947
zi	-11.595
▁investigate	-11.595
▁israélienne	-11.5951
▁irregularities	-11.5952
▁contradictions	-11.5954
▁Mal	-11.5957
▁n'étaient	-11.5962
▁story	-11.5962
▁retenu	-11.5963
iff	-11.5965
▁évaluations	-11.5966
▁d'ore	-11.5966
ète	-11.5967
old	-11.5968
▁détenus	-11.597
▁parviendrons	-11.5973
▁vitale	-11.5975
▁Bu	-11.5979
▁era	-11.598
▁créant	-11.5981
▁séparation	-11.5983
▁lifelong	-11.5984
▁fulfilled	-11.5985
▁d'environnement	-11.5986
▁priv	-11.5988
▁alone.	-11.5989
▁entier.	-11.5991
▁Lehne	-11.5994
▁confront	-11.5995
▁recommended	-11.5996
▁sanitaires	-11.5996
▁est-elle	-11.6001
like	-11.6004
▁Olympic	-11.6004
▁Would	-11.6004
▁bridge	-11.6004
▁d'intérêts	-11.6007
▁relancer	-11.6012
▁adapted	-11.6017
▁lobby	-11.6024
▁idéologique	-11.6026
▁'no'	-11.6026
▁49	-11.6026
▁réalisée	-11.6028
▁delivered	-11.6028
▁construct	-11.6028
▁attaque	-11.603
▁dépasser	-11.6033
▁Böge	-11.6036
▁repercussions	-11.6036
▁shipping	-11.6037
stream	-11.6043
▁gravement	-11.6043
▁Federal	-11.6047
▁Vietnam	-11.6047
▁l'armée	-11.6047
▁assorti	-11.6047
▁seekers	-11.6047
▁commises	-11.605
▁multilatérale	-11.6051
▁adapter	-11.6051
▁exposed	-11.6054
▁sensiblement	-11.6054
▁criminals	-11.6054
▁tighten	-11.6057
▁vegetable	-11.6057
▁sensibilisation	-11.6058
▁lourds	-11.6061
▁inciter	-11.6064
pac	-11.6067
▁Slovénie	-11.6068
▁Day	-11.6069
▁conçu	-11.6072
▁d'accords	-11.6072
▁wherever	-11.6073
▁partenariats	-11.6073
▁cast	-11.6075
test	-11.6076
▁officiellement	-11.6078
▁fabrication	-11.6081
-off	-11.6083
gard	-11.6085
▁drop	-11.6089
▁Cohn-Bendit	-11.6089
▁suspicion	-11.6089
▁parliamentarian	-11.6089
▁sépare	-11.6089
▁1980	-11.609
ra-t-il	-11.6091
annonce	-11.6092
8%	-11.6093
▁restant	-11.6095
▁inevitably	-11.61
▁permanence	-11.61
▁rouge	-11.61
▁formulée	-11.6102
▁detriment	-11.6103
reg	-11.6104
CT	-11.6109
rum	-11.611
▁intéresse	-11.611
▁disadvantaged	-11.6113
▁deny	-11.6119
▁Naturellement	-11.6121
▁privilège	-11.6121
▁relevé	-11.6121
▁criticise	-11.6122
▁mettra	-11.6126
▁tomber	-11.6126
/CEE	-11.6129
▁removal	-11.6132
▁vécu	-11.6132
▁anticip	-11.6132
aging	-11.6134
wo	-11.6135
▁high-	-11.6139
▁approbation	-11.6139
▁votes.	-11.614
▁persecution	-11.6142
▁sensibilité	-11.6143
▁forestry	-11.6144
▁intelligence	-11.6147
pot	-11.6148
▁ventes	-11.6149
▁soumet	-11.6149
▁pressing	-11.6149
▁d’ici	-11.615
▁ciblée	-11.615
▁narrow	-11.6153
▁preparatory	-11.6153
▁vétérinaire	-11.6153
▁absorb	-11.6153
▁fashion	-11.6153
▁sums	-11.6153
▁sexuel	-11.6154
▁democratisation	-11.6154
▁souverain	-11.6156
▁l'échec	-11.6156
▁tableau	-11.6159
▁néerlandaise	-11.6159
▁enterprise	-11.6162
▁caractérise	-11.6164
▁identification	-11.6164
▁spécificité	-11.6164
IT	-11.6165
▁assistants	-11.6166
▁reproductive	-11.6166
▁aspire	-11.6168
DA)	-11.6169
mou	-11.617
▁respected.	-11.6174
▁fixation	-11.6177
▁étroit	-11.6178
▁sexe	-11.618
▁700	-11.618
▁shame	-11.6183
▁encouragé	-11.6185
▁conformer	-11.6185
▁interpret	-11.6185
▁seat	-11.6186
▁enjeux	-11.6186
▁rejetée	-11.6186
▁bande	-11.619
▁quasi	-11.6191
▁initiated	-11.6193
▁dispositif	-11.6194
▁Ferrero-Waldner	-11.6196
▁d'innovation	-11.6196
▁cease	-11.6201
▁livres	-11.6201
▁laying	-11.6205
▁AIDS	-11.6207
▁d'exercer	-11.6207
▁ownership	-11.6207
▁préfère	-11.6207
certain	-11.6207
▁transferred	-11.6207
▁ensured	-11.6208
▁stricter	-11.6209
▁pace	-11.6209
▁Iraq.	-11.6212
▁constituera	-11.6213
placing	-11.6217
▁radicale	-11.6217
▁d’ailleurs	-11.6217
▁pourparlers	-11.6217
▁simplified	-11.6217
▁85	-11.6219
▁saving	-11.6221
ink	-11.6224
▁formelle	-11.6225
▁won	-11.6227
▁deficits	-11.623
▁privilege	-11.623
▁infractions	-11.623
▁profile	-11.6232
▁Mann	-11.6233
▁3%	-11.6235
▁J'invite	-11.6239
▁ideological	-11.625
▁intéressante	-11.6252
▁paragraphs	-11.6252
▁Quatrièmement	-11.6252
-w	-11.6252
ication	-11.6253
▁(F	-11.6256
▁représentante	-11.6257
▁d'E	-11.6259
▁partnerships	-11.6259
▁d'instaurer	-11.626
▁desquels	-11.6261
▁Vienne	-11.6262
▁resist	-11.6262
▁déposer	-11.6262
▁inclusive	-11.6263
▁potentially	-11.6268
▁flights	-11.6269
▁gentlemen	-11.627
▁d'efforts	-11.6271
▁alleged	-11.6271
én	-11.6272
▁conviendrait	-11.6273
▁l’information	-11.6273
▁pal	-11.6281
▁exemptions	-11.6282
octroi	-11.6282
▁restreint	-11.6282
▁multiannual	-11.6282
▁maxim	-11.6284
▁compensate	-11.6288
▁Trans	-11.6288
▁bataille	-11.6293
▁overwhelming	-11.6293
▁dependence	-11.6295
▁Deuxième	-11.6297
▁cellules	-11.6299
▁l'OMC.	-11.6302
▁attached	-11.6303
▁warn	-11.6304
▁monopoly	-11.6304
▁s'avérer	-11.6304
▁prévoyant	-11.6304
▁presidential	-11.6304
▁distribué	-11.6306
▁thon	-11.6308
▁lance	-11.6308
yons	-11.631
▁fragment	-11.6312
▁apparemment	-11.6315
▁pouvaient	-11.6315
▁speculation	-11.6315
▁évolutions	-11.6316
▁naturelle	-11.6316
▁41	-11.6322
option	-11.6324
▁construit	-11.6326
▁foodstuffs	-11.6326
pending	-11.6327
oyer	-11.6327
▁Fourthly	-11.6332
▁équitables	-11.6335
▁hunger	-11.6336
▁abortion	-11.6336
▁recognize	-11.6338
▁Autrement	-11.6341
▁opération	-11.6341
▁d'organisation	-11.6342
▁assured	-11.6345
▁établie	-11.6347
▁d'organiser	-11.6347
▁Celui-ci	-11.6347
▁prétendu	-11.6353
nit	-11.6353
▁detect	-11.6356
▁existante	-11.6357
▁remboursement	-11.6358
▁bureaux	-11.636
▁enables	-11.6365
wing	-11.6366
▁investissement	-11.6366
▁respectées	-11.6369
▁protégés	-11.6369
▁découlant	-11.6369
▁inequalities	-11.6369
firm	-11.6369
▁tourner	-11.637
▁normale	-11.637
▁affronter	-11.6371
▁bananes	-11.6371
▁actives	-11.6374
▁disappear	-11.6375
▁statu	-11.6376
▁year's	-11.6378
▁Progress	-11.6379
▁faillite	-11.638
▁éducation	-11.6381
▁wholeheartedly	-11.6381
▁jeux	-11.6385
-friendly	-11.6391
▁Johannesburg	-11.6391
▁patience	-11.6391
▁scenario	-11.6391
▁africains	-11.6392
▁vis	-11.6392
▁candidature	-11.6395
▁Jacques	-11.6402
▁facility	-11.6402
▁film	-11.6402
▁d’améliorer	-11.6403
▁eco	-11.6405
▁openly	-11.641
▁j'étais	-11.6413
▁Harbour	-11.6413
gage	-11.6415
▁définitivement	-11.6417
▁mentionnés	-11.6418
▁democratically	-11.6419
▁préférence	-11.6419
▁alarming	-11.6423
▁solidaire	-11.643
▁explicite	-11.6431
▁adjustment	-11.6431
▁traitements	-11.6434
▁manifestation	-11.6434
▁twenty	-11.6435
▁attain	-11.6435
▁définit	-11.6435
▁publier	-11.644
▁félicitons	-11.6446
▁manipulation	-11.6446
▁l'aviation	-11.6446
▁strive	-11.6446
▁intitulé	-11.6446
▁n’ai	-11.6447
▁appropriés	-11.6447
▁bureaucratique	-11.6451
▁directes	-11.6453
▁détaillé	-11.6454
▁killing	-11.6455
▁Cypriot	-11.6457
▁high-quality	-11.6457
▁ended	-11.6457
▁wished	-11.6457
▁western	-11.6457
▁l'expression	-11.6457
▁characterised	-11.6457
ssions	-11.6457
▁chaos	-11.6457
▁condamne	-11.646
▁financements	-11.6461
sky	-11.6463
▁dénoncer	-11.6466
▁scénario	-11.6468
▁47	-11.647
▁reposer	-11.6471
▁démarches	-11.6471
▁Youth	-11.6472
▁forcé	-11.6473
▁minds	-11.6478
IP	-11.6478
▁là-bas	-11.6479
▁precedent	-11.6479
▁twice	-11.6479
▁remote	-11.6479
▁Everyone	-11.6479
▁60%	-11.648
▁l'exception	-11.6485
éni	-11.6487
▁paragraphes	-11.6488
▁l’ont	-11.6489
▁constituency	-11.649
▁divisé	-11.649
▁deciding	-11.649
▁Za	-11.6495
▁signes	-11.6495
▁errors	-11.65
▁linguistic	-11.6501
▁est-ce	-11.6502
▁stopped	-11.6502
èrent	-11.6503
▁présentes	-11.6505
▁fallen	-11.6507
▁incidence	-11.6508
▁donors	-11.6508
▁disponibilité	-11.6512
▁volontiers	-11.6512
▁Barón	-11.6512
▁pledge	-11.6512
▁nominal	-11.6512
ound	-11.6513
▁calm	-11.6516
▁sévère	-11.6523
▁l’OMC	-11.6523
▁attitudes	-11.6524
▁remained	-11.6529
▁résolument	-11.6532
▁s’applique	-11.6534
▁Lamy	-11.6534
Union	-11.6535
bour	-11.6536
▁meets	-11.654
▁broadly	-11.654
▁Bangemann	-11.6545
▁embark	-11.6545
▁trente	-11.6545
▁draftsman	-11.6545
▁apprendre	-11.6546
▁witness	-11.6547
▁jouets	-11.6548
▁décision-cadre	-11.6548
▁fonde	-11.6549
▁voters	-11.655
▁vieux	-11.6551
▁optique	-11.6551
▁crainte	-11.6553
▁2011.	-11.6553
▁déroule	-11.6555
▁appreciation	-11.6557
▁earthquake	-11.6557
▁génocide	-11.6557
▁xenophobia	-11.6557
▁Hague	-11.6557
▁internet	-11.6559
▁pages	-11.6562
▁Fo	-11.6563
▁islands	-11.6568
▁reassure	-11.6569
▁socially	-11.6573
▁citoyenne	-11.6578
▁large-scale	-11.658
productive	-11.6582
▁remplacement	-11.6583
▁deviendra	-11.6588
insertion	-11.6589
▁PNR	-11.659
▁kurde	-11.659
▁s'inscrit	-11.659
▁decade	-11.6591
▁engendre	-11.6591
▁originally	-11.6593
▁fédéral	-11.6594
▁motif	-11.6596
▁trap	-11.6596
▁XXIe	-11.6601
▁conseiller	-11.6603
▁assessing	-11.6606
▁telling	-11.6606
ked	-11.6607
▁fini	-11.6607
▁Dr	-11.6608
▁enregistre	-11.6612
▁Vienna	-11.6612
▁effectués	-11.6616
▁marks	-11.6618
▁Actuellement	-11.6624
▁soi-disant	-11.6624
▁tremendous	-11.6624
▁repos	-11.6624
▁systematically	-11.6624
▁vote:	-11.6626
▁tombe	-11.6632
▁criticised	-11.6633
▁l'ancien	-11.6634
▁Also,	-11.6634
▁PESC	-11.6635
▁n'aura	-11.6638
▁solides	-11.6642
▁sage	-11.6643
▁refusal	-11.6644
▁possèdent	-11.6645
▁constraints	-11.6646
▁associée	-11.6647
arbitr	-11.6649
▁ravie	-11.6649
▁alert	-11.665
▁rapides	-11.6651
▁posts	-11.6657
▁hinder	-11.6657
▁louable	-11.6657
▁isolation	-11.6657
▁avancés	-11.666
incitation	-11.6662
▁codes	-11.6665
▁travaillant	-11.6667
hr	-11.6668
▁discriminatoire	-11.6668
▁qu'aujourd'hui	-11.6668
▁reconcile	-11.6668
▁secrétariat	-11.6668
▁Among	-11.6669
▁hazardous	-11.6669
▁tuna	-11.667
introduction	-11.6672
▁researchers	-11.6676
▁requises	-11.6679
▁appalling	-11.668
▁complied	-11.668
▁d'inclure	-11.668
▁englobe	-11.668
▁fructueuse	-11.668
▁comptable	-11.668
▁practically	-11.668
▁confirmation	-11.668
▁stating	-11.6683
▁l'opportunité	-11.6685
▁l'arrêt	-11.6686
▁tendances	-11.6689
mment	-11.6689
▁own-initiative	-11.6691
riez	-11.6691
▁abandonné	-11.6693
▁estiment	-11.6694
▁internationally	-11.6694
▁coins	-11.6695
▁eat	-11.6695
▁organization	-11.6695
▁critiqué	-11.6695
▁espoirs	-11.6696
▁consulter	-11.6696
▁irrespective	-11.6702
▁slogan	-11.6702
▁Rehn	-11.6702
▁blue	-11.6702
▁Algeria	-11.6704
▁légiférer	-11.6704
▁recorded	-11.6709
▁subsidiarité.	-11.6709
▁inutiles	-11.6711
▁échoué	-11.6714
▁appuyer	-11.6714
▁guilty	-11.6715
▁owe	-11.672
iennes	-11.672
▁attendant	-11.6723
▁d'attention	-11.6725
▁impatience	-11.6725
▁xénophobie	-11.6725
▁survival	-11.6725
▁Greens/	-11.6727
▁Te	-11.6733
low	-11.6736
▁genocide	-11.6736
gel	-11.6737
▁L’Europe	-11.6738
▁pénales	-11.6738
▁2013.	-11.6739
▁outline	-11.6742
▁conditional	-11.6742
parti	-11.6745
);	-11.6747
▁vieillissement	-11.6748
▁moratoire	-11.6748
▁alloués	-11.6754
prime	-11.6755
▁recycling	-11.6755
efficacité	-11.6756
▁a-t-elle	-11.6757
▁Eh	-11.6757
apprentissage	-11.6761
tel	-11.6763
▁admis	-11.6765
▁affaibli	-11.6765
▁ferroviaires	-11.6768
▁réflexions	-11.677
▁réduits	-11.677
▁closing	-11.6771
▁automatically	-11.6771
▁announcement	-11.6778
▁Amérique	-11.6782
▁bottom	-11.6782
▁arbitraire	-11.6782
▁banana	-11.6782
▁split	-11.6782
▁opposée	-11.6785
▁d'engagement	-11.6787
▁administratifs	-11.6787
▁neutral	-11.6789
▁partagent	-11.6792
▁puissances	-11.6793
▁réactions	-11.6797
▁fé	-11.6799
▁sanitaire	-11.6802
toire	-11.6803
▁countries'	-11.6804
▁chypriote	-11.6804
▁imminent	-11.6804
▁Socrates	-11.6804
▁producer	-11.6806
▁Communautés	-11.6812
▁partagé	-11.6812
▁protestation	-11.6814
▁Sharon	-11.6816
▁interference	-11.6816
▁subjected	-11.6817
▁C6-	-11.6821
▁possession	-11.6822
▁Tri	-11.6823
▁verts	-11.6824
▁writing	-11.6824
▁Dan	-11.6824
▁bénéficié	-11.6827
▁offences	-11.683
lot	-11.6833
not	-11.6834
▁divisions	-11.6837
▁serves	-11.6839
▁concilier	-11.6839
▁disabilities	-11.6839
▁persécution	-11.6839
▁inclut	-11.6839
▁journal	-11.6839
▁méditerranéenne	-11.6842
▁Her	-11.6843
▁prejudice	-11.685
▁decrease	-11.685
▁march	-11.6851
▁conversion	-11.6851
▁channels	-11.6852
ically	-11.6855
▁circumstances.	-11.6859
▁partial	-11.6859
▁dérogations	-11.686
▁Erika	-11.6862
▁relocation	-11.6862
▁worried	-11.6862
▁elles-mêmes	-11.6862
▁IV	-11.6863
▁fixées	-11.6864
▁offrent	-11.6865
▁affirmation	-11.6865
graph	-11.6865
▁panel	-11.6866
▁N'	-11.6866
▁d'Afrique	-11.6866
▁retirement	-11.6866
▁Am	-11.6867
▁vary	-11.6867
▁persistent	-11.6869
▁jeopardise	-11.6873
▁wake	-11.6873
▁protectionnisme	-11.6873
▁donateurs	-11.6874
▁ressenti	-11.6874
▁ampleur	-11.6874
▁travelling	-11.6875
▁plaid	-11.6876
▁d’aut	-11.6878
fra	-11.6879
▁d’information	-11.6882
ä	-11.6885
▁éducatif	-11.6885
▁identifier	-11.6885
▁l'offre	-11.6889
▁massacre	-11.6893
▁Ti	-11.6895
▁demanded	-11.6895
lat	-11.6895
identifie	-11.6896
▁libéré	-11.6896
▁soupçon	-11.6896
pay	-11.6899
gh	-11.6902
▁biofuels	-11.6903
▁escape	-11.6908
▁voulait	-11.6908
▁exigé	-11.6908
▁intelligente	-11.6911
rance	-11.6911
▁régulière	-11.6912
▁workplace	-11.6914
▁souffre	-11.6924
▁images	-11.6928
▁scolaire	-11.6931
▁illusion	-11.6931
▁zero	-11.6931
▁thoroughly	-11.6933
▁franchement	-11.6934
▁s'efforce	-11.6936
▁père	-11.6942
▁topical	-11.6953
▁échéance	-11.6953
vocat	-11.6953
▁énergique	-11.6954
▁Afghan	-11.6954
▁moratorium	-11.6954
▁career	-11.6956
▁nullement	-11.6959
▁heureusement	-11.6961
▁Black	-11.6965
▁coordinating	-11.6965
▁défavorisées	-11.6965
▁composé	-11.6966
▁Jean	-11.6967
▁sacrifice	-11.6967
▁manifest	-11.697
light	-11.6975
▁tender	-11.6976
onformément	-11.6976
▁800	-11.6976
▁Kurdish	-11.6977
▁audiovisual	-11.6977
▁foot	-11.6977
zo	-11.6978
▁Herman	-11.6979
hir	-11.698
▁findings	-11.6985
▁majeures	-11.6988
▁creative	-11.6989
▁philosophie	-11.6989
▁Resolution	-11.6989
▁leçon	-11.699
▁transporteurs	-11.6991
▁normalisation	-11.6994
▁Kar	-11.6996
▁assessed	-11.6996
▁obligés	-11.6998
▁Federation	-11.7
▁équivoque	-11.7
▁venez	-11.7
▁strange	-11.7001
▁hasard	-11.7003
▁retraités	-11.7006
change	-11.7009
▁reminded	-11.7011
▁atmosphere	-11.7012
▁engendré	-11.7012
▁legislator	-11.7012
▁victory	-11.7013
▁prononcée	-11.7023
▁in-depth	-11.7024
▁remedy	-11.7024
▁s'élève	-11.7024
▁légère	-11.7029
▁sentiments	-11.7031
▁amener	-11.7032
▁neighbour	-11.7034
▁comitology	-11.7035
▁boat	-11.7038
▁consacre	-11.7044
gging	-11.7046
▁religieux	-11.7047
▁formally	-11.7047
▁ignoré	-11.7048
▁discover	-11.7049
▁secondaire	-11.705
por	-11.7051
▁transferts	-11.7051
▁soutiendra	-11.7052
ada	-11.7057
▁attendu	-11.7057
▁libérer	-11.7059
▁Eurojust	-11.7059
▁parvenons	-11.706
▁troubles	-11.7061
▁fléau	-11.7061
aving	-11.7062
▁prévoient	-11.7063
democratic	-11.7063
▁Barrot	-11.707
▁lesson	-11.7071
▁father	-11.7071
▁entail	-11.7072
▁specialist	-11.7075
▁remit	-11.7078
▁s'imposent	-11.708
▁sympathie	-11.7082
▁carburants	-11.7086
▁attaché	-11.7086
▁condemnation	-11.7088
▁abandonner	-11.7093
▁ridicule	-11.7094
▁delicate	-11.7094
▁d'offrir	-11.7097
▁burdens	-11.7098
▁advise	-11.7099
▁inévitable	-11.7099
▁authorised	-11.7099
▁entendons	-11.7104
▁Soudan	-11.7106
▁pragmatique	-11.7106
▁survey	-11.7106
▁passeport	-11.7108
lons	-11.711
▁exporter	-11.7111
▁demonstration	-11.7114
▁combiné	-11.7117
▁l’initiative	-11.7119
▁figurer	-11.7121
▁obtaining	-11.7122
▁allait	-11.7122
35	-11.7123
[...]
