<s>	0
</s>	0
<unk>	0
<pad>	0
s	-3.30669
,	-3.49275
.	-3.66453
▁de	-3.69449
▁	-4.20778
▁la	-4.3305
e	-4.45717
r	-4.48403
▁le	-4.5449
▁et	-4.54978
▁à	-4.67359
t	-4.85437
▁en	-4.99272
▁les	-5.01371
▁que	-5.11707
a	-5.1411
▁—	-5.17541
▁un	-5.1846
é	-5.25004
▁a	-5.25639
▁se	-5.38723
▁du	-5.41304
▁des	-5.43706
▁pas	-5.44091
y	-5.44833
er	-5.46078
c	-5.47459
l	-5.48003
▁?	-5.48582
u	-5.50523
i	-5.52661
▁une	-5.52899
▁dans	-5.53418
▁qui	-5.56532
it	-5.56571
▁ne	-5.59325
n	-5.62137
▁pour	-5.63805
-	-5.64435
▁il	-5.68757
▁par	-5.72776
▁Il	-5.78744
▁sur	-5.79614
▁sa	-5.80999
▁je	-5.81224
re	-5.84275
▁son	-5.8637
nt	-5.86744
▁au	-5.87075
▁:	-5.87084
▁ce	-5.90081
in	-5.93611
es	-5.96513
le	-5.98553
ment	-5.99143
p	-5.99981
▁est	-5.99993
s,	-6.01118
ra	-6.01402
ait	-6.01407
▁plus	-6.07312
▁|	-6.10585
▁lui	-6.12614
▁dé	-6.1266
▁é	-6.13084
▁!	-6.1347
o	-6.1397
▁Je	-6.14767
ant	-6.14889
▁vous	-6.15447
te	-6.17083
d	-6.17612
▁re	-6.1854
▁(	-6.18623
m	-6.20725
s.	-6.20897
▁me	-6.21697
▁avait	-6.22042
ur	-6.24138
▁Le	-6.26123
▁avec	-6.26622
)	-6.30145
▁A	-6.31791
▁était	-6.34934
is	-6.35501
...	-6.35752
on	-6.378
▁elle	-6.39842
g	-6.40511
▁La	-6.41074
que	-6.41937
la	-6.42278
▁l’	-6.42326
▁S	-6.4682
▁si	-6.47554
▁mais	-6.4917
▁19	-6.49571
ne	-6.50293
v	-6.50623
▁comme	-6.51323
▁ma	-6.51892
che	-6.52949
▁«	-6.53375
me	-6.53731
li	-6.54326
té	-6.56197
▁ses	-6.56594
▁nous	-6.57196
▁;	-6.57722
▁tout	-6.57882
▁qu’il	-6.58468
en	-6.59018
▁in	-6.59145
b	-6.60298
▁mon	-6.60691
ro	-6.61214
ri	-6.61459
f	-6.61577
▁d’	-6.61879
sse	-6.62183
ce	-6.62591
ta	-6.6359
lo	-6.63936
▁l'	-6.64932
▁ré	-6.65394
di	-6.65606
z	-6.66319
▁ou	-6.67073
▁bien	-6.67798
na	-6.68768
ci	-6.70819
▁l’a	-6.71806
▁»	-6.72485
an	-6.73589
ti	-6.74303
al	-6.74762
de	-6.75313
▁Elle	-6.75379
ter	-6.75425
age	-6.76826
e,	-6.77502
▁–	-6.79521
k	-6.80978
ie	-6.81401
ch	-6.81553
mi	-6.82534
▁con	-6.82642
e.	-6.83587
il	-6.83712
ge	-6.84182
or	-6.84814
ir	-6.85184
vi	-6.8563
▁tu	-6.85935
▁dit	-6.86046
ent	-6.87107
▁pro	-6.88317
aient	-6.89114
us	-6.89252
▁F	-6.89611
▁cette	-6.90016
h	-6.90121
ine	-6.91609
▁C	-6.91891
▁fait	-6.92943
ré	-6.93791
nd	-6.94321
▁Et	-6.9554
eur	-6.95912
tre	-6.96313
▁Les	-6.96889
▁d’un	-6.97542
ée	-6.97773
ation	-6.98535
▁Mais	-6.99834
▁P	-7.00345
▁deux	-7.02719
▁même	-7.03027
ité	-7.03098
▁Ma	-7.03588
▁p	-7.04743
im	-7.06703
I	-7.06996
th	-7.08125
▁sans	-7.08744
▁d'	-7.08902
▁aux	-7.10254
▁-	-7.10447
▁leur	-7.10525
x	-7.10989
w	-7.11213
ve	-7.11754
▁y	-7.12854
▁T	-7.13328
▁faire	-7.14022
▁pa	-7.14158
lé	-7.14526
▁G	-7.14576
▁ca	-7.15053
ez	-7.15541
E	-7.15741
ma	-7.161
▁ra	-7.16149
mp	-7.16289
eux	-7.18312
ais	-7.18443
ol	-7.1865
el	-7.18961
ou	-7.18999
▁B	-7.19026
A	-7.19462
▁sont	-7.20002
▁D	-7.20086
able	-7.21302
▁te	-7.21479
▁Ce	-7.21701
▁E	-7.22239
da	-7.22675
ère	-7.22676
▁on	-7.22742
▁En	-7.22923
▁où	-7.22935
ff	-7.23052
▁po	-7.23273
▁g	-7.23661
ni	-7.24726
ement	-7.24902
ille	-7.26593
mo	-7.2685
▁été	-7.2851
▁va	-7.28701
lle	-7.29454
▁d’une	-7.30196
ver	-7.30389
▁M	-7.30625
▁aussi	-7.31128
ar	-7.31652
co	-7.31767
ard	-7.32008
▁Vous	-7.32125
tte	-7.32253
au	-7.32521
▁b	-7.33367
ng	-7.33549
ient	-7.34454
▁dis	-7.35268
▁vi	-7.35308
to	-7.35594
tion	-7.35642
▁fa	-7.35734
ut	-7.365
hi	-7.3713
▁moi	-7.37185
▁vers	-7.37366
elle	-7.37489
▁ex	-7.37553
▁di	-7.3922
ga	-7.39589
èrent	-7.39613
▁C’est	-7.39957
gé	-7.40262
▁encore	-7.40475
▁c’est	-7.41314
▁c	-7.41363
▁Si	-7.4175
▁f	-7.41772
▁br	-7.43179
▁qu’elle	-7.43215
▁·	-7.43678
lu	-7.44352
ll	-7.45321
▁d’a	-7.45433
▁m	-7.4544
mb	-7.46
▁ça	-7.46027
S	-7.46288
▁peu	-7.46315
va	-7.46711
▁De	-7.4674
▁ba	-7.47089
qui	-7.49241
▁temps	-7.4955
mé	-7.49859
no	-7.49971
ai	-7.49981
min	-7.50318
▁Sa	-7.50534
ence	-7.50993
▁pré	-7.51239
▁I	-7.51674
▁puis	-7.51744
ul	-7.51886
▁s’	-7.52259
▁être	-7.52424
ance	-7.52559
▁yeux	-7.52601
▁sou	-7.52605
▁tous	-7.53158
pa	-7.53372
ique	-7.53392
▁Ro	-7.53678
gi	-7.53947
▁Tu	-7.54119
aire	-7.54788
▁coup	-7.55011
ac	-7.55276
▁suis	-7.55286
aux	-7.55743
ill	-7.55978
▁ces	-7.56016
▁Un	-7.56086
▁mar	-7.56209
▁ta	-7.56543
▁entre	-7.56625
▁car	-7.56974
'	-7.57119
ons	-7.57398
tes	-7.58076
▁pu	-7.58263
▁fois	-7.58491
▁sous	-7.58561
▁rien	-7.58666
▁regard	-7.58672
rait	-7.59325
pe	-7.59336
ton	-7.59714
▁Mar	-7.59815
vo	-7.60518
du	-7.60571
ba	-7.60747
at	-7.60937
O	-7.60979
▁li	-7.6137
be	-7.61829
ca	-7.62279
ion	-7.62328
go	-7.62501
ign	-7.63406
▁très	-7.63902
és	-7.64205
vé	-7.64209
▁porte	-7.64351
▁Ca	-7.64471
▁1	-7.6457
▁femme	-7.65342
▁grand	-7.65573
tant	-7.65612
▁comp	-7.65788
▁quand	-7.66128
cé	-7.66197
▁main	-7.66245
▁On	-7.66343
op	-7.66508
cha	-7.66604
les	-7.66684
ire	-7.66685
tique	-7.66963
iste	-7.67294
eau	-7.67327
ale	-7.67475
▁jamais	-7.67584
ia	-7.68311
▁fut	-7.68564
ché	-7.69181
sion	-7.69343
▁co	-7.69596
▁l'a	-7.69621
▁l’é	-7.69804
▁K	-7.70096
▁avant	-7.702
▁étaient	-7.70316
rie	-7.70964
ner	-7.71182
ière	-7.71523
C	-7.72267
-il	-7.72585
▁vie	-7.73264
ex	-7.73386
▁per	-7.73462
▁Par	-7.73491
▁dire	-7.73597
▁dont	-7.74319
tend	-7.74402
▁Au	-7.74662
un	-7.7556
▁su	-7.76069
▁fit	-7.76078
ord	-7.7633
M	-7.76429
ide	-7.76629
▁là	-7.77178
▁vo	-7.77492
▁ils	-7.77589
ck	-7.77623
tait	-7.77652
▁toujours	-7.77941
â	-7.78038
▁petit	-7.7806
R	-7.78073
▁tête	-7.78118
▁jeune	-7.78645
▁mort	-7.79164
▁2	-7.79226
▁chose	-7.79417
N	-7.80373
▁Se	-7.8042
est	-7.81256
▁Re	-7.81333
tu	-7.81426
▁bou	-7.81536
’	-7.81811
▁app	-7.81918
▁j’ai	-7.81923
L	-7.82113
▁pi	-7.82273
▁L	-7.82414
▁voir	-7.82518
▁ga	-7.82603
ées	-7.82745
po	-7.82985
▁do	-7.83019
ction	-7.83083
con	-7.83128
▁m’a	-7.83471
T	-7.83629
?	-7.83661
▁déc	-7.8389
gue	-7.83937
▁nom	-7.84084
ens	-7.84117
cul	-7.84175
▁cons	-7.84364
pi	-7.84407
▁cou	-7.84457
né	-7.84678
▁homme	-7.84703
▁tour	-7.8474
▁n’a	-7.84898
▁O	-7.84943
cher	-7.84947
▁ch	-7.85271
ble	-7.85283
ron	-7.85812
um	-7.85885
ven	-7.85893
▁W	-7.87117
man	-7.87153
▁mé	-7.87177
ue	-7.87205
▁cela	-7.87328
▁sais	-7.87435
▁s'	-7.87454
▁contre	-7.87913
▁cri	-7.88177
▁point	-7.88202
▁leurs	-7.88432
▁À	-7.88898
▁ont	-7.89006
ten	-7.89252
▁m’	-7.8932
▁Al	-7.89341
▁alors	-7.89402
▁tra	-7.89482
▁Ba	-7.89598
▁autre	-7.89607
▁quelque	-7.89625
ture	-7.89687
son	-7.89695
▁ju	-7.89767
euse	-7.899
▁après	-7.90664
ux	-7.90779
▁moment	-7.91138
bo	-7.91467
▁É	-7.91497
ha	-7.91498
▁Nous	-7.91946
▁Une	-7.91985
▁ar	-7.92039
use	-7.92365
ud	-7.92527
ure	-7.92604
ph	-7.92616
et	-7.92676
▁V	-7.92692
▁Mi	-7.92747
tor	-7.92905
▁L’	-7.93009
ssi	-7.93041
▁Me	-7.93369
▁moins	-7.93523
▁voix	-7.93581
▁votre	-7.93661
fi	-7.93976
ler	-7.94313
▁toute	-7.9439
▁pl	-7.94441
nce	-7.94583
▁monde	-7.94702
▁Ha	-7.94739
tt	-7.94845
ier	-7.9491
ois	-7.95118
▁Co	-7.95254
▁demanda	-7.95798
▁non	-7.9587
ssa	-7.95998
es,	-7.96073
20	-7.96483
▁mi	-7.96709
ing	-7.96796
-t-il	-7.96836
tro	-7.9701
▁Di	-7.97255
rent	-7.97474
▁No	-7.97552
▁avoir	-7.97675
/	-7.97976
teur	-7.98643
▁quelques	-7.98662
▁avaient	-7.98938
bi	-7.98964
▁personne	-7.99158
er.	-7.99754
▁fer	-7.9976
▁s’a	-7.99871
▁fu	-7.99982
he	-8.00523
▁Pa	-8.00646
▁jour	-8.00651
isse	-8.00777
nc	-8.00794
os	-8.00846
▁Ils	-8.0129
▁bon	-8.01435
▁fi	-8.01882
ssé	-8.02195
▁J’ai	-8.02485
▁trop	-8.02507
▁fin	-8.027
▁Da	-8.02869
rai	-8.029
par	-8.03001
▁Li	-8.03386
om	-8.0404
cu	-8.04073
▁18	-8.04618
D	-8.04719
ê	-8.05127
pp	-8.052
éri	-8.05292
▁donc	-8.05342
es.	-8.05487
tin	-8.05773
▁fou	-8.05979
ise	-8.06394
▁Ra	-8.06696
>	-8.07159
▁trois	-8.07301
▁H	-8.07388
▁qu’on	-8.07505
▁ho	-8.07566
id	-8.07625
ante	-8.07627
▁ton	-8.07832
▁depuis	-8.08679
ig	-8.09224
▁peut	-8.09317
do	-8.09654
▁Vi	-8.09762
▁n’est	-8.09966
qué	-8.10148
▁devant	-8.10253
P	-8.10265
mon	-8.10413
oc	-8.10879
pos	-8.10963
tra	-8.11056
vant	-8.11069
▁s’en	-8.11095
H	-8.11117
▁s’é	-8.11848
ât	-8.11947
gu	-8.12337
▁mal	-8.12396
fo	-8.12502
ran	-8.12574
▁<	-8.1264
▁fille	-8.12888
tri	-8.12981
▁Lo	-8.12991
▁Bo	-8.13014
▁eu	-8.1349
#	-8.13638
▁imp	-8.13904
ru	-8.13943
ho	-8.14002
▁Cha	-8.1413
dé	-8.1424
▁toi	-8.14294
U	-8.14553
▁mes	-8.14585
▁cour	-8.1473
ès	-8.14732
j	-8.14803
▁côté	-8.14904
▁no	-8.14975
▁fort	-8.14994
▁3	-8.15074
▁ha	-8.15275
▁ti	-8.15355
▁n’avait	-8.15566
"	-8.15818
rou	-8.16024
▁n’était	-8.16029
ste	-8.16183
▁Po	-8.16243
▁mot	-8.16325
if	-8.16483
),	-8.16633
▁so	-8.1667
▁man	-8.16941
▁déjà	-8.16993
ment,	-8.1717
▁An	-8.17175
nn	-8.17425
▁autres	-8.181
▁ni	-8.18148
▁Que	-8.18241
▁d'a	-8.18438
ins	-8.18622
▁To	-8.18857
▁acc	-8.19135
ible	-8.19175
lement	-8.19199
).	-8.194
ï	-8.19474
▁N	-8.19997
▁emp	-8.20064
▁petite	-8.2037
▁Ch	-8.20518
▁Pour	-8.2088
▁nouveau	-8.21131
▁J	-8.21673
emp	-8.2175
▁Mo	-8.2227
▁pou	-8.22311
res	-8.22964
▁grande	-8.23268
▁présent	-8.23358
▁c’était	-8.23544
▁Ar	-8.23622
nu	-8.23634
▁cha	-8.23639
▁port	-8.23946
▁père	-8.23968
▁ainsi	-8.24313
▁L'	-8.24525
▁Ja	-8.24579
ô	-8.24786
ouv	-8.24822
▁premier	-8.24941
▁na	-8.24947
onne	-8.25107
dre	-8.25136
▁bras	-8.25141
our	-8.25228
pé	-8.25286
voir	-8.2529
:	-8.25544
▁peut-être	-8.25682
▁faut	-8.25694
qua	-8.26006
2	-8.26061
mer	-8.26149
▁visage	-8.26482
▁chez	-8.26795
è	-8.26807
cou	-8.26968
▁haut	-8.26999
vin	-8.27163
▁ai	-8.27171
lin	-8.27666
▁pouvait	-8.27921
▁notre	-8.28103
▁pris	-8.28257
mm	-8.28514
vis	-8.28536
▁vu	-8.2855
tive	-8.28632
▁n’	-8.28835
▁seul	-8.29045
ive	-8.29203
lon	-8.29218
▁ami	-8.29232
▁Tout	-8.29271
port	-8.29404
▁st	-8.29462
]	-8.29827
▁an	-8.29938
▁inter	-8.3003
per	-8.30034
▁ans	-8.30035
▁soit	-8.30041
▁pri	-8.30125
▁première	-8.30136
[	-8.30371
▁ici	-8.30456
▁toutes	-8.30527
▁nuit	-8.30553
ot	-8.30654
▁hommes	-8.30655
▁s’il	-8.30818
ger	-8.31268
▁maison	-8.31466
tru	-8.31532
▁bas	-8.31584
▁quoi	-8.31611
▁aurait	-8.31615
▁In	-8.31626
am	-8.31685
▁terre	-8.31976
lier	-8.32184
▁s’était	-8.32217
▁plan	-8.32365
▁répondit	-8.32602
▁fond	-8.32727
mée	-8.33411
▁Dans	-8.33422
▁près	-8.33445
▁ri	-8.33636
rée	-8.33763
▁R	-8.33796
▁part	-8.34338
▁ro	-8.34476
▁partie	-8.346
▁vos	-8.34672
▁l’in	-8.34748
▁Pe	-8.34797
▁ville	-8.34804
F	-8.34851
ort	-8.34972
▁place	-8.35061
lan	-8.35389
▁Ne	-8.35441
eurs	-8.35495
venu	-8.35625
oir	-8.35703
▁noir	-8.35735
▁France	-8.35749
▁Ga	-8.35756
vais	-8.35929
▁sûr	-8.36034
rais	-8.36086
▁Na	-8.36236
▁crois	-8.36241
▁com	-8.36366
itude	-8.36796
▁4	-8.36895
00	-8.369
lli	-8.36967
▁Mon	-8.37066
▁pendant	-8.37233
chi	-8.3725
and	-8.37355
ly	-8.37392
▁sé	-8.374
▁attend	-8.37446
▁Ju	-8.3755
lic	-8.37588
▁raison	-8.3764
▁n’y	-8.37644
née	-8.37681
ète	-8.37767
▁Ta	-8.37795
B	-8.37801
▁sol	-8.3787
des	-8.37874
don	-8.37895
vre	-8.38072
19	-8.38111
▁ru	-8.38134
▁article	-8.38159
▁mis	-8.38183
der	-8.38199
▁Jo	-8.38684
art	-8.39107
V	-8.39109
▁Su	-8.39252
▁qu’ils	-8.39413
raient	-8.39555
ris	-8.39721
▁Con	-8.39782
▁es	-8.39841
▁Du	-8.40204
ions	-8.40624
▁lu	-8.40724
▁Fa	-8.40743
▁mo	-8.4075
▁d'un	-8.40769
▁nu	-8.40885
▁celle	-8.40952
▁cet	-8.40989
▁travers	-8.41207
rri	-8.41229
ment.	-8.41467
cour	-8.41573
ry	-8.41862
▁Ho	-8.41987
▁d	-8.42084
▁6	-8.42284
▁serait	-8.42457
▁C’était	-8.42608
▁j’	-8.42708
▁vol	-8.42743
urs	-8.42938
▁travail	-8.42939
ke	-8.43102
ette	-8.43106
▁ja	-8.43168
▁rend	-8.43399
▁l’en	-8.43434
▁ve	-8.43599
▁l’autre	-8.43651
▁tant	-8.43769
▁col	-8.43872
G	-8.43884
ront	-8.43929
ident	-8.43931
men	-8.44246
▁Z	-8.44313
▁ren	-8.44494
nes	-8.44807
▁Son	-8.45118
tré	-8.45174
vait	-8.45212
▁Car	-8.45424
ez-vous	-8.45515
tions	-8.45816
▁cas	-8.45927
val	-8.45981
lique	-8.46019
▁Dé	-8.46042
▁Des	-8.46085
1	-8.4612
▁maintenant	-8.46128
vers	-8.46195
▁parti	-8.46307
▁"	-8.46544
▁Cette	-8.46612
nça	-8.46709
▁Do	-8.46905
▁compte	-8.47085
É	-8.47266
▁corps	-8.474
lles	-8.47455
tal	-8.47477
6	-8.47521
ka	-8.4758
▁Portail	-8.47717
▁long	-8.47813
▁rem	-8.4786
gent	-8.47899
sti	-8.48125
▁cra	-8.48131
▁assez	-8.48227
▁sang	-8.48735
▁beaucoup	-8.48901
ile	-8.48979
▁doute	-8.49096
ze	-8.49123
bre	-8.49356
▁cu	-8.49417
pu	-8.4951
▁ob	-8.49641
cle	-8.49761
▁gri	-8.4982
bli	-8.49824
▁San	-8.49917
▁Y	-8.50026
toire	-8.50463
▁fr	-8.50655
▁rec	-8.50687
land	-8.50761
ica	-8.50789
▁Puis	-8.50894
tif	-8.51001
▁loin	-8.51026
ateur	-8.51193
▁question	-8.51266
▁bo	-8.51573
▁5	-8.51857
▁rep	-8.51965
lant	-8.52005
▁ad	-8.52399
▁qu’	-8.52622
▁l'é	-8.52628
▁tard	-8.53069
sser	-8.53074
lie	-8.53097
-là	-8.53293
tta	-8.53315
▁pense	-8.5332
rme	-8.5351
▁d'une	-8.53579
bri	-8.53619
▁jusqu’à	-8.53652
▁bar	-8.53763
ix	-8.53804
▁l’un	-8.54066
▁prendre	-8.54325
▁lieu	-8.54358
▁Ka	-8.54411
▁faisait	-8.54501
igne	-8.54751
▁bonne	-8.54771
▁Be	-8.54856
▁joue	-8.54919
▁ab	-8.55255
dition	-8.55333
▁dit-il	-8.55346
▁derrière	-8.55539
▁veux	-8.55692
▁roi	-8.55884
ôt	-8.56049
▁qu'il	-8.56063
rc	-8.5607
▁mère	-8.56178
▁avez	-8.56325
▁M.	-8.56347
▁gens	-8.56365
tour	-8.5637
▁mieux	-8.5659
▁Vo	-8.56603
▁»,	-8.56633
▁parler	-8.56743
▁indi	-8.56957
▁continu	-8.57115
▁mains	-8.57142
▁Alors	-8.57319
▁bout	-8.5735
▁eux	-8.57449
cri	-8.57562
▁for	-8.57682
▁nouvelle	-8.57714
▁reste	-8.57762
venir	-8.57866
pren	-8.57936
▁sens	-8.58103
lais	-8.58197
uf	-8.58269
fe	-8.58479
▁sera	-8.58652
let	-8.58827
hé	-8.58872
▁Quand	-8.58902
ad	-8.58915
▁mou	-8.59135
▁or	-8.59226
▁gra	-8.59266
ya	-8.59319
fa	-8.59367
▁besoin	-8.59433
▁cro	-8.59484
▁n’en	-8.59587
bu	-8.59703
ien	-8.59758
▁soir	-8.59851
gna	-8.60028
▁cœur	-8.60086
part	-8.60191
za	-8.60194
jou	-8.60438
omme	-8.60618
▁garde	-8.60737
▁passé	-8.60761
▁force	-8.6078
▁exp	-8.60791
ations	-8.60941
▁cor	-8.60983
▁né	-8.61019
▁mari	-8.61087
ki	-8.61356
aires	-8.61429
fér	-8.61488
bé	-8.61526
▁dernier	-8.61808
▁vrai	-8.62179
ç	-8.62191
issant	-8.62452
lée	-8.62471
▁qu’un	-8.62606
nant	-8.62653
com	-8.62841
▁général	-8.63205
▁heures	-8.63213
enne	-8.63422
▁rou	-8.63612
▁Pas	-8.63744
gli	-8.63805
▁presque	-8.63985
▁juste	-8.64085
▁Ça	-8.64173
ête	-8.64178
▁tend	-8.64192
lla	-8.64225
nie	-8.6427
ienne	-8.64492
▁Paris	-8.64549
▁pays	-8.64593
cla	-8.64823
▁pouvez	-8.64959
▁s’est	-8.65066
non	-8.65087
▁ref	-8.65225
▁Cet	-8.65394
▁pièce	-8.65451
tat	-8.65455
▁trans	-8.6578
▁comment	-8.65782
▁l’air	-8.65801
gie	-8.66175
▁certain	-8.6637
▁pen	-8.66371
▁regarda	-8.66421
iques	-8.66457
▁table	-8.66507
ob	-8.66525
▁autour	-8.66644
▁hu	-8.66823
ée.	-8.66861
uve	-8.67063
▁eut	-8.67148
▁français	-8.67259
▁resta	-8.6727
▁pé	-8.67289
▁ci	-8.67432
▁Gu	-8.67535
▁celui	-8.68057
▁nos	-8.68277
▁So	-8.68315
▁donné	-8.68567
▁pouvoir	-8.68647
▁moi,	-8.6868
-elle	-8.6874
▁chambre	-8.68804
tation	-8.68905
▁monsieur	-8.69077
▁cré	-8.69118
▁Comme	-8.69165
▁instant	-8.69197
hab	-8.69277
▁prêt	-8.69449
▁Ni	-8.69578
▁jours	-8.69584
▁d'A	-8.6962
▁seule	-8.69725
van	-8.69725
î	-8.69851
▁Jean	-8.70036
▁quatre	-8.70106
▁droit	-8.70115
▁sourire	-8.702
off	-8.70371
isme	-8.70419
▁n’ai	-8.70436
ric	-8.70516
▁senti	-8.70654
▁êtes	-8.70702
mar	-8.70804
mis	-8.70994
▁mod	-8.71063
batt	-8.71207
▁plusieurs	-8.71214
▁He	-8.71218
▁Oui,	-8.71388
▁sorti	-8.71669
▁ceux	-8.71776
▁retour	-8.71929
▁lo	-8.71961
ttes	-8.72167
position	-8.72286
-t-elle	-8.72365
tenir	-8.7247
▁d’A	-8.72955
tent	-8.73084
nou	-8.73121
▁passer	-8.73171
ordre	-8.73334
spir	-8.73444
ée,	-8.73466
▁savoir	-8.73473
mbre	-8.7349
▁forme	-8.73787
ssent	-8.73907
▁parce	-8.74008
▁plein	-8.74011
nne	-8.7419
▁Com	-8.74237
▁cours	-8.74276
▁cla	-8.74313
▁peine	-8.74391
▁bi	-8.744
▁trouver	-8.74451
lot	-8.74676
ût	-8.74716
▁Pro	-8.74986
▁chaque	-8.7502
▁fais	-8.75035
▁pourquoi	-8.75347
▁Dieu	-8.75428
mand	-8.75499
▁fils	-8.75638
▁Bi	-8.75664
▁(19	-8.75794
▁vit	-8.76096
od	-8.76176
resse	-8.76219
pou	-8.76267
8	-8.76487
▁lit	-8.76663
▁seulement	-8.7674
cro	-8.77191
▁Ou	-8.77265
-même	-8.7729
isé	-8.77374
▁façon	-8.77456
gra	-8.77719
ade	-8.77806
spect	-8.77951
ute	-8.78007
▁maître	-8.78392
cer	-8.78587
▁Sou	-8.78835
▁Lu	-8.78854
▁mur	-8.79032
▁vent	-8.79282
▁famille	-8.79528
pen	-8.79598
▁U	-8.79753
▁vite	-8.79934
18	-8.80061
▁beau	-8.80247
▁cent	-8.80373
qu	-8.8049
cent	-8.80638
▁propre	-8.80667
vent	-8.80672
▁7	-8.80676
io	-8.80932
omb	-8.81163
▁feu	-8.8136
illa	-8.81383
▁jo	-8.81418
▁pe	-8.81476
xe	-8.81629
▁l’avait	-8.81688
près	-8.8169
▁d’en	-8.81705
ime	-8.81892
▁eff	-8.82059
▁Pi	-8.82073
▁17	-8.8211
▁Ri	-8.82144
form	-8.82167
▁bord	-8.82295
▁Va	-8.8237
hu	-8.82646
ug	-8.82726
tou	-8.82781
▁vieux	-8.83044
car	-8.8323
▁années	-8.83236
▁trou	-8.83448
▁Te	-8.83536
▁Non,	-8.83701
▁mu	-8.83817
vaient	-8.83823
▁gu	-8.83875
▁dernière	-8.84019
▁devait	-8.84039
cal	-8.84096
▁J’	-8.84261
▁dou	-8.84271
▁vraiment	-8.8436
▁servi	-8.84654
▁venu	-8.84696
▁of	-8.8476
▁longue	-8.85116
▁chemin	-8.85208
main	-8.85258
wa	-8.85282
illé	-8.85301
▁avons	-8.85307
cho	-8.85346
▁Après	-8.85423
▁concernant	-8.85439
▁suite	-8.85511
▁longtemps	-8.85653
▁Go	-8.85754
iez	-8.85757
▁trouve	-8.86275
▁lors	-8.86293
▁d’être	-8.86656
▁partager	-8.86676
stra	-8.86839
▁descend	-8.87034
▁matin	-8.8716
▁sort	-8.87253
ographie	-8.87364
▁Bu	-8.87573
chant	-8.87645
alité	-8.87647
°	-8.87675
▁Ré	-8.87811
▁frère	-8.87826
arrêt	-8.88075
▁vais	-8.88101
appel	-8.8814
s-tu	-8.88167
▁Cla	-8.88575
▁t’	-8.88618
serv	-8.887
▁siècle	-8.88837
teurs	-8.89288
▁lumière	-8.8933
▁groupe	-8.89456
▁prit	-8.89721
▁sc	-8.89855
▁rue	-8.90099
▁savait	-8.90174
▁connaissances	-8.9018
▁allait	-8.9033
lou	-8.90387
pri	-8.90405
ène	-8.90525
▁cap	-8.90549
▁aucun	-8.90678
▁dû	-8.90694
▁10	-8.907
3	-8.90783
▁Saint-	-8.90945
▁choses	-8.90991
▁sub	-8.91003
▁permet	-8.91019
▁assis	-8.91091
▁peux	-8.91153
▁cinq	-8.91188
▁livre	-8.91216
▁X	-8.91235
▁l’on	-8.91307
▁tourna	-8.91314
cip	-8.9132
▁Pourquoi	-8.91378
▁Th	-8.91444
▁qu’une	-8.91499
▁route	-8.91503
▁fra	-8.91783
▁mettre	-8.91953
▁donner	-8.92215
4	-8.92323
▁également	-8.9247
▁semblait	-8.92537
▁bois	-8.92895
▁doit	-8.92967
▁mit	-8.93002
▁face	-8.93215
▁cru	-8.93236
igno	-8.93295
▁partir	-8.93297
▁8	-8.93306
tier	-8.93365
▁guerre	-8.93402
pression	-8.93563
▁can	-8.93771
isation	-8.94014
tribu	-8.94063
▁l’ai	-8.94133
▁Comment	-8.9428
▁fini	-8.94376
▁donna	-8.94444
nement	-8.94533
hy	-8.94534
homme	-8.94605
ctu	-8.9468
▁passa	-8.9477
iens	-8.9481
▁!...	-8.95085
fer	-8.95261
▁Bar	-8.95274
ko	-8.95431
rons	-8.95498
▁rouge	-8.95632
vez	-8.95756
▁heure	-8.95817
uel	-8.95821
voy	-8.95891
ça	-8.95891
▁moyen	-8.95894
▁laisser	-8.95984
éné	-8.96037
tien	-8.96166
▁Qui	-8.96276
▁venait	-8.963
▁leva	-8.96484
▁The	-8.96498
▁possible	-8.96661
▁Wa	-8.96705
taient	-8.96725
▁voiture	-8.96754
ult	-8.96783
tern	-8.96877
dor	-8.96983
▁mer	-8.97087
▁entendu	-8.9751
mont	-8.9775
▁Mu	-8.97857
▁aller	-8.97875
▁ébauche	-8.97982
▁j’avais	-8.97988
▁doigt	-8.97994
fu	-8.98245
▁douce	-8.98441
vision	-8.98456
▁habit	-8.98476
▁tandis	-8.98479
▁m’en	-8.98489
û	-8.98631
▁l'in	-8.98715
▁Mont	-8.98797
sui	-8.98919
▁(Comment	-8.98921
i-je	-8.99021
▁vue	-8.99032
▁l'améliorant.	-8.99093
ifi	-8.99105
▁Oh	-8.99124
▁Ah	-8.9919
▁pensa	-8.99199
▁propos	-8.99255
tan	-8.99314
▁sommes	-8.99592
issait	-8.99638
xi	-8.99718
▁Bien	-8.99782
▁0	-9.00179
ban	-9.00263
▁enfin	-9.00373
▁commune	-9.004
▁silence	-9.00429
her	-9.00573
quant	-9.00891
llon	-9.00909
J	-9.01162
ppe	-9.01221
▁milieu	-9.01284
▁lettre	-9.01482
▁sorte	-9.01528
▁marche	-9.01656
tho	-9.01731
▁tête.	-9.01775
30	-9.01885
▁humain	-9.01906
▁Ti	-9.01927
▁pied	-9.02073
▁Bon	-9.02123
qu’	-9.02129
tain	-9.02306
▁aucune	-9.02336
▁peur	-9.02377
▁9	-9.02392
▁Sur	-9.02398
▁trait	-9.02515
▁chef	-9.02585
▁d’in	-9.02597
▁différent	-9.02859
▁demande	-9.02887
▁souvent	-9.02897
▁cause	-9.03011
êche	-9.03303
issance	-9.03323
▁salle	-9.03422
mission	-9.03489
▁arrivé	-9.03526
▁char	-9.03633
▁connais	-9.03713
▁dix	-9.03794
▁appel	-9.03848
▁effet	-9.03916
▁certaine	-9.04075
ouvrir	-9.04172
gre	-9.04306
lég	-9.04347
▁bruit	-9.04439
▁série	-9.04508
▁Ber	-9.04538
▁cheveux	-9.04642
▁change	-9.04645
irent	-9.0489
▁idée	-9.05
nique	-9.05055
▁bal	-9.05098
▁Ru	-9.05108
▁connu	-9.05224
▁seconde	-9.05242
▁Or	-9.05268
▁cheval	-9.05334
ndre	-9.05355
▁Grand	-9.0565
▁n'	-9.05719
être	-9.05741
imagin	-9.05782
mini	-9.05805
▁voulait	-9.06062
-C	-9.0615
cier	-9.06302
▁gros	-9.06323
eff	-9.06379
ssait	-9.06381
50	-9.06573
▁quelqu’un	-9.06606
▁train	-9.06616
bra	-9.06672
nal	-9.06685
▁l’ex	-9.06743
issement	-9.0695
▁bouche	-9.0702
dy	-9.07116
▁air	-9.07622
ître	-9.07665
▁pourrait	-9.07686
▁l'A	-9.07764
5	-9.07812
▁Cela	-9.07872
▁vert	-9.07882
bou	-9.0793
organ	-9.08002
▁viol	-9.08039
▁garçon	-9.08067
▁tr	-9.08072
▁enfants	-9.08127
ologie	-9.08148
▁arrive	-9.08203
▁Pri	-9.08264
▁t’a	-9.0836
cept	-9.08428
▁Man	-9.08444
▁signe	-9.0848
▁15	-9.08502
dou	-9.08505
0	-9.08834
▁Eh	-9.08927
cre	-9.09004
▁16	-9.09033
▁d’autres	-9.0911
▁Mor	-9.09161
▁soi	-9.09323
gard	-9.09344
▁rire	-9.09385
naire	-9.09854
ffi	-9.09896
25	-9.10038
▁inf	-9.10323
trait	-9.10331
22	-9.10377
is-je	-9.10386
90	-9.10431
▁commença	-9.10441
▁Non	-9.10453
▁qu’à	-9.10491
▁lorsque	-9.10998
▁lui-même	-9.11128
▁qu’a	-9.11301
agne	-9.11559
▁belle	-9.11729
iser	-9.11791
formation	-9.11905
nom	-9.11974
▁répond	-9.11987
cole	-9.12094
▁affaire	-9.12151
▁laquelle	-9.12392
▁sujet	-9.12417
▁perdu	-9.12456
von	-9.12554
œ	-9.12561
dra	-9.12573
-moi	-9.12867
▁froid	-9.13041
mul	-9.13307
▁rapport	-9.13386
q	-9.13552
▁post	-9.1364
▁Qua	-9.13791
han	-9.13826
▁reprit	-9.13829
▁the	-9.13851
▁soleil	-9.13865
cup	-9.13896
▁genre	-9.1391
onné	-9.13926
bert	-9.13954
▁étrange	-9.13999
illant	-9.14064
▁fla	-9.14092
▁blanc	-9.14165
%	-9.14352
▁mouvement	-9.14399
▁Mé	-9.14415
▁qu'	-9.14464
▁confi	-9.14516
▁ancien	-9.14532
(	-9.14685
range	-9.14688
ît	-9.14711
▁hé	-9.14757
▁vingt	-9.14811
à	-9.14815
▁?).	-9.14903
▁fé	-9.1511
▁manière	-9.15112
▁suivi	-9.15162
21	-9.15178
▁pauvre	-9.15336
ja	-9.15426
▁ouvert	-9.15454
▁service	-9.15506
▁mille	-9.15695
▁politique	-9.15715
pha	-9.15752
▁Hu	-9.15877
erie	-9.16188
tée	-9.16224
▁désir	-9.16379
▁Gi	-9.16554
èle	-9.16786
▁pierre	-9.16841
▁Qu’est-ce	-9.1687
▁voulu	-9.16891
▁simple	-9.16988
▁tel	-9.16996
▁pieds	-9.17074
▁voyage	-9.1718
▁ciel	-9.17225
▁passe	-9.17549
▁fil	-9.17681
▁large	-9.17695
Q	-9.17747
▁enfant	-9.17842
▁meilleur	-9.18355
ération	-9.18376
▁plutôt	-9.18503
trice	-9.1855
▁début	-9.19066
▁dit-elle	-9.19154
▁sembla	-9.193
▁commun	-9.19312
▁Cor	-9.19689
▁12	-9.19986
▁prince	-9.20142
lect	-9.203
▁champ	-9.20365
24	-9.20598
▁projet	-9.20691
util	-9.20707
▁pensée	-9.20752
▁trouvé	-9.20823
illon	-9.20949
ano	-9.20972
gon	-9.21064
▁bureau	-9.21469
▁bu	-9.21528
▁région	-9.216
▁réussi	-9.21636
ège	-9.21678
▁bleu	-9.21692
▁fenêtre	-9.21692
▁venir	-9.2173
hum	-9.21864
▁combat	-9.21947
rog	-9.21982
K	-9.21989
igné	-9.2216
▁type	-9.22364
essay	-9.22394
▁minutes	-9.22406
▁retrouve	-9.22407
▁visite	-9.22413
▁front	-9.22563
▁n'a	-9.22695
jo	-9.22732
-B	-9.2287
▁mauvais	-9.22928
▁ligne	-9.22942
▁emb	-9.23113
▁afin	-9.23185
indre	-9.23244
▁trouvait	-9.23347
emme	-9.23504
▁l’homme	-9.23745
▁trouva	-9.23818
▁fonction	-9.23947
23	-9.24272
▁vieille	-9.2436
▁nombre	-9.24364
17	-9.24395
▁direction	-9.24586
gage	-9.2469
▁II	-9.24837
▁danger	-9.24929
▁chance	-9.24954
▁clair	-9.24973
vid	-9.24982
X	-9.24988
▁Ver	-9.2499
▁profond	-9.25012
▁soudain	-9.25207
ssure	-9.25294
▁14	-9.2535
▁coin	-9.25622
bel	-9.25667
▁gou	-9.25686
install	-9.25775
▁lèvres	-9.25796
mant	-9.25866
▁Fo	-9.25875
▁For	-9.2603
▁gauche	-9.26083
▁rendre	-9.26147
▁prend	-9.26317
▁chant	-9.26417
idé	-9.26596
▁donne	-9.2661
▁Val	-9.26828
26	-9.26835
▁au-dessus	-9.26927
▁surpris	-9.26955
press	-9.27194
▁important	-9.27267
▁11	-9.27356
▁n’aura	-9.27575
cré	-9.27712
▁L’a	-9.27768
ssant	-9.2777
▁13	-9.27778
prendre	-9.27869
▁dès	-9.28027
chapp	-9.28041
▁Wi	-9.28055
10	-9.28114
alis	-9.28114
27	-9.28126
gg	-9.28182
▁gén	-9.28387
▁sp	-9.28421
▁histoire	-9.28459
▁Sta	-9.28599
▁juge	-9.28721
▁entra	-9.28937
lève	-9.29017
▁vide	-9.29033
graph	-9.2907
▁alla	-9.29108
▁tenait	-9.29135
▁nature	-9.29312
▁surtout	-9.29325
80	-9.29362
▁esprit	-9.29463
ange	-9.2958
nelle	-9.29931
▁chercher	-9.30034
▁problème	-9.30166
tenant	-9.30488
▁disait	-9.30498
▁précis	-9.30519
▁autant	-9.30651
bord	-9.30725
▁d’avoir	-9.30739
▁fallait	-9.30745
▁national	-9.30773
dro	-9.30855
▁d’elle	-9.30892
▁C'est	-9.3092
▁épaules	-9.30943
▁vois	-9.31067
ème	-9.31398
▁semble	-9.31537
▁geste	-9.31553
ffect	-9.31627
▁dirige	-9.31643
▁j’en	-9.31738
matique	-9.31791
▁détail	-9.32068
▁courant	-9.32074
berg	-9.32294
▁situé	-9.32342
▁sortir	-9.32424
▁telle	-9.32627
▁jusqu’au	-9.32631
zo	-9.32642
▁commence	-9.32714
équipe	-9.3274
▁verre	-9.32947
▁Ex	-9.32949
▁télé	-9.32963
▁rester	-9.32968
ë	-9.33082
duction	-9.33093
96	-9.33173
êt	-9.33367
▁conseil	-9.33388
▁j’étais	-9.33599
▁soldat	-9.33735
▁Peut-être	-9.3378
▁suivant	-9.33852
écu	-9.33921
▁Gar	-9.33975
▁Bou	-9.34018
▁contra	-9.34255
ville	-9.34319
z-moi	-9.34412
▁demander	-9.34697
▁passage	-9.34844
▁Avec	-9.34846
▁l’eau	-9.34855
▁Per	-9.34965
▁moindre	-9.34995
▁pourtant	-9.3503
▁rêve	-9.35106
-vous	-9.35161
▁mesure	-9.35437
▁murmura	-9.35709
▁éclat	-9.35806
▁ferme	-9.3605
mettre	-9.36059
40	-9.36182
▁2007	-9.36232
▁but	-9.36328
▁veut	-9.36331
vou	-9.3639
quait	-9.36445
▁calme	-9.3657
▁comte	-9.3667
▁ensuite	-9.36759
▁suffi	-9.36778
forme	-9.36961
▁six	-9.3702
truction	-9.37492
gh	-9.37495
dan	-9.37501
jet	-9.37602
érer	-9.37672
▁plat	-9.37964
▁ajouta	-9.38289
-19	-9.38381
▁laissa	-9.38452
espér	-9.38463
▁Hi	-9.38642
▁semaine	-9.38666
étude	-9.38946
▁voilà	-9.38951
▁croire	-9.38956
11	-9.39023
▁Plus	-9.39347
▁voulez	-9.39379
▁Che	-9.39382
nier	-9.39408
bb	-9.39494
70	-9.39547
▁court	-9.39557
▁John	-9.39612
aperçu	-9.39694
▁disparu	-9.39741
14	-9.39828
-P	-9.39933
98	-9.39944
▁langue	-9.39956
mus	-9.4022
▁sombre	-9.40326
▁c'est	-9.40327
▁furent	-9.40364
nonce	-9.40523
16	-9.40561
vez-vous	-9.40633
rio	-9.40782
▁arriva	-9.4096
▁tomber	-9.41006
▁mètres	-9.41246
▁droite	-9.41298
▁laissé	-9.4133
28	-9.41563
gné	-9.41679
95	-9.41834
97	-9.42168
▁capitaine	-9.42174
▁peau	-9.42309
▁rencontre	-9.42371
▁choisi	-9.42491
▁grâce	-9.42792
▁village	-9.42801
▁d'in	-9.42864
▁eût	-9.42886
établi	-9.43196
rouill	-9.43212
15	-9.43239
12	-9.43245
▁Paul	-9.43405
▁l’A	-9.43455
▁retourna	-9.43558
60	-9.43566
qu'	-9.4364
▁Qu’	-9.4364
▁poussa	-9.43731
în	-9.43807
*	-9.43917
▁public	-9.43952
▁chacun	-9.44034
▁présence	-9.4407
▁libre	-9.44135
dam	-9.44466
▁souvenir	-9.44534
▁recherche	-9.44569
▁plaisir	-9.44572
▁content	-9.44603
▁Ki	-9.44641
▁d’autre	-9.44675
ification	-9.44738
ieuse	-9.44797
▁chau	-9.45083
fort	-9.45153
▁taille	-9.45203
▁vérité	-9.45231
prim	-9.45267
▁couleur	-9.45323
▁Pays	-9.45406
;	-9.45424
▁aussitôt	-9.45435
gré	-9.45447
▁compris	-9.45645
▁nord	-9.45746
▁selon	-9.46276
▁Bra	-9.46282
▁connaît	-9.46306
▁Louis	-9.46358
ju	-9.46408
75	-9.46429
▁malheur	-9.46554
▁lequel	-9.46605
▁soupir	-9.46616
▁exemple	-9.46652
▁principal	-9.46696
▁comprend	-9.46741
bourg	-9.46861
▁chasse	-9.47142
▁2006	-9.47163
▁faible	-9.47272
29	-9.47489
▁clo	-9.47584
ception	-9.4762
▁blanche	-9.47799
Z	-9.47838
▁comprendre	-9.47905
▁écrit	-9.47948
▁Gen	-9.47985
▁Tra	-9.48268
▁trembl	-9.48349
américain	-9.48374
▁situation	-9.48403
▁respect	-9.48428
▁Pierre	-9.48716
viendra	-9.48755
▁madame	-9.48909
▁rang	-9.49073
▁envie	-9.49135
▁réponse	-9.49288
▁Gra	-9.49417
▁réfléchi	-9.49472
cart	-9.49581
▁Col	-9.49765
▁endroit	-9.49817
ième	-9.49853
▁facile	-9.50027
▁souffr	-9.50073
▁s’écria	-9.50241
▁Est-ce	-9.50554
▁flot	-9.50696
volution	-9.50881
▁simplement	-9.50927
▁risque	-9.51007
▁repos	-9.51031
▁parfois	-9.51034
▁Ed	-9.51043
▁n'est	-9.5136
▁film	-9.51388
▁page	-9.51462
(en)	-9.51542
▁environ	-9.51621
▁chien	-9.51649
▁total	-9.5165
▁journée	-9.51691
▁cependant	-9.51733
▁font	-9.51967
▁double	-9.52486
▁musique	-9.52525
▁Bri	-9.52529
▁Moi	-9.52594
▁sœur	-9.52726
▁tomba	-9.52893
06	-9.5291
▁police	-9.52952
▁système	-9.52954
88	-9.53024
89	-9.53116
▁posa	-9.53329
▁médi	-9.53405
▁demandé	-9.53407
82	-9.53605
space	-9.53613
▁Don	-9.53669
▁légère	-9.5374
93	-9.53862
archi	-9.53987
▁sud	-9.54092
▁dis-je	-9.54172
92	-9.54225
01	-9.54234
13	-9.54326
45	-9.54378
ifié	-9.54468
pul	-9.54482
▁Bla	-9.54547
▁titre	-9.54672
91	-9.54695
▁000	-9.54695
33	-9.54752
▁nécessaire	-9.54897
▁éclair	-9.54899
▁bientôt	-9.54978
▁lentement	-9.54999
▁demi-	-9.55057
ham	-9.55154
observ	-9.55183
approche	-9.55206
▁charge	-9.55211
▁camp	-9.5523
▁fût	-9.55245
attaque	-9.55254
▁produit	-9.5526
▁puisse	-9.5528
▁déclara	-9.55315
▁dame	-9.55349
94	-9.55453
▁plupart	-9.55609
▁Quelque	-9.55915
▁découvert	-9.55952
’attend	-9.56054
▁Luc	-9.56087
▁meurt	-9.56127
▁sentiment	-9.56132
▁amour	-9.56274
▁difficile	-9.56276
vienne	-9.56329
▁Nord	-9.56652
▁tenta	-9.56671
▁Deux	-9.56707
7	-9.56868
▁l'un	-9.56991
31	-9.5702
étudi	-9.57038
ogne	-9.57042
▁vague	-9.57083
quête	-9.57143
▁reçu	-9.572
gri	-9.57215
▁ensemble	-9.57315
▁d’or	-9.57429
▁centre	-9.57516
▁George	-9.57594
86	-9.57674
▁d’œil	-9.57724
▁photo	-9.58143
▁loi	-9.58328
igu	-9.58435
▁Où	-9.5844
▁dois	-9.58459
▁capable	-9.58523
▁d’abord	-9.58555
▁faisant	-9.587
▁lourd	-9.58738
05	-9.58921
▁espèce	-9.58971
▁Mme	-9.59093
▁peuple	-9.59196
▁arrière	-9.59483
▁douleur	-9.59511
▁officiel	-9.59529
▁l’intérieur	-9.59681
▁réveil	-9.59791
▁franc	-9.59882
▁second	-9.5999
W	-9.60207
▁scène	-9.60292
▁figure	-9.60303
▁reconnu	-9.60305
▁Bru	-9.60364
▁Ph	-9.60443
▁papier	-9.60524
▁l’heure	-9.60541
▁secret	-9.6061
▁2005	-9.60716
▁couvert	-9.6075
▁malgré	-9.60927
mètre	-9.60947
▁Ben	-9.6097
▁voyait	-9.61173
vance	-9.61274
▁chercha	-9.61303
▁secoua	-9.61396
▁allé	-9.61408
07	-9.61427
44	-9.61485
▁état	-9.61567
▁rapidement	-9.61828
▁tira	-9.61913
???	-9.61962
▁colère	-9.61971
▁portait	-9.62033
▁terme	-9.62275
48	-9.62463
issaient	-9.6257
▁Tous	-9.62603
▁appelé	-9.62627
+	-9.62638
▁peuvent	-9.6265
▁Pendant	-9.6266
▁Votre	-9.62788
▁Port	-9.62805
▁hors	-9.62806
▁Ko	-9.62892
á	-9.62943
▁dépl	-9.62974
Italie	-9.62985
assassin	-9.63043
▁2004	-9.63112
assembl	-9.63264
04	-9.6331
▁2001	-9.63546
▁Can	-9.6369
▁nourri	-9.64376
▁Liens	-9.64377
▁médecin	-9.64438
▁vivre	-9.64786
▁attention	-9.64963
▁savez	-9.64971
[1]	-9.65157
çon	-9.65187
▁sentait	-9.65221
▁montagne	-9.6531
▁vivant	-9.65449
▁terrible	-9.65524
▁rôle	-9.65816
▁vive	-9.65902
▁véritable	-9.66032
▁compagnie	-9.6613
▁triste	-9.66195
icien	-9.66333
ève	-9.66594
▁membres	-9.66732
78	-9.66777
▁S’il	-9.66829
▁château	-9.66872
▁New	-9.66966
▁l’impression	-9.66992
traîne	-9.67198
▁faudra	-9.6723
▁Depuis	-9.67267
77	-9.67562
▁fleur	-9.6757
▁nombreux	-9.67579
▁bande	-9.67607
▁oreille	-9.67655
allum	-9.67831
81	-9.67923
▁bataille	-9.6804
▁riche	-9.68076
▁Rien	-9.68396
32	-9.68416
▁lune	-9.68605
▁tôt	-9.68619
???????	-9.68633
36	-9.68733
66	-9.68756
élection	-9.68873
▁seigneur	-9.68873
▁grave	-9.68888
▁prix	-9.68989
▁Jack	-9.69056
ède	-9.69118
phon	-9.69285
84	-9.69345
▁docteur	-9.69356
▁États-Unis	-9.69456
▁s’étaient	-9.69489
▁vend	-9.69664
▁paraît	-9.6981
▁troupe	-9.69899
▁rempli	-9.6996
▁Oui.	-9.7001
▁Monsieur	-9.7003
▁Pla	-9.70053
35	-9.70203
▁sourit	-9.70479
▁moitié	-9.70501
▁s’arrêta	-9.70651
▁2002	-9.70916
08	-9.7099
▁commis	-9.71009
▁spécial	-9.71052
▁siège	-9.71147
▁tente	-9.71397
▁Même	-9.71407
cad	-9.71467
▁tellement	-9.71727
03	-9.71802
▁répondre	-9.71882
▁chaud	-9.71939
85	-9.71946
▁Voilà	-9.71993
▁aujourd’hui	-9.72039
55	-9.72056
▁jardin	-9.72085
02	-9.72154
▁feuille	-9.72204
▁utilisé	-9.72559
76	-9.72618
▁essaya	-9.72632
▁compagnon	-9.72675
▁souffle	-9.72912
▁entière	-9.72944
▁mourir	-9.72975
83	-9.72982
écoute	-9.73053
47	-9.73339
▁abandon	-9.7364
▁poitrine	-9.73736
▁super	-9.73745
▁voisin	-9.73773
▁chargé	-9.73829
▁dessin	-9.73846
▁larmes	-9.73854
▁Ven	-9.7386
▁voudra	-9.73932
▁robe	-9.74053
▁posé	-9.74086
87	-9.7415
▁représenta	-9.74206
9	-9.74226
-de-	-9.74311
▁tort	-9.74439
▁Christ	-9.7445
▁ennemi	-9.74473
▁souhait	-9.74996
▁Philip	-9.75189
▁Charles	-9.75312
▁journal	-9.75346
ulaire	-9.75444
▁entendre	-9.75681
▁succ	-9.75909
▁population	-9.75953
-toi	-9.75999
▁militaire	-9.76049
56	-9.76188
▁Cependant	-9.76205
▁1999	-9.76306
▁forêt	-9.76344
▁Maintenant	-9.76458
▁Terre	-9.76639
▁J’avais	-9.76869
▁impossible	-9.76893
▁remarqua	-9.76932
▁d’entre	-9.76949
67	-9.77051
▁grosse	-9.7709
▁puissant	-9.77158
▁Richard	-9.77281
▁qu'elle	-9.77331
46	-9.77389
officier	-9.77488
99	-9.77635
mène	-9.77643
▁David	-9.77656
▁niveau	-9.77806
▁supérieur	-9.77866
▁foi	-9.77868
▁perdre	-9.77963
▁contraire	-9.77966
▁joie	-9.78094
ES	-9.78421
72	-9.78436
▁réuni	-9.78563
▁société	-9.78564
▁tombe	-9.78606
71	-9.78681
▁bête	-9.78863
▁troisième	-9.791
▁gorge	-9.79134
▁touche	-9.79151
▁gouvernement	-9.79442
▁2003	-9.79505
arrach	-9.79587
flu	-9.79943
▁deuxième	-9.79999
▁bâtiment	-9.8004
▁considéra	-9.80223
▁conversation	-9.80265
▁2000	-9.80368
œuvre	-9.80403
Y	-9.80618
▁tirer	-9.80714
▁tranquille	-9.80817
▁reconnais	-9.80837
▁externes	-9.80881
▁durant	-9.80914
▁décidé	-9.80916
64	-9.81213
▁habitants	-9.8122
▁N’	-9.81417
▁vaisseau	-9.81466
▁suivre	-9.81538
place	-9.81587
&	-9.81588
existence	-9.81869
▁dehors	-9.81919
▁XV	-9.81924
▁2008	-9.81944
▁confiance	-9.81999
▁message	-9.82043
▁n’avais	-9.8208
▁J’en	-9.82233
▁veille	-9.82348
▁répéta	-9.825
▁navire	-9.82547
jec	-9.82766
▁montra	-9.82892
▁repris	-9.82903
▁raconte	-9.83165
43	-9.8321
▁contact	-9.83238
▁debout	-9.83367
▁s’em	-9.83381
▁quitter	-9.83447
65	-9.83463
▁rapide	-9.83467
▁désert	-9.83539
▁côte	-9.83573
▁n’est-ce	-9.83615
▁l’esprit	-9.83677
38	-9.83684
79	-9.83698
▁resté	-9.83725
▁profit	-9.83781
plication	-9.83899
▁guère	-9.839
▁remarque	-9.83925
▁acte	-9.84046
▁observa	-9.84103
▁lendemain	-9.84183
73	-9.84204
▁regret	-9.84207
▁créature	-9.84288
adresse	-9.84435
▁janvier	-9.8464
▁anglais	-9.84667
▁paraissait	-9.84816
▁actuel	-9.84922
▁Robert	-9.84958
▁songea	-9.85019
▁quartier	-9.85029
▁celui-ci	-9.8506
opéra	-9.85062
▁franchi	-9.85092
53	-9.85172
▁Quoi	-9.85322
39	-9.85388
Europe	-9.85402
▁Saint	-9.85476
▁conduit	-9.85498
58	-9.85556
▁davantage	-9.85625
▁président	-9.85633
74	-9.85659
▁personnage	-9.85691
▁manger	-9.85837
▁pencha	-9.85905
49	-9.8593
joint	-9.85936
▁multi	-9.86096
▁avril	-9.86235
▁divers	-9.86239
▁Ainsi	-9.86519
▁septembre	-9.86781
▁sept	-9.86806
52	-9.86826
▁appris	-9.86842
▁défini	-9.86853
▁source	-9.86893
èvre	-9.8703
37	-9.87063
▁j'	-9.87079
▁ouvrit	-9.87425
▁conscience	-9.87519
▁téléphone	-9.87667
▁million	-9.87714
▁goût	-9.88007
42	-9.88077
34	-9.88081
▁dessus	-9.88091
▁commande	-9.88151
61	-9.88215
▁Michel	-9.88555
▁distance	-9.88825
▁cuisine	-9.88929
▁juillet	-9.8911
51	-9.89375
▁voulais	-9.89576
▁objet	-9.89579
▁roman	-9.89839
▁pâle	-9.89987
dieu	-9.90199
▁couloir	-9.90207
▁s’agit	-9.90285
▁année	-9.90308
▁conclu	-9.90351
▁contrôle	-9.90579
▁parfaitement	-9.9083
▁genoux	-9.90843
▁transport	-9.90848
▁Franc	-9.9105
▁rappela	-9.9113
▁social	-9.9113
▁ministre	-9.91178
▁morceau	-9.91278
▁complètement	-9.91471
▁surface	-9.91487
54	-9.91611
▁cabine	-9.91615
}}}	-9.91639
▁Histoire	-9.91641
▁heureux	-9.91642
▁glissa	-9.91707
57	-9.91816
▁Enfin,	-9.92089
▁là-bas	-9.92118
▁caractère	-9.92216
▁tombé	-9.92331
accueil	-9.92453
▁m’avait	-9.92536
41	-9.92542
▁lorsqu’il	-9.92768
▁probablement	-9.92768
âmes	-9.92806
▁particulier	-9.92952
▁chevaux	-9.92995
approcha	-9.93017
ologique	-9.93177
nfant	-9.9356
ü	-9.93708
▁François	-9.93823
▁rayon	-9.94038
▁chaleur	-9.94088
▁preuve	-9.94125
▁exactement	-9.94225
▁allons	-9.94245
69	-9.9463
▁n’avaient	-9.94633
▁support	-9.94745
▁qu'un	-9.94798
▁répliqua	-9.95121
▁décembre	-9.9524
▁âme	-9.95349
▁{{{	-9.95368
▁serra	-9.95555
▁Personne	-9.9556
▁département	-9.95748
▁Harry	-9.95765
▁sécurité	-9.9604
▁devient	-9.96049
▁fauteuil	-9.96084
▁fourni	-9.96094
▁notamment	-9.96275
59	-9.96595
▁novembre	-9.96599
▁défend	-9.96603
▁blessé	-9.96649
script	-9.96663
▁bateau	-9.96761
▁parents	-9.96861
▁octobre	-9.96864
▁envoyé	-9.96924
▁trente	-9.96975
▁désormais	-9.97116
▁parlait	-9.97202
▁local	-9.97339
▁mémoire	-9.97517
▁naturelle	-9.97522
▁malade	-9.97717
▁Chapitre	-9.9777
▁oublié	-9.97991
(s)	-9.98176
▁connaissait	-9.98211
▁voyant	-9.98347
▁soupçon	-9.98428
▁hasard	-9.98444
▁frappa	-9.98458
▁arbres	-9.98637
▁Très	-9.99006
▁effort	-9.99018
▁Jacques	-9.99136
63	-9.99325
▁développe	-9.99424
▁Là	-9.99518
▁glace	-9.9952
▁d’ailleurs	-9.99606
▁civil	-9.99632
▁(Il	-9.99675
▁pouvaient	-9.9974
▁domaine	-9.99808
▁choix	-9.99896
▁valeur	-9.99921
▁rose	-10.002
▁suppose	-10.0022
▁J’étais	-10.0035
▁saint	-10.0037
▁vêtements	-10.0061
▁numéro	-10.0067
▁inconnu	-10.0071
ight	-10.0074
▁victime	-10.0075
▁Lorsque	-10.0075
▁n’étaient	-10.0078
▁allez	-10.0093
▁combien	-10.0097
appareil	-10.0115
▁bonheur	-10.0126
▁document	-10.0145
▁août	-10.0191
▁s’approcha	-10.0203
▁rivière	-10.0233
▁partout	-10.0257
▁machine	-10.0259
▁boîte	-10.0279
▁sommeil	-10.0299
▁impression	-10.0304
▁expliqua	-10.0309
▁cadavre	-10.0316
▁l’idée	-10.0318
▁zone	-10.0325
expérience	-10.0331
▁café	-10.0336
▁février	-10.0337
09	-10.0345
▁physique	-10.037
▁est-ce	-10.0384
ancien	-10.0389
▁neige	-10.0397
▁j’aurai	-10.0403
▁technique	-10.0408
▁province	-10.0425
▁résultat	-10.0441
▁haussa	-10.0474
▁football	-10.0478
=	-10.0483
▁Aucun	-10.0493
▁règle	-10.0512
▁apparu	-10.0567
Angleterre	-10.0591
▁obligé	-10.0592
ajout	-10.0598
▁commencé	-10.0605
▁arrêté	-10.0606
!	-10.0616
▁période	-10.0631
▁épée	-10.0631
▁connaissance	-10.0666
▁demeure	-10.0675
▁jusqu'à	-10.068
▁terrain	-10.0686
▁pluie	-10.0726
▁intérêt	-10.0736
▁hésita	-10.0736
▁releva	-10.0784
▁Seigneur	-10.0831
Allemagne	-10.0836
▁rejoindre	-10.0863
▁normal	-10.0871
▁d'autres	-10.0901
▁nombreuses	-10.0901
▁n’importe	-10.0913
í	-10.0914
▁énorme	-10.0918
▁plonge	-10.0921
▁flamme	-10.0957
▁succès	-10.0959
▁texte	-10.0962
ordinaire	-10.0964
▁club	-10.0965
▁revint	-10.0967
▁défense	-10.0975
▁signal	-10.1005
▁trompe	-10.1027
enseigne	-10.1032
▁occupé	-10.1044
▁événement	-10.1054
▁volonté	-10.1097
▁loup	-10.1104
▁professeur	-10.111
▁placé	-10.1126
▁campagne	-10.1129
Univers	-10.1132
▁culture	-10.1135
ouverture	-10.114
▁âge	-10.1158
-à-	-10.1171
▁branche	-10.1193
bilis	-10.1194
▁kilomètres	-10.1202
▁commandant	-10.1204
▁immédiatement	-10.1206
Espagne	-10.1206
▁destiné	-10.1217
▁élevé	-10.1231
▁gentil	-10.1249
▁élément	-10.1252
▁hurla	-10.1255
▁précédent	-10.1256
▁km2	-10.1258
▁qualité	-10.1261
▁n’ont	-10.1294
prouve	-10.1296
▁prisonnier	-10.1298
▁relation	-10.1307
▁Madame	-10.1329
▁Henri	-10.1347
stitution	-10.1354
▁l’instant	-10.1356
▁s’agissait	-10.1379
▁époque	-10.1406
▁gagner	-10.1418
cycl	-10.1424
aventure	-10.1442
▁jaune	-10.1443
▁par-dessus	-10.146
▁frisson	-10.1466
▁d’aller	-10.148
▁l’argent	-10.1484
▁terminé	-10.1528
▁science	-10.1567
▁dîner	-10.1572
▁victoire	-10.1574
▁couteau	-10.1585
▁décision	-10.1587
▁récit	-10.1589
▁léger	-10.1591
▁menace	-10.1609
▁fallu	-10.1609
▁l’endroit	-10.1637
▁client	-10.165
▁résolu	-10.1656
▁voyez	-10.1671
▁avions	-10.1685
▁Référence	-10.1691
▁poursuivit	-10.1691
▁cinquante	-10.1692
▁royaume	-10.1694
▁devrait	-10.1714
▁tâche	-10.1719
▁allemand	-10.172
▁d’ép	-10.1725
▁annonça	-10.1748
hérit	-10.1749
▁incapable	-10.1796
▁colline	-10.1799
▁silhouette	-10.1816
▁demeura	-10.1823
▁international	-10.1825
▁liberté	-10.1832
▁York	-10.1845
▁poids	-10.1848
▁correspond	-10.1867
▁univers	-10.1871
▁parfait	-10.1874
▁rentrer	-10.188
angle	-10.1881
object	-10.1893
▁sauvage	-10.1895
tivité	-10.19
ö	-10.1904
aîné	-10.1906
[2]	-10.1945
▁conduis	-10.1967
▁retrouvé	-10.1997
▁prochain	-10.2
▁l’escalier	-10.2008
▁changé	-10.2018
▁garda	-10.2023
▁l’œil	-10.2032
▁atteint	-10.2032
▁œil	-10.2034
▁joua	-10.2042
▁l’imp	-10.2053
▁qu’est-ce	-10.2055
abilité	-10.2059
▁cercle	-10.2063
▁Conseil	-10.2066
▁utilise	-10.2078
▁homonymes	-10.2113
écrire	-10.2117
▁signifie	-10.213
▁République	-10.2139
▁centaine	-10.2176
▁hôte	-10.219
▁royal	-10.2206
▁rencontré	-10.2211
▁d’argent	-10.2214
particulièrement	-10.2223
▁sauver	-10.2226
▁classique	-10.2228
▁ailleurs	-10.2252
’oubli	-10.2257
▁territoire	-10.2276
▁crâne	-10.2299
▁chemise	-10.232
▁spectacle	-10.2326
▁Population	-10.2339
▁prenait	-10.2345
▁chaîne	-10.2349
▁possède	-10.2351
▁merveille	-10.2384
▁carrière	-10.2402
▁l’intention	-10.2403
▁régl	-10.2414
▁réalisa	-10.2438
▁immense	-10.2446
▁retrouva	-10.2464
▁major	-10.2464
▁construit	-10.2477
endormi	-10.2483
▁l’oreille	-10.2512
▁guerrier	-10.2518
▁drap	-10.2519
▁brûla	-10.2559
▁ombre	-10.2562
▁l’ombre	-10.2574
▁précipita	-10.2583
▁protéger	-10.2585
▁Région	-10.2605
▁Guerre	-10.2673
intégr	-10.2705
▁chanson	-10.2721
▁l’enfant	-10.2767
▁central	-10.2777
▁intérieur	-10.2783
▁quart	-10.2808
▁patron	-10.2811
▁souriant	-10.2826
▁Jamais	-10.2829
▁célèbre	-10.2837
▁italien	-10.2858
▁prépara	-10.2866
▁Londres	-10.2881
▁fixa	-10.2894
▁?????	-10.2898
ó	-10.2906
▁baissa	-10.2959
▁Pourtant,	-10.2996
▁exécut	-10.2999
▁fixé	-10.3
▁d’ici	-10.3009
▁bizarre	-10.3025
accus	-10.3039
▁épaule	-10.3054
▁bouteille	-10.3067
▁comporte	-10.3071
▁phrase	-10.3083
▁d’où	-10.3096
▁plaisant	-10.3096
▁cerveau	-10.3102
▁professionnel	-10.3104
▁composé	-10.3126
▁William	-10.3152
accompagne	-10.3154
▁music	-10.3157
▁lâche	-10.3162
▁blessure	-10.3163
▁inutile	-10.3178
▁rappelle	-10.3223
▁blond	-10.3232
▁mépris	-10.3233
▁ressemble	-10.3244
▁l’entrée	-10.3249
▁protesta	-10.3296
▁principe	-10.3299
▁drôle	-10.3303
▁vêtu	-10.3306
▁maladie	-10.3308
▁paroi	-10.3316
▁représente	-10.3316
▁chapeau	-10.3324
▁Français	-10.3352
▁André	-10.338
▁immobile	-10.3399
▁contempla	-10.3408
▁suffisamment	-10.3432
▁extrême	-10.3451
▁dollars	-10.3457
▁limite	-10.3464
▁fleuve	-10.3466
▁prévu	-10.3488
▁européen	-10.3503
▁ressemblait	-10.3537
▁directeur	-10.354
▁sèche	-10.3555
▁doivent	-10.3579
▁vallée	-10.3588
▁Malgré	-10.359
Alexandr	-10.3594
▁désigna	-10.3596
▁régime	-10.3598
▁répand	-10.3601
▁vouloir	-10.3612
▁radio	-10.3612
▁publique	-10.3631
▁circonstance	-10.3644
▁difficulté	-10.3644
▁Superficie	-10.3662
▁Canada	-10.3684
▁toucha	-10.3695
▁cinéma	-10.3702
▁historique	-10.3706
▁banque	-10.3722
▁gueule	-10.3746
▁échange	-10.3764
▁l’épaule	-10.3779
▁Frank	-10.3784
▁manteau	-10.3785
▁réserve	-10.3805
▁pouvons	-10.3824
▁progress	-10.3836
▁s’assit	-10.3847
▁plaît	-10.386
▁travaux	-10.3862
▁accompli	-10.3864
▁occasion	-10.3875
▁Ensuite	-10.3875
▁ordonna	-10.3882
▁auparavant	-10.3884
▁profondément	-10.3896
▁souffla	-10.3904
▁odeur	-10.3926
▁croyez	-10.3931
▁s’exclama	-10.3945
excuse	-10.3956
▁Michael	-10.3982
▁redressa	-10.4028
▁révéla	-10.4074
▁déjeuner	-10.4086
ä	-10.4731
~	-10.5181
»	-10.5527
ù	-10.5866
”	-10.6267
«	-10.6289
“	-10.731
Î	-10.7486
È	-10.9414
·	-10.9523
_	-10.9772
ñ	-10.9792
ã	-10.9972
{	-11.0194
Â	-11.0325
Ê	-11.1035
ú	-11.1755
}	-11.3833
Œ	-11.4493
$	-11.5855
ø	-11.6335
æ	-11.7751
Ô	-11.7832
Ç	-11.9822
ō	-11.9823
×	-11.999
†	-12.0172
ò	-12.0971
ì	-12.1598
—	-12.1773
Á	-12.2569
å	-12.294
@	-12.3185
`	-12.3484
‚	-12.3975
©	-12.4942
ß	-12.759
–	-12.7711
À	-12.889
Ö	-12.8983
ð	-12.994
‘	-13.0699
―	-13.0999
Æ	-13.1169
ý	-13.1169
|	-13.1372
‡	-13.1413
ū	-13.1484
∘	-13.3311
Å	-13.3353
±	-13.3881
<	-13.5033
¿	-13.6266
μ	-13.6324
\	-13.6439
§	-13.6796
®	-13.6979
ÿ	-13.7614
•	-13.8152
õ	-13.8362
­	-13.8433
⁄	-13.9019
Ü	-13.9248
Ä	-13.9404
£	-13.9886
Ó	-14.0052
^	-14.0393
Ø	-14.1204
Í	-14.2943
∞	-14.3055
Ï	-14.4254
Þ	-14.4382
š	-14.5188
Û	-14.5329
¡	-14.5617
Ë	-14.7195
č	-14.7721
∗	-14.8088
Ú	-14.8277
þ	-14.8277
‐	-14.9278
Ù	-14.9278
	-15.1378
ā	-15.2475
̈	-15.3073
Ñ	-15.3385
π	-15.4743
Ć	-15.5898
ć	-15.6315
̄	-15.6315
Ń	-15.6749
¬	-15.7204
α	-15.7204
÷	-15.768
Ś	-15.818
ο	-15.9262
¢	-15.9262
¤	-15.985
ν	-15.985
¦	-16.0475
ι	-16.1142
≠	-16.1142
ε	-16.1856
ž	-16.2625
λ	-16.3459
Ã	-16.3459
τ	-16.3459
Ò	-16.3459
Ā	-16.4368
€	-16.4368
σ	-16.4368
κ	-16.5368
υ	-16.5368
¥	-16.5368
Ω	-16.5368
ς	-16.5368
→	-16.5368
Ð	-16.6479
♦	-16.6479
ρ	-16.6479
γ	-16.7729
¶	-16.7729
ī	-16.7729
Ȃ	-16.7729
ὰ	-16.7729
ω	-16.9157
∫	-16.9157
„	-17.0824
Α	-17.0824
φ	-17.2824
Ε	-17.2824
θ	-17.2824
Ì	-17.2824
̧	-17.2824
ὶ	-17.2824
›	-17.2824
ί	-17.5324
ό	-17.5324
Ι	-17.5324
ź	-17.5324
Δ	-17.5324
Ο	-17.5324
‹	-17.5324
↵	-17.5324
∂	-17.5324
ş	-17.5324
χ	-17.5324
т	-17.5324
Е	-17.5324
Ž	-17.8657
Σ	-17.8657
ἀ	-17.8657
Č	-17.8657
Ł	-17.8657
ř	-17.8657
Š	-17.8657
Ν	-17.8657
≈	-17.8657
◊	-17.8657
★	-17.8657
Õ	-17.8657
Ý	-17.8657
є	-17.8657
Γ	-17.8658
β	-17.8658
ἐ	-17.8658
К	-17.8658
а	-17.8658
η	-18.3657
ě	-18.3657
ĭ	-18.3657
ı	-18.3657
ś	-18.3657
Λ	-18.3657
Τ	-18.3657
О	-18.3657
е	-18.3657
о	-18.3657
с	-18.3657
∪	-18.3657
☺	-18.3657
Ō	-18.3658
ξ	-18.3658
ῑ	-18.3658
В	-18.3658
р	-18.3658
Љ	-18.3658
И	-18.3658
С	-18.3658
и	-18.3658
✴	-19.3654
−	-19.3655
́	-19.3656
̆	-19.3657
Π	-19.3657
έ	-19.3657
ζ	-19.3657
ύ	-19.3657
ἠ	-19.3657
ἶ	-19.3657
ă	-19.3657
ē	-19.3657
Ĕ	-19.3657
ğ	-19.3657
Ĭ	-19.3657
ň	-19.3657
ţ	-19.3657
ˇ	-19.3657
̓	-19.3657
Κ	-19.3657
Χ	-19.3657
ψ	-19.3657
ώ	-19.3657
б	-19.3657
в	-19.3657
к	-19.3657
п	-19.3657
ь	-19.3657
я	-19.3657
ἕ	-19.3657
ἢ	-19.3657
Ἤ	-19.3657
ἱ	-19.3657
ħ	-19.3658
Г	-19.3658
̊	-19.3658
δ	-19.3658
н	-19.3658
х	-19.3658
ὐ	-19.3658
