<s>	0
</s>	0
<unk>	0
<pad>	0
,	-3.36218
s	-3.46786
.	-3.5122
▁de	-3.5348
▁la	-4.17221
▁et	-4.36716
▁le	-4.37084
▁à	-4.48838
e	-4.72038
▁les	-4.82453
▁en	-4.87144
▁que	-4.96071
▁—	-4.99034
▁	-4.99242
r	-4.99531
▁un	-5.01384
▁des	-5.22091
▁du	-5.25288
▁pas	-5.26797
▁se	-5.3168
▁?	-5.32702
▁une	-5.33994
▁dans	-5.34911
▁qui	-5.41284
▁ne	-5.44809
▁a	-5.47771
▁pour	-5.48549
▁il	-5.51633
▁Il	-5.60797
▁sur	-5.64619
▁son	-5.68149
▁:	-5.68502
▁je	-5.7173
▁par	-5.75154
▁ce	-5.77356
a	-5.79749
▁au	-5.79824
nt	-5.82027
▁est	-5.83216
▁sa	-5.87311
é	-5.88447
▁plus	-5.88814
t	-5.88894
it	-5.89361
▁|	-5.92078
s,	-5.93994
▁!	-5.94919
▁Je	-5.96103
▁vous	-5.96919
i	-6.04058
▁avait	-6.04845
▁lui	-6.05979
er	-6.08016
▁avec	-6.08114
▁Le	-6.10023
s.	-6.12517
▁me	-6.14471
y	-6.15578
▁était	-6.16383
)	-6.20373
...	-6.20796
ment	-6.24463
▁La	-6.25115
-	-6.255
▁elle	-6.28442
l	-6.30274
▁mais	-6.30871
▁«	-6.34855
es	-6.34889
▁ses	-6.35052
▁comme	-6.37132
▁nous	-6.38665
▁;	-6.3917
▁tout	-6.39737
n	-6.39844
ait	-6.40255
▁qu’il	-6.40574
c	-6.42478
o	-6.466
▁si	-6.46862
▁A	-6.54919
▁(	-6.55268
▁Elle	-6.56841
▁bien	-6.60388
▁»	-6.60656
▁–	-6.61012
▁ou	-6.65198
u	-6.68565
▁dé	-6.69674
▁dit	-6.70646
▁cette	-6.71401
d	-6.72592
ant	-6.75748
▁mon	-6.76057
▁l’	-6.76467
▁Et	-6.76784
ur	-6.76902
▁Les	-6.77065
▁d’un	-6.7937
▁fait	-6.79468
is	-6.81022
le	-6.83401
▁Mais	-6.83751
▁deux	-6.84129
▁ma	-6.84156
▁même	-6.84521
▁tu	-6.84974
z	-6.85806
▁y	-6.88002
▁-	-6.88197
ra	-6.88926
▁sans	-6.90233
p	-6.90608
▁leur	-6.91572
in	-6.92816
▁aux	-6.93342
re	-6.9339
▁d’	-6.94745
▁faire	-6.95447
▁l'	-6.95756
▁in	-6.95864
▁re	-6.99034
▁sont	-6.99567
m	-7.00423
e,	-7.01241
▁où	-7.04428
te	-7.05228
e.	-7.07272
▁on	-7.07977
▁été	-7.09618
▁d’une	-7.11319
▁aussi	-7.12524
▁S	-7.12807
▁é	-7.12829
na	-7.12913
▁Vous	-7.13592
▁l’a	-7.15228
▁En	-7.15287
g	-7.15504
aient	-7.16689
ient	-7.17003
x	-7.17852
té	-7.18068
ne	-7.18701
▁encore	-7.21968
la	-7.22212
▁C’est	-7.22322
sse	-7.22646
▁c’est	-7.22807
▁qu’elle	-7.24694
▁vers	-7.24704
▁·	-7.25147
f	-7.25446
▁Ce	-7.27686
▁peu	-7.28572
me	-7.2951
ta	-7.30541
▁Si	-7.32425
ation	-7.32711
k	-7.33496
an	-7.33621
lo	-7.33688
▁être	-7.33689
▁ces	-7.34374
▁tous	-7.34643
▁suis	-7.34996
▁Tu	-7.35661
▁De	-7.37729
▁Un	-7.37815
de	-7.38511
h	-7.39782
en	-7.40468
che	-7.40601
al	-7.41036
▁Ma	-7.41168
on	-7.42766
ge	-7.43649
▁te	-7.43717
ent	-7.43867
▁19	-7.44134
di	-7.44188
ée	-7.44758
▁puis	-7.4497
▁d'	-7.44985
▁très	-7.45391
v	-7.45459
▁temps	-7.45496
us	-7.46169
▁Sa	-7.46864
ie	-7.47547
▁quand	-7.47621
▁On	-7.47681
b	-7.47892
▁sous	-7.48084
▁con	-7.48985
▁jamais	-7.49077
▁entre	-7.49441
ch	-7.4969
▁ré	-7.49823
▁étaient	-7.51766
èrent	-7.51775
ter	-7.52517
il	-7.52946
▁rien	-7.53352
▁ça	-7.53663
li	-7.5379
▁ils	-7.53957
ir	-7.54209
▁fut	-7.54229
ro	-7.54605
que	-7.54714
ve	-7.5565
▁dont	-7.5565
▁avant	-7.55688
tion	-7.56028
ma	-7.56257
▁E	-7.5736
A	-7.57465
▁fois	-7.5807
el	-7.58502
▁yeux	-7.58555
I	-7.58561
▁toujours	-7.59435
▁chose	-7.61667
▁fit	-7.62989
▁voir	-7.63009
▁main	-7.63359
▁coup	-7.63516
tte	-7.63897
▁P	-7.64237
th	-7.65931
▁1	-7.66132
▁j’ai	-7.66419
▁homme	-7.66487
ce	-7.67253
▁C	-7.67387
au	-7.67897
ité	-7.67953
▁leurs	-7.68395
w	-7.68743
lé	-7.69115
▁contre	-7.69161
▁car	-7.69368
▁ont	-7.69628
va	-7.69706
▁À	-7.70386
ri	-7.70403
▁d’a	-7.70606
▁alors	-7.70897
▁pro	-7.71338
▁va	-7.71792
▁2	-7.72402
▁porte	-7.72416
▁dire	-7.72594
▁Une	-7.73048
ton	-7.73085
ar	-7.7332
▁Nous	-7.7335
eur	-7.73361
▁ra	-7.74256
▁moins	-7.74983
▁votre	-7.75048
▁voix	-7.75054
▁quelque	-7.75353
▁tête	-7.75362
▁toute	-7.75424
▁Au	-7.75488
▁monde	-7.75861
▁pu	-7.76056
▁après	-7.76208
C	-7.76279
da	-7.7644
▁non	-7.76453
▁ta	-7.77036
▁grand	-7.7706
▁Ils	-7.77202
ez	-7.7773
▁nom	-7.78079
ement	-7.78296
▁m’a	-7.7879
▁avoir	-7.78904
ine	-7.79222
▁T	-7.79418
▁point	-7.79904
▁avaient	-7.80281
▁moi	-7.80897
▁cela	-7.80915
ni	-7.81054
or	-7.8106
▁quelques	-7.82728
▁Re	-7.8294
▁regard	-7.83094
▁petit	-7.83518
?	-7.83755
▁trop	-7.8399
▁femme	-7.84335
▁jeune	-7.8473
▁18	-7.84742
▁autre	-7.85095
ais	-7.86038
▁donc	-7.86816
▁sais	-7.87807
▁J’ai	-7.88217
>	-7.88653
▁B	-7.88727
▁trois	-7.88781
▁qu’on	-7.88951
▁F	-7.89062
S	-7.89224
▁peut	-7.89856
ver	-7.90211
▁mes	-7.90251
▁depuis	-7.90375
▁G	-7.90488
▁devant	-7.90617
▁dis	-7.91202
nd	-7.9123
▁n’est	-7.91447
ga	-7.91586
▁ton	-7.91739
▁O	-7.91843
rait	-7.91947
▁l'a	-7.92018
son	-7.9216
▁n’a	-7.92196
mi	-7.92271
aux	-7.92394
▁mal	-7.92773
▁Par	-7.92994
age	-7.9364
to	-7.94032
ons	-7.94126
▁<	-7.94127
ard	-7.94332
▁I	-7.94361
ai	-7.95048
#	-7.95131
▁3	-7.96134
at	-7.96156
▁côté	-7.96397
lle	-7.96463
elle	-7.96683
mo	-7.96724
▁n’avait	-7.9704
pe	-7.97272
▁n’était	-7.97522
ion	-7.97844
▁autres	-7.97932
ci	-7.97933
▁g	-7.97973
▁moment	-7.98027
"	-7.98131
ck	-7.98318
▁déjà	-7.98486
/	-7.98565
▁bon	-7.98724
▁ni	-7.99081
tant	-7.99222
co	-7.99417
vi	-7.99815
▁mort	-7.99871
ré	-7.99972
),	-8.00028
▁eu	-8.00093
▁Li	-8.00374
né	-8.00557
és	-8.0178
▁Pour	-8.0225
'	-8.02372
▁L’	-8.02416
ille	-8.02423
▁Mar	-8.02892
▁D	-8.02966
▁s’	-8.03084
▁K	-8.03636
tre	-8.03751
▁tour	-8.04333
ff	-8.04431
no	-8.04746
▁c’était	-8.05039
▁ex	-8.0552
mp	-8.05705
▁ainsi	-8.05804
go	-8.06312
▁Ro	-8.06551
▁Mi	-8.069
).	-8.07033
▁peut-être	-8.07175
▁Ca	-8.07398
E	-8.07549
do	-8.07669
▁Ra	-8.07682
▁bras	-8.07974
▁visage	-8.08036
▁chez	-8.08172
▁vie	-8.08205
qui	-8.08242
:	-8.0899
ng	-8.09205
▁fille	-8.09245
ire	-8.09301
▁pouvait	-8.09392
▁notre	-8.09501
▁m	-8.09524
▁seul	-8.1049
▁co	-8.10562
▁toutes	-8.10668
▁soit	-8.10954
aire	-8.11011
▁hommes	-8.11064
▁vos	-8.11117
▁s’en	-8.11404
man	-8.11473
▁première	-8.1163
ia	-8.11807
▁maison	-8.11871
▁s’il	-8.12166
▁pré	-8.123
▁M	-8.12333
▁s’a	-8.12507
ca	-8.12569
▁quoi	-8.1314
▁demanda	-8.13433
▁s’était	-8.13671
mé	-8.13745
lu	-8.13821
ées	-8.13852
▁près	-8.14138
ti	-8.14425
▁aurait	-8.14569
ner	-8.15126
use	-8.15186
▁Dans	-8.1551
▁ville	-8.15686
▁jour	-8.15802
▁fin	-8.15926
▁Ba	-8.16041
▁place	-8.16287
▁cet	-8.16302
im	-8.16604
H	-8.16617
▁Ne	-8.16635
▁nouveau	-8.16757
▁m’	-8.16982
▁qu’ils	-8.17239
T	-8.17307
▁vu	-8.17312
▁France	-8.1736
▁4	-8.17401
▁partie	-8.17525
ron	-8.17628
P	-8.17699
um	-8.17763
▁fond	-8.17764
be	-8.18038
if	-8.18111
▁là	-8.18177
▁pendant	-8.1874
D	-8.18765
▁n’y	-8.18806
▁petite	-8.1905
▁faut	-8.19167
-il	-8.19329
▁crois	-8.19422
ence	-8.1953
ou	-8.19548
▁part	-8.19678
▁p	-8.20148
ance	-8.20763
rie	-8.20796
ique	-8.20808
ry	-8.21112
M	-8.21226
es,	-8.21415
ll	-8.21486
▁grande	-8.21625
▁su	-8.218
bi	-8.21833
op	-8.21844
▁père	-8.2251
▁pi	-8.22513
▁É	-8.22694
▁d'un	-8.22771
ba	-8.23134
able	-8.23135
▁Ta	-8.23839
▁C’était	-8.24105
▁personne	-8.24344
▁l’autre	-8.25141
▁serait	-8.2518
▁Son	-8.25352
▁premier	-8.25637
▁6	-8.25687
▁raison	-8.25724
▁Du	-8.26028
▁Des	-8.2608
▁Al	-8.26416
tin	-8.26699
▁"	-8.26934
eux	-8.26951
du	-8.27528
▁Tout	-8.27562
gi	-8.27672
▁Cette	-8.27814
ier	-8.28042
19	-8.28669
▁corps	-8.28884
▁Vi	-8.29175
▁Portail	-8.2921
▁long	-8.29308
ac	-8.29405
pa	-8.29711
▁assez	-8.29784
▁l’é	-8.29825
▁tant	-8.29858
▁Puis	-8.29918
▁di	-8.29933
▁doute	-8.29997
▁répondit	-8.30346
▁beaucoup	-8.30395
tu	-8.30767
’	-8.31189
▁Mo	-8.31373
cha	-8.3146
▁nuit	-8.31492
ère	-8.31822
▁terre	-8.31975
▁po	-8.32129
les	-8.32258
ing	-8.32335
ux	-8.3234
▁M.	-8.32794
▁Se	-8.32802
▁L'	-8.32846
▁présent	-8.33143
ler	-8.335
▁Pa	-8.335
▁Di	-8.33514
▁per	-8.33943
ive	-8.34086
▁Con	-8.34134
et	-8.34371
▁d'une	-8.34781
ure	-8.34865
▁Car	-8.34888
lin	-8.3491
▁mains	-8.34934
▁prendre	-8.35024
▁Mon	-8.35106
▁jusqu’à	-8.35145
es.	-8.35619
O	-8.3575
▁faisait	-8.35946
rent	-8.35984
▁bonne	-8.36169
rai	-8.36448
ale	-8.36553
▁roi	-8.36622
▁derrière	-8.3703
iste	-8.37248
ssa	-8.37252
ka	-8.37263
▁ca	-8.37301
▁qu'il	-8.37523
▁mère	-8.37589
▁gens	-8.3771
▁avez	-8.37936
▁mieux	-8.37958
▁sou	-8.38181
▁Bo	-8.38182
▁cou	-8.38651
ul	-8.38864
▁fort	-8.38968
dé	-8.39083
▁reste	-8.39184
▁»,	-8.39328
▁d'a	-8.39336
▁parler	-8.39342
▁5	-8.40024
gue	-8.40157
▁ba	-8.4023
▁Me	-8.40285
▁li	-8.4033
▁Quand	-8.40344
B	-8.40374
ut	-8.40693
▁besoin	-8.40927
▁V	-8.41101
▁bou	-8.41138
▁Pas	-8.4131
▁cœur	-8.41579
ot	-8.41727
ru	-8.41768
r.	-8.41827
â	-8.41842
ue	-8.41988
▁es	-8.42043
▁c	-8.42284
ad	-8.42522
▁In	-8.42597
nte	-8.42798
nu	-8.42844
ment,	-8.42973
tt	-8.42975
]	-8.43054
▁heures	-8.43172
▁s’é	-8.43736
ction	-8.43751
tique	-8.44305
▁qu’un	-8.44349
▁Cet	-8.44408
▁veux	-8.44462
▁Lo	-8.44697
cé	-8.4482
▁N	-8.45011
▁R	-8.45135
▁pouvez	-8.45257
▁presque	-8.45487
▁Que	-8.45515
gé	-8.45613
▁Ça	-8.45666
▁vi	-8.45831
▁f	-8.46069
▁moi,	-8.46084
▁l’air	-8.46211
▁nos	-8.46234
▁s’est	-8.46455
ture	-8.46481
▁jours	-8.4677
▁ai	-8.46924
vé	-8.47067
▁comment	-8.47123
mer	-8.47686
▁eut	-8.47718
os	-8.47757
con	-8.47788
U	-8.47972
▁autour	-8.47985
▁Na	-8.48032
▁vrai	-8.48194
ante	-8.48325
▁d	-8.48822
▁sera	-8.48887
▁loin	-8.49468
teur	-8.49617
▁b	-8.49628
pi	-8.49918
▁article	-8.49967
▁cas	-8.49992
▁pouvoir	-8.50103
▁pris	-8.50257
▁chambre	-8.50278
▁sang	-8.50317
un	-8.50434
▁Comme	-8.50434
▁fi	-8.50483
▁Co	-8.50491
▁monsieur	-8.50571
▁n’ai	-8.50642
▁n’en	-8.50666
▁seule	-8.50731
L	-8.50778
▁mis	-8.50783
▁Jo	-8.50808
ière	-8.50907
▁bas	-8.51052
▁l’in	-8.51502
▁Po	-8.51509
▁sourire	-8.51689
▁bout	-8.51987
▁fou	-8.52053
▁Da	-8.52065
N	-8.52108
vo	-8.52226
don	-8.52246
▁ha	-8.52363
▁droit	-8.52471
▁plusieurs	-8.52706
▁ceux	-8.52744
▁maintenant	-8.5289
▁forme	-8.53241
ol	-8.53309
▁l’en	-8.53351
▁Oui,	-8.53402
ris	-8.53596
per	-8.53904
ché	-8.53939
▁passer	-8.54013
▁passé	-8.54555
▁parce	-8.54669
▁savoir	-8.5468
ha	-8.54929
▁comp	-8.55092
▁peine	-8.55805
▁Dieu	-8.55812
▁trouver	-8.56184
▁chaque	-8.56267
-t-il	-8.56373
ble	-8.56556
▁compte	-8.56797
nce	-8.568
▁fils	-8.56851
▁pourquoi	-8.56875
lan	-8.56906
▁Ha	-8.57171
▁Ho	-8.57548
port	-8.57593
▁juste	-8.57642
sa	-8.57928
hi	-8.57957
▁seulement	-8.5809
▁celui	-8.58169
▁mot	-8.58565
-elle	-8.58637
▁feu	-8.58832
▁7	-8.58906
▁façon	-8.58929
er.	-8.59119
▁question	-8.59125
▁L	-8.59181
am	-8.59212
tes	-8.59393
eau	-8.5963
▁lieu	-8.59728
po	-8.59856
▁n’	-8.60152
id	-8.60503
▁toi	-8.60505
gu	-8.60522
euse	-8.60835
▁travers	-8.60989
▁famille	-8.6102
vant	-8.611
00	-8.61141
▁vit	-8.61275
tait	-8.61325
F	-8.61417
▁17	-8.61636
▁cour	-8.61798
▁quatre	-8.61805
ette	-8.61862
lant	-8.61902
io	-8.62078
est	-8.62183
▁sol	-8.62187
as	-8.62278
st	-8.62904
▁bord	-8.6297
▁êtes	-8.6302
▁l’avait	-8.63047
ven	-8.63173
▁ans	-8.63257
▁devait	-8.63536
▁celle	-8.6355
ise	-8.63658
▁Ar	-8.63977
▁vieux	-8.64211
▁Non,	-8.64338
▁table	-8.64365
ssé	-8.64403
▁années	-8.64487
▁Ja	-8.65056
ke	-8.65247
▁H	-8.65278
cu	-8.65428
▁dernière	-8.65519
▁na	-8.65677
▁vraiment	-8.65724
G	-8.65738
bo	-8.65759
▁trouve	-8.65938
▁rue	-8.65969
▁vais	-8.66162
ssi	-8.66275
▁ami	-8.66553
▁regarda	-8.66625
▁Après	-8.66763
▁imp	-8.66798
▁avons	-8.66808
tra	-8.66854
▁ici	-8.66859
▁concernant	-8.66933
ès	-8.66986
▁suite	-8.66993
▁longtemps	-8.67149
▁no	-8.67266
ign	-8.67278
▁haut	-8.67549
▁sens	-8.67652
▁Ri	-8.67686
▁(19	-8.67689
min	-8.68071
▁d’être	-8.6809
mb	-8.68228
▁partager	-8.68364
▁travail	-8.68485
▁ju	-8.68537
vers	-8.68655
▁frère	-8.69223
▁lit	-8.69281
▁pense	-8.69446
ât	-8.69523
▁com	-8.69599
ment.	-8.69689
der	-8.69791
▁dernier	-8.69879
cher	-8.69916
▁prit	-8.69956
lier	-8.69989
▁choses	-8.70225
▁Pro	-8.70241
▁br	-8.70261
2	-8.70311
▁siècle	-8.70331
ph	-8.70443
ront	-8.70497
▁8	-8.70551
▁lumière	-8.70824
▁groupe	-8.70952
ex	-8.71109
sh	-8.71215
▁Y	-8.71277
▁fa	-8.71332
▁savait	-8.71364
▁connaissances	-8.71487
▁U	-8.71644
▁J	-8.71667
▁allait	-8.71684
▁ri	-8.71688
▁or	-8.71956
nes	-8.71982
▁peux	-8.72128
▁dû	-8.72172
ly	-8.72374
▁né	-8.72396
▁aucun	-8.72547
▁route	-8.72577
▁qu’une	-8.72624
▁an	-8.72678
▁mettre	-8.72691
▁force	-8.72715
▁partir	-8.72872
▁Pourquoi	-8.72874
▁Ga	-8.7333
▁donner	-8.73438
▁doit	-8.73523
▁l’on	-8.73612
vent	-8.73674
▁semblait	-8.73814
▁également	-8.73971
▁bo	-8.74119
▁Pi	-8.74176
▁l’un	-8.74389
▁leva	-8.74479
ger	-8.74483
▁face	-8.74708
▁bois	-8.74734
ï	-8.74856
▁guerre	-8.74896
▁pays	-8.75291
▁pièce	-8.75291
▁Fa	-8.75422
▁10	-8.75443
▁Comment	-8.75599
▁nouvelle	-8.75628
rou	-8.75717
▁mit	-8.75808
▁Ch	-8.76013
sion	-8.76224
▁cours	-8.76404
▁The	-8.76641
pp	-8.7682
née	-8.76847
ho	-8.76969
▁Ka	-8.77026
▁rouge	-8.77039
▁!...	-8.77056
▁pa	-8.77139
ateur	-8.77396
▁Ju	-8.77472
oc	-8.77488
urs	-8.77703
▁venait	-8.77792
▁of	-8.77926
isme	-8.78008
▁possible	-8.78154
▁voiture	-8.78267
▁noir	-8.78387
1	-8.7842
ô	-8.7844
R	-8.78597
rons	-8.7869
▁0	-8.78737
▁Qui	-8.78806
▁vue	-8.78973
tro	-8.79037
▁Bu	-8.79077
▁entendu	-8.79088
▁Ah	-8.79179
ide	-8.79227
▁Ni	-8.79229
▁aller	-8.79343
▁ébauche	-8.79475
▁j’avais	-8.79484
▁Cha	-8.79531
sser	-8.79539
ions	-8.79648
▁Be	-8.797
▁donné	-8.79905
▁tandis	-8.79972
▁moi.	-8.80076
▁sorte	-8.80148
▁cra	-8.80171
ins	-8.80207
▁(Comment	-8.80414
▁9	-8.80489
▁inter	-8.80577
▁l'améliorant.	-8.80587
▁laisser	-8.80625
▁W	-8.80656
▁lui,	-8.80738
vin	-8.80797
▁m’en	-8.80819
bre	-8.81032
▁so	-8.81069
ten	-8.81202
▁peur	-8.8142
chi	-8.8169
▁chemin	-8.81733
▁Ou	-8.81788
▁plan	-8.8189
▁silence	-8.81919
▁sommes	-8.81961
▁enfin	-8.82066
▁bi	-8.82095
qué	-8.82097
ations	-8.82146
rée	-8.82166
V	-8.82281
▁trans	-8.82356
▁He	-8.8249
▁sûr	-8.82642
▁milieu	-8.82825
▁ren	-8.82857
illa	-8.8296
▁maître	-8.83018
▁tard	-8.83219
men	-8.83313
▁salle	-8.83357
▁Go	-8.83399
▁aucune	-8.83402
▁général	-8.83405
▁tête.	-8.8349
▁instant	-8.83533
▁air	-8.83726
▁Gu	-8.83869
▁demande	-8.83895
▁gra	-8.83945
▁chef	-8.84036
▁lui.	-8.84146
▁Jean	-8.84189
3	-8.84244
▁cause	-8.84248
▁as	-8.8427
j	-8.84313
▁souvent	-8.84344
▁pied	-8.84355
tif	-8.84377
ois	-8.84447
▁déc	-8.84513
▁No	-8.84576
▁l’ai	-8.84606
▁Ses	-8.84718
eurs	-8.84942
pé	-8.85132
▁An	-8.85217
▁cinq	-8.8522
car	-8.85331
lon	-8.85435
val	-8.85534
▁cri	-8.85554
ran	-8.85605
▁Do	-8.85704
▁Mont	-8.85768
▁mou	-8.85784
vis	-8.85867
▁Paris	-8.85923
▁bruit	-8.85924
ssait	-8.85996
▁cheveux	-8.86135
▁parti	-8.86205
voir	-8.86231
mon	-8.86376
▁idée	-8.8644
tions	-8.86538
▁Su	-8.86624
tor	-8.86983
▁d’en	-8.87018
▁train	-8.8722
land	-8.87439
▁voulait	-8.87555
▁mé	-8.87639
▁bouche	-8.87765
▁l'é	-8.87881
▁Bien	-8.8797
▁fer	-8.88098
▁quelqu’un	-8.88099
▁15	-8.88363
sta	-8.88388
▁ga	-8.88603
▁Cela	-8.88644
ya	-8.88856
▁enfants	-8.88932
▁cro	-8.88976
▁lu	-8.89023
▁vent	-8.89476
▁garçon	-8.89562
ts	-8.89769
tend	-8.89939
▁Eh	-8.89967
▁rire	-8.8997
▁16	-8.90005
▁propre	-8.90032
▁signe	-8.90047
▁Sur	-8.90055
▁d’autres	-8.90152
▁cru	-8.90186
tan	-8.90189
°	-8.90242
fi	-8.90429
▁d’A	-8.90434
er,	-8.90555
▁s'	-8.90605
nant	-8.90785
▁Cor	-8.90826
5	-8.90971
▁do	-8.91055
▁Te	-8.91234
ssant	-8.91336
20	-8.91471
▁pourrait	-8.91673
ade	-8.9172
▁cor	-8.91749
▁qu’à	-8.9197
ile	-8.92003
▁qu’	-8.92309
▁lorsque	-8.92334
▁lui-même	-8.92439
▁Hu	-8.92523
▁To	-8.92584
par	-8.92862
▁mar	-8.93102
▁belle	-8.93176
▁tourna	-8.93322
▁bu	-8.93353
mand	-8.93433
▁rep	-8.93636
onne	-8.9374
▁laquelle	-8.93874
▁sujet	-8.93884
-moi	-8.93891
▁perdu	-8.9417
▁bien,	-8.94312
ja	-8.94314
▁vol	-8.94344
▁assis	-8.94432
▁rapport	-8.9488
▁ad	-8.94885
▁passe	-8.9494
▁dix	-8.9499
▁to	-8.95146
▁reprit	-8.95312
▁Dé	-8.95334
▁soleil	-8.95356
▁genre	-8.95401
▁vite	-8.95545
▁blanc	-8.9568
▁Alors	-8.95814
▁femmes	-8.95862
▁mouvement	-8.95891
▁soir	-8.95966
▁fil	-8.9597
pos	-8.9608
▁sé	-8.96141
▁garde	-8.96268
▁v	-8.96393
▁manière	-8.96543
è	-8.96546
▁?).	-8.96554
▁tel	-8.96625
▁mille	-8.96631
▁lors	-8.96667
▁pauvre	-8.96828
lement	-8.96855
▁service	-8.96856
▁mois	-8.9697
qua	-8.9701
▁Man	-8.97146
▁cap	-8.97176
ens	-8.97215
▁politique	-8.97225
▁ci	-8.97275
éri	-8.97278
▁là,	-8.97319
▁j’	-8.97331
0	-8.97604
▁12	-8.97628
▁Bon	-8.97633
▁the	-8.97672
▁pieds	-8.97676
▁Ré	-8.97779
▁moyen	-8.98016
mar	-8.98067
▁tra	-8.9809
▁désir	-8.98122
off	-8.98136
[	-8.98155
▁dos	-8.98174
▁pierre	-8.98334
▁Qu’est-ce	-8.98363
▁venu	-8.98483
▁Bar	-8.98546
▁simple	-8.98625
▁ciel	-8.98632
hu	-8.98692
ud	-8.98693
▁d'A	-8.98782
▁J’	-8.99011
om	-8.99047
▁français	-8.99083
▁large	-8.99095
dy	-8.99125
▁d’in	-8.9921
sti	-8.99555
▁t	-8.99631
qu	-8.99662
tri	-8.99865
▁plutôt	-8.99997
mm	-9.0007
ed	-9.00074
▁enfant	-9.00077
nait	-9.00185
▁Z	-9.00187
gent	-9.00262
s-tu	-9.00517
▁app	-9.0052
▁début	-9.00541
▁bar	-9.00618
ob	-9.00627
▁venir	-9.00862
gre	-9.01254
▁eux	-9.01376
ê	-9.01468
▁vo	-9.01494
▁rou	-9.01544
ill	-9.01601
isse	-9.01625
ic	-9.01852
mit	-9.01901
▁projet	-9.02112
ric	-9.02252
▁trouvé	-9.02261
ki	-9.02271
rez	-9.02332
▁quel	-9.02627
ko	-9.02889
▁bureau	-9.02935
▁région	-9.03089
▁bleu	-9.03103
▁fenêtre	-9.03185
▁ho	-9.03218
▁Pe	-9.03372
lli	-9.03418
▁20	-9.03744
▁visite	-9.03954
vie	-9.03996
▁type	-9.04182
▁chant	-9.0427
em	-9.04278
▁matin	-9.0435
com	-9.0435
▁ligne	-9.04439
ez-vous	-9.04451
▁trouvait	-9.04648
aires	-9.04652
▁afin	-9.04807
▁al	-9.04893
cre	-9.0494
ren	-9.04971
▁rem	-9.04982
▁l’homme	-9.05084
▁ru	-9.05188
ienne	-9.05198
▁resta	-9.05259
▁14	-9.05301
ze	-9.05345
4	-9.05356
od	-9.05562
oir	-9.05749
K	-9.05772
▁nombre	-9.05786
▁vieille	-9.05846
▁coin	-9.05848
▁direction	-9.05993
-t-elle	-9.06081
tation	-9.06089
▁minutes	-9.06115
▁chance	-9.06153
▁ti	-9.0619
ct	-9.0629
▁parle	-9.06299
tré	-9.06353
▁propos	-9.06367
▁Com	-9.06545
▁joue	-9.06591
tal	-9.06622
rais	-9.06673
▁So	-9.06674
▁soudain	-9.06696
▁rendre	-9.06832
▁Saint-	-9.06881
▁Lu	-9.06955
▁gauche	-9.07577
▁mari	-9.07602
▁13	-9.07765
lles	-9.07891
▁Per	-9.07902
▁lèvres	-9.0795
art	-9.07971
▁commune	-9.07978
▁plein	-9.08029
▁gros	-9.08037
he	-9.08072
▁mur	-9.08095
gon	-9.08118
▁11	-9.08124
▁mi	-9.0819
▁ch	-9.08352
▁Ru	-9.08383
▁au-dessus	-9.08421
▁donne	-9.08475
▁Fi	-9.08488
▁cons	-9.08536
▁l'in	-9.08569
▁juge	-9.08715
▁vide	-9.0874
t,	-9.08775
▁mots	-9.08808
▁sortir	-9.08833
fer	-9.08892
lée	-9.09093
za	-9.09413
▁dès	-9.09473
▁Or	-9.09591
nie	-9.0968
▁heure	-9.09838
van	-9.09839
nement	-9.09894
▁histoire	-9.1012
cri	-9.10164
nn	-9.10254
lève	-9.10322
ix	-9.10365
É	-9.10441
▁marche	-9.10585
▁fais	-9.10594
▁Mé	-9.10614
▁tenait	-9.10675
▁vois	-9.10695
▁Ke	-9.10705
mbre	-9.1077
▁surtout	-9.10815
iller	-9.10952
▁esprit	-9.10956
▁ve	-9.1102
wa	-9.11273
nc	-9.11382
ite	-9.11407
iez	-9.11417
▁longue	-9.11433
▁autant	-9.11502
cer	-9.11532
▁problème	-9.11659
up	-9.11721
▁d’elle	-9.11743
▁cha	-9.11771
ole	-9.11987
▁nu	-9.12067
ica	-9.12109
▁d’avoir	-9.12119
▁t’	-9.12123
▁fallait	-9.12237
enne	-9.12396
▁C'est	-9.12413
irent	-9.12459
▁Sans	-9.12517
10	-9.12532
▁rend	-9.12557
▁telle	-9.12787
rin	-9.1281
▁chercher	-9.12831
tér	-9.12844
▁cent	-9.12876
▁j’en	-9.12876
gra	-9.12895
▁courant	-9.12968
▁geste	-9.1303
▁voyage	-9.13151
▁semble	-9.13162
▁rester	-9.13353
rc	-9.13415
▁Gi	-9.1342
▁Ti	-9.13432
▁l'A	-9.13512
ns	-9.13533
▁mer	-9.1356
▁série	-9.13792
omb	-9.13866
taient	-9.13927
ste	-9.14105
res	-9.14226
▁disait	-9.14429
▁Oh	-9.14477
▁prêt	-9.14641
vait	-9.14717
dor	-9.1473
mis	-9.14747
mes	-9.14813
▁for	-9.14902
▁ar	-9.1491
▁ferme	-9.14954
-là	-9.15084
▁beau	-9.15087
▁j’étais	-9.15092
▁fini	-9.15127
let	-9.15214
▁verre	-9.15272
▁Peut-être	-9.15273
tta	-9.15327
gh	-9.15374
tern	-9.15454
▁livre	-9.1559
ôt	-9.15664
▁l’eau	-9.15677
▁demander	-9.15799
▁pourtant	-9.15803
ley	-9.16057
ster	-9.16256
▁Avec	-9.16333
▁connais	-9.16334
▁moindre	-9.1641
▁rêve	-9.16587
▁grands	-9.16675
▁jeta	-9.16875
ban	-9.16928
▁mesure	-9.16972
dre	-9.16972
su	-9.17073
igne	-9.17074
▁Col	-9.1708
ssent	-9.17418
ina	-9.17428
iers	-9.17445
cal	-9.17481
bri	-9.17544
▁im	-9.1763
▁veut	-9.17669
▁dés	-9.17884
.)	-9.17888
▁2007	-9.17907
▁but	-9.17983
▁dit-il	-9.18039
▁six	-9.18044
▁Va	-9.18142
▁San	-9.18215
nne	-9.18226
▁trou	-9.18233
▁ensuite	-9.1825
▁o	-9.18274
▁Val	-9.18283
▁calme	-9.18405
▁El	-9.18447
▁fois,	-9.18472
▁indi	-9.18563
spect	-9.18647
▁combat	-9.18708
▁passa	-9.1871
(	-9.18841
ppe	-9.18935
nelle	-9.18974
fe	-9.19037
fa	-9.19039
cent	-9.19057
-C	-9.19191
▁confi	-9.19316
yer	-9.1947
tour	-9.19499
▁Ver	-9.19524
▁retour	-9.19645
-19	-9.19686
▁arrivé	-9.1972
▁h	-9.19857
▁fr	-9.19964
venu	-9.20012
raient	-9.20076
▁croire	-9.20205
▁voilà	-9.20445
▁seconde	-9.20521
ée.	-9.20529
ée,	-9.20592
t.	-9.20677
▁emp	-9.20881
▁Grand	-9.20901
18	-9.2095
▁droite	-9.21193
▁langue	-9.21445
ime	-9.21454
▁certain	-9.2173
aud	-9.21734
▁furent	-9.21737
▁sombre	-9.21778
▁peau	-9.21785
▁Bi	-9.21845
▁tomber	-9.21999
▁col	-9.22012
▁l’ex	-9.22023
▁quelle	-9.22031
▁Alors,	-9.22147
ig	-9.22174
▁vis	-9.22176
11	-9.22292
hy	-9.22325
▁Th	-9.22492
▁Mor	-9.22542
▁petits	-9.22575
▁mètres	-9.2269
ag	-9.22691
▁laissé	-9.2282
ab	-9.23191
▁pe	-9.23271
ttes	-9.23295
▁poussa	-9.23349
rant	-9.23378
aï	-9.23394
▁gri	-9.23594
▁capitaine	-9.23668
▁sait	-9.23691
▁Bou	-9.23725
dic	-9.2385
16	-9.2387
▁choisi	-9.23921
illes	-9.23923
ales	-9.2413
naire	-9.24132
▁Ces	-9.24135
ouv	-9.24203
bé	-9.24206
▁grâce	-9.24285
▁village	-9.243
▁eût	-9.2435
▁op	-9.24488
▁retourna	-9.24488
▁sc	-9.24601
rme	-9.24759
▁».	-9.24786
▁Paul	-9.24833
12	-9.24981
ule	-9.24989
▁doigts	-9.25152
▁elles	-9.2519
▁Har	-9.2523
▁tuer	-9.25323
▁rang	-9.25366
▁clair	-9.2539
▁public	-9.25445
▁pri	-9.25453
▁connu	-9.25467
▁chacun	-9.25524
▁libre	-9.25524
▁jeu	-9.25528
▁présence	-9.25552
ap	-9.25593
lique	-9.25779
▁parmi	-9.25807
des	-9.25828
▁souvenir	-9.25916
▁pl	-9.26023
▁recherche	-9.26057
▁plaisir	-9.26065
gne	-9.26139
ose	-9.26162
tru	-9.2631
issant	-9.26316
ène	-9.26408
▁taille	-9.26683
▁L’a	-9.26723
▁vérité	-9.26724
▁d’autre	-9.26812
▁can	-9.26816
▁compris	-9.26877
▁aussitôt	-9.26927
by	-9.26939
▁selon	-9.26988
voy	-9.2719
ty	-9.27262
▁Ki	-9.27315
▁ro	-9.27356
▁Hi	-9.27386
hé	-9.27417
▁cheval	-9.27458
rri	-9.27464
▁inf	-9.27483
▁n'a	-9.27577
our	-9.27589
15	-9.2768
;	-9.27738
▁Bra	-9.27905
▁Louis	-9.28011
▁lequel	-9.28016
▁Gra	-9.28108
▁exemple	-9.28145
ît	-9.28156
▁commença	-9.28476
J	-9.28568
eu	-9.28623
14	-9.28718
▁2006	-9.28872
▁réussi	-9.29045
▁posa	-9.29062
▁comprendre	-9.2912
▁laissa	-9.29124
▁sort	-9.29146
cc	-9.29185
▁blanche	-9.29253
▁habit	-9.2926
▁écrit	-9.29294
▁prend	-9.2949
idé	-9.29627
iv	-9.29768
une	-9.2977
▁trembl	-9.29849
▁ça,	-9.29894
▁situation	-9.29895
▁tard,	-9.29919
mont	-9.29927
cul	-9.2996
rog	-9.29971
ore	-9.30096
▁l’A	-9.30109
▁Pierre	-9.30213
uel	-9.3022
lia	-9.30304
cro	-9.3034
▁madame	-9.30398
pin	-9.30415
▁Mr	-9.30564
▁mo	-9.30673
▁réponse	-9.30782
ologie	-9.3087
▁page	-9.30967
▁certains	-9.31048
▁passage	-9.31054
ville	-9.31181
17	-9.31305
▁voulu	-9.31404
▁endroit	-9.31493
dou	-9.31549
▁suivi	-9.31591
emp	-9.31636
▁Ex	-9.3167
ju	-9.31715
▁temps,	-9.31731
▁s’écria	-9.31737
▁envie	-9.31764
non	-9.31808
▁t’a	-9.32033
▁Est-ce	-9.32051
ras	-9.32155
▁cré	-9.32157
▁Cla	-9.32203
▁chien	-9.32209
vou	-9.32287
▁simplement	-9.32292
lot	-9.32312
▁film	-9.32388
▁Che	-9.32396
▁risque	-9.32484
▁noire	-9.32485
▁parfois	-9.32524
▁Vo	-9.32578
gli	-9.3267
▁lança	-9.3269
▁da	-9.32718
▁n'est	-9.32796
▁ver	-9.32898
din	-9.32969
▁étrange	-9.32994
prim	-9.32997
ndre	-9.33008
iques	-9.33022
▁journée	-9.33119
nom	-9.33152
▁effet	-9.33164
▁cependant	-9.33226
▁amis	-9.33238
être	-9.33245
▁port	-9.33246
▁bal	-9.33267
▁entra	-9.33297
▁environ	-9.33441
form	-9.33752
ie,	-9.33803
tive	-9.33895
ano	-9.33913
▁regarder	-9.34004
gg	-9.34006
▁musique	-9.34012
▁vingt	-9.34019
▁Bri	-9.34052
lla	-9.34154
▁st	-9.34187
▁sœur	-9.34219
▁mars	-9.34227
▁champ	-9.34266
8	-9.34354
uf	-9.3437
▁front	-9.34394
▁tomba	-9.34396
▁froid	-9.3443
▁système	-9.34448
▁police	-9.34472
nier	-9.34572
ham	-9.3467
▁repos	-9.34801
and	-9.34821
ème	-9.34825
ah	-9.3485
▁demandé	-9.34877
rage	-9.35103
tent	-9.35483
▁fonction	-9.35493
▁dis-je	-9.35668
▁emb	-9.35691
▁dois	-9.35701
▁prince	-9.3573
▁titre	-9.35776
▁camp	-9.3592
uve	-9.35955
▁tira	-9.36051
▁Ben	-9.3606
▁charge	-9.36166
▁Gre	-9.36388
▁nécessaire	-9.3639
▁000	-9.36414
▁éclair	-9.36433
▁puisse	-9.36457
▁bientôt	-9.36469
▁lentement	-9.36492
igné	-9.36507
ang	-9.36516
▁ab	-9.36525
01	-9.36551
tur	-9.36623
▁fût	-9.36625
é.	-9.36653
▁mai	-9.36706
7	-9.36722
▁produit	-9.36751
-B	-9.36807
▁Mer	-9.36833
▁dame	-9.36921
▁Ber	-9.36958
ber	-9.36969
gan	-9.3701
ara	-9.37064
▁c'est	-9.37102
▁plupart	-9.37103
▁sentiment	-9.3713
▁pont	-9.37173
ident	-9.37276
▁haute	-9.37285
▁vient	-9.37301
▁Deux	-9.37401
▁murmura	-9.37424
net	-9.37591
▁difficile	-9.37769
▁ayant	-9.3777
nda	-9.37838
▁lettre	-9.37952
▁attend	-9.38019
cier	-9.38117
▁s’y	-9.38143
ges	-9.38145
istes	-9.38201
▁sortit	-9.38281
▁vague	-9.38283
▁centre	-9.38356
▁John	-9.38383
13	-9.38438
rm	-9.38537
quête	-9.38589
illon	-9.38603
▁laisse	-9.38612
▁[	-9.38664
▁reçu	-9.3868
▁respect	-9.38684
▁yeux.	-9.38684
-t-il.	-9.38695
▁four	-9.3873
erie	-9.38739
▁ensemble	-9.38809
ice	-9.38996
rique	-9.3902
nel	-9.39061
▁court	-9.39121
▁Ko	-9.39139
nique	-9.39199
▁d’œil	-9.39218
▁ans,	-9.39282
ième	-9.39285
▁Mme	-9.39417
▁ancien	-9.39477
▁hi	-9.39531
▁dit-elle	-9.39586
i-je	-9.39641
▁X	-9.39706
isation	-9.3975
▁jusqu’au	-9.39752
▁faisant	-9.39868
▁Où	-9.39925
▁capable	-9.39998
gna	-9.40006
▁d’abord	-9.40008
6	-9.40026
nais	-9.40091
ça	-9.40137
▁dou	-9.40473
cla	-9.40549
▁espèce	-9.40609
▁appelé	-9.4064
lais	-9.40683
tat	-9.40696
▁peuple	-9.4074
▁Don	-9.4074
forme	-9.40821
▁Nord	-9.40868
▁mor	-9.40871
eff	-9.40938
▁Sp	-9.40943
▁permet	-9.40997
▁douleur	-9.41002
▁arrière	-9.41072
▁Mal	-9.41094
ny	-9.41135
▁l’intérieur	-9.41175
▁française	-9.41192
zi	-9.41195
▁Tra	-9.41261
▁commun	-9.41326
graph	-9.41369
xe	-9.41405
▁cher	-9.41483
▁hé	-9.41607
-P	-9.41639
gie	-9.41666
▁gris	-9.41682
▁figure	-9.41687
ria	-9.41719
▁retrouver	-9.41735
▁scène	-9.41769
50	-9.4182
▁man	-9.4196
▁papier	-9.42014
▁l’heure	-9.42067
gar	-9.42085
▁secret	-9.421
tribu	-9.42263
▁malgré	-9.42414
serv	-9.42416
▁2005	-9.42416
rd	-9.42484
▁état	-9.42521
▁moment,	-9.42573
▁secoua	-9.42615
▁voyait	-9.42655
ino	-9.42681
tic	-9.4271
rité	-9.42766
éré	-9.42779
▁portait	-9.42841
ana	-9.42942
bu	-9.43011
▁pé	-9.43017
33	-9.43024
mie	-9.43122
▁rapidement	-9.43219
▁colère	-9.43252
quet	-9.43282
▁k	-9.4333
çon	-9.43382
▁sac	-9.4349
bb	-9.43508
▁terme	-9.43558
▁penser	-9.43601
ral	-9.43625
▁comte	-9.4364
ques	-9.43656
iens	-9.43662
ub	-9.43697
ût	-9.43699
▁meilleur	-9.43851
tou	-9.43942
dit	-9.43991
▁Votre	-9.44032
▁peuvent	-9.44143
▁hors	-9.44152
▁Pendant	-9.44153
▁d’or	-9.44294
▁second	-9.44337
ie.	-9.44347
illi	-9.44415
▁conseil	-9.44512
ok	-9.4455
▁tri	-9.44561
▁sud	-9.44597
-le	-9.44617
▁fla	-9.44623
▁d'é	-9.44628
▁Tous	-9.44684
▁pleine	-9.4471
▁Wa	-9.44791
▁2004	-9.44806
W	-9.44874
▁Mu	-9.44893
▁2001	-9.45051
alité	-9.45055
▁sub	-9.45108
▁cria	-9.45128
▁Plus	-9.45141
éra	-9.45142
dan	-9.45156
▁tes	-9.45178
▁ajouta	-9.45345
▁vin	-9.45537
ssement	-9.45574
œ	-9.45603
▁Liens	-9.45639
▁nord	-9.45729
uv	-9.45824
44	-9.45828
▁poche	-9.45859
▁savez	-9.45875
▁Fo	-9.45915
▁médecin	-9.45932
illé	-9.46058
▁vivre	-9.46059
bou	-9.46086
lis	-9.46096
▁Pays	-9.46112
vaient	-9.46279
▁cal	-9.46407
▁attention	-9.46457
vais	-9.46471
▁juin	-9.46488
éro	-9.46561
▁Am	-9.46631
[1]	-9.4665
▁vivant	-9.46668
▁font	-9.46676
▁sentait	-9.46695
▁répond	-9.46808
▁proche	-9.46862
▁Dr	-9.46892
vit	-9.46955
tz	-9.46986
▁terrible	-9.47017
▁médi	-9.4706
lic	-9.47063
▁rôle	-9.47309
▁ait	-9.4736
▁reine	-9.47461
▁perd	-9.47475
lly	-9.47522
▁véritable	-9.47526
tch	-9.47571
cour	-9.47598
▁compagnie	-9.47623
cle	-9.47634
▁Gar	-9.47637
▁continua	-9.47707
▁cu	-9.47733
ible	-9.47745
pu	-9.47789
ié	-9.47792
can	-9.478
bra	-9.47832
▁jeunes	-9.47958
jo	-9.47993
▁soi	-9.48014
▁tué	-9.48155
traîne	-9.4818
han	-9.48211
30	-9.48233
▁S’il	-9.48321
▁lo	-9.4833
▁château	-9.48365
iser	-9.4846
▁l’impression	-9.48486
je	-9.48494
▁New	-9.48517
▁alla	-9.48653
▁vert	-9.48687
▁Depuis	-9.48781
pro	-9.48835
berg	-9.48863
▁Non	-9.48885
90	-9.48892
bor	-9.48955
▁bande	-9.49048
▁riche	-9.49081
▁nombreux	-9.49082
ssure	-9.49115
ffi	-9.4915
▁affaire	-9.49222
▁rien.	-9.493
isé	-9.49379
▁personnes	-9.49387
ute	-9.49387
ug	-9.4942
chant	-9.49428
▁II	-9.49433
▁pensa	-9.49454
▁bataille	-9.49535
▁d’E	-9.49642
▁Rien	-9.49674
▁paroles	-9.49726
32	-9.49761
▁Ci	-9.49906
mu	-9.4999
ède	-9.50031
▁loi	-9.50046
mission	-9.50076
▁tôt	-9.50097
▁grave	-9.5012
gri	-9.5017
▁met	-9.50184
▁prix	-9.50239
mant	-9.50248
▁restait	-9.50286
▁seigneur	-9.50358
▁Jack	-9.50448
▁membres	-9.50533
tha	-9.50549
80	-9.50592
▁Her	-9.50617
sseur	-9.50806
▁Is	-9.50832
▁docteur	-9.50848
▁s’étaient	-9.50948
▁États-Unis	-9.50949
▁Cro	-9.51008
▁ja	-9.51042
mique	-9.51079
igno	-9.51087
▁For	-9.51094
ète	-9.5127
▁sentit	-9.51285
▁rempli	-9.51432
▁jambes	-9.51435
-S	-9.51441
▁chi	-9.515
▁Monsieur	-9.51523
▁Chi	-9.51538
ments	-9.51552
the	-9.51724
lie	-9.51724
▁faible	-9.5173
▁nature	-9.51744
den	-9.51755
▁tête,	-9.51758
position	-9.51847
mir	-9.51862
▁fu	-9.51901
▁dit-il.	-9.51925
▁sourit	-9.51927
▁Cal	-9.51951
▁moitié	-9.51988
▁voie	-9.51997
vel	-9.52035
▁s’arrêta	-9.52128
▁rec	-9.52265
stre	-9.52406
▁2002	-9.5242
▁siège	-9.52491
aut	-9.52585
▁position	-9.52598
▁and	-9.52608
mus	-9.52628
▁servi	-9.52835
▁nez	-9.52841
▁répondre	-9.52842
▁Même	-9.52914
ple	-9.53001
venir	-9.53067
▁disparu	-9.53089
▁tellement	-9.53093
▁carte	-9.53157
▁Sal	-9.53238
▁Luc	-9.53397
á	-9.53463
▁Voilà	-9.53486
02	-9.53486
cou	-9.53511
▁aujourd’hui	-9.53532
mène	-9.53555
teurs	-9.53565
▁jardin	-9.53578
▁voulez	-9.53606
▁donna	-9.53651
bert	-9.53745
-ils	-9.53817
▁posé	-9.5387
▁articles	-9.53893
ception	-9.53894
▁ici,	-9.53896
-tu	-9.53937
▁gu	-9.54021
▁utilisé	-9.54053
illant	-9.54145
22	-9.54149
▁étant	-9.54231
ux,	-9.54327
▁commence	-9.54396
▁souffle	-9.54401
▁aura	-9.54408
▁arrive	-9.54421
hor	-9.54431
▁mourir	-9.5446
ak	-9.54476
bord	-9.5451
▁poste	-9.54518
▁parlé	-9.54572
end	-9.54576
bel	-9.54597
35	-9.54665
quer	-9.54827
tien	-9.54926
55	-9.55092
tée	-9.55123
▁larmes	-9.55165
▁poitrine	-9.5523
ces	-9.55293
▁chargé	-9.55303
▁robe	-9.55398
▁sorti	-9.55436
lou	-9.55501
-de	-9.5554
▁hu	-9.55596
▁télé	-9.55638
▁Sou	-9.55777
▁dessin	-9.55785
ien	-9.55802
fu	-9.55817
▁os	-9.55889
mat	-9.55892
▁pou	-9.56005
-même	-9.56066
ables	-9.5612
▁soldats	-9.56129
▁parole	-9.56187
▁Paris,	-9.56188
▁pensée	-9.56256
▁30	-9.56361
lor	-9.56409
▁St	-9.56419
X	-9.56472
60	-9.56513
▁manque	-9.56613
mor	-9.56663
rand	-9.56664
tho	-9.56747
itude	-9.56752
▁mise	-9.56775
▁prise	-9.56798
▁mod	-9.56802
▁Charles	-9.56824
▁qu’a	-9.56855
▁char	-9.57067
rien	-9.57088
▁tr	-9.5711
▁forte	-9.57155
▁ça.	-9.57358
▁pan	-9.57431
▁population	-9.57447
47	-9.57447
-toi	-9.57465
25	-9.57498
dia	-9.57532
▁militaire	-9.57545
▁entendre	-9.57639
▁1999	-9.57693
ison	-9.5773
arrêt	-9.57748
▁Tour	-9.57804
▁forêt	-9.57818
▁fé	-9.57932
▁nouvelles	-9.57959
ines	-9.57963
▁Parti	-9.5797
stra	-9.57977
igu	-9.58027
▁trouva	-9.5815
▁Sch	-9.58189
▁éclat	-9.58198
▁important	-9.5823
▁Terre	-9.58284
70	-9.5831
▁J’avais	-9.58365
▁impossible	-9.58386
▁Oui.	-9.58404
▁grosse	-9.58431
▁puissant	-9.58492
9	-9.58547
ves	-9.58558
▁22	-9.58599
▁déclara	-9.58652
▁Tom	-9.58675
▁content	-9.587
▁qu'elle	-9.58731
yn	-9.5877
▁Richard	-9.58774
56	-9.58806
len	-9.58819
ach	-9.58865
▁d’entre	-9.58977
officier	-9.58981
▁site	-9.58989
▁David	-9.59103
▁servir	-9.59133
ell	-9.59159
▁d’eux	-9.59205
▁niveau	-9.59277
▁Ser	-9.5933
▁joie	-9.59381
▁auprès	-9.59383
▁contraire	-9.59394
tel	-9.59438
xi	-9.59438
▁perdre	-9.59467
ld	-9.59523
êt	-9.59712
pre	-9.59756
vion	-9.59776
tiques	-9.59857
▁Ge	-9.59956
▁toi,	-9.59963
▁société	-9.60058
fil	-9.60149
▁bête	-9.6016
▁be	-9.60175
▁doucement	-9.60266
ition	-9.60314
char	-9.60404
ures	-9.60452
pri	-9.60504
▁troisième	-9.60598
▁gorge	-9.60628
46	-9.60699
▁25	-9.60762
▁tombe	-9.60836
▁photo	-9.60849
▁We	-9.6094
▁gouvernement	-9.60971
▁départ	-9.60993
▁épaules	-9.61011
▁2003	-9.61185
flu	-9.61264
▁rencontre	-9.61306
▁s'a	-9.61322
ort	-9.61345
▁cas,	-9.61357
▁foi	-9.61369
▁tenir	-9.61413
riez	-9.61473
fort	-9.61476
▁deuxième	-9.61507
▁surprise	-9.61526
gen	-9.61561
▁Bre	-9.61606
▁bâtiment	-9.61694
dra	-9.61713
ult	-9.61755
▁conversation	-9.61758
▁fe	-9.61857
▁21	-9.61891
▁Pu	-9.61955
omme	-9.6202
▁base	-9.62084
-vous	-9.62098
▁2000	-9.62141
%	-9.62197
bar	-9.62262
lar	-9.62278
▁décidé	-9.62355
▁externes	-9.62373
all	-9.6238
▁n’avais	-9.62695
▁habitants	-9.62696
▁Saint	-9.62752
cept	-9.62782
▁durant	-9.62927
gré	-9.62993
▁suivre	-9.63044
▁coups	-9.6305
ord	-9.63063
▁basse	-9.63155
-je	-9.63225
▁appel	-9.63238
trait	-9.63374
▁confiance	-9.63429
▁ouvert	-9.63436
▁J’en	-9.63484
ont	-9.63484
we	-9.63489
▁message	-9.63519
▁arriver	-9.6355
▁savais	-9.63563
▁dehors	-9.63597
▁Quel	-9.63679
▁arriva	-9.63729
▁(L	-9.63746
bli	-9.6376
-ci	-9.63769
▁cris	-9.63879
▁danger	-9.63885
main	-9.63933
▁répéta	-9.6395
▁regardait	-9.63982
38	-9.64006
▁veille	-9.64034
▁navire	-9.64037
▁chasse	-9.64042
▁(C	-9.64111
homme	-9.64123
▁tirer	-9.64178
line	-9.64246
▁vint	-9.64271
21	-9.64409
vu	-9.64422
▁Port	-9.64425
sto	-9.64447
▁Cu	-9.64524
nou	-9.64583
nal	-9.64607
▁contact	-9.64731
▁resté	-9.64734
▁observa	-9.64769
▁déco	-9.64853
▁descend	-9.64931
▁pencha	-9.64958
▁désert	-9.65018
▁devenu	-9.65038
▁côte	-9.65055
▁rapide	-9.65085
▁quitter	-9.65099
▁n’est-ce	-9.65132
▁profit	-9.6514
▁l’esprit	-9.6517
har	-9.65191
▁jouer	-9.65192
antes	-9.65196
▁guère	-9.65211
▁thé	-9.65212
▁foule	-9.65395
▁duc	-9.65423
▁Mag	-9.65469
ateurs	-9.65503
llon	-9.65543
vienne	-9.65546
util	-9.6556
▁lendemain	-9.65676
Y	-9.65725
▁créature	-9.65781
▁mauvais	-9.65798
▁debout	-9.65842
tis	-9.65846
▁jour,	-9.65924
▁/	-9.65931
wi	-9.6595
▁(S	-9.65998
sco	-9.66065
▁janvier	-9.66133
▁anglais	-9.66159
tier	-9.66173
▁pratique	-9.66173
▁Sha	-9.66205
iel	-9.66255
▁l'un	-9.66265
▁paraissait	-9.66304
▁franchi	-9.66366
▁Robert	-9.66379
inte	-9.66406
▁dirigea	-9.66458
▁songea	-9.66539
▁qu’en	-9.66549
▁quartier	-9.66563
▁put	-9.66563
▁celui-ci	-9.66572
ités	-9.66752
▁rendu	-9.66765
gard	-9.66804
▁Quoi	-9.66819
▁amour	-9.66876
vance	-9.66922
nk	-9.66932
52	-9.67075
▁démon	-9.67107
▁davantage	-9.67119
▁président	-9.6712
oy	-9.67131
39	-9.67147
▁personnage	-9.67185
49	-9.67195
▁certaine	-9.67207
▁dents	-9.67359
▁cl	-9.67367
ov	-9.67387
24	-9.67529
ius	-9.67577
▁ouverte	-9.67606
▁plat	-9.67642
▁avril	-9.67728
▁située	-9.67728
ifi	-9.67938
▁Marie	-9.68005
▁Ainsi	-9.68008
▁appris	-9.6804
ane	-9.68052
ification	-9.68074
fo	-9.68135
cart	-9.68207
▁%	-9.68221
▁septembre	-9.68274
43	-9.68309
42	-9.68354
▁d'in	-9.68383
▁eff	-9.68406
▁Pré	-9.6841
▁sept	-9.68421
cur	-9.68441
▁source	-9.68486
▁Sé	-9.68488
▁Pri	-9.68574
▁acc	-9.68636
▁oui	-9.68764
bes	-9.68804
▁trace	-9.68826
sol	-9.68846
▁lettres	-9.68854
pul	-9.68885
▁ouvrit	-9.68917
my	-9.68926
▁manger	-9.68935
▁senti	-9.68974
ain	-9.68994
▁conscience	-9.69012
▁couvert	-9.69074
▁suivant	-9.69127
▁téléphone	-9.69147
vol	-9.6928
▁attendre	-9.69294
▁dessus	-9.69376
ieux	-9.69405
▁goût	-9.69505
▁huit	-9.69521
▁n’aurait	-9.69596
▁Ph	-9.69643
▁24	-9.699
26	-9.69923
▁?...	-9.69927
37	-9.69945
▁passait	-9.69958
donne	-9.69974
▁Za	-9.6998
ffect	-9.70012
▁(P	-9.70038
▁flot	-9.70071
▁faites	-9.70094
▁Michel	-9.70108
▁Cour	-9.70218
51	-9.70219
▁grandes	-9.70237
▁distance	-9.7034
▁pal	-9.70348
▁cuisine	-9.70421
ian	-9.70463
bus	-9.7057
27	-9.70597
▁juillet	-9.70599
▁bé	-9.70606
ret	-9.70614
48	-9.70653
uff	-9.7067
▁condition	-9.70689
▁morte	-9.70733
▁mission	-9.70922
▁voulais	-9.70928
-A	-9.71001
▁roman	-9.71024
batt	-9.71027
▁objet	-9.71041
▁petites	-9.71045
vision	-9.71082
▁montrer	-9.71095
pha	-9.71467
34	-9.71505
▁pâle	-9.71616
▁couloir	-9.71699
▁d’ex	-9.7171
▁Pla	-9.71714
▁couleur	-9.71753
▁s’agit	-9.71784
▁main.	-9.71848
▁s'é	-9.71886
cte	-9.71897
lect	-9.7196
▁2008	-9.71978
▁trait	-9.72036
▁contrôle	-9.72073
▁bro	-9.72145
nni	-9.72146
▁chau	-9.72155
imagin	-9.72217
▁23	-9.72226
▁change	-9.72239
▁cité	-9.72253
▁montre	-9.72296
▁parfaitement	-9.723
▁transport	-9.723
▁genoux	-9.72357
▁année	-9.72406
rio	-9.72413
▁devoir	-9.72418
tar	-9.72563
ker	-9.72566
part	-9.72569
pré	-9.72582
▁nationale	-9.72636
▁don	-9.72644
▁ministre	-9.72671
▁tenta	-9.72697
▁facile	-9.72719
ida	-9.72744
éné	-9.72772
ine,	-9.72826
▁Bal	-9.72964
venant	-9.73018
▁glissa	-9.73026
▁vont	-9.73052
▁complètement	-9.73065
▁surface	-9.731
}}}	-9.73133
û	-9.73164
▁heureux	-9.73182
uc	-9.73213
▁Histoire	-9.73257
igner	-9.73263
54	-9.7331
▁tendit	-9.73365
ari	-9.73391
ili	-9.73489
▁spécial	-9.73529
23	-9.73545
▁note	-9.7356
▁là-bas	-9.73611
▁sortie	-9.73624
▁ob	-9.73638
quin	-9.73659
tère	-9.73665
▁All	-9.73697
▁caractère	-9.73709
57	-9.73759
▁m’avait	-9.73926
▁mu	-9.73977
met	-9.73987
-là,	-9.74032
rier	-9.74037
tim	-9.74117
▁Fin	-9.74121
▁Mes	-9.7413
▁Ve	-9.7417
▁Nor	-9.74252
▁lorsqu’il	-9.74261
mou	-9.74262
▁âme	-9.74284
ef	-9.74313
▁probablement	-9.74342
▁dire,	-9.74355
▁Pol	-9.74359
▁d’eau	-9.74361
ange	-9.74365
ifié	-9.74366
▁réalité	-9.74393
cho	-9.74399
î	-9.74432
▁particulier	-9.74446
41	-9.74465
▁chevaux	-9.74488
▁agi	-9.7453
tter	-9.74535
mini	-9.7458
▁existe	-9.74593
▁qu'	-9.74619
shi	-9.7463
▁Non.	-9.74634
lig	-9.74685
ky	-9.747
dd	-9.74777
ffa	-9.74813
▁Enfin,	-9.74871
▁serra	-9.74919
ies	-9.74919
▁Bill	-9.75011
▁devenir	-9.75028
rions	-9.75058
cor	-9.75067
appel	-9.75071
▁Bob	-9.75088
▁prie	-9.7509
▁soir,	-9.75131
tez	-9.75161
ü	-9.75202
▁parut	-9.75227
▁mariage	-9.75268
phi	-9.75292
▁Dis	-9.75292
▁l'E	-9.7534
▁François	-9.75426
▁forces	-9.7543
▁1er	-9.75475
▁rayon	-9.75509
▁chaleur	-9.75575
rom	-9.75607
▁preuve	-9.75618
▁exactement	-9.75742
66	-9.75765
▁accord	-9.75782
▁oui,	-9.75863
▁allons	-9.75917
▁Mc	-9.75982
▁Ter	-9.76053
▁demi-	-9.76054
▁n’avaient	-9.76055
▁Quelle	-9.76102
▁bra	-9.76108
▁Fe	-9.76184
▁&	-9.76185
kh	-9.76186
tienne	-9.76309
illait	-9.76339
▁douce	-9.76367
▁donnait	-9.76381
agne	-9.76418
▁min	-9.76471
ages	-9.76493
▁soin	-9.7656
▁yeux,	-9.76562
dge	-9.76564
▁comprends	-9.76575
gin	-9.76581
▁répliqua	-9.76615
pit	-9.76633
▁hocha	-9.76669
-L	-9.76677
▁décembre	-9.76731
ani	-9.76828
▁différents	-9.76833
▁{{{	-9.76862
range	-9.76909
▁go	-9.76917
06	-9.7699
▁faisaient	-9.77026
▁Personne	-9.77053
▁l'en	-9.77055
bin	-9.7708
âmes	-9.77087
emme	-9.77132
▁fermé	-9.77148
▁entrer	-9.77211
▁département	-9.77293
▁Harry	-9.77305
ace	-9.7733
issement	-9.77334
sso	-9.7735
▁pat	-9.77437
▁défi	-9.77453
▁devient	-9.77483
▁maintenant,	-9.77488
▁sécurité	-9.77534
▁demain	-9.77569
59	-9.77593
▁fauteuil	-9.77596
▁Tri	-9.7764
▁brusquement	-9.77695
▁notamment	-9.77768
▁fourni	-9.7777
▁livres	-9.77817
▁marché	-9.7792
▁bateau	-9.77938
z-moi	-9.77968
jou	-9.77991
▁parents	-9.78061
▁novembre	-9.78092
uto	-9.78099
z-vous	-9.78137
▁blessé	-9.78138
lf	-9.78171
oul	-9.78222
▁total	-9.78307
▁questions	-9.78328
▁octobre	-9.78358
▁aime	-9.7837
36	-9.78383
▁envoyé	-9.78396
▁Can	-9.78397
▁trente	-9.78479
▁semaine	-9.78493
88	-9.78522
table	-9.78596
▁désormais	-9.78609
▁parlait	-9.78616
▁prétend	-9.78717
▁local	-9.78722
▁celles	-9.78746
▁Sud	-9.78753
▁puisque	-9.78782
ther	-9.78786
issait	-9.78794
▁affaires	-9.78878
▁Ed	-9.78884
ux.	-9.7894
▁Martin	-9.78961
▁Dan	-9.78964
▁mémoire	-9.7901
40	-9.79058
▁Sta	-9.79122
's	-9.79126
ney	-9.79127
formation	-9.79137
▁murs	-9.79163
▁prêtre	-9.79201
▁gi	-9.7923
▁malade	-9.7925
▁Chapitre	-9.79263
▁dit-il,	-9.79303
bourg	-9.79424
▁Bro	-9.7944
nch	-9.79444
▁oublié	-9.79475
▁1990	-9.79521
bla	-9.79609
(s)	-9.79672
▁connaissait	-9.79697
▁ravi	-9.79713
▁triste	-9.7973
▁l’une	-9.79756
▁voyant	-9.79827
cra	-9.7984
▁doigt	-9.79843
▁frappa	-9.79915
▁hasard	-9.79925
cré	-9.80013
▁cela,	-9.80014
able.	-9.80041
âtre	-9.80137
▁équipe	-9.80138
63	-9.80221
▁vie.	-9.80249
▁classe	-9.80284
tti	-9.80292
▁chaise	-9.80371
one	-9.80388
▁effort	-9.80441
05	-9.8047
▁Très	-9.80494
mul	-9.80501
pou	-9.80504
sen	-9.80536
78	-9.80544
▁armée	-9.80556
aille	-9.80569
▁Ger	-9.80666
▁rose	-9.80668
gné	-9.80719
itaire	-9.80725
▁Jacques	-9.80741
ssée	-9.80818
▁Ad	-9.80856
75	-9.80878
▁premiers	-9.80901
▁sous-	-9.80917
▁Code	-9.80932
▁Char	-9.80987
mée	-9.81018
▁l’E	-9.81064
▁Em	-9.81065
▁vitesse	-9.81072
▁glace	-9.81087
▁d’ailleurs	-9.81099
▁humaine	-9.81133
▁armes	-9.81133
▁joueur	-9.81141
▁(Il	-9.8115
▁pouvaient	-9.81155
nière	-9.81197
pen	-9.81286
▁domaine	-9.81297
rés	-9.81302
04	-9.81382
▁choix	-9.81396
▁réfléchi	-9.81427
her	-9.81428
▁valeur	-9.81487
▁dia	-9.81499
▁Fer	-9.81503
ura	-9.8154
▁allez	-9.81627
▁tort	-9.81673
▁suppose	-9.81709
▁avis	-9.8175
naient	-9.81756
▁péri	-9.81779
▁J’étais	-9.81846
▁avais	-9.81955
q	-9.81963
▁ans.	-9.82098
agé	-9.82106
▁effet,	-9.82134
▁cherche	-9.82135
▁numéro	-9.82153
▁noble	-9.82166
ération	-9.82229
▁inconnu	-9.82239
▁victime	-9.82245
chon	-9.82268
▁Lorsque	-9.82272
▁n’étaient	-9.82275
89	-9.82317
▁mauvaise	-9.82362
▁aide	-9.82428
tie	-9.82442
poser	-9.82442
▁combien	-9.8246
▁cents	-9.82485
▁Fu	-9.82496
-1	-9.82509
mètre	-9.82601
▁arbres	-9.82642
▁bonheur	-9.82753
ira	-9.8283
▁monter	-9.82842
▁28	-9.82858
▁marque	-9.8289
èle	-9.82939
cité	-9.82949
▁Est	-9.82964
isant	-9.82986
▁vêtements	-9.83014
▁montra	-9.8307
▁l’or	-9.83119
vier	-9.83193
organ	-9.83228
cip	-9.83255
▁27	-9.83255
chet	-9.83321
▁Bel	-9.83369
▁pouvais	-9.83369
érer	-9.83394
▁août	-9.83404
▁ici.	-9.83464
▁s’approcha	-9.83472
▁garder	-9.83524
▁bond	-9.83544
▁connaître	-9.83588
mal	-9.83731
▁(M	-9.83743
ouvre	-9.83757
▁rivière	-9.83824
chée	-9.83856
▁Parce	-9.83896
▁nuit,	-9.83945
ight	-9.83973
▁reconnu	-9.83995
-M	-9.83999
▁entend	-9.84008
ë	-9.8405
▁partout	-9.8407
▁machine	-9.84079
???	-9.84138
▁là.	-9.84174
bon	-9.84199
onné	-9.84233
pli	-9.84249
-t-elle.	-9.8427
▁boîte	-9.84278
▁voit	-9.84291
▁chair	-9.84343
vre	-9.84409
▁Franc	-9.84424
ries	-9.84477
▁Miss	-9.84537
▁impression	-9.84539
▁t’en	-9.84548
▁Leur	-9.84561
emb	-9.84602
09	-9.84633
▁26	-9.84643
▁cadavre	-9.84655
▁expliqua	-9.84668
▁l’idée	-9.84673
▁double	-9.84687
▁zone	-9.84753
▁nommé	-9.8477
▁salon	-9.84771
▁Van	-9.84798
▁vas	-9.84825
▁café	-9.84845
nor	-9.84858
▁février	-9.84861
hum	-9.84869
▁nuage	-9.84915
▁porter	-9.8492
▁Liste	-9.85016
nder	-9.85084
▁q	-9.85091
▁sûr,	-9.851
-de-	-9.85103
▁Q	-9.85127
pla	-9.85131
▁physique	-9.85191
08	-9.85273
▁*	-9.85299
▁neige	-9.85312
▁l’ét	-9.85365
▁marchand	-9.85378
▁allé	-9.85391
cad	-9.85436
die	-9.85478
▁a-t-il	-9.8554
▁est-ce	-9.85568
▁technique	-9.85572
chev	-9.85617
las	-9.85655
▁données	-9.85704
▁province	-9.85747
77	-9.85747
03	-9.8575
95	-9.85752
ans	-9.85778
stro	-9.85786
lam	-9.85832
▁essaya	-9.85894
▁résultat	-9.85906
ji	-9.85986
▁cul	-9.85987
▁lire	-9.86201
pt	-9.86202
▁haussa	-9.86215
era	-9.8637
▁pli	-9.8637
gno	-9.86374
vez	-9.86396
▁fac	-9.8641
▁Aucun	-9.86412
▁épouse	-9.86429
▁certaines	-9.86454
igna	-9.86508
▁règle	-9.86609
▁n'	-9.86628
▁jo	-9.86671
▁sommeil	-9.86673
▁revenu	-9.86807
▁Merci	-9.86827
▁pièces	-9.86855
▁gén	-9.86876
▁chercha	-9.86967
ON	-9.87061
▁légèrement	-9.87096
▁tend	-9.87127
ête	-9.87155
▁crime	-9.87163
▁vie,	-9.87221
▁palais	-9.87264
til	-9.8735
▁obligé	-9.87415
▁découvrir	-9.87523
▁commencé	-9.87533
▁courage	-9.87536
▁venue	-9.8755
▁passion	-9.87556
▁mort.	-9.87588
▁officiel	-9.87757
▁période	-9.87808
▁porte.	-9.87818
clu	-9.87883
▁épée	-9.87944
▁demeure	-9.88005
tine	-9.88021
▁expression	-9.88046
▁revenir	-9.88049
resse	-9.88052
▁domin	-9.88058
▁Dès	-9.88063
▁découvert	-9.88081
gène	-9.88091
▁Bé	-9.88149
oire	-9.8821
▁matin,	-9.88276
▁lune	-9.88281
ngo	-9.88289
▁jusqu'à	-9.88292
▁fra	-9.88341
étude	-9.8835
▁terrain	-9.88358
▁ref	-9.88379
ieuse	-9.88452
vez-vous	-9.88461
▁Quant	-9.88468
!	-9.88471
ich	-9.88494
▁rappela	-9.885
▁eux,	-9.88517
▁bour	-9.88553
ître	-9.88595
ssaient	-9.88649
▁saint	-9.88664
▁présente	-9.88731
▁Sy	-9.88745
êche	-9.88749
▁connaissance	-9.88749
▁derniers	-9.88789
kin	-9.88797
▁pluie	-9.88806
▁hésita	-9.88825
▁intérêt	-9.88849
▁Gri	-9.8892
98	-9.88995
ER	-9.89004
▁releva	-9.89025
07	-9.89046
▁arrêté	-9.89046
▁Trois	-9.89119
▁elle-même	-9.89124
▁puissance	-9.89168
▁cuir	-9.89227
67	-9.89236
oli	-9.8925
31	-9.89277
AN	-9.89319
alis	-9.89398
udi	-9.89416
▁poser	-9.89436
▁Bur	-9.89486
▁(1	-9.89575
▁poing	-9.89594
96	-9.89673
▁j’a	-9.8978
▁ordre	-9.89802
▁Seigneur	-9.89805
▁Dar	-9.89805
???????	-9.89845
▁père,	-9.89915
▁paix	-9.89956
ctu	-9.89962
mun	-9.90006
▁rejoindre	-9.9012
▁Mac	-9.90129
espér	-9.90132
aye	-9.90189
ori	-9.90191
▁retourner	-9.90217
▁(18	-9.90228
▁Marc	-9.90229
hab	-9.90283
▁clo	-9.90367
▁femme,	-9.90462
▁Moi	-9.9048
▁regardant	-9.90491
▁nombreuses	-9.90506
▁n’importe	-9.9062
í	-9.90637
▁énorme	-9.9067
▁filles	-9.90696
▁(A	-9.9083
97	-9.90925
▁chaud	-9.90991
▁quitta	-9.91033
▁succès	-9.91054
▁flamme	-9.91057
▁texte	-9.91108
▁revint	-9.91142
▁club	-9.9115
isson	-9.91182
▁défense	-9.91246
nça	-9.91288
▁Wi	-9.91296
▁d'autres	-9.91357
▁pensées	-9.91462
▁signal	-9.91497
duction	-9.91504
▁Mou	-9.91538
▁l'ex	-9.91543
▁dites	-9.91556
rat	-9.91568
▁tiré	-9.91609
99	-9.91632
ffe	-9.91633
gou	-9.91708
ini	-9.91717
▁trompe	-9.91748
28	-9.91762
▁Né	-9.91856
vert	-9.91881
▁occupé	-9.91932
▁hauteur	-9.91966
▁marin	-9.91995
gage	-9.92042
ège	-9.9205
▁Cependant,	-9.92083
dien	-9.92103
▁sy	-9.9216
▁Sous	-9.92361
93	-9.92365
▁viens	-9.92372
▁Pé	-9.92396
vor	-9.92437
▁sourcils	-9.92455
▁volonté	-9.92458
▁Quelques	-9.92487
▁ét	-9.92537
pression	-9.92542
cide	-9.92546
▁professeur	-9.92594
▁saison	-9.92632
▁soupir	-9.92646
▁placé	-9.92734
▁Lui	-9.92766
celle	-9.92768
▁campagne	-9.92775
▁t’ai	-9.92826
ES	-9.92841
▁culture	-9.92857
▁national	-9.92867
▁loup	-9.92892
▁George	-9.92949
64	-9.92987
ial	-9.93032
▁âge	-9.93057
▁repas	-9.93064
▁sein	-9.93082
▁1998	-9.931
92	-9.93129
▁référence	-9.9319
▁masse	-9.93263
▁ge	-9.93371
▁Gal	-9.93404
▁branche	-9.93417
▁Bru	-9.93421
▁vaisseau	-9.93444
nci	-9.93523
▁Pat	-9.93523
▁immédiatement	-9.93565
▁privé	-9.9358
▁image	-9.93607
ium	-9.93613
▁commandant	-9.93632
▁corde	-9.93641
enseigne	-9.93693
Espagne	-9.93705
duc	-9.93728
▁élevé	-9.93797
thé	-9.93811
ella	-9.93824
▁hurla	-9.93966
tom	-9.93993
▁élément	-9.94003
▁pensé	-9.94008
58	-9.94013
▁ventre	-9.94063
▁voisin	-9.94073
▁km2	-9.94083
▁qualité	-9.94105
▁kilomètres	-9.94154
▁Pre	-9.9418
cord	-9.94198
▁défini	-9.943
▁morts	-9.94313
-G	-9.94338
▁vaste	-9.94354
▁n’ont	-9.94444
▁prisonnier	-9.94478
▁paraît	-9.94487
▁Philippe	-9.94508
▁relation	-9.94532
ologique	-9.94566
▁instant,	-9.94606
▁remarqua	-9.94624
▁29	-9.94629
dro	-9.94695
▁balle	-9.94722
▁prison	-9.94759
▁Madame	-9.94783
▁Eu	-9.94802
▁l’instant	-9.95048
▁z	-9.95069
▁Henri	-9.95076
▁voyez	-9.95099
▁planète	-9.95189
▁américain	-9.9523
▁s’agissait	-9.95288
▁demanda-t-il	-9.95293
▁humain	-9.95374
▁Ab	-9.95397
▁changer	-9.95434
▁Gro	-9.95465
▁quitté	-9.95477
gle	-9.95507
▁époque	-9.95551
▁mode	-9.95608
▁gagner	-9.95668
▁vive	-9.95725
▁lance	-9.95736
ati	-9.95816
▁ferai	-9.95887
▁entendit	-9.95905
▁jaune	-9.95918
is-je	-9.95961
▁liste	-9.95972
▁l'O	-9.96015
▁l’aide	-9.96035
von	-9.96051
ling	-9.96057
▁eux.	-9.96092
▁par-dessus	-9.96096
▁Qu’	-9.961
▁rat	-9.96118
85	-9.9618
65	-9.96211
lice	-9.96224
▁s'est	-9.9624
▁d’aller	-9.96277
mettre	-9.9628
ppa	-9.96322
▁l’argent	-9.96327
-F	-9.96336
ignant	-9.96386
91	-9.96454
▁chevalier	-9.96506
▁Avant	-9.96556
▁Toutes	-9.96629
▁précis	-9.96684
▁Nu	-9.96705
86	-9.96723
▁terminé	-9.96769
▁vision	-9.96791
▁arme	-9.96891
quée	-9.96897
-D	-9.96907
zo	-9.96991
▁décide	-9.97038
▁Peu	-9.9704
▁lé	-9.97134
▁couteau	-9.97172
ate	-9.97189
▁dîner	-9.97214
▁Jan	-9.97216
▁surpris	-9.9723
▁victoire	-9.97232
▁contra	-9.97264
▁créé	-9.9728
▁Hé	-9.97352
▁décision	-9.97357
▁trahi	-9.97374
▁léger	-9.97395
▁récit	-9.97404
▁menace	-9.97533
ave	-9.97636
▁auraient	-9.97645
▁Ya	-9.97674
▁l’amour	-9.97686
▁attaque	-9.97691
▁nourri	-9.97715
▁fixe	-9.9774
▁viol	-9.97761
29	-9.97826
▁tourné	-9.97842
▁souci	-9.9785
cy	-9.97862
▁l’endroit	-9.97868
lèrent	-9.98038
-ce	-9.98042
72	-9.9807
phé	-9.98088
▁client	-9.9809
▁pire	-9.98133
▁sembla	-9.98139
▁soient	-9.98152
▁continue	-9.98201
▁fera	-9.98218
▁diable	-9.98272
▁moi-même	-9.9828
▁mine	-9.98285
▁conc	-9.98301
▁avions	-9.98376
ajout	-9.9839
▁lueur	-9.98399
▁Référence	-9.98406
▁cinquante	-9.98417
▁royaume	-9.98435
▁lou	-9.98466
tenir	-9.98473
▁poursuivit	-9.98502
▁déf	-9.98532
gée	-9.98537
▁neuf	-9.98562
gal	-9.98582
▁L'a	-9.9859
install	-9.98647
▁lutte	-9.98651
▁devrait	-9.98657
▁tâche	-9.98688
▁allemand	-9.98688
▁Cam	-9.98709
▁profonde	-9.98711
▁Bor	-9.98741
ico	-9.98831
▁ancienne	-9.98882
rig	-9.98891
▁Max	-9.98904
▁ferma	-9.98917
-f	-9.9892
▁brillant	-9.98933
phon	-9.98977
▁annonça	-9.98978
habit	-9.98987
git	-9.99014
▁oreilles	-9.99039
à	-9.99046
▁sûre	-9.99111
▁regarde	-9.99149
cieux	-9.9917
▁My	-9.99194
▁Hor	-9.99225
81	-9.9925
ève	-9.9926
fér	-9.99264
▁incapable	-9.99451
▁certainement	-9.99468
83	-9.99487
▁colline	-9.99487
▁sommet	-9.99522
nage	-9.99525
▁auto	-9.99544
▁différent	-9.99566
▁Gen	-9.99584
▁demeura	-9.996
IN	-9.99605
▁garda	-9.99642
▁silhouette	-9.99652
tain	-9.99701
▁Hol	-9.99798
▁liberté	-9.99817
(en)	-9.99822
82	-9.99918
▁York	-9.99945
▁poids	-9.9995
▁connue	-9.99975
place	-10.0013
▁pot	-10.0014
▁correspond	-10.0017
▁millions	-10.0019
76	-10.0019
▁rentrer	-10.0021
▁Rou	-10.0023
spir	-10.0024
euses	-10.0026
▁passant	-10.0031
▁conte	-10.0031
-2	-10.0031
▁minute	-10.0036
▁univers	-10.0037
▁sauvage	-10.0044
▁parfait	-10.0047
▁pensait	-10.0048
yon	-10.005
94	-10.0052
▁étions	-10.0052
ö	-10.0053
▁1962	-10.0055
▁d’O	-10.0057
stitution	-10.0057
mour	-10.0062
▁tente	-10.0073
▁At	-10.0076
▁argent	-10.0078
nette	-10.0081
▁fête	-10.0082
▁Ven	-10.0088
▁pourrais	-10.0088
▁art	-10.0091
▁profond	-10.0092
▁Ban	-10.0092
▁vieil	-10.0093
[2]	-10.0094
hen	-10.0095
▁ferait	-10.0097
tais	-10.0098
▁vaut	-10.0098
▁saura	-10.0106
▁baissa	-10.011
▁conduis	-10.0115
▁fus	-10.0127
▁fortune	-10.0129
lever	-10.0129
▁situé	-10.013
▁1997	-10.013
▁cla	-10.0131
53	-10.0138
▁membre	-10.0139
éni	-10.0143
▁retrouvé	-10.0146
▁dirige	-10.0149
▁Tre	-10.0156
▁l’escalier	-10.0157
▁changé	-10.0167
▁semaines	-10.0172
▁l’œil	-10.0181
▁œil	-10.0182
▁visible	-10.0182
▁atteint	-10.0182
aîné	-10.019
clair	-10.0197
▁qu’est-ce	-10.0204
▁cercle	-10.021
84	-10.0214
lage	-10.0214
out	-10.0214
▁Conseil	-10.0216
cia	-10.0223
▁Allons	-10.023
▁soupira	-10.0232
▁Ren	-10.0243
45	-10.0249
ative	-10.0251
dam	-10.0252
▁Nom	-10.0258
▁Peter	-10.0261
▁homonymes	-10.0262
sible	-10.027
68	-10.0274
▁tranquille	-10.0274
▁vain	-10.0276
ora	-10.0279
▁signifie	-10.0279
log	-10.0285
▁importante	-10.0286
▁République	-10.0289
▁refuse	-10.029
roi	-10.0292
fle	-10.0297
▁date	-10.0298
vid	-10.0301
▁Là	-10.0302
▁pointe	-10.0303
▁montagne	-10.0305
▁suivante	-10.0306
▁meilleure	-10.031
ami	-10.0314
▁d'E	-10.0317
▁centaine	-10.0325
ici	-10.0332
▁ordres	-10.0336
▁écoute	-10.034
▁course	-10.0344
mple	-10.0352
▁propres	-10.0357
org	-10.0358
▁tradition	-10.036
▁d'O	-10.036
▁rencontré	-10.0361
▁d’argent	-10.0363
▁truc	-10.0364
▁Wo	-10.0367
▁version	-10.0368
jec	-10.0372
ous	-10.0376
▁classique	-10.0378
▁sauf	-10.038
▁1995	-10.0389
truction	-10.0394
▁presse	-10.0396
tance	-10.0396
blé	-10.04
▁ailleurs	-10.0401
▁fleurs	-10.0408
▁Bas	-10.0412
▁éco	-10.042
▁territoire	-10.0425
▁jeter	-10.0434
▁dure	-10.0436
▁station	-10.044
▁beauté	-10.044
▁p.	-10.0448
▁crâne	-10.0448
▁seront	-10.045
père	-10.0456
▁lourd	-10.0458
▁D’un	-10.0458
▁(B	-10.0459
▁Oh,	-10.0467
▁chemise	-10.047
▁Dra	-10.0471
onde	-10.0473
▁spectacle	-10.0475
nèrent	-10.048
▁N’	-10.0482
▁Population	-10.0489
▁humains	-10.0491
▁d'en	-10.0492
▁Sam	-10.0493
▁prenait	-10.0493
▁Kar	-10.0495
ilité	-10.0495
71	-10.0496
ignait	-10.0499
▁possède	-10.05
nard	-10.0507
▁régl	-10.0509
illage	-10.051
▁chaîne	-10.0513
▁épaules.	-10.0513
*	-10.0514
▁Maintenant,	-10.0516
61	-10.0517
▁Pan	-10.0519
RE	-10.0521
▁brun	-10.0521
▁canon	-10.0525
▁nouveaux	-10.0528
▁exp	-10.0531
ua	-10.0532
▁considéra	-10.0534
▁sentir	-10.0539
lég	-10.0546
▁tourner	-10.0546
▁carrière	-10.0551
▁l’intention	-10.0554
ense	-10.0555
▁noirs	-10.0555
▁réuni	-10.056
vra	-10.0562
▁anti	-10.0564
▁reprendre	-10.0567
▁n’avez	-10.0567
▁d'or	-10.0567
rance	-10.0568
▁froide	-10.057
▁sauver	-10.0571
IS	-10.0575
toire	-10.0579
-la	-10.0593
▁immense	-10.0595
EN	-10.0599
▁Italie	-10.0601
▁souhait	-10.0607
▁1996	-10.0608
73	-10.0608
▁secondes	-10.0613
▁retrouva	-10.0613
▁Ze	-10.0616
▁établi	-10.0621
▁construit	-10.0627
isée	-10.0627
dée	-10.063
▁sable	-10.063
nfant	-10.0637
▁Im	-10.0638
▁paroi	-10.0641
▁VI	-10.0642
bal	-10.0643
▁L’homme	-10.0647
87	-10.065
▁traits	-10.0652
▁(en	-10.0654
ouvrir	-10.0658
▁clé	-10.066
ray	-10.0661
▁l’oreille	-10.0662
▁succ	-10.0662
▁guerrier	-10.0668
▁construction	-10.0673
ude	-10.069
▁Rome	-10.0693
▁absolument	-10.0702
ast	-10.0705
▁Vol	-10.0707
▁ombre	-10.0708
por	-10.0709
angle	-10.0712
cée	-10.0716
▁l’ombre	-10.0723
▁devint	-10.0728
▁magie	-10.0731
▁Cou	-10.0731
▁Prix	-10.0734
▁protéger	-10.0735
▁boire	-10.0737
-Mar	-10.0738
▁naissance	-10.0746
hal	-10.0746
pren	-10.0747
▁journal	-10.075
▁Région	-10.0754
▁chat	-10.0761
▁+	-10.0762
▁val	-10.0762
gère	-10.0762
▁Ton	-10.0763
pon	-10.0765
▁forcé	-10.0766
▁laissant	-10.0767
▁caché	-10.0767
▁arrivée	-10.0772
imp	-10.0774
mbo	-10.0779
▁pareil	-10.0791
▁pâ	-10.0792
▁maire	-10.0801
▁Guerre	-10.0823
lev	-10.083
intégr	-10.0834
▁portes	-10.0836
▁syn	-10.0844
comp	-10.0847
▁And	-10.0849
▁d’y	-10.0862
▁chanson	-10.087
▁tendu	-10.0876
ons-nous	-10.0878
▁meurtre	-10.0878
para	-10.0881
▁dormir	-10.0887
près	-10.0888
▁plante	-10.0889
▁l’O	-10.0894
erre	-10.0895
▁reli	-10.0901
74	-10.0906
▁monstre	-10.0907
▁différentes	-10.0908
▁Mur	-10.0911
cole	-10.0912
▁l’enfant	-10.0916
-en	-10.0916
pital	-10.0921
▁faudrait	-10.0921
▁super	-10.093
▁travaille	-10.0933
▁poussé	-10.0942
▁lien	-10.0942
AR	-10.0942
▁s'en	-10.0947
▁rage	-10.0948
▁quart	-10.0951
79	-10.0952
▁commençait	-10.096
▁boule	-10.0963
▁section	-10.0964
▁my	-10.0968
▁souriant	-10.0974
▁Jamais	-10.0979
▁marcher	-10.0982
▁attendait	-10.0982
62	-10.0983
▁finit	-10.0984
ulaire	-10.0985
▁célèbre	-10.0986
▁prépara	-10.0988
▁fixa	-10.1003
▁repris	-10.1003
trice	-10.1003
▁fusil	-10.1006
▁sp	-10.1006
▁couche	-10.1007
atif	-10.1007
mma	-10.1013
▁cache	-10.1014
▁Wal	-10.1019
▁action	-10.1021
▁Tor	-10.1024
quant	-10.1028
▁gou	-10.1029
▁Londres	-10.1029
▁d'I	-10.1033
▁Entre	-10.1038
▁seraient	-10.104
▁patron	-10.1042
▁III	-10.1043
laire	-10.1044
bat	-10.1046
▁l'histoire	-10.1054
ong	-10.1057
ath	-10.1071
fin	-10.1073
69	-10.1075
▁courir	-10.1078
▁match	-10.1081
▁décida	-10.1082
▁moteur	-10.1088
▁piste	-10.1088
▁comptes	-10.1091
▁coût	-10.1093
▁pareille	-10.1098
▁Comp	-10.1099
lette	-10.11
▁ép	-10.1104
▁exécut	-10.1139
▁science	-10.114
▁Pourtant,	-10.1145
▁fixé	-10.1147
▁semblable	-10.1148
▁repart	-10.1157
▁comprit	-10.1159
▁d’ici	-10.1167
illée	-10.1168
ez-moi	-10.1169
▁bizarre	-10.1175
▁descendre	-10.1177
ald	-10.1177
otte	-10.1187
▁remis	-10.1187
▁jeté	-10.1188
▁toit	-10.1198
nny	-10.1201
issent	-10.1202
rac	-10.1203
▁dieux	-10.1204
▁She	-10.1204
écu	-10.1206
▁étranger	-10.1213
▁bouteille	-10.1216
▁guéri	-10.1216
ssin	-10.1219
▁phrase	-10.1232
▁modèle	-10.124
▁d’où	-10.1245
▁Art	-10.125
▁Dor	-10.1251
▁cerveau	-10.1251
lain	-10.1257
▁fumée	-10.1258
uer	-10.1264
▁connaît	-10.1268
▁composé	-10.1273
mber	-10.1281
▁finalement	-10.1283
mère	-10.1287
▁Cap	-10.1301
▁William	-10.1301
accompagne	-10.1303
rik	-10.1306
▁pure	-10.131
issance	-10.1312
▁lâche	-10.1312
▁blessure	-10.1312
ouille	-10.1314
-nous	-10.1319
oph	-10.1323
▁D’	-10.1324
▁soirée	-10.1324
▁Ol	-10.1324
▁inutile	-10.1325
▁compagnons	-10.1329
▁individu	-10.1331
ogne	-10.1333
▁voudrais	-10.1335
sui	-10.1335
▁rendit	-10.1345
▁l’est	-10.1351
▁post	-10.1352
▁professionnel	-10.1355
▁Ste	-10.1361
ssez	-10.1365
ctor	-10.137
▁violent	-10.1374
▁fasse	-10.1375
▁heureuse	-10.1377
▁blond	-10.1379
▁dit-elle.	-10.1385
▁rappelle	-10.1387
▁mépris	-10.1388
▁fri	-10.1391
▁ressemble	-10.1394
▁l’entrée	-10.1398
ôme	-10.1409
▁commande	-10.1411
omp	-10.1412
▁battre	-10.1422
▁civil	-10.1425
-on	-10.1428
▁protesta	-10.1429
▁1982	-10.143
▁divers	-10.1432
issaient	-10.1432
adresse	-10.1433
▁qu’au	-10.1435
▁celle-ci	-10.1441
▁gla	-10.1442
▁principe	-10.1449
▁permis	-10.145
qu’	-10.1451
▁drôle	-10.1453
▁matière	-10.1453
blo	-10.1454
▁vêtu	-10.1455
▁maladie	-10.1457
ait-il	-10.1458
▁roule	-10.1458
▁représente	-10.1466
▁chapeau	-10.147
▁Lé	-10.147
▁cousin	-10.1471
▁l'on	-10.1473
▁flic	-10.1474
▁lourde	-10.1475
▁prête	-10.1476
▁finir	-10.1481
▁principale	-10.1482
▁installé	-10.1487
▁Gui	-10.149
▁Ville	-10.1494
▁James	-10.1495
▁Français	-10.1502
▁Moi,	-10.1504
▁épaule	-10.1506
▁île	-10.1511
▁gravi	-10.1513
▁édition	-10.1513
▁l’emp	-10.1519
ote	-10.1525
attaque	-10.1527
▁gardes	-10.1532
▁aimé	-10.1533
▁détaillé	-10.1536
▁tapis	-10.1537
flé	-10.1543
tention	-10.1545
▁immobile	-10.1549
▁d’H	-10.155
aliste	-10.1551
▁lieux	-10.1551
▁contempla	-10.1557
▁lampe	-10.156
▁saisit	-10.1563
▁coucher	-10.1566
▁André	-10.1567
▁j’aurais	-10.1568
▁recul	-10.1569
▁solide	-10.157
-T	-10.1571
▁suffisamment	-10.1581
▁1994	-10.1584
▁bel	-10.1584
cule	-10.1585
▁planche	-10.1597
▁Fre	-10.1598
▁cho	-10.1598
▁Win	-10.1606
▁dollars	-10.1607
▁limite	-10.161
▁monta	-10.1614
▁disant	-10.1615
▁fleuve	-10.1615
▁cesse	-10.1616
▁sport	-10.1617
nonce	-10.1617
indre	-10.1618
▁réseau	-10.1624
▁supérieur	-10.1628
bran	-10.1631
▁arrêt	-10.1636
▁prévu	-10.164
▁Rh	-10.1641
▁Pen	-10.1645
▁Fau	-10.1645
▁voile	-10.1651
▁lointain	-10.1652
nger	-10.1658
▁somme	-10.1661
roch	-10.1667
viron	-10.1672
var	-10.1673
▁(D	-10.1675
▁ressemblait	-10.1687
▁1968	-10.1691
▁directeur	-10.1694
ski	-10.17
▁Pou	-10.1704
▁sèche	-10.1705
ola	-10.1709
iz	-10.1714
▁code	-10.1716
▁lieutenant	-10.1717
bilis	-10.1718
▁maîtresse	-10.1723
▁soupçon	-10.1724
▁entier	-10.1724
mine	-10.1727
▁doivent	-10.1728
▁Site	-10.173
ographie	-10.1731
▁d’accord	-10.1733
▁vallée	-10.1738
▁Malgré	-10.1741
▁serais	-10.1741
▁?????	-10.1746
▁Fla	-10.1747
▁répand	-10.1748
▁amie	-10.1749
▁consul	-10.175
▁Tro	-10.1759
▁Petit	-10.176
▁vouloir	-10.1761
▁gar	-10.1772
▁pain	-10.1774
▁serré	-10.1775
mil	-10.1777
▁l’inter	-10.1778
▁continu	-10.1779
▁publique	-10.1781
mann	-10.1783
▁toucher	-10.1791
▁radio	-10.1792
qu'	-10.1792
▁circonstance	-10.1794
▁difficulté	-10.1794
▁Han	-10.1794
▁saut	-10.1794
▁gaz	-10.1795
▁Min	-10.1796
▁sacré	-10.1796
gel	-10.1797
▁Wil	-10.1802
matique	-10.1803
fre	-10.1805
▁l’ordre	-10.1805
▁l’histoire	-10.1811
▁Superficie	-10.1811
▁jolie	-10.1822
dique	-10.1822
▁oncle	-10.1823
gur	-10.1832
▁Canada	-10.1833
assembl	-10.1834
▁toucha	-10.1835
▁Will	-10.1843
belle	-10.1845
nois	-10.1847
▁nulle	-10.185
▁levé	-10.1851
▁cinéma	-10.1851
▁pen	-10.1852
▁historique	-10.1855
▁1991	-10.1856
▁étage	-10.1861
old	-10.1865
prouve	-10.1866
▁banque	-10.187
▁suivit	-10.1873
lière	-10.1882
lien	-10.1888
▁épi	-10.1892
joint	-10.1893
▁payer	-10.1893
▁roula	-10.1895
▁gueule	-10.1895
voie	-10.1901
bot	-10.1902
▁dirait	-10.1903
▁etc.	-10.1904
approche	-10.1908
▁chère	-10.191
▁frais	-10.191
▁gare	-10.1914
▁Del	-10.1918
▁échange	-10.1918
▁continuer	-10.1918
▁?uvre	-10.192
▁manteau	-10.1921
▁Bla	-10.1927
▁l’épaule	-10.1929
viendra	-10.1931
▁personnel	-10.1935
▁réserve	-10.1939
▁longues	-10.194
▁retrouve	-10.1942
▁Frank	-10.1943
▁pres	-10.1944
▁subi	-10.1944
▁d’ét	-10.195
▁fum	-10.1954
observ	-10.1958
emment	-10.1961
▁naturel	-10.1963
▁1992	-10.1965
logue	-10.1966
▁pouvons	-10.1975
▁acte	-10.1976
▁remettre	-10.1993
▁s’assit	-10.1996
▁feuille	-10.1996
ignon	-10.2008
▁plaît	-10.2009
▁travaux	-10.2011
▁football	-10.2013
dition	-10.2013
ç	-10.2017
▁mange	-10.2018
▁désigna	-10.2021
▁croyez	-10.2021
mba	-10.2022
▁Ensuite	-10.2025
▁occasion	-10.2025
fect	-10.2027
▁troupe	-10.2028
▁honte	-10.2028
▁entière	-10.2029
archi	-10.2031
▁auparavant	-10.2034
▁Maître	-10.2035
▁gentil	-10.2042
▁fier	-10.2042
rich	-10.2042
▁profondément	-10.2045
▁souffla	-10.2052
-R	-10.2053
▁malheur	-10.2058
▁retenu	-10.2059
▁l’imp	-10.2063
▁géant	-10.2066
▁50	-10.2072
▁odeur	-10.2075
ctrice	-10.2075
▁communes	-10.2076
▁manche	-10.2078
▁devaient	-10.2078
▁travailler	-10.2079
▁s’ex	-10.208
ford	-10.2086
▁troupes	-10.2088
▁générale	-10.2088
crit	-10.209
▁unique	-10.2094
▁s’exclama	-10.2095
excuse	-10.2095
▁santé	-10.2103
▁prenant	-10.2106
▁reconnaître	-10.2109
▁brise	-10.211
▁tendre	-10.2112
Italie	-10.2114
▁faute	-10.2124
▁abandonné	-10.2129
▁Michael	-10.2131
▁réaction	-10.2133
▁vif	-10.2142
▁allaient	-10.2154
▁appelle	-10.2162
▁Fil	-10.217
▁Aussi	-10.2172
ula	-10.2173
Z	-10.2176
▁redressa	-10.2177
uch	-10.2177
landais	-10.218
▁Lou	-10.2181
-V	-10.2183
▁ennemi	-10.2185
▁éviter	-10.2188
▁folle	-10.2197
rouill	-10.2198
▁brave	-10.2201
euil	-10.2202
▁colle	-10.2207
mond	-10.2208
▁Maria	-10.2209
▁quinze	-10.2211
ttir	-10.2213
col	-10.2215
▁1993	-10.2216
▁révéla	-10.2221
ngu	-10.2222
▁essayer	-10.2222
▁Notes	-10.2224
▁attendant	-10.2227
▁permettre	-10.2232
▁remarquer	-10.2233
▁déjeuner	-10.2236
▁Beau	-10.2241
▁voici	-10.2242
▁Allez	-10.2246
chu	-10.2247
▁Gor	-10.2254
▁loge	-10.2255
▁km	-10.2256
▁sûrement	-10.226
rist	-10.226
oni	-10.2261
▁poussière	-10.2263
US	-10.2266
cca	-10.2267
▁dépl	-10.2269
nia	-10.2271
▁(en)	-10.2272
▁considéré	-10.2273
▁Dou	-10.2276
▁détails	-10.2277
esclave	-10.2285
dul	-10.2287
▁poisson	-10.2294
▁Sto	-10.2295
atoire	-10.23
▁erreur	-10.2303
▁répondu	-10.2306
▁barre	-10.2306
dri	-10.2308
▁Déc	-10.2314
▁commencer	-10.2317
▁interromp	-10.2319
▁ai-je	-10.2332
▁domestique	-10.2333
▁utilisa	-10.2334
▁décor	-10.2338
▁venaient	-10.2344
▁Quelque	-10.2344
▁réfléchir	-10.2355
▁activité	-10.2355
▁n’arriv	-10.2357
▁baron	-10.2358
▁1975	-10.236
icien	-10.2373
▁vieillard	-10.2378
▁frappé	-10.2379
▁essayé	-10.2384
▁outre	-10.2391
▁contenu	-10.2394
tage	-10.2401
▁trouvaient	-10.2403
tron	-10.2409
▁justice	-10.2409
▁accompli	-10.2417
▁raconter	-10.2418
essay	-10.2422
empereur	-10.2431
▁soldat	-10.2439
▁théâtre	-10.2441
▁issu	-10.2443
registre	-10.2449
▁Ly	-10.2453
▁joué	-10.2456
▁cacher	-10.2457
bul	-10.2463
▁Sor	-10.2466
▁formation	-10.2478
▁comprend	-10.248
▁programme	-10.2485
▁Coupe	-10.2488
lay	-10.2488
▁Simon	-10.2492
▁semblaient	-10.2492
▁Chaque	-10.2497
dol	-10.2501
pouvant	-10.2501
illard	-10.2507
▁avança	-10.251
cycl	-10.2511
La	-10.2514
ço	-10.2515
▁l’É	-10.2518
▁firent	-10.2521
▁voulut	-10.2523
▁pét	-10.2524
▁Fri	-10.2529
▁l’an	-10.2532
▁solution	-10.2536
▁événements	-10.254
▁teint	-10.2542
accord	-10.2542
▁franc	-10.2546
▁souffr	-10.2552
▁D'	-10.2553
▁princesse	-10.2554
ides	-10.2554
▁crainte	-10.2558
▁s’avança	-10.256
▁Cra	-10.2563
▁gal	-10.2563
▁dossier	-10.2568
▁légère	-10.2572
zar	-10.2573
▁lancé	-10.2577
▁sensation	-10.2579
▁tenu	-10.2582
▁calcul	-10.2584
oiseau	-10.2584
émi	-10.2588
▁carré	-10.2588
▁hum	-10.2594
▁conduit	-10.2599
▁31	-10.26
▁feuilles	-10.2601
▁doubles	-10.2602
▁sourd	-10.2604
▁Bell	-10.2604
▁monté	-10.2606
▁étais	-10.2611
▁obéi	-10.2616
▁remarqué	-10.2617
▁sérieux	-10.2618
quait	-10.2626
▁rocher	-10.2628
▁éclata	-10.2629
▁gars	-10.264
lade	-10.2641
▁qu'on	-10.2651
▁couverture	-10.2653
▁tient	-10.2653
▁ignora	-10.2661
▁directement	-10.2661
▁faux	-10.2662
▁secours	-10.2666
▁entreprise	-10.2668
▁poli	-10.2669
▁Georges	-10.267
▁développement	-10.2671
▁dizaine	-10.2674
▁referma	-10.2687
▁Fou	-10.2696
Afrique	-10.2699
phe	-10.2702
▁croyait	-10.2708
ffer	-10.2716
▁m’in	-10.2719
▁entièrement	-10.2724
▁appartement	-10.2725
▁Far	-10.2734
ssais	-10.2735
▁j'	-10.2738
▁l’entend	-10.2742
▁l’appel	-10.2744
▁ouvrir	-10.2747
▁suffi	-10.2749
▁Ier	-10.2764
▁détour	-10.2767
▁faudra	-10.2767
▁protection	-10.2771
▁abandon	-10.2773
▁production	-10.2777
▁You	-10.2782
▁assuré	-10.2788
▁Québec	-10.279
not	-10.2793
▁étendu	-10.2795
▁marquis	-10.2798
▁portant	-10.2798
▁quant	-10.2803
oï	-10.2809
tig	-10.281
▁bat	-10.2812
▁changement	-10.2814
în	-10.2815
▁recevoir	-10.2818
▁terreur	-10.2819
▁digne	-10.2831
▁réalisé	-10.2839
▁couleurs	-10.2841
▁fruit	-10.2844
▁portée	-10.2845
??	-10.2845
▁informations	-10.2852
▁émotion	-10.2871
▁l’obscurité	-10.2873
▁ennemis	-10.2874
▁tombé	-10.2878
ä	-10.288
idité	-10.2882
▁billet	-10.2888
▁100	-10.2893
▁n’avons	-10.2896
▁faim	-10.2899
▁morceau	-10.2904
▁hein	-10.291
▁aider	-10.2911
▁sinon	-10.2929
▁tribu	-10.2931
ancien	-10.2931
rupt	-10.2932
▁témoin	-10.2932
▁revoir	-10.294
▁serai	-10.2944
▁fan	-10.2945
accueil	-10.2945
ême	-10.2947
▁théorie	-10.2951
▁exige	-10.2952
▁employé	-10.2953
▁vécu	-10.2953
▁réduit	-10.2954
▁monument	-10.2958
▁utile	-10.2961
▁Sol	-10.2962
▁responsable	-10.2971
▁différence	-10.2972
▁découverte	-10.2976
way	-10.2977
nomie	-10.2979
▁refusa	-10.2981
▁création	-10.2983
▁mince	-10.2985
▁laissait	-10.2986
guer	-10.2987
uelle	-10.2988
poli	-10.2988
▁viendra	-10.3002
neau	-10.3003
▁principal	-10.3011
▁libéra	-10.3012
étudi	-10.3012
▁existence	-10.3012
▁animaux	-10.3013
▁DE	-10.3016
▁l’affaire	-10.3016
▁auquel	-10.3027
▁Thomas	-10.3028
▁dragon	-10.3031
▁ordonna	-10.304
▁flèche	-10.3041
▁lâcha	-10.3043
▁quarante	-10.3048
▁propose	-10.3049
▁arrivait	-10.3055
▁Inter	-10.3057
▁accident	-10.3069
▁Seul	-10.307
▁souleva	-10.307
▁échapper	-10.3073
▁l'im	-10.3074
▁cavalier	-10.308
lim	-10.3084
cade	-10.3089
Le	-10.309
uche	-10.3091
bré	-10.3102
▁Certains	-10.3105
▁Densité	-10.3105
▁croyais	-10.3105
▁montagnes	-10.3117
▁hab.	-10.3135
▁traversa	-10.3138
▁gamin	-10.3148
cile	-10.3154
▁acquiesça	-10.3156
bour	-10.3164
mble	-10.3166
▁L’un	-10.317
jet	-10.3171
ode	-10.3174
▁insista	-10.3174
▁agréable	-10.3176
▁chute	-10.3177
▁envahi	-10.3179
▁métal	-10.3181
rain	-10.3181
▁1980	-10.3186
▁conserva	-10.3189
▁bain	-10.319
▁doux	-10.3192
cout	-10.3198
▁particulière	-10.3198
▁Notre	-10.3203
▁=	-10.3206
▁tire	-10.3206
îmes	-10.3211
▁Men	-10.3216
▁qu’A	-10.3223
▁Grande	-10.3224
français	-10.3229
▁Zo	-10.3235
▁Qua	-10.3236
▁possibilité	-10.3239
▁véhicule	-10.3247
▁vivement	-10.3261
▁Canton	-10.3263
étroit	-10.3265
▁barbe	-10.3268
▁aujourd'hui	-10.3272
▁essai	-10.3276
gué	-10.3276
▁inférieur	-10.328
▁francs	-10.3281
▁curiosité	-10.3285
▁étoiles	-10.3285
▁cabine	-10.3294
▁toutefois	-10.3295
▁toile	-10.3297
▁invité	-10.3298
▁détail	-10.3298
▁réflexion	-10.33
▁sien	-10.3303
▁her	-10.3303
dore	-10.3305
▁Article	-10.331
▁fidèle	-10.3318
▁style	-10.3321
▁compter	-10.3321
▁National	-10.3332
▁Cy	-10.3334
▁élu	-10.3344
▁promis	-10.3345
▁1989	-10.3346
▁perte	-10.3349
▁désolé	-10.3352
▁capitale	-10.3354
▁nul	-10.3363
▁colonel	-10.3372
▁l’hôtel	-10.3374
▁Ku	-10.3374
▁merci	-10.3383
▁jailli	-10.3385
▁Source	-10.3388
▁mord	-10.3392
struc	-10.3395
▁Mort	-10.3399
▁l’espace	-10.3405
hérit	-10.3406
▁roche	-10.3406
▁pensais	-10.3411
▁sta	-10.3412
▁baiser	-10.3414
▁écu	-10.3425
▁jeunesse	-10.3429
▁remonta	-10.3441
▁Arrondissement	-10.3444
▁totalement	-10.3447
▁tournant	-10.345
UR	-10.3451
▁Temp	-10.3451
organisation	-10.3458
▁Rose	-10.346
▁policier	-10.346
▁hier	-10.3462
particulièrement	-10.3465
▁avait-il	-10.3471
▁pose	-10.3473
lation	-10.3477
tenant	-10.3478
▁serviteur	-10.3479
▁pistolet	-10.348
▁propriété	-10.348
(fr)	-10.3483
▁haine	-10.3484
▁violence	-10.3484
▁compagnon	-10.3485
▁Joe	-10.3485
▁fréquent	-10.3485
▁méthode	-10.3485
ouverture	-10.3486
▁App	-10.3486
▁Mel	-10.3487
hér	-10.3487
▁malheureux	-10.3491
▁choc	-10.3492
▁l’occasion	-10.3493
▁demandait	-10.3495
▁généralement	-10.3496
ku	-10.3498
▁fleur	-10.3502
▁Communes	-10.3506
▁Adam	-10.3511
▁temple	-10.352
chapp	-10.3525
▁n°	-10.3525
▁ira	-10.3526
▁tre	-10.3534
▁scientifique	-10.3535
▁commis	-10.3541
▁conduire	-10.3545
▁j’y	-10.3548
▁Roland	-10.3549
▁social	-10.355
▁Noir	-10.355
▁l’avoir	-10.3553
▁fit-il	-10.3559
▁masque	-10.356
▁doré	-10.3561
bur	-10.3562
▁Roi	-10.3565
▁critique	-10.3567
▁assise	-10.357
▁magnifique	-10.3574
terre	-10.3577
▁(R	-10.3579
▁faveur	-10.3582
▁l'autre	-10.3582
▁romain	-10.3584
▁mondiale	-10.3586
▁banc	-10.3593
▁intention	-10.3599
▁qu'un	-10.3606
tran	-10.3606
ivre	-10.3612
▁conséquence	-10.3616
▁dangereux	-10.3619
▁armé	-10.362
pic	-10.3623
coup	-10.3629
got	-10.3629
▁1988	-10.3632
▁talent	-10.3633
▁nourriture	-10.3635
fait	-10.3636
iale	-10.3638
▁fraîche	-10.364
▁Suisse	-10.364
▁souviens	-10.3647
▁souffrance	-10.3651
▁atteign	-10.3658
▁dressa	-10.3658
plication	-10.3667
▁Joseph	-10.3669
▁murmure	-10.3672
▁accompagné	-10.3677
▁rive	-10.3678
▁Julie	-10.3678
▁paquet	-10.3681
▁sale	-10.3682
▁devenue	-10.3687
▁personnelle	-10.3697
▁pressa	-10.3703
▁Christ	-10.3705
▁camarade	-10.3706
▁s'il	-10.3715
▁support	-10.3722
▁précipita	-10.3725
▁distingue	-10.3733
▁moderne	-10.3736
-O	-10.3737
▁imagina	-10.374
▁bibliothèque	-10.3741
▁vampire	-10.3741
▁coffre	-10.3742
▁plafond	-10.3744
▁retira	-10.3757
▁voudra	-10.3758
»	-10.3758
▁sienne	-10.3759
▁statue	-10.3762
▁tableau	-10.3771
▁pêche	-10.3772
▁frontière	-10.3773
▁d’après	-10.3778
▁d’I	-10.378
▁trouble	-10.3787
cup	-10.3794
▁Encore	-10.3795
▁War	-10.3796
▁obscur	-10.3797
tendre	-10.3798
▁Prince	-10.3798
▁désespéré	-10.3802
▁menton	-10.3802
▁serpent	-10.3813
press	-10.3818
▁fatigué	-10.3819
emploi	-10.3821
▁Ham	-10.3823
▁pattes	-10.3827
▁diffus	-10.3827
▁expliquer	-10.3831
▁Majesté	-10.3832
mination	-10.3834
▁ceinture	-10.3835
▁remercie	-10.3835
▁retard	-10.3849
▁bref	-10.3849
èvre	-10.3851
▁expérience	-10.3851
▁ceci	-10.3852
▁traité	-10.3856
▁retraite	-10.3857
▁dépend	-10.3858
▁cigarette	-10.386
dieu	-10.3861
▁cellule	-10.3862
▁documents	-10.3863
▁aperçut	-10.3869
pais	-10.387
▁économique	-10.387
▁seuil	-10.3872
▁Cré	-10.3878
▁rentra	-10.3879
▁poignée	-10.3883
▁ressenti	-10.3884
esca	-10.3893
▁écouta	-10.3896
▁admira	-10.3903
atrice	-10.3904
▁adversaire	-10.3905
▁entrée	-10.3905
▁L’é	-10.3906
-3	-10.3915
▁suffit	-10.3917
▁sépara	-10.3921
▁hâte	-10.3922
▁marqué	-10.3927
▁aimait	-10.3933
▁m'	-10.3934
▁milliers	-10.3938
neur	-10.3946
wan	-10.395
plomb	-10.395
▁attaché	-10.3954
▁Cé	-10.3954
win	-10.3954
▁officielle	-10.3956
▁40	-10.396
▁Pont	-10.3961
▁exact	-10.3963
▁rappel	-10.3964
▁parfum	-10.3967
▁aperçu	-10.3967
▁ténèbres	-10.3967
-sur-	-10.3975
▁Regarde	-10.3975
▁propriétaire	-10.3978
▁pend	-10.3982
▁Henry	-10.3984
▁l’avais	-10.3986
▁flanc	-10.3987
▁acteur	-10.3988
▁Cri	-10.3993
▁apprendre	-10.3993
▁cadre	-10.4
▁participe	-10.4001
▁Anna	-10.4002
▁secrétaire	-10.4003
▁facilement	-10.4003
▁naturelle	-10.4007
▁bébé	-10.4008
▁Tim	-10.4008
▁occupe	-10.4009
▁annonce	-10.4013
▁rendait	-10.4014
▁Altitude	-10.4019
▁sueur	-10.4022
▁rencontrer	-10.4025
▁douze	-10.4031
▁apporte	-10.4032
▁Nombre	-10.4032
▁fonctionne	-10.4033
▁micro	-10.4038
▁s’éloigna	-10.4039
▁représentant	-10.4041
▁études	-10.4043
▁Phil	-10.4048
▁colonne	-10.4057
ffre	-10.4061
▁résolu	-10.407
▁J’a	-10.4071
traction	-10.4073
▁postal	-10.4073
èque	-10.4074
▁plateau	-10.4075
▁hab./km2	-10.4077
-18	-10.4082
jour	-10.4086
▁extra	-10.4088
▁brisé	-10.4089
▁réellement	-10.409
▁condamné	-10.4094
▁battu	-10.4096
▁multi	-10.4098
▁remit	-10.4098
▁verra	-10.4103
▁montré	-10.4104
▁d'être	-10.4105
▁ordinaire	-10.4106
▁vend	-10.4107
▁divin	-10.4111
hou	-10.4116
▁pénétra	-10.4121
▁Biographie	-10.4128
▁irré	-10.413
▁colla	-10.413
▁dessous	-10.4133
ayant	-10.4135
▁animal	-10.4135
▁Barb	-10.4137
▁interne	-10.4138
▁espoir	-10.4141
▁opération	-10.4146
▁apparaît	-10.4146
▁nation	-10.4147
analyse	-10.4149
▁chrétien	-10.4152
▁l’époque	-10.416
▁IV	-10.4161
▁flo	-10.4162
▁van	-10.4163
▁Oui	-10.4163
▁Ara	-10.4168
▁tache	-10.4169
▁précaution	-10.4169
▁ouvrage	-10.4171
▁vidéo	-10.4174
cens	-10.4177
imer	-10.4178
▁bloc	-10.4179
▁J’aurais	-10.418
▁m’avez	-10.4184
▁Voir	-10.4188
▁égal	-10.4189
▁futur	-10.4189
apparition	-10.42
▁Gau	-10.4201
▁importance	-10.4205
▁devons	-10.4206
▁Maire	-10.4209
ward	-10.421
▁dieu	-10.4213
▁Chan	-10.4213
opéra	-10.4215
▁touché	-10.4216
▁reconnais	-10.4224
▁Wikipédia	-10.4227
ball	-10.423
▁manifeste	-10.423
morph	-10.4231
▁meurt	-10.4231
▁conserve	-10.4233
▁Léon	-10.4237
▁continuait	-10.4238
▁folie	-10.4239
▁commerce	-10.4239
▁Belgique	-10.4241
▁coupable	-10.4244
▁marcha	-10.4246
▁pitié	-10.425
▁Anne	-10.4256
▁goutte	-10.426
▁s’arrête	-10.426
▁électrique	-10.4261
▁oreille	-10.4263
▁(TV)	-10.4272
low	-10.4277
▁supérieure	-10.4284
▁populaire	-10.4286
inspecteur	-10.4288
2006	-10.4289
▁étiez	-10.4291
▁Sainte	-10.4294
▁rideau	-10.4295
▁poignet	-10.4295
▁Écoute	-10.4297
nov	-10.4303
▁tiens	-10.4309
▁est-il	-10.4315
▁apparut	-10.4323
▁défend	-10.4325
▁Cho	-10.4327
▁finale	-10.433
▁Stu	-10.4332
▁extérieur	-10.4334
▁plume	-10.4335
▁stupide	-10.4337
▁Selon	-10.4338
oyant	-10.434
▁album	-10.4343
▁dépit	-10.4343
▁Genre	-10.4345
écoute	-10.4351
▁touche	-10.4351
page	-10.4356
▁affront	-10.4357
rak	-10.436
▁(J	-10.4362
▁chéri	-10.4364
▁Géographie	-10.4365
▁l’arrière	-10.4368
▁lesquels	-10.4368
▁Club	-10.4371
▁Daniel	-10.4373
▁assassin	-10.4379
▁Mary	-10.4382
▁méta	-10.4385
[3]	-10.4388
▁Shi	-10.439
▁mademoiselle	-10.4391
▁s’éleva	-10.4398
▁porté	-10.4399
▁Guy	-10.4399
▁pression	-10.4403
▁glisser	-10.4407
ppu	-10.4411
”	-10.4417
▁gardien	-10.4419
percevoir	-10.442
▁ruine	-10.4422
▁au-delà	-10.4422
▁descendit	-10.4423
▁serre	-10.4424
▁bière	-10.4426
▁Albert	-10.4426
▁direct	-10.4428
prendre	-10.4436
▁Russie	-10.4437
élection	-10.4448
▁eaux	-10.4453
AT	-10.4456
▁glacé	-10.4457
▁mil	-10.4458
▁Dom	-10.4459
▁appela	-10.4464
▁raconte	-10.4467
▁courte	-10.4469
bro	-10.447
▁convaincu	-10.4474
nerie	-10.4478
▁autrefois	-10.448
▁évident	-10.4488
▁race	-10.4492
▁radi	-10.4492
▁séjour	-10.4495
▁approche	-10.4496
▁tenter	-10.4497
apport	-10.4498
▁fantôme	-10.4503
▁Morane	-10.4503
Angleterre	-10.4503
▁Pra	-10.4516
▁coupé	-10.4517
▁attendu	-10.452
«	-10.4521
▁abri	-10.4523
▁moyenne	-10.453
▁Premier	-10.4537
▁trône	-10.4538
▁quantité	-10.4542
▁Flo	-10.4543
rick	-10.4545
▁Tant	-10.4547
▁collection	-10.4551
▁prière	-10.4552
▁réalisa	-10.4553
bond	-10.4555
▁ressort	-10.4557
▁s’em	-10.4559
▁d’ép	-10.456
▁évolu	-10.4562
▁Angel	-10.4566
▁rappeler	-10.4567
▁intéressant	-10.4572
▁désespoir	-10.4575
▁D’accord	-10.4578
▁Matt	-10.4583
▁matériel	-10.4584
▁chasseur	-10.4601
▁passée	-10.4602
▁recula	-10.4611
ome	-10.4616
▁heurt	-10.4618
▁désigne	-10.4621
court	-10.4623
▁1981	-10.4634
▁d'Ar	-10.4634
histoire	-10.464
▁tord	-10.4642
▁grec	-10.4643
▁empêcher	-10.4645
▁publié	-10.4645
▁(T	-10.4648
▁frapper	-10.4651
ône	-10.4652
▁frisson	-10.4653
▁pantalon	-10.4656
ploy	-10.4657
tisme	-10.4661
▁lancer	-10.467
▁raconta	-10.4678
▁formé	-10.4681
▁bâti	-10.4681
▁Mark	-10.4683
▁étonné	-10.4687
▁appareil	-10.469
▁rond	-10.4691
▁tourne	-10.4692
IT	-10.4699
▁couple	-10.4702
férence	-10.4704
▁1970	-10.4711
▁indiqua	-10.4723
▁comprenait	-10.4724
▁horrible	-10.4727
▁l'équipe	-10.4729
zon	-10.4729
▁Japon	-10.473
▁Voici	-10.4734
▁Roger	-10.4745
▁Soudain	-10.4753
▁Bernard	-10.4758
bâ	-10.476
ibilité	-10.4769
▁l’avaient	-10.4771
▁maman	-10.4773
▁Hal	-10.4775
▁~	-10.4775
▁Maison	-10.4779
▁Victor	-10.478
▁voulez-vous	-10.4782
▁conduite	-10.4782
▁partage	-10.4789
▁souverain	-10.4795
étoile	-10.4795
▁beaux	-10.4797
▁allée	-10.4798
▁canton	-10.4798
▁affirma	-10.4801
▁métier	-10.4801
▁cherchait	-10.4804
▁vendre	-10.4809
▁constitue	-10.4812
lance	-10.4815
▁mettait	-10.4815
▁joli	-10.4819
▁Administration	-10.4821
▁préféra	-10.4824
logie	-10.4827
▁Ken	-10.4831
▁marié	-10.4835
▁gagna	-10.4836
▁Président	-10.4842
chin	-10.4846
▁1986	-10.4846
▁pomme	-10.4847
▁plaine	-10.4852
▁présenter	-10.4852
▁reconnut	-10.4855
http://	-10.4857
instinct	-10.4863
▁flotte	-10.4869
object	-10.4871
▁Lors	-10.4872
2007	-10.4873
▁proie	-10.4879
▁âgé	-10.4882
▁Alex	-10.4883
▁discours	-10.4884
▁charmant	-10.4887
▁remarque	-10.4891
viens	-10.4892
jon	-10.4896
aison	-10.4898
▁journaliste	-10.4899
▁chagrin	-10.4902
▁tenté	-10.4905
▁jeux	-10.4906
▁averti	-10.4908
zza	-10.4909
▁bouton	-10.4915
idae	-10.4918
▁gagné	-10.4923
▁évidemment	-10.4926
▁(F	-10.4932
▁jure	-10.4939
▁paysan	-10.4945
▁casque	-10.4947
-Ro	-10.4947
▁j'ai	-10.4963
▁Jeanne	-10.4963
▁m'a	-10.4965
▁religion	-10.4971
trou	-10.4971
▁plaque	-10.4975
▁disposition	-10.4975
▁drap	-10.4977
▁pénible	-10.4977
▁réagi	-10.4977
rait-il	-10.4981
▁ailes	-10.4984
▁progress	-10.4987
▁L'A	-10.4989
▁débat	-10.4989
▁promet	-10.4989
▁Dame	-10.499
▁britannique	-10.4992
▁sursaut	-10.4994
orn	-10.4999
▁disparaître	-10.5
▁Poirot	-10.5004
courage	-10.5004
▁détourna	-10.5006
▁recon	-10.5006
▁communication	-10.5007
▁retenti	-10.5008
▁réussit	-10.5019
▁magique	-10.502
▁oublier	-10.5024
▁réel	-10.5028
▁humide	-10.5031
▁tenue	-10.5031
▁obtenir	-10.5033
▁rendez-vous	-10.5039
▁souhaite	-10.5042
▁(G	-10.5046
▁entouré	-10.5049
▁extraordinaire	-10.5053
▁Maurice	-10.5056
▁mention	-10.5056
▁ralenti	-10.5062
▁dispose	-10.5068
chou	-10.5077
▁détruit	-10.5077
▁conseiller	-10.5079
AS	-10.508
▁rougi	-10.5081
▁Ici	-10.5082
▁original	-10.5083
▁curieux	-10.5089
intelligence	-10.5094
▁mérite	-10.5096
▁silencieux	-10.5105
▁disparut	-10.5112
▁commissaire	-10.5117
▁Celui-ci	-10.512
▁remet	-10.5121
▁ISBN	-10.5123
▁jambe	-10.5129
▁régn	-10.5132
ez-le	-10.5139
▁soutien	-10.5144
▁tempête	-10.5144
▁Fort	-10.5146
▁uniquement	-10.5148
fice	-10.5151
▁fatigue	-10.5154
▁parcouru	-10.5154
▁1987	-10.5157
▁mien	-10.5171
▁(de	-10.5173
▁défendre	-10.5175
▁costume	-10.5178
▁l’armée	-10.5178
▁vitre	-10.5183
▁révolution	-10.5192
▁n’aura	-10.5193
équilibre	-10.5194
▁ménage	-10.5196
▁structure	-10.52
▁russe	-10.5201
▁guide	-10.521
▁revanche	-10.5212
▁plongé	-10.5215
▁porta	-10.5219
▁vibr	-10.5219
▁appeler	-10.5223
épisode	-10.5224
▁sociale	-10.5228
▁assura	-10.5228
fon	-10.5228
▁aventure	-10.5231
onyme	-10.5232
▁peinture	-10.5237
▁devrais	-10.5238
▁mental	-10.5246
▁féminin	-10.5246
-Ma	-10.5249
association	-10.5249
évêque	-10.5265
spiration	-10.5267
▁volé	-10.5271
▁préparer	-10.5276
▁couché	-10.5277
▁sauvé	-10.5279
-E	-10.5281
▁tenant	-10.5282
▁étroite	-10.5284
▁couronne	-10.5287
▁fur	-10.5291
▁cabinet	-10.5291
OU	-10.5292
▁psycho	-10.5293
▁patient	-10.5295
▁Mlle	-10.5298
▁dirai	-10.5301
▁honneur	-10.5315
▁Super	-10.5319
▁délicate	-10.5325
▁sert	-10.5326
▁Plan	-10.5327
Q	-10.5327
▁pousser	-10.5335
immo	-10.5335
▁D’ailleurs	-10.5343
▁parvint	-10.5348
▁Qu	-10.5348
▁salut	-10.5353
▁joua	-10.5363
abilité	-10.5367
LE	-10.5371
▁Stra	-10.5371
excit	-10.5374
▁Blo	-10.5376
▁n'y	-10.5377
▁brûle	-10.538
▁moque	-10.5381
▁demanda-t-elle	-10.5384
’attend	-10.5386
▁approcha	-10.5387
▁miroir	-10.539
-4	-10.5398
▁excellent	-10.5403
▁crise	-10.5403
▁éprouva	-10.5409
▁adresse	-10.5412
▁contente	-10.5413
▁traverser	-10.5414
▁espagnol	-10.5418
cap	-10.5419
NE	-10.5424
▁Dites	-10.5424
▁personnalité	-10.5425
▁sanglot	-10.5432
▁liquide	-10.5437
▁volume	-10.5441
▁donnant	-10.5441
▁Juste	-10.5446
▁épaisse	-10.5447
▁communauté	-10.5453
▁Famille	-10.5459
▁cérémonie	-10.5466
▁supporter	-10.5466
▁normal	-10.5469
wen	-10.5469
▁Première	-10.5472
▁associé	-10.5472
▁Bolitho	-10.5478
▁autrement	-10.5479
▁paraître	-10.5482
▁Camp	-10.5494
▁acco	-10.5498
▁prochaine	-10.5499
▁May	-10.5499
▁américaine	-10.5501
▁sauter	-10.5501
▁œuvre	-10.5512
▁complexe	-10.5513
▁pourraient	-10.5513
▁honnête	-10.5515
▁pilote	-10.5518
▁Fra	-10.5518
rian	-10.552
▁prenne	-10.5523
▁renseignement	-10.5526
tivité	-10.5528
visage	-10.5529
▁paupières	-10.5529
SS	-10.5534
▁paysage	-10.5535
▁douceur	-10.5538
▁école	-10.5538
▁frémi	-10.5542
cker	-10.5546
▁auteur	-10.5548
▁Classe	-10.555
▁“	-10.5552
▁Père	-10.5555
▁arc	-10.5562
Australie	-10.5562
▁Hy	-10.5566
▁sauve	-10.557
▁Maintenant	-10.557
▁tentative	-10.5573
▁atteindre	-10.5574
▁viennent	-10.5581
▁oiseaux	-10.5584
▁volant	-10.5584
▁test	-10.5589
alys	-10.5596
▁reprises	-10.5598
▁fronça	-10.56
▁qu'une	-10.56
▁concerne	-10.56
▁favori	-10.5601
ambi	-10.5602
▁cy	-10.5605
▁langage	-10.5607
▁député	-10.5616
▁autorité	-10.5618
▁n'était	-10.5619
▁capacité	-10.5619
▁45	-10.562
▁plage	-10.5625
▁Chine	-10.5626
allum	-10.563
RA	-10.5631
▁Cre	-10.5631
▁pleurer	-10.5633
gation	-10.5633
▁apporté	-10.5653
▁division	-10.5654
▁camion	-10.5655
▁Europe	-10.5655
-et-	-10.5662
TE	-10.5667
▁maigre	-10.5672
▁quai	-10.5675
▁Star	-10.5679
▁quasi	-10.568
▁fallu	-10.5682
▁regret	-10.5688
▁1984	-10.57
▁moine	-10.57
▁Mandat	-10.5703
▁trésor	-10.5706
▁royale	-10.5708
▁Arthur	-10.5709
▁morceaux	-10.571
▁quelconque	-10.5713
▁lié	-10.5714
row	-10.5715
▁Championnat	-10.5726
apprêt	-10.5728
▁destinée	-10.5731
▁Combien	-10.5732
inquiète	-10.5733
▁cloche	-10.5733
▁Haute	-10.5733
▁Allemagne	-10.5737
▁mystère	-10.5739
▁naturellement	-10.5739
▁plonge	-10.5743
explor	-10.5745
▁qualifi	-10.5746
puis	-10.5749
▁rentré	-10.5756
▁répondit-il	-10.5756
▁pente	-10.5757
▁contour	-10.5758
▁traversé	-10.5758
riez-vous	-10.5762
▁grossi	-10.577
▁d'Al	-10.5771
gua	-10.5777
▁Sho	-10.5782
▁poursuit	-10.5783
▁réalise	-10.5785
ting	-10.5793
▁obtenu	-10.5797
▁instrument	-10.5804
Univers	-10.5806
000	-10.5811
viv	-10.5813
▁bouger	-10.5814
▁invisible	-10.5824
▁(2	-10.5824
▁reproche	-10.5824
▁discuter	-10.5837
▁réunion	-10.5837
▁distinct	-10.584
hel	-10.5842
▁discussion	-10.5847
▁majeur	-10.5851
▁explication	-10.5851
▁peintre	-10.5859
▁Catherine	-10.5863
▁devenait	-10.5868
▁chiffre	-10.5871
▁néanmoins	-10.5873
▁verte	-10.5878
▁n’étais	-10.588
▁LE	-10.588
▁Myron	-10.5882
▁furieux	-10.5887
▁Air	-10.5889
-lui	-10.5894
▁télévision	-10.5898
▁traîna	-10.5901
▁Claude	-10.5901
▁attendit	-10.5906
▁d'ex	-10.5908
icule	-10.5908
▁bâton	-10.591
+	-10.591
▁magasin	-10.5913
▁Date	-10.5913
▁interdit	-10.5919
▁satisfait	-10.5919
band	-10.5927
ulation	-10.5932
▁préoccup	-10.5933
August	-10.5937
▁gardé	-10.5943
▁étudiant	-10.5943
▁mirent	-10.5944
▁héros	-10.5947
▁d’Al	-10.5947
▁cacha	-10.595
lyn	-10.595
pte	-10.5951
▁papa	-10.5953
▁silencieuse	-10.5956
▁chaude	-10.5957
▁risqua	-10.5957
assis	-10.5957
▁s'agit	-10.5957
▁d’années	-10.5959
▁longueur	-10.5961
èche	-10.5972
▁Ang	-10.5972
▁Seulement	-10.5976
▁sorcier	-10.5976
▁Tandis	-10.5976
▁riant	-10.5977
▁toilette	-10.5978
▁cata	-10.598
▁tombée	-10.5992
▁industrie	-10.5993
▁brume	-10.5996
▁accueilli	-10.5996
▁coude	-10.5998
▁l'époque	-10.6003
▁lecture	-10.6015
▁Démographie	-10.6016
▁Fro	-10.6017
▁ronde	-10.6027
ssou	-10.6032
▁Stan	-10.6032
▁croix	-10.6036
▁motif	-10.6036
▁rejoint	-10.6036
ical	-10.6039
▁l'armée	-10.604
▁gré	-10.6041
▁Celui	-10.6042
▁Communauté	-10.6043
▁boulot	-10.6048
▁État	-10.6049
établissement	-10.605
▁complet	-10.6052
field	-10.6054
▁pape	-10.6059
▁boutique	-10.6063
▁n’aurais	-10.6067
▁XI	-10.607
▁logique	-10.6077
▁Form	-10.6081
▁Quelqu’un	-10.6083
▁congé	-10.6085
▁Kat	-10.6086
▁(N	-10.6089
▁Var	-10.6089
▁bassin	-10.6091
▁s’étend	-10.6094
▁comptait	-10.6095
▁l’attend	-10.6097
▁Garde	-10.6098
▁fuite	-10.6099
Allemagne	-10.6102
▁minuscule	-10.6104
▁profondeur	-10.6111
▁précédente	-10.6114
2005	-10.6114
ding	-10.6116
▁origine	-10.6117
▁Mère	-10.6129
▁s’ouvrit	-10.6131
▁intelligent	-10.6134
▁relative	-10.6134
▁retourne	-10.6148
▁muraille	-10.6151
▁éloigné	-10.6158
▁termina	-10.6161
attraper	-10.6163
▁emprunt	-10.6165
▁endormi	-10.6165
▁prononcé	-10.6168
▁soigneusement	-10.6175
▁l'année	-10.6175
là	-10.6177
▁magicien	-10.6178
▁Période	-10.6181
▁Trans	-10.6182
▁voisine	-10.62
▁citoyen	-10.6202
▁grand-chose	-10.6202
▁pouce	-10.6204
▁1983	-10.621
▁artiste	-10.6212
▁indépendant	-10.6226
▁lesquelles	-10.6226
▁Ceux	-10.6229
▁Département	-10.6229
▁??????????	-10.6236
▁espace	-10.624
▁m’ont	-10.6245
▁justement	-10.6245
▁(ou	-10.6246
▁Cinq	-10.6247
▁offre	-10.6251
▁sélection	-10.6259
ordre	-10.6261
▁successifs	-10.6264
▁King	-10.6266
wood	-10.6267
▁plongea	-10.6268
▁conclu	-10.6268
▁malheureuse	-10.6275
▁fausse	-10.6278
Un	-10.628
▁jusqu’aux	-10.6283
▁viande	-10.6284
▁recev	-10.6285
arrach	-10.6288
▁d'origine	-10.6291
▁étrangère	-10.6294
▁l’île	-10.6298
▁rude	-10.63
honor	-10.6301
▁écrire	-10.6305
attache	-10.6306
▁préféré	-10.6308
▁muni	-10.6318
▁avez-vous	-10.632
▁(E	-10.6323
-6	-10.6323
▁accent	-10.6335
▁nouvel	-10.6335
▁séparé	-10.634
éducation	-10.6345
Institut	-10.6352
▁cheminée	-10.6357
▁Pitt	-10.6358
aël	-10.6372
▁l’effet	-10.6374
▁repoussa	-10.6375
▁messieurs	-10.6377
fond	-10.6379
accus	-10.6381
▁Toi	-10.6382
voca	-10.6383
▁hall	-10.6387
▁l’avant	-10.6387
▁raconté	-10.6391
▁Fred	-10.6397
▁failli	-10.6398
▁examina	-10.6398
élimin	-10.6403
mais	-10.6414
▁plaisant	-10.6425
▁soie	-10.6426
▁battant	-10.6429
▁correct	-10.6432
▁accepté	-10.6433
gramme	-10.6437
▁(17	-10.6438
▁arbre	-10.6446
▁secrète	-10.6454
▁censé	-10.6456
▁apparence	-10.6458
▁normale	-10.6461
taine	-10.6462
gro	-10.6465
▁métallique	-10.6466
hib	-10.647
▁apparemment	-10.6472
acteur	-10.6473
▁géo	-10.6481
▁sauta	-10.6482
▁1985	-10.649
▁dépens	-10.6491
▁comtesse	-10.6499
▁entendait	-10.6499
▁comédie	-10.6501
▁Titre	-10.6505
▁tissu	-10.6511
▁galerie	-10.6519
▁?(19	-10.6521
▁J'ai	-10.6521
▁regrette	-10.6521
▁revue	-10.6522
▁Ron	-10.6524
▁l’aube	-10.6526
▁pleura	-10.6535
▁précise	-10.6539
▁l’avez	-10.6544
▁engagé	-10.6551
▁italien	-10.6554
▁catholique	-10.656
▁disque	-10.6563
▁précédent	-10.6566
▁considérable	-10.657
étrange	-10.6572
▁représenta	-10.6584
▁diverses	-10.6585
▁charme	-10.6585
▁d'eau	-10.6587
▁fuir	-10.6593
▁Black	-10.6597
▁poil	-10.6603
scendant	-10.6604
▁d’É	-10.6605
▁certitude	-10.6606
▁disponible	-10.6606
▁amené	-10.6611
▁Clo	-10.6615
▁aviez	-10.6617
▁n’es	-10.6623
ning	-10.6624
path	-10.6625
▁veulent	-10.6627
▁internationale	-10.6628
équipe	-10.6631
▁journaux	-10.6634
▁température	-10.6638
▁escalier	-10.6638
▁mêlé	-10.6638
▁manifesta	-10.6641
▁misérable	-10.6641
▁soixante	-10.6641
▁commercial	-10.6641
▁actuel	-10.665
▁centrale	-10.6659
▁retenir	-10.666
▁pousse	-10.666
▁voyais	-10.6663
▁1976	-10.6663
▁génération	-10.6664
oxy	-10.6665
▁disposé	-10.6667
▁trouvai	-10.6668
▁participa	-10.6669
▁lunettes	-10.6669
▁conçu	-10.6674
▁remonter	-10.6677
▁humeur	-10.668
▁1971	-10.6681
▁intervint	-10.6684
▁plaint	-10.6686
▁crier	-10.6689
▁valait	-10.6694
▁n’êtes	-10.6695
▁1960	-10.6698
▁sévère	-10.6698
2004	-10.6707
▁contraint	-10.6709
▁termine	-10.671
▁tasse	-10.6712
▁crut	-10.6714
heure	-10.6716
▁tunnel	-10.6717
▁sentier	-10.6722
▁Fran	-10.6723
▁voler	-10.6726
écrire	-10.6729
illusion	-10.6739
▁souffrir	-10.6742
RI	-10.6742
’oubli	-10.6742
gnon	-10.6764
▁écho	-10.6764
▁Latitude	-10.6767
▁protégé	-10.6774
▁talons	-10.6776
▁sinistre	-10.6781
▁Abd	-10.6784
▁Dick	-10.679
▁district	-10.6792
▁portrait	-10.6792
▁revient	-10.6793
▁défaut	-10.6797
▁sergent	-10.6798
connu	-10.6799
▁tint	-10.68
▁garni	-10.68
▁méchant	-10.6801
▁destiné	-10.6801
▁document	-10.6805
▁midi	-10.6805
▁claque	-10.6808
▁piège	-10.6809
▁ridicule	-10.681
▁Nicolas	-10.6812
▁servait	-10.6812
▁traduction	-10.6813
▁l'État	-10.6814
▁idiot	-10.6814
▁dimanche	-10.6814
▁créer	-10.6821
▁s'in	-10.6822
ó	-10.6825
▁fasci	-10.6825
ZZ	-10.6828
▁Mike	-10.6835
▁Long	-10.6837
▁Bourg	-10.6837
▁vérifier	-10.6839
▁vertu	-10.684
▁music	-10.6845
▁complète	-10.6846
▁J’espère	-10.685
▁négoci	-10.6854
▁muscles	-10.686
▁veste	-10.6862
change	-10.6863
▁résistance	-10.6866
▁ajouta-t-il	-10.6867
▁Mill	-10.6871
▁règne	-10.6872
▁retirer	-10.6872
▁(Elle	-10.6872
▁poète	-10.6873
▁phénomène	-10.6876
▁préparé	-10.688
▁utiliser	-10.6881
prise	-10.689
▁s’occupe	-10.689
well	-10.6891
▁s’efforça	-10.6894
▁poursuivre	-10.6898
▁épais	-10.6899
▁intérieure	-10.69
▁nage	-10.6903
▁lorsqu’elle	-10.6912
▁payé	-10.6915
▁l’extérieur	-10.6916
▁possédait	-10.6916
burg	-10.6916
▁m’est	-10.6922
culé	-10.6929
▁poule	-10.6946
▁gouverneur	-10.6947
▁promesse	-10.6949
▁apporta	-10.6951
▁pique	-10.6956
▁l’âme	-10.6956
▁habitude	-10.6958
▁XV	-10.696
▁Monde	-10.6961
▁précisément	-10.6964
▁musée	-10.6966
▁légende	-10.6967
▁n'avait	-10.6968
▁chinois	-10.6969
▁Cast	-10.6975
▁arrêter	-10.6979
▁allongé	-10.6982
▁réservé	-10.6983
▁(V	-10.6986
▁Ob	-10.6987
▁mélange	-10.699
▁criminel	-10.6991
▁Angleterre	-10.6996
▁hurlement	-10.7001
▁avantage	-10.7008
▁préfère	-10.701
▁d’An	-10.7014
▁West	-10.7016
▁connaissez	-10.7024
▁inquiet	-10.7026
▁manquait	-10.704
▁convaincre	-10.7041
▁offert	-10.7045
▁constitué	-10.7049
▁caressa	-10.7053
▁menti	-10.7054
▁Grâce	-10.7056
▁Champ	-10.7057
▁attitude	-10.706
▁débarrasser	-10.7064
▁sincère	-10.7064
▁grain	-10.7068
▁traitement	-10.7068
▁démographique	-10.7078
▁déclare	-10.708
kov	-10.7085
▁Gil	-10.7085
▁boucle	-10.7088
▁brûlant	-10.7088
▁l’ancien	-10.7091
▁concert	-10.7092
▁rythme	-10.7093
▁dirigé	-10.7094
œuvre	-10.7095
▁Longitude	-10.7098
▁organisé	-10.7105
▁hôte	-10.7108
▁1979	-10.7119
▁épuisé	-10.7124
▁mienne	-10.7129
fou	-10.7135
▁offrir	-10.7138
▁l'île	-10.7142
▁opposé	-10.7142
▁quatrième	-10.7146
▁innocent	-10.7149
▁sorcière	-10.7153
édition	-10.7156
▁revolver	-10.7161
▁étape	-10.7161
▁apparu	-10.7168
▁consomm	-10.7179
▁planté	-10.7181
amine	-10.7183
▁montait	-10.7185
▁1977	-10.7186
▁panneau	-10.7186
▁aveugle	-10.7191
▁Toujours	-10.7191
▁international	-10.7194
hydr	-10.7201
▁c’est-à-dire	-10.7202
▁littérature	-10.7202
courir	-10.7202
▁commandement	-10.7203
▁procès	-10.7206
▁sachant	-10.7207
▁Marcel	-10.7207
▁soupe	-10.7208
▁contient	-10.7214
▁suspendu	-10.7217
▁proposition	-10.7217
▁Pic	-10.7222
▁Qu’a	-10.7228
▁torche	-10.7229
image	-10.7231
▁l'eau	-10.7231
▁Équipe	-10.7232
▁caisse	-10.7237
▁Philip	-10.7241
▁tranquillement	-10.7242
▁Tiens	-10.725
▁réveil	-10.7253
▁consent	-10.7254
▁voleur	-10.7255
▁foyer	-10.7255
▁joui	-10.7257
expérience	-10.7262
▁prononça	-10.7263
▁Arm	-10.7264
▁venez	-10.7281
▁acheté	-10.7286
▁Disney	-10.7287
dépendance	-10.7292
▁demandai-je	-10.7293
▁agita	-10.7295
bout	-10.7296
▁1978	-10.7296
OR	-10.7297
▁Derrière	-10.7297
▁dérange	-10.73
▁pénétrer	-10.7301
▁meuble	-10.7309
▁J'	-10.7311
▁mensonge	-10.7312
▁LA	-10.7315
▁religieuse	-10.7316
▁avancé	-10.7316
▁accepter	-10.7316
▁pût	-10.7318
▁secteur	-10.7323
▁Gla	-10.7325
▁candidat	-10.7327
▁Enfin	-10.7336
▁Tel	-10.7343
▁s’asseoir	-10.7346
▁concentra	-10.7348
▁major	-10.7354
▁coque	-10.7363
▁satisfaction	-10.7366
▁prendra	-10.7366
▁allié	-10.7368
dale	-10.7373
droit	-10.7373
▁provoque	-10.7373
▁proximité	-10.7381
▁fouet	-10.7387
▁fureur	-10.7388
▁Kha	-10.7389
▁reprend	-10.7392
▁réjoui	-10.7392
▁m’étais	-10.74
▁d'abord	-10.7403
logique	-10.7404
▁clef	-10.7406
▁Évolution	-10.7406
▁suffisant	-10.7409
▁Plusieurs	-10.7412
▁constata	-10.7412
▁bottes	-10.7414
▁soyez	-10.742
▁l’honneur	-10.7423
▁allure	-10.7428
▁l’état	-10.7435
▁Dix	-10.7437
▁utilise	-10.7437
▁sensible	-10.7437
▁Castel	-10.7438
▁hôtel	-10.744
▁habituelle	-10.7444
▁l'aide	-10.7449
▁soulagement	-10.745
▁reconnaissance	-10.745
▁l’aise	-10.7452
▁prévenir	-10.7452
▁l'article	-10.7467
▁élections	-10.7469
stein	-10.7472
▁prudent	-10.7477
▁s’attend	-10.7491
▁Antoine	-10.7492
▁mâchoire	-10.7493
▁responsabilité	-10.7493
▁européenne	-10.7493
▁Glo	-10.7496
▁sentais	-10.75
▁sépare	-10.7505
▁dégoût	-10.7508
▁disais	-10.7509
▁baie	-10.7511
▁d'argent	-10.7516
▁savons	-10.7522
▁aimable	-10.7524
▁énergie	-10.7528
▁printemps	-10.7532
▁marqua	-10.7533
▁possession	-10.7536
▁gosse	-10.754
▁respira	-10.7541
thèse	-10.7542
▁bague	-10.7542
▁Lorsqu’il	-10.7547
▁pressé	-10.7549
▁l’horizon	-10.7555
▁composa	-10.7556
▁aliment	-10.7558
▁galop	-10.7561
È	-10.7563
illot	-10.7568
▁Centre	-10.7568
▁d’amour	-10.7569
▁Château	-10.7579
-dessous	-10.7579
▁écrivain	-10.7579
XX	-10.7586
▁guet	-10.7589
▁écriv	-10.7597
▁extrêmement	-10.7603
▁tenaient	-10.7603
group	-10.7608
▁sortait	-10.762
▁amoureux	-10.7626
▁l’habitude	-10.7626
▁formule	-10.7634
▁reviendra	-10.7634
▁contrat	-10.764
▁Noël	-10.7641
▁1972	-10.7646
▁remplacé	-10.7649
▁s’inclina	-10.7653
▁rapprocha	-10.7661
▁persuadé	-10.7665
▁Champion	-10.7668
▁peint	-10.7669
▁déclaré	-10.7669
▁l'art	-10.767
▁Acc	-10.7683
cession	-10.7684
▁Big	-10.7694
hypothèse	-10.7696
▁Brésil	-10.7697
▁tristesse	-10.7704
▁Gabriel	-10.7709
▁liées	-10.771
▁salua	-10.7712
▁collègue	-10.7713
ault	-10.7713
▁pivot	-10.7713
▁accès	-10.7714
▁l’univers	-10.7728
2008	-10.7728
▁paire	-10.7734
▁majorité	-10.7741
·	-10.7754
▁remarquable	-10.7761
▁flamb	-10.7768
▁brûlé	-10.7772
▁illustr	-10.7775
▁envoya	-10.7776
▁vivait	-10.7779
volution	-10.7785
▁Dal	-10.7786
▁Nouvelle	-10.7788
▁bavard	-10.7796
▁s’adressa	-10.7797
▁Ordre	-10.7798
▁absolu	-10.7798
▁poignard	-10.78
▁fallut	-10.7802
aperçu	-10.7807
▁Guillaume	-10.7808
▁dimension	-10.7808
▁vapeur	-10.7809
▁montrait	-10.7809
▁rarement	-10.7809
plosion	-10.781
▁d’enfant	-10.7812
▁actuellement	-10.7814
▁quotidien	-10.7816
▁volontaire	-10.7816
▁végét	-10.7816
▁Fais	-10.7818
▁cuisse	-10.7821
pulsion	-10.7821
▁développé	-10.7824
▁Toutefois,	-10.7828
▁l’abri	-10.7831
zzo	-10.7835
cien	-10.7841
▁recouvert	-10.7844
▁réputation	-10.786
▁pendu	-10.7861
ME	-10.7868
▁soci	-10.787
▁régiment	-10.7875
▁prouver	-10.7875
temps	-10.7886
▁XVI	-10.7886
▁Province	-10.7889
▁l’odeur	-10.7889
’était	-10.7892
▁combinaison	-10.7901
▁habile	-10.7901
▁n’entend	-10.7906
embarqu	-10.7907
▁Avez-vous	-10.7908
▁m’attend	-10.7908
▁poudre	-10.7913
▁s’être	-10.7915
▁continent	-10.7917
Europe	-10.7919
_	-10.7921
▁réveillé	-10.7923
▁respiration	-10.7932
▁êtes-vous	-10.7935
▁détruire	-10.7937
ñ	-10.7941
▁Quatre	-10.7942
▁église	-10.7945
▁creux	-10.7946
▁Durant	-10.7946
▁l'homme	-10.7947
▁cave	-10.7954
▁Fond	-10.7956
▁refusé	-10.7958
arpent	-10.7961
culaire	-10.7964
▁distingua	-10.7966
▁retourné	-10.7969
▁Qualité	-10.7975
aventure	-10.7981
▁Fab	-10.7981
▁caractéristique	-10.7986
▁partageant	-10.799
▁jouait	-10.7994
▁Alexandre	-10.7995
ambu	-10.7999
étaire	-10.8001
▁l’âge	-10.8002
▁l'est	-10.801
onique	-10.8011
▁fend	-10.8013
▁certes	-10.8013
▁marchait	-10.8023
▁emporté	-10.8023
▁Ligue	-10.8024
▁principalement	-10.8027
▁força	-10.8028
▁Théo	-10.8033
spire	-10.8035
▁pause	-10.8036
▁appuyé	-10.8039
▁XIXe	-10.8043
▁suivait	-10.8043
▁usage	-10.8049
▁1974	-10.8055
▁tension	-10.8056
▁comporte	-10.8058
▁occ	-10.8061
▁centimètres	-10.8064
▁Vraiment	-10.8064
▁maudit	-10.8065
▁essayait	-10.8066
▁caresse	-10.8076
▁trompé	-10.8076
▁FC	-10.8076
▁Classification	-10.8084
▁Tou	-10.8086
▁concept	-10.8086
▁résister	-10.8089
▁(The	-10.809
▁Identité	-10.8101
▁gigantesque	-10.8105
▁développe	-10.8107
▁l’avenir	-10.8108
▁maîtrise	-10.8109
▁Street	-10.8109
▁Patrick	-10.8114
▁Cependant	-10.8118
▁relever	-10.8121
ã	-10.8121
▁efficace	-10.8126
▁brusque	-10.8126
▁cadeau	-10.8135
▁Venez	-10.8137
face	-10.8144
▁accepta	-10.8147
▁Roche	-10.8148
▁rumeur	-10.8151
▁portière	-10.8151
▁vendu	-10.8153
▁n’eut	-10.8155
▁clairement	-10.8155
▁CHAPITRE	-10.8163
▁disparition	-10.818
’après	-10.818
▁marmonna	-10.8188
[4]	-10.8196
▁fabrique	-10.8196
▁jusque	-10.8201
▁chuchota	-10.8209
ologue	-10.8214
▁comportement	-10.8214
▁l’art	-10.8215
▁observer	-10.8217
▁paume	-10.8222
▁brûla	-10.8223
▁massif	-10.8229
▁penché	-10.8233
▁cauchemar	-10.8234
épouse	-10.8247
▁Esp	-10.8249
▁exploit	-10.8253
▁Christian	-10.8256
▁caverne	-10.8259
escort	-10.8265
adolescent	-10.8276
▁revenait	-10.8276
▁poly	-10.8281
▁Jim	-10.8283
▁Tha	-10.8285
▁sortant	-10.8285
▁produire	-10.8288
▁frotta	-10.8293
▁empli	-10.8296
▁cassé	-10.8299
IL	-10.8308
▁deviner	-10.8308
▁l’aurait	-10.8315
▁climat	-10.8324
▁gloire	-10.8326
▁l’espoir	-10.833
▁mandat	-10.8332
▁rétorqua	-10.8335
▁métro	-10.8335
▁grimace	-10.8339
{	-10.8343
▁500	-10.8347
▁assassiné	-10.835
Égypte	-10.8356
▁reflet	-10.8359
▁raide	-10.8359
EL	-10.8362
▁biologie	-10.8363
▁Point	-10.8368
▁Stephen	-10.8368
space	-10.8369
▁nerveux	-10.8373
▁restaurant	-10.8373
Qu	-10.8376
apprécie	-10.8377
▁plu	-10.8379
▁accroché	-10.8381
▁jadis	-10.8386
▁indique	-10.839
▁clan	-10.8391
▁réveiller	-10.8393
▁plaça	-10.8394
▁réveilla	-10.8394
▁Gilbert	-10.8395
▁1973	-10.8398
▁chapelle	-10.8402
▁enfermé	-10.8412
▁l’épée	-10.8415
▁fatal	-10.8417
▁tronc	-10.8421
▁Whit	-10.8425
▁Année	-10.8428
▁Brun	-10.8428
▁rencontra	-10.8428
▁grotte	-10.8428
▁c'était	-10.8432
▁récupérer	-10.8432
▁inscrit	-10.8433
lieu	-10.8441
▁comprenez	-10.8443
▁bronze	-10.8445
▁permettant	-10.8446
insecte	-10.8446
▁dépassa	-10.8447
ordinaire	-10.8454
▁envoyer	-10.8454
▁Autres	-10.8456
▁Pru	-10.8456
▁René	-10.8459
▁trottoir	-10.8466
▁n'en	-10.8471
▁éteint	-10.8476
▁Montréal	-10.8479
▁actuelle	-10.8484
▁nain	-10.8484
▁l’ennemi	-10.8488
▁demi-heure	-10.8488
▁menaçant	-10.8493
▁adressa	-10.8496
▁Qu’il	-10.8501
▁moment-là	-10.8505
▁probable	-10.8511
▁Smith	-10.8514
▁merde	-10.8517
▁courut	-10.8518
▁violemment	-10.8519
Île	-10.8522
oïde	-10.8523
▁cardinal	-10.8526
▁Ramsès	-10.8531
▁marbre	-10.8537
▁panique	-10.8539
▁néglige	-10.8539
▁bienvenue	-10.854
▁rapproche	-10.8544
▁eurent	-10.8551
▁Christophe	-10.8552
▁dévisagea	-10.8556
▁faillit	-10.8564
▁conscient	-10.8565
▁l’église	-10.8569
▁intime	-10.8576
▁jusqu'au	-10.8578
▁d’esprit	-10.8582
▁répertorie	-10.8582
▁grogna	-10.8583
▁révéler	-10.8587
▁Chevalier	-10.8591
▁mouche	-10.8596
script	-10.8596
ingénieur	-10.8604
▁Sigles	-10.8609
▁faiblesse	-10.861
▁précieux	-10.8611
▁fièvre	-10.8612
▁(ISBN	-10.8613
▁s'était	-10.8619
color	-10.8619
▁conclut	-10.8626
▁Devant	-10.8627
▁Garion	-10.8627
▁confond	-10.8638
▁douzaine	-10.8639
▁chariot	-10.8639
▁Alain	-10.8639
=	-10.8657
▁conviction	-10.8683
▁d’avance	-10.8689
▁inquiétude	-10.8696
▁miracle	-10.87
▁l’attention	-10.87
▁murmura-t-il	-10.8702
▁Donc,	-10.8711
▁cible	-10.8714
▁muet	-10.8717
▁racine	-10.8719
▁acquis	-10.8726
▁dangereuse	-10.8732
▁mâle	-10.8735
▁opinion	-10.8744
’accepte	-10.8748
▁lord	-10.8749
▁Viens	-10.8752
▁appuya	-10.8753
▁Anglais	-10.8754
▁incroyable	-10.8757
▁épreuve	-10.8757
▁coutume	-10.8757
▁rassemble	-10.8758
▁uniforme	-10.8758
▁horreur	-10.8762
▁terrasse	-10.8762
▁consacré	-10.8762
▁Web	-10.8762
▁manqua	-10.8763
▁l'origine	-10.877
▁baissé	-10.8771
▁City	-10.8776
▁d'homonymie	-10.8779
▁relevé	-10.878
▁Trop	-10.8781
▁antique	-10.8781
mort	-10.8784
▁voulaient	-10.8788
▁eux-mêmes	-10.8788
▁cage	-10.8801
▁Parfois	-10.8801
▁brutal	-10.8802
▁Bibliographie	-10.8806
▁brouillard	-10.8806
▁l’après-midi	-10.8806
▁(1999)	-10.8806
▁Rouge	-10.8809
▁découvrit	-10.881
▁grand-père	-10.8819
▁Susan	-10.8822
▁triomphe	-10.8823
▁s’enquit	-10.8837
▁habitué	-10.8838
▁époux	-10.8841
▁l’existence	-10.8845
▁brique	-10.8845
▁nuque	-10.8851
▁Bonne	-10.8852
▁vice	-10.8855
▁l’écart	-10.8858
Association	-10.8868
▁cimetière	-10.8868
▁influence	-10.8868
architecture	-10.8877
▁Sept	-10.8878
▁Gall	-10.888
tang	-10.8881
▁Chacun	-10.8882
▁1948	-10.8887
▁frissonna	-10.889
▁mécanique	-10.8899
▁gêne	-10.89
▁Villa	-10.8901
▁clou	-10.8903
▁Tru	-10.8911
▁l’année	-10.8916
▁paisible	-10.8917
▁défaite	-10.8923
▁jour-là	-10.8925
▁symbole	-10.893
▁barrière	-10.8932
▁intérieur	-10.8932
▁discrète	-10.8939
▁conflit	-10.8939
▁explique	-10.8944
activité	-10.8945
▁prochain	-10.8951
▁perçu	-10.8955
▁portaient	-10.8961
▁arraché	-10.8965
▁descendu	-10.8978
▁fiche	-10.8979
▁J.-C.	-10.898
▁mettant	-10.8982
▁Lord	-10.899
▁répondit-elle	-10.9
▁brandi	-10.9003
▁expliqué	-10.9007
▁religieux	-10.9007
▁Frédéric	-10.9016
▁empreint	-10.9016
▁avocat	-10.903
▁Santa	-10.903
▁Faites	-10.9031
▁d'art	-10.9032
▁régulièrement	-10.9038
▁d’autant	-10.9039
examen	-10.904
▁principaux	-10.9043
▁Voyons	-10.9043
▁l’appartement	-10.9048
▁échappé	-10.9048
▁falaise	-10.9048
▁copie	-10.905
▁prononcer	-10.9052
▁après-midi	-10.9057
▁lion	-10.9066
▁D’abord	-10.907
▁valet	-10.9071
▁ramener	-10.9075
▁paie	-10.9079
▁gronda	-10.9079
▁municipalité	-10.9084
▁célébr	-10.9088
▁l’herbe	-10.9093
▁l’ouest	-10.9111
▁l’arrivée	-10.9116
▁livré	-10.9116
▁qu'en	-10.9118
2003	-10.9121
▁retiré	-10.9125
▁creuse	-10.9125
espèce	-10.9132
▁adulte	-10.9135
▁arabe	-10.9142
▁royal	-10.9152
Autriche	-10.9158
▁plastique	-10.9162
▁curieuse	-10.9162
▁transformé	-10.9162
▁crains	-10.9162
▁décrit	-10.9165
▁annoncé	-10.9166
▁abattu	-10.9172
-No	-10.9176
▁tendance	-10.9179
▁central	-10.9182
▁transforma	-10.9192
▁allumé	-10.9193
rais-je	-10.9194
▁perspective	-10.9203
▁faisais	-10.9207
▁World	-10.9208
▁isolé	-10.9217
▁Royal	-10.922
▁mineur	-10.9221
▁respirer	-10.9226
▁cristal	-10.9227
▁garanti	-10.9233
▁grommela	-10.924
▁bouclier	-10.924
▁comptoir	-10.9244
▁affirme	-10.9245
▁musc	-10.9249
intervention	-10.9258
▁disposa	-10.9258
▁suspect	-10.926
▁régime	-10.926
▁modeste	-10.9264
▁ignore	-10.9265
▁Sand	-10.9265
-sept	-10.9268
▁nécessité	-10.9272
▁Blanc	-10.9273
▁construire	-10.9277
▁manœuvre	-10.9278
▁bourgeois	-10.9282
▁dormait	-10.9282
▁Lyon	-10.9282
▁récompense	-10.9286
▁exposé	-10.9296
▁automatique	-10.9296
ón	-10.9304
▁l’écran	-10.9305
▁troublé	-10.9307
▁1961	-10.9309
▁nerveuse	-10.9314
▁supplémentaire	-10.9314
RO	-10.9315
▁portail	-10.9318
▁d’habitude	-10.9319
▁l’image	-10.9319
▁qu'à	-10.9325
▁dressé	-10.9338
▁s’appelle	-10.9342
▁soumis	-10.9346
▁Emerson	-10.9347
ophone	-10.9353
▁cham	-10.9364
prend	-10.937
▁TV)	-10.937
ambassade	-10.9375
▁effrayé	-10.9375
▁baisse	-10.9378
▁qu’aucun	-10.938
▁lecteur	-10.9384
▁César	-10.9389
▁objectif	-10.9398
▁tantôt	-10.9399
▁Eddie	-10.94
américain	-10.9403
▁Bak	-10.941
▁Palmarès	-10.9417
▁répondis-je	-10.9419
▁Marguerite	-10.9436
▁ministère	-10.9436
▁raisonnable	-10.9436
▁hanche	-10.9437
Alexandr	-10.9442
▁enlevé	-10.9442
▁dépasse	-10.9443
vocation	-10.945
▁filet	-10.9452
▁Haut	-10.9454
▁Jake	-10.9455
▁l'ensemble	-10.9464
▁dissimuler	-10.9469
occupation	-10.9473
heim	-10.9486
▁puits	-10.9486
▁coucha	-10.949
▁taxi	-10.9497
▁prétexte	-10.9497
▁acheter	-10.9498
▁permettait	-10.9506
▁Bretagne	-10.9507
▁Berg	-10.9507
▁considère	-10.9507
▁Société	-10.9521
▁Alfred	-10.9521
▁courbe	-10.9533
Académie	-10.9535
▁Parfait	-10.9542
▁Jacob	-10.9545
▁l’école	-10.9546
▁musicien	-10.9548
▁italienne	-10.9548
▁confirma	-10.9553
▁réception	-10.9553
▁extrême	-10.9558
’embrass	-10.9562
2000	-10.9564
▁Sylv	-10.9567
▁conservé	-10.9569
▁compagne	-10.9575
▁1950	-10.9577
▁1967	-10.9586
▁chauffeur	-10.9588
▁municipal	-10.9588
▁philosophie	-10.9593
▁championnat	-10.9597
▁Charlie	-10.96
▁processus	-10.9602
▁d’heure	-10.9606
OM	-10.9607
▁tourbillon	-10.9621
altitude	-10.9622
▁siffla	-10.9626
▁vaisseaux	-10.9628
▁contemporain	-10.9631
▁piano	-10.9635
▁débit	-10.964
▁pavillon	-10.9645
▁imbécile	-10.965
▁entraîné	-10.965
▁évidence	-10.9655
▁berge	-10.9656
▁soupçonne	-10.9659
▁Moyen	-10.9668
électro	-10.9674
▁découvre	-10.9674
▁démarche	-10.9674
▁recommanda	-10.9679
▁impérial	-10.9679
▁drogue	-10.9689
▁combattre	-10.9694
▁torture	-10.9708
▁Steve	-10.9716
▁réconfort	-10.9723
humain	-10.9724
▁enfance	-10.9724
▁Raymond	-10.9728
▁repli	-10.9732
▁nôtre	-10.9732
▁robot	-10.9735
Intercommunalité	-10.9742
▁Mun	-10.9743
▁D’autres	-10.9747
▁fracas	-10.9755
▁maintenir	-10.9755
▁j’allais	-10.9757
▁revêt	-10.9757
▁façade	-10.9771
-à-	-10.9774
▁fédéral	-10.9776
▁inspira	-10.9776
▁l'ordre	-10.978
▁1969	-10.9781
▁n’osa	-10.9785
▁pension	-10.9786
▁cherché	-10.9792
▁attiré	-10.9794
▁alluma	-10.9795
▁promenade	-10.9801
quérir	-10.9801
▁conférence	-10.9805
point	-10.9806
▁européen	-10.981
▁C'était	-10.981
▁poursuivi	-10.9812
▁l’In	-10.9814
▁Jésus	-10.9815
▁superbe	-10.9817
▁Anti	-10.9819
▁Bientôt	-10.982
▁souterrain	-10.9825
▁minuit	-10.9825
▁j’eus	-10.9826
Américain	-10.983
▁gorgée	-10.983
▁surveiller	-10.9835
▁Lucien	-10.9838
▁jusque-là	-10.9846
▁Personnalités	-10.985
▁catégorie	-10.985
▁fusion	-10.9856
▁chaussures	-10.986
throp	-10.986
▁pince	-10.9862
▁réparti	-10.9863
▁pratiqu	-10.9864
▁jusqu'en	-10.9864
▁répéter	-10.9869
▁celui-là	-10.9888
▁représentation	-10.989
▁mystérieux	-10.9894
▁ordonné	-10.9894
▁absence	-10.9894
▁molle	-10.9896
▁prévenu	-10.9897
▁forteresse	-10.9901
▁verrou	-10.9901
ú	-10.9904
▁colonie	-10.9904
▁voyageurs	-10.9908
▁d'Europe	-10.9911
évalu	-10.9919
▁1964	-10.9921
▁l’assassin	-10.9923
▁veuve	-10.9925
▁rock	-10.9928
▁t'	-10.9932
▁animé	-10.9937
▁paille	-10.994
▁étincela	-10.9943
▁récemment	-10.9943
▁Ancien	-10.9944
▁familier	-10.9948
▁photographie	-10.9948
▁massacre	-10.9948
▁1953	-10.9949
▁tendresse	-10.9956
▁ramassa	-10.9965
▁craindre	-10.9967
▁déclaration	-10.9967
▁intense	-10.9968
Irlande	-10.9969
▁Palais	-10.997
préhension	-10.9973
▁curé	-10.9977
▁écran	-10.9978
-Louis	-10.9983
▁Insee	-10.9984
▁Royaume-Uni	-10.9988
▁rauque	-10.9988
ên	-10.9991
▁japonais	-10.9993
▁l’expression	-10.9996
▁Gérard	-10.9998
▁suggéra	-11.0003
▁cuivre	-11.0005
▁d’armes	-11.0005
▁juré	-11.0005
▁l'auto	-11.0006
▁conclusion	-11.0006
▁vengeance	-11.0008
▁retomba	-11.0008
automobile	-11.0013
▁recommence	-11.0018
▁patience	-11.0023
▁d'entre	-11.0027
▁jugé	-11.003
▁mobile	-11.0043
▁mettra	-11.0054
▁emporte	-11.0063
thétique	-11.0071
▁phase	-11.0073
▁chevelure	-11.0078
▁imaginer	-11.0079
▁dégagea	-11.008
▁l’objet	-11.0083
▁duquel	-11.0096
▁Pays-Bas	-11.0103
▁volontiers	-11.0108
▁timide	-11.0119
▁solitaire	-11.012
▁nettement	-11.0122
▁thème	-11.0124
▁consiste	-11.0138
▁confortable	-11.0139
▁contenait	-11.0143
▁Robin	-11.0146
▁million	-11.0148
▁Suiv	-11.0152
▁duchesse	-11.0155
pplique	-11.0156
figura	-11.0161
▁précision	-11.0168
hom	-11.0168
▁attira	-11.017
▁stade	-11.0172
▁solitude	-11.0177
▁confus	-11.0178
▁effectivement	-11.0179
▁Brown	-11.018
▁parvenait	-11.018
▁glacial	-11.0185
qu’on	-11.0185
▁subtil	-11.019
▁arracha	-11.0191
▁déposa	-11.0192
▁Beaucoup	-11.02
▁diamant	-11.0202
▁béni	-11.0213
▁champion	-11.0222
▁soutenu	-11.0225
▁collé	-11.0236
▁espion	-11.0241
▁rival	-11.0243
▁Type	-11.0246
▁estima	-11.0248
▁(série	-11.0251
▁là-dedans	-11.0256
▁milliard	-11.0256
▁fameux	-11.0256
▁Hall	-11.0257
▁veux-tu	-11.026
▁ordinateur	-11.0261
▁Archi	-11.0262
▁là-haut	-11.0266
▁vôtre	-11.0271
▁devina	-11.0272
▁intitulé	-11.0276
▁furieuse	-11.0277
▁surveillance	-11.0281
▁alentour	-11.0287
▁étonnant	-11.0297
▁strict	-11.0297
▁1965	-11.0299
▁agité	-11.0302
▁plaisanterie	-11.0303
▁Vér	-11.0307
▁statut	-11.0312
▁J’aimerais	-11.0312
▁Edward	-11.0313
▁Général	-11.0317
▁Commons	-11.0318
▁1966	-11.0328
baptis	-11.033
▁l’appareil	-11.0334
▁livra	-11.0338
stell	-11.0342
▁formidable	-11.0343
’oblige	-11.0353
courez	-11.0365
▁considérer	-11.0369
▁idéal	-11.0369
▁Meilleur	-11.0375
▁suffisait	-11.0381
▁résolution	-11.0388
▁Compagnie	-11.039
▁Médaille	-11.039
fonce	-11.0399
▁habillé	-11.04
▁Gold	-11.0404
▁importe	-11.0406
▁Valentin	-11.0411
▁sacrifi	-11.0422
endormi	-11.0425
▁Livre	-11.0431
▁douloureuse	-11.0431
▁dormi	-11.0437
▁balance	-11.0441
▁sexuel	-11.0445
▁l'intérieur	-11.0447
▁suprême	-11.0452
▁hausse	-11.0456
▁appartient	-11.0457
▁chêne	-11.0457
▁employ	-11.0466
▁déteste	-11.0467
▁extrémité	-11.0468
▁lisait	-11.0472
quoi	-11.0472
▁déroule	-11.0476
▁libérer	-11.0478
▁joyeuse	-11.0478
▁Thor	-11.0479
▁Walter	-11.0487
▁nocturne	-11.0489
▁manqué	-11.0494
▁souple	-11.05
▁connaissais	-11.05
▁équipé	-11.051
▁bénéfici	-11.0515
▁Johnny	-11.052
▁Serbie	-11.052
▁accusa	-11.0524
▁l’hôpital	-11.0531
▁Ministre	-11.0536
▁typ	-11.0542
▁Langue	-11.0543
▁International	-11.0546
▁1940	-11.0552
▁d'État	-11.0552
▁causa	-11.0555
▁Aujourd’hui	-11.0557
▁attaqué	-11.0557
▁spéci	-11.056
▁achevé	-11.0562
▁Carrière	-11.0572
ccroche	-11.058
▁apprend	-11.0582
▁occidental	-11.0599
▁L’autre	-11.0599
▁vaincu	-11.061
▁étouffé	-11.0615
▁compliqué	-11.0615
▁fragment	-11.0621
▁mangé	-11.0632
▁District	-11.0636
▁ressources	-11.0636
▁remporte	-11.064
▁l'église	-11.0642
▁sacrifice	-11.0647
▁(maxi)	-11.0652
▁stupéfait	-11.0652
▁dommage	-11.0652
▁n’eût	-11.0652
▁Press	-11.0653
▁désagréable	-11.0663
▁élégant	-11.0669
▁genou	-11.0674
▁résonna	-11.0678
▁redoutable	-11.0679
▁1945	-11.068
▁Nicol	-11.0701
augmente	-11.0702
▁Jud	-11.0712
▁Groupe	-11.0717
tract	-11.0729
▁rassura	-11.0733
▁Hill	-11.0737
▁instructions	-11.0738
▁investi	-11.0738
obsc	-11.0744
▁trancha	-11.0744
affiche	-11.0761
▁1958	-11.0762
▁mouchoir	-11.0765
▁civilisation	-11.0767
▁mystérieuse	-11.077
▁s’enfonça	-11.0776
▁grimpa	-11.0781
▁Évidemment	-11.0786
▁oblige	-11.0787
▁d'indications	-11.0792
▁lycée	-11.0792
▁bourse	-11.08
▁édifi	-11.0802
▁l'Université	-11.0803
▁quelquefois	-11.0808
▁signifiait	-11.0813
▁canapé	-11.0813
▁soutenir	-11.0815
▁Julia	-11.0816
▁apercev	-11.0818
▁arrange	-11.0819
▁travaillait	-11.0819
▁convention	-11.083
▁recueilli	-11.0842
▁Consulté	-11.0846
▁décédé	-11.0846
▁clarté	-11.0851
▁ruisseau	-11.0852
▁tiroir	-11.0857
▁remonte	-11.0857
▁bonhomme	-11.086
▁liaison	-11.0861
▁Révolution	-11.0869
▁multimédia	-11.0878
▁pirate	-11.0882
▁gémissement	-11.0889
-cinq	-11.0891
▁précieuse	-11.0895
▁souriait	-11.09
▁promena	-11.0904
▁laboratoire	-11.0906
▁commission	-11.0907
▁cultiv	-11.0916
▁féroce	-11.0917
▁conséquent	-11.0922
▁interrogea	-11.0922
▁nerfs	-11.0923
▁terrestre	-11.093
aceae	-11.0931
▁Washington	-11.0939
▁1936	-11.0943
▁rampe	-11.0957
▁reçoit	-11.0961
▁permettra	-11.0964
▁copain	-11.0966
▁eh	-11.0982
▁passagers	-11.0987
▁Portugal	-11.0988
▁s’empêcher	-11.0988
▁inspiré	-11.0989
▁Voyez	-11.0989
▁puisqu’il	-11.0993
▁quiconque	-11.0999
▁dispute	-11.1
▁absent	-11.1
▁situe	-11.1014
▁révélé	-11.1016
▁déchira	-11.1022
▁Finalement,	-11.1038
▁mêle	-11.1038
▁luxe	-11.1041
▁Berlin	-11.1042
architecte	-11.1043
▁grognement	-11.1054
▁mathématique	-11.1065
▁résoudre	-11.1065
▁ajouté	-11.1069
▁électronique	-11.1082
▁frappe	-11.1087
▁battait	-11.1087
engager	-11.1089
▁imposa	-11.109
▁c’étaient	-11.1099
▁fourrure	-11.1099
[5]	-11.1104
▁footballeur	-11.1106
▁valise	-11.1112
▁convoi	-11.1113
▁Règne	-11.1115
▁technologie	-11.1115
▁scruta	-11.1116
▁rétabli	-11.1116
▁profession	-11.1118
▁détective	-11.1121
▁déplaça	-11.1121
▁Ayla	-11.1134
▁expédition	-11.1138
▁prirent	-11.1142
▁représenté	-11.1143
▁Grèce	-11.1149
▁drapeau	-11.1153
▁monnaie	-11.1153
▁indifférent	-11.1155
▁maréchal	-11.1155
▁rugby	-11.1155
▁atterri	-11.1155
▁causé	-11.1157
-t-on	-11.116
▁patrouille	-11.116
▁réclame	-11.1163
▁circulation	-11.1166
▁console	-11.1171
▁trajet	-11.1174
▁attentivement	-11.1177
▁reconnaissant	-11.118
▁canadien	-11.1189
▁légal	-11.1196
▁l'école	-11.1198
▁Ouais,	-11.1201
▁résista	-11.1204
▁littéraire	-11.1211
▁armure	-11.1217
▁confusion	-11.1221
▁tambour	-11.1222
▁là-dessus	-11.1228
▁serrure	-11.1233
▁gestion	-11.1234
▁guise	-11.1242
▁mèche	-11.1244
▁monseigneur	-11.1244
▁brutalement	-11.1245
▁prenez	-11.1245
▁cheville	-11.1245
▁joyeux	-11.125
▁Blue	-11.1253
▁l'ouest	-11.1256
▁Musée	-11.1259
▁détacha	-11.1264
▁vingtaine	-11.1267
▁Jimmy	-11.1268
▁l’observa	-11.1274
▁dépourvu	-11.1278
▁imaginé	-11.1305
▁j’espère	-11.1307
▁batterie	-11.1307
▁merveille	-11.1312
▁regretta	-11.1316
▁s’étonna	-11.1325
▁torse	-11.1325
inscription	-11.1327
▁tranche	-11.1327
▁commanda	-11.1336
▁linge	-11.1336
▁maximum	-11.1341
▁compléter	-11.1341
▁espérait	-11.1342
▁joindre	-11.1354
▁Pologne	-11.1354
▁arrondi	-11.1358
▁d’entendre	-11.1384
▁allume	-11.1385
▁Aussitôt	-11.1387
▁femelle	-11.1387
▁active	-11.1387
▁rejoignit	-11.1392
▁Hélas	-11.1396
▁complice	-11.1399
▁ardent	-11.14
▁faculté	-11.1404
▁lanterne	-11.1404
▁cabane	-11.1404
établi	-11.1407
▁Certes,	-11.141
▁ouvriers	-11.141
▁claqua	-11.1415
▁réplique	-11.1415
▁fussent	-11.1416
▁libéré	-11.1421
▁D'autres	-11.1427
▁merveilleux	-11.1447
▁suicide	-11.1462
▁Déjà	-11.1467
▁exemplaire	-11.1473
▁magistrat	-11.1479
▁Vincent	-11.1479
▁témoignage	-11.1491
▁Amérique	-11.1496
▁répugn	-11.1502
▁approuva	-11.1502
▁tonnerre	-11.1502
▁pompe	-11.1513
▁XXe	-11.152
▁Marseille	-11.1525
▁balança	-11.1525
▁répète	-11.1525
▁d’honneur	-11.1531
▁prudence	-11.1531
▁parallèle	-11.1537
▁plaie	-11.1539
▁tournoi	-11.1539
▁provoqué	-11.1554
▁renoncer	-11.1564
▁sourcil	-11.1575
▁perfection	-11.1583
▁écrasé	-11.1583
▁différ	-11.1586
▁apparent	-11.1589
▁autorisé	-11.159
vrier	-11.1593
▁régulier	-11.1595
▁franchement	-11.1595
▁mouillé	-11.1606
▁arrivèrent	-11.1613
▁soulagé	-11.1613
▁Éditions	-11.1613
▁chapitre	-11.1619
▁lumineux	-11.1624
▁Surtout	-11.163
▁Flori	-11.1632
▁meurtrier	-11.1632
▁matériau	-11.1642
▁tribunal	-11.1644
human	-11.1646
▁réalisateur	-11.1651
▁l'âge	-11.1654
▁s’aperçut	-11.166
▁d'après	-11.166
▁publie	-11.166
▁essentiellement	-11.1661
▁enveloppé	-11.1666
▁Historique	-11.1671
▁Olivier	-11.1671
▁définitivement	-11.1677
▁supplia	-11.1677
▁gêné	-11.1678
▁Fédération	-11.1683
intermédiaire	-11.1683
▁prolonge	-11.169
▁secoue	-11.1692
▁introduit	-11.1695
▁tempe	-11.1698
▁Impossible	-11.1701
▁qu’avec	-11.1701
▁couvrir	-11.1702
▁observé	-11.1718
ovitch	-11.1718
▁adressé	-11.1719
▁c'est-à-dire	-11.1725
▁effectué	-11.1725
▁Rachel	-11.1726
▁espérer	-11.1731
▁gendarme	-11.1736
▁barbare	-11.1737
Écosse	-11.1745
▁s’inter	-11.1749
▁Localisation	-11.176
▁effrayant	-11.176
▁s’élança	-11.1766
▁d’arriver	-11.1772
▁mourut	-11.1778
▁consulta	-11.1783
▁vingt-cinq	-11.1785
▁contempler	-11.1802
▁caméra	-11.1802
▁événement	-11.1804
▁monastère	-11.1808
▁XIV	-11.1811
▁merveilleuse	-11.1811
accumul	-11.1826
▁Arrête	-11.1826
▁magazine	-11.1838
▁permanent	-11.1838
▁phare	-11.1839
▁craint	-11.1841
▁sollicit	-11.1842
▁Bruxelles	-11.1844
▁s’interrompit	-11.1844
▁fiancé	-11.1844
▁Blanche	-11.1853
▁n’allait	-11.1856
▁obtient	-11.1862
▁croissant	-11.1865
▁quatre-vingt	-11.1868
▁délai	-11.1882
▁étudié	-11.189
▁classé	-11.1892
▁prompt	-11.1894
▁rêva	-11.1898
▁venger	-11.1902
▁susceptible	-11.1904
▁favorable	-11.1916
accéléra	-11.1917
▁concours	-11.1917
▁voyons	-11.1929
▁dissimulé	-11.1934
▁allusion	-11.194
▁ôta	-11.1943
▁artistique	-11.1946
▁commandé	-11.1947
▁boulevard	-11.1952
▁céder	-11.1953
▁description	-11.1953
▁l’extrémité	-11.1958
▁identique	-11.1959
▁l'Union	-11.1965
▁glissé	-11.1965
▁auxquels	-11.1971
▁compétition	-11.1977
}	-11.1983
▁dix-huit	-11.1983
▁déterminé	-11.1983
▁moustache	-11.1983
▁velours	-11.1995
▁Jean-Claude	-11.2001
▁catastrophe	-11.2001
▁d’énergie	-11.2001
▁abouti	-11.201
▁Celle-ci	-11.2013
▁Pauvre	-11.2013
▁j’aurai	-11.2014
▁Maigret	-11.2019
▁l’animal	-11.2019
▁révolte	-11.2019
▁griffes	-11.202
▁d'ailleurs	-11.2025
▁redescend	-11.2026
▁enfoncé	-11.2038
édité	-11.2043
▁débarque	-11.205
▁drame	-11.205
▁prépare	-11.2052
▁substance	-11.2056
▁Naissance	-11.2061
▁potentiel	-11.2062
▁impatient	-11.2062
▁solennel	-11.2072
▁déchiré	-11.2081
▁Napoléon	-11.2093
▁Peggy	-11.2093
▁foncé	-11.2099
▁charbon	-11.2102
▁quelques-uns	-11.2124
▁menacé	-11.2125
▁voûte	-11.213
▁douloureux	-11.2136
▁Bataille	-11.2136
▁Fernand	-11.2154
▁affection	-11.2155
▁initiale	-11.2167
▁trempé	-11.2167
▁d’entrée	-11.218
▁débris	-11.2183
▁appartenait	-11.2192
escence	-11.2194
▁Jusqu’à	-11.2198
▁désordre	-11.2207
▁l’hiver	-11.221
▁collège	-11.2229
▁dignité	-11.2229
▁l’abbé	-11.2229
▁creusé	-11.2235
▁brève	-11.2241
▁masculin	-11.2248
▁circuit	-11.2254
▁déplacer	-11.2255
▁répété	-11.226
▁résidence	-11.2262
▁paraissaient	-11.2273
Étoile	-11.2274
▁compliment	-11.2279
▁accepte	-11.2285
▁survivre	-11.2285
▁éprouvé	-11.2291
▁proportion	-11.2292
▁vainqueur	-11.2298
▁j’aimerais	-11.2298
▁traître	-11.2309
▁Scott	-11.2317
▁amitié	-11.2323
▁discipline	-11.2329
▁Heureusement	-11.2342
▁demoiselle	-11.2342
[6]	-11.2342
assassin	-11.2344
▁Voulez-vous	-11.2354
▁s’écarta	-11.2363
▁maritime	-11.2374
▁s’assurer	-11.2374
▁assiette	-11.2386
▁circonscription	-11.2392
▁spirituel	-11.2399
▁ébloui	-11.2399
existence	-11.2399
▁épargn	-11.2406
▁Olympiques	-11.2411
▁Madeleine	-11.2418
▁rivage	-11.2418
▁Sarah	-11.2418
▁stock	-11.2418
▁Nathan	-11.2431
▁délicat	-11.2447
▁rassemblé	-11.245
▁spécialisé	-11.2454
Empereur	-11.2463
▁souvenait	-11.2469
▁l’avons	-11.2486
▁jusqu’ici	-11.2488
▁logiciel	-11.2488
▁compta	-11.2489
▁pénombre	-11.2494
▁inattendu	-11.2501
▁dissimula	-11.2501
▁expert	-11.2503
▁satellite	-11.2507
▁convenable	-11.2507
▁grand-mère	-11.2513
▁immédiat	-11.2515
▁Malheureusement	-11.252
▁urbain	-11.252
▁évita	-11.2523
▁indispensable	-11.2526
▁secoué	-11.2527
▁s’empara	-11.2528
▁ongles	-11.2528
▁singe	-11.253
▁s’appelait	-11.2533
-d'	-11.2533
harmonie	-11.2534
▁corridor	-11.2558
▁éveillé	-11.2559
▁déroula	-11.256
▁lèvre	-11.256
▁évoqua	-11.2566
▁effectue	-11.2578
▁brisa	-11.2583
▁XIII	-11.2591
▁renverse	-11.2595
▁traduit	-11.2604
▁examiner	-11.2604
euvre	-11.2607
éditeur	-11.261
identifie	-11.2619
▁existait	-11.2623
▁philosophe	-11.263
▁gémit	-11.263
▁Musique	-11.263
▁Côte	-11.2643
▁géographique	-11.2662
▁Wolf	-11.2665
▁Samuel	-11.2665
▁obstacle	-11.2669
ù	-11.267
▁cycle	-11.2675
▁avala	-11.2679
▁progrès	-11.2682
▁précipité	-11.2682
▁apprit	-11.2683
▁Désolé	-11.2688
▁battement	-11.2689
▁d’importance	-11.2701
▁bandit	-11.2702
▁Elena	-11.2702
Prix	-11.2703
▁?0M	-11.2708
animation	-11.2711
▁superficie	-11.2714
▁l’allée	-11.2721
▁amusé	-11.2728
Algérie	-11.2738
’inquiéta	-11.2739
▁consacre	-11.2741
▁fosse	-11.2741
▁m’appelle	-11.2747
▁Attendez	-11.2747
▁cathédrale	-11.2754
▁statistique	-11.2754
▁procédé	-11.276
▁écoulé	-11.2761
▁pesant	-11.2761
▁enterré	-11.2765
▁essentiel	-11.2765
▁Service	-11.2767
▁tuyau	-11.2768
▁manuscrit	-11.2773
▁réside	-11.2775
▁n'ont	-11.2776
univers	-11.2778
▁échec	-11.2794
équivalent	-11.28
▁Album	-11.28
gourdi	-11.2818
▁conducteur	-11.2819
class	-11.2822
▁raidi	-11.2825
▁l’atmosphère	-11.2826
▁incident	-11.2826
▁menaça	-11.2838
▁Vainqueur	-11.2839
▁Kahlan	-11.2839
▁acheva	-11.2846
▁placard	-11.2846
▁licence	-11.2846
▁espérant	-11.2846
▁vacances	-11.2853
▁supposa	-11.2853
▁retint	-11.2854
arrière	-11.2859
▁prenaient	-11.2859
▁déterminer	-11.2866
▁familial	-11.2866
▁Ralph	-11.2893
exploitation	-11.2895
▁(Source	-11.2899
▁expériment	-11.2899
▁Certaines	-11.2906
▁poésie	-11.2906
▁adopté	-11.2919
▁tapota	-11.2921
▁convient	-11.2926
▁spécifique	-11.2932
métrique	-11.2933
▁d'expression	-11.294
▁impatience	-11.2946
▁caillou	-11.2946
▁enregistré	-11.2953
▁affreux	-11.2953
▁fabriqué	-11.2959
▁poumons	-11.296
▁immeuble	-11.2966
▁câble	-11.2966
▁artificiel	-11.2973
▁standard	-11.2973
▁fragile	-11.2973
▁restèrent	-11.2973
▁balbutia	-11.2979
▁procurer	-11.2993
▁absurde	-11.3
▁coulait	-11.3014
▁scandale	-11.302
▁prairie	-11.302
▁Assis	-11.3021
▁commencèrent	-11.3027
▁survécu	-11.3027
▁mourra	-11.3036
▁Ayant	-11.3037
▁enfoui	-11.3041
▁falloir	-11.3054
▁Soleil	-11.3061
▁singulière	-11.3067
affaibli	-11.3067
▁refuge	-11.3067
▁mûr	-11.3068
▁éventuel	-11.3068
africain	-11.3071
▁emmené	-11.3075
▁poupée	-11.3081
▁originaire	-11.3087
▁spatial	-11.3088
▁cicatrice	-11.3094
▁triompha	-11.3094
▁logis	-11.3096
▁XVIIIe	-11.3101
▁c?ur	-11.3101
▁d’attendre	-11.3122
-Saint-	-11.3128
▁argument	-11.3128
▁balaya	-11.3138
▁agricole	-11.3142
▁cinquième	-11.3142
▁oublia	-11.3154
▁Mademoiselle	-11.3162
▁ricana	-11.3166
▁incomplète.	-11.3169
▁studio	-11.3169
▁inclina	-11.3169
-d’	-11.317
▁frein	-11.3171
▁Gaston	-11.3171
▁l'université	-11.3176
▁circulaire	-11.3176
▁partenaire	-11.3177
▁survivant	-11.3183
▁rompre	-11.319
▁Justin	-11.3191
▁organise	-11.3192
-Jean	-11.3193
▁supplie	-11.3198
▁formaient	-11.3204
▁accusé	-11.322
▁appartenant	-11.3224
▁Mexique	-11.3224
▁reconnaît	-11.3227
▁mécontent	-11.3231
▁inquiéta	-11.3231
▁l’oubli	-11.3231
▁médaille	-11.3245
▁Frère	-11.3287
obligation	-11.3287
▁oublie	-11.329
▁Culture	-11.3293
▁Science	-11.33
▁l’humanité	-11.3307
▁avoua	-11.3309
▁œuf	-11.3314
▁fâche	-11.3314
▁échelle	-11.3315
▁devriez	-11.332
▁Statut	-11.3321
▁l’océan	-11.3328
▁délibér	-11.3335
▁maladroit	-11.3335
▁crête	-11.3335
▁déçu	-11.3335
▁recouvra	-11.335
▁cingl	-11.3351
▁Laurent	-11.3352
individu	-11.3353
source	-11.3367
▁posséder	-11.3377
▁surprenant	-11.3378
▁multiples	-11.3391
▁entraîna	-11.3399
▁n’existe	-11.3412
▁renversé	-11.3413
▁Andrew	-11.3419
▁web	-11.3419
▁Nouveau	-11.342
▁arracher	-11.3426
▁soviétique	-11.3433
▁subitement	-11.3433
▁nucléaire	-11.344
▁loisir	-11.3448
▁Power	-11.3449
▁outils	-11.3457
▁enceinte	-11.3461
▁précipite	-11.3468
▁d'autre	-11.3469
▁d’apprendre	-11.3475
article	-11.3482
▁succession	-11.3489
▁seize	-11.3492
▁crépuscule	-11.3496
▁s’installa	-11.3499
▁nœud	-11.3511
▁(avec	-11.3511
▁ouvrant	-11.3518
▁aérienne	-11.3525
absorb	-11.3525
▁parisien	-11.3528
▁glisse	-11.3529
enfoncer	-11.353
▁samedi	-11.3533
▁millénaire	-11.3539
▁sur-le-champ	-11.3539
▁s’enfuir	-11.354
▁ruissel	-11.354
▁démocratique	-11.3546
▁bûche	-11.3546
▁généraux	-11.3553
▁sphère	-11.3553
▁producteur	-11.3567
▁vigueur	-11.3567
▁bijoux	-11.3575
▁réduire	-11.3589
▁Caroline	-11.3589
▁matelot	-11.3589
▁mêla	-11.3589
▁Californie	-11.3596
▁brièvement	-11.361
▁constamment	-11.361
▁angoisse	-11.3617
▁administrative	-11.3625
▁inventé	-11.3628
▁recueil	-11.3642
▁hâta	-11.365
▁collaboration	-11.366
▁C’étaient	-11.3668
▁vingt-quatre	-11.3675
▁affecté	-11.3682
▁locaux	-11.3682
▁Moscou	-11.369
▁dégager	-11.369
▁Bleu	-11.3716
▁transmett	-11.3716
▁communiquer	-11.3719
▁redresse	-11.372
▁carreau	-11.3721
▁jalousie	-11.3725
▁plaign	-11.3735
▁regroupe	-11.3735
▁Télé	-11.3748
▁absorbé	-11.3749
▁équipage	-11.3754
▁Music	-11.3762
▁fantastique	-11.3769
▁défunt	-11.377
▁noyé	-11.3771
▁shérif	-11.3776
▁signification	-11.3776
▁partiellement	-11.3777
▁mécanisme	-11.3783
▁affreuse	-11.3784
▁blague	-11.3784
▁Juifs	-11.3793
▁vierge	-11.3794
▁identité	-11.3806
▁adapté	-11.3813
▁Palm	-11.3817
▁vulgaire	-11.382
▁transparent	-11.382
▁Arrivé	-11.3827
▁familière	-11.3835
▁gentilhomme	-11.3844
élite	-11.385
▁devraient	-11.3866
▁grimaça	-11.3871
▁intact	-11.3872
▁sympathie	-11.3879
▁enfonça	-11.3879
▁Festival	-11.3893
▁regagner	-11.3893
▁étonnement	-11.3901
suppl	-11.3915
▁héritier	-11.3916
▁s’appuya	-11.393
Histoire	-11.3931
▁républicain	-11.3938
▁Journal	-11.3938
▁pleure	-11.3944
▁Hawk	-11.3945
anniversaire	-11.3952
▁étouffa	-11.3952
▁orbite	-11.3953
▁inconscient	-11.3967
▁Dominique	-11.3967
▁désastre	-11.3967
▁tiendra	-11.3972
▁compositeur	-11.3975
▁occupait	-11.3982
▁l’absence	-11.3997
▁écouté	-11.3997
$	-11.4004
▁l'occasion	-11.4012
▁Presque	-11.4012
▁divisé	-11.4021
Océan	-11.4023
▁fromage	-11.4027
▁musulman	-11.4034
▁interlocuteur	-11.4034
▁Attends	-11.4035
▁Vierge	-11.4035
▁emporta	-11.4054
approcha	-11.4056
▁cercueil	-11.4057
▁sifflement	-11.4057
▁borne	-11.4064
▁déclenche	-11.4064
▁portefeuille	-11.4072
American	-11.4072
▁guitare	-11.4079
▁l'Église	-11.4079
▁lorsqu'il	-11.4079
▁vis-à-vis	-11.4079
▁plaindre	-11.4079
▁mondial	-11.4091
▁renommé	-11.4094
▁Prenez	-11.4108
▁l'objet	-11.4117
▁d’aucun	-11.4117
▁rêvé	-11.4124
▁fontaine	-11.4125
▁informé	-11.4126
▁légitime	-11.4132
▁LNH	-11.4132
▁épouvantable	-11.4132
▁Sophie	-11.4132
▁Public	-11.4139
▁génétique	-11.4139
▁regagna	-11.4162
▁l’équipage	-11.4169
▁horizon	-11.4177
▁Lorraine	-11.4185
▁témoigne	-11.4185
▁mercenaire	-11.4192
worth	-11.4192
▁bouleversé	-11.42
▁embarrassé	-11.42
▁actif	-11.4201
▁avouer	-11.4201
▁N’est-ce	-11.4207
▁l’arbre	-11.4223
▁Capitaine	-11.4238
▁Giovanni	-11.4238
▁s’agenouilla	-11.4238
▁auxquelles	-11.4238
▁Royaume	-11.4245
▁pèlerin	-11.4245
▁l'espace	-11.4253
▁approché	-11.4253
▁stratégie	-11.4261
▁Âge	-11.4261
▁précipitamment	-11.4261
▁coopér	-11.4264
▁perplexe	-11.4268
▁littéralement	-11.4276
▁physionomie	-11.4276
▁wagon	-11.4276
▁promener	-11.4276
▁fermier	-11.4276
▁Petr	-11.4278
▁téléphonique	-11.4284
intendant	-11.4285
institut	-11.4287
▁perpétue	-11.4291
▁participé	-11.4291
▁farouche	-11.4299
▁singulier	-11.4299
▁hommage	-11.4299
▁détaché	-11.43
▁accompagna	-11.4314
▁parchemin	-11.4315
▁Toulouse	-11.4322
▁chiffon	-11.4323
Argentine	-11.4324
▁impassible	-11.433
▁justifie	-11.433
▁torrent	-11.433
▁application	-11.4337
▁aisément	-11.4338
▁Vingt	-11.4339
▁rez-de-chaussée	-11.4345
▁dégagé	-11.4346
occupant	-11.4347
▁renversa	-11.4357
▁informatique	-11.436
▁Charlotte	-11.436
▁vœu	-11.4366
▁Chicago	-11.4368
▁l'opérateur	-11.4368
[7]	-11.4368
▁appui	-11.4372
▁concentrer	-11.4376
▁législative	-11.4376
▁l’embrassa	-11.4376
▁cadet	-11.4376
▁paradis	-11.4385
▁Bonjour,	-11.4391
▁déplacement	-11.4391
▁prudemment	-11.4399
▁réfugié	-11.4399
▁atroce	-11.44
▁Inutile	-11.4415
▁sang-froid	-11.443
▁scrupule	-11.443
▁promotion	-11.443
▁lugubre	-11.4438
▁trompa	-11.445
▁Coordonnées	-11.4453
▁fichier	-11.4454
▁ramasser	-11.4469
ø	-11.4485
▁enthousiasme	-11.4485
▁whisky	-11.4485
▁rejeta	-11.4486
▁tyran	-11.4508
▁océan	-11.4516
▁besogne	-11.4524
▁atelier	-11.4525
▁spectre	-11.4533
▁échappa	-11.4543
▁entreprit	-11.4547
▁provoqua	-11.4548
▁l'auteur	-11.4555
▁cigare	-11.456
▁l’ensemble	-11.4563
▁discret	-11.4563
▁Sénat	-11.4566
▁domicile	-11.4571
▁Erreur	-11.4571
▁dépassé	-11.4579
▁protecteur	-11.4587
▁Notre-Dame	-11.4595
▁quatorze	-11.4595
▁recrut	-11.4597
▁lâché	-11.4602
▁attribué	-11.461
▁Drizzt	-11.4618
▁çà	-11.4618
’abandonne	-11.463
▁exprima	-11.464
▁l’origine	-11.4642
▁massive	-11.4642
▁ouvrait	-11.4643
▁incendie	-11.465
▁m’occupe	-11.4658
▁Théâtre	-11.4658
▁cavalerie	-11.4666
▁souffert	-11.4666
▁ronge	-11.4671
▁INSEE[1])	-11.4674
▁scénario	-11.4674
▁dynastie	-11.4682
▁n’oublie	-11.4682
▁trouvèrent	-11.4682
▁tabac	-11.4682
▁m’aider	-11.469
▁Apparemment	-11.469
▁préférer	-11.469
▁appliqué	-11.4698
▁sénateur	-11.4698
▁étudia	-11.47
encontre	-11.4705
▁croyant	-11.4706
▁vénér	-11.4706
innombrables	-11.4714
▁rapidité	-11.4714
▁l’énergie	-11.4738
▁signature	-11.4738
▁Silence	-11.4738
▁pneu	-11.4742
▁Droit	-11.4747
▁Margaret	-11.4754
▁épousé	-11.4754
▁Jérusalem	-11.4762
▁robuste	-11.4762
▁Embranchement	-11.477
▁Jean-Pierre	-11.477
▁voudrez	-11.477
▁gouverna	-11.477
▁attrapa	-11.4778
▁nièce	-11.4778
▁embarras	-11.4785
▁orgueil	-11.4788
▁amateur	-11.4794
▁intéresse	-11.4802
▁exerce	-11.4803
▁bouffée	-11.481
▁l'Assemblée	-11.4818
▁gâteau	-11.4818
▁remords	-11.4819
▁s’immobilisa	-11.4826
▁pelouse	-11.4826
▁Résultat	-11.4834
▁bénéfice	-11.4842
▁fabrication	-11.4842
instrument	-11.4843
▁Dictionnaire	-11.4859
▁martyr	-11.4859
interprétation	-11.4867
▁bêtise	-11.4875
▁ultime	-11.4875
▁voyaient	-11.4875
▁détente	-11.488
▁entrèrent	-11.4899
▁souvint	-11.4899
▁réparer	-11.4924
▁Certainement	-11.4932
▁relâche	-11.4932
▁hardi	-11.4937
▁hypo	-11.4942
▁remonté	-11.4944
▁Naturellement	-11.4948
▁interminable	-11.4948
▁Florence	-11.4948
▁vestibule	-11.4956
▁judiciaire	-11.4964
▁voulons	-11.4965
▁pyramide	-11.4973
▁chandelle	-11.4973
▁hockey	-11.4981
▁trafic	-11.4981
▁procédure	-11.4989
▁satisfaire	-11.4989
▁écrasa	-11.499
▁Luxembourg	-11.4997
▁mitraille	-11.4998
Ê	-11.5006
▁sous-marin	-11.5014
▁converti	-11.5018
▁remercia	-11.5022
▁commode	-11.5022
▁similaire	-11.5022
▁rampa	-11.5023
▁veuille	-11.503
▁narines	-11.5039
▁T’as	-11.5047
▁Filmographie	-11.5063
▁hostile	-11.5063
▁exercice	-11.5072
▁évanoui	-11.5072
▁l’échelle	-11.5072
▁circon	-11.5072
▁sculpture	-11.508
▁vicomte	-11.5088
▁organisme	-11.5088
▁Stefan	-11.5089
électricité	-11.5096
▁Jondalar	-11.5096
▁Pardaillan	-11.5096
▁d’épaule	-11.5097
▁Central	-11.5097
▁vacilla	-11.5103
▁autonome	-11.5105
▁évoque	-11.5106
▁compétence	-11.5113
▁Libér	-11.5115
▁insupportable	-11.5121
▁stupeur	-11.5121
▁fâché	-11.5121
▁ressemblaient	-11.513
▁trentaine	-11.513
▁Était-ce	-11.513
▁fossé	-11.5147
▁fondamental	-11.5155
▁comparaison	-11.5163
▁minimum	-11.5163
iendront	-11.5165
▁alliance	-11.5172
▁tactique	-11.5172
▁récolte	-11.5172
▁essuya	-11.518
▁XVIIe	-11.518
▁attaqua	-11.5183
▁antérieur	-11.5188
▁l'École	-11.5188
▁mutuel	-11.5191
▁émergea	-11.52
▁démonstration	-11.5213
▁Turquie	-11.5213
▁terrifiant	-11.523
▁treize	-11.523
Antoine	-11.5233
-neuf	-11.5235
▁fameuse	-11.5239
▁bœuf	-11.5247
▁financier	-11.5247
▁capturé	-11.5273
▁vêtement	-11.5273
Armée	-11.5274
▁sculpté	-11.5281
▁refermer	-11.5281
équation	-11.5282
▁bataillon	-11.5289
▁l’auberge	-11.5289
▁refermé	-11.529
▁financière	-11.5298
▁fréquence	-11.5298
▁couvercle	-11.5298
▁échoué	-11.5298
town	-11.5302
▁détresse	-11.5307
▁offrait	-11.5307
▁rassurer	-11.5318
▁m’étonne	-11.5323
▁l’estomac	-11.534
François	-11.5351
▁cervelle	-11.5374
Football	-11.5374
▁terrifié	-11.5383
▁coiffé	-11.5391
▁bagages	-11.5401
▁rebondi	-11.5406
▁Nicholas	-11.5408
égalité	-11.5409
▁embrassa	-11.5419
▁politesse	-11.5434
▁comprenant	-11.5434
▁cravate	-11.5434
▁zoo	-11.5437
▁dégâts	-11.5451
▁gratuit	-11.5452
▁Bordeaux	-11.546
▁with	-11.5469
▁l’intérêt	-11.5477
▁hésiter	-11.5477
▁J’allai	-11.5478
▁progressivement	-11.5486
▁concentré	-11.5486
▁délicieuse	-11.5494
▁sanctuaire	-11.5503
▁estomac	-11.5503
▁quelqu'un	-11.5512
▁distribution	-11.5512
▁chronique	-11.552
▁fonça	-11.552
améliorer	-11.5529
▁permanence	-11.5529
▁médicament	-11.5538
▁rejeté	-11.5548
▁gonflé	-11.5564
▁s’échappa	-11.5567
▁Madrid	-11.5573
▁croyance	-11.5573
▁l’étranger	-11.5573
▁soulevé	-11.5573
▁espérance	-11.5581
▁l’ignore	-11.5582
▁sanguin	-11.5585
▁rapproché	-11.5616
▁archives	-11.5616
▁anéanti	-11.5616
▁pensif	-11.5617
André	-11.562
▁météo	-11.5631
▁chevet	-11.5634
▁corbeau	-11.5634
▁combiné	-11.5634
crypt	-11.5637
▁compassion	-11.5642
▁privilège	-11.5651
▁www.	-11.5651
▁suivaient	-11.5651
▁ambition	-11.5652
æ	-11.59
Ô	-11.5981
Œ	-11.6323
Â	-11.6705
&	-11.7285
Ç	-11.7972
ō	-11.7972
×	-11.8139
†	-11.8321
ò	-11.912
ì	-11.9748
Á	-12.0719
å	-12.109
@	-12.1334
`	-12.1633
‚	-12.2124
—	-12.2451
©	-12.3091
~	-12.3402
ß	-12.574
–	-12.5942
À	-12.7122
Ö	-12.7132
ð	-12.8089
‘	-12.8848
―	-12.9148
Æ	-12.9319
ý	-12.9319
‡	-12.9563
|	-12.9603
ū	-12.9633
Î	-13.1457
∘	-13.146
Å	-13.1503
±	-13.203
<	-13.3265
¿	-13.4415
μ	-13.4473
\	-13.4589
§	-13.4945
®	-13.5128
ÿ	-13.5763
•	-13.6302
õ	-13.6512
­	-13.6583
⁄	-13.7169
Ü	-13.7398
Ä	-13.7553
£	-13.8035
Ó	-13.8201
^	-13.8542
Ø	-13.9353
Í	-14.1092
∞	-14.1205
Ï	-14.2404
Þ	-14.2532
š	-14.3338
Û	-14.3478
¡	-14.3766
Ë	-14.5344
č	-14.5871
∗	-14.6238
Ú	-14.6426
þ	-14.6426
‐	-14.7427
Ù	-14.7427
	-14.9528
ā	-15.0625
̈	-15.1222
Ñ	-15.1534
“	-15.2469
π	-15.2892
Ć	-15.4047
ć	-15.4464
̄	-15.4464
Ń	-15.4899
¬	-15.5353
α	-15.5353
÷	-15.5829
Ś	-15.6329
¢	-15.7411
ο	-15.7411
¤	-15.8
ν	-15.8
¦	-15.8625
≠	-15.9291
ι	-15.9291
ε	-16.0005
ž	-16.0775
Ã	-16.1608
Ò	-16.1608
τ	-16.1608
λ	-16.1608
σ	-16.2517
Ā	-16.2517
€	-16.2517
¥	-16.3517
Ω	-16.3517
κ	-16.3517
ς	-16.3517
υ	-16.3517
→	-16.3517
Ð	-16.4628
ρ	-16.4628
♦	-16.4628
¶	-16.5878
ī	-16.5878
Ȃ	-16.5878
ὰ	-16.5878
γ	-16.5878
∫	-16.7307
ω	-16.7307
„	-16.8973
Α	-16.8973
Ì	-17.0973
̧	-17.0973
Ε	-17.0973
θ	-17.0973
ὶ	-17.0973
›	-17.0973
φ	-17.0973
Δ	-17.3473
ş	-17.3473
ź	-17.3473
Ι	-17.3473
Ο	-17.3473
‹	-17.3473
↵	-17.3473
∂	-17.3473
χ	-17.3474
ό	-17.3474
Е	-17.3474
ί	-17.3474
т	-17.3474
К	-17.6807
Õ	-17.6807
Ý	-17.6807
Č	-17.6807
Ł	-17.6807
Š	-17.6807
Γ	-17.6807
Ν	-17.6807
Σ	-17.6807
β	-17.6807
є	-17.6807
ἐ	-17.6807
≈	-17.6807
◊	-17.6807
★	-17.6807
ř	-17.6807
Ž	-17.6807
ἀ	-17.6807
а	-17.6807
И	-18.1807
С	-18.1807
Ō	-18.1807
ě	-18.1807
ĭ	-18.1807
ı	-18.1807
ś	-18.1807
Λ	-18.1807
Τ	-18.1807
η	-18.1807
Љ	-18.1807
В	-18.1807
О	-18.1807
е	-18.1807
о	-18.1807
с	-18.1807
ῑ	-18.1807
∪	-18.1807
☺	-18.1807
ξ	-18.1807
р	-18.1807
и	-18.1807
✴	-19.1803
−	-19.1804
́	-19.1805
̆	-19.1806
δ	-19.1807
ὐ	-19.1807
ħ	-19.1807
ἠ	-19.1807
ă	-19.1807
ē	-19.1807
Ĕ	-19.1807
ğ	-19.1807
Ĭ	-19.1807
ň	-19.1807
ţ	-19.1807
ˇ	-19.1807
̓	-19.1807
Κ	-19.1807
Π	-19.1807
Χ	-19.1807
έ	-19.1807
ψ	-19.1807
ύ	-19.1807
ώ	-19.1807
Г	-19.1807
б	-19.1807
в	-19.1807
к	-19.1807
п	-19.1807
ь	-19.1807
я	-19.1807
ἢ	-19.1807
Ἤ	-19.1807
ἶ	-19.1807
ζ	-19.1807
х	-19.1807
ἕ	-19.1807
ἱ	-19.1807
̊	-19.1807
н	-19.1807
