<s>	0
</s>	0
<unk>	0
<pad>	0
,	-3.32586
▁de	-3.3562
.	-3.54274
▁la	-3.98143
▁et	-4.15768
▁le	-4.19013
s	-4.22084
▁à	-4.27842
▁les	-4.58843
▁en	-4.74402
▁que	-4.7584
▁—	-4.78027
▁un	-4.81443
▁des	-4.9395
▁du	-5.07184
▁pas	-5.0982
▁une	-5.12223
▁dans	-5.14007
▁?	-5.17787
▁se	-5.20469
▁qui	-5.21193
▁ne	-5.26029
▁pour	-5.31903
▁il	-5.32501
▁Il	-5.41583
▁:	-5.47451
▁sur	-5.48419
▁son	-5.50871
▁je	-5.53498
▁ce	-5.62235
▁est	-5.63497
e	-5.63764
▁au	-5.65081
▁plus	-5.67786
▁|	-5.71071
▁par	-5.71798
▁!	-5.73924
▁a	-5.76415
▁vous	-5.76583
▁Je	-5.79318
▁sa	-5.83765
▁avait	-5.84418
▁lui	-5.85895
▁avec	-5.87108
▁Le	-5.95167
▁était	-5.96947
▁me	-6.06385
▁elle	-6.09005
▁ses	-6.09412
▁mais	-6.10397
...	-6.13537
▁«	-6.13838
▁comme	-6.16789
▁La	-6.17891
▁nous	-6.17996
▁;	-6.18136
▁tout	-6.19547
▁qu’il	-6.21212
s,	-6.25785
▁	-6.2614
▁si	-6.37139
▁–	-6.40004
▁Elle	-6.40327
▁»	-6.40954
s.	-6.44376
)	-6.45081
▁bien	-6.45716
▁ou	-6.48896
nt	-6.49591
▁cette	-6.50283
▁dit	-6.50627
▁Les	-6.5296
r	-6.55923
▁Et	-6.56053
▁d’un	-6.58895
▁deux	-6.62806
a	-6.64605
▁même	-6.65989
▁-	-6.67391
▁y	-6.67397
▁mon	-6.68804
▁Mais	-6.68845
▁sans	-6.69281
▁fait	-6.69907
▁leur	-6.71153
▁aux	-6.7226
▁faire	-6.78006
▁tu	-6.78037
▁sont	-6.78998
▁où	-6.83421
▁été	-6.88522
▁d’une	-6.89559
▁on	-6.91463
▁Vous	-6.92578
▁ma	-6.9437
es	-6.96223
er	-6.98248
i	-7.01119
▁C’est	-7.01316
▁En	-7.01562
▁c’est	-7.018
it	-7.02289
▁aussi	-7.03586
▁·	-7.04128
▁vers	-7.0733
▁ces	-7.074
▁peu	-7.09745
▁qu’elle	-7.10481
▁encore	-7.10641
-	-7.11851
▁tous	-7.14938
▁être	-7.15023
▁suis	-7.1698
▁Ce	-7.2022
ait	-7.20304
▁A	-7.2093
▁ils	-7.21217
▁Un	-7.21654
▁Tu	-7.22578
▁(	-7.25158
▁très	-7.25786
▁sous	-7.26008
▁quand	-7.26614
▁On	-7.28583
t	-7.30753
▁étaient	-7.31437
▁jamais	-7.3222
▁ça	-7.34072
▁fut	-7.34284
▁dont	-7.34547
é	-7.34789
▁avant	-7.3624
ment	-7.3644
▁temps	-7.36685
▁puis	-7.37063
▁yeux	-7.37473
▁toujours	-7.38428
▁Si	-7.39897
▁te	-7.4168
▁rien	-7.42195
▁Ils	-7.42879
▁entre	-7.43147
▁leurs	-7.43553
▁fit	-7.45204
▁fois	-7.46895
▁ont	-7.49359
▁À	-7.49376
▁Une	-7.51248
▁De	-7.5143
z	-7.51819
▁Nous	-7.52338
ant	-7.5311
▁j’ai	-7.53621
▁votre	-7.54033
▁toute	-7.54471
▁alors	-7.55321
▁voir	-7.55758
▁quelque	-7.56014
o	-7.57003
▁contre	-7.57486
▁avoir	-7.57771
▁tête	-7.59072
▁voix	-7.59462
▁après	-7.5949
▁moins	-7.59733
▁avaient	-7.60323
▁quelques	-7.61351
▁chose	-7.63317
▁homme	-7.64034
▁cela	-7.65443
▁jeune	-7.65483
▁trop	-7.6582
▁mes	-7.66118
▁main	-7.66305
▁d’	-7.66872
▁petit	-7.66983
y	-7.67246
▁moi	-7.67772
▁qu’on	-7.6796
▁trois	-7.67967
▁dire	-7.68392
▁devant	-7.68438
e,	-7.68545
▁l’	-7.69053
▁depuis	-7.69218
▁l'	-7.70117
▁autre	-7.70514
▁J’ai	-7.7055
▁grand	-7.71352
▁n’est	-7.71477
▁peut	-7.71678
▁donc	-7.72474
ient	-7.72831
e.	-7.74789
▁n’avait	-7.76025
▁porte	-7.76065
▁ton	-7.76396
▁n’était	-7.77292
▁femme	-7.77429
▁déjà	-7.77479
▁2	-7.78811
▁monde	-7.79229
▁car	-7.80053
aient	-7.80177
▁non	-7.80419
▁Au	-7.80728
▁point	-7.81687
▁coup	-7.82139
▁c’était	-7.84031
▁va	-7.84476
▁ni	-7.85468
▁toutes	-7.86681
▁Pour	-7.86729
▁qu’ils	-7.87043
▁Sa	-7.87124
▁chez	-7.87145
▁1	-7.87192
▁notre	-7.88477
▁vos	-7.88999
▁eu	-7.89469
▁vie	-7.89867
▁peut-être	-7.89909
▁nom	-7.90649
d	-7.91471
▁pouvait	-7.92282
▁d'	-7.92765
▁près	-7.93045
▁cet	-7.93098
▁soit	-7.93458
▁s’était	-7.94032
▁ainsi	-7.94273
▁Dans	-7.94408
is	-7.95099
▁aurait	-7.95925
▁moment	-7.96228
▁autres	-7.96562
▁pu	-7.97587
▁n’y	-7.97669
▁pendant	-7.9772
▁m’a	-7.99172
▁regard	-7.99667
l	-7.99845
▁petite	-8.00099
▁là	-8.00287
▁hommes	-8.00795
▁sais	-8.01038
c	-8.01818
:	-8.01884
▁mal	-8.01998
▁d'un	-8.02278
▁3	-8.02519
▁faut	-8.02717
▁C’était	-8.03095
ra	-8.0393
▁première	-8.04579
▁grande	-8.05392
▁Des	-8.05396
▁partie	-8.05542
▁premier	-8.06365
▁Cette	-8.06619
▁S	-8.06747
▁bon	-8.06916
▁s’il	-8.07736
n	-8.08087
▁Portail	-8.08203
▁serait	-8.0835
▁assez	-8.08725
▁quoi	-8.08991
m	-8.09176
▁répondit	-8.09289
▁beaucoup	-8.09387
▁demanda	-8.09542
▁visage	-8.09984
▁jour	-8.10013
▁vu	-8.10113
▁Son	-8.10176
▁M.	-8.10752
ent	-8.11095
▁mort	-8.11419
▁l’a	-8.11945
).	-8.12331
▁d'une	-8.13145
▁côté	-8.13236
),	-8.13824
▁prendre	-8.1389
▁jusqu’à	-8.14138
▁père	-8.14846
▁4	-8.14952
▁nouveau	-8.15607
▁faisait	-8.15991
▁derrière	-8.16023
▁avez	-8.16851
▁bras	-8.17397
▁n’a	-8.17417
"	-8.17704
u	-8.17747
▁Tout	-8.18409
▁seul	-8.1855
▁»,	-8.18776
▁Quand	-8.19331
ur	-8.19471
in	-8.19542
▁Ma	-8.20351
▁tant	-8.20515
▁s’en	-8.21203
▁Cet	-8.22667
▁veux	-8.2343
▁fille	-8.23484
▁gens	-8.23737
▁qu’un	-8.23883
▁presque	-8.24471
▁Ça	-8.24661
▁moi,	-8.24794
▁nos	-8.25445
ne	-8.26081
▁personne	-8.26108
▁eut	-8.26517
on	-8.26542
▁corps	-8.26588
▁pouvez	-8.26649
▁autour	-8.26848
▁besoin	-8.27777
▁long	-8.28123
▁Ne	-8.28156
èrent	-8.29185
▁pris	-8.29416
▁mains	-8.3046
▁article	-8.3063
▁s’est	-8.30955
▁bout	-8.312
▁5	-8.31232
▁m	-8.31346
▁France	-8.31397
▁n’en	-8.31482
▁Pas	-8.31484
▁place	-8.31641
▁plusieurs	-8.31698
g	-8.32246
▁Oui,	-8.32316
?	-8.32378
▁l’air	-8.32745
▁ta	-8.32924
▁mieux	-8.32966
▁sera	-8.33055
▁Que	-8.3313
▁qu'il	-8.33572
▁crois	-8.33586
▁Comme	-8.33588
▁Mon	-8.33957
▁6	-8.34076
▁parce	-8.34301
▁ville	-8.34305
▁chaque	-8.35231
▁l’autre	-8.35748
▁pourquoi	-8.35844
▁in	-8.35885
▁doute	-8.36025
▁seulement	-8.36831
▁bonne	-8.37046
▁celui	-8.37191
▁comment	-8.38034
al	-8.38109
▁tour	-8.3812
ons	-8.38496
▁part	-8.38673
▁façon	-8.3906
▁quatre	-8.39708
▁juste	-8.39801
▁fin	-8.39978
▁maison	-8.4032
▁devait	-8.41064
▁Par	-8.41277
▁seule	-8.41675
▁roi	-8.41713
▁l’avait	-8.42001
▁êtes	-8.42011
na	-8.42546
▁ceux	-8.42629
le	-8.42881
▁Non,	-8.43287
▁Puis	-8.44287
ez	-8.44327
▁peine	-8.44433
▁n’ai	-8.44436
▁vraiment	-8.44457
▁nuit	-8.44481
▁lieu	-8.4472
▁pouvoir	-8.44908
▁B	-8.45189
▁C	-8.45325
▁Après	-8.45726
▁ans	-8.45749
▁concernant	-8.45926
▁parler	-8.46009
▁fort	-8.46034
ai	-8.46261
▁ai	-8.46641
'	-8.46914
▁I	-8.46937
▁d’être	-8.47037
▁partager	-8.47207
▁avons	-8.4729
▁P	-8.47336
▁vieux	-8.47643
▁savoir	-8.47648
▁maintenant	-8.47705
▁mère	-8.48191
f	-8.48254
en	-8.48316
▁cœur	-8.48334
▁vais	-8.48369
ais	-8.48605
▁prit	-8.48796
▁as	-8.49436
▁celle	-8.49512
▁passer	-8.49563
te	-8.49587
▁ici	-8.49673
▁connaissances	-8.49885
h	-8.50004
▁savait	-8.50198
▁trouver	-8.50619
▁allait	-8.50662
▁qu’une	-8.50883
▁dû	-8.51146
▁mettre	-8.51495
▁Pourquoi	-8.51865
▁doit	-8.52324
▁heures	-8.52344
▁aucun	-8.52474
ta	-8.52853
▁également	-8.52963
▁reste	-8.53541
re	-8.53595
▁peux	-8.5387
k	-8.54426
us	-8.54696
▁E	-8.55021
▁mit	-8.55338
de	-8.55626
▁semblait	-8.55857
▁compte	-8.55936
▁fils	-8.56115
▁!...	-8.56371
▁Comment	-8.56432
▁nouvelle	-8.56585
▁venait	-8.56774
▁droit	-8.56921
▁D	-8.57033
▁L’	-8.5752
ch	-8.57572
▁regarda	-8.57628
▁cours	-8.57874
▁M	-8.57944
▁vit	-8.58087
▁L'	-8.58223
>	-8.5844
▁ébauche	-8.5847
▁j’avais	-8.58474
▁Ses	-8.58961
▁tandis	-8.58965
▁7	-8.59039
▁(Comment	-8.59408
▁moi.	-8.59421
▁l'améliorant.	-8.5958
▁sourire	-8.59582
▁re	-8.59926
▁mis	-8.59947
▁jours	-8.59962
▁dernier	-8.59985
▁partir	-8.60513
▁lui.	-8.60515
▁T	-8.60684
▁cas	-8.60819
▁lui,	-8.6107
▁choses	-8.6116
p	-8.61411
x	-8.61453
▁Du	-8.62016
▁dé	-8.62161
▁fond	-8.62412
▁raison	-8.62493
▁"	-8.62764
/	-8.63213
▁leva	-8.63244
▁années	-8.63295
▁The	-8.63417
▁aucune	-8.63515
▁tête.	-8.63967
▁17	-8.64026
▁sommes	-8.64093
▁cinq	-8.64199
▁passé	-8.64409
▁face	-8.6448
▁loin	-8.64916
la	-8.64989
▁10	-8.6508
▁aller	-8.65139
▁l’un	-8.65189
▁milieu	-8.65438
▁donner	-8.65577
ée	-8.6624
ation	-8.66277
▁8	-8.66325
▁voulait	-8.66548
▁of	-8.66708
▁quelqu’un	-8.67092
▁pas.	-8.67135
▁Dieu	-8.67271
▁Cela	-8.67355
▁monsieur	-8.67433
rait	-8.6756
▁d’autres	-8.67614
▁travers	-8.68272
▁es	-8.68383
▁16	-8.68388
▁l’on	-8.68689
▁laisser	-8.68811
▁air	-8.68899
▁souvent	-8.69055
▁F	-8.69131
▁G	-8.69188
▁dernière	-8.69743
▁Eh	-8.69757
▁sang	-8.69924
▁groupe	-8.69928
▁terre	-8.69954
▁9	-8.70107
▁15	-8.70207
ma	-8.70249
me	-8.7027
▁forme	-8.70421
▁chambre	-8.70656
an	-8.70899
▁qu’à	-8.7096
▁train	-8.71247
▁lorsque	-8.71287
▁trouve	-8.71422
▁pourrait	-8.7209
▁bien,	-8.72322
▁donné	-8.72333
▁laquelle	-8.72898
▁dis	-8.73129
▁sens	-8.73871
▁genre	-8.74395
▁Qui	-8.74641
▁Alors	-8.7467
▁cause	-8.74794
▁pied	-8.74814
▁?).	-8.7588
▁sorte	-8.75937
▁question	-8.7599
▁force	-8.76304
▁là,	-8.76339
es,	-8.76542
▁Bien	-8.76955
▁famille	-8.77068
▁Qu’est-ce	-8.77356
▁cheveux	-8.77403
▁demande	-8.77412
▁Ah	-8.77475
▁lumière	-8.77667
▁0	-8.78132
man	-8.78188
2	-8.78198
il	-8.78402
▁mot	-8.78636
b	-8.78831
▁eux	-8.78894
▁plutôt	-8.7899
▁Sur	-8.79572
▁elles	-8.79909
▁suite	-8.80153
▁mille	-8.80408
▁bord	-8.80558
▁propre	-8.82238
ter	-8.82424
▁général	-8.82664
▁salle	-8.82891
▁N	-8.83125
▁pays	-8.83365
▁trouvait	-8.83525
▁longtemps	-8.83527
▁afin	-8.8368
▁haut	-8.83689
▁quel	-8.84075
ir	-8.84145
▁the	-8.84442
ie	-8.84575
▁Re	-8.84702
▁feu	-8.84841
▁m’en	-8.84955
▁l’ai	-8.85058
▁toi	-8.85156
▁lors	-8.85292
▁rendre	-8.8558
or	-8.85583
▁12	-8.85693
▁vue	-8.8607
▁manière	-8.86115
ge	-8.86471
▁14	-8.86858
▁possible	-8.86918
▁au-dessus	-8.87417
at	-8.87443
▁O	-8.87533
▁femmes	-8.87668
▁pense	-8.87977
▁gros	-8.88256
▁sûr	-8.88388
▁nombre	-8.88412
▁dès	-8.88442
▁signe	-8.88478
▁V	-8.88544
el	-8.88795
▁entendu	-8.88968
▁Paris	-8.89249
▁guerre	-8.89381
▁Sans	-8.89426
▁tenait	-8.8961
▁autant	-8.89675
▁l’homme	-8.89703
▁d	-8.8972
▁commune	-8.89785
▁enfin	-8.8984
▁grands	-8.90033
▁peur	-8.90135
▁Ces	-8.90485
▁13	-8.9054
▁dix	-8.90927
▁d’avoir	-8.91056
▁Jean	-8.91093
▁C'est	-8.91409
ro	-8.91684
▁direction	-8.92393
▁L	-8.92694
▁Se	-8.92719
▁bois	-8.92732
▁vrai	-8.92949
▁Oh	-8.93106
▁maître	-8.93535
et	-8.93761
▁chemin	-8.93895
▁bruit	-8.93969
▁fallait	-8.93979
▁j’étais	-8.94085
▁trouvé	-8.94113
es.	-8.94216
▁Peut-être	-8.94266
da	-8.94309
▁pièce	-8.9439
▁reprit	-8.94433
ing	-8.94451
▁20	-8.94574
▁route	-8.9497
▁venir	-8.95041
▁Avec	-8.95329
no	-8.95413
▁11	-8.95484
do	-8.95753
▁demander	-8.96144
▁fois,	-8.96262
▁veut	-8.96638
▁Car	-8.96652
▁dit-il	-8.96809
▁rue	-8.96835
▁petits	-8.96906
▁chef	-8.9699
▁début	-8.97004
▁Al	-8.97448
1	-8.97536
▁chercher	-8.9767
▁sait	-8.97861
▁enfants	-8.97906
▁surtout	-8.98482
eur	-8.98648
ar	-8.99018
▁beau	-8.99135
▁voilà	-8.99438
▁bas	-8.99902
▁simple	-9.00052
té	-9.00068
▁é	-9.00305
S	-9.00338
▁passe	-9.00485
▁garde	-9.00603
to	-9.00646
▁bouche	-9.0065
▁furent	-9.007
▁Alors,	-9.01313
▁».	-9.01376
ia	-9.01406
▁tourna	-9.01603
▁moindre	-9.01628
▁travail	-9.01702
▁table	-9.01765
▁Me	-9.01969
▁cent	-9.02096
-il	-9.02229
▁pauvre	-9.02338
▁Ou	-9.02518
ton	-9.02644
th	-9.02868
▁grâce	-9.03278
▁certain	-9.0329
▁tel	-9.03322
▁eût	-9.03339
▁mois	-9.03736
ner	-9.03843
▁parmi	-9.03877
v	-9.04073
▁six	-9.0415
w	-9.04314
▁frère	-9.04344
▁rester	-9.04535
▁Or	-9.04704
ine	-9.04969
▁sol	-9.05013
▁ait	-9.05076
▁plein	-9.05084
▁ensuite	-9.05367
▁selon	-9.05425
tte	-9.05529
▁plan	-9.05629
.)	-9.05905
▁type	-9.05956
▁soleil	-9.06021
ga	-9.06521
▁tard,	-9.06688
ck	-9.06889
ni	-9.06953
▁sortir	-9.07005
▁vieille	-9.07077
▁lequel	-9.07103
▁pieds	-9.07322
▁mots	-9.07486
ce	-9.07765
▁idée	-9.07959
▁l'a	-9.07998
▁certains	-9.08122
▁né	-9.08855
▁disait	-9.09212
▁Pierre	-9.09213
▁ça,	-9.09287
▁perdu	-9.09301
▁temps,	-9.09315
▁tomber	-9.09549
▁voiture	-9.09758
▁silence	-9.09791
▁envie	-9.09959
▁vois	-9.09986
▁vite	-9.10203
▁fais	-9.10224
▁quelle	-9.1031
3	-9.10597
▁geste	-9.10619
▁venu	-9.10633
▁ré	-9.10745
▁instant	-9.10881
▁K	-9.10941
▁moyen	-9.10954
rai	-9.1101
▁simplement	-9.11014
▁Est-ce	-9.11041
▁lit	-9.11158
▁français	-9.11197
▁rouge	-9.11233
▁noir	-9.11438
▁ami	-9.11499
▁parfois	-9.11516
▁présent	-9.11619
▁jeta	-9.11684
age	-9.11932
▁longue	-9.11953
▁présence	-9.11983
au	-9.12254
▁s’	-9.12315
ca	-9.1233
;	-9.1237
▁voulu	-9.12709
um	-9.12739
▁18	-9.12866
va	-9.13026
▁donne	-9.13642
▁compris	-9.13835
▁Grand	-9.13913
▁belle	-9.14048
▁mouvement	-9.14193
co	-9.1503
▁soudain	-9.15096
▁n'est	-9.15102
▁vent	-9.15237
▁000	-9.15253
▁passa	-9.15418
▁bientôt	-9.15461
▁vient	-9.15478
▁di	-9.15686
▁politique	-9.15708
▁croire	-9.15942
▁j’en	-9.16075
▁c'est	-9.16095
▁plupart	-9.16095
▁lui-même	-9.1615
▁mur	-9.16264
▁Co	-9.16331
ri	-9.16339
▁telle	-9.16343
▁s’y	-9.16378
▁ayant	-9.1654
▁retour	-9.16603
▁doigts	-9.1684
▁sortit	-9.16857
▁ciel	-9.16957
▁yeux.	-9.1714
▁semble	-9.17221
ry	-9.17342
▁tes	-9.17367
▁but	-9.17463
7	-9.17486
4	-9.17496
▁dois	-9.17524
▁ans,	-9.17587
▁pourtant	-9.17654
▁H	-9.17846
H	-9.1802
▁R	-9.18067
▁d’en	-9.18155
▁Mme	-9.18202
▁garçon	-9.18223
▁jeunes	-9.18329
▁(19	-9.18395
lo	-9.18442
▁faisant	-9.1875
▁jusqu’au	-9.18806
▁Où	-9.18913
▁m’	-9.18948
▁d’abord	-9.18964
▁San	-9.19003
▁ligne	-9.1923
ions	-9.1938
▁moment,	-9.19456
és	-9.20117
que	-9.20158
▁penser	-9.2026
▁Ta	-9.20263
▁personnes	-9.20604
▁fût	-9.20883
▁assis	-9.20975
▁région	-9.21105
▁demandé	-9.21151
▁mesure	-9.2125
▁malgré	-9.21383
▁regarder	-9.21506
li	-9.21593
▁portait	-9.21643
▁voyait	-9.21646
▁minutes	-9.21792
go	-9.2199
▁capitaine	-9.22106
▁dos	-9.22237
(	-9.22242
▁Paul	-9.22351
▁comte	-9.22474
▁mètres	-9.2257
▁tard	-9.22574
r.	-9.22914
▁soir	-9.22937
▁rire	-9.22968
▁laissa	-9.22976
▁Votre	-9.2299
▁peuvent	-9.23031
▁Ha	-9.23119
▁In	-9.23147
▁Pendant	-9.23148
ion	-9.23602
▁cri	-9.23744
A	-9.23933
▁rapport	-9.23966
▁seconde	-9.23974
di	-9.24125
▁Plus	-9.24305
▁sort	-9.24341
▁heure	-9.24503
▁mars	-9.24509
▁Y	-9.24719
as	-9.24757
ement	-9.24894
▁Pays	-9.25171
▁savez	-9.25177
▁large	-9.25179
▁s	-9.2543
▁d’œil	-9.25463
▁jeu	-9.25571
▁sentait	-9.25697
▁Tous	-9.25834
▁d’autre	-9.26135
▁hors	-9.26261
▁rien.	-9.26422
▁langue	-9.26528
▁laissé	-9.26659
▁coups	-9.26789
ver	-9.26831
▁livre	-9.27022
ité	-9.27077
▁mer	-9.27117
lé	-9.27158
▁lettre	-9.27175
▁lèvres	-9.27195
▁service	-9.27235
▁l’impression	-9.27481
▁peau	-9.27585
8	-9.27648
▁Depuis	-9.27757
▁nombreux	-9.28028
▁aussitôt	-9.28041
▁articles	-9.2822
ka	-9.28252
▁membres	-9.2839
-t-il	-9.28501
▁taille	-9.28884
▁centre	-9.28956
▁Deux	-9.28984
▁sujet	-9.2903
▁restait	-9.29038
ti	-9.2908
▁prix	-9.29138
▁connu	-9.29141
der	-9.29202
▁retrouver	-9.29313
▁arrivé	-9.29343
▁situation	-9.29642
▁Louis	-9.29697
▁John	-9.29823
▁l’eau	-9.29866
▁s’étaient	-9.29909
▁chacun	-9.29998
▁sentit	-9.30056
▁puisse	-9.30175
▁musique	-9.30184
ux	-9.30214
▁parti	-9.30322
ed	-9.3047
▁tête,	-9.30475
▁Liens	-9.30501
▁dit-il.	-9.30807
▁moitié	-9.30981
▁projet	-9.31025
▁Ca	-9.31079
▁font	-9.31235
-19	-9.31412
▁verre	-9.31417
mo	-9.31644
▁tellement	-9.31829
che	-9.31833
▁con	-9.31851
▁Même	-9.31895
sse	-9.31913
▁état	-9.31933
▁and	-9.31981
▁prince	-9.32418
ré	-9.32459
▁Voilà	-9.32479
▁nouvelles	-9.32575
▁voulez	-9.32604
▁système	-9.32712
▁étant	-9.32779
mi	-9.32845
▁ici,	-9.32849
▁rapidement	-9.32908
▁coin	-9.33086
▁Mar	-9.33099
▁enfant	-9.33117
9	-9.33197
▁bureau	-9.33262
▁siècle	-9.33284
B	-9.33531
▁rôle	-9.33599
▁Paris,	-9.33855
▁soldats	-9.34074
▁Non	-9.34226
▁Bon	-9.34336
ly	-9.34386
ler	-9.34438
▁vide	-9.34724
▁J	-9.3498
▁courant	-9.34994
▁s’écria	-9.35005
▁su	-9.35012
▁parle	-9.35016
0	-9.35078
▁retourna	-9.35166
▁cher	-9.35337
N	-9.35418
T	-9.35463
ve	-9.35528
▁série	-9.35536
▁22	-9.35632
ât	-9.35654
▁New	-9.35658
▁d’a	-9.3587
▁ça.	-9.35922
▁vingt	-9.35955
▁comprendre	-9.35961
▁duc	-9.35972
▁Charles	-9.3607
né	-9.36079
▁toi,	-9.36119
j	-9.36345
▁El	-9.36377
▁30	-9.36486
▁cas,	-9.36534
▁propos	-9.36905
▁Ni	-9.36983
▁Rien	-9.37119
son	-9.37346
▁J’avais	-9.37355
▁titre	-9.37378
▁19	-9.37934
▁David	-9.38097
▁auprès	-9.38234
▁perdre	-9.38259
▁cou	-9.38353
▁21	-9.38453
▁page	-9.38816
ront	-9.39506
▁troisième	-9.39555
▁cour	-9.39578
▁s’a	-9.39668
ure	-9.39705
▁position	-9.39842
▁cependant	-9.39906
▁tenir	-9.39972
▁film	-9.39989
G	-9.40065
▁mari	-9.40148
▁fer	-9.40168
▁docteur	-9.40176
]	-9.40201
▁25	-9.40218
▁parlé	-9.40263
▁deuxième	-9.40395
▁gauche	-9.40478
▁histoire	-9.40923
▁grandes	-9.41003
▁police	-9.41139
▁durant	-9.41302
▁vivre	-9.41423
▁externes	-9.41469
aux	-9.41507
▁capable	-9.41512
▁posa	-9.41562
C	-9.41594
▁juin	-9.41597
D	-9.41716
▁jouer	-9.41728
▁petites	-9.41758
▁Ar	-9.4177
id	-9.41804
▁regardait	-9.41871
▁n’avais	-9.41978
▁vint	-9.42008
▁jambes	-9.42038
▁/	-9.42151
▁2007	-9.42239
▁madame	-9.42252
▁tirer	-9.42254
▁bleu	-9.42393
▁d’elle	-9.42435
▁pierre	-9.42461
▁W	-9.42571
▁cru	-9.42629
▁Parti	-9.42654
▁réussi	-9.42753
▁pleine	-9.42982
-moi	-9.43144
land	-9.43144
▁jour,	-9.43147
▁tué	-9.43412
▁savais	-9.43506
▁Oui.	-9.43573
▁compagnie	-9.43584
▁qu’	-9.43585
ad	-9.43587
▁É	-9.43833
▁haute	-9.44079
▁n’est-ce	-9.44106
▁guère	-9.44177
▁figure	-9.44312
L	-9.44357
▁plaisir	-9.44457
▁gouvernement	-9.44475
▁cheval	-9.44573
▁droite	-9.44639
▁S’il	-9.44694
▁quitter	-9.4481
▁lettres	-9.44967
▁mise	-9.44984
er.	-9.44997
6	-9.4521
▁second	-9.45294
▁paraissait	-9.45296
▁endroit	-9.45397
▁tuer	-9.45492
▁front	-9.45525
▁s'	-9.45564
▁resta	-9.45607
ul	-9.45612
▁Nord	-9.45635
mer	-9.45825
▁main.	-9.45865
▁habitants	-9.46021
▁matin	-9.46103
’	-9.46148
F	-9.46168
▁amis	-9.4625
iste	-9.46406
▁voyage	-9.46514
▁mauvais	-9.46718
▁recherche	-9.46803
▁fil	-9.46857
▁24	-9.46878
▁appris	-9.4699
▁Mo	-9.47043
▁Val	-9.47057
▁certaine	-9.47092
▁sac	-9.47129
ou	-9.47394
▁II	-9.47402
▁2001	-9.47432
▁mai	-9.47593
▁blanc	-9.47685
▁population	-9.47749
▁ouvrit	-9.4791
▁servir	-9.47951
▁esprit	-9.47983
▁environ	-9.48111
▁poste	-9.48137
▁reine	-9.48138
▁Ti	-9.48218
▁passait	-9.48318
▁entendre	-9.48327
▁attention	-9.4839
▁s’arrêta	-9.48408
▁n’aurait	-9.48526
▁23	-9.48657
▁tôt	-9.4874
▁paroles	-9.48956
▁prêt	-9.48995
▁site	-9.49095
▁fini	-9.49151
▁?...	-9.49283
be	-9.49305
▁Mont	-9.49566
▁difficile	-9.49716
▁1999	-9.49722
▁qu'elle	-9.49743
ard	-9.49858
▁Li	-9.49872
▁qu’en	-9.49905
▁Va	-9.49905
▁voulais	-9.49921
▁robe	-9.50034
-elle	-9.50163
ha	-9.50256
▁commença	-9.50479
V	-9.50483
▁Po	-9.50534
▁pensée	-9.50589
▁connais	-9.50634
▁dire,	-9.50743
▁sud	-9.50767
▁Robert	-9.50782
ment,	-9.50951
's	-9.50987
▁prend	-9.51007
▁lança	-9.51073
▁montrer	-9.5114
▁devenir	-9.51189
▁parfaitement	-9.5129
am	-9.51344
▁chance	-9.51345
▁2006	-9.51345
▁No	-9.5141
▁aura	-9.51435
▁soir,	-9.51452
pe	-9.5146
▁seigneur	-9.51471
use	-9.51587
▁vont	-9.51947
▁complètement	-9.5199
▁premiers	-9.52082
pa	-9.52132
▁tendit	-9.52136
▁Histoire	-9.52144
im	-9.52146
se	-9.5223
▁niveau	-9.52402
lin	-9.52422
ville	-9.52461
▁Ra	-9.5259
▁lentement	-9.52711
▁Monsieur	-9.52761
▁couleur	-9.52814
5	-9.52894
▁m’avait	-9.52911
▁Bo	-9.53012
▁foule	-9.53025
▁1er	-9.53056
▁oui,	-9.53094
▁véritable	-9.53095
▁X	-9.53096
ut	-9.53135
▁p	-9.53153
▁société	-9.53212
▁probablement	-9.5328
▁alla	-9.53322
▁différents	-9.53372
M	-9.53403
▁l’heure	-9.53425
▁impossible	-9.53426
▁%	-9.53835
▁Enfin,	-9.53914
▁passage	-9.53915
▁comprends	-9.53938
▁Elles	-9.53945
▁secoua	-9.5405
▁scène	-9.54052
▁Ben	-9.54292
▁put	-9.54407
▁laisse	-9.54477
▁v	-9.54522
▁située	-9.54589
▁huit	-9.54663
▁prise	-9.54726
▁exactement	-9.5473
▁écrit	-9.54771
▁murmura	-9.54796
▁n'a	-9.54832
▁États-Unis	-9.54867
isme	-9.54969
▁dit-elle	-9.55005
▁village	-9.55038
▁Quel	-9.55046
▁aussi,	-9.55065
▁maintenant,	-9.55103
P	-9.55105
▁&	-9.5511
ance	-9.55119
▁poussa	-9.55131
▁donnait	-9.55157
▁n’avaient	-9.55253
▁fait,	-9.55423
▁Quoi	-9.55508
ot	-9.55525
▁vis	-9.55562
▁Per	-9.55614
ya	-9.55652
▁juge	-9.55706
▁l’intérieur	-9.55714
ke	-9.55792
▁ajouta	-9.55882
▁faisaient	-9.56198
E	-9.56203
▁l’esprit	-9.56207
▁Non.	-9.56304
▁trouva	-9.56401
▁devient	-9.5643
▁d’A	-9.5643
▁yeux,	-9.5667
▁terme	-9.56729
▁notamment	-9.56761
▁l’une	-9.56852
▁arrive	-9.56913
▁nature	-9.57111
ba	-9.57145
▁cents	-9.57221
lan	-9.57222
cha	-9.57319
▁puisque	-9.57335
▁désir	-9.57501
don	-9.57578
▁désormais	-9.57602
▁sentiment	-9.57667
▁président	-9.57672
▁porter	-9.57695
▁Da	-9.57728
▁parlait	-9.5774
▁effet	-9.57762
▁vie.	-9.57792
urs	-9.57792
▁faites	-9.57832
▁parut	-9.57946
▁pièces	-9.58138
▁Chapitre	-9.58256
tre	-9.58356
▁cela,	-9.58376
▁dame	-9.5844
▁souvenir	-9.58528
▁dit-il,	-9.5853
▁Michel	-9.58557
os	-9.58672
▁connaissait	-9.58679
ier	-9.58695
▁Richard	-9.58721
▁[	-9.58736
▁meilleur	-9.58745
▁voyant	-9.5881
▁or	-9.59074
▁effet,	-9.592
▁nuit,	-9.59249
▁nez	-9.59273
▁27	-9.59288
▁bande	-9.5941
▁ans.	-9.59569
▁Jacques	-9.59638
▁Code	-9.5968
▁temps.	-9.59689
▁entrer	-9.59779
▁peuple	-9.59821
▁forces	-9.59851
▁2000	-9.59887
▁Z	-9.5994
▁28	-9.59948
tion	-9.59992
rie	-9.60071
▁pouvaient	-9.60195
▁continua	-9.60332
▁al	-9.60431
▁Dé	-9.60507
mon	-9.60511
▁marche	-9.60603
▁devenu	-9.60613
▁(Il	-9.60636
er,	-9.60698
▁dehors	-9.60799
▁J’étais	-9.60839
▁Jack	-9.60867
▁Personne	-9.60901
▁surprise	-9.60947
▁risque	-9.61007
▁porte.	-9.61023
▁base	-9.61036
▁attendre	-9.61068
▁faible	-9.61221
▁chien	-9.61228
▁Lorsque	-9.61242
▁n’étaient	-9.61268
▁Très	-9.61349
▁combien	-9.61453
▁mort.	-9.61542
▁affaire	-9.61555
▁espèce	-9.61672
▁monter	-9.61695
▁garder	-9.61728
▁devoir	-9.61741
▁derniers	-9.61749
▁26	-9.61783
ic	-9.61876
▁J’en	-9.61996
▁U	-9.62127
▁sûr,	-9.6234
▁décidé	-9.62444
▁connaître	-9.62477
19	-9.62575
▁an	-9.6263
▁Parce	-9.62725
▁voit	-9.62802
ées	-9.62928
▁surface	-9.62988
▁ensemble	-9.63028
▁ici.	-9.63073
▁là.	-9.63153
▁certaines	-9.63216
▁combat	-9.63248
ac	-9.63276
▁entra	-9.63344
▁dents	-9.63359
▁loi	-9.63373
iez	-9.63438
▁l	-9.63442
▁a-t-il	-9.63564
▁l’idée	-9.63663
▁sept	-9.63669
▁Liste	-9.63808
▁matin,	-9.63843
bo	-9.63864
▁manger	-9.63903
▁reçu	-9.6392
un	-9.64105
▁Man	-9.64261
▁2005	-9.64364
▁est-ce	-9.64372
▁d'a	-9.64486
▁pont	-9.64512
les	-9.64522
▁janvier	-9.64563
▁ministre	-9.64573
▁Tour	-9.64585
▁lire	-9.64589
▁douleur	-9.64633
▁données	-9.64954
▁Pro	-9.65029
▁nord	-9.65119
▁q	-9.65162
▁Na	-9.65276
▁produit	-9.65334
▁double	-9.65365
▁épaules	-9.65388
ille	-9.6544
▁suivi	-9.65599
▁2004	-9.65626
ssant	-9.65703
▁allons	-9.6578
▁vie,	-9.65831
▁Be	-9.65834
▁légèrement	-9.65939
▁Mais,	-9.65966
ale	-9.66045
vi	-9.66069
z-vous	-9.66164
▁fenêtre	-9.66298
▁l’é	-9.66363
▁donna	-9.66364
den	-9.66428
▁château	-9.66446
▁celles	-9.66477
▁joue	-9.66479
ron	-9.66509
▁française	-9.66537
▁contact	-9.66547
▁commencé	-9.66549
K	-9.66656
▁nationale	-9.66726
▁réponse	-9.66748
▁visite	-9.66773
▁froid	-9.66885
▁pouvais	-9.66898
▁revenir	-9.66915
▁Dès	-9.66953
▁bataille	-9.66985
▁septembre	-9.67102
▁poser	-9.67117
▁ancien	-9.67124
▁père,	-9.67177
▁Ba	-9.67195
▁Quant	-9.6724
▁jusqu'à	-9.67289
ont	-9.67415
▁Mes	-9.6742
▁femme,	-9.67486
ina	-9.67555
R	-9.67583
▁rencontre	-9.67587
▁arriver	-9.67623
▁Quelle	-9.67642
per	-9.67664
▁l’in	-9.67797
▁eux,	-9.6782
▁Marie	-9.67906
▁portes	-9.67972
▁commence	-9.6798
▁permet	-9.68005
ique	-9.68039
▁avais	-9.6812
▁to	-9.68248
▁regardant	-9.68252
▁journée	-9.68265
▁l’en	-9.68415
aire	-9.68422
▁sombre	-9.68472
▁retourner	-9.685
ff	-9.68539
▁brusquement	-9.68584
▁colère	-9.6861
▁Do	-9.68654
▁tira	-9.68731
▁(18	-9.68734
▁voie	-9.68742
▁sœur	-9.68769
▁déclara	-9.68775
▁Ga	-9.68802
▁chaleur	-9.68808
mé	-9.6893
▁proche	-9.68934
con	-9.68959
▁poche	-9.68966
▁fou	-9.68999
▁camp	-9.69005
▁...	-9.69054
tra	-9.69091
▁découvert	-9.6914
▁Harry	-9.69167
▁celui-ci	-9.69167
▁sortie	-9.69193
▁chair	-9.69246
chi	-9.69377
qui	-9.69401
▁d'A	-9.69422
aï	-9.69508
▁1990	-9.69512
ol	-9.69543
▁juillet	-9.69555
▁n’importe	-9.69613
▁p.	-9.69626
▁nombreuses	-9.69651
▁Di	-9.69684
▁Ré	-9.69756
▁suivre	-9.69828
▁d'autres	-9.69921
▁problème	-9.69938
▁t’en	-9.70032
▁revint	-9.70133
▁instant,	-9.7014
▁court	-9.70167
▁quartier	-9.70173
if	-9.70196
▁monde.	-9.7038
▁main,	-9.70412
▁29	-9.70464
val	-9.70487
ssa	-9.7072
teur	-9.70936
▁département	-9.7099
▁Cependant,	-9.71131
▁charge	-9.71166
ris	-9.71235
▁siège	-9.71369
tes	-9.71391
▁François	-9.71399
▁conscience	-9.71401
em	-9.71407
▁vitesse	-9.71412
▁avril	-9.71442
ble	-9.71497
ise	-9.71502
▁sorti	-9.71539
▁champ	-9.71591
▁appelé	-9.71694
▁oublié	-9.71767
eurs	-9.7187
▁aide	-9.71886
sh	-9.71894
▁étrange	-9.71903
ger	-9.71916
▁co	-9.72204
▁2002	-9.72309
▁j’	-9.72338
▁terrible	-9.72439
▁vaisseau	-9.72493
▁cria	-9.72506
▁facile	-9.72509
▁commandant	-9.72562
▁numéro	-9.72566
ll	-9.72656
a,	-9.72692
▁Mor	-9.72707
▁noire	-9.72913
▁ouvert	-9.72914
▁Lo	-9.73011
lle	-9.73054
op	-9.73064
ja	-9.73065
▁km2	-9.7308
▁doucement	-9.73097
▁hocha	-9.73175
io	-9.73175
▁découvrir	-9.73256
▁non,	-9.73321
▁noirs	-9.73339
▁Philippe	-9.73481
▁n’ont	-9.73647
▁kilomètres	-9.73708
ci	-9.73714
▁Ri	-9.73777
ko	-9.73835
▁goût	-9.73957
▁l’instant	-9.74036
ley	-9.74041
▁George	-9.74148
▁Puis,	-9.74158
▁Moi	-9.74231
▁s’agissait	-9.74281
▁pensé	-9.74294
▁calme	-9.74311
▁viens	-9.7437
▁doigt	-9.7442
▁pré	-9.74458
▁Martin	-9.74471
▁allez	-9.7458
▁entendit	-9.74699
▁d’entre	-9.74716
▁rendu	-9.74741
▁côte	-9.748
▁papier	-9.74851
▁eux.	-9.74869
mar	-9.74881
st	-9.74888
▁liste	-9.74982
▁Con	-9.74995
▁par-dessus	-9.75097
▁Avant	-9.75173
▁s'est	-9.75183
▁arbres	-9.752
ence	-9.75231
▁larmes	-9.75245
▁d’aller	-9.75269
▁pluie	-9.75281
▁gagner	-9.75678
▁Toutes	-9.75729
▁venue	-9.75805
ana	-9.75863
▁qu’elles	-9.75893
▁*	-9.7591
▁heureux	-9.75918
▁mourir	-9.75966
▁répliqua	-9.7603
▁expression	-9.76048
▁Pa	-9.76158
▁Pi	-9.76168
▁cité	-9.76235
▁téléphone	-9.76271
du	-9.76333
▁Go	-9.76361
▁lorsqu’il	-9.76398
▁filles	-9.76447
▁puissance	-9.76457
▁lu	-9.76469
▁murs	-9.76601
▁propres	-9.76637
▁départ	-9.76695
▁décembre	-9.7672
▁2003	-9.76743
▁l’endroit	-9.76852
▁livres	-9.7686
▁dire.	-9.76887
▁soient	-9.76902
▁cris	-9.7695
▁neuf	-9.76985
▁diable	-9.77019
ère	-9.77045
za	-9.77065
▁confiance	-9.77131
ins	-9.77137
▁Bob	-9.77151
▁semaine	-9.77152
▁joie	-9.77191
▁Bou	-9.77242
▁changer	-9.7725
▁questions	-9.77377
▁carte	-9.77422
▁vin	-9.77437
▁An	-9.77455
▁pro	-9.77482
▁points	-9.77565
▁t	-9.77623
▁devrait	-9.77673
▁montre	-9.77751
▁avions	-9.77796
▁certainement	-9.78138
▁l’amour	-9.78177
▁arrière	-9.78325
▁millions	-9.784
▁vérité	-9.78436
ran	-9.78582
▁novembre	-9.78633
(s)	-9.78639
▁gris	-9.787
▁officiel	-9.7871
tu	-9.78717
▁t’a	-9.78749
▁terrain	-9.78779
▁2008	-9.78853
▁trou	-9.78877
rais	-9.78894
min	-9.79001
nce	-9.79013
▁ca	-9.79102
▁l'A	-9.79105
▁port	-9.7911
▁ferait	-9.79203
▁étions	-9.79204
ssent	-9.79354
▁auraient	-9.79385
▁regarde	-9.79414
ide	-9.79468
▁1962	-9.79498
▁présente	-9.79504
▁répondre	-9.79649
▁existe	-9.79662
▁octobre	-9.7971
▁vol	-9.79835
▁souffle	-9.7986
▁période	-9.79894
sa	-9.79899
10	-9.79923
▁neige	-9.80042
▁poids	-9.80072
▁sentir	-9.80081
▁pencha	-9.80181
▁Tom	-9.80249
▁vert	-9.80282
▁jeter	-9.80352
▁rejoindre	-9.80512
gi	-9.80627
▁comptes	-9.80773
▁chose.	-9.80787
by	-9.80815
▁œil	-9.80817
▁rentrer	-9.80821
▁traits	-9.80983
▁suivant	-9.81001
▁qu’est-ce	-9.81032
▁Jo	-9.81145
▁affaires	-9.81147
▁cinquante	-9.81178
▁ha	-9.81181
nes	-9.81241
▁Quelques	-9.81266
▁province	-9.8127
▁quitté	-9.81378
▁domaine	-9.81522
▁salon	-9.81538
17	-9.8161
▁message	-9.81685
▁rien,	-9.81842
▁membre	-9.81867
▁République	-9.81885
s)	-9.81894
▁homonymes	-9.8197
!	-9.8211
▁paraît	-9.82261
▁valeur	-9.8233
▁1997	-9.82438
▁bâtiment	-9.82443
ns	-9.82494
▁seront	-9.82498
▁boîte	-9.82529
▁Dr	-9.82542
▁navire	-9.82565
ateur	-9.82599
ki	-9.82607
▁manque	-9.82693
▁pourrais	-9.82735
▁exemple	-9.82735
▁Terre	-9.82801
▁gorge	-9.82815
▁épaules.	-9.82816
▁So	-9.82863
▁présent,	-9.82878
▁s’agit	-9.82946
ster	-9.83091
▁nuit.	-9.83157
▁libre	-9.83184
▁contrôle	-9.83268
ven	-9.83274
able	-9.83298
gé	-9.83306
▁club	-9.83337
▁sauver	-9.83372
▁août	-9.83373
▁monde,	-9.83399
▁haussa	-9.835
▁nommé	-9.83527
▁tourner	-9.83559
▁laissant	-9.83614
▁chemise	-9.83689
po	-9.8372
▁secret	-9.83747
▁Lu	-9.83757
▁ordre	-9.83806
▁vague	-9.83818
▁Ho	-9.83833
▁nouveaux	-9.83868
▁Population	-9.83888
▁professeur	-9.8389
▁prenait	-9.8392
▁Oh,	-9.83997
▁preuve	-9.84158
▁marcher	-9.84204
▁Maintenant,	-9.84237
▁s’ils	-9.84268
▁To	-9.84314
eau	-9.84316
▁vêtements	-9.84335
▁Henri	-9.84385
▁mort,	-9.84399
▁masse	-9.84465
▁tombe	-9.84505
▁carrière	-9.84509
▁l’intention	-9.84519
▁reprendre	-9.8455
▁1995	-9.84569
▁mission	-9.84609
▁sauf	-9.84613
▁Ka	-9.84659
▁monsieur,	-9.8467
▁épouse	-9.84731
▁davantage	-9.84873
▁grosse	-9.84875
▁suppose	-9.84923
▁connaissance	-9.84986
▁mauvaise	-9.85082
▁jours,	-9.85091
▁armes	-9.8512
▁Pe	-9.85213
ras	-9.85323
▁n’avez	-9.85342
▁respect	-9.85357
▁n’	-9.85393
▁L’homme	-9.85418
▁fauteuil	-9.8547
▁vas	-9.85496
▁Ja	-9.85617
▁sein	-9.85686
▁pointe	-9.85706
▁blanche	-9.85732
▁Ko	-9.85802
▁février	-9.85847
▁absolument	-9.85921
▁chevaux	-9.85935
▁distance	-9.85981
▁conseil	-9.86016
▁Miss	-9.86031
rons	-9.86085
▁Prix	-9.86088
▁mariage	-9.86107
ez-vous	-9.86125
▁Saint	-9.86157
▁devint	-9.8619
▁conversation	-9.86192
a.	-9.86201
▁s’approcha	-9.86218
▁boire	-9.86224
▁l’ombre	-9.86225
▁gardes	-9.86356
▁naissance	-9.86438
▁bête	-9.86506
▁Région	-9.86536
▁Te	-9.86551
▁Bar	-9.86697
▁forte	-9.86751
▁saison	-9.86754
▁pensait	-9.86891
ssait	-9.87001
▁d’or	-9.87001
▁elle-même	-9.87005
▁parents	-9.8706
▁l'un	-9.87097
▁trente	-9.87131
▁1996	-9.87165
▁puis,	-9.87174
▁Guerre	-9.8722
▁tomba	-9.87324
▁Bill	-9.87375
▁Ro	-9.87401
▁1998	-9.8745
▁Van	-9.87582
ah	-9.87616
ex	-9.87763
▁d’eau	-9.87812
▁médecin	-9.87815
▁porte,	-9.87983
▁encore,	-9.88008
▁bar	-9.8802
▁toi.	-9.8803
▁sourit	-9.88174
▁commençait	-9.88199
▁immédiatement	-9.88384
▁attendait	-9.88505
s-tu	-9.88655
port	-9.88655
▁différentes	-9.88738
▁g	-9.8875
▁soin	-9.8877
▁Jamais	-9.88782
▁Har	-9.88786
▁public	-9.89098
vo	-9.89124
▁lever	-9.89147
▁courir	-9.89218
▁Peter	-9.89286
▁léger	-9.89404
▁vision	-9.89422
30	-9.89425
▁l'histoire	-9.89471
▁côté,	-9.89475
gue	-9.89545
20	-9.89762
▁os	-9.89937
▁couteau	-9.90078
▁descendre	-9.90544
ano	-9.90559
▁Trois	-9.90564
▁comprit	-9.90574
▁l’enfant	-9.90577
O	-9.90603
ment.	-9.90632
▁Nom	-9.90665
▁Cha	-9.907
▁bras.	-9.90725
▁seraient	-9.90756
▁dit-elle.	-9.90769
s...	-9.90802
▁sommet	-9.9081
dor	-9.9087
▁journal	-9.90941
▁poitrine	-9.90993
▁envoyé	-9.91008
▁important	-9.91015
▁vaut	-9.91061
cher	-9.91095
▁date	-9.91121
ho	-9.91172
▁parole	-9.91183
▁chargé	-9.91186
▁bien.	-9.91278
ire	-9.91345
▁choisi	-9.9135
▁debout	-9.91358
W	-9.91383
▁d’où	-9.91442
▁Pourtant,	-9.91462
▁fumée	-9.91465
r,	-9.91492
▁Mac	-9.91571
▁allé	-9.91642
▁finalement	-9.9167
▁rendit	-9.91783
▁h	-9.91835
▁secondes	-9.91871
▁fonction	-9.91882
rin	-9.91896
▁voudrais	-9.92099
▁vaste	-9.92164
ber	-9.92277
▁passant	-9.92342
▁terre,	-9.92365
▁profond	-9.92428
bi	-9.92467
▁finit	-9.92635
▁longues	-9.92638
▁saisit	-9.92641
▁rappelle	-9.92735
▁faudrait	-9.92806
▁sécurité	-9.92925
ante	-9.92968
▁l’entrée	-9.92971
▁chasse	-9.93005
ian	-9.93127
▁do	-9.93129
40	-9.93169
▁couloir	-9.93171
▁battre	-9.93193
▁Sous	-9.93231
▁1982	-9.93251
▁rapide	-9.9331
▁celle-ci	-9.93381
▁personnage	-9.93412
▁arriva	-9.93432
▁spectacle	-9.93559
fi	-9.93631
▁dîner	-9.93643
â	-9.93652
50	-9.93734
tique	-9.93765
▁James	-9.93926
▁Moi,	-9.93927
▁aujourd’hui	-9.93931
80	-9.93945
▁d’y	-9.93951
▁Conseil	-9.93988
▁col	-9.94005
[	-9.94035
▁j’aurais	-9.94086
lu	-9.94088
▁particulier	-9.94123
▁disant	-9.94154
ive	-9.94191
▁d’in	-9.94204
▁serais	-9.94221
▁lueur	-9.94247
▁servi	-9.94271
▁autres,	-9.94337
ssaient	-9.94356
ade	-9.94358
▁incapable	-9.94373
dé	-9.94377
▁maison.	-9.9442
▁national	-9.94429
▁Don	-9.94431
▁fera	-9.94437
▁premières	-9.9445
▁gare	-9.94512
▁femme.	-9.94536
▁dernières	-9.94557
▁douce	-9.94645
▁Site	-9.94664
▁fleurs	-9.94664
-t-elle	-9.94697
âmes	-9.94715
▁homme,	-9.94789
▁1994	-9.94789
▁suffisamment	-9.94802
▁situé	-9.94898
▁Bi	-9.94906
▁âge	-9.94919
▁c	-9.9497
▁sourire.	-9.94993
▁vrai,	-9.95006
ino	-9.95012
▁Ver	-9.95061
▁communes	-9.95104
▁loin,	-9.95155
▁continuer	-9.95188
▁marché	-9.95193
▁cuir	-9.95199
ette	-9.95301
▁Bu	-9.95309
nant	-9.95351
▁devaient	-9.955
▁fois.	-9.95639
ché	-9.95651
▁Ru	-9.95656
▁toucher	-9.95659
▁créature	-9.95665
▁(en	-9.95775
▁d’eux	-9.95847
▁1968	-9.95848
▁ressemblait	-9.95865
▁vieil	-9.95913
▁directeur	-9.95918
▁chaise	-9.95936
▁maîtresse	-9.96032
▁Seigneur	-9.96093
pi	-9.96121
▁(S	-9.96153
▁seuls	-9.96185
▁pain	-9.96215
▁Dieu,	-9.9628
▁doivent	-9.96304
▁Malgré	-9.96385
▁mémoire	-9.96407
▁physique	-9.96413
▁section	-9.9642
-le	-9.96431
▁Madame	-9.96456
▁maison,	-9.96461
▁Chi	-9.96462
▁Cor	-9.96509
▁Su	-9.96544
▁hauteur	-9.96549
▁ferme	-9.96571
▁vouloir	-9.96602
▁bonheur	-9.96619
▁forêt	-9.96693
▁énorme	-9.96699
tin	-9.96721
▁classique	-9.96759
▁surpris	-9.9681
▁don	-9.96827
▁riche	-9.96837
euse	-9.96857
▁caractère	-9.96917
▁l’ordre	-9.96965
▁posé	-9.96982
▁rêve	-9.97006
▁profonde	-9.97013
▁l’histoire	-9.97023
▁suivit	-9.97047
▁Superficie	-9.97106
▁troupes	-9.97236
ts	-9.97276
▁Mer	-9.97282
▁Mal	-9.97324
▁Canada	-9.97338
pp	-9.97388
▁beauté	-9.97395
▁J’	-9.97435
▁+	-9.97454
▁victoire	-9.97555
▁intérêt	-9.97557
▁dirait	-9.97585
▁atteint	-9.97593
▁arrivée	-9.97594
▁mère,	-9.97628
ologie	-9.9766
▁frais	-9.97696
▁unique	-9.97777
▁terre.	-9.97791
▁signifie	-9.97842
▁Hé	-9.97871
▁demeure	-9.97927
ttes	-9.97946
▁chère	-9.9806
▁somme	-9.98062
▁travailler	-9.98139
▁maisons	-9.98166
▁danger	-9.98205
▁payer	-9.98215
▁remarqua	-9.9824
▁morts	-9.98321
00	-9.9836
▁met	-9.9837
▁radio	-9.98372
ze	-9.98382
▁lendemain	-9.98397
▁Sud	-9.9851
▁arme	-9.98563
▁1992	-9.98587
[1]	-9.98605
istes	-9.98671
▁version	-9.98693
▁construction	-9.98693
▁commencer	-9.98699
▁palais	-9.98716
▁l’autre,	-9.98786
jo	-9.98788
▁remettre	-9.98795
▁Fa	-9.98938
▁s’assit	-9.98955
▁l'on	-9.98973
▁rang	-9.99059
▁travaux	-9.99105
▁poursuivit	-9.99111
▁football	-9.99163
▁volonté	-9.99178
▁répéta	-9.99249
▁Ensuite	-9.99249
▁militaire	-9.99343
van	-9.99357
▁d'or	-9.99363
▁bateau	-9.99364
}}}	-9.99378
mp	-9.99401
▁course	-9.9944
▁profondément	-9.99443
▁Sam	-9.99468
▁cercle	-9.99728
▁protéger	-9.99846
gen	-9.99872
▁clair	-9.99894
▁t’	-9.99898
▁fille,	-9.99977
▁reconnaître	-10.0003
▁prenant	-10.0005
▁lieutenant	-10.0019
▁pierres	-10.0028
▁Michael	-10.0031
eux	-10.004
oc	-10.0041
nd	-10.0042
▁remarquer	-10.0043
▁récit	-10.0049
▁nom.	-10.0049
t,	-10.005
▁sûre	-10.0055
▁Aussi	-10.0056
▁armée	-10.0063
ru	-10.0065
▁connaît	-10.0066
▁demain	-10.0067
▁succès	-10.0069
°	-10.0069
▁zone	-10.0073
▁anglais	-10.0075
▁allaient	-10.0078
gan	-10.0087
▁rend	-10.0102
▁attendant	-10.0103
▁éviter	-10.0105
▁joueur	-10.0109
▁quinze	-10.011
-là	-10.011
▁heures,	-10.011
▁1993	-10.0111
▁sûrement	-10.0122
▁permettre	-10.0122
▁choix	-10.0128
▁raisons	-10.0131
á	-10.0134
▁essayer	-10.0135
▁Notes	-10.0136
▁voici	-10.014
▁km	-10.014
▁année	-10.0152
▁ai-je	-10.0158
▁qu'ils	-10.0166
▁qualité	-10.0172
▁cacher	-10.0173
▁III	-10.0181
▁meilleure	-10.0184
▁commun	-10.019
ng	-10.0195
▁Pan	-10.0198
▁rues	-10.0202
▁roman	-10.0205
▁rire.	-10.0206
▁France.	-10.0211
▁feuilles	-10.0219
▁l'é	-10.0227
▁royaume	-10.023
▁jardin	-10.0237
▁venaient	-10.0241
▁possède	-10.0245
▁crâne	-10.0245
▁doubles	-10.0248
▁mode	-10.0249
▁for	-10.0251
▁1975	-10.0252
isation	-10.0265
qua	-10.0269
ny	-10.0277
▁formation	-10.0279
▁classe	-10.028
ria	-10.0281
▁mine	-10.0282
▁essayé	-10.0283
▁marque	-10.0289
dy	-10.0294
▁trouvaient	-10.03
▁justice	-10.0309
▁Leur	-10.031
▁Georges	-10.0312
▁France,	-10.0313
▁Mi	-10.0319
▁utilisé	-10.032
▁faite	-10.0321
▁fasse	-10.0326
▁théâtre	-10.0339
▁permis	-10.0342
▁Mr	-10.0343
▁soupir	-10.0344
▁immense	-10.0345
▁lac	-10.0354
▁instants	-10.0355
▁contraire	-10.0355
▁événements	-10.0356
▁hasard	-10.036
▁texte	-10.0362
é,	-10.0375
▁Chaque	-10.0375
▁nécessaire	-10.0382
▁café	-10.0385
70	-10.0386
▁semblaient	-10.0386
▁couleurs	-10.0388
▁dis-je	-10.0388
▁(C	-10.0391
▁31	-10.0396
%	-10.04
▁firent	-10.0401
▁Ier	-10.0401
12	-10.0403
▁voulut	-10.0409
▁50	-10.0415
▁malade	-10.0421
▁prêtre	-10.0428
lon	-10.0433
ph	-10.0436
▁princesse	-10.0441
▁territoire	-10.0442
tor	-10.0443
▁rivière	-10.0446
▁gars	-10.0446
▁dites	-10.0457
▁chose,	-10.0465
▁équipe	-10.0473
cé	-10.0476
▁Tra	-10.0487
net	-10.0494
▁jaune	-10.0496
raient	-10.0498
▁dirigea	-10.0498
▁faux	-10.0508
▁âme	-10.0508
▁tient	-10.051
▁tente	-10.0512
vis	-10.0517
▁Coupe	-10.052
▁époque	-10.0521
▁tenu	-10.0526
▁l’aide	-10.053
▁rose	-10.053
▁piste	-10.0532
par	-10.0542
rou	-10.0542
▁glace	-10.0542
▁releva	-10.0542
▁silhouette	-10.0544
▁soldat	-10.0549
ey	-10.0549
▁sujets	-10.055
▁qu'on	-10.0551
▁idées	-10.0551
-t-il.	-10.0552
▁développement	-10.0557
▁directement	-10.056
▁compagnons	-10.0571
▁chevalier	-10.0574
od	-10.0574
Y	-10.0576
particulièrement	-10.0579
▁fenêtres	-10.0583
tt	-10.0587
▁autres.	-10.0588
▁continue	-10.0595
▁pouvons	-10.0597
▁paix	-10.0599
▁aider	-10.06
▁glissa	-10.0601
▁l’escalier	-10.0601
▁entièrement	-10.0603
ham	-10.0605
▁plat	-10.0605
▁croyait	-10.0607
▁tâche	-10.062
▁coup,	-10.0622
vin	-10.0624
wa	-10.0625
▁portée	-10.0628
ï	-10.0638
▁raconter	-10.0639
▁quart	-10.0642
▁cinéma	-10.0655
▁fus	-10.0656
▁portant	-10.0657
▁Bel	-10.0658
▁tard.	-10.0664
▁protection	-10.067
▁production	-10.0671
▁l’argent	-10.0673
▁serra	-10.0675
▁Peu	-10.0677
▁inter	-10.0682
▁laissait	-10.0685
▁faudra	-10.0685
▁raison,	-10.0688
▁chapeau	-10.069
▁Québec	-10.069
▁frappa	-10.0694
▁silence.	-10.0696
▁ex	-10.0707
▁recevoir	-10.0716
▁réalité	-10.0717
▁machine	-10.0719
▁Gar	-10.073
▁pensa	-10.0733
▁services	-10.0734
▁aussi.	-10.0735
▁cesse	-10.0737
▁planète	-10.074
▁André	-10.0756
60	-10.0757
▁frères	-10.0757
▁source	-10.0759
▁appel	-10.0761
▁photo	-10.0763
▁dessus	-10.0772
▁changé	-10.0789
▁pensées	-10.0794
▁>	-10.0796
▁sinon	-10.0796
▁part,	-10.0809
▁morceau	-10.0809
▁hein	-10.081
▁informations	-10.0816
▁poing	-10.0817
▁compter	-10.082
▁souvenirs	-10.0822
90	-10.0824
▁moyens	-10.083
▁Vi	-10.0834
▁bras,	-10.0843
▁dieux	-10.0845
▁vallée	-10.085
▁basse	-10.0852
nie	-10.0854
hi	-10.0855
▁création	-10.0857
▁manteau	-10.0861
▁reconnu	-10.0869
▁serai	-10.0872
▁parc	-10.0882
▁repas	-10.0883
▁dés	-10.0884
▁siècle,	-10.0885
▁d’ailleurs	-10.0888
▁n’avons	-10.0894
▁lieux	-10.0895
▁resté	-10.0896
▁Roi	-10.0897
▁lance	-10.0897
one	-10.0899
▁tas	-10.0905
▁cor	-10.0911
▁animaux	-10.0913
▁pire	-10.0921
▁content	-10.0924
▁liberté	-10.0924
▁foi	-10.0925
▁arrivait	-10.0927
▁faire.	-10.0929
▁Thomas	-10.093
▁nu	-10.093
▁auquel	-10.0933
▁matière	-10.0938
▁Maître	-10.0938
▁l’œil	-10.0947
▁lutte	-10.0948
▁l’autre.	-10.0951
▁cherche	-10.0963
▁expliqua	-10.0966
▁défense	-10.0967
J	-10.0968
▁genoux	-10.0972
fa	-10.0974
sen	-10.0975
▁francs	-10.0975
mont	-10.0976
▁patron	-10.0988
16	-10.0989
▁échapper	-10.0998
15	-10.0998
▁Grande	-10.1003
▁Densité	-10.1005
▁croyais	-10.1005
▁aime	-10.1009
▁n’as	-10.101
▁bi	-10.101
▁Certains	-10.1013
▁victime	-10.1025
▁arrêté	-10.1025
▁hab.	-10.103
▁pareille	-10.1038
▁ordres	-10.104
▁disparu	-10.1041
▁Ki	-10.1044
▁prête	-10.1047
▁menace	-10.1061
U	-10.1066
▁pratique	-10.1069
▁fête	-10.1071
25	-10.1074
▁=	-10.1077
ak	-10.1079
▁partout	-10.1092
▁chute	-10.1108
▁décida	-10.1112
▁père.	-10.1113
ue	-10.1114
-toi	-10.1115
▁vivement	-10.1122
▁f	-10.1132
▁veille	-10.1137
▁Français	-10.1138
▁américain	-10.1141
▁problèmes	-10.1142
▁demi	-10.1149
▁Canton	-10.1157
▁trace	-10.1159
▁principal	-10.1163
▁ouvrir	-10.1171
▁aujourd'hui	-10.1171
▁s’exclama	-10.1181
▁Fi	-10.1184
▁toutefois	-10.1194
▁Tri	-10.1196
▁amour	-10.1203
▁importante	-10.1204
▁ventre	-10.1209
▁style	-10.1221
▁Cour	-10.1224
▁1989	-10.1239
ang	-10.1245
gar	-10.1248
▁tournant	-10.1248
▁Notre	-10.1249
▁(en)	-10.125
▁avait-il	-10.1254
▁Ainsi	-10.1258
▁hier	-10.1261
car	-10.1262
▁pensais	-10.1271
▁colonel	-10.1271
▁pose	-10.1273
▁100	-10.1274
▁capitale	-10.1284
▁nul	-10.1285
▁Bé	-10.1291
fer	-10.1295
▁l’espace	-10.1304
▁e	-10.131
ov	-10.131
▁tiré	-10.1313
▁coupe	-10.132
▁sûr.	-10.1325
i,	-10.1331
▁choc	-10.1337
▁ville,	-10.134
▁haine	-10.134
▁Arrondissement	-10.1343
era	-10.1344
▁totalement	-10.1344
▁fortune	-10.1346
▁d’accord	-10.1348
mes	-10.1348
▁résultat	-10.1353
▁He	-10.1354
▁ville.	-10.1354
▁demandait	-10.1359
▁généralement	-10.1359
▁j’y	-10.1371
elle	-10.1376
▁Joe	-10.1378
erie	-10.1378
▁violence	-10.138
▁dis-je.	-10.1382
▁baissa	-10.1386
3>	-10.1387
▁malheureux	-10.1388
▁l’occasion	-10.1393
▁métal	-10.1396
▁anciens	-10.1398
▁immobile	-10.1399
▁chaîne	-10.1406
▁moment.	-10.1408
▁tels	-10.141
▁voyez	-10.1416
▁Italie	-10.1418
▁l’avoir	-10.142
▁oui	-10.1424
▁i	-10.1429
▁sourcils	-10.1431
I	-10.1434
nte	-10.1435
▁Communes	-10.144
▁conduire	-10.1445
▁rencontré	-10.1446
▁faute	-10.1448
ty	-10.1448
▁cerveau	-10.145
▁détails	-10.1454
▁finir	-10.1458
he	-10.1459
6>	-10.1463
▁technique	-10.1464
tant	-10.1464
▁(A	-10.1467
▁ceci	-10.1476
▁exemple,	-10.148
▁faveur	-10.1481
▁l'autre	-10.1482
1>	-10.1482
05	-10.1485
2>	-10.1488
ix	-10.1489
▁grave	-10.1489
men	-10.1491
88	-10.1496
▁regards	-10.1496
-B	-10.1499
bus	-10.1502
▁bonnes	-10.1503
▁code	-10.1505
ren	-10.1509
ob	-10.151
on,	-10.1512
▁naturel	-10.1517
▁t’ai	-10.1522
▁n	-10.1522
▁appelle	-10.1524
▁1988	-10.1524
▁pâle	-10.1525
▁baron	-10.1528
▁nourriture	-10.1532
▁Suisse	-10.1534
",	-10.1536
▁magie	-10.1543
▁souviens	-10.1545
née	-10.1549
▁marches	-10.1555
▁qu'un	-10.1557
▁remarqué	-10.156
4>	-10.1561
▁Mé	-10.1563
▁Joseph	-10.1568
5>	-10.1569
▁documents	-10.157
▁jolie	-10.1574
▁sommeil	-10.1576
▁gaz	-10.1578
▁étais	-10.1579
▁pur	-10.1583
▁dollars	-10.1591
ers	-10.1592
▁divers	-10.1595
▁Quelque	-10.1604
▁rencontrer	-10.1607
▁lignes	-10.1611
▁lame	-10.1614
▁toit	-10.1624
▁décision	-10.1629
11	-10.163
▁Hu	-10.1632
▁Simon	-10.1635
▁ancienne	-10.1636
▁k	-10.1658
▁ra	-10.1666
▁prévu	-10.1666
▁expliquer	-10.1667
▁s'il	-10.1675
▁objets	-10.1675
▁compagnon	-10.1681
▁vieillard	-10.1688
▁retrouvé	-10.1691
▁truc	-10.1691
18	-10.1691
▁l’hôtel	-10.1692
▁oncle	-10.1692
▁bu	-10.1693
▁Encore	-10.1695
▁retrouve	-10.1699
▁répondu	-10.1704
▁possible.	-10.1718
▁cuisine	-10.1719
▁l’est	-10.1729
▁heureuse	-10.1731
è	-10.1734
▁odeur	-10.1737
ations	-10.174
▁bref	-10.1745
▁aperçut	-10.1746
bé	-10.1748
▁aimé	-10.1749
▁obligé	-10.1753
▁Max	-10.1756
▁Wa	-10.1759
▁sol.	-10.1769
▁lit,	-10.1773
▁Ve	-10.1774
▁seuil	-10.1777
▁poignée	-10.1783
ric	-10.1784
ten	-10.1785
▁suffit	-10.1786
▁noms	-10.1787
ien	-10.1788
▁sable	-10.1793
▁réseau	-10.1794
▁corde	-10.1803
▁semaines	-10.1804
▁1991	-10.1806
▁pattes	-10.1808
▁vécu	-10.1824
▁d'é	-10.1829
▁saint	-10.1836
▁aimait	-10.1837
▁maladie	-10.1838
▁na	-10.1838
q	-10.1842
▁ami,	-10.1843
▁longs	-10.1849
▁facilement	-10.1856
▁rendait	-10.1857
▁no	-10.1859
▁remit	-10.186
gu	-10.186
▁Bra	-10.1863
▁poussière	-10.187
▁milliers	-10.1872
▁campagne	-10.1882
▁apprendre	-10.1883
▁Henry	-10.1886
▁cadre	-10.1896
▁repris	-10.1898
▁envers	-10.1899
▁Aucun	-10.19
-18	-10.19
▁secrétaire	-10.1902
▁raison.	-10.1908
▁Altitude	-10.1919
tro	-10.1919
let	-10.1923
▁Ed	-10.1923
berg	-10.1924
▁Nombre	-10.1925
▁douze	-10.1927
▁bouteille	-10.1927
▁Ab	-10.1932
▁presse	-10.1941
▁tante	-10.1944
(en)	-10.1945
cho	-10.1947
▁barbe	-10.1962
▁Ton	-10.1966
▁fis	-10.1969
▁jours.	-10.197
▁terres	-10.1971
▁l’avais	-10.1973
▁personnel	-10.1973
ssement	-10.1975
13	-10.1976
▁soirée	-10.1976
▁hab./km2	-10.1976
vers	-10.1976
▁Cu	-10.1981
▁o	-10.1982
▁d'être	-10.1989
▁célèbre	-10.1991
▁réellement	-10.1992
▁contenu	-10.1997
▁cadavre	-10.2
▁commis	-10.2001
▁études	-10.2004
▁lourd	-10.2012
▁Ainsi,	-10.2021
▁Maire	-10.2023
▁mé	-10.2024
nu	-10.2025
▁Biographie	-10.2027
▁parler.	-10.2029
▁Voir	-10.2036
ara	-10.2036
▁réaction	-10.2045
▁dieu	-10.2048
▁clé	-10.205
▁cœur.	-10.2053
▁{{{	-10.2057
▁est-il	-10.2057
▁couvert	-10.2058
▁l’oreille	-10.206
vent	-10.2062
▁nuages	-10.2072
▁Ci	-10.2076
▁continuait	-10.2077
▁puissant	-10.2079
▁St	-10.2085
ques	-10.2087
▁vidéo	-10.2088
▁chambre,	-10.209
▁J’aurais	-10.2096
▁Marc	-10.2096
▁groupes	-10.2101
▁longtemps.	-10.2104
hu	-10.2108
▁drôle	-10.2109
▁York	-10.2118
▁lune	-10.2122
▁Wikipédia	-10.2127
▁morte	-10.2132
▁commerce	-10.2136
▁jeté	-10.214
▁s'en	-10.2141
▁Belgique	-10.2141
▁moteur	-10.2148
▁modèle	-10.2148
▁m’avez	-10.2153
ab	-10.2154
▁qu’au	-10.2164
▁digne	-10.2165
▁assise	-10.2165
t.	-10.2166
▁tenter	-10.2169
▁(TV)	-10.2171
▁humains	-10.218
▁pression	-10.2194
est	-10.2196
▁apparut	-10.2203
▁objet	-10.2205
▁quant	-10.2207
▁sois	-10.2207
▁solution	-10.2211
▁conditions	-10.2213
ini	-10.2215
ek	-10.2217
▁conduit	-10.2222
▁redressa	-10.2225
38	-10.2225
▁Genre	-10.2227
▁Selon	-10.2228
▁place.	-10.2229
▁b	-10.223
▁40	-10.2232
▁dépit	-10.2232
▁courage	-10.2235
75	-10.2235
rent	-10.2246
▁loup	-10.2246
mann	-10.2249
▁D’un	-10.2258
▁Géographie	-10.2265
▁tiens	-10.2266
-P	-10.2267
▁finale	-10.2267
▁glisser	-10.2268
▁lesquels	-10.2268
▁passion	-10.2269
▁descendit	-10.2269
▁éclata	-10.2271
▁Club	-10.2272
▁Gu	-10.2275
é.	-10.2275
▁épée	-10.2276
▁thé	-10.2277
É	-10.2278
lia	-10.2284
▁mademoiselle	-10.229
▁propose	-10.2291
▁Référence	-10.2293
▁rares	-10.2294
▁bière	-10.2302
▁Cap	-10.2309
▁gauche,	-10.231
▁revenu	-10.2313
▁queue	-10.2315
▁ri	-10.2316
▁Will	-10.2319
▁présenter	-10.232
▁au-delà	-10.2322
▁lampe	-10.2323
▁Dar	-10.2325
▁ennemis	-10.2326
▁station	-10.233
▁levant	-10.233
▁l’épaule	-10.2331
▁effort	-10.2333
▁Russie	-10.2338
▁phrase	-10.2341
▁ferma	-10.2344
▁vive	-10.2345
▁Bon,	-10.2349
▁oreilles	-10.2352
ème	-10.2353
▁eaux	-10.2358
45	-10.2361
▁devons	-10.2368
▁villes	-10.2369
▁Roland	-10.2372
▁balle	-10.2374
ît	-10.2375
▁autrefois	-10.2379
▁répond	-10.238
▁moyenne	-10.238
▁lancer	-10.2381
▁retenu	-10.2384
14	-10.2386
28	-10.2387
▁frappé	-10.2387
▁trans	-10.2388
om	-10.2388
▁l’A	-10.2388
tan	-10.2391
illa	-10.2391
▁condition	-10.2393
▁l'in	-10.2394
-la	-10.24
▁Morane	-10.24
▁montra	-10.2401
▁Gi	-10.2406
▁mains.	-10.2407
▁créé	-10.2412
art	-10.2418
▁ferai	-10.2419
tel	-10.2423
▁jeux	-10.2425
▁défi	-10.2429
01	-10.243
▁rappeler	-10.2436
▁trône	-10.2436
▁Premier	-10.2438
vé	-10.244
▁transport	-10.2444
cri	-10.245
▁fille.	-10.2467
▁crainte	-10.2475
▁Mu	-10.248
▁Ge	-10.2482
▁déjeuner	-10.2486
▁Dis	-10.249
▁frapper	-10.2493
ole	-10.2493
▁attend	-10.2496
▁enfin,	-10.2498
▁mouvements	-10.2505
▁mou	-10.2508
▁songea	-10.2516
rez	-10.2519
ud	-10.252
▁folle	-10.252
▁meurtre	-10.2524
▁références	-10.2527
-1	-10.2528
▁vérité,	-10.2529
▁travaille	-10.2531
▁pareil	-10.2532
▁ba	-10.2532
res	-10.2534
▁terreur	-10.2534
mb	-10.2538
pin	-10.2539
▁DE	-10.254
▁pantalon	-10.2556
▁qu'	-10.2563
▁visage.	-10.2565
▁conduite	-10.2573
gon	-10.2576
▁proie	-10.2579
e)	-10.258
ser	-10.2583
▁po	-10.2585
▁devenue	-10.2585
▁Sch	-10.2587
▁Dan	-10.26
▁da	-10.2606
▁espèces	-10.2609
▁pi	-10.2615
▁n°	-10.2619
▁l'équipe	-10.262
▁joues	-10.2621
▁comprenait	-10.2623
▁essaya	-10.2626
▁formes	-10.2628
▁Roger	-10.2628
▁tort	-10.2631
▁détail	-10.2632
▁Voici	-10.2632
▁empêcher	-10.2638
▁différence	-10.264
▁tableau	-10.2645
▁centaines	-10.2646
▁Ju	-10.265
21	-10.2654
▁Bernard	-10.2657
mus	-10.2666
▁~	-10.2667
▁sources	-10.2668
▁L’a	-10.2675
▁cherchait	-10.2675
▁voulez-vous	-10.268
▁maintenant.	-10.2681
▁char	-10.2682
▁canton	-10.2683
ois	-10.2692
▁programme	-10.2693
▁joué	-10.27
▁promis	-10.2701
▁sembla	-10.2701
▁pourra	-10.2701
▁personne.	-10.2709
y,	-10.2709
▁mettait	-10.2709
▁Art	-10.2718
▁supérieur	-10.2718
▁froide	-10.2719
iens	-10.272
▁l’avaient	-10.2721
▁revoir	-10.2722
▁Administration	-10.2722
ite	-10.2734
▁reconnut	-10.2735
▁Ke	-10.2737
▁tapis	-10.2738
▁monstre	-10.2738
▁1986	-10.2739
▁occasion	-10.2739
▁Président	-10.2742
lier	-10.2744
▁place,	-10.2755
ière	-10.2759
▁secours	-10.2763
rd	-10.2767
▁toile	-10.2771
▁doux	-10.2772
▁Pat	-10.2783
▁discours	-10.2783
line	-10.2787
▁minute	-10.2791
▁tourné	-10.2793
idae	-10.2796
▁tenté	-10.2797
▁chagrin	-10.2801
▁soir.	-10.2807
▁circonstances	-10.2811
▁fleuve	-10.2813
▁dut	-10.2816
▁crime	-10.2817
22	-10.2822
bert	-10.2823
▁ouverte	-10.2824
igne	-10.2826
▁Mary	-10.2827
▁cabine	-10.2835
▁postal	-10.2838
▁vivant	-10.2839
▁referma	-10.2847
▁tenue	-10.2848
▁côtés	-10.285
▁soupira	-10.2852
▁j'ai	-10.2853
▁1980	-10.286
▁oublier	-10.286
▁honte	-10.2861
the	-10.2863
▁croyez	-10.2866
cu	-10.2868
▁venus	-10.287
▁Dame	-10.287
▁Frank	-10.2878
▁existence	-10.288
▁Ville	-10.2882
▁sensation	-10.2884
37	-10.2886
▁(P	-10.2886
▁étiez	-10.2892
▁disparaître	-10.2896
▁Maison	-10.2896
▁bons	-10.2897
▁chanson	-10.29
▁principale	-10.2901
▁triste	-10.2901
and	-10.2903
ig	-10.2912
ée,	-10.2916
▁cartes	-10.2928
▁obtenir	-10.2931
▁ailes	-10.2934
▁Char	-10.2934
▁rendez-vous	-10.2935
56	-10.2936
▁Ici	-10.2942
▁l’affaire	-10.2954
▁Maurice	-10.2956
in,	-10.2957
▁Q	-10.2961
▁l’or	-10.2966
ens	-10.2967
▁Bal	-10.2968
▁coucher	-10.2969
23	-10.2972
ach	-10.2973
▁bibliothèque	-10.2978
▁chambre.	-10.2978
cy	-10.2984
▁curieux	-10.2989
ies	-10.2991
▁chat	-10.2992
▁l’arrière	-10.2993
nis	-10.2995
ne,	-10.3
sser	-10.3003
▁réserve	-10.3014
▁commissaire	-10.3016
▁Celui-ci	-10.3019
▁théorie	-10.302
04	-10.302
▁ISBN	-10.3024
▁uniquement	-10.3026
▁jour.	-10.3027
▁d’après	-10.3039
tier	-10.3045
▁relations	-10.3048
▁Mort	-10.3048
▁entier	-10.305
▁mince	-10.305
▁1987	-10.3051
▁fatigue	-10.3053
▁d’argent	-10.3057
▁réfléchir	-10.3059
▁hâte	-10.306
▁défendre	-10.3061
tch	-10.3063
▁appeler	-10.3068
it.	-10.3069
▁fusil	-10.307
▁sou	-10.3076
▁découverte	-10.3077
▁l’armée	-10.3078
▁poussé	-10.308
85	-10.3081
nier	-10.3085
▁tenant	-10.3088
-A	-10.3092
33	-10.3094
▁dossier	-10.3096
▁annonça	-10.3099
▁mépris	-10.3106
▁table,	-10.3108
tz	-10.311
▁mal.	-10.3111
▁étoiles	-10.3117
▁Sol	-10.312
▁pousser	-10.3123
▁canon	-10.3128
▁comprend	-10.313
▁Guy	-10.3137
▁préparer	-10.3137
▁temple	-10.3137
▁tri	-10.3141
▁télé	-10.3151
▁éléments	-10.3156
▁demanda-t-il	-10.3157
▁cabinet	-10.3158
▁sais,	-10.3158
▁Mlle	-10.3162
▁rêves	-10.3163
▁etc.	-10.3167
dre	-10.3168
oir	-10.3171
▁Petit	-10.3172
▁sert	-10.3175
▁ennemi	-10.3175
▁tendre	-10.3183
X	-10.319
▁pièce.	-10.3197
▁Er	-10.3204
zo	-10.3208
▁là-bas	-10.3215
mm	-10.3219
din	-10.3233
▁n'y	-10.324
▁D’ailleurs	-10.3242
▁Daniel	-10.3242
▁s’avança	-10.3245
▁parvint	-10.3245
▁sentiments	-10.3248
▁humain	-10.325
06	-10.325
tta	-10.3259
her	-10.326
ès	-10.3267
▁traverser	-10.3269
▁donnant	-10.3285
▁nulle	-10.3286
▁bal	-10.3286
▁sache	-10.3288
▁traversa	-10.3296
▁particulière	-10.3296
24	-10.3297
▁change	-10.3297
▁lâcha	-10.3301
▁jambe	-10.3315
▁principe	-10.3316
ô	-10.3316
▁beaux	-10.3317
▁Jeanne	-10.332
▁prison	-10.332
▁traces	-10.3321
▁Ex	-10.3324
▁ordonna	-10.3325
▁Tre	-10.3327
iser	-10.3332
▁épaule	-10.3336
▁volant	-10.3339
off	-10.3339
▁prochaine	-10.3339
67	-10.3341
▁observa	-10.3341
▁curiosité	-10.3341
▁responsable	-10.3342
35	-10.3346
▁Rome	-10.3351
▁noble	-10.3352
▁moi-même	-10.3355
▁cap	-10.3358
sch	-10.3358
▁Famille	-10.3359
▁attaque	-10.3359
▁chiens	-10.336
▁pistolet	-10.336
86	-10.3363
▁couche	-10.3364
▁paraître	-10.3364
27	-10.3364
▁Far	-10.3369
▁Première	-10.3371
▁li	-10.3374
▁Bolitho	-10.3378
▁dormir	-10.3382
▁liquide	-10.3385
▁William	-10.3386
44	-10.3386
han	-10.339
▁Cal	-10.3393
▁générale	-10.3395
▁légère	-10.3402
▁entend	-10.3403
▁Fin	-10.3405
gg	-10.3408
▁supporter	-10.3411
▁Ber	-10.3412
▁douceur	-10.3416
▁tombé	-10.342
▁blessé	-10.3424
▁Nu	-10.3428
▁qu'une	-10.3431
▁chant	-10.3434
▁homme.	-10.3437
▁sauter	-10.3438
▁signal	-10.3441
▁efforts	-10.3448
▁“	-10.3451
aud	-10.3456
▁Maintenant	-10.3456
▁désert	-10.3456
29	-10.3458
ica	-10.3458
▁mêmes	-10.3464
▁Sou	-10.3464
▁d’hommes	-10.3465
▁Chine	-10.3465
▁Bre	-10.3467
▁s'a	-10.3468
▁voile	-10.347
▁Is	-10.3471
▁encore.	-10.3473
▁atteindre	-10.3473
▁bond	-10.3476
▁malheur	-10.3479
69	-10.3483
▁oiseaux	-10.3484
▁occupé	-10.3484
▁Lui	-10.3489
▁remis	-10.3497
▁plage	-10.3498
tour	-10.3502
des	-10.3503
▁lit.	-10.3503
▁Europe	-10.3504
▁langage	-10.3505
▁royale	-10.3511
▁Albert	-10.3511
▁viennent	-10.3515
▁feuille	-10.3517
▁démon	-10.3518
▁publique	-10.352
▁Am	-10.352
▁n'était	-10.3521
▁hommes,	-10.3523
54	-10.3524
47	-10.3525
▁utile	-10.353
isse	-10.3531
▁Men	-10.3537
▁plateau	-10.354
▁dure	-10.3546
it,	-10.3547
▁recherches	-10.3557
65	-10.3566
▁entière	-10.3568
▁reprises	-10.357
-T	-10.3571
▁Allemagne	-10.3575
▁ceinture	-10.3575
▁voir.	-10.3581
▁sueur	-10.3581
39	-10.3584
▁baiser	-10.3586
▁(B	-10.3592
▁(D	-10.3593
▁1984	-10.3594
▁naturellement	-10.3596
▁fallu	-10.3598
▁Gra	-10.3601
tis	-10.3601
▁morceaux	-10.3602
▁Mandat	-10.3603
▁d’elle.	-10.3611
▁Arthur	-10.3611
▁quelconque	-10.3612
▁matin.	-10.3622
▁Fu	-10.3623
▁bébé	-10.3629
48	-10.363
▁droits	-10.3631
▁Combien	-10.3632
ign	-10.3641
▁Ser	-10.3646
▁produits	-10.3648
qu	-10.3649
▁Entre	-10.3655
▁IV	-10.3659
▁quitta	-10.3659
▁Là,	-10.3661
▁politiques	-10.3662
▁brave	-10.3669
▁créatures	-10.3671
▁s’é	-10.3671
▁retraite	-10.3674
▁table.	-10.3674
▁tours	-10.3675
▁porté	-10.3675
irent	-10.368
▁vraie	-10.3682
▁humaine	-10.3684
▁note	-10.3685
▁perte	-10.3691
zi	-10.3692
▁raconte	-10.3692
▁2e	-10.3693
ments	-10.3695
▁Père	-10.3695
▁image	-10.3699
▁Date	-10.3702
▁magnifique	-10.3706
▁attendu	-10.3712
▁rage	-10.3718
▁Vol	-10.3718
▁attendit	-10.3727
▁d’E	-10.3731
▁Del	-10.3733
▁rive	-10.3734
▁question.	-10.3734
▁séjour	-10.3734
68	-10.3747
í	-10.375
▁tombée	-10.3751
26	-10.3752
▁Catherine	-10.3763
▁devenait	-10.3763
o,	-10.3766
▁L’un	-10.3768
▁discuter	-10.3769
03	-10.3769
▁x	-10.3772
▁néanmoins	-10.3772
▁échange	-10.3773
▁n’étais	-10.3779
bal	-10.3783
ef	-10.3784
▁soie	-10.3785
▁officiers	-10.3793
78	-10.3794
▁télévision	-10.3796
illon	-10.3796
up	-10.3799
▁santé	-10.3799
▁montré	-10.3799
▁aperçu	-10.3802
▁pourraient	-10.3802
▁supérieure	-10.3804
▁senti	-10.3805
-on	-10.3817
▁prisonnier	-10.3818
▁longueur	-10.3819
▁élevé	-10.3819
iller	-10.3823
▁mirent	-10.3823
▁heures.	-10.383
ell	-10.3836
▁sang,	-10.3837
▁gueule	-10.3838
ani	-10.3844
▁héros	-10.3845
▁mère.	-10.3846
▁oui.	-10.3847
▁suite.	-10.3852
▁avis	-10.3854
▁Claude	-10.3854
▁s'agit	-10.3855
ji	-10.3856
▁bel	-10.3856
▁changement	-10.3858
▁papa	-10.3859
▁pitié	-10.3859
▁chaud	-10.387
▁Tandis	-10.3875
▁Seulement	-10.3878
ola	-10.3878
▁quarante	-10.3885
▁garçons	-10.389
▁monta	-10.3894
▁placé	-10.3895
ile	-10.3901
▁entrée	-10.3901
▁l'époque	-10.3902
-C	-10.3903
lis	-10.3905
▁sérieux	-10.3909
▁folie	-10.3912
▁lecture	-10.3912
pé	-10.3914
▁branches	-10.3914
▁d’ici	-10.3915
▁Démographie	-10.3915
▁rouges	-10.3919
▁logique	-10.3921
▁rejoint	-10.3922
▁droite,	-10.3922
▁Tant	-10.3924
ski	-10.3924
▁jeunesse	-10.3926
▁croix	-10.3929
ban	-10.393
▁historique	-10.3932
ay	-10.3935
▁l'armée	-10.3939
tri	-10.3941
▁Communauté	-10.3943
▁complet	-10.3943
su	-10.3945
▁n’aurais	-10.3949
▁donc,	-10.3956
▁Né	-10.3964
▁comptait	-10.3967
▁ressemble	-10.3967
▁élu	-10.397
▁bassin	-10.3978
▁sauvage	-10.398
▁Quelqu’un	-10.3983
▁justement	-10.3983
kh	-10.3984
▁Za	-10.3984
▁Oui	-10.3985
55	-10.3989
▁retira	-10.3991
bre	-10.3993
▁lui-même,	-10.3998
▁dessous	-10.4
▁montagnes	-10.4002
▁dit-elle,	-10.4004
▁Toute	-10.4005
▁Mère	-10.4006
66	-10.4018
▁devrais	-10.4025
ssé	-10.4028
▁s’ouvrit	-10.403
▁bas,	-10.4031
▁partis	-10.4032
▁sang.	-10.4035
▁gagné	-10.4036
▁lèvres.	-10.4041
▁Mark	-10.4043
▁suite,	-10.4049
▁fit-il	-10.4054
▁animal	-10.4057
bar	-10.4059
▁Mars	-10.4063
▁détourna	-10.4066
▁acquiesça	-10.4071
▁telles	-10.4071
▁culture	-10.4071
lement	-10.4074
▁soigneusement	-10.4074
▁l'année	-10.4074
32	-10.4079
▁Période	-10.4081
▁types	-10.4084
▁connue	-10.4084
▁stupide	-10.4087
▁fier	-10.4092
▁impression	-10.4095
so	-10.4098
▁tourne	-10.4099
▁fleur	-10.4102
▁1983	-10.4103
nait	-10.4104
▁devez	-10.4108
▁doute,	-10.4116
▁lesquelles	-10.4125
tif	-10.4126
▁cessé	-10.4127
▁Département	-10.4129
▁menton	-10.4129
ule	-10.413
▁couverture	-10.413
▁cheminée	-10.4131
▁ravi	-10.4132
▁avez-vous	-10.4132
tait	-10.4137
▁Fo	-10.4138
▁notes	-10.4138
▁fils,	-10.4138
▁écrire	-10.4145
▁métier	-10.4146
▁histoires	-10.4147
36	-10.415
sta	-10.415
▁montagne	-10.4152
▁offre	-10.4156
▁fi	-10.4157
▁qu’a	-10.4158
▁pauvres	-10.416
99	-10.4161
▁jusqu’aux	-10.4162
▁successifs	-10.4163
mir	-10.4169
▁champs	-10.4173
▁espoir	-10.4176
▁m’ont	-10.4177
▁viande	-10.4184
▁rappela	-10.4184
▁tenta	-10.4186
▁(ou	-10.419
▁d'origine	-10.4191
ius	-10.4192
▁l’île	-10.4198
▁retourne	-10.4198
07	-10.4198
ella	-10.42
-ils	-10.4204
▁moins,	-10.4205
▁feu.	-10.4206
▁35	-10.421
▁flammes	-10.4212
▁matériel	-10.4215
▁possibilité	-10.422
▁Article	-10.4223
▁Can	-10.4225
▁Rose	-10.4229
83	-10.4229
▁race	-10.4229
▁levé	-10.4233
▁m’y	-10.4237
▁dos.	-10.4244
▁nouvel	-10.4247
64	-10.4249
▁(17	-10.4253
▁sourit.	-10.4254
▁quitte	-10.4264
▁roi,	-10.4267
▁route.	-10.4269
▁l’effet	-10.4273
can	-10.4274
58	-10.4281
▁touché	-10.4289
▁raconté	-10.4291
▁Maria	-10.4294
▁peur.	-10.4297
▁critique	-10.43
▁loin.	-10.4303
▁manche	-10.4305
bu	-10.4307
▁sé	-10.4309
▁battant	-10.4322
▁choisir	-10.4327
▁Ya	-10.4329
▁Prince	-10.4331
▁Japon	-10.4333
02	-10.4335
ie,	-10.4337
*	-10.4344
▁couronne	-10.4344
▁enfants,	-10.4346
▁marquis	-10.4351
▁recula	-10.4356
49	-10.4357
08	-10.4357
▁Anne	-10.4363
▁Bur	-10.4364
▁entendait	-10.4369
▁porta	-10.4369
▁Paris.	-10.437
▁apparemment	-10.4371
onne	-10.4373
▁remarque	-10.4375
ures	-10.4377
▁Sé	-10.4377
dan	-10.4379
▁comtesse	-10.4381
▁1985	-10.4382
▁(G	-10.4384
cre	-10.4387
▁alors,	-10.4387
▁personnages	-10.4389
▁sombres	-10.4392
ü	-10.4392
▁tire	-10.4396
iques	-10.4404
▁cœur,	-10.4411
▁courte	-10.4412
▁Leurs	-10.4417
▁action	-10.4419
▁failli	-10.4419
▁retard	-10.442
▁noires	-10.442
▁longtemps,	-10.4424
31	-10.4425
court	-10.4429
▁détaillé	-10.4434
▁branche	-10.4439
▁inconnu	-10.4446
▁pa	-10.4447
▁regardé	-10.4449
▁diverses	-10.4452
▁construit	-10.4455
i-je	-10.4456
voy	-10.4458
-t-elle.	-10.4463
▁italien	-10.4464
▁religion	-10.4465
62	-10.4465
▁album	-10.4468
▁demi-	-10.4468
▁crier	-10.447
▁jette	-10.4473
▁blanches	-10.4473
▁fuir	-10.448
▁pal	-10.4481
▁l’avez	-10.4481
▁Pré	-10.4485
▁crut	-10.4489
dou	-10.4489
▁remonter	-10.449
▁rayon	-10.4491
▁voler	-10.4491
▁centrale	-10.4492
▁Black	-10.4493
89	-10.4498
vel	-10.4499
51	-10.4499
ju	-10.4501
▁tempête	-10.4505
▁lui-même.	-10.4505
▁certitude	-10.4505
92	-10.4506
▁inutile	-10.451
je	-10.4512
quin	-10.4515
▁micro	-10.4519
53	-10.4521
▁valait	-10.4525
▁veulent	-10.4526
▁vagues	-10.4531
▁enfant,	-10.4532
▁quantité	-10.4533
▁journaux	-10.4534
▁température	-10.4537
▁retenir	-10.4541
▁Monte	-10.4542
ait.	-10.4547
▁concerne	-10.4549
▁éclat	-10.4549
▁Gor	-10.4551
▁blessure	-10.4556
▁1976	-10.4556
▁populaire	-10.456
▁match	-10.4561
▁voyais	-10.4562
▁d'eau	-10.4563
▁lien	-10.4568
▁Mara	-10.4569
▁sale	-10.4572
▁1971	-10.4572
▁flotte	-10.4574
▁l’époque	-10.4575
lie	-10.4576
59	-10.4576
-en	-10.4581
▁1960	-10.4583
▁intervint	-10.4583
▁pages	-10.4586
▁semblable	-10.4587
42	-10.4589
▁Mur	-10.459
▁appelée	-10.4593
▁trait	-10.4593
▁boule	-10.4593
▁cela.	-10.4594
▁images	-10.4598
▁convaincu	-10.46
olo	-10.46
ate	-10.4602
▁1981	-10.4603
▁hurla	-10.4603
63	-10.4608
▁souffrir	-10.4611
▁parler,	-10.4613
tive	-10.4616
▁lunettes	-10.4617
▁siècle.	-10.4618
▁Super	-10.4619
▁sec	-10.462
▁corps.	-10.4622
▁propriétaire	-10.4622
▁termes	-10.4626
▁éclair	-10.4627
▁ténèbres	-10.4629
▁blancs	-10.463
vol	-10.4636
▁utiliser	-10.4638
▁dragon	-10.4645
▁arbre	-10.4646
▁profit	-10.4646
▁ru	-10.4647
▁voitures	-10.4648
ong	-10.465
▁lève	-10.4651
▁salut	-10.4652
▁dur	-10.4657
▁paquet	-10.4659
▁Tor	-10.466
▁Sal	-10.4662
▁Latitude	-10.4666
▁naturelle	-10.4668
ète	-10.4674
▁contraire,	-10.4674
▁n’êtes	-10.4679
▁propriété	-10.4687
▁nuage	-10.4692
▁revient	-10.4692
▁sergent	-10.4695
▁Port	-10.4695
cul	-10.4695
▁créer	-10.47
▁mains,	-10.4701
-là,	-10.4709
▁ridicule	-10.471
▁traduction	-10.471
▁servait	-10.471
▁parties	-10.4712
▁dimanche	-10.4713
▁l'État	-10.4714
▁l’ex	-10.4715
57	-10.4718
▁crise	-10.4718
▁solide	-10.4727
▁masque	-10.4732
▁Nicolas	-10.4737
▁Mike	-10.4737
▁ombre	-10.4741
95	-10.4747
▁non.	-10.4749
▁J’espère	-10.4749
61	-10.475
ker	-10.4751
▁veste	-10.4754
▁ajouta-t-il	-10.4755
98	-10.4757
▁vérifier	-10.4761
▁prisonniers	-10.4762
▁complète	-10.4763
▁résistance	-10.4764
▁Ad	-10.4767
▁maman	-10.4768
▁(Elle	-10.4769
▁silence,	-10.4769
▁souleva	-10.4771
▁règne	-10.4771
71	-10.4772
09	-10.4774
▁dangereux	-10.4775
▁Allons,	-10.4776
▁bâtiments	-10.4777
▁?(19	-10.4778
▁32	-10.4779
▁aviez	-10.478
▁(F	-10.4785
▁perd	-10.4794
-S	-10.4795
▁poursuivre	-10.4797
▁Monde	-10.4798
▁n'	-10.4798
▁muscles	-10.4799
▁précipita	-10.4799
▁esprits	-10.4803
ling	-10.4806
▁pourtant,	-10.4807
▁90	-10.4809
▁J'ai	-10.481
ste	-10.4811
▁nouveau,	-10.4811
▁lorsqu’elle	-10.4812
▁Angleterre	-10.4813
▁cousin	-10.4813
▁possédait	-10.4815
▁m’est	-10.482
ER	-10.4823
▁bêtes	-10.4827
ales	-10.4828
▁Her	-10.4831
▁voix.	-10.4831
▁Aux	-10.4834
lot	-10.4836
▁jamais.	-10.4836
▁troupe	-10.484
▁gouverneur	-10.4842
▁souffrance	-10.4842
ther	-10.4848
ë	-10.4854
▁l’âme	-10.4856
▁insista	-10.4856
▁retirer	-10.4857
▁?)	-10.4857
▁extraordinaire	-10.4859
▁musée	-10.4863
▁n'avait	-10.4863
▁Ch	-10.4864
▁précisément	-10.4865
▁Beau	-10.4868
▁lois	-10.4871
pt	-10.4872
77	-10.4874
lla	-10.4878
▁Hi	-10.4879
▁accident	-10.4881
▁mélange	-10.4889
ries	-10.4895
▁partit	-10.4896
▁électrique	-10.4899
▁frisson	-10.49
▁Fort	-10.4902
▁communication	-10.4907
▁économique	-10.4907
▁caché	-10.4909
▁géant	-10.4912
▁meilleurs	-10.4914
▁lancé	-10.4916
▁pouvoirs	-10.4919
▁prends	-10.492
dis	-10.4921
▁manquait	-10.4922
▁arrêter	-10.4924
ku	-10.4925
▁totale	-10.493
▁Sir	-10.4931
▁devais	-10.4937
▁Ger	-10.4938
▁belles	-10.4938
▁allemand	-10.4939
▁enquête	-10.494
▁convaincre	-10.4941
ap	-10.4953
ane	-10.4953
▁secrets	-10.4955
▁Grâce	-10.4955
▁Mrs	-10.4956
ain	-10.4958
lant	-10.4959
▁attitude	-10.4959
▁For	-10.4962
si	-10.4962
▁rare	-10.4964
▁traitement	-10.4965
▁ver	-10.4968
▁per	-10.4971
▁pape	-10.4971
▁parlant	-10.4972
▁pure	-10.4973
▁montait	-10.4974
teurs	-10.4977
▁démographique	-10.4978
▁débarrasser	-10.4989
43	-10.499
out	-10.499
ice	-10.4996
▁Longitude	-10.4996
▁rythme	-10.4997
ill	-10.4998
▁miroir	-10.4998
▁marchand	-10.5003
dri	-10.5012
▁1979	-10.5013
▁destin	-10.5013
▁Londres	-10.5015
▁L'a	-10.5016
▁Marcel	-10.5016
▁All	-10.5021
46	-10.5022
kin	-10.5022
▁touche	-10.5029
▁noir,	-10.5032
▁sachant	-10.5033
▁1970	-10.5033
▁couple	-10.5033
▁Mr.	-10.5036
ag	-10.5036
▁offrir	-10.5038
▁l'île	-10.5042
▁expérience	-10.5043
▁Merci,	-10.5044
▁quatrième	-10.5045
▁édition	-10.5046
ist	-10.5046
▁commandement	-10.5052
▁fa	-10.5058
▁Lors	-10.5058
▁revolver	-10.506
▁mu	-10.5063
ants	-10.5063
▁Poirot	-10.5064
▁règles	-10.5064
uf	-10.5066
▁née	-10.5072
▁d'E	-10.5075
▁1977	-10.5076
ans	-10.5078
▁tranquillement	-10.5081
nia	-10.5086
▁Toujours	-10.509
▁serpent	-10.5096
cle	-10.5096
▁importance	-10.5097
▁amie	-10.51
▁(1	-10.51
▁décide	-10.5101
▁c’est-à-dire	-10.5101
▁littérature	-10.5101
▁honneur	-10.5104
ée.	-10.5105
▁d’Al	-10.5109
▁contient	-10.5113
▁l'eau	-10.5114
▁plantes	-10.5114
87	-10.5116
▁réflexion	-10.5116
▁îles	-10.5116
79	-10.5118
".	-10.5121
▁Bru	-10.5123
▁J.	-10.5124
way	-10.5127
▁accepter	-10.5127
▁traité	-10.5131
▁Équipe	-10.5132
▁dames	-10.5133
▁parla	-10.5136
▁sauvé	-10.5137
▁ci	-10.514
▁déc	-10.5145
▁foyer	-10.5154
▁Min	-10.5155
▁minutes,	-10.5159
▁fonctions	-10.5163
34	-10.5168
▁sol,	-10.5169
▁hall	-10.517
ita	-10.5171
▁maires	-10.5176
▁brise	-10.5179
▁guerriers	-10.5181
-de-	-10.5181
▁Soudain,	-10.5182
▁représente	-10.5183
▁1978	-10.5186
▁outre	-10.5189
▁papiers	-10.5193
▁privé	-10.5193
▁Derrière	-10.5196
▁pénétrer	-10.5202
▁Belle	-10.5205
▁pût	-10.5208
▁bo	-10.5211
▁Enfin	-10.5211
▁moderne	-10.5212
▁considéré	-10.5214
▁américaine	-10.5215
91	-10.5215
▁paysage	-10.5222
lar	-10.5225
▁autrement	-10.5236
▁Ker	-10.5244
[1].	-10.5246
▁s’asseoir	-10.5246
-nous	-10.5248
▁décor	-10.5249
we	-10.525
▁réalisé	-10.5251
nel	-10.5257
▁obtenu	-10.5258
▁science	-10.5258
▁satisfaction	-10.5265
tions	-10.5268
vant	-10.5272
ray	-10.528
▁proximité	-10.528
▁agréable	-10.5282
▁d’O	-10.5282
▁fureur	-10.5282
tation	-10.5291
▁reprend	-10.5294
▁Pitt	-10.5295
▁d'abord	-10.5296
▁m’étais	-10.5299
▁m’as	-10.5302
▁costume	-10.5302
▁m'a	-10.5303
▁Évolution	-10.5303
gle	-10.5304
dra	-10.5306
▁lourde	-10.5307
▁frontière	-10.5311
▁Plusieurs	-10.5311
sk	-10.5315
▁murmure	-10.5315
iz	-10.5315
▁international	-10.5318
▁soyez	-10.5319
▁?????	-10.5321
▁Pont	-10.5322
▁l’honneur	-10.5322
▁Red	-10.5327
▁allure	-10.5328
▁Bri	-10.5331
▁paru	-10.5331
▁ronde	-10.5335
isé	-10.5336
73	-10.5337
▁Aucune	-10.5338
▁Star	-10.534
▁voisin	-10.5342
▁prévenir	-10.5342
41	-10.5343
▁l'aide	-10.5345
▁mois,	-10.5349
▁reconnaissance	-10.5349
▁regard.	-10.5354
▁Vers	-10.5357
▁l'article	-10.5362
▁composé	-10.5365
▁chacune	-10.5373
▁banc	-10.5387
▁Bor	-10.539
nou	-10.539
▁division	-10.5393
▁passée	-10.5395
▁l’as	-10.5396
naire	-10.5398
▁évidemment	-10.5399
▁sentais	-10.5403
▁épais	-10.5408
▁retrouva	-10.5408
▁paupières	-10.5409
▁fermé	-10.5411
▁bottes	-10.5411
▁élections	-10.5413
▁d'argent	-10.5416
▁cependant,	-10.5419
▁vite,	-10.5422
oli	-10.5423
84	-10.5427
▁Sainte	-10.5429
▁énergie	-10.5429
▁printemps	-10.5431
taient	-10.5431
▁Fer	-10.5434
▁possession	-10.5435
▁Juste	-10.5436
et,	-10.5439
76	-10.544
▁total	-10.5441
▁Lorsqu’il	-10.5447
▁collection	-10.5449
▁hautes	-10.5449
▁chasser	-10.5456
▁galop	-10.5456
▁décider	-10.5458
▁contrat	-10.5458
▁pièce,	-10.5462
▁??	-10.5462
52	-10.5464
▁établi	-10.5465
▁miss	-10.5466
▁(M	-10.5469
▁Ron	-10.5469
▁Centre	-10.5469
sion	-10.547
▁communauté	-10.547
▁erreur	-10.5477
▁suivante	-10.548
▁savent	-10.5481
▁entré	-10.5482
our	-10.5486
▁My	-10.5488
▁Mel	-10.5489
▁tenaient	-10.549
▁extrêmement	-10.549
▁sortait	-10.5491
▁libres	-10.5491
tar	-10.5494
▁navires	-10.5497
▁LE	-10.5497
tal	-10.5498
▁représentant	-10.5502
72	-10.5505
field	-10.5509
▁disparut	-10.5515
▁réussit	-10.5519
▁amoureux	-10.5519
▁flanc	-10.5522
tré	-10.5522
-3	-10.5523
▁pilote	-10.5525
▁l’habitude	-10.5525
cer	-10.5526
▁britannique	-10.5527
▁(T	-10.553
▁feu,	-10.5531
▁Rou	-10.5532
dit	-10.5532
▁maire	-10.5533
▁1972	-10.5537
»	-10.5539
▁Noël	-10.5541
82	-10.5542
▁demanda-t-il.	-10.5549
▁Ku	-10.5551
ik	-10.5552
éro	-10.5555
▁caractères	-10.5563
▁déclaré	-10.5568
rée	-10.5573
eu	-10.5574
nor	-10.5582
96	-10.5583
ture	-10.5583
▁difficulté	-10.5583
lor	-10.5587
▁véhicule	-10.5587
▁tristesse	-10.5588
llo	-10.5589
▁poisson	-10.5591
▁anti	-10.5592
▁évident	-10.5593
▁connaissez	-10.5594
▁Brésil	-10.5596
▁épi	-10.5598
▁parfait	-10.56
▁Tar	-10.5605
▁victimes	-10.5608
▁accès	-10.5609
▁liées	-10.5616
▁cérémonie	-10.5617
▁ch	-10.5621
▁allée	-10.5626
ros	-10.5632
▁montrait	-10.5633
▁Jan	-10.5634
▁majorité	-10.5636
tons	-10.5639
▁n’es	-10.5646
▁serez	-10.5651
▁grosses	-10.5652
-je	-10.5656
▁route,	-10.5657
▁jure	-10.5659
cus	-10.566
▁savons	-10.5666
▁vivait	-10.5668
▁monsieur.	-10.567
▁souhaite	-10.5671
qué	-10.5672
▁Kar	-10.5673
▁chaude	-10.5673
74	-10.5673
▁relation	-10.5679
▁mérite	-10.568
▁fallut	-10.5681
▁45	-10.5691
▁pente	-10.5692
ney	-10.5692
▁Ordre	-10.5693
▁Anna	-10.5693
▁actuellement	-10.5694
bel	-10.5698
▁appartement	-10.5704
▁juger	-10.5704
▁l’abri	-10.5705
▁Dix	-10.5706
▁bruits	-10.5708
▁Guillaume	-10.5709
ub	-10.5716
▁We	-10.5716
▁rarement	-10.5718
▁refuse	-10.5719
▁Christ	-10.5723
ction	-10.5724
▁Celui	-10.573
81	-10.5732
▁bois,	-10.5736
▁comp	-10.5736
▁Château	-10.5744
bri	-10.5744
▁Sha	-10.5745
▁rond	-10.5748
▁Pol	-10.5749
▁1.	-10.575
▁officier	-10.5753
▁procès	-10.5756
▁couper	-10.5756
▁réputation	-10.576
quet	-10.5761
▁régiment	-10.5763
▁Ban	-10.5764
i-je.	-10.5769
▁réel	-10.577
▁désolé	-10.5772
▁Avez-vous	-10.5774
▁sub	-10.5776
▁saisir	-10.5776
▁techniques	-10.5777
▁russe	-10.5781
▁tombait	-10.5782
▁peinture	-10.5783
▁Toutefois,	-10.5785
▁l’odeur	-10.5788
▁vif	-10.5789
▁étranger	-10.5792
▁lendemain,	-10.5793
▁peintre	-10.5795
▁conseiller	-10.5795
▁Sta	-10.5799
ura	-10.5799
▁plaine	-10.5801
▁s’être	-10.5801
▁coupé	-10.5801
▁rayons	-10.5804
ford	-10.5806
94	-10.5806
-2	-10.5808
▁poudre	-10.5808
▁voiture.	-10.581
▁respiration	-10.5813
▁guerre,	-10.5814
▁discussion	-10.5814
▁l'homme	-10.5818
yn	-10.5819
▁clients	-10.5826
▁descend	-10.5827
▁guerrier	-10.5828
▁êtes-vous	-10.583
▁apporté	-10.5833
▁Merci	-10.5833
▁rat	-10.5835
▁détruire	-10.5837
▁Durant	-10.5839
▁photos	-10.5841
▁Est	-10.5842
▁creux	-10.5845
nelle	-10.5848
▁Sp	-10.5849
▁projets	-10.5849
▁ciel,	-10.5851
▁accepté	-10.5853
▁demeura	-10.5854
▁arc	-10.5856
▁futur	-10.5861
▁d’amour	-10.5861
▁scientifique	-10.5866
▁jouait	-10.5867
▁bâton	-10.5872
▁Qualité	-10.5873
▁noir.	-10.5876
▁l’ont	-10.5877
▁méthode	-10.5877
▁partageant	-10.5877
▁l'air	-10.5881
▁caractéristique	-10.5885
▁Ligue	-10.5888
▁marchait	-10.5888
▁principalement	-10.5888
ienne	-10.5891
▁couché	-10.5895
▁refusé	-10.5895
▁Adam	-10.5896
▁Alexandre	-10.5901
ification	-10.5901
▁l’âge	-10.5902
tou	-10.5902
▁visible	-10.5904
▁préféré	-10.5909
▁certes	-10.591
▁règle	-10.5911
▁prouver	-10.5912
▁précédente	-10.5916
▁60	-10.5919
▁essayait	-10.592
▁formé	-10.5922
ft	-10.5923
hé	-10.5926
▁vêtu	-10.5932
▁l’état	-10.5936
▁nouveau.	-10.5939
▁pieds.	-10.594
▁suivait	-10.5943
▁XIXe	-10.5946
[2]	-10.5947
▁bleue	-10.5948
▁1974	-10.5948
▁tension	-10.5955
▁écouter	-10.5955
▁coupable	-10.5958
▁endroits	-10.5963
▁Vraiment	-10.5966
▁d'en	-10.5969
▁Col	-10.597
▁croit	-10.5971
▁adversaire	-10.5971
▁flamme	-10.5972
▁ciel.	-10.5973
▁Victor	-10.5973
ret	-10.5978
▁dos,	-10.5981
▁vérité.	-10.5982
▁venez	-10.5983
▁Classification	-10.5984
▁d’air	-10.5984
▁Cro	-10.5995
▁(The	-10.5996
▁As	-10.5999
▁Identité	-10.6
▁relever	-10.6001
▁coupa	-10.6003
▁Cependant	-10.6004
▁Sar	-10.6009
▁Patrick	-10.6014
▁centimètres	-10.6016
mis	-10.6019
▁personnalité	-10.602
▁joli	-10.6027
tr	-10.6028
ine,	-10.6031
dia	-10.6032
fe	-10.6033
▁étrangers	-10.6033
▁FC	-10.6033
▁résultats	-10.6036
▁dessin	-10.6036
▁lâche	-10.6036
▁abandonné	-10.6037
▁vite.	-10.6038
i.	-10.604
▁clairement	-10.6044
▁Titre	-10.6045
▁d'in	-10.6046
▁portière	-10.6046
tter	-10.6049
len	-10.6051
gne	-10.6052
à	-10.6053
▁n’eut	-10.6054
▁proches	-10.6056
▁CHAPITRE	-10.6062
▁van	-10.6068
▁restée	-10.6069
▁acte	-10.607
▁réunion	-10.6072
▁résister	-10.6073
▁Province	-10.6075
▁quoi,	-10.6077
aires	-10.6078
▁disparition	-10.6079
▁bureau.	-10.608
▁témoin	-10.6082
▁référence	-10.6083
▁Dom	-10.6085
my	-10.6087
▁comportement	-10.609
▁protesta	-10.6092
▁gardé	-10.6093
▁maigre	-10.6102
▁horrible	-10.6102
▁ro	-10.6103
▁adresse	-10.6104
▁bat	-10.6104
▁jusque	-10.6105
▁Espagne	-10.611
sol	-10.6114
▁sport	-10.6116
uses	-10.6116
▁quoique	-10.6117
▁33	-10.6119
▁plancher	-10.6125
97	-10.6136
▁satisfait	-10.6137
▁ami.	-10.6137
ä	-10.6138
▁observer	-10.6138
▁parfum	-10.6139
ida	-10.6146
▁sauta	-10.6146
▁acteur	-10.6147
ne.	-10.6148
▁sortant	-10.6149
▁essayant	-10.6154
▁verte	-10.6155
▁Christian	-10.6157
▁exact	-10.6161
▁?uvres	-10.6162
mie	-10.6162
sso	-10.6169
▁structure	-10.6171
▁fronça	-10.6172
▁revenait	-10.6175
▁l'en	-10.6178
▁gamin	-10.6182
▁produire	-10.6188
▁limite	-10.6192
bin	-10.6195
▁poignet	-10.6196
▁Dor	-10.6196
▁prie	-10.6198
▁médecine	-10.6199
▁considérable	-10.6199
▁cellule	-10.6201
▁statue	-10.6202
com	-10.621
▁largement	-10.621
▁dépend	-10.6211
▁fuite	-10.6214
▁(le	-10.6216
▁moments	-10.6219
▁mondiale	-10.6219
▁connues.	-10.622
▁installé	-10.6221
ait-il	-10.6223
▁gloire	-10.6225
▁familles	-10.6226
▁flics	-10.6227
▁l’aurait	-10.6227
ides	-10.6228
▁Jim	-10.6228
▁l’espoir	-10.623
▁vide.	-10.623
▁vrai.	-10.623
▁rétorqua	-10.6234
▁militaires	-10.6236
▁flèche	-10.6238
▁charme	-10.6241
▁500	-10.6245
▁désire	-10.6247
▁selle	-10.6247
▁corps,	-10.6249
.com	-10.6251
▁36	-10.6254
▁tasse	-10.6255
▁biologie	-10.6256
▁œuvre	-10.6256
▁voisine	-10.6258
▁argent	-10.6258
▁pays.	-10.626
▁Pu	-10.6262
▁dizaine	-10.6264
▁<	-10.6265
▁Stephen	-10.6268
ous	-10.6272
ct	-10.6272
▁génie	-10.6278
▁accord	-10.6281
▁disais	-10.6282
▁tournait	-10.6283
▁jadis	-10.6285
▁vain	-10.6286
▁monuments	-10.6286
ps	-10.6288
▁commande	-10.6288
▁80	-10.6288
▁plongea	-10.6289
▁1973	-10.629
▁Gilbert	-10.6293
yl	-10.6294
z-moi	-10.6296
▁armées	-10.6301
▁côté.	-10.6301
▁chapelle	-10.6302
▁Saint-	-10.6302
▁distinguer	-10.6308
▁sexe	-10.631
▁arrêt	-10.6314
▁l’épée	-10.6315
▁boulot	-10.6316
on.	-10.6317
▁là-bas,	-10.6319
▁moment-là	-10.6321
▁deviner	-10.6329
▁c'était	-10.6331
▁permettant	-10.6332
▁récupérer	-10.6333
iers	-10.6333
shi	-10.6334
▁Ah,	-10.6334
▁bronze	-10.6344
▁humide	-10.6349
93	-10.6352
tend	-10.6355
▁Majesté	-10.6363
▁magique	-10.6364
▁grise	-10.6365
▁trottoir	-10.6366
ena	-10.6367
▁pousse	-10.6369
▁envoyer	-10.6374
▁agents	-10.6375
▁merde	-10.6376
▁flic	-10.6378
▁revue	-10.6379
▁Montréal	-10.6379
▁ar	-10.6381
▁mystère	-10.6382
spect	-10.6382
▁lointain	-10.6382
▁l’ennemi	-10.6387
▁demi-heure	-10.6387
▁Qu’il	-10.6387
▁domestique	-10.6391
▁complexe	-10.6394
ari	-10.6396
▁n'en	-10.6396
▁courut	-10.6402
▁ombres	-10.6407
▁ainsi,	-10.6407
antes	-10.6411
▁Smith	-10.6413
▁Autres	-10.6414
▁eurent	-10.6414
▁Myron	-10.6416
▁violemment	-10.6417
▁destinée	-10.6421
▁panique	-10.6424
▁sentier	-10.6425
▁pot	-10.6425
▁cardinal	-10.6426
▁probable	-10.6426
▁Ramsès	-10.643
▁vend	-10.6433
sson	-10.6434
▁travail.	-10.6437
▁'	-10.6438
▁marbre	-10.6439
▁piège	-10.6446
▁emp	-10.6449
▁Quatre	-10.6452
▁préfère	-10.6455
▁venant	-10.6455
tha	-10.6458
▁bienvenue	-10.6459
ug	-10.6464
▁banque	-10.6464
ori	-10.6466
▁appela	-10.6468
▁l’église	-10.647
▁s’arrêter	-10.6471
▁amis,	-10.6475
▁vendre	-10.6476
▁Devant	-10.6477
▁district	-10.6479
▁répertorie	-10.6482
▁d’esprit	-10.6482
▁révéler	-10.6486
stre	-10.6488
▁donnée	-10.6488
▁trouvent	-10.6489
▁terminé	-10.6491
▁faiblesse	-10.6494
▁mots,	-10.6494
▁grogna	-10.6497
▁rappelait	-10.6497
’après	-10.6498
▁réveiller	-10.6502
▁précieux	-10.6504
▁guide	-10.6507
▁Alain	-10.6507
▁Sigles	-10.6508
▁fièvre	-10.6508
▁grand-chose	-10.6508
▁s'était	-10.6513
▁(ISBN	-10.6513
-G	-10.6516
▁bleus	-10.6517
ev	-10.6518
is,	-10.6518
▁casque	-10.6519
▁amené	-10.6519
▁gentil	-10.652
▁films	-10.6521
▁puissante	-10.6522
ó	-10.6525
▁savaient	-10.6526
▁perdue	-10.653
▁vieilles	-10.6531
▁mener	-10.6534
▁cage	-10.6536
▁prêts	-10.6539
vier	-10.654
▁n’aime	-10.654
▁rempli	-10.6544
▁siècles	-10.6547
▁boue	-10.6548
▁souffla	-10.6548
û	-10.6549
▁mieux.	-10.6551
▁l'est	-10.6551
▁Bro	-10.6557
▁invisible	-10.6557
▁franchir	-10.656
▁pays,	-10.6564
▁m'	-10.6564
▁sinistre	-10.6565
▁actuel	-10.6567
▁ja	-10.6568
▁journaliste	-10.657
▁fournir	-10.657
▁voire	-10.657
▁parfaite	-10.6573
▁Ze	-10.6574
har	-10.6577
▁gardien	-10.6581
▁conviction	-10.6582
▁tentative	-10.6586
ces	-10.6586
▁fruits	-10.6586
▁renseignements	-10.6593
▁Carl	-10.6594
▁cible	-10.6594
ié	-10.6594
▁l’attention	-10.66
▁monté	-10.6602
▁s'é	-10.6603
▁entendu,	-10.6603
▁38	-10.6603
▁sortes	-10.6608
▁parvenir	-10.6611
▁années,	-10.6612
▁payé	-10.6615
▁34	-10.6617
▁J’y	-10.6617
▁talent	-10.6619
▁Vo	-10.6621
bon	-10.6623
▁quai	-10.6625
▁famille,	-10.6626
▁Viens	-10.6627
▁différent	-10.6628
▁dis-je,	-10.6629
▁demandant	-10.6632
▁Hal	-10.6633
▁voiture,	-10.6634
▁soutien	-10.6635
▁rapports	-10.6641
▁normal	-10.6642
▁lord	-10.6644
▁cherchant	-10.6645
▁former	-10.6646
▁plans	-10.6646
▁Big	-10.6647
▁Anglais	-10.6654
▁fiche	-10.6655
▁tissu	-10.6664
▁terrasse	-10.6666
▁l'origine	-10.667
▁faits	-10.6671
▁City	-10.6672
▁pensez	-10.6672
▁tranquille	-10.6673
▁d'homonymie	-10.6678
▁montrant	-10.668
▁mi	-10.668
▁ad	-10.6683
▁poignard	-10.6686
▁intention	-10.6687
▁voulaient	-10.6687
▁eux-mêmes	-10.6687
▁loge	-10.6688
▁tendu	-10.6688
▁Bonne	-10.6688
▁Rouge	-10.669
del	-10.6694
▁be	-10.6694
▁Matt	-10.67
▁souci	-10.67
phe	-10.67
▁sociale	-10.67
▁Parfois	-10.6701
rio	-10.6701
▁l’après-midi	-10.6705
▁Bibliographie	-10.6705
▁brouillard	-10.6705
▁(1999)	-10.6705
▁larges	-10.6707
▁activités	-10.6709
▁découvrit	-10.6709
▁personne,	-10.671
▁West	-10.6713
▁machines	-10.6714
▁prononcé	-10.6715
▁colonne	-10.6715
▁can	-10.6718
▁grand-père	-10.6718
▁Disney	-10.6719
ons-nous	-10.6721
duc	-10.6721
▁mot,	-10.6724
▁cache	-10.6727
▁avis,	-10.6734
▁onze	-10.6735
▁l’existence	-10.6737
z,	-10.6739
▁époux	-10.674
▁sciences	-10.6742
▁sorcier	-10.6746
▁billet	-10.6748
▁l’écart	-10.675
▁tour.	-10.6751
▁LA	-10.6752
▁voir,	-10.6753
▁aient	-10.6753
▁aujourd’hui,	-10.6757
▁joueurs	-10.6757
gno	-10.6759
hy	-10.6766
▁cimetière	-10.6767
▁influence	-10.6767
lus	-10.6771
▁sacré	-10.6772
mbre	-10.6773
▁interdit	-10.6774
▁Donc,	-10.6776
▁pardon	-10.678
ables	-10.6784
▁l'une	-10.6787
▁accent	-10.6789
▁cape	-10.6789
▁liens	-10.6795
ath	-10.6796
▁frère,	-10.6797
rm	-10.6806
▁boutique	-10.6807
voir	-10.6809
tér	-10.681
▁l’année	-10.6812
▁brume	-10.6814
▁Che	-10.6817
dic	-10.6819
▁réfléchit	-10.682
▁quête	-10.6822
ett	-10.6823
▁effets	-10.6826
▁marine	-10.6827
▁bouche.	-10.6827
▁coffre	-10.6828
emp	-10.6828
▁madame,	-10.6834
▁peur,	-10.6835
▁grille	-10.6835
sé	-10.6838
▁Santa	-10.6839
▁portaient	-10.6841
▁policier	-10.6841
▁pieds,	-10.6843
▁ferais	-10.6845
▁posée	-10.6848
ung	-10.6852
dar	-10.6852
▁repos	-10.6853
▁prière	-10.6858
▁200	-10.6858
▁Léon	-10.6863
▁tour,	-10.6865
▁fermée	-10.6866
▁fatigué	-10.6866
▁fondée	-10.6871
▁mettant	-10.6871
▁bouton	-10.6872
▁Lord	-10.6874
▁tint	-10.6875
▁suit	-10.6879
▁Classe	-10.688
▁plaque	-10.688
thé	-10.6881
▁hommes.	-10.6883
▁collines	-10.6884
▁(né	-10.6884
▁feux	-10.6886
▁pouce	-10.6889
▁défaite	-10.6892
▁apparence	-10.6894
▁agir	-10.69
▁jetant	-10.69
▁barre	-10.6906
▁d’Ar	-10.6906
▁religieux	-10.6906
ld	-10.6907
▁expliqué	-10.6909
▁épaisse	-10.6911
▁brillant	-10.6911
▁Frédéric	-10.6916
▁gauche.	-10.6919
▁contente	-10.6919
▁pan	-10.6926
▁remplir	-10.6928
▁Win	-10.6931
▁gestes	-10.6931
ula	-10.6933
▁prochain	-10.6933
▁uniforme	-10.6934
nne	-10.6938
▁d’autant	-10.6938
▁disparu.	-10.6938
▁disposition	-10.694
▁ménage	-10.694
▁principaux	-10.6942
▁régulièrement	-10.6944
illé	-10.6944
▁Pou	-10.6945
▁l’appartement	-10.6947
▁échappé	-10.6947
▁riches	-10.6947
▁bouger	-10.6948
are	-10.6948
▁Ali	-10.695
▁l’obscurité	-10.6952
▁s’éloigna	-10.6957
an,	-10.6959
▁ailleurs	-10.696
▁ga	-10.6962
of	-10.6962
▁Air	-10.6964
▁fixa	-10.6967
▁D’abord	-10.697
▁ramener	-10.6976
▁Cho	-10.6982
▁prie,	-10.6983
nement	-10.6984
▁Cra	-10.6987
tti	-10.6988
ène	-10.6989
gie	-10.6989
▁l’herbe	-10.6992
tent	-10.6999
▁aimable	-10.7
▁teint	-10.7001
▁explique	-10.7001
▁Var	-10.7003
▁trompe	-10.7012
▁prononcer	-10.7014
▁apparition	-10.7014
▁l’arrivée	-10.7015
▁(2	-10.7016
▁Ph	-10.7021
ffe	-10.7028
▁morale	-10.7034
▁tunnel	-10.704
▁crains	-10.7043
gre	-10.7044
▁misérable	-10.7045
▁pratiquement	-10.705
▁monte	-10.7054
uk	-10.7057
▁traversé	-10.706
▁plastique	-10.7061
▁fantôme	-10.7062
▁Nos	-10.7062
var	-10.7062
ip	-10.7063
▁cavaliers	-10.7064
▁(voir	-10.7064
▁annoncé	-10.7066
▁tendance	-10.7071
▁pénible	-10.7072
▁volé	-10.7072
▁poète	-10.7077
ier,	-10.7085
▁seul,	-10.7088
▁repoussa	-10.7088
▁Alice	-10.7095
▁internationale	-10.7101
▁perspective	-10.7102
▁brusque	-10.7102
▁réduit	-10.7108
▁World	-10.7108
▁Ur	-10.7114
iel	-10.7117
▁semblant	-10.7121
▁mandat	-10.7125
▁Antoine	-10.7126
une	-10.7129
▁plafond	-10.713
ral	-10.713
▁revanche,	-10.7132
▁aveugle	-10.7132
▁cigarette	-10.7133
▁blonde	-10.7134
▁Inter	-10.7135
ore	-10.7138
▁r	-10.7141
▁portrait	-10.7141
▁comptoir	-10.7144
▁préparé	-10.7146
▁Fe	-10.7146
▁espace	-10.7147
▁longuement	-10.7147
▁chercha	-10.7147
met	-10.7154
▁chefs	-10.7154
▁intéressant	-10.7155
▁d’entrer	-10.7155
▁livrer	-10.7156
▁gré	-10.7158
▁l'E	-10.716
▁Dou	-10.716
▁reposer	-10.7162
▁Han	-10.7163
▁central	-10.7164
▁Cre	-10.7168
▁annonce	-10.717
▁nécessité	-10.7172
▁magasin	-10.7172
die	-10.7172
▁répondit-il	-10.7172
▁régime	-10.7176
▁construire	-10.7178
▁salua	-10.7179
cal	-10.7179
▁art	-10.7181
▁dormait	-10.7181
▁ab	-10.7183
▁entreprises	-10.7186
▁arrière,	-10.7187
▁talons	-10.7192
▁accompli	-10.7192
▁prétend	-10.7196
▁cadavres	-10.7196
▁1961	-10.7198
▁(de	-10.7202
nés	-10.7202
▁l’écran	-10.7204
hal	-10.7205
▁l’image	-10.7206
▁condamné	-10.7207
▁sévère	-10.7208
▁régions	-10.7208
▁fortement	-10.7211
▁approche	-10.7211
▁portail	-10.7211
▁mer.	-10.7211
▁soixante	-10.7213
▁assurer	-10.7216
nder	-10.7217
quer	-10.7219
▁assuré	-10.7221
▁qu'à	-10.7223
▁intérieur	-10.7225
▁chances	-10.7226
elli	-10.7226
▁poitrine.	-10.7227
enne	-10.7231
▁passé.	-10.7234
ish	-10.7235
▁Reine	-10.7236
▁sortis	-10.7236
▁faim	-10.7238
▁faisais	-10.7239
▁War	-10.7239
▁s’appelle	-10.7241
▁acheté	-10.7242
▁Lyon	-10.7243
non	-10.7246
▁Emerson	-10.7246
▁Phil	-10.7247
cro	-10.7249
▁fine	-10.725
000	-10.7254
▁avance	-10.7257
▁galerie	-10.7258
▁aimer	-10.726
▁qu'en	-10.7261
▁pis	-10.7263
▁paroi	-10.7263
cia	-10.7264
▁comprenez	-10.7265
▁st	-10.7265
▁bois.	-10.7268
▁visages	-10.7269
RE	-10.7272
▁D’	-10.7273
▁TV)	-10.7277
▁sage	-10.7279
▁appareil	-10.7281
▁ira	-10.7283
▁heure,	-10.7285
▁tantôt	-10.7286
▁César	-10.7288
▁égal	-10.7296
▁Eddie	-10.7298
▁montant	-10.7299
▁arrivés	-10.73
▁pleurer	-10.7311
▁Palmarès	-10.7316
▁camarades	-10.7318
▁famille.	-10.732
▁sous-	-10.7322
▁intérieure	-10.7322
▁w	-10.7324
▁marins	-10.7324
pro	-10.7328
▁ouvre	-10.733
▁apporter	-10.7332
▁Marguerite	-10.7335
▁ministère	-10.7335
▁Jake	-10.7339
▁proposition	-10.7341
▁flot	-10.7342
▁???	-10.7343
▁sourcils.	-10.7344
▁secteur	-10.7346
▁Lou	-10.7349
▁puits	-10.7354
▁soleil.	-10.7356
▁rochers	-10.7363
▁l'ensemble	-10.7363
▁Fou	-10.7364
el,	-10.7371
▁voisins	-10.7374
▁accompagné	-10.7377
▁dissimuler	-10.7379
▁?uvre	-10.7381
▁taxi	-10.7383
▁élèves	-10.7384
▁grec	-10.7384
▁sentis	-10.7388
▁vaguement	-10.7388
▁lumières	-10.739
▁bain	-10.739
▁Vie	-10.7391
▁t’es	-10.7394
▁Vin	-10.7394
bles	-10.7394
·	-10.7396
▁acheter	-10.7397
▁prétexte	-10.7397
▁permettait	-10.7398
▁King	-10.7399
▁http://www.	-10.74
▁Bretagne	-10.7409
▁René	-10.7409
▁l’E	-10.741
▁fidèle	-10.7413
vou	-10.7413
▁mm	-10.7415
▁Fiche	-10.7416
▁client	-10.7419
▁Société	-10.742
ep	-10.7421
▁roi.	-10.7421
▁Alfred	-10.7424
▁plaît	-10.7424
▁pé	-10.7424
▁présenté	-10.7426
ités	-10.7426
-tu	-10.7429
tée	-10.7429
▁placer	-10.743
▁sèche	-10.743
▁rocher	-10.743
▁simples	-10.7435
▁titres	-10.7436
▁défaut	-10.7437
gel	-10.7439
▁conserver	-10.7439
▁l’école	-10.744
▁social	-10.7443
▁Jacob	-10.7444
▁actrice	-10.7444
rat	-10.7449
▁Mou	-10.745
▁1950	-10.7454
▁disent	-10.7454
▁soleil,	-10.7461
▁réponse.	-10.7461
▁70	-10.7465
▁compagne	-10.7468
▁serons	-10.7471
▁1967	-10.7472
▁visage,	-10.7474
▁concert	-10.7475
▁fixe	-10.7477
rus	-10.7478
▁hache	-10.748
▁chanter	-10.748
▁femmes,	-10.7482
▁Ram	-10.7482
▁fenêtre,	-10.7483
▁coude	-10.7485
▁Charlie	-10.7486
▁j	-10.7487
▁chauffeur	-10.7488
lli	-10.749
▁Trop	-10.749
▁philosophie	-10.7492
gent	-10.7492
▁d’heure	-10.7493
▁Fred	-10.7495
▁championnat	-10.7497
▁processus	-10.7502
ast	-10.7502
▁violent	-10.7503
▁actes	-10.7507
▁vaisseaux	-10.7512
▁Noir	-10.752
▁piano	-10.7522
ie.	-10.7524
▁You	-10.7524
▁fouet	-10.7527
▁trésor	-10.7529
▁Pin	-10.753
▁meurt	-10.7536
▁baie	-10.754
▁Lucien	-10.7543
▁pavillon	-10.7545
▁Cinq	-10.7549
▁colère.	-10.7551
▁humeur	-10.7552
▁évidence	-10.7554
▁étroit	-10.7554
▁enfants.	-10.7565
gou	-10.7573
ert	-10.7574
▁démarche	-10.7574
▁combattre	-10.7576
▁ouvrage	-10.7583
▁3e	-10.7588
▁volume	-10.759
▁travail,	-10.7593
gh	-10.7595
▁semblables	-10.7596
▁jugement	-10.76
▁paire	-10.7601
vit	-10.7601
ello	-10.7603
▁Dra	-10.7604
▁del	-10.7608
▁man	-10.761
▁vampire	-10.7613
▁activité	-10.7622
▁enfance	-10.7622
ira	-10.7623
▁aventure	-10.7624
▁émotion	-10.7627
▁Raymond	-10.7627
▁hôtel	-10.7635
▁désigna	-10.7635
▁sourd	-10.764
Intercommunalité	-10.7641
▁maintenir	-10.7643
mène	-10.7644
▁aurais	-10.7648
▁j’a	-10.7649
▁fous	-10.765
▁fermer	-10.765
_	-10.7652
▁Mc	-10.7654
ada	-10.7657
lect	-10.7659
▁Luc	-10.7659
▁Ceci	-10.766
▁1969	-10.7667
▁vous-même	-10.7668
▁proposa	-10.7668
▁colline	-10.7668
▁Hall	-10.7668
▁l'ordre	-10.7668
▁façade	-10.7671
uel	-10.7671
▁brun	-10.7674
▁cherché	-10.7675
▁reçut	-10.7678
▁D’autres	-10.7678
▁riant	-10.7679
bat	-10.768
▁conçu	-10.768
▁passé,	-10.768
▁langues	-10.7681
▁écrivain	-10.7682
▁alluma	-10.7684
ton,	-10.7684
▁mor	-10.7685
▁bureau,	-10.7686
▁j’allais	-10.7687
▁disque	-10.7688
ea	-10.7689
▁honnête	-10.7689
▁plaça	-10.7689
▁Parmi	-10.769
▁promenade	-10.7692
▁poussant	-10.7692
wood	-10.7696
▁claire	-10.7697
▁côtes	-10.7699
▁superbe	-10.7702
▁refuser	-10.7702
▁eau	-10.7707
ux,	-10.7709
▁C'était	-10.771
ges	-10.7711
tur	-10.7713
▁Jésus	-10.7715
vie	-10.7715
▁Bientôt	-10.772
▁Sources	-10.7725
▁gra	-10.7726
▁utilisée	-10.7728
▁serment	-10.7729
▁Fé	-10.7732
rri	-10.7735
▁plomb	-10.7739
▁pipe	-10.7741
▁mer,	-10.7741
▁jusque-là	-10.7744
▁s’inclina	-10.7744
▁île	-10.7744
▁dessus.	-10.7749
▁l’extérieur	-10.7754
▁Personnalités	-10.7755
▁sire	-10.7755
▁ras	-10.7758
▁Park	-10.776
▁subi	-10.776
▁jusqu'en	-10.7764
▁celui-là	-10.7767
▁Gro	-10.777
▁régler	-10.7774
gin	-10.7775
▁nécessaires	-10.7776
▁catholique	-10.7777
▁(N	-10.7777
▁37	-10.7779
▁répéter	-10.778
▁mange	-10.7781
▁Bois	-10.7783
▁dirige	-10.7783
▁sérieusement	-10.7786
▁risques	-10.7786
▁tradition	-10.7788
▁difficultés	-10.779
▁Faites	-10.779
”	-10.7793
▁mystérieux	-10.7793
▁ordonné	-10.7793
▁absence	-10.7793
▁(R	-10.7798
▁Références	-10.7798
▁lentement,	-10.7798
▁forteresse	-10.7799
▁Mad	-10.7803
▁d'Europe	-10.7804
▁diriger	-10.7806
▁1964	-10.7806
▁surveiller	-10.7807
▁seul.	-10.7807
▁part.	-10.7808
alité	-10.7809
▁durée	-10.7809
▁National	-10.7811
▁Cla	-10.7811
▁(E	-10.7812
▁promesse	-10.7817
▁veuve	-10.7818
▁profiter	-10.7819
▁juré	-10.7821
▁marin	-10.7821
▁idiot	-10.7822
▁assure	-10.7825
▁chaussures	-10.7826
▁travaillé	-10.783
hor	-10.7833
▁1953	-10.7836
▁ho	-10.7842
▁récemment	-10.7843
▁tendresse	-10.7843
▁entouré	-10.7844
▁normale	-10.7845
ON	-10.7847
▁visiblement	-10.7848
▁curé	-10.7849
▁soins	-10.7851
▁capables	-10.7852
▁adressa	-10.7853
▁entreprise	-10.7853
▁gardait	-10.7854
ati	-10.7857
▁sais.	-10.7862
▁question,	-10.7862
▁ramassa	-10.7863
▁dirai	-10.7866
▁qu’A	-10.7867
▁craindre	-10.7867
▁intense	-10.7868
▁prudent	-10.7868
▁franc	-10.787
=	-10.7874
og	-10.7876
▁résolu	-10.7878
▁d'O	-10.788
▁Insee	-10.7883
n,	-10.7883
▁publié	-10.7884
▁haut,	-10.7884
▁Gre	-10.7885
▁Rock	-10.7885
▁Royaume-Uni	-10.7887
▁)	-10.789
▁l’expression	-10.7893
▁endormi	-10.7893
▁souriant	-10.7894
▁Gérard	-10.7898
▁cuivre	-10.7903
ative	-10.7906
▁Nick	-10.7907
▁vengeance	-10.7908
cier	-10.7913
▁réveilla	-10.7917
ines	-10.7919
▁chemin.	-10.7919
▁im	-10.792
▁signes	-10.7921
▁guerre.	-10.7921
▁patience	-10.7922
▁lut	-10.7924
▁congé	-10.7924
▁étonné	-10.7931
stro	-10.7932
▁aspect	-10.7933
▁contenta	-10.7936
▁tournée	-10.7936
mor	-10.7937
▁présent.	-10.7937
▁révolution	-10.7941
lam	-10.7951
▁plume	-10.7951
▁capacité	-10.7953
▁conclu	-10.7954
▁tir	-10.7957
▁voyageurs	-10.7958
▁av.	-10.7958
▁merci	-10.7959
tus	-10.796
▁vapeur	-10.7962
▁d’armes	-10.7965
▁agi	-10.7965
▁pe	-10.7969
bourg	-10.7973
▁bloc	-10.7977
▁chevelure	-10.7978
▁forcé	-10.7978
▁l’objet	-10.7984
▁pas...	-10.7984
▁désigne	-10.7987
▁imp	-10.7988
iv	-10.7991
▁rentre	-10.7992
▁créée	-10.7992
▁imaginer	-10.7996
cent	-10.7997
sco	-10.7998
▁marmonna	-10.7998
▁pic	-10.7999
▁Shi	-10.8001
▁Pays-Bas	-10.8003
▁domestiques	-10.8003
▁désespoir	-10.8007
▁poings	-10.8008
▁volontiers	-10.8008
▁Cam	-10.8008
▁cul	-10.8011
▁sorcière	-10.8012
▁solitaire	-10.8013
▁suggéra	-10.8014
▁prêtres	-10.8016
▁duquel	-10.8016
▁étape	-10.8017
▁métallique	-10.8018
▁consiste	-10.802
▁nettement	-10.8022
▁clef	-10.8026
▁blessures	-10.8032
▁précaution	-10.8033
not	-10.8038
▁contenait	-10.8038
▁Fra	-10.804
▁Là	-10.8044
▁poli	-10.8045
all	-10.8045
igno	-10.8047
être	-10.8048
▁stade	-10.8048
▁Ol	-10.8051
habit	-10.8051
▁précision	-10.8051
▁usage	-10.8053
▁duchesse	-10.8053
▁fillette	-10.8055
▁agent	-10.8055
▁français,	-10.8057
▁Ter	-10.8058
▁carré	-10.806
▁Sauf	-10.8065
▁Jane	-10.8067
▁pêche	-10.8068
▁solitude	-10.8069
▁fit-elle	-10.8078
▁parvenait	-10.8079
▁déposa	-10.8079
▁effectivement	-10.808
▁Ceux	-10.8084
▁souris	-10.809
jou	-10.8096
+	-10.8096
▁essaie	-10.8097
▁Beaucoup	-10.8099
▁professionnel	-10.8099
▁regret	-10.8104
▁égard	-10.8105
▁aurez	-10.8106
▁hésita	-10.8106
▁continent	-10.8107
ZZ	-10.8112
▁XV	-10.8114
▁phénomène	-10.8116
lic	-10.8116
▁s’enquit	-10.8118
ok	-10.8118
▁s’occuper	-10.8118
▁parlez	-10.8119
▁zones	-10.8119
ord	-10.812
asse	-10.8124
▁différente	-10.8125
courez	-10.8125
nay	-10.8126
Z	-10.8129
issant	-10.8135
▁rock	-10.8141
-Ma	-10.8144
fu	-10.8144
▁Type	-10.8146
▁offert	-10.8148
▁(série	-10.815
▁trouble	-10.8151
▁veux-tu	-10.8153
▁têtes	-10.8153
▁fameux	-10.8155
▁(V	-10.8156
▁personnelle	-10.8158
▁Bas	-10.8159
▁Los	-10.8161
oire	-10.8162
isée	-10.8164
▁là-haut	-10.8165
▁saurait	-10.8166
o-	-10.817
▁as-tu	-10.8171
▁présenta	-10.8171
▁vue.	-10.8171
▁L’é	-10.8171
▁surveillance	-10.8181
▁arrivant	-10.8182
▁1965	-10.8184
▁coque	-10.8185
▁Miles	-10.819
▁Dur	-10.8194
▁perdit	-10.8195
▁glacé	-10.8197
ible	-10.8208
▁nom,	-10.8208
▁saut	-10.8208
las	-10.8208
▁d’ex	-10.8209
▁chi	-10.8209
▁1966	-10.8211
▁2002,	-10.8211
▁J’aimerais	-10.8212
▁esclaves	-10.8212
-4	-10.8213
▁statut	-10.8213
▁May	-10.8214
▁cordes	-10.8214
▁Edward	-10.8215
▁oreille	-10.8216
▁Commons	-10.8217
▁l’appareil	-10.8228
▁vue,	-10.8231
ning	-10.8232
▁apparaît	-10.824
▁roses	-10.8241
ages	-10.8241
▁formidable	-10.8242
▁Papa	-10.8243
chant	-10.8245
▁serviteurs	-10.8251
tie	-10.8251
▁faillit	-10.8251
▁caverne	-10.8252
▁romaine	-10.8254
lou	-10.8255
▁l’être	-10.8257
xe	-10.8258
▁répondre.	-10.8259
issait	-10.8259
▁bondit	-10.826
▁français.	-10.826
▁sainte	-10.8262
chet	-10.8263
▁latin	-10.8269
▁fixé	-10.827
▁lâcher	-10.8272
▁Champion	-10.8273
▁résolution	-10.8274
▁considérer	-10.8275
▁Gabriel	-10.8275
▁Os	-10.8275
▁suffisait	-10.8279
▁allant	-10.828
▁réussir	-10.8282
▁Mag	-10.8283
Q	-10.8287
▁Compagnie	-10.8289
▁Médaille	-10.8289
▁réelle	-10.829
▁matinée	-10.829
▁fondé	-10.8293
éré	-10.8298
▁emporté	-10.8298
ieux	-10.8302
▁passaient	-10.8303
▁importe	-10.8305
wi	-10.8305
ero	-10.8306
▁anglaise	-10.8313
▁l’arme	-10.8313
▁douter	-10.8313
riez	-10.8315
▁rouler	-10.8315
▁épaules,	-10.8316
rier	-10.8318
▁l'ex	-10.832
▁Livre	-10.8321
▁serviteur	-10.8322
▁sir	-10.8322
▁maîtres	-10.8324
▁gorge.	-10.8325
▁reste,	-10.8328
▁partage	-10.8332
▁massif	-10.8334
▁appelait	-10.8337
▁fils.	-10.8337
▁ob	-10.8338
▁canal	-10.8339
▁bains	-10.834
ose	-10.8344
▁franchi	-10.8346
▁l'intérieur	-10.8346
win	-10.8348
▁enfant.	-10.8348
▁courait	-10.8349
▁persuadé	-10.8351
▁suprême	-10.8351
ken	-10.8354
▁assassiné	-10.8355
ves	-10.8358
▁appartient	-10.8359
▁(mini	-10.836
▁blessés	-10.8361
▁réalité,	-10.8361
▁lou	-10.8361
▁climat	-10.8363
ome	-10.8363
▁prises	-10.8365
▁Lieux	-10.8366
▁nuits	-10.8367
▁manqué	-10.8374
aine	-10.8375
▁individu	-10.8376
▁triomphe	-10.8376
▁lisait	-10.8377
▁n’arrive	-10.8377
▁libérer	-10.8378
▁pause	-10.838
▁réaliser	-10.8381
▁Walter	-10.8382
▁clan	-10.8385
tine	-10.8386
▁a-t-elle	-10.8388
▁rangs	-10.8388
▁four	-10.8388
▁cro	-10.8392
▁attention.	-10.8398
▁Ham	-10.8399
▁connaissais	-10.8399
▁Allez,	-10.8401
ls	-10.8403
▁Jon	-10.8406
▁destruction	-10.8408
▁comté	-10.8411
▁dévisagea	-10.8412
-17	-10.8415
▁Johnny	-10.8416
▁roula	-10.8417
▁choses.	-10.8417
▁fenêtre.	-10.8418
▁européenne	-10.8418
ateurs	-10.8418
▁l’eau.	-10.8418
issement	-10.8418
▁Serbie	-10.842
▁général,	-10.842
▁rue,	-10.8422
▁subir	-10.8425
▁détruit	-10.8425
▁mois.	-10.8425
▁mot.	-10.8425
▁Street	-10.8426
▁Thi	-10.8428
▁Pug	-10.843
▁regardai	-10.843
▁l’hôpital	-10.843
ata	-10.8431
▁employé	-10.8431
▁Championnat	-10.8434
▁1940	-10.8435
▁Ministre	-10.8435
▁Hill	-10.8438
▁causer	-10.844
▁viendra	-10.8442
▁42	-10.8445
▁Afrique	-10.8448
bra	-10.8449
▁Bay	-10.8449
▁actions	-10.845
atrice	-10.8451
▁environs	-10.8452
▁député	-10.8453
▁Aujourd’hui	-10.8456
▁sauvages	-10.8457
▁modeste	-10.8459
▁Lor	-10.846
▁d'État	-10.8462
eaux	-10.8465
▁original	-10.8465
’s	-10.8466
▁Carrière	-10.8469
nage	-10.847
▁plongé	-10.8471
▁spécial	-10.8471
▁minutes.	-10.8478
▁calme,	-10.8479
-ci	-10.848
▁trembler	-10.8484
-6	-10.8486
▁l'art	-10.8486
▁Sor	-10.8486
▁restaurant	-10.8487
▁rentré	-10.8489
▁pleins	-10.8489
▁saisi	-10.849
▁d'I	-10.8493
▁Chacun	-10.8494
▁ajouter	-10.8496
▁poursuite	-10.8496
▁L’autre	-10.8499
▁inconnue	-10.8501
▁D’accord,	-10.8502
▁file	-10.8505
ième	-10.8506
▁mangé	-10.8506
▁?S	-10.8509
▁centaine	-10.8516
▁kg	-10.8518
▁minuscule	-10.8518
▁(Le	-10.8518
▁manquer	-10.8519
▁von	-10.8519
▁Loup	-10.8519
▁précise	-10.8523
▁arrière.	-10.8524
▁menait	-10.8524
▁Wi	-10.8533
▁épuisé	-10.8534
▁Garde	-10.8534
▁District	-10.8536
▁l’avenir	-10.8538
▁responsabilité	-10.8538
▁(H	-10.8538
▁l'église	-10.8542
▁soulagement	-10.8544
▁ensemble.	-10.8544
▁escalier	-10.8547
▁Long	-10.8548
▁précis	-10.8549
▁Mil	-10.8549
▁(maxi)	-10.8552
▁n’eût	-10.8552
▁trompé	-10.8553
▁voies	-10.8553
nom	-10.8558
▁tromper	-10.8559
▁direct	-10.8559
▁L'A	-10.8561
▁désagréable	-10.8562
▁jusqu'au	-10.8562
rak	-10.8563
uv	-10.8563
▁combinaison	-10.8563
▁1945	-10.8567
▁go	-10.8567
▁légende	-10.8571
▁calcul	-10.8573
▁êtres	-10.8574
mber	-10.8575
▁genou	-10.8577
▁officielle	-10.8578
lique	-10.858
▁élément	-10.8581
▁gagne	-10.8583
▁gri	-10.8586
▁explication	-10.8587
▁Allons	-10.8591
▁examina	-10.8592
▁attendaient	-10.8593
ium	-10.8594
▁cesser	-10.8594
▁j’aie	-10.8596
▁donnaient	-10.8597
ala	-10.8599
▁parole.	-10.8603
▁ressources	-10.8606
▁bec	-10.8608
▁fixés	-10.8609
▁bas.	-10.8614
▁silencieuse	-10.8615
bou	-10.8615
▁remplacé	-10.8624
▁privée	-10.8624
▁garçon,	-10.8627
▁visitez	-10.8628
▁mène	-10.8639
▁Eu	-10.864
▁remonta	-10.8646
▁Love	-10.8647
▁1958	-10.8648
îmes	-10.8649
▁lisse	-10.8652
▁fausse	-10.8653
▁balles	-10.8655
▁après,	-10.8655
▁demanda-t-elle	-10.8656
▁She	-10.8656
▁vivante	-10.866
▁nage	-10.866
▁misère	-10.866
▁grotte	-10.866
▁briser	-10.8662
eg	-10.8663
▁détaillée	-10.8663
▁mouchoir	-10.8664
▁civilisation	-10.8664
▁messieurs	-10.8665
▁regrette	-10.8666
▁non-	-10.8667
bor	-10.8673
▁bourse	-10.8676
▁?B	-10.868
▁sœurs	-10.8681
rac	-10.8682
▁Groupe	-10.8684
▁cessa	-10.8685
▁avança	-10.8685
▁Évidemment	-10.8686
▁Lé	-10.8687
▁d'indications	-10.8691
▁lycée	-10.8691
▁dessinée	-10.8691
▁Jeux	-10.8693
▁sent	-10.8697
▁l'Université	-10.8702
▁instructions	-10.8703
▁(fr)	-10.8705
▁quelquefois	-10.8707
▁soutenir	-10.8707
ets	-10.8708
▁appuya	-10.8708
▁1956	-10.8709
cor	-10.871
▁auteur	-10.8712
▁canapé	-10.8713
▁Toi	-10.8713
▁signifiait	-10.8714
pon	-10.8714
▁douzaine	-10.8715
▁VI	-10.8717
▁pénétra	-10.8722
▁travaillait	-10.8723
▁d’ailleurs,	-10.8725
ky	-10.8725
▁mètre	-10.8726
hn	-10.8727
▁Ren	-10.8729
▁Porte	-10.873
mba	-10.8732
mat	-10.8733
▁cas.	-10.8733
nèrent	-10.8734
▁occupée	-10.8737
▁conclut	-10.8739
▁Source	-10.874
▁fri	-10.8741
▁tend	-10.8742
▁Consulté	-10.8746
▁bonhomme	-10.8747
▁clarté	-10.8751
▁traiter	-10.8754
▁liaison	-10.8756
▁mur.	-10.8761
▁z	-10.8762
▁systèmes	-10.8763
▁larmes.	-10.8764
▁Hor	-10.8765
▁actuelle	-10.8767
▁Révolution	-10.8767
▁debout,	-10.8772
▁remise	-10.8776
▁multimédia	-10.8778
▁raisonnable	-10.8779
ange	-10.878
▁gigantesque	-10.8782
▁inquiétude	-10.8783
▁Ann	-10.8783
-F	-10.8784
af	-10.8789
")	-10.8794
▁commission	-10.8795
▁brisé	-10.8795
low	-10.8799
dique	-10.88
▁rit	-10.88
▁bon,	-10.8801
▁souriait	-10.8807
▁toucha	-10.8811
▁réception	-10.8811
▁?M	-10.8815
▁Fan	-10.8816
ich	-10.8818
▁Cara	-10.8818
▁avancer	-10.8819
▁39	-10.882
▁conséquent	-10.8821
▁nerfs	-10.8821
▁paille	-10.8824
▁1936	-10.8826
▁excellent	-10.883
▁billets	-10.8831
▁Washington	-10.8839
▁cavalier	-10.884
▁Juan	-10.8842
▁ressort	-10.8844
int	-10.8845
-V	-10.8846
▁pouvant	-10.885
▁d'Al	-10.8856
▁Ray	-10.8856
▁prennent	-10.8856
▁reçoit	-10.886
▁correspond	-10.886
▁Fais	-10.8861
IN	-10.8864
▁cra	-10.8865
phi	-10.8873
▁songe	-10.8874
▁couler	-10.8879
▁eh	-10.888
▁vitre	-10.8883
ières	-10.8887
▁Portugal	-10.8887
▁s’empêcher	-10.8887
▁magicien	-10.8889
▁puisqu’il	-10.8893
le,	-10.8894
▁hu	-10.8894
hl	-10.8895
▁quiconque	-10.8898
▁démons	-10.8899
▁grommela	-10.89
▁mets	-10.8904
▁fraîche	-10.8905
▁tirant	-10.8905
▁Berlin	-10.8907
▁fruit	-10.891
▁l’avant	-10.8912
kan	-10.8912
▁tunique	-10.8918
▁sienne	-10.8922
▁mesures	-10.8925
▁dizaines	-10.8926
▁d'avoir	-10.8927
▁utilise	-10.8927
▁vivants	-10.893
▁goutte	-10.8931
dd	-10.8932
▁poissons	-10.8933
▁conséquences	-10.8933
▁civile	-10.8939
▁rideau	-10.894
▁mécanique	-10.8941
lée	-10.8944
▁horreur	-10.8948
nette	-10.8948
lig	-10.8951
▁sc	-10.8952
▁tribu	-10.8956
▁toilette	-10.8958
▁sut	-10.8959
▁ben	-10.8959
▁J.-C.	-10.8963
lay	-10.8964
▁résoudre	-10.8965
▁ajouté	-10.8965
▁amant	-10.8968
udi	-10.8972
ôt	-10.8974
▁soif	-10.8975
▁suivie	-10.8977
▁battait	-10.8982
▁royal	-10.8984
▁antique	-10.8984
▁chasseurs	-10.8985
▁caisse	-10.8985
▁ignorait	-10.8986
nat	-10.8987
▁l'Italie	-10.8988
▁mari,	-10.8991
▁Palais	-10.8992
▁souverain	-10.8992
▁passagers	-10.8993
▁2007,	-10.8993
▁footballeur	-10.8995
▁Finalement,	-10.8995
▁c’étaient	-10.8998
▁(et	-10.9
▁prénom	-10.9
▁Tan	-10.9007
▁ailleurs,	-10.9011
gui	-10.9011
▁lis	-10.9012
▁Règne	-10.9015
▁miracle	-10.9016
▁d’I	-10.9017
▁éditions	-10.9018
spir	-10.902
▁détective	-10.902
▁école	-10.9021
▁sabre	-10.9025
▁prirent	-10.9026
▁mo	-10.9027
▁passèrent	-10.9029
stra	-10.9031
▁problème.	-10.9032
tern	-10.9032
▁anciennes	-10.9033
▁Ayla	-10.9033
▁poches	-10.9033
▁amis.	-10.9034
mu	-10.9036
▁régnait	-10.9036
▁expédition	-10.9037
▁incroyable	-10.9038
▁découvre	-10.9039
▁descendait	-10.904
▁reprit-il	-10.9041
▁descendu	-10.9042
-de	-10.9046
▁Grèce	-10.9048
▁mieux,	-10.9049
▁Im	-10.905
▁monnaie	-10.9051
▁rugby	-10.9054
▁invités	-10.9057
vert	-10.9059
rage	-10.9059
œ	-10.9061
▁interrogea	-10.9065
▁circulation	-10.9065
▁Ste	-10.9067
▁trajet	-10.9071
sia	-10.9071
▁retourné	-10.9074
tisme	-10.9078
▁attentivement	-10.9079
▁cloche	-10.9082
▁récompense	-10.9082
▁entretien	-10.9084
▁ren	-10.9086
▁trahi	-10.9088
▁tuer.	-10.9088
▁And	-10.909
▁frappe	-10.9091
▁risquait	-10.9091
▁l'école	-10.9093
▁Gil	-10.9093
▁preuves	-10.9097
▁auto	-10.9097
▁rouge,	-10.9099
▁Ouais,	-10.91
▁ruine	-10.9103
▁lion	-10.9104
uri	-10.9106
▁barrière	-10.9108
▁gravité	-10.9109
▁souriant.	-10.9113
▁Lucy	-10.9114
▁ensemble,	-10.9115
rer	-10.9115
▁armure	-10.9116
▁confusion	-10.9117
zza	-10.9118
▁prenez	-10.9119
▁44	-10.912
gal	-10.9121
▁attaché	-10.9122
▁moine	-10.9122
well	-10.9125
▁aille	-10.9127
▁Garion	-10.913
▁serrure	-10.9132
▁guise	-10.9134
▁destination	-10.9135
▁gestion	-10.9137
▁camion	-10.9139
gor	-10.9142
ring	-10.9143
▁Erik	-10.9143
▁brutalement	-10.9144
▁Seconde	-10.9145
▁monseigneur	-10.9146
▁dispose	-10.9148
▁Brown	-10.9148
▁bizarre	-10.9148
▁joyeux	-10.9149
▁destiné	-10.915
▁ju	-10.9152
▁blanc,	-10.9153
▁emb	-10.9156
▁l'ouest	-10.9156
util	-10.9161
▁limites	-10.9162
gues	-10.9162
▁Musée	-10.9162
▁nus	-10.9162
▁Jimmy	-10.9167
gro	-10.9167
▁vingtaine	-10.9167
▁dégoût	-10.9176
▁Monsieur,	-10.9177
▁Parker	-10.9177
mel	-10.9179
illard	-10.918
È	-10.9182
▁remplacer	-10.9186
▁bou	-10.9189
man,	-10.9192
ram	-10.9194
▁bateaux	-10.9195
▁meubles	-10.9195
▁chuchota	-10.9196
▁Cou	-10.9197
▁bol	-10.9197
yer	-10.92
▁imaginé	-10.9201
▁Tim	-10.9201
▁malheureuse	-10.9203
▁aigu	-10.9205
▁j’espère	-10.9206
-8	-10.9208
▁contenant	-10.9212
▁proposé	-10.9216
-les	-10.9216
▁Bak	-10.9218
▁Pé	-10.9219
▁linge	-10.9222
▁torse	-10.9225
▁sens,	-10.9226
▁Pen	-10.9227
▁demeurait	-10.9229
naient	-10.9235
▁professionnelle	-10.924
▁maximum	-10.924
▁compléter	-10.924
▁Tru	-10.9242
▁inférieur	-10.9242
▁restant	-10.9248
▁espérait	-10.925
▁âgé	-10.925
▁joindre	-10.9252
▁Cas	-10.9252
▁affronter	-10.9252
▁Pologne	-10.9253
▁Fri	-10.9258
▁l’adresse	-10.9258
nk	-10.9261
▁trouvée	-10.9261
▁nerveux	-10.9263
▁inférieure	-10.9264
▁support	-10.9268
▁marqué	-10.9269
▁Marco	-10.9271
▁Ten	-10.9273
▁prononça	-10.9276
▁villages	-10.9278
▁d’entendre	-10.928
▁roche	-10.9282
xi	-10.9283
▁changea	-10.9283
▁Aussitôt	-10.9286
▁Brian	-10.9286
fo	-10.9288
▁tueur	-10.9288
▁fourni	-10.9288
sky	-10.9289
osa	-10.9289
▁rejoignit	-10.9292
▁Hélas	-10.9292
▁ruines	-10.9294
▁municipalité	-10.9294
en,	-10.9296
▁constitue	-10.9298
▁Chez	-10.93
▁rideaux	-10.93
▁cabane	-10.9303
▁remercie	-10.9306
ib	-10.9311
▁Champ	-10.9313
▁major	-10.9314
-là.	-10.9314
▁instant.	-10.9314
▁cadeau	-10.9319
▁demie	-10.9319
▁tut	-10.932
▁d’eux,	-10.9322
▁cu	-10.9324
▁Hum	-10.9324
▁péri	-10.9325
y.	-10.9325
î	-10.9329
▁relativement	-10.9331
▁génération	-10.9331
▁gal	-10.9334
▁fussent	-10.9336
▁1952	-10.9336
▁soir-là	-10.9337
▁merveilleux	-10.9339
ode	-10.934
▁Seul	-10.9342
▁hiver	-10.9343
▁pile	-10.9346
▁(la	-10.9347
▁Bell	-10.935
▁D'autres	-10.9351
▁construite	-10.9352
▁Com	-10.9352
▁(16	-10.9358
▁aujourd’hui.	-10.9366
▁Déjà	-10.9367
gra	-10.9369
▁n’avoir	-10.937
▁drap	-10.9371
▁n’ait	-10.9372
▁était-il	-10.9372
▁luxe	-10.9379
▁poussée	-10.9379
▁Gal	-10.938
▁tendant	-10.9382
▁éprouvait	-10.9382
▁Vincent	-10.9384
▁brûlé	-10.9385
▁Certes,	-10.9386
▁local	-10.9388
▁l’eau,	-10.9389
▁montée	-10.9389
▁valet	-10.939
▁décrit	-10.939
▁réservé	-10.9393
yo	-10.9396
▁Amérique	-10.9397
▁regardaient	-10.9398
▁vienne	-10.9399
▁Green	-10.94
▁approuva	-10.9401
▁tonnerre	-10.9401
gua	-10.9401
és,	-10.9403
▁Ivan	-10.9405
▁restaient	-10.9406
▁étroite	-10.9406
▁48	-10.9407
▁Ros	-10.9407
nal	-10.9408
▁ouvriers	-10.9409
▁Louise	-10.941
▁tournoi	-10.9412
▁super	-10.9412
▁mourir.	-10.9416
▁cave	-10.9416
én	-10.9416
▁grimace	-10.9418
▁maréchal	-10.9419
▁1963	-10.942
▁comédie	-10.9422
ave	-10.9423
▁répète	-10.9424
▁Marseille	-10.9426
française,	-10.9427
▁XXe	-10.9429
az	-10.9429
▁journée,	-10.943
▁d’honneur	-10.943
▁prudence	-10.943
▁Regarde	-10.9432
▁brûler	-10.9433
guer	-10.9433
▁allongé	-10.9433
▁malin	-10.9438
▁inspiration	-10.9438
▁?(en)	-10.944
▁canot	-10.9442
▁garda	-10.9443
▁conseils	-10.9445
▁ennuis	-10.9447
cker	-10.945
▁charmante	-10.9451
uc	-10.9453
▁(p	-10.9455
▁nobles	-10.9455
▁Jones	-10.9456
▁confier	-10.9461
▁nourrir	-10.9461
▁retiré	-10.9462
▁2006,	-10.9463
▁contempla	-10.9465
AN	-10.9466
▁?C	-10.9467
pli	-10.9469
▁réveillé	-10.9473
atif	-10.9474
▁chance,	-10.9477
▁1954	-10.9478
▁sagesse	-10.948
▁oiseau	-10.9481
lat	-10.9482
cou	-10.9487
ches	-10.9487
▁constitué	-10.9489
▁composée	-10.949
▁constata	-10.9491
▁genoux,	-10.9495
av	-10.9498
uch	-10.9499
▁franchement	-10.9499
▁opinion	-10.95
▁Nouvelle	-10.9505
rog	-10.9507
▁Six	-10.9507
▁arrivèrent	-10.9512
zu	-10.9512
▁Allez	-10.9514
▁serviette	-10.9514
▁chapitre	-10.9518
▁taches	-10.9518
in.	-10.9521
▁lumineux	-10.9524
▁bandes	-10.9525
▁cheval,	-10.9526
▁écoute	-10.9527
ffect	-10.9529
▁Ferr	-10.953
▁Surtout	-10.953
▁béni	-10.9531
▁bonté	-10.9531
ignant	-10.9532
▁réfléchi	-10.9533
esse	-10.9536
▁Éditions	-10.9537
▁abattu	-10.9538
▁meurtrier	-10.9539
▁tribunal	-10.9541
▁gêne	-10.9542
bb	-10.9543
▁hi	-10.9543
▁réalisateur	-10.9544
▁l'âge	-10.9553
▁d'après	-10.9553
▁voudrait	-10.9555
▁éco	-10.9555
nc	-10.9556
▁Milan	-10.9558
▁idée.	-10.9559
▁outre,	-10.9559
▁s’aperçut	-10.9559
oy	-10.956
▁essentiellement	-10.9562
▁D’une	-10.9562
▁souffre	-10.9563
▁monture	-10.9565
▁portable	-10.9566
▁tremblait	-10.9569
▁Historique	-10.9571
▁sincère	-10.9571
▁armé	-10.9575
▁Olivier	-10.9575
▁répondait	-10.9576
▁textes	-10.9576
ia,	-10.9576
[2].	-10.9576
▁battu	-10.9577
▁1959	-10.9581
▁définitivement	-10.9581
▁muraille	-10.9583
▁Fédération	-10.9584
▁mariée	-10.9584
▁At	-10.9588
ii	-10.9589
▁l’univers	-10.9589
▁pensant	-10.9589
▁avocat	-10.959
▁droite.	-10.959
▁sens.	-10.9591
▁Kh	-10.9592
▁plante	-10.9594
▁couvrir	-10.9594
▁putain	-10.9595
▁culte	-10.9596
▁esprit.	-10.9597
▁profil	-10.96
▁Impossible	-10.96
▁qu’avec	-10.9601
▁extrême	-10.9602
▁Cy	-10.9606
▁cou.	-10.9606
▁serré	-10.9607
▁mensonge	-10.9607
uff	-10.9607
▁chansons	-10.9608
▁(La	-10.9608
▁R.	-10.9608
▁t’aime	-10.961
▁renoncer	-10.9613
▁participe	-10.9613
hen	-10.9614
▁développé	-10.962
▁forcément	-10.9622
von	-10.9623
▁c'est-à-dire	-10.9624
▁Rachel	-10.9624
▁espérer	-10.963
▁Gui	-10.9632
▁constater	-10.9634
▁vampires	-10.9636
▁?A	-10.9637
▁prévenu	-10.964
▁étendu	-10.9642
ona	-10.9644
▁Gri	-10.9644
▁patient	-10.9646
▁Comp	-10.9646
▁Hol	-10.9648
gri	-10.9649
-vous	-10.9653
▁taux	-10.9658
▁Localisation	-10.966
avi	-10.9664
▁calme.	-10.9665
▁s’élança	-10.9665
tance	-10.9668
▁55	-10.9668
▁Lady	-10.967
▁d’arriver	-10.9671
▁Dal	-10.9674
▁foi,	-10.9675
▁mourut	-10.9677
▁pressa	-10.9678
▁verres	-10.9678
ami	-10.9685
▁Plan	-10.9685
▁remarquable	-10.9686
imp	-10.969
▁b?	-10.9691
▁cracha	-10.9693
▁paysans	-10.9698
ça	-10.9698
elles	-10.9699
illy	-10.97
▁a?	-10.9707
▁monastère	-10.9707
▁chargée	-10.9707
▁merveilleuse	-10.971
mas	-10.9711
▁visiter	-10.9712
▁Général	-10.9716
▁contempler	-10.9716
▁choses,	-10.9717
▁barque	-10.9721
▁d’homme	-10.9725
▁52	-10.9734
▁paume	-10.9738
▁brûlant	-10.974
▁tache	-10.9743
▁s’interrompit	-10.9743
▁Haut	-10.9744
▁l’art	-10.9744
▁Susan	-10.9745
▁concept	-10.9748
▁frère.	-10.9748
▁chasseur	-10.9748
▁vertu	-10.9752
▁n’allait	-10.9755
▁marier	-10.9757
tiques	-10.9757
▁quartiers	-10.9758
ec	-10.9759
▁représentait	-10.9759
mant	-10.976
▁obtient	-10.9761
▁l’heure,	-10.9762
ez-moi	-10.9763
▁Land	-10.9765
▁maudit	-10.9767
▁sujet.	-10.9767
nan	-10.9768
▁occupe	-10.977
▁église	-10.9772
ime	-10.9774
▁apparaître	-10.9776
▁Pop	-10.9776
▁conflit	-10.9785
▁témoins	-10.9786
hum	-10.9787
▁[1]	-10.979
ila	-10.9791
pos	-10.9793
▁dents.	-10.9796
cat	-10.9797
-7	-10.9798
▁tarder	-10.98
▁Pre	-10.9803
cca	-10.9805
▁fond,	-10.9809
▁l’intérieur.	-10.9811
▁ôta	-10.9815
▁s’éloigner	-10.9816
▁concours	-10.9816
▁sensible	-10.9817
▁panneau	-10.982
▁degré	-10.9822
▁voyons	-10.9822
▁1948	-10.9824
▁étoile	-10.9825
▁flèches	-10.9827
▁Moyen	-10.9828
▁motif	-10.9829
▁coutume	-10.983
▁calmer	-10.983
▁???????	-10.9831
▁appartements	-10.9834
▁savoir.	-10.9834
▁Philip	-10.9834
-p	-10.9837
▁crée	-10.9839
nière	-10.9839
ö	-10.9839
▁allusion	-10.984
neau	-10.9841
ago	-10.9841
▁quelles	-10.9842
ity	-10.9843
▁terminée	-10.9845
▁étudiants	-10.9847
▁chanteur	-10.9848
▁hurler	-10.9848
▁civil	-10.9849
▁boulevard	-10.9852
▁description	-10.9852
▁céder	-10.9852
ali	-10.9855
▁bouche,	-10.9856
▁l’extrémité	-10.9858
▁déclare	-10.9859
▁lèvres,	-10.9861
▁l'Union	-10.9865
rma	-10.9867
form	-10.9868
▁auxquels	-10.987
[3]	-10.9871
ouille	-10.9872
isant	-10.9876
▁gorgée	-10.9877
▁instrument	-10.9878
▁déclin	-10.988
2007	-10.9882
▁dix-huit	-10.9882
▁cassé	-10.9884
gré	-10.9884
▁habitude	-10.9885
▁efficace	-10.9888
son,	-10.9889
▁velours	-10.9894
ato	-10.9895
▁avait-elle	-10.9896
▁sourcil	-10.9896
▁engagé	-10.9899
▁Hein	-10.9899
▁noblesse	-10.99
▁cachée	-10.99
▁Jean-Claude	-10.99
▁catastrophe	-10.99
▁d’énergie	-10.9901
illes	-10.9902
▁locale	-10.9904
▁interrompit	-10.9905
▁Gen	-10.9905
▁affirma	-10.9906
▁permission	-10.9907
▁Australie	-10.9911
▁puissants	-10.9911
▁hauts	-10.9912
▁vingt-cinq	-10.9912
▁Pauvre	-10.9913
▁Celle-ci	-10.9913
neur	-10.9914
▁événement	-10.9917
▁Maigret	-10.9919
▁révolte	-10.9919
▁l’animal	-10.9919
▁41	-10.9919
▁hé	-10.9921
ades	-10.9922
▁d'ailleurs	-10.9926
▁Hel	-10.9926
▁l'état	-10.9926
▁profondeur	-10.9928
▁cruel	-10.9929
sis	-10.9933
▁opérations	-10.9934
▁majeure	-10.9934
▁conduisit	-10.9937
▁débit	-10.9937
▁d'Ar	-10.9938
▁pat	-10.9942
▁Division	-10.9943
▁secrète	-10.9945
▁neveu	-10.9947
▁menaçant	-10.9949
▁drame	-10.9949
▁matchs	-10.9953
▁parois	-10.9954
▁Lan	-10.9955
▁couverte	-10.9955
▁Naissance	-10.9955
▁désignant	-10.9956
▁ceux-ci	-10.9958
▁front.	-10.9958
▁disponibles	-10.996
▁occuper	-10.9963
▁tendue	-10.9963
▁nuque	-10.9966
ê	-10.9968
▁torture	-10.9968
▁déesse	-10.9969
▁Boy	-10.9972
▁1957	-10.9973
▁cm	-10.9974
▁oh	-10.9978
▁Ét	-10.9978
▁italienne	-10.9978
lit	-10.9979
▁participer	-10.9979
nais	-10.998
▁Raoul	-10.998
▁l’empereur	-10.9981
▁Pla	-10.9981
▁griffes	-10.9982
▁poly	-10.9983
▁Gou	-10.9987
▁l’aise	-10.9988
▁policiers	-10.9988
▁charmant	-10.9989
▁monstres	-10.9992
▁Peggy	-10.9992
▁Nor	-10.9992
▁importants	-10.9993
▁Napoléon	-10.9993
▁aurons	-10.9994
▁Ana	-10.9996
▁op	-10.9996
igny	-10.9997
▁foncé	-10.9998
▁paisible	-10.9999
ón	-11.0003
▁vente	-11.0005
▁rude	-11.0006
▁prépare	-11.0009
▁torche	-11.001
▁document	-11.0013
▁féminine	-11.0013
▁appuyé	-11.0013
▁profession	-11.0015
▁mi-	-11.0017
▁journée.	-11.0017
▁élevée	-11.0019
▁d’An	-11.0019
▁cauchemar	-11.002
▁venger	-11.0022
▁quelques-uns	-11.0023
▁après-midi	-11.0025
▁songer	-11.0026
▁dirigé	-11.0028
ssi	-11.0029
▁nourri	-11.0029
▁voûte	-11.0029
▁collier	-11.0033
êt	-11.0033
▁douloureux	-11.0035
▁Bataille	-11.0036
▁2004,	-11.0036
euil	-11.0036
▁s’éleva	-11.0039
▁Hy	-11.0042
▁my	-11.0043
▁conscient	-11.0044
▁estime	-11.0049
roy	-11.0049
▁furieux	-11.0051
▁pourriez	-11.0052
ffi	-11.0053
▁affection	-11.0054
▁confié	-11.0055
▁tra	-11.0056
▁jugé	-11.0058
▁crédit	-11.006
▁at	-11.0064
▁élève	-11.0064
▁considéra	-11.0064
▁désirait	-11.0067
▁cuisine,	-11.0069
▁importantes	-11.0069
zar	-11.007
▁Lune	-11.0071
▁compte,	-11.0072
lait	-11.0074
ard,	-11.0074
▁armés	-11.0076
▁d’entrée	-11.0079
▁cons	-11.0079
▁débris	-11.0079
▁gravement	-11.0079
▁plaisir.	-11.008
▁intelligence	-11.0081
▁chéri	-11.0081
▁j’aurai	-11.0081
▁1944	-11.0083
sses	-11.0086
ult	-11.0087
▁appartenait	-11.0091
▁descendant	-11.0092
▁Julien	-11.0096
▁Pic	-11.0097
▁Jusqu’à	-11.0097
lles	-11.0099
▁conservé	-11.0102
lette	-11.0102
▁fusion	-11.0103
▁désordre	-11.0104
▁auparavant,	-11.0105
▁servante	-11.0108
▁com	-11.0109
▁l’hiver	-11.011
▁Jules	-11.0112
▁d’acier	-11.0112
▁l’était	-11.0113
éné	-11.0117
▁réveil	-11.0119
▁million	-11.0119
▁aidé	-11.012
▁l’entendre	-11.012
▁opposé	-11.0124
▁l’aider	-11.0125
▁présentait	-11.0126
▁émotions	-11.0127
▁collège	-11.0128
▁dignité	-11.0128
▁l’abbé	-11.0128
▁coup.	-11.013
▁brune	-11.0131
▁drogue	-11.0131
▁issu	-11.0132
▁auriez	-11.0132
▁brève	-11.0135
▁étage	-11.0135
▁tôt.	-11.0139
▁airs	-11.0142
rant	-11.0144
▁féminin	-11.0145
nois	-11.0146
▁Saison	-11.0146
▁combats	-11.0146
mond	-11.0147
▁relève	-11.0148
▁chiffres	-11.0149
▁Billy	-11.015
▁bé	-11.0152
▁P.	-11.0157
▁envoie	-11.0157
▁résidence	-11.016
▁pl	-11.0162
chon	-11.0163
trice	-11.0166
▁43	-11.0171
▁paraissaient	-11.0172
▁imagination	-11.0173
▁autorités	-11.0176
▁visiteurs	-11.018
▁Francis	-11.018
▁poussait	-11.0184
▁dira	-11.0184
▁survivre	-11.0185
end	-11.0185
2006	-11.0185
▁contraint	-11.0186
▁espagnol	-11.0186
▁1946	-11.0189
▁permettent	-11.019
▁déplacer	-11.0193
▁moral	-11.0193
▁étrangère	-11.0195
▁canne	-11.0196
▁j’aimerais	-11.0198
▁invité	-11.0199
▁rentra	-11.0202
éri	-11.0202
▁Diane	-11.0204
▁sélection	-11.0205
ç	-11.0206
▁th	-11.0209
▁fixer	-11.0212
▁poison	-11.0218
▁restes	-11.0218
▁raconta	-11.022
▁Temple	-11.022
▁prêter	-11.0222
▁amitié	-11.0222
▁enveloppe	-11.0224
▁Scott	-11.0225
▁éclats	-11.0226
▁attiré	-11.0228
▁Christophe	-11.0229
▁discipline	-11.023
ux.	-11.023
rance	-11.0231
▁sentant	-11.0231
▁dedans	-11.0232
▁provoquer	-11.0232
▁désespéré	-11.0234
▁2007.	-11.0234
rique	-11.0235
▁Julie	-11.0236
▁artistes	-11.0239
▁Ven	-11.0239
▁étendue	-11.024
▁Heureusement	-11.0241
▁réalisa	-11.0241
cour	-11.0243
▁contrôler	-11.0244
▁brillait	-11.0244
▁roues	-11.0248
ary	-11.0248
▁dormi	-11.0249
▁Néanmoins,	-11.0251
▁forêts	-11.0253
▁Voulez-vous	-11.0254
▁religieuse	-11.0256
▁fierté	-11.0256
▁s’écarta	-11.026
▁demandai	-11.0263
▁extérieur	-11.0264
▁imbécile	-11.0264
▁déteste	-11.0265
▁avion	-11.0266
▁Celle	-11.0267
▁sacrée	-11.027
▁l’ancien	-11.0271
▁s’assurer	-11.0273
▁maritime	-11.0273
▁étranges	-11.0275
sie	-11.0275
▁déserte	-11.0275
▁comprendre.	-11.0276
▁(?	-11.0276
▁respirer	-11.0277
cré	-11.0278
▁(3	-11.0282
▁circonscription	-11.0292
▁garçon.	-11.0294
▁Bah	-11.0294
-elles	-11.0298
▁doigts.	-11.0299
▁Fau	-11.03
tic	-11.0301
IT	-11.0303
▁muet	-11.031
▁rivage	-11.0317
▁Madeleine	-11.0317
stein	-11.0318
▁j’aime	-11.0318
▁puissent	-11.0319
▁trous	-11.032
▁Williams	-11.0321
▁(il	-11.0321
▁Sarah	-11.0321
▁intitulé	-11.0328
▁davantage.	-11.0329
ér	-11.033
▁signé	-11.0331
▁Olympiques	-11.0348
▁vivent	-11.0349
▁considère	-11.0353
▁transformer	-11.0355
▁??????????	-11.0358
▁fermement	-11.0358
▁phase	-11.0361
▁57	-11.0362
▁souvenait	-11.0368
AR	-11.037
▁auparavant	-11.037
▁intérêts	-11.0371
ient,	-11.0372
▁final	-11.0375
▁surprise.	-11.0375
euses	-11.0376
▁Anti	-11.0377
▁passées	-11.0378
ial	-11.0379
▁pourrions	-11.0383
▁nue	-11.0386
▁jusqu’ici	-11.0387
▁gagna	-11.0389
fond	-11.039
▁charger	-11.0393
gna	-11.0393
▁États	-11.0393
▁pénombre	-11.0394
▁refusa	-11.0397
▁US	-11.0398
IS	-11.0406
▁Mrs.	-11.0407
▁canons	-11.041
lio	-11.0413
▁grand-mère	-11.0414
▁l’assassin	-11.0416
▁accepte	-11.0417
▁Malheureusement	-11.0419
▁prier	-11.042
▁Regardez	-11.0422
▁indispensable	-11.0426
▁s’empara	-11.0426
▁ongles	-11.0426
▁froid,	-11.043
▁Zi	-11.043
▁s’appelait	-11.0432
s"	-11.0434
▁l'O	-11.0436
▁métro	-11.0436
▁sœur,	-11.0437
▁(à	-11.0437
▁fe	-11.0442
▁mâchoire	-11.0443
ote	-11.0444
pan	-11.0447
▁Chevalier	-11.0448
▁corridor	-11.0458
▁rouge.	-11.0458
▁Ay	-11.0458
inter	-11.0461
▁verra	-11.0462
▁répondit-elle	-11.0463
▁International	-11.0465
▁Web	-11.0466
n.	-11.0468
▁associé	-11.0469
▁allemande	-11.0469
▁glacée	-11.047
▁violente	-11.0471
etta	-11.0471
char	-11.0472
▁Tel	-11.0474
▁l’avons	-11.0476
▁47	-11.0479
▁volée	-11.048
▁poitrine,	-11.0482
▁écarta	-11.0484
fin	-11.0484
▁silencieux	-11.0489
▁ka	-11.049
mand	-11.0497
▁regardèrent	-11.05
▁réalisation	-11.0501
▁(L	-11.0501
▁Royal	-11.0502
▁manières	-11.0503
▁traduit	-11.0503
▁chemin,	-11.0505
▁historiques	-11.0507
▁Ken	-11.0508
▁1955	-11.0508
▁Soit	-11.0509
▁Lin	-11.0509
éra	-11.0509
▁formule	-11.051
▁investi	-11.0512
-t	-11.0512
▁principes	-11.0512
▁là-bas.	-11.0513
▁falaise	-11.0515
mou	-11.0515
▁l'an	-11.0516
▁envoya	-11.0517
▁intentions	-11.0518
wan	-11.0519
▁veines	-11.052
▁51	-11.0522
▁existait	-11.0522
▁plumes	-11.0524
▁gosse	-11.0524
▁Sept	-11.0525
▁d’El	-11.0526
▁Faut	-11.0527
cte	-11.0527
▁déclaration	-11.053
▁soudaine	-11.053
▁examiner	-11.0531
▁degrés	-11.0532
▁Musique	-11.0533
-f	-11.0535
▁aîné	-11.0536
▁Dia	-11.0536
▁décès	-11.0536
-K	-11.054
▁bouclier	-11.0542
▁Mat	-11.0544
sp	-11.0544
▁cuisine.	-11.0546
vor	-11.055
▁gémit	-11.055
▁choisit	-11.055
iano	-11.0558
▁dise	-11.0559
▁arraché	-11.0559
▁doute.	-11.056
▁l’an	-11.0561
▁Samuel	-11.0562
▁année,	-11.0563
▁effet.	-11.0563
▁situe	-11.0563
▁1939	-11.0565
▁d’habitude	-11.0566
▁l’aime	-11.0567
al,	-11.0567
▁cycle	-11.0568
▁demi-tour	-11.0568
ements	-11.0572
▁Zo	-11.0573
▁Duc	-11.0576
▁buts	-11.0579
▁progrès	-11.0581
▁apprit	-11.0581
uve	-11.0582
mma	-11.0584
▁d’eux.	-11.0584
▁secouant	-11.0584
▁âmes	-11.0587
-E	-11.059
▁José	-11.059
▁avenir	-11.059
▁bra	-11.0591
▁tiers	-11.0592
▁rire,	-11.0599
▁pourrai	-11.0599
▁Elena	-11.0602
▁sacs	-11.0602
▁?0M	-11.0607
ax	-11.0608
▁gouttes	-11.061
▁froid.	-11.0614
▁lutter	-11.0616
▁Demain	-11.0618
▁l’allée	-11.062
▁rois	-11.0622
nni	-11.063
Le	-11.0632
▁(«	-11.0632
▁assisté	-11.0632
▁humaines	-11.0634
▁Hugh	-11.0635
▁ouverts	-11.0635
▁jardins	-11.0636
▁??????	-11.0636
log	-11.0637
▁Mau	-11.0637
oph	-11.0637
chen	-11.0639
▁chariot	-11.0645
▁Jason	-11.0646
▁m’appelle	-11.0646
▁craignait	-11.0646
▁Blanche	-11.0648
▁moulin	-11.0649
▁mousse	-11.065
▁cathédrale	-11.0653
▁l'album	-11.0654
ys	-11.0659
▁Wood	-11.066
▁ouvrages	-11.066
▁repose	-11.0661
▁seins	-11.0663
▁parking	-11.0664
ssais	-11.0664
▁l’O	-11.0669
Prix	-11.0669
▁accomplir	-11.0671
▁CD	-11.0671
▁j'	-11.0671
▁l’attaque	-11.0674
▁mauvaises	-11.0675
▁Chris	-11.0675
▁46	-11.0679
bas	-11.068
▁serrer	-11.068
▁Vos	-11.0683
▁comporte	-11.0683
▁n'ont	-11.0683
▁tables	-11.0686
▁Trans	-11.0687
▁sien	-11.0687
▁mont	-11.0697
vait	-11.0702
▁précédent	-11.0703
▁correspondant	-11.0705
▁bus	-11.0706
▁d’années	-11.071
▁Bol	-11.0711
▁refusait	-11.0712
▁Pardon	-11.0715
▁reproche	-11.0716
▁lo	-11.0718
▁composition	-11.0719
▁conducteur	-11.072
▁l’atmosphère	-11.0725
▁totalité	-11.0727
▁désigner	-11.0728
▁autorité	-11.0728
▁seconde,	-11.0728
▁automobile	-11.0728
▁auteurs	-11.0729
▁cristal	-11.0731
▁Attendez	-11.0732
▁conception	-11.0737
▁Kahlan	-11.0739
▁Vainqueur	-11.0739
▁univers	-11.0742
▁symbole	-11.0745
▁licence	-11.0745
▁placard	-11.0745
▁restent	-11.0745
▁déco	-11.0747
-5	-11.0747
▁400	-11.0747
▁soi	-11.0748
▁sauve	-11.0748
▁espérant	-11.0748
▁nain	-11.0749
▁Karl	-11.0751
ez,	-11.0752
▁vacances	-11.0752
▁retint	-11.0752
▁emploi	-11.0752
wer	-11.0753
▁courant.	-11.0756
ks	-11.0757
▁Pascal	-11.0759
▁prenaient	-11.0759
▁Bat	-11.0759
▁us	-11.0761
▁peuples	-11.0762
▁ti	-11.0763
▁pou	-11.0764
▁convoi	-11.0767
nent	-11.0768
lac	-11.077
▁censé	-11.0771
▁attirer	-11.0775
▁Gé	-11.0776
▁pressé	-11.0776
▁époque,	-11.0777
▁couvent	-11.078
▁déterminer	-11.0783
▁(4	-11.0784
ine.	-11.0784
▁1947	-11.0785
atoire	-11.0786
▁voleur	-11.0787
▁hurlement	-11.0789
▁(5	-11.079
▁bouge	-11.079
▁Ralph	-11.0792
▁gla	-11.0794
▁garage	-11.0794
▁Em	-11.0797
▁chargés	-11.0798
▁envahi	-11.0798
▁cal	-11.0799
▁(Source	-11.0799
▁voiles	-11.0799
▁repousser	-11.0804
▁habit	-11.0805
▁nomme	-11.0805
▁poésie	-11.0805
▁gueules	-11.0806
▁Certaines	-11.0807
bul	-11.0807
▁donnent	-11.0808
▁retentit	-11.0808
▁abandonnée	-11.0808
▁rue.	-11.081
▁sommeil.	-11.081
ville,	-11.0811
bilis	-11.0815
▁laissée	-11.0815
▁maître,	-11.0817
▁vote	-11.0817
us,	-11.082
▁dressait	-11.082
▁fracas	-11.0821
▁enlevé	-11.0822
▁Angeles	-11.0822
▁consacré	-11.0824
▁revers	-11.0824
▁virent	-11.0825
▁convient	-11.0826
AS	-11.0827
▁intelligent	-11.083
▁Dites	-11.0833
▁routes	-11.0835
▁villa	-11.0836
▁Nar	-11.0837
▁d'expression	-11.0839
▁inquiet	-11.0839
▁qu’aucun	-11.0841
▁Cent	-11.0843
▁traverse	-11.0843
▁Pal	-11.0844
ente	-11.0847
▁françaises	-11.0847
▁affreux	-11.0852
▁hôte	-11.0854
▁colère,	-11.0855
zan	-11.0856
▁poumons	-11.0859
▁obscur	-11.0859
▁Ford	-11.086
mine	-11.0862
ur,	-11.0862
▁Suède	-11.0866
▁annoncer	-11.0866
rit	-11.087
▁discrètement	-11.0871
▁mec	-11.0872
▁restèrent	-11.0872
▁fragile	-11.0872
▁standard	-11.0873
▁Bla	-11.0873
▁retomber	-11.0875
▁leçon	-11.0878
▁années.	-11.0879
▁lèvre	-11.088
▁serrant	-11.088
▁Villa	-11.0881
te,	-11.0889
▁Roo	-11.0889
▁vida	-11.089
▁Pra	-11.089
▁Pete	-11.0893
▁1930	-11.0893
▁massacre	-11.0894
▁décédé	-11.0896
▁gants	-11.0897
▁verts	-11.0898
▁fur	-11.0898
▁God	-11.0899
▁Reg	-11.09
▁Pri	-11.09
▁problème,	-11.09
▁absurde	-11.0901
▁principales	-11.0901
▁employés	-11.0903
sy	-11.0907
▁inscrit	-11.0909
▁s’étonna	-11.091
▁croisa	-11.0912
▁Sho	-11.0913
▁marchands	-11.0913
▁Kevin	-11.0913
▁courrier	-11.0913
▁admis	-11.0914
▁coulait	-11.0918
ude	-11.0918
▁chevaliers	-11.0918
▁reculer	-11.0918
▁Ag	-11.0918
ssez	-11.0919
▁interne	-11.0919
▁scandale	-11.092
▁(15	-11.0921
▁Ara	-11.0922
▁d'ex	-11.0922
▁commencèrent	-11.0926
▁survécu	-11.0926
▁roue	-11.0927
▁douleur.	-11.0927
▁mouche	-11.0928
s).	-11.0929
▁apporte	-11.093
▁56	-11.093
▁saura	-11.0935
rt	-11.0938
▁Ayant	-11.0938
aux,	-11.0939
anne	-11.094
is.	-11.094
▁Maman	-11.0941
▁conduisait	-11.0941
ES	-11.0942
▁fidèles	-11.0943
aceae	-11.0944
▁abandonner	-11.0944
▁confirma	-11.0945
▁restera	-11.0946
▁mien	-11.0947
ora	-11.0948
▁dép	-11.0951
▁falloir	-11.0953
▁procurer	-11.0954
▁semblent	-11.0956
▁familier	-11.0957
▁seras	-11.0958
▁j’eus	-11.0959
ska	-11.0959
rick	-11.0959
▁Soleil	-11.096
▁situation.	-11.0962
dans	-11.0964
AT	-11.0964
▁officiellement	-11.0964
▁levée	-11.0965
▁mâle	-11.0966
▁2005,	-11.0966
▁Parlement	-11.0967
▁refuge	-11.0967
▁manifestement	-11.0967
▁avancé	-11.0974
▁quels	-11.0974
▁d’avance	-11.0975
▁opération	-11.0975
▁connus	-11.0976
▁Robin	-11.0976
▁jaunes	-11.0978
▁s’écria-t-il	-11.0979
▁forcer	-11.098
▁attaquer	-11.0982
▁conserve	-11.0987
▁originaire	-11.0987
▁troublé	-11.0987
▁serre	-11.099
▁automatique	-11.099
▁consulter	-11.0992
ort	-11.0992
-H	-11.0993
▁Alex	-11.0994
thi	-11.0998
▁défend	-11.0999
▁lumière.	-11.0999
▁300	-11.0999
pré	-11.1001
▁Roy	-11.1001
▁Tam	-11.1001
▁mod	-11.1001
eur,	-11.1001
hel	-11.1004
▁c?ur	-11.1005
nar	-11.1006
▁réagir	-11.1009
▁XVIIIe	-11.101
▁utilisant	-11.1011
▁collé	-11.1012
▁dague	-11.1013
▁terminer	-11.1013
oul	-11.1014
▁frissonna	-11.1015
ives	-11.1015
▁habile	-11.1016
▁genoux.	-11.1017
▁pourrez	-11.1017
hab	-11.1017
▁éclairé	-11.1019
▁d’attendre	-11.1021
▁Ross	-11.1023
cide	-11.1023
▁bague	-11.1032
o.	-11.1034
▁nation	-11.1035
vais	-11.1037
▁Ac	-11.1037
ison	-11.1038
hr	-11.1039
▁d'art	-11.1039
erre	-11.104
▁cinquième	-11.1041
▁songeait	-11.1043
?)	-11.1047
▁choix.	-11.105
▁assassin	-11.1051
trait	-11.1052
▁S’	-11.1053
▁individus	-11.1053
▁paroisse	-11.1054
och	-11.1056
▁camarade	-11.1057
▁au-dessous	-11.1059
▁acquis	-11.1059
▁risquer	-11.106
▁remonte	-11.1061
▁Mademoiselle	-11.1062
▁orange	-11.1062
▁Rio	-11.1066
▁penché	-11.1066
▁Gaston	-11.107
▁tirait	-11.107
▁Ty	-11.1071
▁crimes	-11.1073
▁traite	-11.1074
▁cré	-11.1075
▁circulaire	-11.1075
▁l'université	-11.1076
lage	-11.1076
▁raide	-11.1081
-t-on	-11.1086
▁rompre	-11.1091
▁internes	-11.1092
▁S’ils	-11.1092
▁ruisseau	-11.1094
▁Day	-11.1095
▁Tiens,	-11.1096
chu	-11.1098
ation.	-11.1098
▁filet	-11.1098
▁là-dedans	-11.1098
▁lorsqu’ils	-11.1099
omb	-11.1099
▁incomplète.	-11.1104
aro	-11.1105
▁battue	-11.1106
▁formaient	-11.1106
tir	-11.1106
▁frein	-11.1108
▁accepta	-11.1108
▁revenus	-11.111
▁Camille	-11.1111
imagin	-11.1113
▁parole,	-11.1115
▁River	-11.1116
gy	-11.1117
▁accusé	-11.1117
dale	-11.1117
terre	-11.112
▁Mexique	-11.1124
▁appartenant	-11.1124
▁Arm	-11.1124
▁blond	-11.1125
▁veiller	-11.1126
▁heurta	-11.1127
▁muni	-11.1127
ation,	-11.1127
▁équilibre	-11.1128
▁hésitation	-11.1128
eff	-11.1133
-sur-	-11.114
▁deviné	-11.1141
▁loups	-11.1142
▁nord,	-11.1143
▁médaille	-11.1144
▁49	-11.1147
▁herbes	-11.1153
▁traditionnelle	-11.1156
▁trouvais	-11.1156
▁cachait	-11.116
▁devriez	-11.1161
▁assister	-11.1161
▁cachette	-11.1164
▁charbon	-11.1164
-D	-11.1167
▁disaient	-11.1167
▁noter	-11.117
gol	-11.117
▁trucs	-11.1173
▁l’attendait	-11.1173
▁gu	-11.1179
▁égale	-11.1179
▁Francisco	-11.118
▁fonds	-11.1182
crit	-11.1184
▁Parc	-11.1184
▁patrouille	-11.1185
▁danger.	-11.1186
▁ange	-11.1189
▁Culture	-11.1193
▁lié	-11.1194
▁Dick	-11.1195
plan	-11.1197
▁marié	-11.1198
▁délai	-11.1201
▁étages	-11.1202
▁mortel	-11.1204
▁sursaut	-11.1205
▁calmement	-11.1205
▁l’humanité	-11.1206
▁brûlait	-11.1209
▁Bour	-11.1212
▁mêlée	-11.1214
▁éclairée	-11.1216
▁échelle	-11.1216
▁Bad	-11.1219
▁qualités	-11.1219
▁morts.	-11.122
▁Statut	-11.122
▁avantage	-11.1222
▁Cat	-11.1223
▁douloureuse	-11.1224
▁notion	-11.1225
▁tue	-11.1226
▁Dragon	-11.1227
▁l’océan	-11.1228
▁mar	-11.1228
▁deviendra	-11.1229
▁Meilleur	-11.123
▁cha	-11.1232
▁vôtre	-11.1234
▁crête	-11.1234
▁étudier	-11.1236
▁Island	-11.1238
▁romain	-11.1238
▁chemins	-11.1238
▁boit	-11.1239
sto	-11.124
dam	-11.124
▁(qui	-11.1241
ind	-11.1242
▁couvre	-11.1242
▁Kra	-11.1244
▁apercevoir	-11.1244
▁pardonner	-11.1245
▁es-tu	-11.1245
urier	-11.1247
matique	-11.1251
▁gaillard	-11.1255
AC	-11.1256
mbo	-11.1259
table	-11.1259
▁ignore	-11.126
▁issue	-11.126
▁absent	-11.1261
▁contenir	-11.1263
▁Laurent	-11.1266
▁écoutait	-11.1267
mal	-11.1267
▁laboratoire	-11.1267
▁plaisanterie	-11.1267
▁parlaient	-11.1268
▁fixement	-11.1268
▁L.	-11.1271
▁tronc	-11.1271
▁vêtue	-11.1271
és.	-11.1274
organ	-11.1274
▁Vic	-11.1278
▁repartir	-11.1279
▁averti	-11.1279
▁Venez	-11.128
▁stupéfait	-11.1283
▁nid	-11.1284
ias	-11.1284
▁qu	-11.1286
▁disait-il	-11.1287
▁chiffre	-11.1288
▁objectif	-11.1289
▁ancêtres	-11.1291
▁suivirent	-11.1292
▁bonnet	-11.1294
▁posséder	-11.1294
▁messager	-11.1295
▁vendu	-11.1296
▁passent	-11.13
▁suffisant	-11.1301
▁nullement	-11.1302
cad	-11.1305
▁brillaient	-11.1306
▁n’existe	-11.1312
▁nocturne	-11.1313
use,	-11.1313
▁réunis	-11.1313
▁ressenti	-11.1314
▁?T	-11.1315
▁séparer	-11.1316
kov	-11.1317
▁marqua	-11.1318
▁rauque	-11.1318
ères	-11.1319
▁l’œuvre	-11.1319
émi	-11.1322
▁Andrew	-11.1322
▁web	-11.1324
ndi	-11.1325
nci	-11.1329
▁refus	-11.1329
▁suicide	-11.1332
▁multiples	-11.1332
▁soviétique	-11.1334
▁Puisque	-11.1334
▁sombre,	-11.1334
▁vice	-11.1334
kar	-11.1335
viv	-11.1336
▁sucre	-11.1337
▁commençaient	-11.1338
▁subitement	-11.1338
▁chêne	-11.1341
quant	-11.1341
▁(I	-11.1343
▁passés	-11.1345
▁min	-11.1348
ico	-11.1348
▁d’Or	-11.1352
▁esprit,	-11.1352
-M	-11.1355
▁planté	-11.1356
▁grognement	-11.1359
an.	-11.136
▁enceinte	-11.136
▁traversée	-11.1365
▁écrite	-11.1365
▁couverts	-11.1367
▁ouverture	-11.1367
▁désolée	-11.1367
▁nez.	-11.1368
-O	-11.1368
ei	-11.137
▁énormes	-11.1371
iné	-11.1374
▁d’apprendre	-11.1375
▁cousine	-11.1375
▁tonnes	-11.1379
▁Blanc	-11.138
cc	-11.138
▁traîner	-11.138
▁cuisses	-11.1381
▁tremblante	-11.1381
▁État	-11.1382
k,	-11.1383
▁entendu.	-11.1383
▁soupe	-11.1384
▁suivantes	-11.1384
▁cour,	-11.1385
▁succession	-11.1389
▁Mir	-11.139
▁Place	-11.1392
▁arracher	-11.1393
▁crépuscule	-11.1396
▁s’installa	-11.1396
ow	-11.1396
▁etc.)	-11.1396
via	-11.1398
▁trouvai	-11.1399
▁brillants	-11.1402
▁rampe	-11.1402
▁suisse	-11.1403
▁noire,	-11.1404
▁appelés	-11.1405
gli	-11.1405
▁suffi	-11.1405
▁instruments	-11.1407
▁valise	-11.1407
▁(avec	-11.1413
▁cendres	-11.1415
▁véhicules	-11.1417
▁ouvrant	-11.1417
▁ivre	-11.1417
▁douche	-11.1422
resse	-11.1423
▁mobile	-11.1425
venir	-11.1425
lly	-11.1425
▁seize	-11.1427
▁sortirent	-11.1427
▁effrayé	-11.1429
▁redoutable	-11.143
▁moi...	-11.1431
▁samedi	-11.1431
bot	-11.1431
toire	-11.1433
▁vent,	-11.1433
▁souple	-11.1433
bli	-11.1438
▁séance	-11.1438
▁Camp	-11.1438
▁sur-le-champ	-11.1438
▁conservation	-11.1439
na,	-11.144
▁supposer	-11.144
▁curieuse	-11.144
chev	-11.1444
▁pique	-11.1445
▁démocratique	-11.1445
▁filer	-11.1447
dine	-11.1448
ú	-11.1449
▁devenus	-11.1451
▁généraux	-11.1452
▁sphère	-11.1457
▁Roman	-11.146
▁penchant	-11.146
▁tremblant	-11.1461
qu’on	-11.1461
oni	-11.1462
▁producteur	-11.1467
▁vigueur	-11.1467
▁réplique	-11.1467
nda	-11.1468
▁Steve	-11.1472
▁bijoux	-11.1475
▁utilisés	-11.1475
▁ouest	-11.1479
▁outils	-11.1479
bro	-11.1481
▁vase	-11.1481
▁entendant	-11.1486
▁amoureuse	-11.1486
▁majeur	-11.1491
▁qu’avait	-11.1493
▁réduire	-11.1493
▁confiance.	-11.1494
▁Californie	-11.1495
▁descente	-11.1496
▁considérait	-11.1496
nch	-11.1497
▁54	-11.1498
lev	-11.15
▁Rag	-11.15
▁Caroline	-11.1502
▁Eric	-11.1505
▁mettent	-11.1505
▁Andy	-11.1505
▁demandai-je.	-11.1506
▁1914	-11.1508
▁brièvement	-11.151
▁constamment	-11.151
▁soudain,	-11.1511
▁méchant	-11.1511
abilité	-11.1511
▁Por	-11.1513
▁terriblement	-11.1514
▁répondre,	-11.1515
bit	-11.1516
▁sourde	-11.1516
▁Ky	-11.152
▁présents	-11.152
▁frotta	-11.1521
▁1951	-11.1522
▁retomba	-11.1523
nard	-11.1523
▁révélé	-11.1529
▁éteint	-11.1529
▁observait	-11.1529
▁distingue	-11.153
▁décrire	-11.1532
▁équipes	-11.1533
▁représentation	-11.1535
▁servit	-11.1537
agne	-11.1539
▁Wil	-11.1543
tim	-11.1545
zzo	-11.1546
▁hâta	-11.1546
stan	-11.1546
los	-11.1547
▁causé	-11.155
▁d'autre	-11.1551
▁méthodes	-11.1553
▁chambres	-11.1553
▁divin	-11.1553
▁Cur	-11.1554
▁balcon	-11.1554
▁via	-11.1555
▁belge	-11.1556
▁consul	-11.1556
▁rou	-11.1558
▁foutre	-11.1558
▁sièges	-11.156
▁explosion	-11.156
▁collaboration	-11.156
▁trahison	-11.1563
▁auront	-11.1564
▁pivota	-11.1566
▁Point	-11.1566
▁C’étaient	-11.1567
▁repérer	-11.1567
▁sèchement	-11.1569
▁marée	-11.157
▁était-ce	-11.157
▁fort,	-11.1572
▁vingt-quatre	-11.1574
▁Pourtant	-11.1578
▁1949	-11.158
▁(par	-11.158
▁locaux	-11.1581
▁Moscou	-11.1589
▁L’air	-11.159
tte,	-11.159
▁l’entend	-11.1593
▁conclusion	-11.1594
▁transporter	-11.1595
zz	-11.1597
▁atteignit	-11.1598
▁confortable	-11.1603
▁hum	-11.1603
erait	-11.1606
▁proposer	-11.1606
▁régulière	-11.1608
▁parcouru	-11.1609
gas	-11.1612
▁drapeau	-11.1616
▁originale	-11.1616
▁Écoutez	-11.1617
IE	-11.1617
▁Yo	-11.1618
▁retournant	-11.1619
▁sourire,	-11.1619
ting	-11.1619
ot,	-11.162
▁dégager	-11.1621
▁jalousie	-11.1625
▁complot	-11.1627
▁lé	-11.1628
▁esclave	-11.1629
▁lecteur	-11.1629
▁obligée	-11.1631
OR	-11.1633
▁éloigné	-11.1634
▁Fils	-11.1635
▁Église	-11.1636
▁flots	-11.1638
▁courbe	-11.164
▁Cher	-11.1644
ique,	-11.1644
▁Marine	-11.1644
▁53	-11.1647
s:	-11.1648
▁photographie	-11.1648
▁examen	-11.1653
ût	-11.1654
▁bombe	-11.1654
▁qu’après	-11.1654
▁arabe	-11.1654
▁conférence	-11.1656
RA	-11.1658
▁fourrure	-11.1659
ye	-11.1659
▁Gros	-11.166
▁colonnes	-11.166
-La	-11.1663
▁communiquer	-11.1664
▁peut-être,	-11.1665
▁soupçons	-11.1666
▁fantastique	-11.1668
▁penses	-11.1674
▁Gla	-11.1674
▁bio	-11.1675
▁soupçon	-11.1675
▁shérif	-11.1675
▁signification	-11.1675
▁Bleu	-11.1676
▁pourvu	-11.1676
▁1938	-11.1678
▁partiellement	-11.1679
▁rapides	-11.1681
ologue	-11.1683
tage	-11.1683
▁Venise	-11.1684
▁blague	-11.1685
▁fermés	-11.1686
▁vierge	-11.169
▁l'avait	-11.1699
ben	-11.1701
▁rattraper	-11.1701
position	-11.1702
tien	-11.1702
ern	-11.1702
▁Stan	-11.1703
▁identité	-11.1705
▁élan	-11.1706
▁l’ouverture	-11.1706
▁reconnaissant	-11.1707
▁angle	-11.1707
▁scientifiques	-11.171
▁introduit	-11.1711
▁divine	-11.1713
ographie	-11.1713
▁2003,	-11.1715
▁entrait	-11.1716
▁laissai	-11.1718
▁collègues	-11.1719
▁Tal	-11.1719
▁vulgaire	-11.1719
▁glissant	-11.1723
▁taire	-11.1723
▁absolue	-11.1725
▁termina	-11.1727
▁Arrivé	-11.1728
▁Music	-11.1728
▁dangereuse	-11.1729
▁test	-11.1733
▁familière	-11.1734
▁racines	-11.1734
▁Ob	-11.1737
▁tiroir	-11.1739
▁Inc	-11.174
▁reflet	-11.1741
▁gentilhomme	-11.1741
▁précautions	-11.1742
▁moteurs	-11.1743
▁écoles	-11.1746
▁mentir	-11.1747
ust	-11.1747
▁servant	-11.1748
▁devra	-11.1748
▁record	-11.1757
▁l'I	-11.1761
▁placée	-11.1762
▁catégorie	-11.1762
▁basse,	-11.1762
nov	-11.1762
▁électronique	-11.1763
▁venais	-11.1764
▁75	-11.1765
▁Die	-11.1765
▁marcha	-11.1768
▁minuit	-11.1768
▁apprend	-11.1768
fér	-11.1769
▁parcourut	-11.1772
oise	-11.1772
▁candidat	-11.1772
▁hasard,	-11.1772
▁grondement	-11.1773
▁Juifs	-11.1776
▁doué	-11.1776
▁sympathie	-11.1778
▁fort.	-11.1779
l.	-11.178
▁médecins	-11.1781
▁Morgan	-11.1782
rc	-11.1783
▁Chambre	-11.1784
bout	-11.1791
▁dessein	-11.1792
▁Stu	-11.1792
▁1942	-11.1792
▁Festival	-11.1794
▁milliards	-11.1794
▁Ang	-11.1796
yne	-11.1797
▁regagner	-11.1798
▁1920	-11.1798
▁Sh	-11.1798
pre	-11.1801
ssou	-11.1801
▁étonnement	-11.1805
▁approcher	-11.1805
▁proprement	-11.1806
▁active	-11.1806
▁prendra	-11.1808
▁Mais...	-11.1809
-lui	-11.181
▁devraient	-11.1811
▁mortelle	-11.1817
▁intéressé	-11.1819
(fr)	-11.182
▁(O	-11.1822
-ce	-11.1823
▁ouvertes	-11.1827
▁levai	-11.1827
tit	-11.1827
eth	-11.1827
▁jetait	-11.1829
▁net	-11.183
ifier	-11.1832
▁Mus	-11.1834
▁gi	-11.1834
▁l'Académie	-11.1837
▁jaillit	-11.1841
▁Mari	-11.1844
▁conséquence	-11.1845
▁doucement.	-11.1845
▁criant	-11.1847
▁Journal	-11.185
vet	-11.185
vil	-11.185
▁autre.	-11.1851
use.	-11.1855
ffa	-11.1859
igu	-11.1859
▁so	-11.186
▁demanda-t-elle.	-11.186
▁artiste	-11.1861
▁doutait	-11.1861
▁roulant	-11.1867
▁Dominique	-11.1868
▁police.	-11.1868
▁oreilles.	-11.1869
▁soumis	-11.187
▁excellente	-11.1873
ais,	-11.1874
▁l’exception	-11.1874
▁profondeurs	-11.1876
▁compositeur	-11.1877
more	-11.1881
▁libre.	-11.1883
▁occupait	-11.1883
▁nations	-11.1884
mos	-11.1884
▁couloir.	-11.1884
▁inquiète	-11.1885
▁clairière	-11.1886
▁Lien	-11.1886
▁talents	-11.1887
▁chaînes	-11.189
chat	-11.1894
sha	-11.1894
▁l’absence	-11.1896
▁écouté	-11.1896
▁pleure	-11.1899
▁champion	-11.1899
▁obéir	-11.1901
▁clin	-11.1902
▁portent	-11.1902
▁épisode	-11.1903
fort	-11.1903
▁coins	-11.1904
▁froidement	-11.1905
▁timide	-11.1906
▁est-elle	-11.1906
▁White	-11.1907
lem	-11.191
▁commencement	-11.191
▁Az	-11.191
▁magistrat	-11.1911
▁l'occasion	-11.1911
▁Presque	-11.1912
bes	-11.1912
▁terribles	-11.1912
▁clés	-11.1912
▁Londres,	-11.1913
ika	-11.1914
▁avril19	-11.1917
▁parvenu	-11.1918
▁caressa	-11.1919
▁plongée	-11.192
▁marron	-11.1922
▁planches	-11.1925
▁transformé	-11.1926
-t-il,	-11.1927
▁intime	-11.1928
▁fromage	-11.1929
▁sacrifice	-11.193
▁Vierge	-11.1933
oud	-11.1934
▁interlocuteur	-11.1935
▁féroce	-11.1935
▁française.	-11.1936
▁socialiste	-11.1937
▁étudié	-11.1937
▁pierre.	-11.1938
▁Dark	-11.194
alis	-11.1942
sse,	-11.1943
ppa	-11.1943
cla	-11.1943
ent.	-11.1944
nique	-11.1944
ight	-11.1947
▁lot	-11.1949
▁demain,	-11.1953
▁Ball	-11.1953
▁malades	-11.1953
oma	-11.1955
▁cercueil	-11.1956
▁perfection	-11.1957
jour	-11.1957
▁sifflement	-11.1958
▁pourrons	-11.1958
▁mathématiques	-11.196
▁épaule.	-11.1961
▁idéal	-11.1962
▁marques	-11.1962
▁européen	-11.1963
▁fosse	-11.1964
▁bouquet	-11.1964
▁seules	-11.1965
▁peau.	-11.1965
▁déposer	-11.1966
▁remporte	-11.1968
▁repéré	-11.1971
▁bords	-11.1972
▁portefeuille	-11.1972
▁musicale	-11.1973
git	-11.1974
▁détourner	-11.1974
▁01	-11.1974
ître	-11.1975
▁Open	-11.1975
▁motifs	-11.1978
▁guitare	-11.1978
▁plaindre	-11.1978
▁vis-à-vis	-11.1978
▁lorsqu'il	-11.1979
▁l'Église	-11.1979
dée	-11.1982
aut	-11.1982
▁Lucas	-11.1983
▁brûle	-11.1983
▁gronda	-11.1987
▁tendait	-11.1987
ela	-11.1988
▁moines	-11.199
▁arracha	-11.199
AL	-11.199
▁étrangement	-11.1992
▁blanche,	-11.1992
▁glissé	-11.1996
▁assura	-11.1998
rro	-11.2002
▁Prenez	-11.2002
▁d’enfant	-11.2003
▁Voyons,	-11.2005
▁osé	-11.2005
bour	-11.2005
illant	-11.2006
▁Tenez	-11.2008
▁mené	-11.2008
▁lente	-11.2008
▁décharge	-11.2009
cco	-11.2009
▁souffle.	-11.2011
▁l’appel	-11.2012
▁Attends	-11.2012
▁pensées.	-11.2012
▁sursauta	-11.2014
▁ah	-11.2015
▁Ouest	-11.2015
▁l'objet	-11.2017
zy	-11.2021
▁Maroc	-11.2021
▁cellules	-11.2022
▁frappant	-11.2023
▁rêvé	-11.2023
éc	-11.2024
ifié	-11.2025
▁informé	-11.2025
▁dressé	-11.2027
▁Conn	-11.2028
▁Nul	-11.203
▁fontaine	-11.2031
▁inspiré	-11.2031
▁LNH	-11.2031
▁épouvantable	-11.2031
▁1932	-11.2031
▁Sophie	-11.2032
▁réponses	-11.2033
tale	-11.2036
▁dirigeant	-11.2036
▁quasiment	-11.2037
án	-11.2038
▁génétique	-11.2039
▁Gold	-11.2044
ua	-11.2045
▁soulever	-11.2046
▁dérange	-11.2049
bol	-11.205
▁Mai	-11.2052
▁maître.	-11.2054
▁quotidien	-11.2055
ars	-11.2055
jan	-11.2056
▁is	-11.2057
LE	-11.2058
▁bureaux	-11.2061
▁phrases	-11.2063
▁l’équipage	-11.2069
▁conquête	-11.2069
▁Bella	-11.2069
▁marchant	-11.2069
▁lieues	-11.2071
▁Marcus	-11.2074
▁blanc.	-11.2074
▁robot	-11.2075
▁permit	-11.2077
ement,	-11.2078
grand	-11.2078
▁transformation	-11.2079
▁casser	-11.2083
▁thème	-11.2083
▁Lorraine	-11.2084
▁marteau	-11.2085
▁détour	-11.2085
▁Records	-11.2087
▁réduite	-11.2088
nge	-11.2088
vre	-11.2088
▁dehors.	-11.209
▁posant	-11.2091
▁légitime	-11.2092
▁jetée	-11.2093
▁restés	-11.2094
▁célèbres	-11.2097
▁termine	-11.21
▁chantier	-11.21
▁émit	-11.21
▁trot	-11.2101
▁soit,	-11.2106
▁N’est-ce	-11.2107
cie	-11.2108
▁Jackson	-11.211
▁Tony	-11.2113
▁vent.	-11.2118
▁Chef	-11.212
▁prenne	-11.212
▁Hans	-11.2121
▁survie	-11.2123
▁l’arbre	-11.2123
▁mondial	-11.2124
eb	-11.2125
▁aussitôt.	-11.2126
▁solaire	-11.2129
▁grecque	-11.213
▁manifeste	-11.213
▁dimension	-11.2132
ppe	-11.2132
▁bourgeois	-11.2133
▁arrêtée	-11.2134
▁sp	-11.2136
▁couru	-11.2136
▁64	-11.2137
▁Capitaine	-11.2137
▁Giovanni	-11.2137
▁s’agenouilla	-11.2137
▁auxquelles	-11.2137
▁innocent	-11.2139
▁viendrait	-11.2145
▁Royaume	-11.2147
▁souper	-11.2147
▁suivis	-11.2148
▁basse.	-11.2151
▁l'espace	-11.2152
▁dommage	-11.2153
ima	-11.2153
▁sonore	-11.2154
▁Yu	-11.2154
ova	-11.2155
▁étrangères	-11.2155
▁précipitamment	-11.216
▁stratégie	-11.216
gard	-11.2161
▁ralenti	-11.2161
▁Dag	-11.2161
▁parles	-11.2161
▁Âge	-11.2164
▁allumé	-11.2164
able.	-11.2165
▁bavard	-11.2167
▁relevé	-11.2167
-9	-11.2172
▁désigné	-11.2173
▁rangée	-11.2175
▁littéralement	-11.2175
▁physionomie	-11.2175
▁Th	-11.2176
gis	-11.2176
▁réponse,	-11.2176
▁contes	-11.2176
▁Seule	-11.2177
▁promener	-11.2178
▁Bran	-11.218
▁1943	-11.218
▁téléphonique	-11.2183
▁Rod	-11.2183
ope	-11.2186
▁Autour	-11.2187
▁multi	-11.2189
▁participé	-11.2191
▁moi-même.	-11.2191
ssons	-11.2192
aki	-11.2192
▁1941	-11.2196
▁abri	-11.2197
▁fédéral	-11.2197
fra	-11.2198
▁singulier	-11.2198
▁détaché	-11.2198
▁farouche	-11.2198
rie,	-11.2199
▁ordinateur	-11.2199
▁tombant	-11.2201
▁hommage	-11.2201
▁L’A	-11.2204
mil	-11.2206
▁suis-je	-11.2206
▁arts	-11.2207
lation	-11.2211
▁brillante	-11.2212
▁répété	-11.2212
yr	-11.2213
▁alliés	-11.2217
▁nécessaire.	-11.2218
▁organisation	-11.2218
sèrent	-11.222
▁Toulouse	-11.2221
▁chiffon	-11.2221
age,	-11.2222
▁concentration	-11.2223
▁étonnant	-11.2224
▁parchemin	-11.2224
▁soutenu	-11.2224
lf	-11.2224
▁Gran	-11.2227
▁impassible	-11.2229
▁torrent	-11.2229
▁cho	-11.223
▁gêné	-11.2231
ffer	-11.2231
▁Cité	-11.2231
▁avançait	-11.2232
▁furieuse	-11.2234
▁carnet	-11.2235
rine	-11.2239
▁sel	-11.2239
▁connaissaient	-11.2239
▁58	-11.224
▁65	-11.2241
▁aisément	-11.2241
▁rez-de-chaussée	-11.2244
▁commenta	-11.2245
▁avouer	-11.2247
tère	-11.2248
ical	-11.225
▁jeu.	-11.2251
▁Ly	-11.2252
▁d’É	-11.2252
ple	-11.2254
▁roule	-11.2258
▁Ak	-11.2261
▁péril	-11.2261
▁chinois	-11.2261
▁seigneurs	-11.2261
▁informatique	-11.2264
▁arrivent	-11.2266
▁Chicago	-11.2267
▁m’était	-11.2269
▁l'opérateur	-11.2269
▁usé	-11.227
▁dirigeait	-11.2271
▁installée	-11.2271
▁recommencer	-11.2272
▁tristement	-11.2274
▁l’embrassa	-11.2275
-16	-11.2278
▁exp	-11.228
▁Clo	-11.228
▁levait	-11.2281
▁fantômes	-11.2281
▁valeurs	-11.2282
▁batterie	-11.2282
▁remercier	-11.2283
▁Bruno	-11.2283
▁Nouveau	-11.2283
▁départ,	-11.2284
▁paradis	-11.2284
▁hurlant	-11.2285
▁Charlotte	-11.2286
oo	-11.2287
▁Rob	-11.2288
clair	-11.2288
▁Sen	-11.2289
▁voient	-11.229
▁touchant	-11.229
▁Petite	-11.229
▁mari.	-11.2292
▁revenant	-11.2292
▁J’aime	-11.2293
▁observé	-11.2294
▁ballon	-11.2295
▁1935	-11.2296
▁It	-11.2298
▁prudemment	-11.2298
▁atroce	-11.2298
▁panier	-11.2299
illait	-11.2304
▁Rh	-11.2304
▁directe	-11.2305
ident	-11.2309
▁Inutile	-11.2314
▁hanches	-11.2317
▁jo	-11.2318
▁plaît,	-11.2319
▁plonger	-11.232
▁concentrer	-11.232
▁poursuivi	-11.2321
▁eussent	-11.2322
▁l’inspecteur	-11.2323
▁tan	-11.2323
▁fixait	-11.2325
▁indifférent	-11.2326
▁manches	-11.2327
le.	-11.2328
▁sang-froid	-11.2329
▁tableaux	-11.2329
rés	-11.2329
▁promotion	-11.233
▁J’a	-11.2332
▁Ir	-11.2332
eux,	-11.2332
▁affaire.	-11.2333
▁lourds	-11.2334
▁compte.	-11.2337
▁lugubre	-11.2337
▁passage.	-11.2338
▁reposait	-11.2344
▁spectateurs	-11.2346
▁silhouettes	-11.2348
▁rumeur	-11.2352
▁carton	-11.2352
▁Coordonnées	-11.2353
▁entrant	-11.2353
▁perdait	-11.2354
lais	-11.2356
▁Imp	-11.2357
hou	-11.2358
▁appareils	-11.2363
▁Ji	-11.2363
aient.	-11.2364
emb	-11.2364
▁Vienne	-11.2367
dul	-11.2368
ator	-11.2369
▁poil	-11.2369
▁ans)	-11.237
▁soigner	-11.237
gène	-11.2373
ét	-11.2377
▁dessus,	-11.2383
▁enthousiasme	-11.2384
▁whisky	-11.2384
▁éd.	-11.2385
▁terrestre	-11.2385
▁miel	-11.2387
onné	-11.2389
▁coûte	-11.2392
▁vus	-11.2392
▁l’intérieur,	-11.2395
ost	-11.2395
EN	-11.2396
▁dessins	-11.2396
TE	-11.2401
▁l’été	-11.2403
▁Mun	-11.2404
▁Bonjour,	-11.2405
▁Loi	-11.2409
▁Bond	-11.241
▁l’horizon	-11.2411
▁C.	-11.2413
▁libéré	-11.2413
▁entourée	-11.2414
▁Dieu.	-11.2417
▁compliqué	-11.2417
▁pleurait	-11.2418
logie	-11.2419
▁artistique	-11.2419
cit	-11.242
▁ramasser	-11.2421
zon	-11.2423
▁besogne	-11.2423
▁plainte	-11.243
2005	-11.2431
▁spectre	-11.2431
▁livré	-11.2433
dal	-11.2433
▁public.	-11.2434
▁boucles	-11.2435
▁partout,	-11.2435
▁suspect	-11.2436
▁rencontra	-11.2437
dent	-11.2437
▁sécurité.	-11.2438
▁dressa	-11.244
▁participation	-11.244
▁commercial	-11.2442
▁organisé	-11.2444
ération	-11.2445
▁coton	-11.2445
▁crue	-11.2446
▁Kid	-11.2446
▁entreprit	-11.2447
▁auparavant.	-11.245
▁ressentait	-11.245
▁lanterne	-11.245
▁représenter	-11.2451
▁chrétienne	-11.2452
▁favorable	-11.2454
ald	-11.2454
▁l'auteur	-11.2454
▁Para	-11.2456
▁posait	-11.2457
▁Kim	-11.2458
▁Alan	-11.2458
▁achevé	-11.2459
▁veille,	-11.246
aka	-11.2461
▁l’ensemble	-11.2462
▁discret	-11.2462
▁Four	-11.2466
▁demain.	-11.2467
▁cigare	-11.2467
▁domicile	-11.247
▁réflexions	-11.2471
▁revenue	-11.2472
▁chou	-11.2473
▁Sau	-11.2474
▁partir.	-11.2474
▁Erreur	-11.2474
▁fabrique	-11.2476
▁dépassé	-11.2478
▁chance.	-11.2478
▁Tro	-11.2479
▁fondation	-11.2479
▁Tha	-11.2482
iennes	-11.2484
▁Ap	-11.2484
▁protecteur	-11.2486
▁développer	-11.2489
▁menti	-11.2489
▁Notre-Dame	-11.2494
▁quatorze	-11.2494
pes	-11.2495
▁technologie	-11.2496
ées,	-11.2501
▁lâché	-11.2502
mit	-11.2502
▁venir.	-11.2506
▁criait	-11.2507
▁balbutia	-11.2509
▁Stra	-11.251
▁flacon	-11.251
▁grandi	-11.2511
▁regagna	-11.2512
oux	-11.2512
▁continu	-11.2513
▁savant	-11.2514
▁couvertures	-11.2518
▁Drizzt	-11.2518
▁çà	-11.2518
▁lourdement	-11.2518
▁histoire,	-11.252
▁m’avoir	-11.2524
▁comble	-11.2525
▁Kor	-11.2525
▁épreuve	-11.2527
▁faibles	-11.2529
iti	-11.2534
fil	-11.2536
lice	-11.2537
▁souhaitait	-11.2537
▁grandeur	-11.254
▁marquise	-11.254
▁pus	-11.254
rme	-11.2541
▁ouvrait	-11.2541
▁--	-11.2541
▁massive	-11.2542
▁l’origine	-11.2542
▁#	-11.2544
z-le	-11.2544
▁poils	-11.2545
▁meute	-11.2546
▁As-tu	-11.2547
▁habillé	-11.2548
▁incendie	-11.2549
▁citoyen	-11.2551
▁colonie	-11.2553
it-il	-11.2554
onde	-11.2555
▁Main	-11.2556
rum	-11.2558
▁Théâtre	-11.2559
▁pomme	-11.256
▁tranquille,	-11.256
▁dispute	-11.256
▁sonner	-11.2562
▁Br	-11.2563
▁souffert	-11.2565
▁Lac	-11.2565
▁messire	-11.2565
▁cavalerie	-11.2565
La	-11.2565
▁n'ai	-11.2566
▁graisse	-11.2567
▁bien...	-11.2567
ats	-11.2571
▁guérir	-11.2571
▁fortes	-11.2571
▁domaines	-11.2572
▁adversaires	-11.2573
▁remet	-11.2573
▁INSEE[1])	-11.2573
▁scénario	-11.2575
▁impatient	-11.2578
▁ayez	-11.2579
main	-11.2581
▁dynastie	-11.2581
▁trouvèrent	-11.2581
s),	-11.2582
▁tabac	-11.2582
▁fondre	-11.2583
▁bougea	-11.2585
▁guéri	-11.2587
mini	-11.2588
vez	-11.2589
▁Apparemment	-11.2589
rom	-11.259
▁Ye	-11.2596
▁Jos	-11.2597
zer	-11.2599
▁sénateur	-11.26
▁histoire.	-11.26
ama	-11.2601
▁citoyens	-11.2603
dol	-11.2604
▁chassé	-11.2604
▁croyant	-11.2605
▁mourir,	-11.2605
▁vivaient	-11.2605
▁murailles	-11.2606
▁Sto	-11.2606
dier	-11.2607
▁marais	-11.2607
▁d’avis	-11.2608
▁occidentale	-11.2609
▁japonais	-11.2611
▁connaissent	-11.2612
pper	-11.2612
▁écran	-11.2612
▁rapidité	-11.2613
▁mentale	-11.2614
▁modèles	-11.2616
▁contenter	-11.2616
▁rapporter	-11.2617
▁graves	-11.2618
▁d'entre	-11.262
▁d’elles	-11.2622
▁Année	-11.2623
▁romans	-11.2625
▁m’aime	-11.2626
▁format	-11.2628
▁Animalia	-11.263
réf.	-11.2631
ssée	-11.2632
▁s’apprêtait	-11.2632
ici	-11.2633
rol	-11.2637
▁signature	-11.2637
▁Silence	-11.2637
▁l’énergie	-11.2638
▁Ry	-11.264
▁Force	-11.2641
▁robes	-11.2644
▁prières	-11.2646
▁suspendu	-11.2646
sque	-11.2646
▁manœuvre	-11.2647
▁révolutionnaire	-11.2648
▁Gr	-11.2648
▁s’arrête	-11.2649
▁souffrait	-11.265
▁dragons	-11.2653
▁épousé	-11.2653
▁Margaret	-11.2653
▁plu	-11.2654
▁habits	-11.2656
▁Internet	-11.2656
▁salles	-11.2657
ball	-11.2658
▁Droit	-11.266
▁Jérusalem	-11.2661
▁robuste	-11.2661
▁avoua	-11.2661
▁l’officier	-11.2664
▁Serge	-11.2667
▁murmura-t-il	-11.2668
▁Embranchement	-11.2669
▁ouverte,	-11.2669
▁voudrez	-11.2669
▁Jean-Pierre	-11.2669
▁vides	-11.2672
▁(Je	-11.2672
▁sûreté	-11.2674
▁magazine	-11.2676
▁reconnais	-11.2677
▁attrapa	-11.2677
▁nièce	-11.2678
▁fouiller	-11.2678
riel	-11.268
▁tentait	-11.2681
ssure	-11.2683
pu	-11.2683
çon	-11.2693
▁précisa	-11.2695
élé	-11.2695
▁vu,	-11.2696
▁m’aider	-11.27
▁tourbillon	-11.27
ller	-11.2701
▁l’aube	-11.2702
▁ge	-11.2703
▁ému	-11.2704
▁Côte	-11.2704
▁l’y	-11.2705
rions	-11.2705
▁lumière,	-11.2708
▁blé	-11.2709
▁considérée	-11.2709
▁pendu	-11.2711
▁4e	-11.2713
▁Baron	-11.2714
▁débat	-11.2714
▁étouffé	-11.2715
▁remords	-11.2717
▁gras	-11.2717
▁l'Assemblée	-11.2718
▁continué	-11.2718
▁paie	-11.2721
▁franchit	-11.2722
▁cou,	-11.2725
▁ailleurs.	-11.2725
▁pelouse	-11.2725
▁s’immobilisa	-11.2725
▁fois-ci	-11.2726
▁Thor	-11.2729
▁bouffée	-11.273
▁enfonça	-11.273
ME	-11.2732
▁habituelle	-11.2732
▁joie.	-11.2732
▁Dol	-11.2732
▁balance	-11.2733
▁exige	-11.2738
Ma	-11.274
▁Vor	-11.2741
▁fabrication	-11.2742
▁Membre	-11.2742
▁doré	-11.2744
▁coût	-11.2745
▁Armand	-11.2745
ito	-11.2749
▁courants	-11.2752
▁ajoute	-11.2755
▁publics	-11.2756
▁parcourir	-11.2758
▁Dictionnaire	-11.2759
▁quittait	-11.2765
2004	-11.2765
rès	-11.2766
idé	-11.2769
▁distingua	-11.277
nières	-11.2772
▁ultime	-11.2774
eur.	-11.2774
▁voyaient	-11.2774
▁convenu	-11.2774
▁malaise	-11.2775
▁(a	-11.2775
▁demandai-je	-11.2776
▁approchait	-11.2777
▁vinrent	-11.2779
▁journées	-11.278
▁bâti	-11.2781
rel	-11.2784
▁s’élevait	-11.2787
▁L'é	-11.2788
▁Tavi	-11.2788
▁Act	-11.2792
▁Feu	-11.2793
eau,	-11.2794
ili	-11.2794
▁Cé	-11.2795
zen	-11.2795
▁prouve	-11.2796
▁s’attendait	-11.2797
▁Rad	-11.2797
▁souvint	-11.2798
▁entrèrent	-11.2799
▁éprouvé	-11.28
▁déposé	-11.28
▁d’ouvrir	-11.28
▁jouant	-11.2804
laire	-11.2805
▁pierre,	-11.2806
▁d'Or	-11.2806
▁substance	-11.2807
▁naître	-11.2808
▁emporter	-11.2812
▁Sun	-11.2812
▁laine	-11.2818
▁déf	-11.2822
▁réparer	-11.2823
▁saurais	-11.2824
▁coeur	-11.2827
ox	-11.2828
▁?P	-11.283
▁écrasé	-11.2831
iste,	-11.2831
▁Certainement	-11.2831
▁impossible.	-11.2832
h,	-11.2833
▁repartit	-11.2835
old	-11.2839
▁Langue	-11.284
▁passerelle	-11.284
nus	-11.2844
erai	-11.2844
imer	-11.2845
▁contra	-11.2846
▁souhait	-11.2846
▁Naturellement	-11.2847
cht	-11.2848
▁Florence	-11.2848
▁l'Allemagne	-11.2849
▁Franc	-11.2849
▁suivre.	-11.285
EL	-11.285
▁restai	-11.2851
▁vestibule	-11.2856
▁judiciaire	-11.2864
▁voulons	-11.2864
▁sérieux.	-11.2865
▁répondis-je	-11.2866
▁établir	-11.2866
▁rendue	-11.2868
▁tuer,	-11.2868
▁circonstance	-11.2869
▁Vent	-11.2871
▁basé	-11.2871
▁puis-je	-11.2871
▁songé	-11.2872
▁alentours	-11.2873
▁Abd.	-11.2874
▁mais...	-11.2874
▁hockey	-11.288
▁trafic	-11.288
▁traversait	-11.288
èle	-11.288
▁entraîné	-11.2882
-Ro	-11.2884
▁guerres	-11.2884
▁comité	-11.2884
▁d’autre.	-11.2886
▁s’étendait	-11.2886
▁remparts	-11.2888
▁satisfaire	-11.2889
▁procédure	-11.289
▁information	-11.289
▁obscure	-11.2891
RI	-11.2894
▁manoir	-11.2895
▁Luxembourg	-11.2898
▁pyramide	-11.2898
ur.	-11.2898
▁Malko	-11.2898
ding	-11.2899
▁sonna	-11.2903
▁logis	-11.2903
▁tiède	-11.2905
▁questions.	-11.2905
▁vaincre	-11.2905
re,	-11.2907
▁pied.	-11.2907
▁nota	-11.2907
▁vache	-11.2912
▁Mas	-11.2913
▁sous-sol	-11.2914
▁recours	-11.2914
▁tube	-11.2915
▁barrage	-11.2915
▁maîtrise	-11.2917
▁savez-vous	-11.2919
▁rats	-11.2919
▁l'ancien	-11.292
▁remercia	-11.2921
▁commode	-11.2921
▁Laissez-moi	-11.2922
▁relative	-11.2923
▁flottait	-11.2925
▁gémissement	-11.2926
▁morte.	-11.2928
▁faille	-11.2929
▁rompu	-11.2929
▁amer	-11.293
▁faisons	-11.2932
sseur	-11.2933
▁celle-là	-11.2933
▁surnom	-11.2934
▁poulet	-11.2934
▁franchise	-11.2934
▁pli	-11.2936
▁narines	-11.2938
▁députés	-11.2943
▁évêque	-11.2945
sel	-11.2948
▁lin	-11.2948
▁T’as	-11.2948
▁n’entend	-11.2949
▁Angel	-11.2952
▁Noire	-11.2953
▁unités	-11.2954
▁Sinon,	-11.2955
▁Bos	-11.2956
▁1937	-11.2957
▁nerveuse	-11.2959
▁bro	-11.2959
▁s'étend	-11.2959
▁Filmographie	-11.2963
▁Kat	-11.2964
▁plaisir,	-11.2966
▁parcours	-11.2967
▁maîtriser	-11.2967
▁moue	-11.297
▁l’échelle	-11.2972
▁el	-11.2974
▁l’envie	-11.2975
▁ruse	-11.2975
lèrent	-11.2976
▁noire.	-11.2976
▁verre.	-11.2977
▁peint	-11.2977
key	-11.2978
tom	-11.2978
rise	-11.2978
▁Seine	-11.2982
▁Rem	-11.2982
gère	-11.2983
▁chrétiens	-11.2984
▁localité	-11.2985
▁enfermé	-11.2985
▁vicomte	-11.2987
▁château,	-11.2989
sou	-11.299
▁cruelle	-11.299
▁provoqué	-11.299
▁H.	-11.2991
▁l’escalier.	-11.2992
ngo	-11.2994
▁rangea	-11.2994
▁peine.	-11.2995
▁Jondalar	-11.2996
▁Pardaillan	-11.2996
▁impériale	-11.3002
▁hurlements	-11.3004
▁autonome	-11.3004
▁croissance	-11.3004
▁séparation	-11.3004
▁messe	-11.3005
▁Mis	-11.3006
▁agit	-11.3007
poli	-11.3011
OS	-11.3012
▁1931	-11.3014
▁força	-11.3014
▁humaine.	-11.3015
▁nommée	-11.3016
▁mystérieuse	-11.3017
▁chaises	-11.3018
hin	-11.302
▁insupportable	-11.3021
▁stupeur	-11.3021
▁relais	-11.3023
▁proue	-11.3023
ym	-11.3023
▁demeurer	-11.3024
▁Danny	-11.3027
▁chaussée	-11.3028
▁courses	-11.3028
▁clou	-11.3028
▁trentaine	-11.3029
▁Était-ce	-11.3029
▁ressemblaient	-11.303
▁montaient	-11.3031
▁Rosa	-11.3032
▁glacial	-11.3032
ient.	-11.3034
▁morts,	-11.3034
▁préparait	-11.3034
▁L’in	-11.3035
▁Marino	-11.3035
▁grave.	-11.3037
nn	-11.304
▁Mala	-11.3041
▁poule	-11.3043
▁rem	-11.3044
▁toilettes	-11.3045
▁fossé	-11.3046
cin	-11.3046
▁N°	-11.3054
ique.	-11.3055
rot	-11.3056
▁traître	-11.3057
hér	-11.3061
▁jardin,	-11.3061
▁Merde	-11.3062
▁minimum	-11.3062
▁comparaison	-11.3062
▁Dun	-11.3063
▁morne	-11.3064
arc	-11.3066
▁pommes	-11.3069
▁définition	-11.3069
▁fin,	-11.307
▁alliance	-11.3071
▁tactique	-11.3073
▁disposé	-11.3075
▁tués	-11.3075
▁planta	-11.3075
tum	-11.3077
▁assurance	-11.308
▁Lang	-11.3081
uer	-11.3082
▁haut.	-11.3085
S.	-11.3086
▁l'École	-11.3088
▁XVIIe	-11.3088
▁draps	-11.3088
▁répétait	-11.309
▁Stade	-11.309
▁désespérément	-11.309
▁d'An	-11.3095
▁d'Italie	-11.3097
▁jour-là,	-11.3098
▁Ran	-11.3099
-à-	-11.3103
[3].	-11.3103
▁fric	-11.3103
▁commettre	-11.3105
▁police,	-11.3106
llier	-11.3107
ates	-11.3107
bach	-11.3109
▁Turquie	-11.3113
▁démonstration	-11.3113
til	-11.3113
▁crié	-11.3113
nt-ils	-11.3116
▁diffusion	-11.3117
clu	-11.312
▁riait	-11.3121
▁l’enfer	-11.3121
ignon	-11.3123
pit	-11.3123
▁br	-11.3125
▁disparu,	-11.3125
▁PS	-11.3126
▁pleines	-11.3127
▁Association	-11.3127
▁treize	-11.313
stic	-11.313
▁(Ma	-11.313
tam	-11.3131
▁Poly	-11.3132
▁cocher	-11.3132
▁Tiens	-11.3132
eries	-11.3133
nées	-11.3133
▁mât	-11.3135
x,	-11.3135
▁ouverte.	-11.3137
vid	-11.3138
▁deviennent	-11.3138
▁fameuse	-11.3139
aille	-11.3139
▁représenté	-11.314
▁Sara	-11.3142
▁réserves	-11.3142
▁cessait	-11.3143
dge	-11.3145
tsu	-11.3149
ra,	-11.3151
▁Kit	-11.3151
▁Flo	-11.3158
▁Hommes	-11.3161
ache	-11.3161
▁manger.	-11.3161
▁Bert	-11.3163
▁départ.	-11.3165
▁disposer	-11.3166
rand	-11.3167
...»	-11.3167
▁croisés	-11.3168
▁Vu	-11.3169
▁littéraire	-11.3171
▁capturé	-11.3172
▁pâle,	-11.3173
▁aventures	-11.3174
▁disponible	-11.3174
pha	-11.3175
pot	-11.3176
▁aurions	-11.3177
▁distinguait	-11.3179
▁vois,	-11.318
▁bouteilles	-11.318
▁dimensions	-11.318
▁Mos	-11.3181
bord	-11.3182
ider	-11.3182
▁Cré	-11.3182
rais-tu	-11.3183
▁soulagé	-11.3183
▁Ami	-11.3186
▁l’auberge	-11.3189
▁bataillon	-11.3189
▁verrez	-11.319
▁59	-11.319
▁délicate	-11.3191
▁extrémité	-11.3192
ouv	-11.3192
▁sérieuse	-11.3192
▁vol.	-11.3193
ault	-11.3193
▁espagnole	-11.3194
▁adjoint	-11.3195
▁couvercle	-11.3197
▁fréquence	-11.3197
▁échoué	-11.3197
▁écouta	-11.3197
▁gisait	-11.3198
▁toi-même	-11.3198
▁Hou	-11.3199
▁Haute	-11.3202
▁rejeta	-11.3204
▁rentrée	-11.3204
▁Johnson	-11.3205
▁ve	-11.3205
▁détresse	-11.3205
▁l'Europe	-11.3207
▁offrait	-11.321
lent	-11.3214
▁figures	-11.3215
▁parlent	-11.3217
▁promets	-11.3217
▁d'É	-11.3218
▁véritablement	-11.3218
▁Wo	-11.3219
▁enterré	-11.322
èse	-11.3224
▁buissons	-11.3225
hon	-11.3226
▁prime	-11.3228
▁douleur,	-11.323
assembl	-11.323
▁château.	-11.3231
▁d'Espagne	-11.3232
▁femmes.	-11.3232
▁vaincu	-11.3232
bur	-11.3233
▁lointaine	-11.3237
▁Anton	-11.3238
ista	-11.3239
▁creuse	-11.3239
▁l’estomac	-11.324
▁chaos	-11.3241
▁campement	-11.3243
mour	-11.3244
▁mai19	-11.3246
▁jazz	-11.3248
▁rassurer	-11.325
▁trouvant	-11.3251
▁lampes	-11.3255
oï	-11.3256
▁cloison	-11.3257
▁rends	-11.3259
▁Face	-11.326
▁Championnats	-11.326
▁tuée	-11.3262
▁Gilles	-11.3262
▁lentement.	-11.3262
▁refermer	-11.3263
▁liés	-11.3267
▁suffisante	-11.327
ward	-11.3272
▁deuil	-11.3273
▁cervelle	-11.3274
▁Formule	-11.3274
▁quasi	-11.3276
▁secoué	-11.3277
▁rituel	-11.3279
▁he	-11.328
▁gens,	-11.328
▁n’ayant	-11.3282
US	-11.3283
▁vainqueur	-11.3283
▁Howard	-11.3284
▁supérieurs	-11.3289
▁rassembler	-11.3293
▁entendue	-11.3294
▁poignets	-11.3294
-Ba	-11.3294
▁Puis-je	-11.3296
tron	-11.3297
▁serrait	-11.3301
rain	-11.3304
illi	-11.3304
▁trahir	-11.3306
▁Nicholas	-11.3308
rik	-11.3308
heim	-11.3309
▁midi	-11.3309
▁hypothèse	-11.3309
▁habite	-11.3311
▁amène	-11.3312
▁laissaient	-11.3312
▁forment	-11.3314
▁voleurs	-11.3314
▁insectes	-11.3315
▁foutu	-11.3316
▁poursuit	-11.3316
▁embrassa	-11.3317
▁devrions	-11.3318
▁tracé	-11.3318
▁Sel	-11.3324
▁Der	-11.3326
iff	-11.3326
▁commandé	-11.3326
nik	-11.3328
▁explications	-11.3328
«	-11.3329
▁l’ami	-11.333
▁Madame,	-11.3331
▁d’enfants	-11.3332
▁avala	-11.3333
▁comprenant	-11.3333
▁cravate	-11.3333
▁politesse	-11.3333
▁fondateur	-11.3334
▁agité	-11.3336
▁rendant	-11.3337
▁richesse	-11.3341
ons,	-11.3341
ava	-11.3343
▁perçu	-11.3343
▁foudre	-11.3344
▁moustache	-11.3344
▁siens	-11.3345
▁dégâts	-11.3351
▁suivants	-11.3351
▁grimpa	-11.3352
▁rangées	-11.3355
ologique	-11.3355
▁s’enfuir	-11.3356
▁Isabelle	-11.3356
▁personnellement	-11.3356
▁Vingt	-11.3359
▁dresser	-11.3361
▁Bordeaux	-11.3361
▁Antonio	-11.3363
pie	-11.3365
▁doté	-11.3365
▁with	-11.3368
▁lundi	-11.3369
▁l’expérience	-11.337
▁Assez	-11.3371
IC	-11.3372
▁("	-11.3372
chin	-11.3372
▁auras	-11.3373
▁copie	-11.3373
rien	-11.3375
▁l’intérêt	-11.3377
▁admettre	-11.3377
▁l’action	-11.3379
▁exécuté	-11.3379
▁merveille	-11.3384
▁progressivement	-11.3387
▁obéit	-11.3389
▁libre,	-11.3391
▁marche.	-11.3392
▁neutre	-11.3394
▁spécialement	-11.3394
▁patrie	-11.3399
▁pét	-11.34
tens	-11.3401
▁sanctuaire	-11.3402
▁estomac	-11.3403
▁couloirs	-11.3404
town	-11.3404
▁réfléchir.	-11.3406
▁arrivaient	-11.3409
▁réconfort	-11.341
▁distribution	-11.3411
▁quelqu'un	-11.3411
ais.	-11.3412
lés	-11.3412
▁là-dessus	-11.3413
▁Op	-11.3415
▁superficie	-11.3416
▁hélas	-11.3417
▁partout.	-11.3417
▁Durée	-11.3418
▁accompagner	-11.3419
▁bagages	-11.3425
▁protégé	-11.3425
▁trouvez	-11.3426
▁témoignage	-11.3427
▁permanence	-11.3428
▁Production	-11.343
▁J'	-11.3434
▁scruta	-11.3436
▁Voyez	-11.3437
▁Claire	-11.3437
▁scènes	-11.3439
▁post	-11.3442
▁voyageur	-11.3442
▁étrange,	-11.3446
▁collègue	-11.3446
▁semaines,	-11.3448
▁servent	-11.3448
▁hésiter	-11.3451
▁Station	-11.3453
▁dépourvu	-11.3454
▁tragique	-11.3455
▁fonctionnement	-11.3455
▁l'Institut	-11.3455
▁Castel	-11.3455
▁contemplait	-11.3456
ifi	-11.3456
-12	-11.3456
▁malheureusement	-11.3456
▁indique	-11.3457
▁Gray	-11.3458
▁développe	-11.346
▁contraire.	-11.3462
cité	-11.3463
gnon	-11.3464
▁attaqué	-11.3464
▁monument	-11.3464
ech	-11.3466
▁empli	-11.3466
▁Boston	-11.3467
▁Qua	-11.347
nic	-11.347
lain	-11.347
▁enseigne	-11.347
▁visiteur	-11.3471
▁eff	-11.3471
▁Madrid	-11.3472
▁cl	-11.3473
▁fis-je	-11.3473
▁sy	-11.3473
iche	-11.3475
▁Valentin	-11.3476
bie	-11.3477
▁craint	-11.3478
▁avancée	-11.348
▁bord.	-11.3483
▁béton	-11.3485
▁empreintes	-11.3487
▁chirurgien	-11.3488
▁front,	-11.3489
▁puni	-11.349
▁réforme	-11.349
▁l’étranger	-11.3491
▁lourdes	-11.3492
▁réalise	-11.3493
▁Med	-11.3496
▁difficiles	-11.3496
▁besoins	-11.3499
▁retour.	-11.35
▁(6	-11.35
▁poche.	-11.35
▁vêtement	-11.3501
▁circuit	-11.3501
▁municipal	-11.3501
▁écho	-11.3504
enberg	-11.3506
▁l’équipe	-11.3508
▁G.	-11.3509
▁acheva	-11.3509
▁Terra	-11.3512
oche	-11.3513
▁archives	-11.3516
sti	-11.3516
nez	-11.3518
▁mètres.	-11.3518
[4]	-11.352
▁abord	-11.3521
lyn	-11.3524
▁durer	-11.3525
ton.	-11.3527
nny	-11.3528
▁malade.	-11.3529
▁Tes	-11.3529
▁combiné	-11.3533
▁chevet	-11.3533
▁Magda	-11.3533
▁siffla	-11.3534
ensis	-11.3534
▁cheval.	-11.3535
▁fini,	-11.3537
▁pote	-11.3537
▁frontières	-11.3538
tement	-11.3541
▁compassion	-11.3542
▁patte	-11.3542
▁respecter	-11.3544
▁heure.	-11.3545
tés	-11.3549
▁consulta	-11.3549
▁courant,	-11.3549
▁suivaient	-11.3551
▁pratiques	-11.3554
riez-vous	-11.3556
▁chevaux,	-11.3558
▁Berg	-11.356
▁apparu	-11.3562
▁plissa	-11.3564
uni	-11.3567
▁silencieusement	-11.3569
lock	-11.3569
▁savoir,	-11.357
▁Fondation	-11.357
▁désastre	-11.357
▁côtés,	-11.3571
▁cire	-11.3572
▁dorée	-11.3574
voie	-11.3575
▁promit	-11.3578
zio	-11.3579
▁bosse	-11.3579
▁peste	-11.3581
-L	-11.3581
▁Sc	-11.3581
red	-11.3582
▁Front	-11.3582
▁1926	-11.3585
lt	-11.3585
reux	-11.3585
▁Genève	-11.3586
ann	-11.3586
▁soupir.	-11.3586
▁l'esprit	-11.3586
age.	-11.3587
▁l'Empire	-11.3588
▁acc	-11.359
day	-11.359
▁péniblement	-11.359
▁glisse	-11.3591
pus	-11.3593
▁68	-11.3594
▁ordinaire	-11.3596
▁traînant	-11.3601
▁perçant	-11.3602
▁menant	-11.3602
issaient	-11.3603
ctor	-11.3603
▁communiste	-11.3603
▁demandais	-11.3604
▁parvient	-11.3604
k.	-11.3604
▁humain.	-11.3609
▁Bureau	-11.3609
▁désirs	-11.361
▁effectué	-11.3611
jur	-11.3611
vienne	-11.3611
nale	-11.3612
▁viol	-11.3613
▁française,	-11.3614
mut	-11.3616
en.	-11.3618
▁aurait-il	-11.3619
▁fait-il	-11.3621
illet	-11.3622
▁Power	-11.3622
▁dôme	-11.3622
▁exclu	-11.3623
▁recouvert	-11.3624
▁North	-11.3626
▁accordé	-11.3627
▁Marius	-11.3628
▁blonds	-11.3628
▁plats	-11.3629
▁grimper	-11.363
stin	-11.3632
▁Dave	-11.3633
▁Gare	-11.3634
▁éveillé	-11.3635
▁Excellence	-11.3639
▁remporté	-11.3639
▁Court	-11.3639
▁rassembla	-11.3639
▁changements	-11.364
▁garnison	-11.3641
▁tapota	-11.3642
ante,	-11.3642
▁passai	-11.3644
▁village,	-11.3644
▁fout	-11.3646
▁pesant	-11.3646
▁s’empressa	-11.3648
▁végétation	-11.3648
▁grade	-11.365
ense	-11.365
▁sites	-11.365
gation	-11.3652
èvre	-11.3655
▁diplôme	-11.3656
▁philosophe	-11.3658
▁rumeurs	-11.3658
▁l’É	-11.366
▁point.	-11.3662
▁n’arrivait	-11.3662
▁ricana	-11.3665
▁vo	-11.3667
a-t-il	-11.3667
▁oblige	-11.3669
▁d’H	-11.367
▁écrits	-11.3671
▁rougit	-11.3676
▁l'ai	-11.3678
▁casse	-11.3678
▁meilleures	-11.3679
xa	-11.3681
▁boucle	-11.3682
▁surprit	-11.3683
▁voyages	-11.3685
▁Hunter	-11.3685
▁délire	-11.3685
▁flancs	-11.3686
▁marquée	-11.3687
ota	-11.3689
▁n’auraient	-11.3689
▁spéciale	-11.369
▁ber	-11.369
▁modernes	-11.3691
▁repoussé	-11.3692
▁provisions	-11.3693
rité	-11.3695
▁absolu	-11.3696
▁droit,	-11.3697
chard	-11.37
▁Prends	-11.3701
▁l’I	-11.3701
▁retire	-11.3701
mission	-11.3701
▁classement	-11.3701
▁Dam	-11.3702
▁humble	-11.3703
▁complice	-11.3705
▁surprendre	-11.3706
▁règlement	-11.3706
▁paysan	-11.3706
etto	-11.371
▁dix-sept	-11.371
action	-11.371
cens	-11.3715
▁procéder	-11.3715
hol	-11.3717
▁Gon	-11.3718
▁nôtre	-11.3718
dieu	-11.3718
▁L’idée	-11.3719
▁dépôt	-11.3719
▁Docteur	-11.3719
▁Dites-moi	-11.372
▁téléphone.	-11.372
▁reins	-11.3721
▁accompagnée	-11.3724
▁Blue	-11.3724
ition	-11.3724
▁affirme	-11.3725
▁ramena	-11.3727
▁navette	-11.3728
▁admit	-11.3728
▁adulte	-11.3728
▁dormir.	-11.3729
▁vitres	-11.3729
▁chrétien	-11.373
▁tombeau	-11.3731
▁couraient	-11.3733
col	-11.3733
▁potentiel	-11.3734
▁juridique	-11.3737
▁vraisemblable	-11.3737
wen	-11.3739
▁constante	-11.3744
▁femelle	-11.3744
▁Gouvernement	-11.3745
▁gentiment	-11.3745
▁s’engagea	-11.3746
gs	-11.375
▁messages	-11.3752
▁Vel	-11.3752
▁boîtes	-11.3753
▁(homonymie)	-11.3754
▁D’où	-11.3754
▁Début	-11.3755
▁bonheur,	-11.3757
▁che	-11.3759
▁l’ignore	-11.376
▁excuses	-11.3761
▁"S	-11.3761
ards	-11.3762
▁150	-11.3763
press	-11.3763
▁minute,	-11.3764
▁souri	-11.3764
▁plaisait	-11.3767
ots	-11.3767
chy	-11.3768
▁éprouva	-11.377
▁1928	-11.3771
▁(les	-11.3772
ssions	-11.3773
▁Live	-11.3774
▁fabriquer	-11.378
▁procédé	-11.378
▁procureur	-11.3784
▁fra	-11.3785
yan	-11.3786
▁assiette	-11.3789
ith	-11.3789
▁déterminé	-11.3789
▁capacités	-11.379
▁semblé	-11.379
▁voulant	-11.379
▁fesses	-11.3791
▁provenant	-11.3791
▁Santo	-11.3794
▁qu’E	-11.3795
▁Mieux	-11.3796
▁Bourgogne	-11.3799
able,	-11.3799
▁coupée	-11.38
▁débarrassé	-11.38
▁combat.	-11.3802
▁Julia	-11.3803
dition	-11.3805
▁attente	-11.3808
▁ruelle	-11.3809
▁tranchant	-11.3809
▁épouser	-11.3811
▁vigne	-11.3812
▁intervention	-11.3815
▁dispositions	-11.3816
▁pensent	-11.3816
▁culpabilité	-11.3817
▁Toi,	-11.3817
▁exprimer	-11.3818
▁pompe	-11.3819
▁commanda	-11.3819
▁séparait	-11.3821
▁décisions	-11.3823
▁mines	-11.3823
▁ajouta-t-elle	-11.3825
mort	-11.3826
▁céleste	-11.3826
▁pourpre	-11.3827
▁Bus	-11.3828
▁VII	-11.3829
▁supplémentaire	-11.3831
▁joyeuse	-11.3833
▁places	-11.3835
▁navigateur	-11.3835
▁numérique	-11.3835
▁Jordan	-11.3836
▁ainsi.	-11.3836
cra	-11.3836
▁ramené	-11.3837
▁Bibliothèque	-11.3838
▁1924	-11.3838
▁grave,	-11.3839
▁apercevait	-11.3841
▁remplit	-11.3843
▁www.	-11.3845
▁librement	-11.3848
▁Walt	-11.3848
lov	-11.3849
▁l’ancienne	-11.3852
[8]	-11.3854
▁globe	-11.3855
▁amusé	-11.3855
▁d’avant	-11.3856
▁publie	-11.3858
▁Blake	-11.386
al.	-11.386
▁sortaient	-11.3862
fre	-11.3862
▁forêt.	-11.3863
▁parie	-11.3864
▁transmettre	-11.3866
▁poupée	-11.3867
▁côtés.	-11.3868
cur	-11.3871
▁dispositif	-11.3872
▁indiqué	-11.3872
▁salle.	-11.3872
graphie	-11.3872
▁conversation.	-11.3874
aque	-11.3875
▁fins	-11.3875
▁baguette	-11.3875
glio	-11.3876
▁origine	-11.3877
burg	-11.3881
▁Victoire	-11.3881
ond	-11.3883
▁dirais	-11.3883
▁Service	-11.3885
▁thèse	-11.3887
▁surtout,	-11.3889
▁emmené	-11.3889
for	-11.3889
▁inventé	-11.389
▁Cri	-11.3891
▁l’étage	-11.3893
▁6-4	-11.3894
▁devoirs	-11.3894
▁voyage.	-11.3897
▁val	-11.3897
lien	-11.3897
▁sabots	-11.3898
▁d’or,	-11.3898
▁pin	-11.3899
▁Nicole	-11.39
dem	-11.3902
row	-11.3903
▁irait	-11.3906
2008	-11.3907
▁épousa	-11.3908
▁XVIe	-11.3908
▁voyez-vous	-11.3908
▁perron	-11.391
rich	-11.3911
▁représentants	-11.3911
celle	-11.3912
▁pans	-11.3912
▁piqué	-11.3913
side	-11.3914
▁réunir	-11.3916
▁l’ascenseur	-11.3917
▁tenais	-11.3917
Je	-11.3918
▁plaie	-11.3918
▁garni	-11.3919
▁exemple.	-11.392
▁Années	-11.3921
▁joua	-11.3921
etti	-11.3921
▁publicité	-11.3921
▁Sil	-11.3921
▁baisse	-11.3922
▁Roche	-11.3922
▁1934	-11.3923
▁m’empêcher	-11.3924
inger	-11.3925
▁jupe	-11.3926
arch	-11.393
▁mention	-11.393
▁ski	-11.3933
▁House	-11.3933
▁vues	-11.3935
▁d’essayer	-11.3935
▁détermination	-11.3935
aga	-11.3939
▁sombre.	-11.3941
▁leçons	-11.3943
▁menaces	-11.3943
▁multitude	-11.3944
▁l’éclat	-11.3944
▁l’inconnu	-11.3945
▁Lumière	-11.3945
ées.	-11.3946
▁sociales	-11.3946
▁rêver	-11.3946
▁Manuel	-11.3951
▁volumes	-11.3951
▁aise	-11.3953
tho	-11.3953
▁Troisième	-11.3954
dant	-11.3955
▁conc	-11.3957
▁sexuelle	-11.3957
e-toi	-11.3957
▁plaques	-11.3961
tru	-11.3961
ssel	-11.3961
illot	-11.3962
▁salaud	-11.3963
▁entrailles	-11.3964
▁Hongrie	-11.3964
lade	-11.3965
▁rapprocher	-11.3966
▁impressionné	-11.3967
▁coule	-11.3967
ien,	-11.3967
aux.	-11.3968
▁l’aspect	-11.3969
▁association	-11.397
▁pria	-11.3971
▁obligés	-11.3971
▁brigade	-11.3972
▁l’immeuble	-11.3972
▁protège	-11.3972
▁expert	-11.3972
▁Fernand	-11.3972
▁âgée	-11.3973
▁adieu	-11.3974
▁anti-	-11.3975
▁anges	-11.3977
OL	-11.3978
ém	-11.3978
EC	-11.3979
▁pres	-11.398
▁exacte	-11.398
▁Tir	-11.398
▁demoiselle	-11.3983
▁l’avion	-11.3983
▁convenable	-11.3986
în	-11.3989
▁qu’est	-11.399
▁Avenue	-11.399
▁Merci.	-11.3992
▁exposé	-11.3993
ites	-11.3994
▁tomber.	-11.3995
ube	-11.3995
▁nature,	-11.3999
▁Duncan	-11.4
▁ignorant	-11.4
▁Arrête	-11.4006
▁App	-11.4006
▁l’air.	-11.401
▁dissimulé	-11.4014
▁Ast	-11.4015
▁grain	-11.4016
ration	-11.4016
▁réservoir	-11.4018
▁Nancy	-11.4018
▁formant	-11.4019
▁mette	-11.4019
▁fêtes	-11.402
ace	-11.4021
▁planche	-11.4021
▁croire.	-11.4021
CH	-11.4022
▁troubles	-11.4022
▁Marche	-11.4023
▁accueillir	-11.4025
▁future	-11.4025
▁crocs	-11.4027
▁menée	-11.4029
pic	-11.4029
▁géographique	-11.4029
▁habituel	-11.4033
▁Cadfael	-11.4036
▁d’espoir	-11.4036
▁muette	-11.4036
chée	-11.4036
▁d’affaires	-11.4037
ué	-11.4038
▁incident	-11.4038
-Sa	-11.4042
▁formait	-11.4043
▁Empire	-11.4045
-a	-11.4045
▁tennis	-11.4045
▁laver	-11.4046
▁traîne	-11.4048
▁racontait	-11.4048
▁reconnaît	-11.4049
▁tombaient	-11.4051
el.	-11.4052
▁passe-t-il	-11.4053
▁vidé	-11.4055
ors	-11.4055
▁matériaux	-11.4056
▁Tommy	-11.4056
▁propriétés	-11.4059
▁moi-même,	-11.406
▁fabriqué	-11.406
▁forts	-11.4061
▁habitait	-11.4061
▁brin	-11.4062
érer	-11.4062
▁enveloppé	-11.4063
▁Mans	-11.4065
▁attachée	-11.4065
▁salle,	-11.4065
▁Hart	-11.4066
▁Qu’en	-11.4066
▁Arc	-11.4069
▁bordée	-11.407
▁éducation	-11.4071
▁n’aura	-11.4072
NA	-11.4072
▁coin,	-11.4072
▁mariage,	-11.4072
▁étreinte	-11.4073
▁Bref,	-11.4073
▁aiguë	-11.4073
▁décret	-11.4074
▁crayon	-11.4074
▁fréquent	-11.4074
▁supplie	-11.4075
rière	-11.4077
▁protégée	-11.4079
▁soupira.	-11.4081
▁tienne	-11.4081
▁origines	-11.4081
▁gaieté	-11.4083
sign	-11.4086
▁niveaux	-11.4087
aria	-11.4087
▁Temps	-11.4089
▁Rue	-11.4089
▁précieuse	-11.4089
▁Fiat	-11.409
▁caméra	-11.4091
▁app	-11.4091
▁raccrocha	-11.4092
▁studio	-11.4092
▁septembre19	-11.4092
▁verticale	-11.4092
uma	-11.4092
▁tirée	-11.4093
▁Nationalité	-11.4093
▁tiennent	-11.4094
ssin	-11.4098
▁corne	-11.4098
▁tome	-11.4099
▁clos	-11.4102
▁cuisse	-11.4103
cup	-11.4104
rim	-11.4104
▁Axis	-11.4104
-15	-11.4106
bla	-11.4108
leur	-11.4109
▁commentaire	-11.411
▁matelas	-11.411
▁s’approcher	-11.4111
issent	-11.4112
▁Wilson	-11.4113
▁Donald	-11.4115
▁Gau	-11.4115
▁rappelé	-11.4117
▁défunt	-11.4119
▁Jonathan	-11.4119
▁plate-forme	-11.4119
▁opéra	-11.4121
▁palier	-11.4125
▁victoires	-11.4125
▁1912	-11.4129
▁inf	-11.4131
▁minuscules	-11.4131
dage	-11.4132
▁Thé	-11.4132
▁roulé	-11.4134
ige	-11.4135
▁fournit	-11.4135
▁claqua	-11.4138
▁successeur	-11.4139
tte.	-11.4141
▁habitudes	-11.4142
-b	-11.4145
▁délicat	-11.4145
▁Auguste	-11.4147
▁querelle	-11.4147
▁sœur.	-11.4147
▁chocolat	-11.4147
▁fou,	-11.4147
▁Soyez	-11.4148
ulation	-11.4151
▁accueilli	-11.4151
▁indiqua	-11.4153
▁Siège	-11.4154
▁péché	-11.4154
▁porc	-11.4154
▁sociétés	-11.4156
▁Roumanie	-11.4158
▁concentra	-11.416
nna	-11.4163
▁électro	-11.4166
▁compartiment	-11.4166
▁épées	-11.4167
▁ô	-11.4167
▁tranquille.	-11.4168
▁revanche	-11.417
▁Autant	-11.4171
▁pensez-vous	-11.4174
▁tape	-11.4175
▁l’empêcher	-11.4175
indre	-11.4175
aba	-11.4176
▁toits	-11.4178
▁service.	-11.4181
▁pourras	-11.4183
lieu	-11.4184
▁mourant	-11.4186
-même	-11.4187
▁glace.	-11.4188
ape	-11.4189
▁disposait	-11.4189
▁colle	-11.419
▁donnera	-11.4191
▁Sport	-11.4193
▁lancée	-11.4196
▁Mah	-11.4197
▁raisonnement	-11.4198
égard	-11.4199
▁serpents	-11.4199
▁Mol	-11.42
tos	-11.42
rab	-11.4201
▁couvrait	-11.4203
▁humains.	-11.4204
▁blessée	-11.4204
gate	-11.4204
▁remède	-11.4204
AM	-11.4204
▁jour-là	-11.4208
▁prendrait	-11.4208
▁déroule	-11.4209
cis	-11.421
▁solides	-11.421
▁éclater	-11.4212
▁Danemark	-11.4213
▁juin19	-11.4214
▁inclina	-11.4217
▁adultes	-11.4218
▁plaît.	-11.4218
▁Fal	-11.4219
▁néant	-11.4219
▁Zu	-11.4222
▁bagarre	-11.4222
▁s?ur	-11.4222
cas	-11.4225
bois	-11.4226
▁J’imagine	-11.4231
▁indiquait	-11.4232
▁????	-11.4234
▁distinction	-11.4234
▁habitué	-11.4234
▁Hard	-11.4234
▁réveille	-11.4237
dus	-11.4238
quis	-11.424
▁fréquemment	-11.4241
▁j’imagine	-11.4241
▁Larry	-11.4241
▁conversations	-11.4242
▁marchandises	-11.4244
▁commander	-11.4246
▁opposée	-11.4247
fait	-11.4247
▁aller.	-11.4247
▁octobre19	-11.4249
▁profondes	-11.425
▁Hélène	-11.425
▁escorte	-11.4251
▁N’	-11.4252
igni	-11.4253
▁vendredi	-11.4254
▁alerte	-11.4255
▁mèche	-11.4255
▁souffrances	-11.4256
▁jambes.	-11.4257
▁prétendu	-11.4258
▁Inde	-11.4258
▁empêché	-11.426
▁festival	-11.426
▁600	-11.426
▁générations	-11.4261
▁enregistré	-11.4262
▁Hay	-11.4265
▁arrêta	-11.4268
▁1933	-11.4269
▁Suzanne	-11.4269
▁diamètre	-11.4269
▁apporta	-11.427
▁dirigée	-11.427
▁Qu’y	-11.4272
rian	-11.4276
rey	-11.4277
▁déchiré	-11.4277
▁mises	-11.4277
▁moque	-11.4277
teau	-11.4278
▁fixée	-11.4278
▁géographie	-11.4278
gée	-11.4281
▁perçut	-11.4283
▁Pru	-11.4283
▁elle-même.	-11.4286
▁II,	-11.4286
âtre	-11.4289
▁Bruxelles	-11.4289
▁Dis-moi	-11.4291
ngu	-11.4291
▁coincé	-11.4293
▁l’ét	-11.4294
-y	-11.4295
▁bac	-11.4296
▁vi	-11.4296
▁s’est-il	-11.4297
▁Finlande	-11.4298
▁Little	-11.4298
▁musiciens	-11.43
▁environnement	-11.4303
▁bride	-11.4304
iale	-11.4304
▁faiblement	-11.4306
▁chante	-11.4306
time	-11.4308
▁expériences	-11.4311
▁partagé	-11.4311
▁dangereux.	-11.4312
▁musicien	-11.4313
▁Yves	-11.4314
▁extérieure	-11.4316
▁trouverait	-11.4317
▁jura	-11.4319
▁enfila	-11.4321
.3	-11.4323
▁cour.	-11.4324
▁s’enfonça	-11.4324
▁éclairs	-11.4324
▁forêt,	-11.4325
▁salon.	-11.4325
-m	-11.4326
▁Savez-vous	-11.4328
dir	-11.4328
▁d’arbres	-11.4329
▁marche,	-11.433
▁York,	-11.4331
inus	-11.4333
▁Mul	-11.4335
▁saluer	-11.4335
▁Cru	-11.4337
▁sus	-11.4338
▁Clay	-11.434
▁fonctionner	-11.4342
▁pourri	-11.4344
▁journalistes	-11.4344
▁fardeau	-11.4344
▁Ash	-11.4346
▁huile	-11.4347
▁morte,	-11.4347
▁roc	-11.4347
▁Lisa	-11.4349
rig	-11.4349
TA	-11.435
▁Donc	-11.4351
▁Passe	-11.4352
▁Terre.	-11.4353
▁murmura-t-il.	-11.4354
▁apparaissait	-11.4354
▁pétrole	-11.4354
pl	-11.4356
▁nucléaire	-11.4356
nde	-11.4357
▁c’	-11.4362
▁assurée	-11.4363
▁l’aurais	-11.4364
▁calendrier	-11.4364
▁testament	-11.4364
▁physiques	-11.4368
▁Cad	-11.4368
▁clinique	-11.4369
▁disparaît	-11.4369
▁bataille.	-11.437
▁voyager	-11.437
▁Pos	-11.4374
rê	-11.4374
▁mètres,	-11.4374
▁commencent	-11.4375
▁céda	-11.4376
uro	-11.4376
▁voyage,	-11.4377
▁Carella	-11.4377
alisme	-11.4378
▁bataille,	-11.4379
▁mars19	-11.438
▁illusion	-11.4381
▁télévisée	-11.4383
▁fière	-11.4384
▁l’angle	-11.4386
ante.	-11.4386
▁logement	-11.4386
▁tournèrent	-11.4387
▁constitution	-11.4387
▁maximale	-11.4388
▁croient	-11.439
▁Vieux	-11.4391
▁devine	-11.4393
▁1929	-11.4394
▁creusé	-11.4394
▁acco	-11.4394
▁notaire	-11.4394
▁acteurs	-11.4394
▁éprouver	-11.4394
▁Anthony	-11.4395
▁debout.	-11.4395
▁nappe	-11.4396
▁Plu	-11.4398
▁criminel	-11.4399
▁banquette	-11.4401
▁2000,	-11.4403
▁»)	-11.4405
▁sortir.	-11.4406
▁jeu,	-11.4408
▁salaire	-11.4408
▁Seigneur,	-11.4409
▁Wellan	-11.4409
▁haussant	-11.441
élo	-11.441
▁tabouret	-11.4411
▁Mario	-11.4412
iana	-11.4412
▁diamants	-11.4413
▁vents	-11.4413
▁seriez	-11.4414
▁possibilités	-11.4415
▁baisser	-11.4416
▁Road	-11.4417
▁lorsqu’un	-11.4418
▁reprise	-11.4418
péri	-11.4418
▁enlever	-11.4419
▁défini	-11.4421
▁Wy	-11.4421
▁binominal	-11.4421
▁écarlate	-11.4421
▁préfet	-11.4421
▁Jeune	-11.4421
▁Holmes	-11.4422
▁regretter	-11.4422
▁préférait	-11.4422
▁l’imp	-11.4423
isme,	-11.4427
OU	-11.4427
▁déranger	-11.4429
▁placés	-11.4429
▁exécut	-11.443
▁reine,	-11.4433
▁Nantes	-11.4435
▁empereur	-11.4436
▁Seuls	-11.4437
▁fraîcheur	-11.4437
▁agita	-11.4438
▁administratif	-11.444
▁contexte	-11.444
▁l'empereur	-11.4441
▁tressaillit	-11.4442
▁Holly	-11.4443
▁Bourg	-11.4443
ssy	-11.4446
▁(13	-11.4446
tais	-11.4448
▁Navarre	-11.445
▁reprit-elle	-11.445
quier	-11.4455
▁force.	-11.4456
hard	-11.4456
naires	-11.4456
▁Monta	-11.4456
▁matrice	-11.4457
lég	-11.446
▁fatiguée	-11.446
ette,	-11.4461
▁emprunté	-11.4461
▁rasé	-11.4462
▁D’accord.	-11.4464
▁parlementaire	-11.4464
▁empire	-11.4465
▁instantanément	-11.4465
pat	-11.4466
▁qualifié	-11.4466
▁menacé	-11.4467
▁écart	-11.4467
▁susceptible	-11.4467
▁Gan	-11.4467
man.	-11.4468
arque	-11.447
▁étude	-11.4471
▁Vé	-11.4471
▁Pyrénées	-11.4472
eng	-11.4473
▁fonctionne	-11.4474
▁supplémentaires	-11.4474
ordre	-11.4477
▁Ul	-11.4477
sing	-11.4478
▁capitaine.	-11.4478
▁vaudrait	-11.4478
▁Loire	-11.4479
▁Monseigneur	-11.4479
▁serrées	-11.448
▁ruban	-11.4481
▁publication	-11.4482
▁religieuses	-11.4485
▁sont-ils	-11.4485
tins	-11.4486
▁midi,	-11.4488
▁l’usage	-11.4488
▁XIV	-11.4488
▁secousse	-11.4488
gla	-11.4489
▁s’efforça	-11.4489
cade	-11.449
coup	-11.4491
▁pont,	-11.4493
▁adopté	-11.4493
▁paroles,	-11.4494
▁rapprocha	-11.4494
▁merci,	-11.4496
▁déclarer	-11.4496
▁capital	-11.4496
▁L’une	-11.4497
▁zéro	-11.4499
▁Deuxième	-11.45
▁Glo	-11.4502
▁barreaux	-11.4503
▁serveur	-11.4505
uit	-11.4508
▁pénétré	-11.4508
▁n’être	-11.4509
▁versant	-11.4511
▁Chinois	-11.4511
▁soufflait	-11.4512
gir	-11.4514
▁maladies	-11.4515
▁l’interrompit	-11.4515
bl	-11.4516
▁acquiesça.	-11.4517
▁voudra	-11.4517
▁l'économie	-11.4517
▁fou.	-11.4517
▁heureusement	-11.4518
▁l’enquête	-11.4518
▁tro	-11.452
▁larmes,	-11.4521
▁interrompu	-11.4521
▁Gardien	-11.4521
▁déçu	-11.4524
▁dramatique	-11.4527
▁splendide	-11.4527
▁honorable	-11.4527
▁brûlante	-11.4527
▁libération	-11.4528
▁porteur	-11.4528
▁basses	-11.4529
▁permettra	-11.4529
▁Adieu	-11.4529
▁casquette	-11.4529
ston	-11.453
▁Classement	-11.453
▁Game	-11.453
▁spécialiste	-11.4532
flé	-11.4535
nium	-11.4535
▁apprécié	-11.4537
▁Près	-11.4539
▁retournai	-11.454
▁recueil	-11.454
[9]	-11.454
▁l’obscurité.	-11.4543
▁éternelle	-11.4543
▁6-3	-11.4543
ettes	-11.4544
gué	-11.4544
▁perles	-11.4545
▁adressé	-11.4546
▁anonyme	-11.4547
▁fan	-11.4548
▁l'architecture	-11.4548
sar	-11.4548
▁Bobby	-11.4549
▁sales	-11.455
▁installés	-11.4552
▁retrouvait	-11.4554
▁libéra	-11.4558
▁préparation	-11.4558
logue	-11.4559
▁singe	-11.4559
et.	-11.4561
▁identifié	-11.4566
▁Justin	-11.4575
CI	-11.4576
▁Wolf	-11.4579
èrent.	-11.458
▁loué	-11.458
▁reparti	-11.4581
▁1918	-11.4585
▁Vau	-11.4585
▁bruyamment	-11.4585
▁Eragon	-11.4586
▁l’heure.	-11.4587
ington	-11.4588
▁Ai	-11.4588
▁échec	-11.4588
▁capitaine,	-11.4593
▁modifier	-11.4594
▁égaré	-11.4595
▁ressembler	-11.4596
▁gosses	-11.4596
▁roux	-11.46
▁familiale	-11.4601
▁psycho	-11.4601
▁neuve	-11.4602
▁retrouvée	-11.4602
ête	-11.4603
éni	-11.4603
cept	-11.4603
▁ponts	-11.4604
▁l'entrée	-11.4605
▁ramène	-11.4605
wo	-11.4605
▁consommation	-11.4606
▁faculté	-11.4606
▁sienne.	-11.4606
▁ours	-11.4607
▁instinct	-11.4611
▁industrielle	-11.4611
▁possibles	-11.4612
Il	-11.4614
▁crus	-11.4614
▁t’as	-11.4614
▁demi-douzaine	-11.4614
▁nausée	-11.4614
▁l'idée	-11.4614
▁l’ouest	-11.4615
▁McC	-11.4615
itch	-11.4616
▁Irlande	-11.4619
rie.	-11.4622
▁Pur	-11.4622
▁nef	-11.4623
▁dense	-11.4623
▁effleura	-11.4624
▁Helen	-11.4625
▁attira	-11.4626
cip	-11.4627
pée	-11.4627
▁infiniment	-11.463
▁Corée	-11.4631
▁messieurs,	-11.4632
▁comptant	-11.4634
▁Éric	-11.4634
▁banlieue	-11.4634
▁méfiance	-11.4634
▁(2006)	-11.4634
▁troupeau	-11.4635
▁Pel	-11.4635
ume	-11.4638
▁2006.	-11.4638
▁cités	-11.4638
▁{	-11.4638
▁cligna	-11.464
▁luisant	-11.464
▁Auto	-11.4642
▁boutons	-11.4642
▁d’horreur	-11.4644
▁mâchoires	-11.4646
▁continuaient	-11.4646
▁Cer	-11.4647
gage	-11.4647
▁sta	-11.4649
▁torches	-11.465
▁Reste	-11.4651
▁Pis	-11.4652
▁hangar	-11.4653
▁lignée	-11.4654
▁lady	-11.4655
▁percer	-11.4656
▁Fond	-11.4656
▁72	-11.4657
.A.	-11.4658
▁novembre19	-11.4658
▁TV	-11.4658
▁Oui...	-11.4659
fla	-11.466
▁normalement	-11.4663
▁sud-ouest	-11.4663
▁OK	-11.4666
card	-11.4668
▁jetai	-11.4669
than	-11.467
▁tremblement	-11.467
▁squelette	-11.4673
▁accroché	-11.4673
▁réalité.	-11.4674
▁halte	-11.4675
▁Déc	-11.4677
▁sonnerie	-11.468
▁cheveux.	-11.468
boul	-11.468
▁janvier19	-11.4681
▁envoyée	-11.4681
▁enfin.	-11.4682
▁Nan	-11.4683
▁Articles	-11.4683
▁Distribution	-11.4683
▁Lorsqu’elle	-11.4683
▁précédé	-11.4683
▁purement	-11.4684
▁tailleur	-11.4684
▁irrésistible	-11.4684
und	-11.4685
▁Barry	-11.4686
▁blanche.	-11.4687
▁étudiant	-11.4688
▁prie.	-11.4688
▁Gene	-11.4689
▁persuader	-11.4694
▁Om	-11.4695
▁américains	-11.4697
▁Ant	-11.4697
lons	-11.4698
▁faut-il	-11.4701
▁accorder	-11.4702
æ	-11.4703
▁rires	-11.4703
itude	-11.4704
▁primaire	-11.4705
▁admirable	-11.4706
bis	-11.4707
▁législatives	-11.4707
▁Fat	-11.4709
▁Ouais.	-11.4711
▁by	-11.4712
ute	-11.4712
▁cinquantaine	-11.4712
yon	-11.4713
▁Commission	-11.4713
comp	-11.4713
▁regarder.	-11.4713
▁Gentilé	-11.4714
▁écriture	-11.4717
2002	-11.4718
▁Fre	-11.4718
▁Sang	-11.4719
▁manuscrit	-11.472
▁Bible	-11.472
▁Berger	-11.4722
▁l’eût	-11.4722
porte	-11.4723
▁Good	-11.4725
▁laissez	-11.4725
▁Bir	-11.4726
▁États-Unis,	-11.4727
▁village.	-11.4729
▁provoque	-11.4731
ambi	-11.4731
▁éclatant	-11.4731
▁crois,	-11.4733
▁(ce	-11.4735
rang	-11.4735
▁creuser	-11.4737
▁Versailles	-11.4742
▁Maz	-11.4743
▁virus	-11.4744
▁mesurer	-11.4744
▁Terre,	-11.4746
▁reviendra	-11.4746
▁touchait	-11.4747
vaient	-11.4748
▁duel	-11.4748
▁régulier	-11.4748
▁Wall	-11.4748
▁Mille	-11.4748
▁fé	-11.475
ait-elle	-11.4752
▁dégagea	-11.4752
▁Nathan	-11.4753
▁vérifia	-11.4754
illo	-11.4755
▁s’adressant	-11.4755
▁Françoise	-11.4756
rn	-11.4756
▁oublie	-11.4758
▁brisée	-11.4758
▁console	-11.476
▁dose	-11.4761
▁exception	-11.4761
▁facilité	-11.4761
▁s’arrêtèrent	-11.4762
▁objecta	-11.4762
▁d’argent,	-11.4762
▁sud.	-11.4763
▁l’unique	-11.4764
illage	-11.4765
▁Écoute,	-11.4766
▁culturel	-11.4767
▁allées	-11.4767
ieuse	-11.4771
▁effrayant	-11.4771
▁Théo	-11.4772
▁assemblée	-11.4773
▁décembre19	-11.4773
▁vastes	-11.4773
▁l’Empire	-11.4774
▁indice	-11.4777
▁Dela	-11.4777
▁fente	-11.4778
▁Amos	-11.4778
▁épreuves	-11.4779
▁tirés	-11.478
-ma	-11.4781
▁généreux	-11.4782
▁poursuivait	-11.4782
▁limitrophes	-11.4782
▁By	-11.4782
▁Rome,	-11.4783
▁loisir	-11.4785
rait-il	-11.4786
▁direction.	-11.4786
▁Pot	-11.4786
▁juillet19	-11.4787
▁nord.	-11.479
stru	-11.4792
▁reviens	-11.4794
▁parents,	-11.4796
▁Damon	-11.4799
▁lenteur	-11.48
▁provenance	-11.4802
▁missions	-11.4802
▁Bertrand	-11.4802
▁révéla	-11.4804
▁pouvait-il	-11.4804
rène	-11.4805
▁mêler	-11.4806
oth	-11.4807
▁éloignée	-11.4808
guin	-11.4809
▁unité	-11.481
▁(au	-11.481
▁erreurs	-11.4811
▁braves	-11.4811
▁N’importe	-11.4811
▁l’immense	-11.4811
▁Carlos	-11.4813
vic	-11.4814
▁garde,	-11.4821
▁mélancolique	-11.4821
▁rigueur	-11.4821
▁figé	-11.4823
▁Laisse	-11.4824
▁organisée	-11.4825
▁panneaux	-11.4826
▁dépassait	-11.4827
uz	-11.4828
▁s’ouvrir	-11.4828
ado	-11.483
▁belle,	-11.483
ario	-11.483
▁approché	-11.4832
▁mémoire.	-11.4833
▁Jou	-11.4833
▁rebord	-11.4834
▁chouette	-11.4834
▁S.	-11.4835
active	-11.4838
▁partisans	-11.4838
sse.	-11.4838
part	-11.4839
▁compétition	-11.4843
▁flottant	-11.4844
▁écrivit	-11.4846
▁logiciel	-11.4847
far	-11.4848
▁Sy	-11.4849
▁pendule	-11.485
▁1900	-11.4851
▁rupture	-11.4851
▁peuple,	-11.4852
honor	-11.4853
▁noyé	-11.4853
▁plate	-11.4858
prim	-11.486
▁aimée	-11.4862
▁couches	-11.4864
▁pp.	-11.4864
▁doucement,	-11.4865
▁copain	-11.487
▁vacarme	-11.4871
rov	-11.4872
▁détente	-11.4873
▁dia	-11.4874
▁Silk	-11.4874
chère	-11.4875
▁partait	-11.4875
▁commandes	-11.4876
▁miens	-11.4876
▁affaibli	-11.4877
▁École	-11.4877
▁souhaité	-11.4878
▁Tara	-11.4878
▁Jar	-11.4878
mina	-11.488
▁recul	-11.488
▁machinalement	-11.4881
▁reflets	-11.4882
▁correspondance	-11.4883
▁Of	-11.4883
▁u	-11.4883
▁respira	-11.4885
▁Nice	-11.4886
▁économiques	-11.4891
-il.	-11.4891
▁chœur	-11.4891
▁(2005)	-11.4891
▁caravane	-11.4891
▁800	-11.4892
’a	-11.4893
▁Cle	-11.4893
▁rapidement.	-11.4893
▁territoires	-11.4895
▁(W	-11.4895
▁Kou	-11.4897
iez-vous	-11.49
▁inspira	-11.49
▁mage	-11.4902
▁charrette	-11.4902
▁vertige	-11.4902
itaire	-11.4903
▁classes	-11.4905
▁fragments	-11.4906
vas	-11.4908
▁l’épaule.	-11.4909
▁gen	-11.491
▁bruit,	-11.4911
▁patrimoine	-11.4912
▁d'où	-11.4912
version	-11.4912
▁DU	-11.4913
▁remplie	-11.4915
▁œufs	-11.4915
▁publiques	-11.4916
▁politique.	-11.4916
is-je	-11.4918
▁suspendue	-11.4918
▁chef.	-11.492
▁impatience	-11.4921
▁survivants	-11.4921
▁nettoyer	-11.4922
▁affamé	-11.4922
▁Altesse	-11.4922
▁Hitler	-11.4922
▁office	-11.4923
▁(f	-11.4923
▁dévi	-11.4924
▁fluide	-11.4925
▁Gab	-11.4927
▁d’eau.	-11.4928
▁exemplaires	-11.4929
▁largeur	-11.493
▁peau,	-11.493
▁disons	-11.4931
▁sincèrement	-11.4931
▁loyauté	-11.4932
▁Vis	-11.4933
▁formée	-11.4935
▁Radio	-11.4938
▁sillon	-11.4939
▁angoisse	-11.4939
▁d’argent.	-11.494
▁ventre.	-11.494
▁Belgarath	-11.4942
-Ford	-11.4942
▁illustre	-11.4943
▁Directeur	-11.4943
▁orné	-11.4944
▁Israël	-11.4944
dos	-11.4946
▁allongée	-11.4947
ovitch	-11.4947
mari	-11.495
▁souhaiter	-11.4951
▁brisa	-11.4952
▁république	-11.4952
▁03	-11.4953
▁Graham	-11.4953
▁Série	-11.4953
ij	-11.4954
▁perdus	-11.4954
▁sanglots	-11.4957
▁citer	-11.4961
▁dépasse	-11.4961
▁arrangé	-11.4962
▁fantaisie	-11.4962
▁nord-est	-11.4962
▁scribe	-11.4962
▁pince	-11.4963
▁tigre	-11.4964
veille	-11.4966
pul	-11.4968
graphe	-11.4969
nisme	-11.497
▁épisodes	-11.497
▁discrétion	-11.4972
▁haleine	-11.4972
▁fermeture	-11.4973
▁prêté	-11.4973
▁04	-11.4975
ctrice	-11.4975
▁l’aise.	-11.4976
▁divan	-11.4977
▁exploit	-11.4977
omp	-11.4977
▁pardonne	-11.4978
▁Fur	-11.4979
▁secondaire	-11.4979
▁comique	-11.498
▁manqua	-11.4981
TS	-11.4982
▁produisit	-11.4982
▁rédigé	-11.4982
acle	-11.4983
▁Davis	-11.4985
▁Kal	-11.4987
.C.	-11.4988
▁justifier	-11.4989
▁Lille	-11.4992
▁impliqué	-11.4992
▁amiral	-11.4996
▁American	-11.4997
▁souterrain	-11.4999
batt	-11.4999
yen	-11.5001
ize	-11.5001
▁Allemands	-11.5001
eck	-11.5003
▁Constitution	-11.5003
▁spécifique	-11.5003
▁serrée	-11.5005
sible	-11.5006
▁n’aimait	-11.5006
▁répand	-11.5007
▁pleurer.	-11.501
▁pareils	-11.5013
▁absorbé	-11.5013
▁figea	-11.5013
▁confort	-11.5014
cole	-11.5014
▁relief	-11.5014
▁Régis	-11.5016
▁rapporte	-11.5016
cée	-11.5017
▁prof	-11.5018
▁Je...	-11.5021
▁ranger	-11.5021
▁Din	-11.5022
▁interprété	-11.5023
▁englouti	-11.5023
▁exécution	-11.5025
▁Costa	-11.5025
▁Comité	-11.5026
▁vrais	-11.5028
cule	-11.503
▁parent	-11.5032
▁renversa	-11.5032
▁constituée	-11.5032
▁retrait	-11.5032
▁jus	-11.5032
▁pension	-11.5033
▁réservée	-11.5034
▁séparés	-11.5035
▁Création	-11.5036
ark	-11.5037
▁(un	-11.5041
iya	-11.5041
▁Den	-11.5043
▁châtiment	-11.5043
▁équipage	-11.5044
▁m’aurait	-11.5044
▁détruite	-11.5051
▁porche	-11.5053
quèrent	-11.5053
▁ressemblance	-11.5053
▁loyal	-11.5054
▁forge	-11.5054
▁tombèrent	-11.5054
▁s’échapper	-11.5056
▁récupéré	-11.5056
▁riant.	-11.5059
▁secret.	-11.5059
ido	-11.5061
fou	-11.5063
▁Ferrari	-11.5064
▁d’agir	-11.5064
zel	-11.5065
neuse	-11.5066
mée	-11.5069
▁Fleur	-11.5071
▁habituellement	-11.5074
rice	-11.5075
▁l’H	-11.5078
▁étourdi	-11.5079
▁humaine,	-11.508
ase	-11.508
▁rapporté	-11.5081
▁Nuit	-11.5081
▁Sub	-11.5082
▁républicain	-11.5083
ppo	-11.5083
▁Naples	-11.5084
▁L’enfant	-11.5085
▁affecté	-11.5085
▁Nil	-11.5087
▁s’emparer	-11.5087
urs,	-11.5088
igné	-11.5089
▁intelligente	-11.5091
▁anniversaire	-11.5091
américain	-11.5095
blo	-11.5097
▁guet	-11.5097
ander	-11.5099
ier.	-11.5099
▁laissent	-11.51
▁Chant	-11.5101
▁cadet	-11.5101
▁77	-11.5101
▁attaques	-11.5101
▁d’importance	-11.5102
▁tenez	-11.5104
▁fauteuil.	-11.5106
▁rec	-11.5107
▁(K	-11.5108
▁service,	-11.5108
▁Gard	-11.5109
sper	-11.5111
traction	-11.5111
▁Fen	-11.5112
pol	-11.5114
▁tragédie	-11.5115
▁réflexe	-11.5115
▁parlons	-11.5117
▁dossiers	-11.5117
▁libéral	-11.5119
▁Torre	-11.5121
▁sommeil,	-11.5122
nica	-11.5123
▁mécontent	-11.5123
da,	-11.5124
▁Neu	-11.5125
▁effroyable	-11.5125
▁embarrassé	-11.5127
▁Sea	-11.5128
▁progression	-11.5129
▁T’es	-11.5129
▁ça...	-11.513
▁Fran	-11.5131
cio	-11.5134
▁crème	-11.5135
▁Pam	-11.5136
▁Parcours	-11.5136
▁from	-11.5136
▁claque	-11.5137
IA	-11.5138
▁d’ici.	-11.5138
gramme	-11.5139
▁1919	-11.5141
▁Denis	-11.5141
▁dite	-11.5142
boy	-11.5142
▁résonna	-11.5143
▁flair	-11.5143
▁Kira	-11.5145
▁maintien	-11.5145
▁Caractéristique	-11.5146
▁enfer	-11.5147
▁gain	-11.5149
▁Barbe	-11.5149
▁(dé	-11.515
▁tempes	-11.515
▁l'Est	-11.5151
idi	-11.5152
▁indiquant	-11.5152
▁véritables	-11.5153
▁faim.	-11.5155
▁jungle	-11.5156
▁publiée	-11.5156
▁faim,	-11.5156
▁top	-11.516
▁terminé,	-11.5162
▁ordinaires	-11.5163
▁élégant	-11.5164
▁Eli	-11.5164
▁fer,	-11.5164
▁Wal	-11.5165
▁excuse	-11.5166
▁amener	-11.5166
▁intervenir	-11.5167
▁mots.	-11.5167
▁résistant	-11.517
▁très-	-11.517
▁Conc	-11.5171
pel	-11.5171
▁enleva	-11.5171
▁livres,	-11.5172
▁jardin.	-11.5173
▁exceptionnelle	-11.5174
pir	-11.5175
fle	-11.5175
▁m’in	-11.5175
lève	-11.5175
▁découvrant	-11.5176
▁préférable	-11.5177
▁taverne	-11.5178
▁Voix	-11.5178
▁d'elle	-11.5179
▁identique	-11.5182
▁volontaire	-11.5185
ia.	-11.5186
▁vu.	-11.5187
▁cordon	-11.5189
inte	-11.5189
▁basque	-11.5191
▁Cos	-11.5191
-pa	-11.5192
annonce	-11.5192
▁pendait	-11.5193
▁obstacle	-11.5195
▁fouilla	-11.5195
▁dire...	-11.5195
▁soucis	-11.5196
▁souvent,	-11.5197
▁sors	-11.5199
▁gardiens	-11.52
▁canadien	-11.5201
2003	-11.5202
▁désert.	-11.5203
eo	-11.5204
accompagne	-11.5204
▁Étienne	-11.5204
▁1911	-11.5205
▁inspecteur	-11.5208
▁Ryan	-11.521
▁millénaire	-11.5212
gné	-11.5213
▁appui	-11.5214
▁tuyau	-11.5216
▁saisissant	-11.5216
▁statues	-11.5217
▁jumeaux	-11.5219
venant	-11.5219
▁d'histoire	-11.522
▁(12	-11.522
▁bordel	-11.5221
▁feriez	-11.5229
▁l'amour	-11.523
▁sixième	-11.5231
IL	-11.5231
▁Bourbon	-11.5232
▁Jun	-11.5233
▁médias	-11.5234
▁installer	-11.5235
▁fraction	-11.5235
▁rêve,	-11.5236
IR	-11.5236
▁reconnue	-11.5236
▁café.	-11.5236
▁plis	-11.5237
MP	-11.5238
▁biais	-11.5241
▁prés	-11.5241
▁confus	-11.5242
install	-11.5243
▁Sortie	-11.5245
▁surpris.	-11.5246
▁reprenait	-11.5249
▁Taille	-11.525
ion,	-11.5251
▁forces.	-11.5251
▁l'U	-11.5251
mètre	-11.5253
▁serait-ce	-11.5253
▁garde.	-11.5254
▁Gris	-11.5257
▁tentation	-11.5258
??	-11.5259
▁intrigué	-11.5259
▁magiques	-11.5261
▁prévoir	-11.5261
itz	-11.5263
▁Contre	-11.5264
▁ralentir	-11.5264
▁d’al	-11.5264
SC	-11.5266
rais-je	-11.5266
▁supplice	-11.527
▁Êtes-vous	-11.527
▁soyons	-11.527
▁transfert	-11.527
▁touristes	-11.5271
▁brute	-11.5272
▁crie	-11.5272
rico	-11.5272
▁Qu	-11.5273
▁masculin	-11.5273
▁reposa	-11.5274
▁criminelle	-11.5277
▁ensuite,	-11.5278
èche	-11.528
▁saute	-11.528
▁décrocha	-11.528
▁n’avions	-11.528
▁l’empire	-11.5281
▁ferme,	-11.5282
▁singulière	-11.5283
▁croissant	-11.5287
adi	-11.5288
forme	-11.529
vite	-11.529
▁Congrès	-11.5291
▁trajectoire	-11.5291
▁parages	-11.5291
▁l'Espagne	-11.5292
▁exc	-11.5292
▁joint	-11.5293
▁provinces	-11.5294
▁Jour	-11.5294
▁hésitant	-11.5295
▁Brand	-11.5296
▁parallèle	-11.5296
il,	-11.5296
na.	-11.5297
▁paix.	-11.5301
▁atmosphère	-11.5301
▁Émouchet	-11.5301
▁insulte	-11.5301
▁vouliez	-11.5302
▁Croix	-11.5302
▁mécanisme	-11.5303
▁Ny	-11.5304
▁Grant	-11.5304
▁arrête	-11.5304
▁culotte	-11.5306
▁Clément	-11.5307
ons.	-11.5309
▁espion	-11.531
vra	-11.5311
▁humides	-11.5311
serv	-11.5311
▁ITIS	-11.5312
▁échangèrent	-11.5312
▁conte	-11.5312
▁Zone	-11.5313
▁retenue	-11.5313
ffol	-11.5315
▁1925	-11.5316
nomie	-11.5316
▁jaloux	-11.5322
▁magnétique	-11.5322
▁University	-11.5322
▁contourna	-11.5322
▁liée	-11.5322
▁face.	-11.5323
▁entendre.	-11.5324
enn	-11.5326
▁foire	-11.5326
▁Strasbourg	-11.5327
▁cale	-11.5328
français	-11.5328
▁évidente	-11.5329
▁briller	-11.533
▁pirates	-11.5331
▁Frère	-11.5331
▁sourit,	-11.5332
▁surnommé	-11.5332
▁détestait	-11.5333
▁trappe	-11.5333
▁talon	-11.5334
▁affaires.	-11.5334
▁Coup	-11.5336
uda	-11.5336
▁émergea	-11.5338
▁mêlé	-11.5341
▁critiques	-11.5343
▁examiné	-11.5343
▁s’ouvrait	-11.5343
oun	-11.5343
▁dingue	-11.5344
▁devina	-11.5344
▁sanglante	-11.5345
▁délicatement	-11.5345
ler,	-11.5348
▁universelle	-11.5349
▁l’agent	-11.535
▁Sénat	-11.5351
▁seule,	-11.5353
agé	-11.5353
▁funèbre	-11.5354
▁espéré	-11.5354
▁pâte	-11.5354
feld	-11.5354
▁soumettre	-11.5354
▁affiche	-11.5354
▁revêtu	-11.5354
▁Porto	-11.5355
▁?G	-11.5356
▁accompagne	-11.5357
▁l'élection	-11.5357
▁utiles	-11.5357
▁Normandie	-11.5358
▁médicale	-11.5358
▁barbare	-11.5359
▁chic	-11.536
▁arrondissement	-11.5364
▁orage	-11.5366
▁rousse	-11.5366
▁66	-11.5366
▁dort	-11.5366
▁claquer	-11.5367
▁définitive	-11.5367
▁Dy	-11.5367
père	-11.5368
▁réussite	-11.5368
▁crosse	-11.537
▁vivant.	-11.537
▁l’auto	-11.537
▁Bart	-11.537
▁Lieu	-11.5372
house	-11.5373
▁États-Unis.	-11.5374
▁botte	-11.5375
▁cachot	-11.5375
▁Longueur	-11.5376
▁Carr	-11.5376
▁l’autel	-11.5377
▁fatal	-11.5379
▁général.	-11.538
isa	-11.5381
▁Congo	-11.5382
eva	-11.5382
▁ram	-11.5384
▁subtil	-11.5385
▁obéi	-11.5385
▁probabilité	-11.5385
▁faucon	-11.5385
▁dura	-11.5388
▁assistant	-11.5388
▁entraîner	-11.5388
▁endormie	-11.539
▁Mill	-11.5391
▁Victoria	-11.5392
▁correctement	-11.5393
▁l'abbaye	-11.5396
▁archers	-11.5396
▁Sage	-11.5396
▁(re	-11.5396
▁transmission	-11.5396
▁indien	-11.5397
près	-11.5398
graph	-11.5398
▁Night	-11.5398
▁cheveux,	-11.54
▁compliment	-11.54
▁satellite	-11.5404
▁Assis	-11.5404
▁l’oreille.	-11.5406
▁dévouement	-11.5406
▁interrogé	-11.5406
▁coïncidence	-11.5406
phon	-11.5407
▁soucier	-11.5407
gypt	-11.541
▁Bien,	-11.541
▁Édouard	-11.5411
▁250	-11.5413
vari	-11.5415
▁(1)	-11.5415
▁livide	-11.5417
▁occupés	-11.5417
▁mentalement	-11.5421
-R	-11.5422
▁danger,	-11.5422
eta	-11.5422
▁éternel	-11.5423
dh	-11.5423
▁paye	-11.5425
▁détacher	-11.5425
▁l'action	-11.5426
▁sud-est	-11.5427
▁l’auteur	-11.5427
▁l’inter	-11.5428
▁Mode	-11.5428
▁relevant	-11.543
▁l’approche	-11.543
ame	-11.5431
▁réglé	-11.5431
▁passera	-11.5432
▁D'	-11.5435
▁suivante,	-11.5436
▁août19	-11.5437
▁navigation	-11.5438
▁nette	-11.5439
▁paroles.	-11.5441
▁molle	-11.5441
▁Barbara	-11.5442
▁caresse	-11.5445
▁réseaux	-11.5446
▁février19	-11.5446
▁5e	-11.5447
▁dessert	-11.5447
▁force,	-11.5448
▁scolaire	-11.5449
▁produite	-11.545
▁Carlo	-11.5451
▁fourreau	-11.5451
▁effectuer	-11.5452
▁61	-11.5454
▁désespérée	-11.5456
▁l’air,	-11.5457
▁88	-11.5457
▁violon	-11.5458
▁Ble	-11.546
▁impitoyable	-11.5461
▁penchée	-11.5464
▁apportait	-11.5465
▁Ciel	-11.5467
orn	-11.5468
▁compté	-11.5469
▁Union	-11.547
▁Ferdinand	-11.547
▁vieux,	-11.547
▁tribus	-11.5471
sey	-11.5472
▁plaire	-11.5473
▁éteinte	-11.5473
▁(7	-11.5474
▁Zé	-11.5475
▁02	-11.5477
▁bruns	-11.5478
▁coudes	-11.5478
▁temps-là	-11.5479
▁nature.	-11.5479
tle	-11.5479
▁l'utilisation	-11.548
▁rênes	-11.548
▁(°	-11.5484
▁rêve.	-11.5485
▁lune,	-11.5486
▁blocs	-11.5486
vette	-11.5487
▁Fille	-11.5487
▁humain,	-11.5488
▁l'or	-11.5488
tat	-11.5489
▁m’attend	-11.5489
vois	-11.5489
▁gentleman	-11.5491
▁imperceptible	-11.5491
▁simplicité	-11.5491
▁granit	-11.5491
▁nôtres	-11.5492
▁pourront	-11.5493
▁nerveusement	-11.5496
-10	-11.5497
▁architecte	-11.55
▁Félix	-11.5502
▁bon.	-11.5503
▁Louvre	-11.5503
▁l’État	-11.5504
▁her	-11.5509
▁jet	-11.5509
▁Pacifique	-11.5512
▁qu'au	-11.5513
▁inconscient	-11.5513
▁l'énergie	-11.5514
▁requête	-11.5514
été	-11.5515
▁mono	-11.5515
▁Vive	-11.5515
ein	-11.5516
▁High	-11.5516
▁guider	-11.5516
ndre	-11.5517
try	-11.5518
▁Guise	-11.5519
lière	-11.5521
▁évolution	-11.5523
▁Contrairement	-11.5523
▁63	-11.5523
nac	-11.5524
▁plaisante	-11.5524
▁bougeait	-11.5526
▁guida	-11.5526
▁menaçait	-11.5528
▁Boris	-11.553
▁baissant	-11.5532
-W	-11.5533
▁Doc	-11.5533
▁qu'elles	-11.5535
▁songeant	-11.5535
▁consacrer	-11.5536
hm	-11.5537
▁noté	-11.5538
tribu	-11.5539
▁Life	-11.5543
▁affaire,	-11.5545
▁présentation	-11.5548
▁Kel	-11.5548
▁Gordon	-11.5549
chan	-11.5549
-c	-11.555
▁nues	-11.555
▁rep	-11.5551
▁princes	-11.5552
▁roulait	-11.5553
thor	-11.5553
▁mensonges	-11.5554
▁poème	-11.5554
▁East	-11.5555
▁banquier	-11.5555
▁km/h	-11.5555
cap	-11.5556
▁aspects	-11.5558
▁exclamation	-11.5559
ley,	-11.5561
poser	-11.5565
▁excepté	-11.5566
▁Fil	-11.5566
▁Synopsis	-11.5566
▁partenaire	-11.5569
▁aussitôt,	-11.5569
▁joie,	-11.5569
▁tranchée	-11.557
▁renversé	-11.5571
▁Boul	-11.5572
▁grossier	-11.5573
por	-11.5573
▁rappelant	-11.5574
ness	-11.5576
▁n’existait	-11.5577
▁grève	-11.5577
▁Au-dessus	-11.5577
▁réalisée	-11.5577
lum	-11.5578
▁Ari	-11.5579
igna	-11.5579
▁trouvera	-11.5579
gos	-11.558
▁craquement	-11.558
▁nommer	-11.558
▁approcha	-11.5581
▁frappait	-11.5581
SE	-11.5582
▁dangers	-11.5585
ême	-11.5587
▁calma	-11.5587
▁consistait	-11.5587
▁Fol	-11.5591
▁Marianne	-11.5591
▁sauté	-11.5592
▁faction	-11.5593
▁clair,	-11.5596
vance	-11.5597
▁Ned	-11.5601
▁siennes	-11.5601
▁parquet	-11.5601
▁limitée	-11.5601
▁établissement	-11.5603
▁jean	-11.5605
▁ferme.	-11.5605
jon	-11.5605
▁engagement	-11.5606
▁balaya	-11.5606
arde	-11.5609
▁d'honneur	-11.5609
▁réponds	-11.561
▁feuillage	-11.5611
▁édité	-11.5611
▁Molly	-11.5613
▁assurément	-11.5614
▁Suivi	-11.5616
▁you	-11.5617
▁nez,	-11.5618
▁kilos	-11.5618
▁Emma	-11.5619
▁escaliers	-11.5619
▁frégate	-11.562
▁gobelet	-11.562
▁dauphin	-11.5622
▁meurtres	-11.5623
▁ressentir	-11.5624
allemand	-11.5624
▁dialogue	-11.5631
▁importance.	-11.5631
▁gentille	-11.5632
▁nains	-11.5633
▁l’aimait	-11.5633
▁celui-ci,	-11.5634
▁Affaires	-11.5634
▁fichu	-11.5634
dj	-11.5637
▁découvertes	-11.5638
▁1921	-11.5639
▁coin.	-11.564
▁1913	-11.564
nell	-11.5641
▁fris	-11.5641
▁olympique	-11.5641
▁ét	-11.5642
▁Té	-11.5643
pen	-11.5644
▁l’enveloppe	-11.5645
▁noyau	-11.5645
▁indépendante	-11.5647
-13	-11.5647
▁montagne.	-11.5647
pri	-11.5648
cot	-11.5649
▁Lion	-11.565
▁(14	-11.5651
▁l’habit	-11.5651
▁destinés	-11.5651
▁bénédiction	-11.5652
▁conclure	-11.5653
▁Page	-11.5653
▁n’osait	-11.5654
▁vertes	-11.5655
rach	-11.5655
▁l'o	-11.5655
▁CH	-11.5656
▁Cons	-11.5661
▁attentif	-11.5663
anda	-11.5663
▁Ama	-11.5664
▁Direction	-11.5665
▁Anciens	-11.5665
▁éditeur	-11.5665
▁Galerie	-11.5666
▁sujet,	-11.5667
▁indiquer	-11.5668
▁grange	-11.5668
▁voisinage	-11.567
humain	-11.5672
▁analyse	-11.5674
▁Sco	-11.5674
▁Description	-11.5674
▁fu	-11.5675
▁dites-vous	-11.5675
▁l’équilibre	-11.5676
▁légumes	-11.5678
▁partant	-11.5679
▁Laval	-11.568
▁Lily	-11.5681
▁Colombie	-11.5681
▁Beth	-11.5681
▁acide	-11.5682
▁concierge	-11.5685
▁?Le	-11.5685
change	-11.5687
▁combat,	-11.5687
▁Hier	-11.5687
▁secouer	-11.5687
ssac	-11.5687
▁Acc	-11.5689
roc	-11.569
▁Matchs	-11.569
▁fiancée	-11.5691
▁passage,	-11.5692
▁diamant	-11.5695
▁d’ajouter	-11.5696
▁s’effondra	-11.5696
▁allés	-11.5696
▁s’installer	-11.5696
▁Torak	-11.5698
▁Chan	-11.5699
▁Bern	-11.5699
▁hochement	-11.57
mun	-11.5701
▁siècles,	-11.5702
▁peine,	-11.5703
gur	-11.5704
▁dou	-11.5704
▁Bab	-11.5705
▁traversant	-11.5705
[...]
