<unk>	0
<s>	0
</s>	0
00	-0
an	-1
▁d	-2
en	-3
er	-4
▁s	-5
in	-6
▁p	-7
ar	-8
▁a	-9
▁00	-10
▁m	-11
▁t	-12
es	-13
on	-14
▁k	-15
or	-16
▁n	-17
la	-18
▁b	-19
is	-20
▁c	-21
at	-22
''	-23
al	-24
el	-25
▁v	-26
▁0000	-27
et	-28
▁o	-29
▁f	-30
it	-31
▁h	-32
▁l	-33
as	-34
▁*	-35
un	-36
il	-37
▁(	-38
▁r	-39
▁g	-40
▁de	-41
os	-42
▁i	-43
ch	-44
om	-45
us	-46
ad	-47
▁e	-48
ur	-49
▁j	-50
am	-51
ol	-52
em	-53
ed	-54
ti	-55
на	-56
▁in	-57
▁''	-58
ia	-59
ir	-60
eg	-61
ik	-62
▁w	-63
▁с	-64
ta	-65
▁pr	-66
id	-67
ic	-68
te	-69
ak	-70
▁la	-71
▁п	-72
tr	-73
▁0	-74
▁z	-75
ра	-76
im	-77
ie	-78
▁ا	-79
▁an	-80
▁к	-81
0000	-82
ul	-83
ov	-84
um	-85
та	-86
od	-87
▁en	-88
ig	-89
ra	-90
▁y	-91
ek	-92
▁в	-93
ing	-94
ci	-95
▁б	-96
le	-97
ut	-98
ен	-99
he	-100
▁un	-101
▁na	-102
re	-103
ан	-104
ent	-105
qu	-106
ot	-107
and	-108
sk	-109
ang	-110
st	-111
op	-112
ag	-113
ij	-114
▁se	-115
▁о	-116
▁u	-117
▁al	-118
▁д	-119
▁а	-120
ла	-121
то	-122
▁м	-123
og	-124
▁и	-125
▁на	-126
iv	-127
▁000	-128
ter	-129
▁sa	-130
те	-131
ok	-132
ud	-133
ро	-134
▁ال	-135
est	-136
ри	-137
ре	-138
ap	-139
▁-	-140
oj	-141
ion	-142
▁م	-143
ка	-144
▁ar	-145
▁st	-146
ga	-147
ва	-148
ist	-149
го	-150
ни	-151
ab	-152
de	-153
но	-154
ст	-155
ay	-156
▁di	-157
ah	-158
▁el	-159
io	-160
▁0000.	-161
▁tr	-162
▁ה	-163
ли	-164
▁з	-165
av	-166
да	-167
▁ب	-168
ec	-169
ers	-170
▁the	-171
▁je	-172
ob	-173
▁qu	-174
ateg	-175
ne	-176
ان	-177
▁su	-178
ու	-179
000	-180
ко	-181
▁(0000	-182
▁ch	-183
ant	-184
▁у	-185
aj	-186
ac	-187
),	-188
uk	-189
iz	-190
li	-191
ategor	-192
▁و	-193
ev	-194
▁con	-195
▁par	-196
▁is	-197
na	-198
ri	-199
▁τ	-200
▁da	-201
▁по	-202
ou	-203
ան	-204
ле	-205
).	-206
▁"	-207
ng	-208
▁es	-209
▁क	-210
▁er	-211
▁sp	-212
ip	-213
▁of	-214
не	-215
oc	-216
ти	-217
▁re	-218
▁et	-219
da	-220
ло	-221
se	-222
▁г	-223
ka	-224
▁fr	-225
up	-226
▁ma	-227
▁د	-228
▁per	-229
ub	-230
ма	-231
eb	-232
▁com	-233
▁th	-234
▁for	-235
ib	-236
ер	-237
▁gr	-238
▁—	-239
ow	-240
je	-241
▁–	-242
end	-243
ari	-244
ки	-245
▁am	-246
pr	-247
▁kategor	-248
▁del	-249
az	-250
▁ב	-251
ez	-252
▁ک	-253
ын	-254
▁ко	-255
ug	-256
▁ت	-257
▁ка	-258
ada	-259
ens	-260
ni	-261
▁т	-262
ord	-263
'',	-264
▁0000,	-265
▁mar	-266
ine	-267
▁le	-268
▁as	-269
▁og	-270
▁00.	-271
ja	-272
▁do	-273
ار	-274
ell	-275
ди	-276
▁nga	-277
▁br	-278
во	-279
ya	-280
ce	-281
ال	-282
ль	-283
to	-284
▁on	-285
ina	-286
ans	-287
▁за	-288
▁ж	-289
las	-290
га	-291
▁and	-292
▁po	-293
▁il	-294
▁đ	-295
▁den	-296
▁to	-297
lar	-298
ana	-299
ου	-300
▁е	-301
▁at	-302
ma	-303
▁te	-304
்க	-305
եր	-306
ın	-307
ру	-308
▁स	-309
ke	-310
ich	-311
ind	-312
ort	-313
ви	-314
ung	-315
▁س	-316
ard	-317
▁#	-318
ro	-319
art	-320
▁ne	-321
per	-322
▁que	-323
▁die	-324
ini	-325
sa	-326
ih	-327
ры	-328
▁or	-329
ber	-330
ის	-331
▁av	-332
▁х	-333
▁0.	-334
▁:	-335
if	-336
▁des	-337
ци	-338
ill	-339
▁x	-340
ier	-341
▁א	-342
all	-343
és	-344
ala	-345
ien	-346
▁מ	-347
ost	-348
ны	-349
ón	-350
▁ف	-351
ko	-352
्र	-353
ար	-354
▁ng	-355
no	-356
▁van	-357
▁ба	-358
▁ر	-359
▁се	-360
und	-361
ho	-362
▁der	-363
▁σ	-364
▁med	-365
ian	-366
ong	-367
▁**	-368
▁dan	-369
या	-370
▁est	-371
▁ש	-372
▁ad	-373
th	-374
▁प	-375
▁α	-376
ai	-377
ere	-378
▁men	-379
ве	-380
▁κ	-381
де	-382
▁so	-383
▁ф	-384
ast	-385
▁ш	-386
்த	-387
▁od	-388
ми	-389
▁im	-390
ים	-391
ny	-392
ות	-393
▁ל	-394
ila	-395
ica	-396
▁ob	-397
▁«	-398
лі	-399
ம்	-400
▁no	-401
ula	-402
▁me	-403
ida	-404
▁π	-405
▁ver	-406
ten	-407
▁op	-408
▁ч	-409
▁го	-410
-0000	-411
ha	-412
▁fil	-413
ara	-414
ме	-415
va	-416
ست	-417
▁ter	-418
▁ن	-419
▁म	-420
лы	-421
ess	-422
ակ	-423
ika	-424
lan	-425
▁во	-426
▁(0000)	-427
▁ha	-428
ər	-429
ста	-430
ар	-431
ای	-432
ver	-433
ні	-434
uc	-435
ور	-436
▁ह	-437
ation	-438
man	-439
ea	-440
ды	-441
▁kr	-442
tor	-443
▁us	-444
▁ka	-445
ki	-446
,0	-447
yn	-448
oh	-449
▁ber	-450
се	-451
me	-452
▁it	-453
▁pol	-454
ده	-455
▁ل	-456
ја	-457
▁kon	-458
ge	-459
ale	-460
▁ع	-461
▁ра	-462
si	-463
ات	-464
▁ja	-465
▁iz	-466
är	-467
је	-468
▁sk	-469
ija	-470
▁kom	-471
▁dr	-472
der	-473
ve	-474
ts	-475
ன்	-476
lo	-477
▁gen	-478
▁be	-479
▁та	-480
▁š	-481
pg	-482
ებ	-483
лу	-484
▁q	-485
pe	-486
lu	-487
ca	-488
ys	-489
oz	-490
▁і	-491
ல்	-492
▁ப	-493
▁os	-494
по	-495
ام	-496
ali	-497
▁ap	-498
▁em	-499
▁fam	-500
▁han	-501
▁ма	-502
▁som	-503
ler	-504
αι	-505
▁af	-506
▁ang	-507
▁ve	-508
br	-509
án	-510
र्	-511
▁ε	-512
are	-513
ին	-514
jpg	-515
ond	-516
до	-517
land	-518
▁са	-519
▁до	-520
▁па	-521
ени	-522
▁не	-523
of	-524
▁ol	-525
▁μ	-526
ate	-527
ata	-528
▁ac	-529
▁ke	-530
ente	-531
▁por	-532
▁ser	-533
ски	-534
ks	-535
tu	-536
gan	-537
ین	-538
ba	-539
ப்	-540
-00	-541
▁ed	-542
▁со	-543
▁հ	-544
ons	-545
▁ج	-546
▁é	-547
си	-548
▁met	-549
ικ	-550
▁ش	-551
য়	-552
▁za	-553
այ	-554
▁č	-555
ama	-556
▁व	-557
▁si	-558
▁du	-559
ze	-560
ты	-561
்ட	-562
▁fran	-563
▁да	-564
▁ו	-565
▁მ	-566
▁by	-567
int	-568
▁til	-569
''.	-570
ör	-571
▁ре	-572
ку	-573
▁pa	-574
ում	-575
და	-576
▁he	-577
▁kategori	-578
ado	-579
▁бо	-580
kan	-581
ista	-582
ies	-583
lam	-584
▁ir	-585
ون	-586
са	-587
ту	-588
▁ge	-589
▁var	-590
кі	-591
▁man	-592
▁ta	-593
än	-594
ന്	-595
tre	-596
tur	-597
▁0000)	-598
▁sv	-599
▁sh	-600
ii	-601
▁ab	-602
па	-603
wa	-604
▁க	-605
ча	-606
iy	-607
▁ind	-608
▁dis	-609
-0	-610
era	-611
lik	-612
eng	-613
▁در	-614
اد	-615
▁پ	-616
▁я	-617
ola	-618
che	-619
▁ni	-620
▁про	-621
ية	-622
za	-623
▁'	-624
ele	-625
ita	-626
▁ex	-627
ena	-628
yd	-629
мо	-630
за	-631
ht	-632
▁reg	-633
amp	-634
որ	-635
▁ज	-636
▁ph	-637
▁famil	-638
ál	-639
க்க	-640
▁ம	-641
mi	-642
ju	-643
▁(''	-644
uz	-645
ლი	-646
▁अ	-647
▁ba	-648
▁қ	-649
бо	-650
ার	-651
ля	-652
▁het	-653
for	-654
▁lo	-655
▁մ	-656
ור	-657
▁то	-658
ска	-659
▁бу	-660
ane	-661
зи	-662
yr	-663
'')	-664
ப்ப	-665
▁î	-666
▁„	-667
emp	-668
ത്	-669
ton	-670
ins	-671
▁str	-672
ann	-673
▁أ	-674
ku	-675
▁det	-676
co	-677
ár	-678
▁ž	-679
▁ме	-680
▁од	-681
▁sch	-682
▁va	-683
ги	-684
ui	-685
ня	-686
▁τη	-687
ार	-688
არ	-689
ym	-690
▁li	-691
▁yang	-692
▁pos	-693
ün	-694
▁um	-695
▁kar	-696
าร	-697
inn	-698
di	-699
▁vi	-700
▁пре	-701
▁آ	-702
ene	-703
vo	-704
gr	-705
▁су	-706
▁0,	-707
emb	-708
▁categor	-709
ato	-710
▁az	-711
ке	-712
▁om	-713
ía	-714
ən	-715
ert	-716
▁де	-717
▁է	-718
▁կ	-719
ske	-720
ust	-721
arr	-722
сти	-723
▁न	-724
్ర	-725
ır	-726
▁und	-727
ph	-728
▁об	-729
ua	-730
ிய	-731
ní	-732
▁ه	-733
▁ব	-734
ர்	-735
ско	-736
iss	-737
ும்	-738
▁э	-739
▁pod	-740
อง	-741
▁pe	-742
▁vo	-743
▁sam	-744
ice	-745
ass	-746
▁த	-747
cies	-748
ür	-749
ade	-750
ff	-751
▁på	-752
ona	-753
ás	-754
сто	-755
ول	-756
ero	-757
atur	-758
be	-759
τα	-760
ან	-761
ue	-762
▁les	-763
ക്	-764
▁inter	-765
ern	-766
▁val	-767
▁ak	-768
▁из	-769
▁în	-770
▁في	-771
্র	-772
ici	-773
▁km	-774
ont	-775
sch	-776
▁ע	-777
ima	-778
ción	-779
▁ko	-780
▁இ	-781
cia	-782
ile	-783
▁una	-784
▁от	-785
▁co	-786
ներ	-787
▁те	-788
ore	-789
्य	-790
▁ut	-791
ند	-792
les	-793
▁के	-794
én	-795
▁sz	-796
ly	-797
▁col	-798
ori	-799
ван	-800
we	-801
▁ప	-802
ள்	-803
▁au	-804
ני	-805
▁ს	-806
tra	-807
ite	-808
▁bu	-809
eri	-810
че	-811
▁мо	-812
▁car	-813
▁الم	-814
nh	-815
த்த	-816
рі	-817
ati	-818
ба	-819
hi	-820
▁bir	-821
ani	-822
▁ق	-823
▁ki	-824
▁min	-825
ski	-826
els	-827
▁cr	-828
zi	-829
olog	-830
ér	-831
▁του	-832
ven	-833
ся	-834
pa	-835
▁је	-836
fr	-837
со	-838
ну	-839
jen	-840
▁স	-841
bo	-842
▁द	-843
▁প	-844
▁ро	-845
▁ο	-846
ду	-847
▁war	-848
▁το	-849
▁би	-850
▁ç	-851
▁mu	-852
den	-853
ora	-854
ें	-855
ี่	-856
pl	-857
lak	-858
ema	-859
▁من	-860
ft	-861
itu	-862
ια	-863
▁ur	-864
▁வ	-865
сь	-866
tic	-867
▁bo	-868
ыл	-869
▁bi	-870
tion	-871
ino	-872
▁mat	-873
▁har	-874
τη	-875
ân	-876
्व	-877
▁mo	-878
чи	-879
▁nas	-880
vi	-881
να	-882
00.	-883
пе	-884
▁0000-	-885
yl	-886
▁nov	-887
▁ju	-888
το	-889
ett	-890
▁ক	-891
یک	-892
ட்ட	-893
ül	-894
the	-895
▁при	-896
ili	-897
ire	-898
▁ц	-899
eta	-900
ije	-901
ako	-902
lah	-903
▁ө	-904
▁ա	-905
ement	-906
ru	-907
▁bar	-908
▁(0	-909
▁sub	-910
ական	-911
▁ku	-912
▁ح	-913
ين	-914
хо	-915
ban	-916
▁அ	-917
ivers	-918
min	-919
mer	-920
que	-921
år	-922
enn	-923
▁mus	-924
lad	-925
ғы	-926
▁son	-927
ర్	-928
unt	-929
▁ein	-930
▁mer	-931
▁ho	-932
▁sl	-933
▁थ	-934
ør	-935
entr	-936
ji	-937
را	-938
yt	-939
ith	-940
amb	-941
▁res	-942
ão	-943
би	-944
мі	-945
▁ब	-946
▁ok	-947
▁rom	-948
▁है	-949
idae	-950
▁ti	-951
ία	-952
▁र	-953
▁mag	-954
ութ	-955
▁δ	-956
▁her	-957
▁ե	-958
▁dari	-959
▁00,	-960
▁sc	-961
ман	-962
ish	-963
ide	-964
▁ag	-965
сы	-966
▁fo	-967
ान	-968
▁eg	-969
ில்	-970
пи	-971
sp	-972
რი	-973
ix	-974
–0000	-975
lat	-976
ερ	-977
isk	-978
äl	-979
▁mil	-980
ரு	-981
ick	-982
мен	-983
▁spe	-984
▁pl	-985
্য	-986
▁ச	-987
ระ	-988
्त	-989
▁jo	-990
tiv	-991
hr	-992
ել	-993
▁می	-994
ede	-995
▁eta	-996
င်	-997
adi	-998
▁של	-999
ді	-1000
▁yn	-1001
רי	-1002
▁και	-1003
्या	-1004
▁los	-1005
ano	-1006
гі	-1007
▁ста	-1008
jo	-1009
atu	-1010
elt	-1011
▁ö	-1012
▁.	-1013
itt	-1014
lig	-1015
یا	-1016
▁ви	-1017
து	-1018
▁är	-1019
iti	-1020
ատ	-1021
▁خ	-1022
▁mas	-1023
िक	-1024
▁כ	-1025
▁त	-1026
ben	-1027
ని	-1028
mo	-1029
ца	-1030
ên	-1031
men	-1032
orn	-1033
▁tra	-1034
▁lu	-1035
▁vol	-1036
ที่	-1037
ந்த	-1038
ха	-1039
ity	-1040
▁వ	-1041
▁ü	-1042
ті	-1043
ша	-1044
▁mon	-1045
isti	-1046
urg	-1047
ತ್	-1048
▁भ	-1049
му	-1050
mar	-1051
▁gu	-1052
לי	-1053
▁ii	-1054
ها	-1055
▁స	-1056
ega	-1057
▁nor	-1058
ға	-1059
▁ny	-1060
▁san	-1061
ուն	-1062
isch	-1063
mas	-1064
ود	-1065
umb	-1066
▁pas	-1067
át	-1068
str	-1069
.,	-1070
ের	-1071
▁ल	-1072
▁пе	-1073
ego	-1074
▁бе	-1075
▁ä	-1076
▁ra	-1077
eder	-1078
any	-1079
ությ	-1080
ise	-1081
ಲ್	-1082
▁të	-1083
▁رده	-1084
▁pop	-1085
ει	-1086
tin	-1087
اب	-1088
▁was	-1089
res	-1090
eld	-1091
:00	-1092
▁క	-1093
isi	-1094
inh	-1095
▁és	-1096
ында	-1097
ран	-1098
ನ್	-1099
▁nh	-1100
cion	-1101
0.	-1102
▁à	-1103
▁prim	-1104
ці	-1105
ന്ന	-1106
یل	-1107
fer	-1108
zy	-1109
ste	-1110
▁кате	-1111
una	-1112
ald	-1113
par	-1114
лан	-1115
▁י	-1116
▁nah	-1117
▁ك	-1118
ult	-1119
pt	-1120
▁आ	-1121
▁mod	-1122
ρα	-1123
▁dir	-1124
ши	-1125
רו	-1126
ning	-1127
▁seg	-1128
▁tur	-1129
eni	-1130
▁00,0	-1131
one	-1132
ég	-1133
ান	-1134
ër	-1135
▁катего	-1136
ór	-1137
▁=	-1138
▁para	-1139
▁ग	-1140
یر	-1141
▁bes	-1142
▁ہ	-1143
сі	-1144
ova	-1145
▁°	-1146
▁گ	-1147
bu	-1148
▁(00	-1149
▁sol	-1150
și	-1151
های	-1152
▁dem	-1153
▁си	-1154
▁жа	-1155
▁din	-1156
way	-1157
зе	-1158
ур	-1159
▁ي	-1160
▁nj	-1161
nik	-1162
▁ş	-1163
▁به	-1164
cr	-1165
▁cu	-1166
▁এ	-1167
▁ze	-1168
▁sy	-1169
▁మ	-1170
ор	-1171
ํา	-1172
ito	-1173
ats	-1174
▁fin	-1175
▁ca	-1176
▁ў	-1177
▁een	-1178
πο	-1179
ို	-1180
▁koj	-1181
่า	-1182
лен	-1183
▁და	-1184
▁ಮ	-1185
-000	-1186
▁pro	-1187
ամ	-1188
ві	-1189
▁ya	-1190
uv	-1191
▁ა	-1192
▁ing	-1193
న్	-1194
ska	-1195
لى	-1196
การ	-1197
▁प्र	-1198
sh	-1199
гра	-1200
ρο	-1201
use	-1202
▁dat	-1203
▁và	-1204
▁פ	-1205
lı	-1206
cht	-1207
ico	-1208
▁но	-1209
▁ಸ	-1210
▁film	-1211
ete	-1212
▁kat	-1213
▁pat	-1214
▁cat	-1215
▁המ	-1216
▁ro	-1217
ger	-1218
ose	-1219
▁ú	-1220
ura	-1221
יי	-1222
▁von	-1223
ubl	-1224
▁kategorija	-1225
sen	-1226
▁had	-1227
▁mit	-1228
asi	-1229
▁nak	-1230
▁में	-1231
ერ	-1232
▁aus	-1233
▁й	-1234
μα	-1235
ých	-1236
oli	-1237
▁bat	-1238
dan	-1239
жа	-1240
ira	-1241
▁god	-1242
▁เ	-1243
▁amer	-1244
ων	-1245
kr	-1246
istr	-1247
ني	-1248
рия	-1249
tav	-1250
▁ந	-1251
▁kan	-1252
gi	-1253
lav	-1254
ando	-1255
ken	-1256
▁familia	-1257
▁γ	-1258
▁joh	-1259
ento	-1260
▁ম	-1261
bn	-1262
▁000.	-1263
തി	-1264
▁പ	-1265
▁wa	-1266
erd	-1267
▁rec	-1268
raf	-1269
▁və	-1270
▁eur	-1271
ול	-1272
▁kal	-1273
▁gi	-1274
ember	-1275
▁ק	-1276
po	-1277
లో	-1278
▁გ	-1279
▁bel	-1280
oni	-1281
▁nu	-1282
▁ز	-1283
▁kaj	-1284
▁bil	-1285
▁ev	-1286
▁pal	-1287
▁,	-1288
ть	-1289
▁pers	-1290
די	-1291
▁գ	-1292
akan	-1293
ante	-1294
so	-1295
لا	-1296
▁ngan	-1297
от	-1298
▁fra	-1299
▁pres	-1300
lag	-1301
ון	-1302
ക്ക	-1303
▁nom	-1304
▁we	-1305
▁0000:	-1306
न्	-1307
▁0,0	-1308
eks	-1309
▁și	-1310
ाल	-1311
ге	-1312
ின்	-1313
px	-1314
▁годи	-1315
",	-1316
ใน	-1317
лар	-1318
▁prov	-1319
▁kh	-1320
▁á	-1321
▁pla	-1322
▁kur	-1323
ัน	-1324
yk	-1325
ың	-1326
ck	-1327
ella	-1328
uh	-1329
ott	-1330
də	-1331
▁bas	-1332
▁në	-1333
oku	-1334
▁là	-1335
ित	-1336
▁comp	-1337
▁kun	-1338
tt	-1339
ստ	-1340
▁pre	-1341
ರ್	-1342
▁como	-1343
▁उ	-1344
▁με	-1345
▁univers	-1346
он	-1347
▁och	-1348
esti	-1349
sz	-1350
ole	-1351
lin	-1352
▁kas	-1353
▁пра	-1354
lər	-1355
లు	-1356
▁ве	-1357
val	-1358
ార	-1359
▁0000-0000	-1360
▁이	-1361
وم	-1362
▁ins	-1363
ive	-1364
▁aut	-1365
ани	-1366
uj	-1367
бе	-1368
ight	-1369
▁dos	-1370
gen	-1371
ış	-1372
▁pi	-1373
▁cor	-1374
fa	-1375
ác	-1376
ige	-1377
pi	-1378
▁ಕ	-1379
้า	-1380
▁prod	-1381
alia	-1382
▁hab	-1383
ular	-1384
су	-1385
▁נ	-1386
etr	-1387
▁ми	-1388
olo	-1389
ισ	-1390
▁sur	-1391
öl	-1392
▁*''	-1393
ín	-1394
▁از	-1395
▁nam	-1396
yo	-1397
eli	-1398
eme	-1399
▁fl	-1400
▁kor	-1401
▁mal	-1402
▁pada	-1403
len	-1404
▁rep	-1405
▁kategorie	-1406
็น	-1407
old	-1408
гу	-1409
mu	-1410
▁της	-1411
ione	-1412
▁sin	-1413
▁అ	-1414
▁jed	-1415
مر	-1416
ელ	-1417
ში	-1418
▁che	-1419
స్	-1420
pres	-1421
▁franc	-1422
▁ble	-1423
bi	-1424
пу	-1425
bor	-1426
ात	-1427
▁қа	-1428
aren	-1429
alis	-1430
du	-1431
let	-1432
iren	-1433
▁sen	-1434
ser	-1435
ამ	-1436
▁با	-1437
რო	-1438
istor	-1439
▁تص	-1440
▁can	-1441
zen	-1442
▁bl	-1443
".	-1444
ენ	-1445
lə	-1446
▁բ	-1447
asa	-1448
ment	-1449
▁pu	-1450
יה	-1451
▁ва	-1452
nos	-1453
her	-1454
▁კ	-1455
ese	-1456
▁ger	-1457
ντ	-1458
ைய	-1459
್ರ	-1460
št	-1461
▁ek	-1462
ye	-1463
ње	-1464
▁ю	-1465
ಗಳ	-1466
แล	-1467
▁sta	-1468
ಲಿ	-1469
▁است	-1470
ove	-1471
ovi	-1472
son	-1473
рэ	-1474
▁tan	-1475
əs	-1476
age	-1477
же	-1478
ogr	-1479
ше	-1480
▁ga	-1481
▁ն	-1482
ami	-1483
ner	-1484
ında	-1485
ավ	-1486
..	-1487
▁cap	-1488
▁genus	-1489
ற்	-1490
ری	-1491
▁()	-1492
ائ	-1493
▁mor	-1494
▁թ	-1495
▁species	-1496
ங்க	-1497
kt	-1498
une	-1499
▁му	-1500
▁plan	-1501
vat	-1502
do	-1503
cha	-1504
▁dia	-1505
▁إ	-1506
▁κα	-1507
iko	-1508
▁ക	-1509
▁sm	-1510
▁00-	-1511
่อ	-1512
▁ג	-1513
▁श	-1514
né	-1515
▁ast	-1516
ป็น	-1517
▁las	-1518
▁ste	-1519
رد	-1520
iden	-1521
▁হ	-1522
elo	-1523
зі	-1524
▁dal	-1525
ille	-1526
con	-1527
▁ар	-1528
ıl	-1529
νο	-1530
ير	-1531
ker	-1532
alista	-1533
ön	-1534
ната	-1535
اس	-1536
▁tak	-1537
בי	-1538
▁ор	-1539
▁dom	-1540
്ട	-1541
▁fa	-1542
▁parti	-1543
▁mi	-1544
iga	-1545
elle	-1546
ike	-1547
▁new	-1548
шы	-1549
▁dep	-1550
ulag	-1551
▁kl	-1552
▁ಪ	-1553
ంద	-1554
▁bul	-1555
eter	-1556
▁ए	-1557
▁տ	-1558
▁naj	-1559
▁jan	-1560
ông	-1561
▁sem	-1562
▁land	-1563
als	-1564
▁ord	-1565
ों	-1566
▁έ	-1567
ulagway	-1568
▁का	-1569
▁ant	-1570
ีย	-1571
▁dit	-1572
lakip	-1573
лә	-1574
ับ	-1575
▁tim	-1576
▁up	-1577
▁sal	-1578
ով	-1579
col	-1580
ės	-1581
▁mem	-1582
▁kap	-1583
▁*0000	-1584
ign	-1585
▁nahila	-1586
▁nahilalakip	-1587
це	-1588
▁;	-1589
نيف	-1590
ιο	-1591
its	-1592
▁í	-1593
▁vis	-1594
▁кон	-1595
్య	-1596
bol	-1597
▁kir	-1598
▁dur	-1599
ने	-1600
▁isbn	-1601
alo	-1602
ry	-1603
ாக	-1604
▁ginh	-1605
йн	-1606
ತ್ತ	-1607
ados	-1608
ော	-1609
▁অ	-1610
▁تصنيف	-1611
اه	-1612
▁hav	-1613
▁ку	-1614
่ง	-1615
▁alb	-1616
▁इ	-1617
πό	-1618
▁га	-1619
ær	-1620
าย	-1621
▁һ	-1622
▁/	-1623
van	-1624
ונ	-1625
zn	-1626
▁vr	-1627
.)	-1628
ць	-1629
oje	-1630
жи	-1631
inin	-1632
aka	-1633
ów	-1634
ại	-1635
▁củ	-1636
aro	-1637
্ত	-1638
▁раз	-1639
dr	-1640
▁ஆ	-1641
▁വ	-1642
ಾಗ	-1643
▁ಅ	-1644
▁ки	-1645
form	-1646
nu	-1647
▁form	-1648
▁ке	-1649
ының	-1650
▁của	-1651
osa	-1652
ден	-1653
ít	-1654
▁η	-1655
▁ві	-1656
spe	-1657
ës	-1658
▁ча	-1659
ượ	-1660
хь	-1661
▁gra	-1662
▁tu	-1663
λο	-1664
▁stud	-1665
ση	-1666
ಂದ	-1667
സ്	-1668
cu	-1669
go	-1670
ido	-1671
by	-1672
дан	-1673
▁uska	-1674
าก	-1675
רא	-1676
leg	-1677
au	-1678
▁ху	-1679
вы	-1680
▁prin	-1681
ನ್ನ	-1682
тра	-1683
▁pag	-1684
▁ח	-1685
▁fan	-1686
rop	-1687
▁вы	-1688
▁vir	-1689
▁mao	-1690
ും	-1691
port	-1692
▁rus	-1693
ors	-1694
тар	-1695
pan	-1696
atan	-1697
▁ziren	-1698
▁kol	-1699
▁պ	-1700
และ	-1701
jer	-1702
▁dar	-1703
cc	-1704
imi	-1705
iter	-1706
ock	-1707
net	-1708
ву	-1709
gu	-1710
▁&	-1711
▁ist	-1712
var	-1713
iro	-1714
tera	-1715
dir	-1716
▁ди	-1717
න්	-1718
ген	-1719
▁dec	-1720
▁stan	-1721
▁ker	-1722
вни	-1723
esta	-1724
▁ginhulagway	-1725
▁bah	-1726
či	-1727
▁under	-1728
رو	-1729
▁எ	-1730
▁dalam	-1731
ende	-1732
▁př	-1733
▁wh	-1734
டு	-1735
▁ul	-1736
itat	-1737
▁bag	-1738
▁ха	-1739
bin	-1740
ekt	-1741
esi	-1742
▁pen	-1743
цы	-1744
ís	-1745
eko	-1746
▁الأ	-1747
ობ	-1748
▁ug	-1749
oda	-1750
യി	-1751
кт	-1752
αν	-1753
▁tre	-1754
▁go	-1755
esk	-1756
ikan	-1757
ció	-1758
▁ud	-1759
tik	-1760
▁ү	-1761
انی	-1762
▁pri	-1763
▁че	-1764
ავ	-1765
фи	-1766
ما	-1767
▁seb	-1768
▁وال	-1769
сте	-1770
▁(0000-0000	-1771
▁rad	-1772
alt	-1773
▁zu	-1774
రి	-1775
▁das	-1776
дар	-1777
▁ин	-1778
▁ан	-1779
▁წ	-1780
ase	-1781
▁vers	-1782
ინ	-1783
ած	-1784
▁kö	-1785
▁cons	-1786
▁wil	-1787
▁tar	-1788
тэ	-1789
▁sim	-1790
▁դ	-1791
▁eng	-1792
▁ten	-1793
лю	-1794
nie	-1795
▁organ	-1796
ét	-1797
ית	-1798
▁maj	-1799
yc	-1800
▁ان	-1801
าม	-1802
▁եւ	-1803
▁tot	-1804
▁بر	-1805
ure	-1806
▁å	-1807
ky	-1808
य्	-1809
▁tel	-1810
inen	-1811
از	-1812
▁ye	-1813
ales	-1814
tir	-1815
▁vu	-1816
▁ini	-1817
▁div	-1818
են	-1819
ற்ற	-1820
▁uz	-1821
▁top	-1822
anda	-1823
▁pan	-1824
്ര	-1825
▁(0000).	-1826
asta	-1827
▁polit	-1828
ες	-1829
uli	-1830
ovan	-1831
स्	-1832
▁è	-1833
▁dé	-1834
ones	-1835
رب	-1836
으로	-1837
ър	-1838
וא	-1839
eti	-1840
ด้	-1841
▁raz	-1842
▁य	-1843
▁cer	-1844
▁als	-1845
мы	-1846
rat	-1847
▁“	-1848
ps	-1849
▁ale	-1850
ער	-1851
▁cl	-1852
▁fer	-1853
▁sek	-1854
▁ли	-1855
▁lang	-1856
▁چ	-1857
▁amb	-1858
▁۱	-1859
wo	-1860
▁আ	-1861
ava	-1862
illa	-1863
ետ	-1864
species	-1865
urs	-1866
▁ни	-1867
itz	-1868
▁categoria	-1869
▁trans	-1870
▁mun	-1871
▁roku	-1872
bar	-1873
ည်	-1874
jon	-1875
▁ад	-1876
▁dengan	-1877
isa	-1878
▁ved	-1879
▁की	-1880
▁inc	-1881
▁bet	-1882
="	-1883
▁lib	-1884
aliz	-1885
క్	-1886
▁sel	-1887
سی	-1888
ად	-1889
oma	-1890
ண்ட	-1891
▁fe	-1892
ork	-1893
▁hini	-1894
▁ව	-1895
зо	-1896
ರು	-1897
ां	-1898
ím	-1899
:0000	-1900
led	-1901
ాల	-1902
ador	-1903
▁β	-1904
ของ	-1905
▁000,	-1906
вер	-1907
ები	-1908
മാ	-1909
して	-1910
▁ס	-1911
aran	-1912
iva	-1913
ಲ್ಲಿ	-1914
ary	-1915
эн	-1916
لی	-1917
ას	-1918
▁chr	-1919
▁all	-1920
▁гра	-1921
med	-1922
ონ	-1923
▁ik	-1924
ალ	-1925
▁შ	-1926
сно	-1927
ém	-1928
ция	-1929
uta	-1930
▁הא	-1931
ament	-1932
ings	-1933
تر	-1934
zt	-1935
ột	-1936
ahan	-1937
▁ty	-1938
εί	-1939
▁år	-1940
▁உ	-1941
▁subspecies	-1942
▁prop	-1943
▁ay	-1944
uri	-1945
▁ಹ	-1946
▁ս	-1947
▁ou	-1948
หม	-1949
▁pred	-1950
▁kul	-1951
▁sig	-1952
▁grup	-1953
tig	-1954
▁н	-1955
▁vel	-1956
▁από	-1957
onom	-1958
▁nel	-1959
▁stat	-1960
وی	-1961
▁pot	-1962
▁ben	-1963
aya	-1964
▁lif	-1965
ју	-1966
▁sar	-1967
▁temp	-1968
▁که	-1969
▁την	-1970
red	-1971
▁waray	-1972
▁prof	-1973
alm	-1974
вен	-1975
וד	-1976
ep	-1977
▁nakalista	-1978
▁rob	-1979
тан	-1980
tif	-1981
han	-1982
ган	-1983
▁ти	-1984
▁apr	-1985
▁0.000	-1986
oss	-1987
usi	-1988
ған	-1989
▁0000–0000	-1990
▁meg	-1991
jet	-1992
ск	-1993
▁(0000),	-1994
ăm	-1995
에서	-1996
▁mü	-1997
ில	-1998
ство	-1999
▁0,00	-2000
ري	-2001
ություն	-2002
ła	-2003
ั้	-2004
ರಿ	-2005
ect	-2006
uden	-2007
เป็น	-2008
oll	-2009
ack	-2010
▁leg	-2011
▁bal	-2012
com	-2013
▁over	-2014
لي	-2015
ược	-2016
▁את	-2017
িক	-2018
▁చ	-2019
нан	-2020
िल	-2021
▁0-	-2022
▁rev	-2023
▁الع	-2024
▁pun	-2025
▁ত	-2026
▁ವ	-2027
▁(0000–0000	-2028
▁से	-2029
▁അ	-2030
▁ת	-2031
org	-2032
▁with	-2033
ister	-2034
uje	-2035
ograf	-2036
▁aug	-2037
ัง	-2038
▁***	-2039
▁categoría	-2040
▁lab	-2041
ty	-2042
ുന്ന	-2043
▁một	-2044
▁mes	-2045
thumb	-2046
મા	-2047
▁cal	-2048
lj	-2049
▁ন	-2050
יר	-2051
▁ei	-2052
աց	-2053
oph	-2054
क्	-2055
▁europ	-2056
בר	-2057
ção	-2058
ಸ್	-2059
por	-2060
▁godine	-2061
mə	-2062
ంచ	-2063
▁ə	-2064
▁era	-2065
ande	-2066
▁mad	-2067
ld	-2068
▁nord	-2069
ono	-2070
▁الت	-2071
ता	-2072
nih	-2073
▁اس	-2074
ред	-2075
ého	-2076
ეს	-2077
وا	-2078
▁hr	-2079
ား	-2080
▁unt	-2081
▁있	-2082
ink	-2083
ame	-2084
▁histor	-2085
▁lig	-2086
eth	-2087
cip	-2088
τικ	-2089
▁ал	-2090
vor	-2091
ना	-2092
ial	-2093
াল	-2094
▁(000	-2095
ಿದ	-2096
▁được	-2097
▁may	-2098
▁nan	-2099
itan	-2100
▁ד	-2101
ள்ள	-2102
▁mai	-2103
▁tek	-2104
nya	-2105
▁nad	-2106
▁mot	-2107
бу	-2108
▁वि	-2109
▁ту	-2110
▁kay	-2111
▁χ	-2112
▁ban	-2113
itar	-2114
▁სა	-2115
ிர	-2116
มี	-2117
िया	-2118
▁վ	-2119
ങ്	-2120
tim	-2121
ัก	-2122
tak	-2123
▁च	-2124
ను	-2125
ux	-2126
att	-2127
кто	-2128
்ச	-2129
▁দ	-2130
ej	-2131
▁این	-2132
гы	-2133
ास	-2134
ене	-2135
▁þ	-2136
ือ	-2137
▁ನ	-2138
yon	-2139
чы	-2140
amer	-2141
▁ז	-2142
amm	-2143
▁במ	-2144
▁tal	-2145
udi	-2146
ագ	-2147
▁tah	-2148
▁gener	-2149
اری	-2150
ிற	-2151
▁ന	-2152
ät	-2153
്പ	-2154
▁бас	-2155
িত	-2156
ಕ್	-2157
ών	-2158
▁fu	-2159
▁tem	-2160
▁ven	-2161
▁vun	-2162
▁ao	-2163
chi	-2164
mun	-2165
ları	-2166
bl	-2167
ák	-2168
▁ле	-2169
▁औ	-2170
▁red	-2171
▁soci	-2172
ալ	-2173
▁lan	-2174
▁don	-2175
ườ	-2176
▁ot	-2177
▁centr	-2178
يد	-2179
าน	-2180
▁john	-2181
गु	-2182
:0	-2183
աս	-2184
▁सं	-2185
tro	-2186
jev	-2187
kar	-2188
»,	-2189
▁પ	-2190
sta	-2191
▁meng	-2192
▁į	-2193
kom	-2194
▁জ	-2195
▁dhe	-2196
▁ada	-2197
har	-2198
oven	-2199
▁ಬ	-2200
▁hu	-2201
ін	-2202
itor	-2203
тер	-2204
され	-2205
ร์	-2206
ude	-2207
ного	-2208
▁foi	-2209
.''	-2210
ae	-2211
iri	-2212
ól	-2213
▁бы	-2214
मा	-2215
ನ್ನು	-2216
ās	-2217
▁ру	-2218
က်	-2219
▁বি	-2220
గా	-2221
▁có	-2222
وس	-2223
▁pap	-2224
fe	-2225
iek	-2226
▁tom	-2227
וי	-2228
▁egy	-2229
▁bol	-2230
pen	-2231
ustr	-2232
burg	-2233
▁për	-2234
wi	-2235
▁art	-2236
ച്	-2237
▁proc	-2238
ат	-2239
лық	-2240
igh	-2241
nika	-2242
este	-2243
ator	-2244
chen	-2245
ிக	-2246
▁wat	-2247
agai	-2248
شت	-2249
▁far	-2250
wer	-2251
зна	-2252
▁let	-2253
▁estas	-2254
▁gre	-2255
▁00%	-2256
▁my	-2257
кан	-2258
iste	-2259
▁ස	-2260
iji	-2261
fi	-2262
pos	-2263
olu	-2264
berg	-2265
▁untuk	-2266
▁ئ	-2267
▁hen	-2268
▁sec	-2269
iske	-2270
ster	-2271
ös	-2272
alar	-2273
vel	-2274
ных	-2275
ത്തി	-2276
▁کی	-2277
▁post	-2278
▁על	-2279
iki	-2280
ประ	-2281
▁kategoria	-2282
ение	-2283
▁और	-2284
▁este	-2285
▁ata	-2286
▁gl	-2287
র্	-2288
▁mel	-2289
ət	-2290
▁%	-2291
ից	-2292
ոն	-2293
▁oli	-2294
וס	-2295
emi	-2296
λλ	-2297
▁kateg	-2298
ublik	-2299
▁ص	-2300
κε	-2301
▁dav	-2302
ets	-2303
▁στη	-2304
zo	-2305
▁vy	-2306
▁from	-2307
եւ	-2308
▁bur	-2309
▁സ	-2310
ode	-2311
▁loc	-2312
unn	-2313
▁hal	-2314
lass	-2315
ού	-2316
▁astero	-2317
కు	-2318
▁ప్ర	-2319
ilo	-2320
▁năm	-2321
ën	-2322
▁mga	-2323
ող	-2324
enta	-2325
ული	-2326
▁ი	-2327
ల్	-2328
▁trong	-2329
ได้	-2330
▁hel	-2331
▁ਦ	-2332
▁nag	-2333
▁part	-2334
▁жи	-2335
▁voor	-2336
sko	-2337
▁dei	-2338
▁ole	-2339
miş	-2340
ää	-2341
own	-2342
imo	-2343
dom	-2344
▁ef	-2345
ades	-2346
نا	-2347
uni	-2348
кра	-2349
▁nem	-2350
▁port	-2351
▁tid	-2352
aja	-2353
لم	-2354
▁cas	-2355
ische	-2356
nom	-2357
▁gal	-2358
▁को	-2359
ling	-2360
್ಯ	-2361
▁کے	-2362
▁кра	-2363
ach	-2364
دا	-2365
▁album	-2366
хи	-2367
իր	-2368
بر	-2369
ulo	-2370
▁മ	-2371
▁dag	-2372
uar	-2373
ces	-2374
▁mak	-2375
יל	-2376
▁nap	-2377
ition	-2378
คร	-2379
▁tor	-2380
ren	-2381
rav	-2382
bil	-2383
ád	-2384
▁συ	-2385
▁provin	-2386
ük	-2387
▁hadton	-2388
▁gy	-2389
▁ط	-2390
▁година	-2391
car	-2392
▁фи	-2393
▁hi	-2394
olah	-2395
ques	-2396
▁кө	-2397
▁త	-2398
uss	-2399
▁ख	-2400
af	-2401
▁р	-2402
▁사	-2403
can	-2404
angan	-2405
ros	-2406
▁ass	-2407
amente	-2408
▁anim	-2409
נה	-2410
▁esta	-2411
▁zen	-2412
del	-2413
стан	-2414
്യ	-2415
▁sú	-2416
▁ce	-2417
▁pov	-2418
▁ප	-2419
ident	-2420
▁publ	-2421
oko	-2422
fin	-2423
enti	-2424
ám	-2425
ორ	-2426
lem	-2427
ational	-2428
▁категория	-2429
▁wur	-2430
▁პ	-2431
ider	-2432
ág	-2433
nes	-2434
ych	-2435
(0000	-2436
ului	-2437
েন	-2438
▁num	-2439
▁neg	-2440
esto	-2441
▁대	-2442
した	-2443
ars	-2444
сан	-2445
öd	-2446
▁sing	-2447
рија	-2448
▁그	-2449
▁els	-2450
ới	-2451
▁asteroid	-2452
וב	-2453
টি	-2454
|000	-2455
▁tam	-2456
▁wo	-2457
род	-2458
oka	-2459
vr	-2460
лга	-2461
▁را	-2462
▁ہے	-2463
ला	-2464
▁dip	-2465
iver	-2466
mes	-2467
▁oc	-2468
▁vid	-2469
mon	-2470
''),	-2471
ίν	-2472
▁।	-2473
ான	-2474
▁hom	-2475
▁id	-2476
▁wor	-2477
ày	-2478
▁কর	-2479
▁분	-2480
▁ау	-2481
ומ	-2482
▁char	-2483
ində	-2484
oks	-2485
hol	-2486
ატ	-2487
inde	-2488
ంది	-2489
ופ	-2490
▁non	-2491
ži	-2492
ical	-2493
▁ర	-2494
▁sak	-2495
▁ci	-2496
▁ша	-2497
ән	-2498
asti	-2499
kl	-2500
▁entre	-2501
▁sud	-2502
ket	-2503
▁fun	-2504
▁int	-2505
нен	-2506
▁थ्व	-2507
▁00,0%	-2508
йын	-2509
▁ep	-2510
yi	-2511
وب	-2512
عد	-2513
รา	-2514
ument	-2515
▁एक	-2516
üm	-2517
akt	-2518
անի	-2519
▁hor	-2520
▁della	-2521
▁kil	-2522
هر	-2523
ემ	-2524
ette	-2525
▁पर	-2526
▁roz	-2527
▁επ	-2528
áz	-2529
った	-2530
റ്	-2531
▁region	-2532
▁км	-2533
nas	-2534
▁ਸ	-2535
ée	-2536
する	-2537
▁inst	-2538
ுத	-2539
▁super	-2540
ले	-2541
▁cel	-2542
τά	-2543
▁uit	-2544
пра	-2545
▁file	-2546
▁bak	-2547
▁nie	-2548
▁sist	-2549
ges	-2550
▁inf	-2551
▁ی	-2552
ет	-2553
eto	-2554
▁على	-2555
кла	-2556
anto	-2557
▁progr	-2558
▁oper	-2559
▁0:00	-2560
ley	-2561
▁cre	-2562
▁ఉ	-2563
يا	-2564
▁под	-2565
wan	-2566
cij	-2567
డు	-2568
ğı	-2569
▁ό	-2570
म्	-2571
▁mis	-2572
ურ	-2573
▁dob	-2574
▁fi	-2575
وت	-2576
rit	-2577
ές	-2578
αρ	-2579
vis	-2580
ೆಯ	-2581
▁)	-2582
osta	-2583
▁میں	-2584
nog	-2585
fil	-2586
ыр	-2587
িন	-2588
▁ક	-2589
▁sus	-2590
िस	-2591
▁לא	-2592
eka	-2593
скі	-2594
iku	-2595
▁king	-2596
zer	-2597
ace	-2598
uan	-2599
▁vil	-2600
fic	-2601
ça	-2602
▁kao	-2603
▁distr	-2604
▁mö	-2605
ิน	-2606
▁bor	-2607
▁0,000	-2608
יו	-2609
oja	-2610
▁ක	-2611
ně	-2612
▁sed	-2613
▁kra	-2614
kas	-2615
ής	-2616
iran	-2617
▁gad	-2618
ès	-2619
▁fir	-2620
cy	-2621
зен	-2622
kin	-2623
▁baş	-2624
का	-2625
▁ای	-2626
▁air	-2627
iai	-2628
▁הש	-2629
ன்ற	-2630
▁στο	-2631
зу	-2632
▁các	-2633
met	-2634
▁हो	-2635
ազ	-2636
▁প্র	-2637
ime	-2638
िय	-2639
▁his	-2640
▁որ	-2641
nej	-2642
▁hy	-2643
ss	-2644
▁aj	-2645
रा	-2646
▁0000),	-2647
ορ	-2648
ության	-2649
ოს	-2650
ങ്ങ	-2651
▁בא	-2652
ath	-2653
ån	-2654
န်	-2655
ital	-2656
▁hol	-2657
▁camp	-2658
▁0.0	-2659
стра	-2660
ória	-2661
▁bis	-2662
▁nasel	-2663
▁kad	-2664
ret	-2665
▁مع	-2666
▁tahun	-2667
ულ	-2668
00,	-2669
▁má	-2670
င်း	-2671
oto	-2672
▁mol	-2673
yan	-2674
los	-2675
▁adalah	-2676
▁lin	-2677
▁00.000	-2678
бли	-2679
লা	-2680
она	-2681
yg	-2682
രി	-2683
▁रा	-2684
cer	-2685
▁beg	-2686
ეთ	-2687
▁ә	-2688
ји	-2689
▁geb	-2690
▁ru	-2691
ների	-2692
▁depart	-2693
▁พ	-2694
្រ	-2695
endo	-2696
▁dok	-2697
ék	-2698
ื่อ	-2699
pu	-2700
▁sob	-2701
ran	-2702
▁ges	-2703
že	-2704
▁pob	-2705
jem	-2706
▁ав	-2707
ojn	-2708
ுக	-2709
▁neb	-2710
▁дру	-2711
▁אי	-2712
▁bra	-2713
aga	-2714
▁тү	-2715
▁пі	-2716
▁austr	-2717
▁prob	-2718
ence	-2719
▁sav	-2720
вя	-2721
▁bäl	-2722
ელი	-2723
ستان	-2724
▁ст	-2725
ов	-2726
nia	-2727
્ય	-2728
▁कर	-2729
ým	-2730
ının	-2731
فر	-2732
▁સ	-2733
gar	-2734
ային	-2735
рен	-2736
▁äbin	-2737
ู่	-2738
പ്പ	-2739
▁mul	-2740
▁గ	-2741
ài	-2742
▁chi	-2743
fl	-2744
ണ്	-2745
och	-2746
▁თ	-2747
مل	-2748
idade	-2749
ras	-2750
▁φ	-2751
▁inv	-2752
pel	-2753
ர்க	-2754
▁kn	-2755
ến	-2756
eden	-2757
tica	-2758
вар	-2759
▁спо	-2760
▁gar	-2761
▁շ	-2762
00%	-2763
peratur	-2764
▁დ	-2765
ства	-2766
▁word	-2767
▁kab	-2768
▁bud	-2769
oms	-2770
ಿಯ	-2771
▁lev	-2772
いる	-2773
ების	-2774
▁parte	-2775
λε	-2776
uma	-2777
▁ఆ	-2778
▁00000000	-2779
▁are	-2780
aha	-2781
het	-2782
▁ר	-2783
bal	-2784
бы	-2785
ვი	-2786
▁živ	-2787
yst	-2788
▁seu	-2789
йла	-2790
cz	-2791
ના	-2792
וע	-2793
▁arm	-2794
▁бі	-2795
».	-2796
▁গ	-2797
▁အ	-2798
▁الح	-2799
ektr	-2800
▁0000).	-2801
▁pel	-2802
мп	-2803
▁fel	-2804
kel	-2805
నా	-2806
▁stanov	-2807
uy	-2808
ните	-2809
oga	-2810
▁iš	-2811
ım	-2812
માં	-2813
сты	-2814
urt	-2815
▁aw	-2816
▁trad	-2817
▁ig	-2818
ще	-2819
сле	-2820
▁съ	-2821
edd	-2822
сей	-2823
ادی	-2824
▁prom	-2825
▁aan	-2826
esa	-2827
ume	-2828
טי	-2829
▁inn	-2830
ark	-2831
▁құ	-2832
▁pom	-2833
ಿಸ	-2834
ijos	-2835
aden	-2836
▁sept	-2837
ത്ത	-2838
▁gö	-2839
xt	-2840
ある	-2841
▁gro	-2842
▁ши	-2843
▁nav	-2844
եղ	-2845
▁that	-2846
▁fol	-2847
▁esp	-2848
▁분류	-2849
0,	-2850
▁ann	-2851
▁ду	-2852
үн	-2853
اق	-2854
ops	-2855
▁fut	-2856
▁να	-2857
лас	-2858
ron	-2859
▁фе	-2860
ası	-2861
ես	-2862
ār	-2863
uth	-2864
най	-2865
▁ez	-2866
bay	-2867
ահ	-2868
ริ	-2869
▁tə	-2870
خت	-2871
jar	-2872
▁bin	-2873
kat	-2874
▁ali	-2875
eva	-2876
یت	-2877
rev	-2878
tv	-2879
စ်	-2880
στ	-2881
▁auf	-2882
فت	-2883
ulu	-2884
ất	-2885
▁ĉ	-2886
ید	-2887
▁pil	-2888
▁ri	-2889
▁sebagai	-2890
▁пред	-2891
သည်	-2892
ట్	-2893
▁ਹ	-2894
▁vý	-2895
ട്ട	-2896
▁года	-2897
▁mill	-2898
าง	-2899
▁band	-2900
sv	-2901
▁dans	-2902
▁пер	-2903
itet	-2904
▁lä	-2905
▁мә	-2906
▁бара	-2907
▁આ	-2908
্ব	-2909
อย	-2910
mış	-2911
эр	-2912
aju	-2913
▁hän	-2914
urn	-2915
▁الق	-2916
▁mich	-2917
pol	-2918
▁koji	-2919
isto	-2920
▁stor	-2921
▁ë	-2922
▁และ	-2923
وان	-2924
eno	-2925
פר	-2926
adas	-2927
cio	-2928
atik	-2929
jes	-2930
▁եր	-2931
ants	-2932
kov	-2933
▁spes	-2934
jed	-2935
▁сво	-2936
ingen	-2937
ši	-2938
▁اور	-2939
щи	-2940
ിയ	-2941
రు	-2942
▁vor	-2943
▁мі	-2944
ull	-2945
jan	-2946
▁họ	-2947
▁בי	-2948
нде	-2949
డి	-2950
ения	-2951
iej	-2952
ép	-2953
ham	-2954
сько	-2955
▁roman	-2956
▁او	-2957
▁gan	-2958
inc	-2959
λα	-2960
▁фа	-2961
нің	-2962
▁ան	-2963
aria	-2964
્ર	-2965
kon	-2966
aba	-2967
чу	-2968
▁0000-00	-2969
▁sil	-2970
▁ਵ	-2971
مان	-2972
▁feb	-2973
áv	-2974
▁था	-2975
order	-2976
▁brit	-2977
nosti	-2978
▁مح	-2979
▁الس	-2980
มา	-2981
ტი	-2982
▁mang	-2983
λη	-2984
▁ital	-2985
▁ла	-2986
nic	-2987
íc	-2988
antes	-2989
ensis	-2990
ച്ച	-2991
unda	-2992
▁contr	-2993
▁уг	-2994
äd	-2995
вет	-2996
ukan	-2997
่น	-2998
ते	-2999
mann	-3000
alan	-3001
чен	-3002
▁blev	-3003
▁før	-3004
▁wer	-3005
▁trak	-3006
้น	-3007
▁pet	-3008
مو	-3009
▁ద	-3010
tar	-3011
osi	-3012
ција	-3013
чно	-3014
▁թվ	-3015
▁nar	-3016
tura	-3017
ule	-3018
oth	-3019
idi	-3020
▁kam	-3021
σε	-3022
▁kategória	-3023
▁etx	-3024
lia	-3025
ρι	-3026
рт	-3027
▁nach	-3028
rich	-3029
หน	-3030
логи	-3031
▁bagian	-3032
ός	-3033
yb	-3034
▁mos	-3035
▁kv	-3036
իս	-3037
▁star	-3038
isen	-3039
):	-3040
ाव	-3041
lov	-3042
িয়	-3043
2.	-3044
▁مت	-3045
ார்	-3046
bre	-3047
iza	-3048
ecta	-3049
lich	-3050
фе	-3051
ican	-3052
almente	-3053
elig	-3054
▁pir	-3055
▁σε	-3056
τι	-3057
▁শ	-3058
дно	-3059
▁ար	-3060
ाप	-3061
▁mə	-3062
ಾರ	-3063
pad	-3064
hu	-3065
pon	-3066
▁för	-3067
▁jam	-3068
вно	-3069
▁тө	-3070
▁ге	-3071
▁хо	-3072
ijn	-3073
▁జ	-3074
▁0-0	-3075
שי	-3076
iel	-3077
หล	-3078
▁ત	-3079
▁છ	-3080
▁oleh	-3081
сть	-3082
▁ಆ	-3083
▁eks	-3084
ành	-3085
▁iii	-3086
ति	-3087
▁են	-3088
▁જ	-3089
▁לה	-3090
μο	-3091
ex	-3092
ester	-3093
▁צ	-3094
▁θ	-3095
▁(0000-0000)	-3096
աղ	-3097
مد	-3098
ως	-3099
▁fre	-3100
dz	-3101
▁amin	-3102
▁пу	-3103
וק	-3104
▁obj	-3105
ød	-3106
uda	-3107
▁bulan	-3108
мат	-3109
త్	-3110
▁person	-3111
▁mah	-3112
▁rod	-3113
bit	-3114
րա	-3115
cija	-3116
▁насе	-3117
▁tv	-3118
él	-3119
ći	-3120
▁andre	-3121
▁छ	-3122
ั้ง	-3123
бі	-3124
ischen	-3125
erg	-3126
ance	-3127
▁bos	-3128
▁best	-3129
зы	-3130
дзе	-3131
من	-3132
▁gj	-3133
мер	-3134
▁എ	-3135
առ	-3136
▁йыл	-3137
ší	-3138
▁esc	-3139
kil	-3140
mat	-3141
ায়	-3142
ores	-3143
▁zeuden	-3144
▁мен	-3145
inter	-3146
▁რ	-3147
▁biz	-3148
ox	-3149
▁хуь	-3150
▁dig	-3151
ว่า	-3152
▁zn	-3153
кти	-3154
ίας	-3155
▁jap	-3156
вани	-3157
мет	-3158
aman	-3159
ლის	-3160
▁ಇ	-3161
▁(0000–0000)	-3162
्ट	-3163
▁vä	-3164
ती	-3165
km	-3166
▁spesies	-3167
ijas	-3168
▁thể	-3169
▁tit	-3170
lay	-3171
▁spr	-3172
▁آن	-3173
▁prz	-3174
▁hat	-3175
▁zo	-3176
▁cam	-3177
্ট	-3178
▁کا	-3179
ху	-3180
▁une	-3181
eda	-3182
▁ბ	-3183
ını	-3184
▁dre	-3185
ная	-3186
ცი	-3187
ef	-3188
িল	-3189
тт	-3190
bas	-3191
▁թվական	-3192
▁τον	-3193
▁uma	-3194
▁uk	-3195
dy	-3196
▁conc	-3197
anje	-3198
วิ	-3199
ря	-3200
့်	-3201
టి	-3202
จาก	-3203
▁nek	-3204
▁adolah	-3205
ეგ	-3206
θη	-3207
▁cho	-3208
rik	-3209
يل	-3210
ετ	-3211
▁hans	-3212
ிக்க	-3213
▁grad	-3214
ില	-3215
▁bez	-3216
▁છે	-3217
issa	-3218
ారు	-3219
▁수	-3220
▁mac	-3221
เร	-3222
ომ	-3223
▁end	-3224
री	-3225
▁ਕ	-3226
šk	-3227
hn	-3228
▁set	-3229
▁য	-3230
war	-3231
نگ	-3232
▁коды	-3233
▁natur	-3234
pin	-3235
uten	-3236
itas	-3237
elen	-3238
usa	-3239
še	-3240
▁tab	-3241
rom	-3242
vu	-3243
▁בש	-3244
icht	-3245
чни	-3246
ativ	-3247
νη	-3248
▁που	-3249
sc	-3250
▁ส	-3251
▁dv	-3252
cional	-3253
ater	-3254
▁jul	-3255
ří	-3256
ем	-3257
▁yer	-3258
▁stad	-3259
▁has	-3260
ப்பு	-3261
חר	-3262
▁magn	-3263
▁lond	-3264
▁naz	-3265
orth	-3266
сті	-3267
ಗೆ	-3268
▁gran	-3269
ble	-3270
iten	-3271
▁რო	-3272
▁pok	-3273
▁bre	-3274
ал	-3275
reg	-3276
over	-3277
▁র	-3278
▁für	-3279
رت	-3280
વા	-3281
ania	-3282
▁poz	-3283
uka	-3284
▁voj	-3285
▁ше	-3286
uf	-3287
ams	-3288
oug	-3289
▁στην	-3290
alla	-3291
াম	-3292
▁խ	-3293
дер	-3294
ện	-3295
рыя	-3296
▁qui	-3297
ely	-3298
▁ket	-3299
▁भा	-3300
гаре	-3301
▁хуьлу	-3302
▁ფ	-3303
eae	-3304
oria	-3305
tan	-3306
▁ili	-3307
から	-3308
ाम	-3309
▁drug	-3310
ober	-3311
ional	-3312
èr	-3313
▁لل	-3314
hen	-3315
nim	-3316
aki	-3317
▁시	-3318
dır	-3319
кс	-3320
▁рес	-3321
ந்து	-3322
▁lar	-3323
vol	-3324
▁הת	-3325
ydd	-3326
▁ktor	-3327
▁լ	-3328
եց	-3329
ello	-3330
▁ги	-3331
מו	-3332
iny	-3333
▁list	-3334
ña	-3335
▁ia	-3336
▁इस	-3337
▁וה	-3338
को	-3339
נת	-3340
bb	-3341
▁tri	-3342
lap	-3343
▁mir	-3344
▁syn	-3345
onna	-3346
▁или	-3347
▁այ	-3348
...	-3349
▁peri	-3350
▁más	-3351
iment	-3352
त्र	-3353
бра	-3354
▁sor	-3355
סי	-3356
ைக	-3357
sl	-3358
igen	-3359
▁הע	-3360
▁ren	-3361
▁уггаре	-3362
▁ham	-3363
▁ತ	-3364
ेश	-3365
▁cs	-3366
▁cul	-3367
des	-3368
▁пи	-3369
ism	-3370
▁ок	-3371
▁υ	-3372
buah	-3373
yar	-3374
▁fac	-3375
če	-3376
▁या	-3377
▁się	-3378
▁же	-3379
▁door	-3380
▁ah	-3381
▁yo	-3382
čk	-3383
▁grand	-3384
ave	-3385
teri	-3386
وں	-3387
èn	-3388
▁των	-3389
▁resp	-3390
▁ಪ್ರ	-3391
assa	-3392
ัด	-3393
alog	-3394
కి	-3395
ให	-3396
дни	-3397
▁arth	-3398
▁trakten	-3399
▁alg	-3400
▁ஒ	-3401
atra	-3402
▁princip	-3403
owa	-3404
ità	-3405
తి	-3406
▁سال	-3407
gal	-3408
▁york	-3409
ரா	-3410
▁ത	-3411
къ	-3412
aks	-3413
inu	-3414
omen	-3415
apa	-3416
▁00.0	-3417
аны	-3418
сту	-3419
)''	-3420
right	-3421
▁वर्	-3422
รร	-3423
▁వి	-3424
adem	-3425
▁cir	-3426
▁elektr	-3427
▁ped	-3428
▁가	-3429
▁지	-3430
▁ov	-3431
сла	-3432
نی	-3433
ണ്ട	-3434
мехь	-3435
ony	-3436
▁아	-3437
uks	-3438
▁dol	-3439
▁барамехь	-3440
▁lim	-3441
anc	-3442
▁від	-3443
เก	-3444
ria	-3445
dı	-3446
่ว	-3447
▁ნ	-3448
▁dun	-3449
โด	-3450
yle	-3451
▁τα	-3452
ված	-3453
▁ने	-3454
дин	-3455
egen	-3456
▁nos	-3457
orie	-3458
uer	-3459
ภา	-3460
ზე	-3461
ρί	-3462
ման	-3463
▁0000/	-3464
▁famili	-3465
▁чи	-3466
ახ	-3467
eu	-3468
▁ഇ	-3469
umi	-3470
▁dels	-3471
odi	-3472
▁بال	-3473
▁memb	-3474
ము	-3475
ња	-3476
▁што	-3477
▁غ	-3478
eck	-3479
เม	-3480
었다	-3481
▁mid	-3482
tek	-3483
ян	-3484
ுக்க	-3485
▁ച	-3486
ake	-3487
ский	-3488
▁ø	-3489
nost	-3490
վել	-3491
▁pon	-3492
▁ք	-3493
ikk	-3494
▁mur	-3495
▁sw	-3496
▁ай	-3497
▁vart	-3498
▁kel	-3499
▁labing	-3500
▁ĝ	-3501
▁00-00	-3502
▁situ	-3503
▁الب	-3504
▁دا	-3505
zia	-3506
ติ	-3507
ның	-3508
ிரு	-3509
cel	-3510
▁전	-3511
▁mens	-3512
usta	-3513
▁फ	-3514
▁για	-3515
▁tip	-3516
ταν	-3517
ild	-3518
▁અ	-3519
▁мар	-3520
čen	-3521
anti	-3522
gin	-3523
ministr	-3524
ாவ	-3525
▁anti	-3526
uto	-3527
מי	-3528
▁బ	-3529
▁лі	-3530
ಟ್	-3531
▁vien	-3532
àn	-3533
क्ष	-3534
▁long	-3535
0)	-3536
éc	-3537
пі	-3538
▁הח	-3539
▁ค	-3540
ργ	-3541
ilis	-3542
▁lifay	-3543
edi	-3544
▁peng	-3545
oce	-3546
000.	-3547
лып	-3548
อก	-3549
ười	-3550
će	-3551
вање	-3552
▁till	-3553
odo	-3554
▁willi	-3555
▁aqu	-3556
▁մի	-3557
ುವ	-3558
டி	-3559
èt	-3560
▁produc	-3561
▁prot	-3562
▁চ	-3563
▁vic	-3564
okan	-3565
ят	-3566
цца	-3567
नी	-3568
▁пр	-3569
কে	-3570
▁рай	-3571
▁not	-3572
әне	-3573
▁উ	-3574
▁има	-3575
▁võ	-3576
▁një	-3577
یم	-3578
ுற	-3579
тел	-3580
osti	-3581
olf	-3582
▁الج	-3583
istan	-3584
omb	-3585
ров	-3586
▁insecta	-3587
▁हैं	-3588
ách	-3589
▁համ	-3590
apat	-3591
ics	-3592
▁care	-3593
iau	-3594
raz	-3595
▁okt	-3596
▁فر	-3597
वा	-3598
عة	-3599
เท	-3600
▁기	-3601
ball	-3602
lab	-3603
ovo	-3604
▁ret	-3605
oro	-3606
▁πρ	-3607
▁iv	-3608
uts	-3609
ක්	-3610
ogu	-3611
ને	-3612
▁оп	-3613
ත්	-3614
▁comm	-3615
skog	-3616
▁১	-3617
▁frå	-3618
▁ја	-3619
యి	-3620
ash	-3621
▁προ	-3622
skih	-3623
cial	-3624
తు	-3625
▁pad	-3626
▁ros	-3627
াত	-3628
▁rela	-3629
қа	-3630
pet	-3631
เล	-3632
дә	-3633
ება	-3634
▁nev	-3635
'').	-3636
-00000	-3637
▁alt	-3638
▁jos	-3639
▁zap	-3640
زی	-3641
ình	-3642
וצ	-3643
▁하	-3644
opa	-3645
▁dev	-3646
tres	-3647
▁dü	-3648
▁제	-3649
ორი	-3650
▁sat	-3651
idos	-3652
▁mell	-3653
onia	-3654
uru	-3655
əl	-3656
ंग	-3657
enter	-3658
って	-3659
▁ent	-3660
▁sad	-3661
ươ	-3662
ено	-3663
лек	-3664
nen	-3665
isten	-3666
▁πα	-3667
▁sr	-3668
ți	-3669
▁ම	-3670
ầu	-3671
▁أن	-3672
үү	-3673
sten	-3674
άν	-3675
▁rh	-3676
ος	-3677
що	-3678
▁پر	-3679
▁hand	-3680
יא	-3681
లి	-3682
▁ін	-3683
▁arg	-3684
เด	-3685
inta	-3686
ander	-3687
рал	-3688
esc	-3689
قد	-3690
▁для	-3691
▁bla	-3692
▁animalia	-3693
ков	-3694
mal	-3695
entes	-3696
emen	-3697
▁sj	-3698
▁press	-3699
سم	-3700
ოლ	-3701
tal	-3702
▁rek	-3703
▁ll	-3704
ной	-3705
رة	-3706
iii	-3707
ილ	-3708
▁през	-3709
▁dra	-3710
дам	-3711
ылы	-3712
sku	-3713
▁leb	-3714
▁nat	-3715
▁svoj	-3716
—0000	-3717
iju	-3718
▁gw	-3719
▁бай	-3720
det	-3721
▁зна	-3722
ուս	-3723
▁sit	-3724
▁border	-3725
lek	-3726
ный	-3727
hel	-3728
чки	-3729
ós	-3730
▁cell	-3731
ുട	-3732
حد	-3733
optera	-3734
oval	-3735
พระ	-3736
▁wal	-3737
▁අ	-3738
ations	-3739
▁bay	-3740
ahr	-3741
osp	-3742
εν	-3743
گر	-3744
לה	-3745
μέ	-3746
رک	-3747
ật	-3748
ından	-3749
xe	-3750
▁περ	-3751
▁ή	-3752
▁ál	-3753
וג	-3754
vir	-3755
▁१	-3756
ương	-3757
▁пар	-3758
▁вре	-3759
▁sn	-3760
сен	-3761
ുക	-3762
▁saint	-3763
▁ses	-3764
▁πο	-3765
▁drž	-3766
ines	-3767
த்	-3768
მა	-3769
jadi	-3770
▁ই	-3771
gg	-3772
ಿಕ	-3773
ms	-3774
ago	-3775
isu	-3776
▁này	-3777
pre	-3778
▁ordo	-3779
▁الد	-3780
hal	-3781
ತ್ತು	-3782
▁кар	-3783
jel	-3784
▁स्	-3785
idu	-3786
▁vit	-3787
▁sloven	-3788
▁sum	-3789
▁hum	-3790
icip	-3791
▁að	-3792
▁kingdom	-3793
éd	-3794
▁баш	-3795
▁người	-3796
▁mez	-3797
▁unit	-3798
యు	-3799
ère	-3800
▁års	-3801
▁main	-3802
öv	-3803
▁pow	-3804
▁world	-3805
▁dy	-3806
ová	-3807
▁august	-3808
su	-3809
שר	-3810
हा	-3811
ario	-3812
▁είν	-3813
▁гру	-3814
ize	-3815
▁είναι	-3816
▁intern	-3817
▁telev	-3818
ič	-3819
یں	-3820
▁dor	-3821
emperatur	-3822
▁ആ	-3823
▁۲	-3824
▁eller	-3825
وج	-3826
▁kes	-3827
ිය	-3828
▁בע	-3829
▁afr	-3830
omas	-3831
▁proj	-3832
ции	-3833
bert	-3834
тор	-3835
қан	-3836
ír	-3837
▁пере	-3838
нь	-3839
▁یک	-3840
τερ	-3841
ным	-3842
▁న	-3843
ns	-3844
▁ఇ	-3845
▁stanovnika	-3846
ಾಗಿ	-3847
אר	-3848
▁sul	-3849
▁लि	-3850
्रे	-3851
uel	-3852
▁fri	-3853
▁უ	-3854
▁university	-3855
▁бол	-3856
هم	-3857
▁ভ	-3858
▁prv	-3859
▁vez	-3860
gy	-3861
իկ	-3862
▁મ	-3863
şı	-3864
▁ქ	-3865
▁ost	-3866
▁estis	-3867
ło	-3868
▁mund	-3869
-0.	-3870
ird	-3871
}-	-3872
נים	-3873
upakan	-3874
റ്റ	-3875
▁kop	-3876
gre	-3877
emat	-3878
asan	-3879
**	-3880
ตร	-3881
amo	-3882
ето	-3883
▁ри	-3884
▁olar	-3885
rad	-3886
اف	-3887
dot	-3888
tag	-3889
▁forma	-3890
ู้	-3891
ின	-3892
taj	-3893
ides	-3894
▁ps	-3895
▁הק	-3896
▁dik	-3897
din	-3898
ướ	-3899
▁למ	-3900
▁hij	-3901
ioni	-3902
ուր	-3903
ించ	-3904
▁merupakan	-3905
ската	-3906
ური	-3907
▁comun	-3908
áng	-3909
لام	-3910
▁tamb	-3911
last	-3912
이다	-3913
▁pam	-3914
อน	-3915
uti	-3916
▁ರ	-3917
▁ҡ	-3918
emperaturen	-3919
▁mala	-3920
▁ide	-3921
▁pak	-3922
▁بن	-3923
ford	-3924
ევ	-3925
▁lj	-3926
▁febru	-3927
▁ध	-3928
);	-3929
skap	-3930
ுவ	-3931
▁arch	-3932
▁bek	-3933
ité	-3934
▁হয়	-3935
ದು	-3936
▁unha	-3937
mä	-3938
žen	-3939
▁pass	-3940
▁kos	-3941
այի	-3942
etan	-3943
eltemperaturen	-3944
yer	-3945
โดย	-3946
pp	-3947
upa	-3948
ské	-3949
▁தொ	-3950
▁pour	-3951
ката	-3952
▁إلى	-3953
իա	-3954
▁bio	-3955
▁klub	-3956
▁ai	-3957
▁ис	-3958
ход	-3959
mus	-3960
▁phil	-3961
▁bot	-3962
imin	-3963
لك	-3964
▁usa	-3965
ща	-3966
त्त	-3967
▁lug	-3968
▁00,00	-3969
▁фран	-3970
фа	-3971
မျ	-3972
τε	-3973
▁wurde	-3974
▁zem	-3975
lazi	-3976
ực	-3977
ves	-3978
mor	-3979
ुर	-3980
▁سے	-3981
▁aast	-3982
hat	-3983
рат	-3984
bat	-3985
▁ло	-3986
▁prem	-3987
▁hon	-3988
ents	-3989
ści	-3990
▁net	-3991
מה	-3992
про	-3993
▁jako	-3994
▁wie	-3995
▁vari	-3996
ész	-3997
ས་	-3998
kal	-3999
▁പ്ര	-4000
ết	-4001
▁jar	-4002
skoj	-4003
▁att	-4004
ন্	-4005
pat	-4006
▁image	-4007
ná	-4008
enc	-4009
▁rak	-4010
▁(*	-4011
▁राज	-4012
ום	-4013
λι	-4014
tid	-4015
дың	-4016
▁tut	-4017
▁دی	-4018
▁orig	-4019
ný	-4020
embre	-4021
▁leta	-4022
өн	-4023
▁رو	-4024
▁кли	-4025
▁olan	-4026
▁mais	-4027
▁juga	-4028
ेल	-4029
يم	-4030
▁liet	-4031
▁etter	-4032
▁ras	-4033
▁செ	-4034
▁sü	-4035
▁nä	-4036
▁vas	-4037
ской	-4038
itel	-4039
ney	-4040
▁gel	-4041
▁ji	-4042
▁մե	-4043
ρά	-4044
yen	-4045
▁+	-4046
こと	-4047
▁syst	-4048
ин	-4049
▁како	-4050
▁marup	-4051
ват	-4052
له	-4053
nem	-4054
▁fost	-4055
▁bei	-4056
▁тұ	-4057
▁wi	-4058
ány	-4059
▁loại	-4060
ทย	-4061
ód	-4062
ela	-4063
คว	-4064
ші	-4065
▁tok	-4066
న్న	-4067
iano	-4068
▁ಎ	-4069
tiin	-4070
▁marupokan	-4071
▁категорија	-4072
மை	-4073
ชา	-4074
▁public	-4075
ient	-4076
▁แ	-4077
ండ	-4078
anja	-4079
imp	-4080
▁lok	-4081
▁pala	-4082
вр	-4083
▁zijn	-4084
ions	-4085
vet	-4086
▁hun	-4087
▁مس	-4088
bra	-4089
▁kem	-4090
▁dz	-4091
▁jer	-4092
бер	-4093
▁iç	-4094
▁،	-4095
ləri	-4096
▁program	-4097
▁cast	-4098
▁исто	-4099
udo	-4100
▁00000	-4101
▁maoy	-4102
▁với	-4103
nar	-4104
iks	-4105
▁west	-4106
ပြ	-4107
▁viv	-4108
ική	-4109
ಾದ	-4110
кий	-4111
▁ก	-4112
әм	-4113
▁الش	-4114
เข	-4115
▁''(	-4116
▁paul	-4117
ους	-4118
▁rich	-4119
্ষ	-4120
▁köz	-4121
ний	-4122
▁한	-4123
▁alle	-4124
erne	-4125
লে	-4126
gro	-4127
▁độ	-4128
▁વ	-4129
▁catég	-4130
ப்பட்ட	-4131
▁club	-4132
▁off	-4133
▁municip	-4134
.:	-4135
▁және	-4136
ulan	-4137
ogra	-4138
ần	-4139
ct	-4140
▁juli	-4141
ник	-4142
াই	-4143
ët	-4144
▁ਨ	-4145
дна	-4146
ев	-4147
▁frans	-4148
▁ν	-4149
▁catégorie	-4150
▁filum	-4151
публи	-4152
ია	-4153
▁kre	-4154
дэ	-4155
!!	-4156
▁vz	-4157
יק	-4158
tri	-4159
▁sas	-4160
fol	-4161
▁kant	-4162
cije	-4163
тель	-4164
aceae	-4165
dor	-4166
κα	-4167
▁mont	-4168
hl	-4169
▁fot	-4170
▁ned	-4171
igan	-4172
லை	-4173
త్ర	-4174
ாட்ட	-4175
▁opp	-4176
▁ਪ	-4177
▁பெ	-4178
dar	-4179
tas	-4180
▁ат	-4181
orge	-4182
▁juo	-4183
▁komun	-4184
▁обла	-4185
лла	-4186
▁ken	-4187
ved	-4188
һы	-4189
եգ	-4190
▁cum	-4191
pers	-4192
ске	-4193
iner	-4194
▁фу	-4195
ਾਂ	-4196
▁ά	-4197
abr	-4198
▁rem	-4199
yə	-4200
في	-4201
ึ่ง	-4202
▁الإ	-4203
ంలో	-4204
hor	-4205
else	-4206
▁categorie	-4207
ния	-4208
arch	-4209
▁भार	-4210
ارد	-4211
law	-4212
ute	-4213
ərə	-4214
อร์	-4215
یش	-4216
सा	-4217
اع	-4218
▁sang	-4219
0"	-4220
lim	-4221
▁arthrop	-4222
ామ	-4223
▁nun	-4224
eren	-4225
▁sobre	-4226
▁cen	-4227
ского	-4228
ന്റ	-4229
▁cz	-4230
▁шы	-4231
▁arthropoda	-4232
▁finn	-4233
så	-4234
leri	-4235
▁մար	-4236
ibot	-4237
▁werd	-4238
▁կատ	-4239
▁park	-4240
יד	-4241
▁ও	-4242
▁liv	-4243
▁hem	-4244
▁kong	-4245
ની	-4246
лары	-4247
ედ	-4248
▁njeg	-4249
▁diptera	-4250
هل	-4251
ิด	-4252
▁guer	-4253
imal	-4254
ény	-4255
▁life	-4256
nak	-4257
ome	-4258
تی	-4259
▁pros	-4260
▁کو	-4261
ให้	-4262
द्	-4263
▁də	-4264
▁đã	-4265
▁tat	-4266
▁так	-4267
▁000-000	-4268
üt	-4269
▁sci	-4270
▁αυ	-4271
ific	-4272
▁jac	-4273
▁정	-4274
▁rum	-4275
▁yıl	-4276
اء	-4277
▁۱۹	-4278
ыу	-4279
▁start	-4280
вата	-4281
বে	-4282
▁pav	-4283
▁sua	-4284
לא	-4285
▁שה	-4286
र्व	-4287
▁гу	-4288
rå	-4289
▁هم	-4290
atel	-4291
্যা	-4292
istas	-4293
▁palibot	-4294
“,	-4295
▁sun	-4296
зя	-4297
▁عن	-4298
▁kot	-4299
cher	-4300
เพ	-4301
ایی	-4302
wy	-4303
ıs	-4304
▁الن	-4305
▁lag	-4306
жу	-4307
▁sant	-4308
ադ	-4309
▁jak	-4310
стро	-4311
▁бро	-4312
ುತ್ತ	-4313
ார	-4314
נו	-4315
ಂತ	-4316
▁tag	-4317
טר	-4318
اص	-4319
▁йылға	-4320
گان	-4321
▁kter	-4322
▁plat	-4323
▁있다	-4324
ერი	-4325
▁mut	-4326
▁стра	-4327
သည်။	-4328
▁nog	-4329
▁dop	-4330
▁const	-4331
্রে	-4332
▁בת	-4333
zon	-4334
երի	-4335
eau	-4336
bs	-4337
xa	-4338
āk	-4339
يك	-4340
ոլ	-4341
▁administr	-4342
sel	-4343
്ള	-4344
aca	-4345
▁sich	-4346
isc	-4347
न्द	-4348
▁อ	-4349
▁ხ	-4350
рія	-4351
▁ಜ	-4352
fo	-4353
▁өзен	-4354
▁kit	-4355
▁mind	-4356
ార్	-4357
▁general	-4358
▁gör	-4359
geb	-4360
。0000	-4361
lus	-4362
▁הוא	-4363
▁מש	-4364
encia	-4365
nj	-4366
essa	-4367
▁sie	-4368
ەک	-4369
▁liter	-4370
▁kelas	-4371
–00	-4372
▁ở	-4373
hd	-4374
▁ling	-4375
▁kep	-4376
▁cun	-4377
▁hul	-4378
ei	-4379
രു	-4380
▁mik	-4381
ple	-4382
▁kä	-4383
ijk	-4384
▁қо	-4385
▁առ	-4386
▁german	-4387
▁సం	-4388
▁september	-4389
▁օ	-4390
pas	-4391
▁он	-4392
▁buvo	-4393
nat	-4394
▁bila	-4395
▁주	-4396
▁pend	-4397
uku	-4398
▁****	-4399
ιν	-4400
чна	-4401
▁pier	-4402
▁kilom	-4403
▁ур	-4404
▁հայ	-4405
▁rap	-4406
рито	-4407
▁bus	-4408
▁окру	-4409
кта	-4410
▁gam	-4411
ള്ള	-4412
alı	-4413
▁अन	-4414
abin	-4415
▁ਅ	-4416
eve	-4417
▁ilə	-4418
▁mc	-4419
්ර	-4420
กับ	-4421
จะ	-4422
▁organiz	-4423
▁दु	-4424
nis	-4425
▁бассей	-4426
▁lem	-4427
աստ	-4428
▁ද	-4429
idad	-4430
▁pra	-4431
▁ದ	-4432
kor	-4433
▁dim	-4434
asil	-4435
▁civ	-4436
ները	-4437
▁imper	-4438
σει	-4439
▁жер	-4440
ിക്ക	-4441
rt	-4442
▁пры	-4443
▁مد	-4444
▁ts	-4445
ové	-4446
▁ос	-4447
▁არ	-4448
▁enpres	-4449
▁일	-4450
ilor	-4451
▁кі	-4452
пре	-4453
իտ	-4454
ные	-4455
ća	-4456
ajo	-4457
▁бө	-4458
ोग	-4459
anta	-4460
վում	-4461
тын	-4462
әр	-4463
▁yap	-4464
▁него	-4465
inal	-4466
▁industr	-4467
kur	-4468
cs	-4469
▁janu	-4470
них	-4471
ey	-4472
▁wy	-4473
سب	-4474
ture	-4475
कार	-4476
ls	-4477
ком	-4478
ision	-4479
▁deb	-4480
اک	-4481
▁катэ	-4482
ുന്നു	-4483
▁বা	-4484
ном	-4485
के	-4486
▁ima	-4487
▁ś	-4488
աշ	-4489
ться	-4490
▁desc	-4491
▁катэго	-4492
▁све	-4493
▁lah	-4494
▁bäldot	-4495
▁muz	-4496
▁št	-4497
▁ré	-4498
▁planet	-4499
ota	-4500
▁fak	-4501
dən	-4502
▁sau	-4503
مریک	-4504
တွ	-4505
tes	-4506
▁class	-4507
пера	-4508
ool	-4509
="0"	-4510
աբ	-4511
عب	-4512
uld	-4513
▁lou	-4514
▁û	-4515
▁serv	-4516
ız	-4517
กล	-4518
my	-4519
▁ہے۔	-4520
fs	-4521
▁jun	-4522
лк	-4523
▁prema	-4524
кон	-4525
."	-4526
▁cin	-4527
▁सा	-4528
▁катэгорыя	-4529
vod	-4530
sim	-4531
ปี	-4532
cep	-4533
:000	-4534
▁вла	-4535
ange	-4536
ัว	-4537
nych	-4538
▁нај	-4539
▁რომ	-4540
ոս	-4541
iller	-4542
skom	-4543
ույ	-4544
itr	-4545
ախ	-4546
▁but	-4547
amento	-4548
▁مج	-4549
▁jose	-4550
▁tap	-4551
die	-4552
ിൽ	-4553
▁să	-4554
ավոր	-4555
▁astr	-4556
▁მი	-4557
δο	-4558
мә	-4559
lie	-4560
▁бассейны	-4561
jas	-4562
eles	-4563
ính	-4564
▁الك	-4565
stad	-4566
▁record	-4567
▁pes	-4568
ša	-4569
▁године	-4570
vers	-4571
▁hog	-4572
▁eine	-4573
omin	-4574
▁sid	-4575
▁οι	-4576
▁선	-4577
לו	-4578
ích	-4579
▁бер	-4580
▁zav	-4581
ကြ	-4582
ρε	-4583
став	-4584
▁тер	-4585
▁også	-4586
ская	-4587
უნ	-4588
mel	-4589
▁max	-4590
дро	-4591
▁осно	-4592
င့်	-4593
ρχ	-4594
жен	-4595
▁telah	-4596
uw	-4597
рин	-4598
▁ਜ	-4599
ský	-4600
▁lat	-4601
ated	-4602
▁cur	-4603
ъл	-4604
фор	-4605
ios	-4606
ապ	-4607
▁loài	-4608
յան	-4609
日本	-4610
▁pou	-4611
ಂಡ	-4612
das	-4613
anas	-4614
ması	-4615
דר	-4616
▁cm	-4617
скай	-4618
▁terr	-4619
▁중	-4620
▁habit	-4621
ազմ	-4622
▁це	-4623
ison	-4624
▁дә	-4625
▁ტ	-4626
▁ט	-4627
▁atau	-4628
σι	-4629
▁zv	-4630
ოვ	-4631
اش	-4632
htë	-4633
ალი	-4634
▁jug	-4635
skim	-4636
esp	-4637
oti	-4638
▁ಗ	-4639
aten	-4640
▁бар	-4641
ця	-4642
である	-4643
▁ты	-4644
ાર	-4645
▁už	-4646
ικό	-4647
▁পর	-4648
ijo	-4649
cie	-4650
▁ян	-4651
iser	-4652
шо	-4653
▁gol	-4654
▁rol	-4655
▁এক	-4656
▁import	-4657
ρό	-4658
icos	-4659
eur	-4660
zh	-4661
▁ала	-4662
▁பக	-4663
ಾನ	-4664
kol	-4665
▁ó	-4666
ουν	-4667
ều	-4668
ანი	-4669
▁ಮತ್ತು	-4670
▁poč	-4671
يس	-4672
øl	-4673
uzten	-4674
▁стано	-4675
했다	-4676
▁prez	-4677
ಗಳು	-4678
하였	-4679
▁’	-4680
ivo	-4681
▁william	-4682
▁iki	-4683
ാന	-4684
▁mm	-4685
avo	-4686
dal	-4687
edo	-4688
▁pang	-4689
่อง	-4690
▁bahin	-4691
igi	-4692
ေး	-4693
rin	-4694
ún	-4695
مال	-4696
▁bit	-4697
▁һәм	-4698
adu	-4699
▁|	-4700
▁pert	-4701
▁kommun	-4702
ул	-4703
่าง	-4704
ään	-4705
اح	-4706
ərbay	-4707
▁εκ	-4708
▁жыл	-4709
▁cant	-4710
нал	-4711
ું	-4712
▁alex	-4713
▁..	-4714
ാണ്	-4715
▁укра	-4716
▁ਵਿ	-4717
▁tidak	-4718
ली	-4719
▁republik	-4720
▁itu	-4721
▁då	-4722
▁кан	-4723
▁הפ	-4724
ally	-4725
ív	-4726
ართ	-4727
▁یا	-4728
▁jean	-4729
▁ռ	-4730
ไม	-4731
zu	-4732
▁că	-4733
▁bib	-4734
mad	-4735
として	-4736
▁над	-4737
▁estr	-4738
▁다	-4739
▁لە	-4740
▁ию	-4741
itza	-4742
▁kin	-4743
ět	-4744
▁len	-4745
mos	-4746
รั	-4747
ihan	-4748
vas	-4749
נג	-4750
▁ëd	-4751
▁baz	-4752
▁skup	-4753
ср	-4754
▁yar	-4755
ict	-4756
िन	-4757
▁ու	-4758
лер	-4759
тет	-4760
alem	-4761
ความ	-4762
far	-4763
รับ	-4764
▁ram	-4765
тро	-4766
వి	-4767
ది	-4768
▁bij	-4769
▁što	-4770
zel	-4771
▁जात	-4772
hem	-4773
▁rock	-4774
▁ile	-4775
▁sistem	-4776
▁ildə	-4777
▁శ	-4778
lis	-4779
ungs	-4780
دم	-4781
из	-4782
dur	-4783
▁ը	-4784
▁edil	-4785
▁வி	-4786
است	-4787
ập	-4788
ুর	-4789
nam	-4790
▁αν	-4791
ús	-4792
wn	-4793
ड़	-4794
▁plu	-4795
▁kw	-4796
rip	-4797
ump	-4798
▁arr	-4799
▁lom	-4800
▁भाष	-4801
▁real	-4802
▁đi	-4803
▁नि	-4804
▁že	-4805
▁priv	-4806
يت	-4807
▁bab	-4808
шт	-4809
▁tä	-4810
ρη	-4811
oca	-4812
▁bh	-4813
▁atr	-4814
▁න	-4815
uke	-4816
▁kontr	-4817
don	-4818
ವು	-4819
atus	-4820
ogo	-4821
▁הס	-4822
▁juni	-4823
tions	-4824
ால	-4825
▁tako	-4826
▁bon	-4827
ээ	-4828
▁ako	-4829
▁bug	-4830
▁april	-4831
▁("	-4832
▁::	-4833
вич	-4834
sol	-4835
▁số	-4836
ไป	-4837
いた	-4838
сында	-4839
▁जु	-4840
లా	-4841
▁maria	-4842
▁iş	-4843
▁anton	-4844
lash	-4845
ӏа	-4846
ły	-4847
▁pentr	-4848
าล	-4849
off	-4850
тинен	-4851
film	-4852
ரி	-4853
▁david	-4854
ဖြ	-4855
ён	-4856
xi	-4857
idir	-4858
▁хи	-4859
ök	-4860
▁(00.	-4861
ത്ര	-4862
วด	-4863
▁robert	-4864
oup	-4865
ัย	-4866
ี้	-4867
▁thành	-4868
▁constr	-4869
voj	-4870
кет	-4871
▁pin	-4872
үр	-4873
▁gir	-4874
ốc	-4875
▁адам	-4876
ന്റെ	-4877
▁enc	-4878
▁сле	-4879
▁espa	-4880
נית	-4881
مع	-4882
्ड	-4883
eds	-4884
ही	-4885
▁nalazi	-4886
asc	-4887
▁것	-4888
ận	-4889
▁fj	-4890
κο	-4891
աք	-4892
▁자	-4893
▁கொ	-4894
ení	-4895
▁vom	-4896
шу	-4897
▁cha	-4898
▁феде	-4899
muş	-4900
ots	-4901
▁gadā	-4902
μά	-4903
ראש	-4904
▁şə	-4905
▁ning	-4906
unan	-4907
ាន	-4908
inger	-4909
▁sab	-4910
था	-4911
imut	-4912
▁ֆ	-4913
▁tod	-4914
хі	-4915
ların	-4916
вод	-4917
မှ	-4918
▁tür	-4919
אי	-4920
▁cont	-4921
estr	-4922
▁λ	-4923
▁kayu	-4924
ათ	-4925
iya	-4926
▁00,000	-4927
▁kamp	-4928
▁000.000	-4929
μπ	-4930
▁aur	-4931
▁тра	-4932
▁سن	-4933
گاه	-4934
▁ook	-4935
▁paris	-4936
▁zw	-4937
▁категорія	-4938
sti	-4939
өр	-4940
ví	-4941
▁като	-4942
တ်	-4943
iak	-4944
▁via	-4945
▁ná	-4946
▁raj	-4947
▁nob	-4948
ters	-4949
▁ವಿ	-4950
egu	-4951
▁hay	-4952
▁eit	-4953
bur	-4954
ால்	-4955
tain	-4956
edr	-4957
▁им	-4958
ంత	-4959
fat	-4960
utt	-4961
हे	-4962
▁miss	-4963
▁prime	-4964
▁mån	-4965
▁fig	-4966
▁əs	-4967
से	-4968
ño	-4969
▁һыу	-4970
▁cond	-4971
ници	-4972
▁ев	-4973
▁жо	-4974
▁ذ	-4975
▁đầu	-4976
сси	-4977
▁як	-4978
▁viet	-4979
ద్	-4980
ải	-4981
ით	-4982
▁yr	-4983
ões	-4984
hir	-4985
ությունը	-4986
▁شده	-4987
מש	-4988
edik	-4989
▁հետ	-4990
лов	-4991
▁sir	-4992
▁απο	-4993
iler	-4994
▁him	-4995
iche	-4996
นา	-4997
▁hə	-4998
ပ်	-4999
▁thu	-5000
iae	-5001
usti	-5002
த்தில்	-5003
▁hir	-5004
▁00°	-5005
▁ਇ	-5006
ผู้	-5007
▁рас	-5008
▁(0.	-5009
▁00.00.	-5010
▁fund	-5011
▁sou	-5012
ường	-5013
では	-5014
äng	-5015
▁ગ	-5016
▁fue	-5017
נות	-5018
▁final	-5019
▁isch	-5020
ël	-5021
್ದ	-5022
зан	-5023
▁کر	-5024
ირ	-5025
ael	-5026
▁лу	-5027
anu	-5028
▁sebuah	-5029
hy	-5030
mark	-5031
▁equ	-5032
bel	-5033
▁november	-5034
“.	-5035
▁come	-5036
шта	-5037
▁הג	-5038
pla	-5039
omat	-5040
▁jeho	-5041
▁nd	-5042
rob	-5043
▁zb	-5044
▁mei	-5045
ilt	-5046
▁politik	-5047
များ	-5048
vent	-5049
oren	-5050
▁city	-5051
embr	-5052
▁փ	-5053
▁તે	-5054
त्	-5055
▁sti	-5056
▁պատ	-5057
▁one	-5058
▁بو	-5059
▁عام	-5060
▁tij	-5061
▁bere	-5062
▁vào	-5063
▁տար	-5064
ির	-5065
▁national	-5066
▁def	-5067
ljen	-5068
하는	-5069
▁pentru	-5070
▁hrvat	-5071
uch	-5072
▁елга	-5073
רב	-5074
ంట	-5075
хан	-5076
▁từ	-5077
ismo	-5078
вор	-5079
▁marc	-5080
estiv	-5081
ây	-5082
یلم	-5083
imutang	-5084
atr	-5085
▁nahimutang	-5086
▁இந்த	-5087
▁lui	-5088
әй	-5089
agi	-5090
▁bro	-5091
▁mark	-5092
▁공	-5093
াজ	-5094
ကို	-5095
နှ	-5096
▁fal	-5097
ाद	-5098
▁lit	-5099
▁zá	-5100
വി	-5101
▁pela	-5102
▁හ	-5103
▁सम	-5104
цу	-5105
iet	-5106
▁popula	-5107
ായി	-5108
тин	-5109
ီး	-5110
qa	-5111
ograph	-5112
▁인	-5113
▁най	-5114
ড়	-5115
ึง	-5116
рон	-5117
▁స్	-5118
▁ran	-5119
▁back	-5120
lio	-5121
oa	-5122
mit	-5123
▁‘	-5124
area	-5125
▁lie	-5126
▁futbol	-5127
ebut	-5128
▁profes	-5129
اند	-5130
իմ	-5131
йынша	-5132
▁sup	-5133
▁유	-5134
elas	-5135
▁klas	-5136
▁portug	-5137
ல்ல	-5138
ಿನ	-5139
▁הב	-5140
ို့	-5141
0000000	-5142
нов	-5143
▁amerika	-5144
▁מא	-5145
▁இரு	-5146
וש	-5147
▁경	-5148
iu	-5149
ản	-5150
▁զ	-5151
šč	-5152
ச்ச	-5153
▁бойынша	-5154
▁hid	-5155
▁kaz	-5156
▁song	-5157
▁які	-5158
egr	-5159
▁само	-5160
▁pic	-5161
▁mend	-5162
uran	-5163
mis	-5164
▁իր	-5165
rian	-5166
▁doc	-5167
ped	-5168
▁acc	-5169
▁భ	-5170
▁μέ	-5171
mag	-5172
▁alla	-5173
ộc	-5174
ondo	-5175
▁എന്ന	-5176
ಂದು	-5177
okka	-5178
▁bid	-5179
նակ	-5180
▁nhi	-5181
▁მო	-5182
astr	-5183
тай	-5184
pend	-5185
▁så	-5186
▁kod	-5187
ām	-5188
▁рэ	-5189
、0000	-5190
aron	-5191
ਾਰ	-5192
eza	-5193
ərbaycan	-5194
oi	-5195
ail	-5196
με	-5197
وق	-5198
đu	-5199
▁δια	-5200
ước	-5201
rag	-5202
పు	-5203
▁климат	-5204
িস	-5205
uit	-5206
▁tari	-5207
▁роз	-5208
▁më	-5209
▁sah	-5210
▁lalek	-5211
yat	-5212
ği	-5213
eria	-5214
▁prav	-5215
ئی	-5216
iliz	-5217
▁tang	-5218
uns	-5219
▁mart	-5220
τή	-5221
сын	-5222
▁hag	-5223
ளை	-5224
▁cos	-5225
لف	-5226
▁stand	-5227
мери	-5228
ാര	-5229
րան	-5230
ington	-5231
oden	-5232
δα	-5233
▁ple	-5234
▁جو	-5235
ەر	-5236
мя	-5237
▁học	-5238
▁lud	-5239
usk	-5240
▁harr	-5241
inas	-5242
▁құра	-5243
▁muse	-5244
ory	-5245
▁veg	-5246
▁mand	-5247
ष्ट	-5248
▁τους	-5249
▁ι	-5250
بل	-5251
▁dru	-5252
ums	-5253
nd	-5254
された	-5255
▁dell	-5256
میل	-5257
եգոր	-5258
▁вер	-5259
▁efter	-5260
▁onder	-5261
▁agus	-5262
リー	-5263
▁фор	-5264
▁arab	-5265
▁tol	-5266
▁كان	-5267
ன்ப	-5268
▁xv	-5269
▁london	-5270
lands	-5271
▁tech	-5272
رف	-5273
്ല	-5274
дия	-5275
▁koja	-5276
фі	-5277
ერთ	-5278
▁ett	-5279
மி	-5280
्री	-5281
פי	-5282
াস	-5283
тал	-5284
▁ус	-5285
ുടെ	-5286
aler	-5287
וכ	-5288
বং	-5289
▁къ	-5290
▁bad	-5291
ức	-5292
েশ	-5293
▁మరి	-5294
”,	-5295
เส	-5296
heim	-5297
▁nik	-5298
াক	-5299
▁geme	-5300
▁divers	-5301
iei	-5302
кло	-5303
▁въ	-5304
▁בה	-5305
oč	-5306
ಾಯ	-5307
▁volt	-5308
▁וב	-5309
vä	-5310
▁did	-5311
▁vide	-5312
▁patr	-5313
óm	-5314
వా	-5315
inga	-5316
ùng	-5317
▁тур	-5318
▁day	-5319
▁estado	-5320
▁уча	-5321
ciones	-5322
▁бил	-5323
▁شد	-5324
▁contin	-5325
▁sos	-5326
ныя	-5327
גור	-5328
▁luc	-5329
اج	-5330
ిన	-5331
▁после	-5332
▁ikke	-5333
▁dam	-5334
▁relig	-5335
▁stol	-5336
▁gov	-5337
band	-5338
▁ജ	-5339
▁หม	-5340
inə	-5341
rid	-5342
▁plus	-5343
gl	-5344
▁ایر	-5345
▁կատեգոր	-5346
▁put	-5347
▁style	-5348
▁hø	-5349
▁fon	-5350
եռ	-5351
ual	-5352
ois	-5353
oji	-5354
ición	-5355
лем	-5356
▁she	-5357
жы	-5358
▁ใน	-5359
▁nakon	-5360
ржа	-5361
▁הצ	-5362
nt	-5363
ungen	-5364
ender	-5365
स्त	-5366
▁sep	-5367
rez	-5368
ον	-5369
▁elec	-5370
iew	-5371
▁《	-5372
▁durante	-5373
▁կատեգորիա	-5374
անակ	-5375
▁હ	-5376
ಿತ	-5377
▁nasod	-5378
▁сто	-5379
ium	-5380
ekti	-5381
▁you	-5382
▁agr	-5383
▁kt	-5384
டுக	-5385
▁გა	-5386
▁frank	-5387
▁lam	-5388
ibu	-5389
ijke	-5390
▁دو	-5391
▁zum	-5392
скиот	-5393
inis	-5394
าส	-5395
esse	-5396
▁континен	-5397
ން	-5398
ရှ	-5399
hod	-5400
▁δι	-5401
▁pus	-5402
inte	-5403
▁اهل	-5404
▁ఈ	-5405
erste	-5406
▁occ	-5407
▁कु	-5408
▁вели	-5409
▁cla	-5410
▁ib	-5411
ест	-5412
ദ്	-5413
yal	-5414
▁এবং	-5415
▁arte	-5416
▁гер	-5417
▁zit	-5418
้อง	-5419
▁lö	-5420
իլ	-5421
▁nacional	-5422
▁như	-5423
izi	-5424
▁inform	-5425
alb	-5426
ece	-5427
▁autor	-5428
▁peter	-5429
▁radio	-5430
لس	-5431
oper	-5432
▁0,0%	-5433
રી	-5434
▁khi	-5435
йы	-5436
arum	-5437
▁mae	-5438
วย	-5439
▁(0000,	-5440
ంగ	-5441
ште	-5442
▁bev	-5443
▁{	-5444
▁tö	-5445
には	-5446
ils	-5447
▁olarak	-5448
▁hö	-5449
رك	-5450
σης	-5451
▁sonra	-5452
▁เป็น	-5453
ăr	-5454
bet	-5455
nov	-5456
▁ड	-5457
▁ës	-5458
")	-5459
▁עם	-5460
▁gor	-5461
inė	-5462
êr	-5463
sky	-5464
▁feder	-5465
ட்ச	-5466
▁byl	-5467
▁runt	-5468
stand	-5469
ार्	-5470
▁سر	-5471
الی	-5472
ards	-5473
▁ком	-5474
ulus	-5475
▁থ	-5476
тели	-5477
▁tour	-5478
том	-5479
ದಲ್ಲಿ	-5480
անում	-5481
ाय	-5482
мле	-5483
stvo	-5484
▁menjadi	-5485
▁music	-5486
ền	-5487
ั้น	-5488
▁що	-5489
▁orient	-5490
▁naselje	-5491
hin	-5492
▁this	-5493
نى	-5494
يو	-5495
▁မ	-5496
▁perts	-5497
▁hier	-5498
▁count	-5499
▁oh	-5500
ēr	-5501
pun	-5502
▁২	-5503
▁شهر	-5504
▁äd	-5505
▁george	-5506
▁போ	-5507
edia	-5508
▁është	-5509
▁кои	-5510
ajn	-5511
ன்ன	-5512
ibus	-5513
يات	-5514
▁कि	-5515
able	-5516
ுள்ள	-5517
ণী	-5518
વે	-5519
▁ұ	-5520
nek	-5521
ായ	-5522
▁nuo	-5523
▁ју	-5524
▁riv	-5525
ර්	-5526
ент	-5527
▁부	-5528
▁kultur	-5529
ంగా	-5530
▁скла	-5531
▁보	-5532
▁pie	-5533
میلادی	-5534
▁repres	-5535
▁zak	-5536
▁tháng	-5537
▁око	-5538
▁ädabin	-5539
iš	-5540
▁unter	-5541
لة	-5542
によ	-5543
▁(,	-5544
▁동	-5545
ప్	-5546
zem	-5547
▁esis	-5548
əd	-5549
lec	-5550
▁vuonna	-5551
ión	-5552
ונה	-5553
▁други	-5554
ől	-5555
▁ഉ	-5556
▁ανα	-5557
adr	-5558
เจ	-5559
пар	-5560
▁위	-5561
erb	-5562
ི་	-5563
hav	-5564
▁ని	-5565
द्ध	-5566
ങ്ങള	-5567
ाग	-5568
nor	-5569
ских	-5570
εται	-5571
ом	-5572
ης	-5573
חק	-5574
▁leng	-5575
▁די	-5576
▁zar	-5577
▁మరియు	-5578
▁अध	-5579
▁koh	-5580
▁гэ	-5581
▁гла	-5582
▁mé	-5583
ied	-5584
ეტ	-5585
▁which	-5586
▁చే	-5587
umu	-5588
▁gab	-5589
uba	-5590
▁vend	-5591
çı	-5592
णी	-5593
▁قر	-5594
ого	-5595
θηκε	-5596
ய்	-5597
ിച്ച	-5598
ată	-5599
iaj	-5600
▁sö	-5601
лин	-5602
anse	-5603
ಕ್ಕ	-5604
áu	-5605
▁εν	-5606
нат	-5607
uak	-5608
▁време	-5609
▁neder	-5610
▁ಒ	-5611
ทาง	-5612
▁kis	-5613
йынса	-5614
▁russ	-5615
ствен	-5616
▁mě	-5617
▁الف	-5618
ราช	-5619
▁эн	-5620
▁không	-5621
מת	-5622
▁буйынса	-5623
▁кху	-5624
ody	-5625
▁anno	-5626
ds	-5627
кте	-5628
▁бела	-5629
ough	-5630
tico	-5631
▁mj	-5632
yun	-5633
ம்ப	-5634
▁sag	-5635
▁lis	-5636
وز	-5637
▁út	-5638
ope	-5639
▁слу	-5640
▁кхуза	-5641
ље	-5642
кси	-5643
ът	-5644
uter	-5645
ικά	-5646
▁বিষ	-5647
ði	-5648
ང་	-5649
ther	-5650
bes	-5651
▁ما	-5652
▁bang	-5653
лык	-5654
ąc	-5655
بد	-5656
▁ల	-5657
▁dist	-5658
▁zam	-5659
▁январ	-5660
▁mov	-5661
sal	-5662
יב	-5663
ymp	-5664
эл	-5665
kap	-5666
▁hist	-5667
રા	-5668
нас	-5669
imat	-5670
▁स्थ	-5671
იდ	-5672
▁kral	-5673
ەی	-5674
וח	-5675
▁üç	-5676
лия	-5677
▁بعد	-5678
▁کرد	-5679
▁vum	-5680
vin	-5681
ுப்பு	-5682
▁ամ	-5683
▁dek	-5684
եմ	-5685
▁james	-5686
נט	-5687
tet	-5688
osto	-5689
▁sever	-5690
hte	-5691
▁syahan	-5692
วัน	-5693
noj	-5694
nica	-5695
در	-5696
къа	-5697
▁sov	-5698
▁jej	-5699
ளில்	-5700
▁kle	-5701
▁उप	-5702
erst	-5703
▁จ	-5704
▁ara	-5705
ground	-5706
▁น	-5707
หมู่	-5708
▁waar	-5709
örd	-5710
ുള്ള	-5711
▁ต	-5712
ъе	-5713
▁ഒ	-5714
▁mari	-5715
▁jur	-5716
▁prev	-5717
▁становни	-5718
ಲ್ಲ	-5719
▁zuen	-5720
▁വി	-5721
نج	-5722
čki	-5723
ాని	-5724
▁ans	-5725
▁מה	-5726
kir	-5727
ीन	-5728
▁pem	-5729
imas	-5730
▁primer	-5731
▁систе	-5732
دی	-5733
ველ	-5734
шти	-5735
하고	-5736
▁ըն	-5737
▁չ	-5738
gas	-5739
үй	-5740
▁imp	-5741
ding	-5742
tel	-5743
▁qual	-5744
indən	-5745
שה	-5746
▁kup	-5747
▁santa	-5748
ण्ड	-5749
opsida	-5750
ဲ့	-5751
ris	-5752
пер	-5753
áp	-5754
্থ	-5755
되었다	-5756
▁will	-5757
▁north	-5758
▁produk	-5759
يون	-5760
▁реест	-5761
utsch	-5762
при	-5763
▁kim	-5764
▁që	-5765
कर	-5766
ững	-5767
▁kate	-5768
esso	-5769
▁hit	-5770
cho	-5771
▁अप	-5772
▁лю	-5773
▁cole	-5774
ਤੇ	-5775
ĝis	-5776
তি	-5777
▁بل	-5778
▁äbinon	-5779
▁ਮ	-5780
ოდ	-5781
кы	-5782
▁ල	-5783
ệt	-5784
▁ара	-5785
тив	-5786
▁jen	-5787
▁हु	-5788
anh	-5789
▁sind	-5790
▁gia	-5791
mir	-5792
▁sport	-5793
▁hogy	-5794
▁latin	-5795
▁conf	-5796
▁jon	-5797
▁:*	-5798
nin	-5799
▁christ	-5800
gel	-5801
ety	-5802
▁сы	-5803
itos	-5804
ând	-5805
etü	-5806
▁გამ	-5807
gt	-5808
▁mans	-5809
▁קט	-5810
скага	-5811
ृत	-5812
▁direc	-5813
▁oldu	-5814
▁més	-5815
$00	-5816
▁ര	-5817
▁hil	-5818
doti	-5819
▁બ	-5820
▁বিষয়	-5821
▁மற்ற	-5822
ರೆ	-5823
▁সম	-5824
▁ně	-5825
قة	-5826
▁yra	-5827
▁mort	-5828
क्त	-5829
▁nim	-5830
bul	-5831
ாத	-5832
тура	-5833
san	-5834
▁tres	-5835
oba	-5836
▁zur	-5837
▁barr	-5838
mak	-5839
▁영	-5840
كان	-5841
▁cab	-5842
▁۲۰	-5843
ίου	-5844
▁הכ	-5845
bon	-5846
cı	-5847
▁бра	-5848
วง	-5849
▁hall	-5850
اط	-5851
▁fem	-5852
▁mic	-5853
▁slu	-5854
▁অন	-5855
raj	-5856
▁மு	-5857
▁0000;	-5858
▁nes	-5859
▁بود	-5860
▁ఎ	-5861
òr	-5862
тов	-5863
▁էր	-5864
heid	-5865
▁000-	-5866
ows	-5867
azione	-5868
▁ସ	-5869
▁भी	-5870
▁löd	-5871
ğu	-5872
▁out	-5873
▁tai	-5874
▁oktober	-5875
▁tas	-5876
orum	-5877
ais	-5878
סט	-5879
tır	-5880
▁sac	-5881
อา	-5882
▁ih	-5883
ている	-5884
תה	-5885
▁lid	-5886
itik	-5887
▁аб	-5888
ター	-5889
անդ	-5890
ვა	-5891
čke	-5892
čka	-5893
عت	-5894
▁உள்ள	-5895
γκ	-5896
óg	-5897
▁mom	-5898
▁조	-5899
տն	-5900
▁mereka	-5901
ái	-5902
▁bäldoti	-5903
▁lifayelas	-5904
▁tin	-5905
▁ilk	-5906
ลง	-5907
ર્	-5908
ಾರ್	-5909
▁آمریک	-5910
▁dil	-5911
▁mig	-5912
ದೆ	-5913
onesia	-5914
▁ஒரு	-5915
▁apar	-5916
աջ	-5917
ına	-5918
יע	-5919
हर	-5920
▁über	-5921
రా	-5922
вання	-5923
ogen	-5924
▁bun	-5925
nja	-5926
кот	-5927
uen	-5928
לים	-5929
▁wet	-5930
च्या	-5931
▁første	-5932
ிவ	-5933
▁تح	-5934
inst	-5935
ழ்	-5936
▁profess	-5937
jak	-5938
etta	-5939
▁johann	-5940
ьх	-5941
▁dum	-5942
ville	-5943
نان	-5944
▁institu	-5945
▁roce	-5946
▁وت	-5947
▁жана	-5948
ทํา	-5949
▁кы	-5950
tere	-5951
▁ჩ	-5952
▁rat	-5953
▁году	-5954
▁keb	-5955
▁kho	-5956
ában	-5957
▁champ	-5958
▁ӏа	-5959
▁koje	-5960
▁francis	-5961
ром	-5962
▁등	-5963
▁những	-5964
▁pur	-5965
▁미	-5966
▁sama	-5967
▁dap	-5968
icus	-5969
▁orang	-5970
utat	-5971
▁kali	-5972
▁kumb	-5973
▁кри	-5974
▁besk	-5975
πα	-5976
hus	-5977
ensch	-5978
▁gant	-5979
icz	-5980
▁its	-5981
вал	-5982
▁county	-5983
▁यह	-5984
laste	-5985
▁ort	-5986
▁किया	-5987
ରେ	-5988
ंद	-5989
▁svet	-5990
ekk	-5991
ობა	-5992
/00	-5993
gang	-5994
avi	-5995
uko	-5996
uck	-5997
ods	-5998
وری	-5999
نس	-6000
▁luokka	-6001
қы	-6002
▁oz	-6003
▁ters	-6004
▁were	-6005
▁00.0%	-6006
▁இவ	-6007
▁ont	-6008
დან	-6009
▁сі	-6010
▁inde	-6011
үлә	-6012
െയ	-6013
tie	-6014
▁واق	-6015
▁bed	-6016
iem	-6017
forma	-6018
'';	-6019
▁သ	-6020
idth	-6021
▁american	-6022
ოფ	-6023
ործ	-6024
▁аьх	-6025
▁ث	-6026
▁οπο	-6027
▁cop	-6028
ุด	-6029
その	-6030
▁cens	-6031
▁ένα	-6032
▁flor	-6033
asında	-6034
▁마	-6035
▁lomane	-6036
ர்கள்	-6037
тары	-6038
▁sve	-6039
▁ż	-6040
▁må	-6041
▁festiv	-6042
▁charles	-6043
▁entr	-6044
▁рабо	-6045
▁international	-6046
лығы	-6047
▁lietuv	-6048
rif	-6049
▁ات	-6050
▁ekonom	-6051
tein	-6052
▁федера	-6053
тур	-6054
▁michael	-6055
▁مش	-6056
▁מס	-6057
▁nast	-6058
tia	-6059
▁уни	-6060
▁pös	-6061
▁jez	-6062
ску	-6063
▁»	-6064
▁შე	-6065
istian	-6066
▁२	-6067
▁arbe	-6068
▁ala	-6069
▁poj	-6070
igo	-6071
▁naam	-6072
▁थाय्	-6073
یز	-6074
ारा	-6075
млекет	-6076
tac	-6077
र्म	-6078
▁کار	-6079
idge	-6080
▁instr	-6081
▁szer	-6082
▁кхузахь	-6083
▁hap	-6084
ños	-6085
▁gh	-6086
▁mam	-6087
▁roma	-6088
льні	-6089
▁milit	-6090
▁xx	-6091
▁first	-6092
▁ಉ	-6093
صر	-6094
▁satu	-6095
▁posta	-6096
▁ट	-6097
λογ	-6098
ทร	-6099
▁июль	-6100
की	-6101
жно	-6102
▁hot	-6103
とな	-6104
วดหมู่	-6105
▁tudi	-6106
▁나	-6107
▁intr	-6108
ání	-6109
▁catalog	-6110
▁martin	-6111
ছে	-6112
بال	-6113
चे	-6114
ール	-6115
▁kans	-6116
eller	-6117
bə	-6118
▁twe	-6119
ρισ	-6120
yp	-6121
mt	-6122
бур	-6123
वि	-6124
▁ପ	-6125
▁шеран	-6126
▁зем	-6127
aster	-6128
έρ	-6129
қты	-6130
eral	-6131
られ	-6132
▁หมวดหมู่	-6133
▁ծ	-6134
onn	-6135
▁করে	-6136
▁ایک	-6137
▁ಸಂ	-6138
▁દ	-6139
্রেণী	-6140
▁ซ	-6141
อบ	-6142
بار	-6143
odu	-6144
▁συν	-6145
кар	-6146
cul	-6147
нг	-6148
ண்	-6149
hk	-6150
▁kons	-6151
ški	-6152
▁τι	-6153
▁сре	-6154
▁tex	-6155
▁ак	-6156
lop	-6157
ებული	-6158
ஸ்	-6159
▁south	-6160
ius	-6161
▁ox	-6162
бор	-6163
▁шу	-6164
րջ	-6165
▁오	-6166
naw	-6167
بی	-6168
▁realiz	-6169
▁واقع	-6170
vil	-6171
press	-6172
ിക	-6173
▁нь	-6174
უს	-6175
▁0)	-6176
iba	-6177
▁tik	-6178
▁čas	-6179
▁0000'	-6180
ēj	-6181
▁тэ	-6182
▁три	-6183
قی	-6184
ไม่	-6185
▁republ	-6186
▁bill	-6187
iger	-6188
▁funk	-6189
▁rez	-6190
▁हि	-6191
fon	-6192
▁school	-6193
▁time	-6194
eke	-6195
enci	-6196
чка	-6197
▁vad	-6198
▁개	-6199
డ్	-6200
▁nome	-6201
াদ	-6202
्ष	-6203
ียน	-6204
▁kumbang	-6205
بي	-6206
▁materi	-6207
▁هو	-6208
▁نام	-6209
▁compl	-6210
ছিল	-6211
ून	-6212
نت	-6213
▁кара	-6214
▁sik	-6215
▁{|	-6216
sur	-6217
▁tet	-6218
ิง	-6219
lege	-6220
wah	-6221
▁georg	-6222
▁އ	-6223
laz	-6224
ාව	-6225
▁rim	-6226
usia	-6227
▁الر	-6228
ష్	-6229
▁ті	-6230
▁(0000-0000),	-6231
▁nə	-6232
amas	-6233
▁né	-6234
▁gala	-6235
▁popular	-6236
하여	-6237
ორია	-6238
дын	-6239
▁январь	-6240
idd	-6241
cü	-6242
▁нау	-6243
upun	-6244
yw	-6245
uro	-6246
▁ric	-6247
▁!!	-6248
▁സ്	-6249
▁finns	-6250
ias	-6251
▁زمر	-6252
té	-6253
โร	-6254
▁року	-6255
▁instit	-6256
bak	-6257
ীয়	-6258
ूप	-6259
▁zituzten	-6260
▁beb	-6261
ައ	-6262
▁grande	-6263
▁element	-6264
iert	-6265
▁л	-6266
▁rok	-6267
win	-6268
hit	-6269
▁ਹੈ	-6270
▁लिए	-6271
▁ср	-6272
sm	-6273
▁bäldotü	-6274
্চ	-6275
▁аьхка	-6276
τό	-6277
abil	-6278
▁पू	-6279
elu	-6280
inden	-6281
дел	-6282
erte	-6283
ვე	-6284
adores	-6285
აც	-6286
ック	-6287
ම්	-6288
▁công	-6289
▁mô	-6290
публика	-6291
▁dh	-6292
▁gada	-6293
▁kiel	-6294
ிறது	-6295
ology	-6296
▁ಶ	-6297
сейн	-6298
▁energ	-6299
▁йов	-6300
▁ബ	-6301
▁연	-6302
వు	-6303
▁eus	-6304
neder	-6305
part	-6306
вха	-6307
ති	-6308
▁preds	-6309
,000	-6310
▁יש	-6311
▁бутт	-6312
▁tul	-6313
▁برای	-6314
▁dipl	-6315
▁dens	-6316
fel	-6317
শ্রেণী	-6318
▁белару	-6319
elles	-6320
▁polo	-6321
ილი	-6322
ank	-6323
ಷ್	-6324
▁шийла	-6325
▁local	-6326
▁бовха	-6327
▁йовха	-6328
▁say	-6329
шийла	-6330
▁ary	-6331
που	-6332
▁tại	-6333
σα	-6334
▁familie	-6335
ných	-6336
owie	-6337
▁gaz	-6338
ाली	-6339
▁actu	-6340
נד	-6341
▁hak	-6342
க்	-6343
▁sred	-6344
▁öz	-6345
▁habag	-6346
ယ်	-6347
▁serie	-6348
▁모	-6349
▁lī	-6350
▁dij	-6351
იმ	-6352
▁guerra	-6353
lja	-6354
chter	-6355
▁ਦੇ	-6356
ardo	-6357
กร	-6358
▁vik	-6359
▁역	-6360
▁מת	-6361
ského	-6362
▁indonesia	-6363
▁نو	-6364
▁dj	-6365
▁која	-6366
like	-6367
ður	-6368
▁மற்றும்	-6369
่ม	-6370
alde	-6371
▁مق	-6372
vik	-6373
▁ժ	-6374
stva	-6375
▁એ	-6376
енча	-6377
▁parlam	-6378
вали	-6379
▁авто	-6380
ojen	-6381
▁היה	-6382
▁ஊ	-6383
ouw	-6384
ská	-6385
▁երկ	-6386
▁nó	-6387
▁ves	-6388
▁vest	-6389
▁вой	-6390
љу	-6391
ื่อง	-6392
▁dins	-6393
▁ήταν	-6394
▁kategoriya	-6395
▁село	-6396
▁islam	-6397
▁succ	-6398
▁mest	-6399
▁teg	-6400
▁system	-6401
▁nic	-6402
▁বিষয়শ্রেণী	-6403
▁avec	-6404
▁0:	-6405
льно	-6406
مار	-6407
▁wr	-6408
ப்பட	-6409
եկ	-6410
cions	-6411
▁europe	-6412
▁web	-6413
ίδ	-6414
кедо	-6415
▁زمرہ	-6416
pus	-6417
เว	-6418
্প	-6419
ंत	-6420
▁00:00	-6421
▁ফ	-6422
▁yaz	-6423
▁berg	-6424
лады	-6425
▁stre	-6426
вала	-6427
0000.	-6428
তে	-6429
ಾಡ	-6430
kes	-6431
յու	-6432
ذا	-6433
мағы	-6434
мпи	-6435
▁fc	-6436
ining	-6437
▁континентан	-6438
▁jest	-6439
న్ని	-6440
الات	-6441
ูก	-6442
ensa	-6443
▁الص	-6444
чо	-6445
ời	-6446
לק	-6447
ких	-6448
▁italia	-6449
øn	-6450
▁difer	-6451
ိုင်	-6452
iforn	-6453
icas	-6454
στη	-6455
▁zd	-6456
▁소	-6457
мал	-6458
▁دور	-6459
กัน	-6460
ља	-6461
▁lun	-6462
აშ	-6463
▁भारत	-6464
▁provincia	-6465
▁объе	-6466
▁கோ	-6467
▁hadde	-6468
सी	-6469
▁комп	-6470
▁பகுப்பு	-6471
▁တ	-6472
ča	-6473
▁vl	-6474
▁mainit	-6475
▁blan	-6476
sto	-6477
sid	-6478
▁ray	-6479
wr	-6480
ws	-6481
▁pul	-6482
लि	-6483
▁coleoptera	-6484
рад	-6485
క్క	-6486
יים	-6487
▁izan	-6488
▁line	-6489
▁modern	-6490
خر	-6491
тен	-6492
.),	-6493
ió	-6494
ুল	-6495
ches	-6496
▁sand	-6497
▁quân	-6498
get	-6499
χε	-6500
▁đến	-6501
하였다	-6502
unu	-6503
▁hann	-6504
▁econ	-6505
คม	-6506
▁meter	-6507
▁буенча	-6508
▁jär	-6509
iska	-6510
qori	-6511
▁aastal	-6512
াব	-6513
باز	-6514
wor	-6515
üş	-6516
▁etxek	-6517
▁дека	-6518
▁central	-6519
▁üz	-6520
ต่	-6521
▁0.00	-6522
▁pobla	-6523
▁berlin	-6524
▁oder	-6525
▁dub	-6526
อยู่	-6527
ók	-6528
act	-6529
▁दे	-6530
iset	-6531
▁ಚ	-6532
нага	-6533
▁pero	-6534
▁bern	-6535
▁meny	-6536
ない	-6537
tibo	-6538
▁bog	-6539
line	-6540
üs	-6541
▁thi	-6542
▁hai	-6543
▁ایران	-6544
ника	-6545
▁tala	-6546
▁rah	-6547
wal	-6548
▁defin	-6549
▁tras	-6550
▁gib	-6551
tive	-6552
unya	-6553
ాలు	-6554
וני	-6555
▁beste	-6556
▁التي	-6557
▁кү	-6558
نه	-6559
▁fram	-6560
લા	-6561
ვის	-6562
▁ј	-6563
▁lip	-6564
ാല	-6565
ელს	-6566
зда	-6567
▁neu	-6568
୍ର	-6569
ối	-6570
had	-6571
▁aŭ	-6572
▁lik	-6573
lal	-6574
ின்ற	-6575
ಟ್ಟ	-6576
ತ್ರ	-6577
ünd	-6578
▁дәүлә	-6579
▁kla	-6580
ків	-6581
▁test	-6582
▁gü	-6583
สม	-6584
ivat	-6585
▁së	-6586
png	-6587
▁ŝ	-6588
▁đó	-6589
▁କ	-6590
вай	-6591
ском	-6592
▁fyr	-6593
▁nep	-6594
▁consider	-6595
▁tele	-6596
▁dette	-6597
など	-6598
zie	-6599
ever	-6600
ceae	-6601
cular	-6602
▁ingår	-6603
▁կազմ	-6604
▁ض	-6605
▁ked	-6606
ții	-6607
▁бъ	-6608
▁...	-6609
▁incl	-6610
াহ	-6611
ใช	-6612
sak	-6613
▁europa	-6614
▁вя	-6615
▁تھ	-6616
anj	-6617
etatik	-6618
▁ಸ್	-6619
▁doğ	-6620
lor	-6621
▁ting	-6622
amen	-6623
wie	-6624
àng	-6625
lara	-6626
lum	-6627
▁heb	-6628
йл	-6629
aut	-6630
▁$	-6631
րի	-6632
▁pis	-6633
▁ఒ	-6634
μβ	-6635
▁сло	-6636
▁súa	-6637
▁ông	-6638
▁의	-6639
icia	-6640
▁ngày	-6641
▁նա	-6642
ոտ	-6643
▁sé	-6644
left	-6645
irt	-6646
eler	-6647
2,	-6648
prod	-6649
▁log	-6650
ктор	-6651
▁otr	-6652
נס	-6653
▁الخ	-6654
лік	-6655
▁term	-6656
etu	-6657
ört	-6658
aso	-6659
্ৰ	-6660
aru	-6661
▁eesti	-6662
▁сер	-6663
▁tub	-6664
▁(0000–0000),	-6665
▁मु	-6666
▁universit	-6667
ತಿ	-6668
cat	-6669
▁сан	-6670
svg	-6671
▁speci	-6672
नि	-6673
▁શ	-6674
▁kj	-6675
တွင်	-6676
▁thomas	-6677
▁emp	-6678
▁고	-6679
ələr	-6680
hand	-6681
▁binon	-6682
▁бұ	-6683
▁daar	-6684
▁trop	-6685
▁india	-6686
entu	-6687
াপ	-6688
ုံ	-6689
▁مو	-6690
ವಾ	-6691
лт	-6692
می	-6693
aris	-6694
▁komp	-6695
orang	-6696
▁aktiv	-6697
لب	-6698
gli	-6699
గు	-6700
▁sə	-6701
ikat	-6702
–000	-6703
тва	-6704
alen	-6705
▁स्व	-6706
ason	-6707
▁té	-6708
eki	-6709
▁zag	-6710
▁nú	-6711
gra	-6712
▁led	-6713
▁japan	-6714
ára	-6715
▁ele	-6716
▁fly	-6717
▁تا	-6718
ੱਚ	-6719
.).	-6720
▁أو	-6721
▁richard	-6722
ules	-6723
dic	-6724
▁ამ	-6725
▁pay	-6726
▁"''	-6727
▁tro	-6728
্ক	-6729
▁ngc	-6730
▁дар	-6731
▁vin	-6732
▁seus	-6733
api	-6734
ામ	-6735
sf	-6736
▁quốc	-6737
eten	-6738
เช	-6739
▁azərbaycan	-6740
▁also	-6741
nitt	-6742
▁foar	-6743
ल्	-6744
▁nur	-6745
odd	-6746
▁дәүләт	-6747
นี้	-6748
ote	-6749
▁খ	-6750
oke	-6751
ijan	-6752
▁ел	-6753
bus	-6754
▁הה	-6755
▁може	-6756
нар	-6757
not	-6758
ებს	-6759
▁fab	-6760
ischer	-6761
▁발	-6762
כה	-6763
laş	-6764
ย์	-6765
,00%	-6766
▁дей	-6767
▁major	-6768
▁bers	-6769
▁000,0	-6770
וז	-6771
▁contra	-6772
лог	-6773
▁-{	-6774
▁обје	-6775
רים	-6776
pis	-6777
ege	-6778
ಿಂದ	-6779
אל	-6780
▁país	-6781
emente	-6782
▁gall	-6783
zk	-6784
elli	-6785
eman	-6786
ελ	-6787
▁incr	-6788
▁nei	-6789
▁verd	-6790
xo	-6791
лай	-6792
ram	-6793
▁nebula	-6794
áb	-6795
مه	-6796
▁nova	-6797
▁ග	-6798
ுட	-6799
-000-00000	-6800
▁catalogue	-6801
ült	-6802
▁gew	-6803
▁μα	-6804
▁dies	-6805
кен	-6806
גוריה	-6807
▁bugnaw	-6808
▁הנ	-6809
ిక	-6810
adır	-6811
▁ged	-6812
▁oko	-6813
▁broj	-6814
▁поли	-6815
▁ĝi	-6816
спо	-6817
ින්	-6818
▁sí	-6819
▁vật	-6820
▁000000000000	-6821
▁pog	-6822
▁categori	-6823
スト	-6824
ските	-6825
▁според	-6826
▁dic	-6827
/0	-6828
vez	-6829
пы	-6830
▁enpresak	-6831
yj	-6832
óp	-6833
არი	-6834
▁komm	-6835
▁دے	-6836
▁cent	-6837
▁suur	-6838
fan	-6839
▁пад	-6840
ött	-6841
▁vod	-6842
mişdir	-6843
▁бассейн	-6844
▁premi	-6845
isse	-6846
log	-6847
yük	-6848
цыя	-6849
▁스	-6850
нд	-6851
тік	-6852
uo	-6853
ək	-6854
color	-6855
пен	-6856
cor	-6857
tā	-6858
▁konst	-6859
âm	-6860
ходи	-6861
ót	-6862
▁zosta	-6863
dem	-6864
▁zuten	-6865
▁hod	-6866
ิก	-6867
нда	-6868
ostr	-6869
חד	-6870
king	-6871
▁vila	-6872
вите	-6873
ektor	-6874
▁जो	-6875
▁mato	-6876
▁වි	-6877
▁česk	-6878
qoriya	-6879
▁קטגוריה	-6880
organ	-6881
้าน	-6882
स्य	-6883
▁dou	-6884
äk	-6885
▁kart	-6886
▁kateqoriya	-6887
▁도	-6888
ภาพ	-6889
▁(0)	-6890
▁rest	-6891
▁petr	-6892
▁have	-6893
ాన	-6894
פת	-6895
▁çı	-6896
▁state	-6897
▁0:0	-6898
▁тұр	-6899
▁ც	-6900
▁later	-6901
cl	-6902
▁†	-6903
γορ	-6904
▁espe	-6905
ют	-6906
adan	-6907
াৰ	-6908
▁blu	-6909
ក្	-6910
▁জন	-6911
θε	-6912
หร	-6913
гер	-6914
▁yaş	-6915
jal	-6916
ilia	-6917
▁амери	-6918
ైన	-6919
hur	-6920
▁rel	-6921
гани	-6922
yy	-6923
ецца	-6924
▁гео	-6925
teur	-6926
рио	-6927
▁kā	-6928
েল	-6929
قل	-6930
ward	-6931
რა	-6932
▁১৯	-6933
▁પ્ર	-6934
рии	-6935
'':	-6936
▁kategory	-6937
▁solid	-6938
adh	-6939
्च	-6940
торы	-6941
▁국	-6942
▁carr	-6943
้อ	-6944
öt	-6945
urnal	-6946
▁krist	-6947
гла	-6948
▁refer	-6949
пан	-6950
evo	-6951
azi	-6952
▁میش	-6953
нк	-6954
ського	-6955
ամբ	-6956
▁big	-6957
▁wind	-6958
کی	-6959
لو	-6960
പ്പെ	-6961
▁tun	-6962
▁noch	-6963
inių	-6964
кхо	-6965
▁след	-6966
iliki	-6967
ologi	-6968
▁നി	-6969
nač	-6970
enz	-6971
გი	-6972
▁segu	-6973
เน	-6974
ध्य	-6975
rael	-6976
▁vlad	-6977
▁domin	-6978
ക്ഷ	-6979
өл	-6980
rš	-6981
▁جن	-6982
לח	-6983
▁karl	-6984
▁''"	-6985
▁hov	-6986
лей	-6987
▁akadem	-6988
イン	-6989
annya	-6990
ස්	-6991
▁diff	-6992
ifor	-6993
▁fort	-6994
itud	-6995
र्य	-6996
umo	-6997
bach	-6998
akter	-6999
▁fond	-7000
▁hind	-7001
kez	-7002
▁bec	-7003
▁під	-7004
ങ്ങൾ	-7005
ares	-7006
▁love	-7007
ūr	-7008
▁भाषा	-7009
ρω	-7010
сни	-7011
bir	-7012
лект	-7013
ദേ	-7014
lama	-7015
ற்க	-7016
この	-7017
▁македо	-7018
▁সাল	-7019
terior	-7020
nym	-7021
owe	-7022
▁ஆக	-7023
пол	-7024
▁united	-7025
ври	-7026
▁ม	-7027
lige	-7028
▁ткъа	-7029
yah	-7030
▁poss	-7031
▁amerikan	-7032
تاب	-7033
▁სამ	-7034
▁στι	-7035
ống	-7036
кри	-7037
▁ref	-7038
ண்டு	-7039
ラン	-7040
คล	-7041
манга	-7042
▁prip	-7043
ലെ	-7044
tat	-7045
▁سا	-7046
▁motor	-7047
publ	-7048
лет	-7049
▁nou	-7050
▁máis	-7051
▁зо	-7052
▁โดย	-7053
ҳо	-7054
ury	-7055
िट	-7056
▁က	-7057
தி	-7058
њи	-7059
▁여	-7060
idas	-7061
ển	-7062
شر	-7063
▁राज्य	-7064
сло	-7065
▁බ	-7066
ებით	-7067
ಂಬ	-7068
дж	-7069
τος	-7070
дат	-7071
पा	-7072
▁ark	-7073
вед	-7074
▁ата	-7075
בה	-7076
▁rend	-7077
sin	-7078
ಗಳನ್ನು	-7079
▁jav	-7080
otta	-7081
rac	-7082
▁nella	-7083
იკ	-7084
ior	-7085
ษา	-7086
embro	-7087
เทศ	-7088
ност	-7089
▁villa	-7090
bah	-7091
ebr	-7092
▁тре	-7093
ėjo	-7094
äm	-7095
으며	-7096
▁são	-7097
▁план	-7098
ering	-7099
▁history	-7100
ეფ	-7101
▁ich	-7102
што	-7103
anın	-7104
▁ਬ	-7105
▁commun	-7106
enden	-7107
▁pret	-7108
arc	-7109
emu	-7110
▁وه	-7111
▁מע	-7112
▁interna	-7113
▁בס	-7114
▁island	-7115
▁väl	-7116
onstr	-7117
soci	-7118
ექ	-7119
▁تع	-7120
▁բնակ	-7121
omo	-7122
▁auch	-7123
▁ris	-7124
rea	-7125
лламан	-7126
▁구	-7127
логия	-7128
isme	-7129
iera	-7130
▁στ	-7131
мангалан	-7132
кхолламан	-7133
▁brasil	-7134
▁pozn	-7135
صل	-7136
гар	-7137
òn	-7138
ști	-7139
▁παρ	-7140
▁ਵਿੱਚ	-7141
▁chính	-7142
▁rí	-7143
▁font	-7144
ན་	-7145
arn	-7146
τας	-7147
ška	-7148
▁zač	-7149
▁пла	-7150
qi	-7151
▁који	-7152
▁два	-7153
▁obser	-7154
▁என்ற	-7155
▁dod	-7156
▁sis	-7157
▁வெ	-7158
▁ئە	-7159
าว	-7160
▁ton	-7161
▁અને	-7162
ဖြစ်	-7163
▁մաս	-7164
okat	-7165
út	-7166
▁تو	-7167
ক্ষ	-7168
▁στα	-7169
atura	-7170
▁jü	-7171
▁نے	-7172
зақ	-7173
รรม	-7174
▁opera	-7175
сем	-7176
▁eff	-7177
▁victor	-7178
▁skr	-7179
▁اب	-7180
ense	-7181
وە	-7182
chr	-7183
άρ	-7184
▁przez	-7185
ใช้	-7186
నే	-7187
maste	-7188
ंड	-7189
ussa	-7190
այն	-7191
▁세	-7192
▁stra	-7193
ται	-7194
گی	-7195
amat	-7196
▁black	-7197
▁הי	-7198
мия	-7199
▁myös	-7200
▁yü	-7201
იშ	-7202
று	-7203
▁서	-7204
▁records	-7205
▁river	-7206
န်း	-7207
okrat	-7208
▁high	-7209
תו	-7210
char	-7211
▁fle	-7212
▁musik	-7213
kaz	-7214
▁թվականին	-7215
▁კატ	-7216
▁fat	-7217
eksi	-7218
elor	-7219
ותר	-7220
▁آمریکا	-7221
▁kepada	-7222
ære	-7223
▁disc	-7224
мини	-7225
zą	-7226
▁ameri	-7227
ible	-7228
lé	-7229
ēl	-7230
âu	-7231
ット	-7232
▁sein	-7233
▁increment	-7234
▁mellom	-7235
▁украї	-7236
owy	-7237
iyon	-7238
ಂಗ	-7239
▁zah	-7240
шен	-7241
▁xu	-7242
▁신	-7243
ced	-7244
сия	-7245
▁jaz	-7246
லா	-7247
før	-7248
wood	-7249
ăn	-7250
▁ಭ	-7251
▁kini	-7252
▁ain	-7253
dje	-7254
ções	-7255
wat	-7256
▁상	-7257
scha	-7258
orden	-7259
ههای	-7260
▁кој	-7261
టు	-7262
에는	-7263
alah	-7264
▁abr	-7265
afr	-7266
lä	-7267
▁past	-7268
▁घ	-7269
trop	-7270
inā	-7271
ную	-7272
ơn	-7273
▁zaj	-7274
▁۱۳	-7275
학교	-7276
icial	-7277
▁cy	-7278
▁sunt	-7279
ugu	-7280
ปล	-7281
▁ল	-7282
▁ശ	-7283
▁τις	-7284
▁비	-7285
فا	-7286
้าง	-7287
▁dez	-7288
дра	-7289
ление	-7290
ഞ്	-7291
рий	-7292
oki	-7293
▁prima	-7294
elsen	-7295
vid	-7296
▁пера	-7297
خص	-7298
▁май	-7299
ktet	-7300
जी	-7301
рот	-7302
▁அமை	-7303
isión	-7304
▁становника	-7305
▁böl	-7306
▁район	-7307
▁был	-7308
▁prac	-7309
uno	-7310
ிட	-7311
oso	-7312
▁ני	-7313
▁teat	-7314
▁britan	-7315
ree	-7316
▁ster	-7317
▁коман	-7318
▁rot	-7319
▁سی	-7320
jang	-7321
▁olimp	-7322
lari	-7323
▁period	-7324
▁nec	-7325
▁kiu	-7326
לב	-7327
joh	-7328
ောက်	-7329
ellen	-7330
ily	-7331
िल्	-7332
00)	-7333
▁tir	-7334
şa	-7335
pes	-7336
▁ví	-7337
ener	-7338
▁mars	-7339
సి	-7340
▁przy	-7341
▁norm	-7342
▁ub	-7343
▁xix	-7344
קה	-7345
▁bron	-7346
قت	-7347
▁pit	-7348
perti	-7349
ಿದೆ	-7350
▁vok	-7351
▁pola	-7352
▁mond	-7353
หา	-7354
▁için	-7355
▁қара	-7356
▁durch	-7357
▁წლის	-7358
endi	-7359
▁cil	-7360
amin	-7361
fu	-7362
▁problem	-7363
▁αγ	-7364
▁террито	-7365
lit	-7366
▁ին	-7367
▁ստ	-7368
ním	-7369
యా	-7370
▁burg	-7371
▁హ	-7372
▁gou	-7373
ชน	-7374
yu	-7375
▁patedik	-7376
िव	-7377
λή	-7378
▁indiv	-7379
wyd	-7380
▁аз	-7381
شی	-7382
undo	-7383
್ಯಾ	-7384
▁lemes	-7385
▁delle	-7386
▁sym	-7387
▁ده	-7388
▁jus	-7389
▁मह	-7390
▁రా	-7391
▁månaden	-7392
antas	-7393
ුව	-7394
▁nej	-7395
▁без	-7396
▁glob	-7397
andr	-7398
▁0000—0000	-7399
▁تم	-7400
▁аген	-7401
▁matoari	-7402
▁מי	-7403
skej	-7404
▁00.00	-7405
arter	-7406
ချ	-7407
unakan	-7408
▁tien	-7409
ดี	-7410
▁ως	-7411
▁евро	-7412
▁фі	-7413
▁շրջ	-7414
arta	-7415
िका	-7416
roid	-7417
▁ere	-7418
ক্ত	-7419
▁nije	-7420
▁kallaste	-7421
▁poh	-7422
▁վեր	-7423
▁அவ	-7424
▁לש	-7425
▁varmaste	-7426
enschap	-7427
▁moh	-7428
▁0–	-7429
▁bola	-7430
मे	-7431
▁njih	-7432
ates	-7433
▁στις	-7434
цыі	-7435
▁đị	-7436
▁ess	-7437
▁hvor	-7438
▁årsmed	-7439
áj	-7440
స్త	-7441
وار	-7442
▁вр	-7443
▁sistema	-7444
כת	-7445
ಿದ್ದ	-7446
opp	-7447
▁termin	-7448
gs	-7449
▁vš	-7450
ush	-7451
izon	-7452
aa	-7453
ثر	-7454
▁є	-7455
мор	-7456
čno	-7457
▁estados	-7458
ech	-7459
한다	-7460
▁januari	-7461
▁tum	-7462
▁lé	-7463
मी	-7464
▁pac	-7465
בע	-7466
циона	-7467
▁daha	-7468
”.	-7469
dd	-7470
ึก	-7471
▁öl	-7472
▁dân	-7473
сля	-7474
▁zm	-7475
արի	-7476
вана	-7477
▁လ	-7478
യും	-7479
ojo	-7480
▁орна	-7481
/0000	-7482
▁კატეგ	-7483
▁ear	-7484
▁الذ	-7485
▁sør	-7486
▁запо	-7487
)、	-7488
ść	-7489
лау	-7490
▁maar	-7491
out	-7492
ції	-7493
దు	-7494
रे	-7495
देश	-7496
▁aga	-7497
તા	-7498
zet	-7499
ାର	-7500
ਸ਼	-7501
▁ומ	-7502
▁về	-7503
▁philip	-7504
kaŭ	-7505
cal	-7506
лот	-7507
აქ	-7508
▁نظ	-7509
yla	-7510
omi	-7511
мб	-7512
ief	-7513
▁επι	-7514
▁graf	-7515
▁או	-7516
▁רו	-7517
▁0-00	-7518
ță	-7519
டுத்த	-7520
▁saj	-7521
▁এই	-7522
არე	-7523
▁rang	-7524
icu	-7525
▁argent	-7526
μη	-7527
▁most	-7528
▁בשנת	-7529
ตัว	-7530
▁рі	-7531
▁nr	-7532
▁gün	-7533
маты	-7534
ವೆ	-7535
نده	-7536
▁quan	-7537
▁fried	-7538
ิต	-7539
▁hip	-7540
haus	-7541
▁κο	-7542
▁kang	-7543
ವನ್ನು	-7544
▁उत्त	-7545
▁astronom	-7546
šu	-7547
مة	-7548
▁град	-7549
▁жылы	-7550
اں	-7551
▁후	-7552
▁prote	-7553
рк	-7554
▁ip	-7555
না	-7556
úbl	-7557
antin	-7558
▁blo	-7559
▁dog	-7560
▁(0000—0000	-7561
bc	-7562
araf	-7563
мати	-7564
▁wala	-7565
rind	-7566
▁magnoli	-7567
▁để	-7568
▁კატეგორია	-7569
▁date	-7570
acing	-7571
ाइ	-7572
ոց	-7573
arte	-7574
tala	-7575
▁фо	-7576
вин	-7577
padding	-7578
▁isti	-7579
idente	-7580
▁ବ	-7581
äv	-7582
tai	-7583
ytt	-7584
▁who	-7585
▁syd	-7586
▁alter	-7587
▁შემ	-7588
▁خود	-7589
ීම	-7590
zan	-7591
rot	-7592
్యా	-7593
▁ци	-7594
▁base	-7595
▁festival	-7596
ović	-7597
רכ	-7598
बर	-7599
▁lí	-7600
aza	-7601
▁κατη	-7602
▁interpr	-7603
يه	-7604
▁align	-7605
मान	-7606
ச்	-7607
▁lle	-7608
see	-7609
▁frança	-7610
iente	-7611
▁bund	-7612
sil	-7613
▁առաջ	-7614
usu	-7615
lapse	-7616
ристи	-7617
ukt	-7618
▁model	-7619
רה	-7620
▁tersebut	-7621
▁pasa	-7622
▁soort	-7623
িনি	-7624
▁ката	-7625
tima	-7626
ické	-7627
▁mex	-7628
ورد	-7629
ục	-7630
▁prie	-7631
▁minister	-7632
▁ھ	-7633
ため	-7634
ော်	-7635
רח	-7636
▁their	-7637
▁بە	-7638
00000000000	-7639
▁ly	-7640
ikt	-7641
aku	-7642
▁background	-7643
▁обра	-7644
ване	-7645
▁deur	-7646
▁rud	-7647
mini	-7648
ವಾಗಿ	-7649
nje	-7650
▁lifayels	-7651
эг	-7652
▁jel	-7653
ਿਆ	-7654
▁filip	-7655
gol	-7656
▁ය	-7657
▁000-0	-7658
▁чу	-7659
čių	-7660
▁tiên	-7661
▁باش	-7662
▁tart	-7663
acter	-7664
fal	-7665
may	-7666
eso	-7667
▁био	-7668
▁prec	-7669
gio	-7670
▁üçün	-7671
ేశ	-7672
თა	-7673
lık	-7674
▁pē	-7675
▁хе	-7676
ជា	-7677
▁teritor	-7678
ciju	-7679
▁ner	-7680
dag	-7681
▁lor	-7682
▁الط	-7683
▁olymp	-7684
ansa	-7685
▁గ్ర	-7686
arm	-7687
▁성	-7688
00’	-7689
▁magnoliopsida	-7690
మా	-7691
ības	-7692
▁թվականի	-7693
▁cellpadding	-7694
רית	-7695
ський	-7696
▁zif	-7697
ologie	-7698
ague	-7699
▁αντ	-7700
▁nadmor	-7701
lom	-7702
ститу	-7703
▁metal	-7704
▁кор	-7705
μό	-7706
▁κατηγορ	-7707
য়ে	-7708
arden	-7709
ées	-7710
▁mõ	-7711
sam	-7712
▁kec	-7713
▁eo	-7714
स्ट	-7715
▁bö	-7716
▁ზ	-7717
▁ас	-7718
▁louis	-7719
ništ	-7720
yes	-7721
▁werden	-7722
apt	-7723
▁hoa	-7724
▁dib	-7725
▁lind	-7726
▁때	-7727
wik	-7728
utan	-7729
ites	-7730
în	-7731
▁שי	-7732
▁לע	-7733
▁joy	-7734
ného	-7735
చ్	-7736
▁latv	-7737
▁ಈ	-7738
નો	-7739
▁पु	-7740
▁polí	-7741
--	-7742
▁000,000	-7743
▁mp	-7744
▁viz	-7745
▁gas	-7746
▁joseph	-7747
▁denne	-7748
)。	-7749
стар	-7750
▁see	-7751
▁kaw	-7752
▁geld	-7753
ungan	-7754
əm	-7755
ages	-7756
đen	-7757
▁év	-7758
▁kri	-7759
istic	-7760
▁až	-7761
ется	-7762
00.000	-7763
▁scalem	-7764
obil	-7765
บุ	-7766
大学	-7767
larda	-7768
▁anh	-7769
▁mä	-7770
▁bị	-7771
▁ਤ	-7772
▁õ	-7773
بان	-7774
erah	-7775
▁сту	-7776
দ্	-7777
▁பா	-7778
▁wan	-7779
▁கா	-7780
క్ష	-7781
itus	-7782
▁dí	-7783
hes	-7784
▁ပ	-7785
▁kategorio	-7786
тно	-7787
▁ресур	-7788
ეკ	-7789
▁if	-7790
▁নি	-7791
יות	-7792
▁fiz	-7793
▁spor	-7794
isla	-7795
▁haz	-7796
▁оста	-7797
ոմ	-7798
lif	-7799
▁social	-7800
yv	-7801
▁bob	-7802
мани	-7803
ваат	-7804
idades	-7805
تا	-7806
isë	-7807
idan	-7808
▁tent	-7809
▁jahr	-7810
ตร์	-7811
▁ఒక	-7812
אה	-7813
מן	-7814
דה	-7815
ezh	-7816
ilik	-7817
ļu	-7818
მი	-7819
град	-7820
ची	-7821
andi	-7822
ires	-7823
▁ò	-7824
orde	-7825
oslav	-7826
▁том	-7827
ních	-7828
kam	-7829
əsi	-7830
oman	-7831
▁slä	-7832
▁ჯ	-7833
▁כל	-7834
นัก	-7835
▁чы	-7836
skiego	-7837
▁vald	-7838
▁pertsona	-7839
fas	-7840
▁تر	-7841
ită	-7842
τέ	-7843
ด้วย	-7844
ара	-7845
etti	-7846
▁βα	-7847
’’	-7848
ောင်	-7849
▁vál	-7850
აკ	-7851
фо	-7852
fran	-7853
itti	-7854
▁универ	-7855
ekin	-7856
डी	-7857
արձ	-7858
edy	-7859
כל	-7860
▁unidos	-7861
lip	-7862
ély	-7863
كن	-7864
▁jud	-7865
хе	-7866
▁hill	-7867
ures	-7868
երը	-7869
▁спе	-7870
▁ł	-7871
▁eerst	-7872
uki	-7873
▁data	-7874
▁(),	-7875
▁انت	-7876
▁radi	-7877
อล	-7878
▁தொக	-7879
▁ရ	-7880
anga	-7881
▁inga	-7882
ulis	-7883
evi	-7884
ties	-7885
▁get	-7886
лно	-7887
stan	-7888
▁jah	-7889
ним	-7890
ival	-7891
ไทย	-7892
▁mass	-7893
مت	-7894
חת	-7895
put	-7896
сер	-7897
▁está	-7898
▁σύ	-7899
▁memiliki	-7900
rov	-7901
tako	-7902
has	-7903
lawigan	-7904
▁sür	-7905
▁più	-7906
▁ака	-7907
gah	-7908
▁ép	-7909
▁tay	-7910
▁januar	-7911
▁buk	-7912
ület	-7913
ző	-7914
▁cost	-7915
▁labor	-7916
▁trên	-7917
▁lebih	-7918
▁teor	-7919
▁magyar	-7920
քի	-7921
प्र	-7922
бро	-7923
ivi	-7924
▁yay	-7925
ียง	-7926
▁njegov	-7927
star	-7928
▁akan	-7929
▁jes	-7930
▁ace	-7931
ilu	-7932
▁familjen	-7933
лү	-7934
▁запа	-7935
ینی	-7936
▁해	-7937
ică	-7938
▁متح	-7939
▁sự	-7940
▁geh	-7941
lič	-7942
▁وج	-7943
▁kõ	-7944
▁سو	-7945
▁exp	-7946
ëm	-7947
ட்டு	-7948
▁ву	-7949
▁част	-7950
▁тако	-7951
▁มี	-7952
▁ਲ	-7953
▁000000000	-7954
▁media	-7955
ћи	-7956
ingar	-7957
とい	-7958
▁संस्	-7959
▁بی	-7960
તી	-7961
ίο	-7962
вой	-7963
lasyon	-7964
▁bija	-7965
uste	-7966
▁zwe	-7967
▁ખ	-7968
▁publik	-7969
▁ym	-7970
fen	-7971
ือง	-7972
▁தமி	-7973
▁име	-7974
▁clar	-7975
▁אל	-7976
زار	-7977
tuak	-7978
▁εξ	-7979
▁бор	-7980
▁גע	-7981
▁ഗ	-7982
▁گر	-7983
▁fur	-7984
▁ся	-7985
▁разли	-7986
▁déc	-7987
▁dest	-7988
▁cit	-7989
ids	-7990
ष्	-7991
▁ත	-7992
▁وی	-7993
หรือ	-7994
▁revolu	-7995
σεις	-7996
▁الث	-7997
už	-7998
сці	-7999
يث	-8000
нер	-8001
ต่อ	-8002
ulle	-8003
▁сте	-8004
ської	-8005
igu	-8006
ție	-8007
▁deutsch	-8008
▁tus	-8009
▁niv	-8010
▁äbinons	-8011
šen	-8012
ța	-8013
▁као	-8014
▁esper	-8015
ング	-8016
ประเทศ	-8017
inci	-8018
fri	-8019
▁ہو	-8020
▁arī	-8021
блі	-8022
▁lietuvos	-8023
agy	-8024
မ်	-8025
ánh	-8026
▁сред	-8027
▁aux	-8028
дық	-8029
ningen	-8030
▁hart	-8031
ออก	-8032
க்கு	-8033
λέ	-8034
aje	-8035
▁ngh	-8036
▁آب	-8037
лон	-8038
▁mok	-8039
êu	-8040
انش	-8041
บบ	-8042
▁kada	-8043
ția	-8044
nice	-8045
rh	-8046
ரை	-8047
▁edit	-8048
▁trung	-8049
parti	-8050
ship	-8051
▁rou	-8052
ipe	-8053
oan	-8054
▁aber	-8055
тте	-8056
▁مر	-8057
iese	-8058
▁hein	-8059
ိုး	-8060
.000	-8061
▁reh	-8062
▁بد	-8063
bek	-8064
▁gur	-8065
▁gli	-8066
aturik	-8067
inder	-8068
국의	-8069
▁zas	-8070
િક	-8071
gj	-8072
arren	-8073
▁principal	-8074
▁κατά	-8075
▁coun	-8076
▁še	-8077
тара	-8078
три	-8079
▁тех	-8080
▁seperti	-8081
▁आहे	-8082
tus	-8083
▁بھ	-8084
ári	-8085
ník	-8086
न्त	-8087
atz	-8088
rod	-8089
▁ਉ	-8090
гыз	-8091
وي	-8092
▁norte	-8093
الم	-8094
aqu	-8095
▁weer	-8096
▁fos	-8097
▁president	-8098
ifa	-8099
▁tw	-8100
▁bü	-8101
▁activ	-8102
বি	-8103
τική	-8104
▁रूप	-8105
▁bə	-8106
▁агент	-8107
inio	-8108
▁관	-8109
▁په	-8110
▁ლ	-8111
ونی	-8112
istes	-8113
λλη	-8114
▁органи	-8115
▁amerik	-8116
ાય	-8117
зь	-8118
тот	-8119
▁वर्ग	-8120
▁prvi	-8121
▁ron	-8122
▁կար	-8123
▁ई	-8124
▁наз	-8125
▁गया	-8126
asjon	-8127
esar	-8128
aksi	-8129
bia	-8130
▁museum	-8131
▁ਰ	-8132
ब्	-8133
வு	-8134
וו	-8135
▁qar	-8136
▁cd	-8137
▁ry	-8138
▁프	-8139
▁број	-8140
▁grid	-8141
▁ön	-8142
ட்	-8143
▁цен	-8144
به	-8145
ขึ	-8146
ถึง	-8147
▁кла	-8148
▁ਦੀ	-8149
omy	-8150
λλά	-8151
ட்சி	-8152
▁विश	-8153
▁ही	-8154
ಮ್	-8155
ขึ้น	-8156
▁ძ	-8157
чко	-8158
აგ	-8159
ानी	-8160
▁iko	-8161
ləş	-8162
▁қы	-8163
सं	-8164
áo	-8165
▁bắ	-8166
▁már	-8167
iana	-8168
γρα	-8169
▁områ	-8170
клю	-8171
▁geograf	-8172
▁nhà	-8173
tras	-8174
▁ले	-8175
▁полу	-8176
▁signi	-8177
▁έχ	-8178
eland	-8179
▁desde	-8180
▁zab	-8181
▁бір	-8182
▁ಅವ	-8183
wen	-8184
▁ні	-8185
cións	-8186
▁000)	-8187
illi	-8188
▁pä	-8189
▁ř	-8190
▁kü	-8191
▁ĉe	-8192
atas	-8193
коно	-8194
▁عد	-8195
▁එ	-8196
▁دارد	-8197
্ড	-8198
inos	-8199
▁lot	-8200
клопе	-8201
▁teh	-8202
ಲು	-8203
ғары	-8204
▁award	-8205
ály	-8206
nittlig	-8207
our	-8208
▁ina	-8209
▁zi	-8210
▁compos	-8211
▁பொ	-8212
▁põ	-8213
pra	-8214
asyon	-8215
▁δη	-8216
▁yw	-8217
▁စ	-8218
jav	-8219
իդ	-8220
▁pp	-8221
▁համար	-8222
czy	-8223
arg	-8224
fød	-8225
▁fern	-8226
دار	-8227
▁exemp	-8228
▁við	-8229
▁सु	-8230
erson	-8231
ματα	-8232
▁المت	-8233
▁rub	-8234
▁genoms	-8235
▁hud	-8236
▁श्रे	-8237
▁교	-8238
ਾਲ	-8239
ower	-8240
imento	-8241
сна	-8242
▁sic	-8243
▁kwa	-8244
šie	-8245
▁carl	-8246
▁২০	-8247
▁ël	-8248
odes	-8249
▁december	-8250
ടു	-8251
▁kesk	-8252
▁rå	-8253
▁visini	-8254
▁france	-8255
▁пло	-8256
▁circ	-8257
pal	-8258
ycz	-8259
▁द्व	-8260
itate	-8261
börd	-8262
bro	-8263
շխ	-8264
ิล	-8265
чески	-8266
აში	-8267
ooria	-8268
rem	-8269
▁stal	-8270
ារ	-8271
▁ซึ่ง	-8272
▁eerste	-8273
▁yılında	-8274
ồng	-8275
ையில்	-8276
▁бълга	-8277
anie	-8278
▁æ	-8279
▁ვ	-8280
▁годзе	-8281
▁וא	-8282
▁stav	-8283
▁human	-8284
▁genomsnittlig	-8285
num	-8286
ijoje	-8287
▁släktet	-8288
σο	-8289
mək	-8290
▁•	-8291
▁все	-8292
nou	-8293
▁samo	-8294
omet	-8295
ativa	-8296
▁årsneder	-8297
▁årsnederbörd	-8298
000000	-8299
▁sezon	-8300
ội	-8301
▁წელს	-8302
▁ober	-8303
ங்கள்	-8304
▁bai	-8305
▁ill	-8306
urus	-8307
▁bilo	-8308
▁sign	-8309
قي	-8310
erde	-8311
▁что	-8312
సు	-8313
▁ല	-8314
▁bū	-8315
eron	-8316
▁prost	-8317
ისტ	-8318
चा	-8319
▁joka	-8320
▁клу	-8321
▁ջ	-8322
ominina	-8323
▁abd	-8324
▁won	-8325
ذه	-8326
▁·	-8327
▁чо	-8328
▁živelo	-8329
மாக	-8330
ικής	-8331
▁einer	-8332
ík	-8333
▁after	-8334
▁kunst	-8335
▁0-0000	-8336
▁play	-8337
ader	-8338
▁ska	-8339
▁tā	-8340
▁sez	-8341
ิส	-8342
▁naselju	-8343
▁κά	-8344
жо	-8345
rak	-8346
▁nich	-8347
▁mün	-8348
▁kok	-8349
▁gem	-8350
▁0000/00	-8351
цо	-8352
skr	-8353
-00,	-8354
циклопе	-8355
▁мате	-8356
▁pemb	-8357
▁מק	-8358
ғында	-8359
rib	-8360
ுக்கு	-8361
▁alf	-8362
▁catal	-8363
eku	-8364
▁היא	-8365
▁lei	-8366
üd	-8367
igr	-8368
▁fit	-8369
helm	-8370
ைக்	-8371
kab	-8372
▁vard	-8373
hold	-8374
▁nadmorskoj	-8375
▁dana	-8376
▁така	-8377
гө	-8378
ٹر	-8379
▁total	-8380
▁laik	-8381
تم	-8382
▁untuak	-8383
mod	-8384
utu	-8385
ichte	-8386
ifornia	-8387
▁հար	-8388
ений	-8389
úc	-8390
κό	-8391
نام	-8392
icion	-8393
▁ला	-8394
entuk	-8395
▁ano	-8396
▁மா	-8397
fir	-8398
▁lalawigan	-8399
▁govern	-8400
istä	-8401
sou	-8402
unk	-8403
▁academ	-8404
cas	-8405
▁anos	-8406
നു	-8407
▁ach	-8408
▁andr	-8409
คน	-8410
ตั้ง	-8411
▁وأ	-8412
anya	-8413
רט	-8414
▁वर्ष	-8415
tı	-8416
▁itali	-8417
▁αρχ	-8418
▁क्ष	-8419
imu	-8420
▁κατηγορία	-8421
യിൽ	-8422
▁soc	-8423
прав	-8424
▁kaominina	-8425
▁udaler	-8426
▁ana	-8427
ža	-8428
▁cup	-8429
kre	-8430
▁lain	-8431
اني	-8432
сон	-8433
▁ня	-8434
nega	-8435
elis	-8436
▁how	-8437
▁გამო	-8438
esh	-8439
▁била	-8440
лігі	-8441
▁gridcolor	-8442
ový	-8443
รี	-8444
onte	-8445
ത്തിൽ	-8446
▁pris	-8447
irk	-8448
▁ministr	-8449
งาน	-8450
▁தே	-8451
owej	-8452
▁są	-8453
▁pār	-8454
▁cav	-8455
itte	-8456
cra	-8457
انه	-8458
▁ഭ	-8459
fam	-8460
▁мно	-8461
dob	-8462
▁கு	-8463
▁dö	-8464
▁lugar	-8465
unde	-8466
▁גם	-8467
-00.	-8468
ласқан	-8469
дот	-8470
▁کہ	-8471
▁לאחר	-8472
רג	-8473
▁josé	-8474
iec	-8475
жан	-8476
であ	-8477
ート	-8478
▁due	-8479
ித்த	-8480
dat	-8481
ക്ക്	-8482
▁temperatur	-8483
▁kraj	-8484
▁two	-8485
شار	-8486
гийн	-8487
▁0-000-00000	-8488
使用	-8489
uhan	-8490
▁law	-8491
ingga	-8492
taan	-8493
ыргыз	-8494
▁fill	-8495
omp	-8496
▁dön	-8497
▁glav	-8498
',	-8499
iso	-8500
ற்ப	-8501
әс	-8502
פק	-8503
โล	-8504
▁gev	-8505
▁*0000:	-8506
▁ár	-8507
ाने	-8508
▁sono	-8509
oza	-8510
▁exist	-8511
▁алып	-8512
▁ہیں	-8513
laj	-8514
▁шко	-8515
ވެ	-8516
νται	-8517
รก	-8518
▁open	-8519
enas	-8520
лази	-8521
▁коми	-8522
▁rei	-8523
ioon	-8524
▁произ	-8525
▁0%	-8526
mente	-8527
цка	-8528
▁bell	-8529
വാ	-8530
anger	-8531
ėj	-8532
▁sia	-8533
▁ഒരു	-8534
▁ζ	-8535
▁जाता	-8536
јата	-8537
་བ	-8538
arna	-8539
▁տեղ	-8540
мар	-8541
▁تق	-8542
▁متحده	-8543
▁орналасқан	-8544
לת	-8545
▁februar	-8546
วน	-8547
▁свя	-8548
стер	-8549
ative	-8550
רת	-8551
ัญ	-8552
taa	-8553
▁poc	-8554
▁kut	-8555
تى	-8556
▁kg	-8557
ধ্য	-8558
chod	-8559
்கள்	-8560
▁игра	-8561
cias	-8562
мени	-8563
▁mw	-8564
ských	-8565
ாள	-8566
▁бү	-8567
erk	-8568
руа	-8569
ühr	-8570
ilen	-8571
čin	-8572
വർ	-8573
ogn	-8574
ყო	-8575
▁மே	-8576
▁beskrev	-8577
ew	-8578
▁бел	-8579
▁techn	-8580
▁00.00.00.000	-8581
▁barcel	-8582
kib	-8583
elja	-8584
▁dup	-8585
▁өз	-8586
ין	-8587
ίκ	-8588
▁rib	-8589
្ត	-8590
ĝo	-8591
grey	-8592
шка	-8593
స్తు	-8594
▁pää	-8595
วัด	-8596
בות	-8597
▁бри	-8598
▁solo	-8599
chu	-8600
している	-8601
▁alan	-8602
▁elő	-8603
▁toim	-8604
tev	-8605
▁euro	-8606
▁nation	-8607
▁sekolah	-8608
يخ	-8609
▁בק	-8610
ానికి	-8611
fj	-8612
кті	-8613
▁sont	-8614
0.0	-8615
▁taj	-8616
▁ایالات	-8617
▁video	-8618
lasti	-8619
▁seva	-8620
▁ମ	-8621
merik	-8622
▁ün	-8623
▁య	-8624
ките	-8625
ằng	-8626
osh	-8627
▁suk	-8628
ಿಗೆ	-8629
פה	-8630
cap	-8631
नु	-8632
▁ড	-8633
ಲೆ	-8634
ingan	-8635
にな	-8636
▁enw	-8637
▁мәлі	-8638
ást	-8639
ultan	-8640
▁pé	-8641
▁محمد	-8642
erc	-8643
▁ਗ	-8644
ಕ್ಷ	-8645
▁남	-8646
ijā	-8647
vaj	-8648
▁frem	-8649
▁kah	-8650
▁جه	-8651
▁0,00%	-8652
zio	-8653
▁eu	-8654
▁kategooria	-8655
รัฐ	-8656
తో	-8657
яб	-8658
▁~	-8659
▁աստ	-8660
▁dak	-8661
▁theo	-8662
▁leon	-8663
ראל	-8664
րդ	-8665
ће	-8666
No	-8667
ห่ง	-8668
သော	-8669
▁trib	-8670
▁anna	-8671
цен	-8672
▁வே	-8673
zione	-8674
ခဲ့	-8675
στα	-8676
▁ô	-8677
jt	-8678
िर	-8679
erm	-8680
▁thực	-8681
vit	-8682
▁resta	-8683
▁promed	-8684
▁greg	-8685
zik	-8686
டை	-8687
▁wash	-8688
oru	-8689
▁ידי	-8690
ols	-8691
рак	-8692
ăng	-8693
▁श्रेणी	-8694
ionale	-8695
inės	-8696
йды	-8697
▁opšt	-8698
كت	-8699
▁ગામ	-8700
▁dago	-8701
▁ձ	-8702
кре	-8703
iala	-8704
▁hung	-8705
▁dua	-8706
rs	-8707
▁ен	-8708
andid	-8709
▁ಸಾ	-8710
ється	-8711
▁اک	-8712
▁sai	-8713
alle	-8714
▁qo	-8715
amis	-8716
▁eb	-8717
ค์	-8718
egi	-8719
▁थास	-8720
ہر	-8721
्ह	-8722
▁francia	-8723
▁christian	-8724
ณะ	-8725
▁ер	-8726
tific	-8727
▁lamerik	-8728
west	-8729
▁anche	-8730
▁organis	-8731
▁ನಿ	-8732
▁lamerikän	-8733
ュー	-8734
නය	-8735
ոյ	-8736
▁druh	-8737
▁sabuah	-8738
графи	-8739
ysia	-8740
lasi	-8741
▁taraf	-8742
▁కొ	-8743
▁பிர	-8744
ologia	-8745
idel	-8746
ուց	-8747
ారి	-8748
▁torn	-8749
▁пове	-8750
▁республика	-8751
chan	-8752
▁vall	-8753
ทั้ง	-8754
ấn	-8755
iah	-8756
▁zat	-8757
▁முத	-8758
isan	-8759
ולי	-8760
▁house	-8761
੍ਰ	-8762
ளின்	-8763
tach	-8764
ũng	-8765
ಮಾ	-8766
้ํา	-8767
lea	-8768
▁hus	-8769
▁:''	-8770
וט	-8771
аль	-8772
▁wetenschap	-8773
▁ela	-8774
▁bod	-8775
▁ы	-8776
▁casa	-8777
borg	-8778
▁oct	-8779
▁કર	-8780
ása	-8781
▁bea	-8782
dě	-8783
▁more	-8784
akse	-8785
ണ്ട്	-8786
ثل	-8787
ാമ	-8788
անգ	-8789
▁선수	-8790
-000-0	-8791
ନ୍	-8792
▁அத	-8793
▁==	-8794
orf	-8795
person	-8796
▁κυ	-8797
▁tall	-8798
▁jum	-8799
▁ý	-8800
מים	-8801
ания	-8802
իվ	-8803
▁vai	-8804
เซ	-8805
atori	-8806
▁sõ	-8807
▁orbit	-8808
weg	-8809
▁سب	-8810
▁anc	-8811
▁kako	-8812
under	-8813
▁associ	-8814
▁henry	-8815
zej	-8816
▁many	-8817
▁partic	-8818
ষ্	-8819
▁파	-8820
▁gesch	-8821
aste	-8822
inge	-8823
ént	-8824
മായി	-8825
▁ஏ	-8826
▁방	-8827
vy	-8828
▁неко	-8829
▁rug	-8830
▁mb	-8831
▁spis	-8832
▁lov	-8833
ekom	-8834
сср	-8835
▁got	-8836
▁pertama	-8837
rift	-8838
▁ман	-8839
▁jaar	-8840
▁επί	-8841
▁ağ	-8842
стви	-8843
▁vida	-8844
aq	-8845
▁cada	-8846
▁१९	-8847
ёр	-8848
тре	-8849
érica	-8850
രുന്നു	-8851
lt	-8852
roj	-8853
тия	-8854
▁nama	-8855
▁nuk	-8856
æk	-8857
esch	-8858
▁mange	-8859
niej	-8860
▁פון	-8861
▁alc	-8862
▁пора	-8863
שת	-8864
▁dapat	-8865
いて	-8866
enne	-8867
▁rav	-8868
▁wak	-8869
▁promedyo	-8870
▁dio	-8871
▁other	-8872
▁medic	-8873
▁ო	-8874
ี่ย	-8875
னர்	-8876
▁mant	-8877
▁idi	-8878
يف	-8879
▁zaman	-8880
▁სახ	-8881
äs	-8882
ılmış	-8883
▁nederland	-8884
▁мемлекет	-8885
▁fen	-8886
liche	-8887
ící	-8888
érie	-8889
▁kro	-8890
్వ	-8891
▁onde	-8892
чин	-8893
ảng	-8894
▁میک	-8895
▁општи	-8896
дов	-8897
▁(†	-8898
ilər	-8899
lep	-8900
▁oraz	-8901
▁politi	-8902
erto	-8903
▁بين	-8904
▁asté	-8905
▁piet	-8906
ობის	-8907
ней	-8908
ặc	-8909
▁ඇ	-8910
世界	-8911
(0	-8912
λά	-8913
-{	-8914
วิทย	-8915
▁გან	-8916
▁росси	-8917
انس	-8918
▁гі	-8919
▁குற	-8920
よう	-8921
вши	-8922
enos	-8923
▁independ	-8924
▁tema	-8925
öm	-8926
гли	-8927
▁ern	-8928
ולם	-8929
িম	-8930
เอ	-8931
вър	-8932
▁width	-8933
ņu	-8934
▁conser	-8935
იტ	-8936
▁მე	-8937
▁เม	-8938
ಡ್	-8939
▁wird	-8940
▁seorang	-8941
▁khoa	-8942
▁теле	-8943
igt	-8944
աղաք	-8945
enen	-8946
ersch	-8947
,0000	-8948
лат	-8949
▁pli	-8950
یس	-8951
▁katika	-8952
тбо	-8953
рам	-8954
▁unu	-8955
▁spec	-8956
ossa	-8957
дің	-8958
▁afrika	-8959
mac	-8960
عل	-8961
ন্ত	-8962
▁υπ	-8963
▁stør	-8964
▁magnit	-8965
▁//	-8966
▁left	-8967
▁তিনি	-8968
▁astéroid	-8969
दी	-8970
ću	-8971
bt	-8972
▁ร	-8973
јан	-8974
בים	-8975
uses	-8976
▁এর	-8977
▁sla	-8978
▁kui	-8979
iona	-8980
ಯಾ	-8981
histor	-8982
▁але	-8983
▁jord	-8984
лення	-8985
מות	-8986
▁ഈ	-8987
abe	-8988
▁isang	-8989
▁sovi	-8990
▁μια	-8991
▁vul	-8992
▁smith	-8993
änd	-8994
tte	-8995
ศาส	-8996
reich	-8997
мент	-8998
कृत	-8999
▁ec	-9000
▁electr	-9001
ته	-9002
արտ	-9003
ורה	-9004
▁katol	-9005
▁장	-9006
;"	-9007
ыны	-9008
▁دار	-9009
ลา	-9010
▁ss	-9011
ního	-9012
▁kus	-9013
▁энциклопе	-9014
▁show	-9015
ift	-9016
▁uv	-9017
▁lap	-9018
வா	-9019
▁чер	-9020
▁habagatan	-9021
ील	-9022
▁ani	-9023
▁दू	-9024
▁east	-9025
μερ	-9026
isia	-9027
ктот	-9028
رس	-9029
iros	-9030
▁não	-9031
пте	-9032
▁result	-9033
▁rog	-9034
▁yari	-9035
ագր	-9036
iat	-9037
tivo	-9038
▁bộ	-9039
▁làm	-9040
วั	-9041
▁equip	-9042
eros	-9043
اپ	-9044
▁läs	-9045
ále	-9046
որդ	-9047
▁right	-9048
▁той	-9049
မြ	-9050
מצ	-9051
▁najve	-9052
▁כי	-9053
▁represent	-9054
ству	-9055
▁******	-9056
وه	-9057
นั้น	-9058
▁tika	-9059
▁તેમ	-9060
▁league	-9061
edir	-9062
▁perm	-9063
▁райо	-9064
kö	-9065
▁zad	-9066
▁гене	-9067
▁portugal	-9068
▁vrij	-9069
સ્	-9070
▁ჰ	-9071
рез	-9072
▁אין	-9073
дзі	-9074
▁narod	-9075
שים	-9076
▁θε	-9077
íu	-9078
▁municipal	-9079
▁oan	-9080
▁алек	-9081
ෙන්	-9082
anth	-9083
ół	-9084
▁yan	-9085
жна	-9086
▁--	-9087
▁نم	-9088
|''	-9089
ových	-9090
▁send	-9091
▁they	-9092
▁aleks	-9093
▁hü	-9094
▁mà	-9095
▁vec	-9096
field	-9097
szág	-9098
ธิ	-9099
▁washington	-9100
าร์	-9101
aji	-9102
ube	-9103
aram	-9104
చ్చ	-9105
ავლ	-9106
grup	-9107
▁بع	-9108
▁liga	-9109
▁له	-9110
itis	-9111
▁konc	-9112
zv	-9113
ရှိ	-9114
▁vet	-9115
▁فى	-9116
kop	-9117
▁(;	-9118
▁oa	-9119
▁κατα	-9120
▁oni	-9121
▁ام	-9122
ensi	-9123
▁design	-9124
tis	-9125
▁squ	-9126
wig	-9127
▁gepubl	-9128
tores	-9129
▁הראש	-9130
▁өлк	-9131
もの	-9132
েকে	-9133
ѓа	-9134
▁dva	-9135
schaft	-9136
▁לי	-9137
нин	-9138
λύ	-9139
луу	-9140
▁قرار	-9141
▁wel	-9142
▁παρα	-9143
spr	-9144
▁prik	-9145
▁vier	-9146
▁lak	-9147
▁mí	-9148
াগ	-9149
lang	-9150
ilar	-9151
්ය	-9152
dos	-9153
nji	-9154
ebab	-9155
▁одно	-9156
▁byla	-9157
ेत्र	-9158
▁اول	-9159
zin	-9160
uca	-9161
▁turn	-9162
▁lödane	-9163
лни	-9164
▁छ्य	-9165
▁wetenschappel	-9166
▁ment	-9167
kv	-9168
▁մարդ	-9169
ষ্ট	-9170
भाव	-9171
كل	-9172
▁nombre	-9173
▁xe	-9174
▁constitu	-9175
▁quy	-9176
ენტ	-9177
▁bom	-9178
▁sala	-9179
▁No	-9180
▁ferr	-9181
یه	-9182
egy	-9183
tiva	-9184
▁как	-9185
дағы	-9186
▁აღ	-9187
utus	-9188
тон	-9189
spacing	-9190
ณ์	-9191
▁any	-9192
▁δε	-9193
▁ді	-9194
▁کش	-9195
▁civil	-9196
ray	-9197
▁ax	-9198
لاعب	-9199
▁tiế	-9200
dt	-9201
աթ	-9202
▁ül	-9203
rab	-9204
ాయి	-9205
лови	-9206
▁epis	-9207
▁држа	-9208
▁madrid	-9209
▁́	-9210
▁tog	-9211
▁centro	-9212
พิ	-9213
▁લ	-9214
ču	-9215
▁años	-9216
ப்படுக	-9217
▁меж	-9218
▁εί	-9219
stell	-9220
ioù	-9221
▁famül	-9222
▁enero	-9223
eres	-9224
ரிய	-9225
ينة	-9226
▁kön	-9227
▁old	-9228
ôn	-9229
ској	-9230
▁боль	-9231
▁આવે	-9232
light	-9233
▁edir	-9234
▁করেন	-9235
ιά	-9236
ние	-9237
ഗ്	-9238
зия	-9239
▁grund	-9240
▁juan	-9241
kul	-9242
▁انگ	-9243
album	-9244
▁před	-9245
▁utiliz	-9246
zd	-9247
דים	-9248
pang	-9249
▁ну	-9250
▁ਅਤੇ	-9251
רצ	-9252
▁oyun	-9253
nah	-9254
lashgan	-9255
▁пър	-9256
giv	-9257
부터	-9258
▁ciud	-9259
▁была	-9260
anna	-9261
▁זה	-9262
▁hug	-9263
odik	-9264
նում	-9265
▁стан	-9266
▁무	-9267
▁שב	-9268
форма	-9269
▁daug	-9270
দের	-9271
▁sop	-9272
nici	-9273
▁ब्र	-9274
▁kub	-9275
miştir	-9276
▁tả	-9277
지만	-9278
ען	-9279
عه	-9280
▁cham	-9281
▁present	-9282
каз	-9283
hed	-9284
▁төр	-9285
▁miej	-9286
cret	-9287
िन्	-9288
▁topon	-9289
ത്യ	-9290
という	-9291
arbe	-9292
чат	-9293
▁вто	-9294
icum	-9295
fred	-9296
ディ	-9297
▁hiện	-9298
ið	-9299
hend	-9300
▁చె	-9301
сының	-9302
▁svoje	-9303
kje	-9304
fur	-9305
▁rio	-9306
▁аль	-9307
ží	-9308
▁йо	-9309
▁hett	-9310
לט	-9311
▁bran	-9312
▁isə	-9313
իչ	-9314
▁его	-9315
ిల్	-9316
ılı	-9317
▁saat	-9318
aly	-9319
▁amihan	-9320
ρου	-9321
▁naar	-9322
ುದ	-9323
▁هي	-9324
▁출	-9325
ונים	-9326
▁கொண்ட	-9327
อย่าง	-9328
▁fou	-9329
ibil	-9330
เจ้า	-9331
▁ș	-9332
iceerd	-9333
ափ	-9334
▁sex	-9335
him	-9336
כן	-9337
дары	-9338
▁народ	-9339
ಚ್	-9340
▁već	-9341
ชื่อ	-9342
dis	-9343
ทั	-9344
▁gdje	-9345
ವಿ	-9346
▁vat	-9347
▁gla	-9348
ўся	-9349
▁cultur	-9350
▁apart	-9351
▁lake	-9352
▁pub	-9353
ovin	-9354
▁zbog	-9355
ಷ್ಟ	-9356
▁underarter	-9357
ството	-9358
త్త	-9359
▁way	-9360
▁company	-9361
ké	-9362
ადგ	-9363
▁қазақ	-9364
▁ресей	-9365
chaft	-9366
ティ	-9367
მო	-9368
ape	-9369
бург	-9370
agen	-9371
▁בח	-9372
▁pjes	-9373
▁בין	-9374
▁kimi	-9375
▁china	-9376
isyen	-9377
▁konstr	-9378
▁ර	-9379
պես	-9380
మ్	-9381
▁glas	-9382
▁grupo	-9383
▁kend	-9384
iere	-9385
▁partir	-9386
▁rit	-9387
▁dov	-9388
▁това	-9389
ისი	-9390
▁besar	-9391
▁գր	-9392
ન્	-9393
тите	-9394
▁ներ	-9395
வி	-9396
▁ана	-9397
ండి	-9398
▁proceni	-9399
▁water	-9400
mé	-9401
стру	-9402
▁cellspacing	-9403
▁цар	-9404
žia	-9405
лта	-9406
йда	-9407
▁لم	-9408
▁현	-9409
▁individu	-9410
τικό	-9411
▁lub	-9412
mana	-9413
▁friedrich	-9414
سر	-9415
▁لا	-9416
▁gob	-9417
▁çox	-9418
▁fall	-9419
▁απ	-9420
နှင့်	-9421
▁äbinäd	-9422
тін	-9423
ското	-9424
imis	-9425
рек	-9426
▁cad	-9427
▁só	-9428
jun	-9429
set	-9430
▁lại	-9431
عی	-9432
▁town	-9433
▁thr	-9434
▁tren	-9435
▁२०	-9436
▁միջ	-9437
opter	-9438
امل	-9439
ško	-9440
يز	-9441
▁우	-9442
anden	-9443
また	-9444
▁store	-9445
ќе	-9446
enia	-9447
▁listade	-9448
▁centre	-9449
▁ყ	-9450
ipun	-9451
▁rag	-9452
ład	-9453
plic	-9454
ваны	-9455
▁nobel	-9456
ала	-9457
▁만	-9458
ุม	-9459
▁beliau	-9460
god	-9461
skiej	-9462
▁совет	-9463
ảo	-9464
▁olmuş	-9465
uč	-9466
σία	-9467
בית	-9468
▁жы	-9469
eh	-9470
▁ર	-9471
▁바	-9472
▁সং	-9473
ický	-9474
ત્	-9475
▁deze	-9476
▁fed	-9477
▁нача	-9478
idh	-9479
▁liber	-9480
occ	-9481
lic	-9482
mm	-9483
▁punk	-9484
▁있는	-9485
ain	-9486
▁pösods	-9487
ुप	-9488
▁աշխ	-9489
▁wis	-9490
цтва	-9491
▁elle	-9492
eru	-9493
ான்	-9494
▁vys	-9495
จํา	-9496
▁hos	-9497
nan	-9498
arth	-9499
gest	-9500
արկ	-9501
ська	-9502
.0000	-9503
ottom	-9504
یلمهای	-9505
yak	-9506
▁potr	-9507
ரச	-9508
olt	-9509
▁осо	-9510
▁একটি	-9511
่วน	-9512
нува	-9513
naselja	-9514
lot	-9515
urch	-9516
เต	-9517
▁econom	-9518
▁gepubliceerd	-9519
дей	-9520
▁hard	-9521
▁nước	-9522
ayan	-9523
▁več	-9524
▁திரு	-9525
нија	-9526
▁spir	-9527
ısı	-9528
▁color	-9529
▁team	-9530
▁উপ	-9531
▁lemesed	-9532
▁(00)	-9533
▁vast	-9534
ည်း	-9535
▁gang	-9536
▁מח	-9537
inya	-9538
kem	-9539
ონი	-9540
▁primord	-9541
▁merc	-9542
▁quat	-9543
▁türk	-9544
ery	-9545
ebabkan	-9546
вых	-9547
ểu	-9548
mil	-9549
univers	-9550
▁पूर्व	-9551
▁fik	-9552
▁live	-9553
▁beskrevs	-9554
্যান	-9555
unun	-9556
▁cui	-9557
▁influ	-9558
لال	-9559
مريك	-9560
దా	-9561
اریخ	-9562
ที่ส	-9563
ज़	-9564
lon	-9565
▁उन	-9566
▁않	-9567
▁konf	-9568
ског	-9569
▁któr	-9570
cijas	-9571
▁तथा	-9572
▁oor	-9573
ynd	-9574
▁tá	-9575
гле	-9576
letak	-9577
▁быў	-9578
▁sens	-9579
രിക്ക	-9580
▁μετα	-9581
ाह	-9582
▁وي	-9583
される	-9584
hau	-9585
ولا	-9586
ubah	-9587
▁вој	-9588
▁iden	-9589
ekte	-9590
ности	-9591
enza	-9592
др	-9593
▁franz	-9594
лож	-9595
▁cũng	-9596
σφ	-9597
▁uf	-9598
▁hur	-9599
▁tie	-9600
את	-9601
에게	-9602
▁exper	-9603
leş	-9604
atio	-9605
ூர்	-9606
▁now	-9607
▁nok	-9608
▁gjen	-9609
ėl	-9610
шки	-9611
▁član	-9612
▁belg	-9613
▁थासय्	-9614
liy	-9615
▁жат	-9616
وط	-9617
ियों	-9618
▁escr	-9619
ותו	-9620
ēja	-9621
▁etxeb	-9622
▁פר	-9623
liga	-9624
▁viol	-9625
pod	-9626
fica	-9627
क्र	-9628
▁mog	-9629
▁internet	-9630
abu	-9631
▁kult	-9632
čas	-9633
▁terletak	-9634
ད་	-9635
▁στον	-9636
▁meer	-9637
ئے	-9638
▁respublik	-9639
▁ул	-9640
▁ισ	-9641
्ञ	-9642
▁sentr	-9643
▁என்ப	-9644
▁gil	-9645
▁kost	-9646
ổi	-9647
ambyc	-9648
▁insp	-9649
agu	-9650
▁аудан	-9651
▁chu	-9652
▁энциклопедия	-9653
研究	-9654
▁ను	-9655
vest	-9656
▁fire	-9657
ümü	-9658
ரும்	-9659
▁emak	-9660
▁објектот	-9661
ල්	-9662
▁πρώ	-9663
▁대한	-9664
▁troch	-9665
lou	-9666
্গ	-9667
.0	-9668
uis	-9669
رى	-9670
▁francisco	-9671
▁enter	-9672
ต์	-9673
▁wol	-9674
ють	-9675
▁champion	-9676
▁nhất	-9677
▁verk	-9678
되어	-9679
▁geldig	-9680
୍ୟ	-9681
ುತ್ತದೆ	-9682
▁ප්ර	-9683
ében	-9684
ница	-9685
▁lut	-9686
iev	-9687
jin	-9688
пада	-9689
ượng	-9690
▁живо	-9691
▁bala	-9692
ード	-9693
ეთის	-9694
ुं	-9695
▁haar	-9696
▁đại	-9697
▁primordial	-9698
▁evrop	-9699
вре	-9700
olis	-9701
▁trat	-9702
▁israel	-9703
мира	-9704
▁stanovništ	-9705
уы	-9706
▁vak	-9707
▁ավ	-9708
tok	-9709
▁boh	-9710
▁valst	-9711
▁malaysia	-9712
ಪ್	-9713
തു	-9714
▁deel	-9715
र्थ	-9716
رض	-9717
osc	-9718
ုပ်	-9719
ambycidae	-9720
ρος	-9721
▁úl	-9722
uction	-9723
▁ਦਾ	-9724
▁hv	-9725
▁میشود	-9726
▁bass	-9727
osof	-9728
itiv	-9729
மான	-9730
▁sitt	-9731
▁قد	-9732
្ន	-9733
▁aer	-9734
ാർ	-9735
▁ради	-9736
▁joylashgan	-9737
fec	-9738
▁lõ	-9739
lje	-9740
സി	-9741
▁origin	-9742
тик	-9743
▁prij	-9744
əsində	-9745
new	-9746
reb	-9747
քում	-9748
রে	-9749
▁động	-9750
▁ligger	-9751
ικο	-9752
ollo	-9753
ائی	-9754
list	-9755
▁groot	-9756
ดง	-9757
▁0000.,	-9758
▁ир	-9759
▁sok	-9760
▁rund	-9761
▁darip	-9762
ikal	-9763
▁haw	-9764
▁থেকে	-9765
ίες	-9766
fra	-9767
شن	-9768
ży	-9769
iras	-9770
ικού	-9771
▁nen	-9772
▁tib	-9773
เบ	-9774
эй	-9775
▁mare	-9776
▁dla	-9777
▁negara	-9778
▁sod	-9779
tea	-9780
▁predstav	-9781
▁היי	-9782
sd	-9783
imb	-9784
oft	-9785
▁पह	-9786
gerek	-9787
▁etxebiz	-9788
таль	-9789
▁ژ	-9790
uela	-9791
iyan	-9792
▁bili	-9793
▁medal	-9794
ގެ	-9795
nad	-9796
▁മാ	-9797
▁sien	-9798
tida	-9799
kow	-9800
ాడు	-9801
ajor	-9802
▁meks	-9803
თან	-9804
▁север	-9805
▁ერთ	-9806
uman	-9807
▁kompl	-9808
บริ	-9809
दि	-9810
▁dël	-9811
▁archit	-9812
hid	-9813
▁keç	-9814
▁өй	-9815
▁kül	-9816
▁group	-9817
embra	-9818
▁hành	-9819
ād	-9820
ිර	-9821
▁extr	-9822
עות	-9823
▁bru	-9824
നി	-9825
▁அற	-9826
▁onun	-9827
▁свет	-9828
▁qə	-9829
▁savez	-9830
▁yhd	-9831
▁aud	-9832
▁states	-9833
▁최	-9834
йна	-9835
▁tarafından	-9836
arab	-9837
лген	-9838
ңі	-9839
▁beber	-9840
▁паў	-9841
ulla	-9842
▁хан	-9843
òng	-9844
tige	-9845
ปร	-9846
▁alem	-9847
кова	-9848
वर	-9849
▁tanggal	-9850
▁ball	-9851
árod	-9852
▁فوت	-9853
▁been	-9854
▁organiza	-9855
▁proces	-9856
న్నా	-9857
ික	-9858
seud	-9859
▁또	-9860
▁segundo	-9861
يرة	-9862
او	-9863
▁etxebizitza	-9864
ีก	-9865
▁sent	-9866
ေါ	-9867
etto	-9868
▁بار	-9869
ందు	-9870
för	-9871
emo	-9872
ರುವ	-9873
▁kör	-9874
▁tand	-9875
中国	-9876
▁nez	-9877
▁phát	-9878
▁مرد	-9879
бан	-9880
▁wit	-9881
فراد	-9882
▁ostr	-9883
▁тој	-9884
گذ	-9885
▁finan	-9886
▁braz	-9887
▁seme	-9888
หาร	-9889
ễn	-9890
izo	-9891
แห่ง	-9892
▁0000–	-9893
jos	-9894
æl	-9895
ęp	-9896
mond	-9897
гъ	-9898
▁līdz	-9899
کار	-9900
▁ಹೊ	-9901
▁okr	-9902
вания	-9903
মান	-9904
▁olun	-9905
▁0.00%	-9906
eken	-9907
ozof	-9908
▁통	-9909
टी	-9910
сына	-9911
უმ	-9912
▁déi	-9913
▁osob	-9914
▁auk	-9915
▁جي	-9916
▁ճ	-9917
▁urte	-9918
▁daripada	-9919
lıq	-9920
ახლ	-9921
illo	-9922
▁niet	-9923
▁byg	-9924
▁ora	-9925
▁ժամ	-9926
▁(«	-9927
ství	-9928
prés	-9929
▁мини	-9930
ĝas	-9931
▁сла	-9932
elj	-9933
יין	-9934
այում	-9935
▁քաղաք	-9936
ople	-9937
imit	-9938
▁между	-9939
جه	-9940
נק	-9941
▁група	-9942
▁மக்க	-9943
ạo	-9944
▁faz	-9945
ευ	-9946
cos	-9947
▁regi	-9948
''-	-9949
▁โ	-9950
▁jim	-9951
▁ott	-9952
gov	-9953
▁0000-0000.	-9954
yas	-9955
ოლო	-9956
▁commune	-9957
గి	-9958
ða	-9959
liv	-9960
▁äl	-9961
ніка	-9962
▁என	-9963
▁kota	-9964
pir	-9965
▁작	-9966
ló	-9967
яў	-9968
τικά	-9969
▁այն	-9970
وند	-9971
نے	-9972
ೇಶ	-9973
▁саны	-9974
▁нико	-9975
ައި	-9976
дом	-9977
bridge	-9978
inia	-9979
▁text	-9980
▁ayr	-9981
▁român	-9982
▁center	-9983
edes	-9984
▁corn	-9985
ей	-9986
فس	-9987
▁istor	-9988
▁map	-9989
্দ	-9990
▁vie	-9991
otball	-9992
▁hä	-9993
▁secara	-9994
▁sä	-9995
▁velik	-9996
άλ	-9997
lichen	-9998
▁enn	-9999
▁bank	-10000
▁sail	-10001
feld	-10002
ious	-10003
▁mih	-10004
▁danmark	-10005
▁ville	-10006
▁california	-10007
сите	-10008
▁գործ	-10009
ောင်း	-10010
िसें	-10011
▁(0,00%	-10012
key	-10013
ប្រ	-10014
рите	-10015
ניה	-10016
▁જે	-10017
▁сти	-10018
▁byen	-10019
aktadır	-10020
▁kala	-10021
ындағы	-10022
▁beberapa	-10023
▁freder	-10024
ခြ	-10025
▁masa	-10026
kus	-10027
▁chem	-10028
kos	-10029
▁jsou	-10030
▁учи	-10031
али	-10032
▁buc	-10033
▁thế	-10034
▁estat	-10035
egn	-10036
▁gri	-10037
▁లో	-10038
šan	-10039
▁अनु	-10040
наш	-10041
chus	-10042
sg	-10043
▁дви	-10044
▁carol	-10045
try	-10046
etik	-10047
▁chiến	-10048
bla	-10049
▁emakume	-10050
িয়ে	-10051
▁well	-10052
เมือง	-10053
ാവ	-10054
ел	-10055
▁ಹೆ	-10056
▁내	-10057
бай	-10058
▁हे	-10059
▁hlav	-10060
కా	-10061
тера	-10062
დი	-10063
▁ที่	-10064
ಕ್ಕೆ	-10065
iero	-10066
▁scien	-10067
▁barcelona	-10068
▁oma	-10069
வும்	-10070
▁app	-10071
ையும்	-10072
سن	-10073
dia	-10074
स्थ	-10075
▁inak	-10076
▁jas	-10077
angi	-10078
▁پی	-10079
arar	-10080
▁fors	-10081
▁però	-10082
ारी	-10083
▁mű	-10084
pop	-10085
вих	-10086
াঁ	-10087
lü	-10088
lân	-10089
udian	-10090
γα	-10091
այր	-10092
iman	-10093
▁спи	-10094
ager	-10095
лым	-10096
teka	-10097
وسط	-10098
▁মা	-10099
lá	-10100
ència	-10101
با	-10102
қта	-10103
0-	-10104
мври	-10105
▁just	-10106
▁মু	-10107
▁universitet	-10108
▁deux	-10109
ਦਾ	-10110
øy	-10111
▁viņ	-10112
▁agosto	-10113
▁kari	-10114
زر	-10115
▁тр	-10116
esen	-10117
▁bağ	-10118
▁ց	-10119
ős	-10120
▁thuộc	-10121
šte	-10122
▁run	-10123
▁nhiều	-10124
вано	-10125
inus	-10126
obi	-10127
▁ஊரா	-10128
▁фил	-10129
ーム	-10130
alu	-10131
▁struk	-10132
eket	-10133
▁membr	-10134
แส	-10135
▁zona	-10136
▁pēc	-10137
ەن	-10138
▁adam	-10139
▁mela	-10140
дө	-10141
ланы	-10142
▁sommer	-10143
ครั้ง	-10144
▁00000.	-10145
▁when	-10146
▁перио	-10147
▁לפ	-10148
อด	-10149
рым	-10150
▁kev	-10151
▁cả	-10152
▁bakarr	-10153
utas	-10154
▁bien	-10155
▁дан	-10156
▁comuna	-10157
onas	-10158
▁ուն	-10159
hib	-10160
ләр	-10161
▁त्या	-10162
▁mach	-10163
▁тор	-10164
agn	-10165
▁moz	-10166
▁তার	-10167
▁dial	-10168
arak	-10169
ệu	-10170
рата	-10171
plan	-10172
ạt	-10173
▁tud	-10174
ře	-10175
▁mec	-10176
▁tae	-10177
vert	-10178
znam	-10179
▁camb	-10180
ettiin	-10181
zat	-10182
▁воз	-10183
тка	-10184
▁opr	-10185
▁cym	-10186
▁nicht	-10187
▁clas	-10188
▁alk	-10189
бар	-10190
ադր	-10191
▁강	-10192
води	-10193
hər	-10194
=0	-10195
▁dab	-10196
tros	-10197
فیلمهای	-10198
ския	-10199
▁налази	-10200
jat	-10201
▁bå	-10202
▁cro	-10203
▁memp	-10204
▁పు	-10205
▁brat	-10206
▁tempo	-10207
▁मान	-10208
▁cidade	-10209
արգ	-10210
▁дэ	-10211
▁sete	-10212
▁тоа	-10213
▁क्षेत्र	-10214
▁banda	-10215
▁җ	-10216
лом	-10217
لاعبو	-10218
ებში	-10219
lev	-10220
▁نق	-10221
▁сва	-10222
ạn	-10223
▁문	-10224
్రీ	-10225
تي	-10226
▁dien	-10227
čne	-10228
sn	-10229
tio	-10230
λος	-10231
▁lee	-10232
▁ново	-10233
▁ní	-10234
▁бұл	-10235
▁nagr	-10236
ık	-10237
acia	-10238
ists	-10239
▁fé	-10240
▁rež	-10241
▁سنة	-10242
▁یہ	-10243
▁περι	-10244
▁సా	-10245
యం	-10246
▁dost	-10247
▁مل	-10248
osl	-10249
▁capit	-10250
քը	-10251
▁futbolcular	-10252
رات	-10253
tila	-10254
իայի	-10255
adpan	-10256
▁ukra	-10257
ەت	-10258
ifik	-10259
▁0000/0000	-10260
▁நா	-10261
▁ово	-10262
▁shq	-10263
▁포	-10264
▁få	-10265
гор	-10266
ил	-10267
zar	-10268
થી	-10269
▁ова	-10270
▁obr	-10271
िला	-10272
▁err	-10273
شته	-10274
▁probl	-10275
▁округ	-10276
▁గ్రామ	-10277
▁moder	-10278
ંગ	-10279
▁հիմ	-10280
မ်း	-10281
тали	-10282
▁ол	-10283
▁militar	-10284
▁பு	-10285
λευ	-10286
тр	-10287
▁бул	-10288
jä	-10289
▁same	-10290
▁gizon	-10291
▁ભ	-10292
▁hj	-10293
wis	-10294
ৃত	-10295
দ্ধ	-10296
აწ	-10297
▁реги	-10298
ѓу	-10299
eze	-10300
▁дра	-10301
▁wila	-10302
▁կազմում	-10303
виот	-10304
▁মান	-10305
ရာ	-10306
▁век	-10307
anan	-10308
ijen	-10309
▁salah	-10310
्वया	-10311
мир	-10312
▁panjang	-10313
▁bahasa	-10314
▁hend	-10315
well	-10316
რე	-10317
"''	-10318
▁הד	-10319
ாகும்	-10320
▁jane	-10321
ندگان	-10322
مین	-10323
atud	-10324
лері	-10325
दा	-10326
▁vert	-10327
▁מצ	-10328
▁samp	-10329
▁рәс	-10330
itatea	-10331
▁rég	-10332
▁어	-10333
▁пос	-10334
тни	-10335
ingu	-10336
▁진	-10337
▁fav	-10338
▁mús	-10339
দেশ	-10340
▁america	-10341
פור	-10342
âr	-10343
▁exc	-10344
▁бли	-10345
▁prog	-10346
স্থ	-10347
აზ	-10348
hov	-10349
第一	-10350
▁живе	-10351
īj	-10352
ուտ	-10353
▁гидро	-10354
มาก	-10355
▁albert	-10356
▁bản	-10357
мон	-10358
▁وس	-10359
.-	-10360
-0000-0	-10361
मु	-10362
արդ	-10363
▁dah	-10364
▁cerambycidae	-10365
mot	-10366
ндегі	-10367
ške	-10368
▁parlament	-10369
▁जिस	-10370
▁две	-10371
▁വർ	-10372
▁mula	-10373
ems	-10374
మీ	-10375
▁vlast	-10376
▁00)	-10377
▁кога	-10378
▁ଅ	-10379
angel	-10380
▁ky	-10381
▁рим	-10382
তার	-10383
▁#"	-10384
ню	-10385
բեր	-10386
unta	-10387
▁हिन्द	-10388
▁semp	-10389
jn	-10390
▁”	-10391
чан	-10392
▁wordt	-10393
▁series	-10394
الي	-10395
ciu	-10396
▁çal	-10397
▁mnog	-10398
ynn	-10399
ನೆ	-10400
▁natural	-10401
hoz	-10402
tori	-10403
▁pří	-10404
学校	-10405
▁pens	-10406
дата	-10407
▁علي	-10408
▁fyl	-10409
▁okres	-10410
ույն	-10411
▁diz	-10412
▁член	-10413
▁وا	-10414
вез	-10415
tier	-10416
▁með	-10417
êm	-10418
▁און	-10419
▁ring	-10420
uper	-10421
тә	-10422
ല്ല	-10423
र्ण	-10424
▁thời	-10425
ował	-10426
▁station	-10427
▁bagi	-10428
ုံး	-10429
▁lop	-10430
ுகள்	-10431
▁popu	-10432
▁செய	-10433
xis	-10434
▁xã	-10435
iş	-10436
ੋਂ	-10437
ાલ	-10438
োগ	-10439
▁vár	-10440
▁원	-10441
ส์	-10442
▁godina	-10443
▁ধ	-10444
▁qua	-10445
angsa	-10446
dre	-10447
▁autom	-10448
rus	-10449
▁өлкә	-10450
үл	-10451
▁акаде	-10452
ರಿಸ	-10453
▁selv	-10454
пад	-10455
▁last	-10456
ћа	-10457
essä	-10458
▁pirm	-10459
▁πό	-10460
▁wilhelm	-10461
sj	-10462
kri	-10463
hom	-10464
▁toer	-10465
▁tập	-10466
ندی	-10467
▁право	-10468
ein	-10469
ョン	-10470
▁osman	-10471
ılan	-10472
sar	-10473
hti	-10474
olit	-10475
▁obra	-10476
onu	-10477
قه	-10478
ուլ	-10479
த்தின்	-10480
ateľ	-10481
ρέ	-10482
ोक	-10483
▁herc	-10484
▁austral	-10485
▁अभ	-10486
بة	-10487
шін	-10488
()	-10489
▁vah	-10490
ának	-10491
িকে	-10492
▁voc	-10493
edz	-10494
▁filozof	-10495
▁hin	-10496
ीत	-10497
bund	-10498
▁rehiyon	-10499
เรียน	-10500
cle	-10501
▁zh	-10502
adrat	-10503
لمان	-10504
▁single	-10505
▁transport	-10506
עה	-10507
ورت	-10508
itra	-10509
ाले	-10510
▁japon	-10511
డా	-10512
ంచి	-10513
▁مجمو	-10514
ιος	-10515
чина	-10516
▁шо	-10517
abet	-10518
▁laŭ	-10519
กระ	-10520
tru	-10521
lakan	-10522
καν	-10523
וף	-10524
▁ଏ	-10525
ಿತು	-10526
▁பய	-10527
▁час	-10528
гре	-10529
տր	-10530
▁노	-10531
▁sağ	-10532
▁świ	-10533
▁zich	-10534
gende	-10535
ρή	-10536
פרי	-10537
trans	-10538
த்து	-10539
watan	-10540
▁upp	-10541
▁držav	-10542
▁capital	-10543
ント	-10544
skich	-10545
▁terra	-10546
▁*00	-10547
▁dato	-10548
τές	-10549
▁تن	-10550
ைகள்	-10551
āl	-10552
▁alexander	-10553
nın	-10554
▁college	-10555
▁mary	-10556
▁து	-10557
▁ferd	-10558
ությամբ	-10559
▁ic	-10560
مس	-10561
▁кол	-10562
▁vær	-10563
кту	-10564
əri	-10565
▁schw	-10566
że	-10567
▁മു	-10568
▁sto	-10569
ady	-10570
γραφ	-10571
▁kolon	-10572
zeb	-10573
▁slov	-10574
▁ব্য	-10575
מא	-10576
ٹھ	-10577
ியில்	-10578
▁antara	-10579
▁түр	-10580
agne	-10581
ква	-10582
gens	-10583
ovala	-10584
▁тар	-10585
▁шама	-10586
роб	-10587
▁više	-10588
▁పా	-10589
▁ovat	-10590
њу	-10591
हीं	-10592
ците	-10593
▁kum	-10594
quia	-10595
▁pierre	-10596
νω	-10597
வை	-10598
mid	-10599
▁compr	-10600
▁ankaŭ	-10601
ಗಳಲ್ಲಿ	-10602
▁वे	-10603
łu	-10604
▁불	-10605
ٹی	-10606
▁kompon	-10607
▁jú	-10608
ెం	-10609
▁artean	-10610
▁inaktibo	-10611
▁ას	-10612
ப்பாட்ட	-10613
▁lum	-10614
까지	-10615
▁green	-10616
פט	-10617
kim	-10618
کھ	-10619
▁stolet	-10620
andro	-10621
හි	-10622
▁iran	-10623
▁прет	-10624
lí	-10625
úr	-10626
▁اے	-10627
ланд	-10628
่าย	-10629
▁british	-10630
istra	-10631
ért	-10632
▁waard	-10633
▁publish	-10634
tür	-10635
èl	-10636
▁objekti	-10637
▁kde	-10638
szer	-10639
ђу	-10640
▁мал	-10641
▁second	-10642
žio	-10643
▁berk	-10644
▁historia	-10645
まで	-10646
▁quando	-10647
▁žen	-10648
▁ско	-10649
▁πρω	-10650
▁vere	-10651
▁arasında	-10652
▁pär	-10653
▁kommune	-10654
гэ	-10655
भा	-10656
▁кни	-10657
ęs	-10658
بو	-10659
▁tanom	-10660
▁bras	-10661
্স	-10662
▁عبد	-10663
▁ಮಾಡ	-10664
ोज	-10665
ادة	-10666
▁सि	-10667
മായ	-10668
▁meh	-10669
▁ট	-10670
قا	-10671
ότερ	-10672
▁яго	-10673
▁nguy	-10674
,''	-10675
▁jäl	-10676
neg	-10677
▁maz	-10678
aven	-10679
▁францу	-10680
фер	-10681
ász	-10682
الت	-10683
ticos	-10684
inan	-10685
▁kanton	-10686
▁bany	-10687
▁န	-10688
▁geç	-10689
ukiran	-10690
üh	-10691
▁اح	-10692
aliza	-10693
▁name	-10694
▁tj	-10695
▁0°	-10696
ุน	-10697
шча	-10698
ligt	-10699
كر	-10700
▁މ	-10701
▁sg	-10702
▁kort	-10703
নি	-10704
мин	-10705
▁into	-10706
▁جمع	-10707
hof	-10708
▁कथ	-10709
สร	-10710
hon	-10711
ilan	-10712
▁шта	-10713
աստանի	-10714
▁woj	-10715
▁hasta	-10716
▁مص	-10717
σαν	-10718
ओं	-10719
▁departament	-10720
ಡಿ	-10721
▁trav	-10722
▁המש	-10723
utta	-10724
નું	-10725
bos	-10726
▁করা	-10727
▁vég	-10728
▁interpret	-10729
▁거	-10730
ঙ্গ	-10731
▁suo	-10732
tua	-10733
ξε	-10734
▁મા	-10735
یکنان	-10736
ന്ന്	-10737
▁obec	-10738
ఖ్య	-10739
▁pö	-10740
▁twee	-10741
ίζ	-10742
▁ڪ	-10743
▁jog	-10744
▁može	-10745
вля	-10746
лата	-10747
▁amihanan	-10748
▁zák	-10749
jarah	-10750
nav	-10751
arkan	-10752
ун	-10753
сс	-10754
▁према	-10755
▁посе	-10756
▁chỉ	-10757
▁studio	-10758
ிப்ப	-10759
▁there	-10760
▁לח	-10761
▁desen	-10762
▁sammen	-10763
poz	-10764
▁تے	-10765
▁flu	-10766
тта	-10767
▁vii	-10768
ρια	-10769
▁было	-10770
azio	-10771
▁einem	-10772
แก	-10773
ங்கள	-10774
aları	-10775
▁premier	-10776
▁gebru	-10777
భా	-10778
роди	-10779
▁द्वारा	-10780
ərəf	-10781
▁tav	-10782
政府	-10783
▁stanovništva	-10784
arca	-10785
uras	-10786
▁(0000-0000).	-10787
▁ivan	-10788
▁qur	-10789
▁antonio	-10790
uksen	-10791
▁இத	-10792
▁žel	-10793
ues	-10794
upo	-10795
uge	-10796
▁ona	-10797
▁elektron	-10798
▁році	-10799
յալ	-10800
▁videtü	-10801
▁lunetü	-10802
უკ	-10803
▁अस	-10804
▁dunia	-10805
ќи	-10806
rec	-10807
▁uch	-10808
šta	-10809
▁gold	-10810
ђе	-10811
issä	-10812
inj	-10813
ারে	-10814
חה	-10815
▁komand	-10816
ടി	-10817
▁김	-10818
▁yak	-10819
이라	-10820
loc	-10821
▁איז	-10822
roc	-10823
ยัง	-10824
▁ise	-10825
בת	-10826
kej	-10827
▁көр	-10828
gor	-10829
▁배	-10830
▁کن	-10831
đer	-10832
▁zel	-10833
▁साथ	-10834
רמ	-10835
▁सक	-10836
▁kenn	-10837
▁fisk	-10838
imir	-10839
▁bost	-10840
▁šk	-10841
▁менен	-10842
▁bert	-10843
▁worden	-10844
ག་	-10845
ที	-10846
য়া	-10847
ipa	-10848
▁дзе	-10849
▁دست	-10850
▁см	-10851
ieb	-10852
ורג	-10853
▁fins	-10854
كون	-10855
▁కా	-10856
▁تاریخ	-10857
orial	-10858
്മ	-10859
▁sho	-10860
▁filosof	-10861
ril	-10862
inae	-10863
▁poder	-10864
quer	-10865
)،	-10866
лыгы	-10867
▁mayor	-10868
▁fotograf	-10869
▁jack	-10870
▁결	-10871
යි	-10872
▁dif	-10873
▁अधिक	-10874
▁anni	-10875
▁మొ	-10876
▁havde	-10877
▁samt	-10878
మి	-10879
▁പു	-10880
योग	-10881
▁litt	-10882
дор	-10883
աբեր	-10884
▁aasta	-10885
▁imen	-10886
▁посто	-10887
wys	-10888
éta	-10889
ijski	-10890
lərin	-10891
▁فوتبال	-10892
▁لی	-10893
лася	-10894
▁gim	-10895
▁fasc	-10896
▁സം	-10897
▁control	-10898
▁ил	-10899
▁δεν	-10900
žu	-10901
upan	-10902
▁жатқан	-10903
,00	-10904
▁primera	-10905
лина	-10906
▁kilomet	-10907
▁typ	-10908
മ്പ	-10909
▁۔	-10910
ూర్	-10911
▁וע	-10912
ρού	-10913
ках	-10914
xer	-10915
▁ond	-10916
▁sett	-10917
بازیکنان	-10918
年に	-10919
anno	-10920
uatu	-10921
▁kell	-10922
▁институ	-10923
▁tổ	-10924
յուղ	-10925
▁prze	-10926
▁mr	-10927
tore	-10928
▁години	-10929
▁0000–00	-10930
ாவட்ட	-10931
▁ligg	-10932
ansk	-10933
īv	-10934
lac	-10935
▁тео	-10936
ospod	-10937
గం	-10938
лся	-10939
jad	-10940
وش	-10941
dh	-10942
вета	-10943
ným	-10944
▁savo	-10945
▁кре	-10946
▁fő	-10947
lut	-10948
▁maur	-10949
eus	-10950
▁princi	-10951
▁ग्र	-10952
▁chap	-10953
▁সালে	-10954
▁original	-10955
▁فیلم	-10956
▁standard	-10957
▁ieu	-10958
▁адамды	-10959
ادي	-10960
▁angl	-10961
▁havia	-10962
yf	-10963
צי	-10964
ಡೆ	-10965
itaj	-10966
▁union	-10967
▁ช	-10968
▁uni	-10969
nije	-10970
▁करने	-10971
▁sot	-10972
ológ	-10973
▁success	-10974
mic	-10975
▁ссср	-10976
▁నా	-10977
esco	-10978
ാൻ	-10979
անը	-10980
▁kirk	-10981
▁생	-10982
çon	-10983
▁famí	-10984
angkan	-10985
▁dø	-10986
▁kemudian	-10987
رق	-10988
hip	-10989
кты	-10990
arı	-10991
▁தமிழ்	-10992
ric	-10993
stv	-10994
daki	-10995
▁або	-10996
юць	-10997
▁पा	-10998
цкі	-10999
▁dram	-11000
▁халық	-11001
ські	-11002
леми	-11003
▁tysk	-11004
ēm	-11005
lju	-11006
ნი	-11007
▁לק	-11008
кер	-11009
som	-11010
▁пол	-11011
▁lø	-11012
▁zan	-11013
uga	-11014
▁call	-11015
▁ότι	-11016
▁daerah	-11017
зд	-11018
ดับ	-11019
็จ	-11020
▁stadt	-11021
▁עד	-11022
ръ	-11023
plat	-11024
▁penn	-11025
ியல்	-11026
вав	-11027
atet	-11028
otas	-11029
ित्र	-11030
ライ	-11031
▁uno	-11032
▁paci	-11033
▁축	-11034
لع	-11035
ticas	-11036
적인	-11037
owych	-11038
▁sine	-11039
▁ಮು	-11040
icana	-11041
μού	-11042
▁kval	-11043
▁asia	-11044
▁taun	-11045
▁mess	-11046
▁код	-11047
▁linn	-11048
lığı	-11049
▁ask	-11050
ੂੰ	-11051
ück	-11052
யில்	-11053
▁dira	-11054
pil	-11055
тық	-11056
된다	-11057
வர்	-11058
ission	-11059
▁ժամանակ	-11060
sor	-11061
tab	-11062
▁był	-11063
▁však	-11064
▁espec	-11065
▁ছিল	-11066
غان	-11067
▁реестр	-11068
▁ము	-11069
▁пара	-11070
ழு	-11071
▁szám	-11072
▁constru	-11073
▁tarkib	-11074
antaro	-11075
ése	-11076
ಾವ	-11077
▁kent	-11078
▁tamén	-11079
ถูก	-11080
▁đo	-11081
لط	-11082
▁gun	-11083
னை	-11084
▁ထ	-11085
ral	-11086
▁iku	-11087
▁поста	-11088
வே	-11089
iston	-11090
▁grav	-11091
imen	-11092
▁includ	-11093
สํา	-11094
рының	-11095
فی	-11096
▁fakult	-11097
rii	-11098
വും	-11099
kad	-11100
▁amp	-11101
้ว	-11102
▁juž	-11103
▁sekä	-11104
▁szem	-11105
▁мемлекеттік	-11106
▁njema	-11107
▁ન	-11108
▁mult	-11109
▁ஊராட்சி	-11110
inar	-11111
▁ఫ	-11112
▁laur	-11113
▁pont	-11114
ոդ	-11115
ได้รับ	-11116
ាំ	-11117
▁canada	-11118
▁familiak	-11119
kun	-11120
▁аумағы	-11121
▁மூ	-11122
▁tí	-11123
اليد	-11124
fre	-11125
μή	-11126
▁mann	-11127
ודי	-11128
об	-11129
▁ခ	-11130
ulos	-11131
kou	-11132
лена	-11133
indo	-11134
▁podru	-11135
▁була	-11136
▁monte	-11137
▁royal	-11138
спе	-11139
▁plej	-11140
▁slav	-11141
эм	-11142
▁mno	-11143
fall	-11144
మైన	-11145
zas	-11146
▁ald	-11147
μέν	-11148
скім	-11149
▁dinasti	-11150
▁esim	-11151
▁edward	-11152
ಾಲ	-11153
ীর	-11154
▁tõ	-11155
vern	-11156
aco	-11157
িব	-11158
▁white	-11159
▁υπο	-11160
kson	-11161
ịch	-11162
▁monument	-11163
▁huet	-11164
▁pula	-11165
▁wars	-11166
ਤਾ	-11167
മാണ്	-11168
▁побе	-11169
▁plant	-11170
ונות	-11171
▁odnos	-11172
зде	-11173
кры	-11174
гән	-11175
χο	-11176
ഗം	-11177
لق	-11178
▁గు	-11179
ווי	-11180
etz	-11181
āv	-11182
aus	-11183
▁لو	-11184
▁work	-11185
iye	-11186
''"	-11187
ién	-11188
velop	-11189
rindra	-11190
rek	-11191
ദ്ധ	-11192
čkih	-11193
sy	-11194
▁год	-11195
▁шыв	-11196
యో	-11197
▁çalış	-11198
ční	-11199
▁australia	-11200
▁نی	-11201
сли	-11202
▁мя	-11203
▁фон	-11204
afrika	-11205
izz	-11206
▁indrindra	-11207
▁кур	-11208
▁հեռ	-11209
▁enpresa	-11210
ிலும்	-11211
▁protest	-11212
לית	-11213
▁வா	-11214
ন্দ	-11215
▁él	-11216
دى	-11217
▁দে	-11218
▁کم	-11219
▁cle	-11220
▁хар	-11221
▁проце	-11222
ạc	-11223
jeno	-11224
▁abit	-11225
▁cic	-11226
▁member	-11227
▁frant	-11228
μφ	-11229
бри	-11230
▁கூ	-11231
skega	-11232
▁dopo	-11233
▁00.0000	-11234
lex	-11235
▁русия	-11236
ก็	-11237
▁territ	-11238
tos	-11239
▁okup	-11240
▁stato	-11241
یاں	-11242
▁kez	-11243
▁šia	-11244
osoph	-11245
ාර	-11246
▁chú	-11247
▁mož	-11248
ellä	-11249
▁تش	-11250
▁düş	-11251
▁იყო	-11252
▁pado	-11253
▁тро	-11254
▁рәсәй	-11255
▁ädabinons	-11256
▁cara	-11257
▁yeni	-11258
▁lec	-11259
▁ды	-11260
alq	-11261
▁kav	-11262
acc	-11263
▁বিশ	-11264
вая	-11265
▁бан	-11266
ल्या	-11267
они	-11268
τού	-11269
▁yön	-11270
мата	-11271
ənd	-11272
gon	-11273
▁яко	-11274
apan	-11275
▁great	-11276
▁maior	-11277
▁ford	-11278
็ก	-11279
ithe	-11280
▁új	-11281
▁mies	-11282
▁नाम	-11283
yət	-11284
fn	-11285
▁профе	-11286
▁vij	-11287
itä	-11288
▁veľ	-11289
▁kann	-11290
ոխ	-11291
▁ofte	-11292
▁علا	-11293
▁maail	-11294
▁nær	-11295
▁национа	-11296
खा	-11297
▁dalla	-11298
▁dw	-11299
▁ihr	-11300
▁оли	-11301
▁tempor	-11302
סק	-11303
▁చి	-11304
ān	-11305
▁society	-11306
▁μπ	-11307
кин	-11308
▁professor	-11309
дена	-11310
bud	-11311
ovat	-11312
▁esti	-11313
▁stran	-11314
▁ayisyen	-11315
▁उस	-11316
▁সা	-11317
ísk	-11318
▁nhân	-11319
▁shqip	-11320
▁hub	-11321
▁thị	-11322
illes	-11323
živ	-11324
▁tuy	-11325
▁مرک	-11326
われ	-11327
▁당	-11328
นิ	-11329
▁ish	-11330
▁होता	-11331
▁اله	-11332
▁metros	-11333
▁прави	-11334
اتی	-11335
สิ	-11336
tsch	-11337
ниципа	-11338
▁anak	-11339
▁विक	-11340
ères	-11341
▁гор	-11342
▁fung	-11343
via	-11344
▁át	-11345
▁tec	-11346
בא	-11347
dek	-11348
grad	-11349
ộng	-11350
▁został	-11351
▁مار	-11352
alj	-11353
app	-11354
ajú	-11355
▁било	-11356
▁punto	-11357
▁програ	-11358
υσ	-11359
▁లే	-11360
▁џ	-11361
▁district	-11362
▁march	-11363
กา	-11364
▁ਆ	-11365
▁diplom	-11366
▁suom	-11367
ére	-11368
чі	-11369
▁caracter	-11370
▁karakter	-11371
όν	-11372
ଥି	-11373
▁desa	-11374
ôi	-11375
iladi	-11376
▁الذي	-11377
▁בג	-11378
larında	-11379
▁pelo	-11380
atang	-11381
▁полити	-11382
дь	-11383
зни	-11384
ولة	-11385
▁kullan	-11386
▁marie	-11387
▁mundo	-11388
▁hels	-11389
▁pháp	-11390
фу	-11391
▁هذه	-11392
▁seni	-11393
적으로	-11394
▁việt	-11395
sem	-11396
alne	-11397
▁walay	-11398
çĕ	-11399
među	-11400
▁ალ	-11401
rn	-11402
▁srp	-11403
أس	-11404
▁perd	-11405
▁ever	-11406
▁còn	-11407
▁divis	-11408
шыл	-11409
பு	-11410
▁brig	-11411
▁fus	-11412
▁функ	-11413
isko	-11414
ومی	-11415
్రా	-11416
size	-11417
▁sultan	-11418
▁mogu	-11419
вати	-11420
ocia	-11421
ങ്ക	-11422
ilya	-11423
สาม	-11424
▁হয়ে	-11425
ûn	-11426
mek	-11427
▁nebo	-11428
▁råder	-11429
ум	-11430
wel	-11431
▁ens	-11432
▁jih	-11433
▁első	-11434
▁bou	-11435
ोल	-11436
▁kerk	-11437
▁00’’	-11438
น์	-11439
▁לב	-11440
▁dirig	-11441
▁მდ	-11442
валі	-11443
▁rij	-11444
▁син	-11445
дови	-11446
enie	-11447
hard	-11448
िश	-11449
▁dot	-11450
tika	-11451
▁reform	-11452
জন	-11453
ファ	-11454
enda	-11455
▁fest	-11456
jec	-11457
▁carlos	-11458
ieri	-11459
▁գետ	-11460
▁xvi	-11461
▁කර	-11462
▁сме	-11463
eo	-11464
olia	-11465
▁tha	-11466
▁introd	-11467
යේ	-11468
iksi	-11469
▁science	-11470
วันที่	-11471
▁ખે	-11472
▁ദ	-11473
носи	-11474
▁ये	-11475
▁اص	-11476
ќа	-11477
▁rés	-11478
▁skal	-11479
▁atlan	-11480
▁зе	-11481
▁huv	-11482
▁demokrat	-11483
▁धर्म	-11484
▁england	-11485
ığı	-11486
▁alban	-11487
▁habitat	-11488
▁поль	-11489
▁أي	-11490
laus	-11491
▁život	-11492
▁இது	-11493
▁uč	-11494
▁மாவட்ட	-11495
▁alebo	-11496
மா	-11497
▁material	-11498
▁зер	-11499
▁johannes	-11500
▁gus	-11501
▁тұрғында	-11502
pro	-11503
íl	-11504
▁sold	-11505
▁гала	-11506
زاد	-11507
рів	-11508
▁زی	-11509
▁файл	-11510
▁matem	-11511
▁found	-11512
uat	-11513
▁ಯ	-11514
amerika	-11515
▁sven	-11516
▁mutta	-11517
▁vand	-11518
ोप	-11519
▁جام	-11520
▁இந்திய	-11521
bum	-11522
lakang	-11523
ulat	-11524
▁место	-11525
▁kuri	-11526
▁муниципа	-11527
דות	-11528
▁հիմն	-11529
راس	-11530
▁wik	-11531
▁жан	-11532
णि	-11533
▁expl	-11534
▁daniel	-11535
▁tərəf	-11536
há	-11537
▁थी	-11538
τυ	-11539
▁version	-11540
▁ҳ	-11541
ೊಳ	-11542
▁ευ	-11543
ალაქ	-11544
▁nghi	-11545
แบบ	-11546
▁dapek	-11547
▁થ	-11548
త్య	-11549
entos	-11550
itions	-11551
руашы	-11552
ваў	-11553
hund	-11554
larının	-11555
▁نفر	-11556
ían	-11557
▁دانش	-11558
čan	-11559
ักษ	-11560
▁fiche	-11561
лени	-11562
▁বার	-11563
▁aquest	-11564
рет	-11565
▁kilometer	-11566
▁авгу	-11567
▁xun	-11568
ิม	-11569
▁sib	-11570
▁från	-11571
▁univer	-11572
▁висо	-11573
▁ful	-11574
▁sell	-11575
▁ממ	-11576
▁ან	-11577
▁fas	-11578
▁поче	-11579
▁particip	-11580
▁gav	-11581
▁popul	-11582
▁kind	-11583
▁front	-11584
ній	-11585
▁իս	-11586
▁00.0.	-11587
ße	-11588
▁ση	-11589
estu	-11590
etes	-11591
หนึ่ง	-11592
خل	-11593
aty	-11594
▁ول	-11595
▁larva	-11596
▁ақ	-11597
▁sử	-11598
mp	-11599
▁nagy	-11600
лё	-11601
obra	-11602
▁mär	-11603
▁nig	-11604
▁vardır	-11605
▁langu	-11606
чэн	-11607
کن	-11608
ými	-11609
▁निसें	-11610
▁тә	-11611
ệc	-11612
▁night	-11613
ποι	-11614
▁մեծ	-11615
ικές	-11616
ոգ	-11617
cii	-11618
▁vla	-11619
▁0000–0000.	-11620
ιού	-11621
umam	-11622
ência	-11623
▁fog	-11624
▁היו	-11625
▁engl	-11626
▁windows	-11627
▁пат	-11628
▁eil	-11629
▁гар	-11630
▁distrik	-11631
▁cola	-11632
зм	-11633
emer	-11634
▁jä	-11635
ाट	-11636
antan	-11637
▁pian	-11638
▁milli	-11639
esis	-11640
▁реда	-11641
▁00:	-11642
▁four	-11643
▁дейін	-11644
ским	-11645
▁дол	-11646
▁young	-11647
▁statisti	-11648
▁ინ	-11649
лэ	-11650
ผล	-11651
▁(00,0	-11652
▁их	-11653
में	-11654
aland	-11655
▁proti	-11656
ये	-11657
ક્	-11658
innen	-11659
▁između	-11660
вого	-11661
خش	-11662
zak	-11663
▁rip	-11664
стік	-11665
зды	-11666
্ন	-11667
▁(0,0	-11668
ാം	-11669
▁year	-11670
עם	-11671
гда	-11672
▁bart	-11673
কার	-11674
կի	-11675
ศึก	-11676
стоя	-11677
ပါ	-11678
ೊಂಡ	-11679
▁também	-11680
▁мон	-11681
▁الل	-11682
▁card	-11683
%)	-11684
▁igr	-11685
▁নাম	-11686
▁obs	-11687
ांत	-11688
▁boj	-11689
▁sver	-11690
▁тя	-11691
ప్ప	-11692
etas	-11693
▁кру	-11694
ترین	-11695
▁шамасында	-11696
▁cô	-11697
▁comme	-11698
▁0000-0000,	-11699
▁područ	-11700
եպ	-11701
బ్	-11702
sr	-11703
жда	-11704
ặt	-11705
cə	-11706
▁сө	-11707
kn	-11708
▁территория	-11709
ikas	-11710
▁пів	-11711
▁알	-11712
මා	-11713
▁xi	-11714
▁yol	-11715
▁angeles	-11716
▁umum	-11717
▁nomin	-11718
kə	-11719
യോ	-11720
ław	-11721
▁позна	-11722
▁мәлімет	-11723
▁norsk	-11724
▁ರಾ	-11725
мпера	-11726
ifica	-11727
▁wilayah	-11728
▁metrop	-11729
▁облы	-11730
▁bilan	-11731
▁jal	-11732
▁mix	-11733
ices	-11734
पू	-11735
ujú	-11736
▁tiu	-11737
▁ilm	-11738
னி	-11739
▁cao	-11740
▁பல	-11741
▁வழ	-11742
▁ці	-11743
▁journal	-11744
▁point	-11745
ម្	-11746
čna	-11747
▁years	-11748
▁special	-11749
▁जा	-11750
ază	-11751
dig	-11752
▁kỳ	-11753
▁অনু	-11754
won	-11755
▁сар	-11756
ите	-11757
▁פי	-11758
▁дво	-11759
ếu	-11760
▁ње	-11761
atag	-11762
▁borg	-11763
'.	-11764
egov	-11765
▁će	-11766
▁mint	-11767
եյ	-11768
abeth	-11769
ją	-11770
▁huk	-11771
കള	-11772
دن	-11773
pois	-11774
ره	-11775
वी	-11776
ยา	-11777
cd	-11778
▁خان	-11779
▁atas	-11780
ступ	-11781
ുന്നത്	-11782
вест	-11783
gesch	-11784
iles	-11785
ացի	-11786
ର୍	-11787
чени	-11788
▁plot	-11789
ês	-11790
▁части	-11791
▁anal	-11792
▁ficheiro	-11793
තු	-11794
र्ग	-11795
▁lav	-11796
▁wien	-11797
▁وب	-11798
ública	-11799
க்கும்	-11800
мей	-11801
▁objav	-11802
ikon	-11803
▁반	-11804
▁मू	-11805
▁նաեւ	-11806
estig	-11807
etako	-11808
▁страна	-11809
ҙә	-11810
▁куль	-11811
▁مست	-11812
cast	-11813
вањето	-11814
▁bac	-11815
يع	-11816
odor	-11817
▁ĉi	-11818
ःगु	-11819
▁služ	-11820
ကျ	-11821
▁mud	-11822
ll	-11823
▁hyd	-11824
latan	-11825
▁pale	-11826
▁massa	-11827
mıştır	-11828
omis	-11829
▁తె	-11830
ното	-11831
φορ	-11832
wick	-11833
▁asp	-11834
▁сли	-11835
▁like	-11836
ίσ	-11837
yrk	-11838
▁ktoré	-11839
▁0''	-11840
μι	-11841
หลัง	-11842
▁najbol	-11843
ոշ	-11844
▁аф	-11845
ço	-11846
hab	-11847
▁produ	-11848
maktadır	-11849
▁sf	-11850
zeni	-11851
امی	-11852
▁اف	-11853
აფ	-11854
ிகள்	-11855
કો	-11856
▁ung	-11857
▁rov	-11858
▁seine	-11859
▁ஜ	-11860
▁ఏ	-11861
јќи	-11862
েম	-11863
ště	-11864
acji	-11865
▁flere	-11866
▁00°00’	-11867
▁maso	-11868
▁histori	-11869
umen	-11870
ơi	-11871
ával	-11872
▁ix	-11873
▁tou	-11874
egg	-11875
▁ալ	-11876
▁duke	-11877
ारण	-11878
ҳои	-11879
ikus	-11880
▁sev	-11881
▁some	-11882
▁ander	-11883
▁việc	-11884
▁없	-11885
stein	-11886
▁plas	-11887
▁lic	-11888
დეგ	-11889
เป	-11890
կեր	-11891
)0	-11892
▁batang	-11893
minister	-11894
adə	-11895
кін	-11896
▁mong	-11897
▁reprez	-11898
公司	-11899
▁surf	-11900
▁comer	-11901
يط	-11902
▁bland	-11903
time	-11904
▁home	-11905
▁durant	-11906
дина	-11907
мина	-11908
θεί	-11909
▁дж	-11910
▁태	-11911
▁luk	-11912
stadt	-11913
pid	-11914
▁polic	-11915
ংলা	-11916
▁insan	-11917
bygg	-11918
ğa	-11919
ෙන	-11920
ления	-11921
▁แต่	-11922
▁hang	-11923
▁리	-11924
oten	-11925
เข้า	-11926
▁ialah	-11927
▁ext	-11928
tical	-11929
▁खने	-11930
▁inclu	-11931
เมื่อ	-11932
▁svjet	-11933
▁ചെയ	-11934
▁huy	-11935
▁بوده	-11936
▁тұрғындарының	-11937
▁บ	-11938
▁계	-11939
▁forsk	-11940
atie	-11941
ıldı	-11942
ств	-11943
ovali	-11944
▁reci	-11945
úz	-11946
çi	-11947
abad	-11948
ниот	-11949
▁usp	-11950
ষ্ঠ	-11951
inea	-11952
ത്തിന്റെ	-11953
▁ibil	-11954
лиза	-11955
▁integr	-11956
▁hold	-11957
▁μετά	-11958
طح	-11959
ներով	-11960
▁după	-11961
▁футбо	-11962
ấp	-11963
વી	-11964
antu	-11965
▁dass	-11966
▁เพ	-11967
▁தொட	-11968
laq	-11969
▁director	-11970
▁počet	-11971
▁алексан	-11972
▁lå	-11973
▁grunn	-11974
ละ	-11975
andra	-11976
ovej	-11977
▁zeit	-11978
▁waren	-11979
มน	-11980
vad	-11981
hm	-11982
rá	-11983
कि	-11984
▁मे	-11985
▁दो	-11986
chte	-11987
iaus	-11988
ļa	-11989
بات	-11990
ming	-11991
day	-11992
▁absol	-11993
זה	-11994
▁faritr	-11995
odon	-11996
▁ime	-11997
▁minor	-11998
▁նրան	-11999
гон	-12000
lako	-12001
▁prad	-12002
▁cour	-12003
ព្រ	-12004
▁fish	-12005
რობ	-12006
cept	-12007
iker	-12008
▁การ	-12009
▁sklad	-12010
טה	-12011
▁şəhər	-12012
▁stock	-12013
▁bend	-12014
brit	-12015
্ম	-12016
▁실	-12017
▁berb	-12018
▁۲۰۰	-12019
obr	-12020
▁flo	-12021
ům	-12022
▁सम्	-12023
დე	-12024
▁בפ	-12025
▁paz	-12026
▁side	-12027
நில	-12028
▁batu	-12029
▁0.0%	-12030
angka	-12031
▁supr	-12032
▁שנ	-12033
▁կող	-12034
зер	-12035
ชาว	-12036
isip	-12037
▁የ	-12038
香港	-12039
▁setelah	-12040
▁тара	-12041
לך	-12042
кономи	-12043
ัต	-12044
mund	-12045
▁đồng	-12046
▁በ	-12047
dah	-12048
▁rab	-12049
▁hulyo	-12050
რის	-12051
འི་	-12052
ರಾ	-12053
ющи	-12054
▁თავ	-12055
oon	-12056
▁gon	-12057
లను	-12058
▁κό	-12059
કા	-12060
▁crit	-12061
তা	-12062
врши	-12063
टर	-12064
されている	-12065
νος	-12066
િય	-12067
▁една	-12068
▁नहीं	-12069
noc	-12070
ώς	-12071
ಚ್ಚ	-12072
▁lý	-12073
collapse	-12074
ituen	-12075
каза	-12076
ânt	-12077
mont	-12078
▁slik	-12079
▁уз	-12080
ildi	-12081
iyat	-12082
▁mate	-12083
tha	-12084
▁gemeente	-12085
tom	-12086
▁musi	-12087
ضا	-12088
▁వా	-12089
▁anu	-12090
āj	-12091
cin	-12092
▁وچ	-12093
▁मध्य	-12094
▁lödan	-12095
жд	-12096
▁evolu	-12097
рои	-12098
▁lá	-12099
isht	-12100
▁mesmo	-12101
ấy	-12102
▁کیل	-12103
▁ន	-12104
▁reak	-12105
▁меда	-12106
▁पुर	-12107
anne	-12108
▁bosh	-12109
▁serb	-12110
qq	-12111
▁upor	-12112
ezi	-12113
▁অব	-12114
imus	-12115
ավար	-12116
न्ह	-12117
▁bizi	-12118
▁relativ	-12119
χή	-12120
▁rezult	-12121
ళ్	-12122
აი	-12123
▁jó	-12124
▁mər	-12125
-0,	-12126
▁الغ	-12127
oleh	-12128
ordin	-12129
▁které	-12130
дон	-12131
▁վրա	-12132
▁edhe	-12133
sä	-12134
ത്തെ	-12135
ful	-12136
ises	-12137
ưở	-12138
ంధ	-12139
უთ	-12140
čio	-12141
▁actor	-12142
šanas	-12143
мот	-12144
▁மொ	-12145
вна	-12146
▁rə	-12147
▁barb	-12148
▁separ	-12149
ције	-12150
λού	-12151
pag	-12152
гаш	-12153
ట్ట	-12154
▁ஆண்ட	-12155
ज्ञ	-12156
keen	-12157
ាប	-12158
гъл	-12159
▁wä	-12160
▁který	-12161
hs	-12162
ந்துள்ள	-12163
▁kiradi	-12164
▁опера	-12165
egar	-12166
▁mistr	-12167
inti	-12168
▁made	-12169
ween	-12170
▁minn	-12171
ât	-12172
▁kvadrat	-12173
back	-12174
λυ	-12175
▁бал	-12176
انت	-12177
zw	-12178
▁dyn	-12179
▁también	-12180
▁prest	-12181
وف	-12182
▁wiel	-12183
ଙ୍	-12184
رائ	-12185
டிய	-12186
▁älab	-12187
tall	-12188
pul	-12189
▁рам	-12190
цю	-12191
eton	-12192
▁län	-12193
โรง	-12194
▁about	-12195
▁frankr	-12196
شم	-12197
even	-12198
▁veik	-12199
▁bung	-12200
▁orta	-12201
contr	-12202
▁şe	-12203
ారం	-12204
▁వర్	-12205
▁anth	-12206
▁instrument	-12207
ਿੰ	-12208
▁tên	-12209
▁ဆ	-12210
▁اپ	-12211
edon	-12212
ements	-12213
▁proiz	-12214
ולה	-12215
▁000000	-12216
owany	-12217
bour	-12218
حدة	-12219
▁steph	-12220
ities	-12221
▁ibn	-12222
▁sip	-12223
▁verb	-12224
▁digunakan	-12225
▁καθ	-12226
angg	-12227
▁habitantes	-12228
▁anne	-12229
בל	-12230
▁cra	-12231
км	-12232
▁bý	-12233
osz	-12234
ladi	-12235
цион	-12236
▁bli	-12237
▁نیز	-12238
ண்ண	-12239
▁0–0	-12240
رن	-12241
▁yng	-12242
บัน	-12243
eger	-12244
▁نش	-12245
май	-12246
▁ari	-12247
▁это	-12248
είο	-12249
▁тран	-12250
▁dokument	-12251
ưởng	-12252
ög	-12253
▁negeri	-12254
фика	-12255
век	-12256
▁яка	-12257
зар	-12258
ਰੀ	-12259
owi	-12260
ाला	-12261
▁apa	-12262
▁chil	-12263
שט	-12264
▁архи	-12265
▁оби	-12266
▁pek	-12267
▁ktorý	-12268
▁tx	-12269
▁پس	-12270
▁khu	-12271
▁ira	-12272
র্ত	-12273
his	-12274
ואר	-12275
নের	-12276
niki	-12277
gai	-12278
ších	-12279
anske	-12280
ах	-12281
റി	-12282
▁նախ	-12283
maz	-12284
▁따	-12285
iff	-12286
▁пор	-12287
yet	-12288
องค์	-12289
▁també	-12290
τες	-12291
▁planetes	-12292
▁urbo	-12293
▁doktor	-12294
مواليد	-12295
▁muzik	-12296
▁พระ	-12297
▁lands	-12298
सि	-12299
rer	-12300
եք	-12301
ukaan	-12302
▁झ	-12303
▁ආ	-12304
▁օր	-12305
ดิ	-12306
▁döv	-12307
urd	-12308
בוצ	-12309
▁ಒಂದು	-12310
ース	-12311
っている	-12312
▁pia	-12313
▁stop	-12314
ोर	-12315
olla	-12316
▁🔗	-12317
ತ್ಯ	-12318
ři	-12319
రణ	-12320
ద్ధ	-12321
upt	-12322
▁சே	-12323
▁maak	-12324
▁بازی	-12325
▁kont	-12326
▁werk	-12327
ชี	-12328
▁ua	-12329
рой	-12330
ారా	-12331
▁tekst	-12332
ęd	-12333
adir	-12334
▁சு	-12335
▁sort	-12336
▁ର	-12337
jana	-12338
maq	-12339
▁ам	-12340
▁cùng	-12341
▁suba	-12342
όγ	-12343
▁տարած	-12344
▁institut	-12345
▁use	-12346
▁españ	-12347
▁plo	-12348
vien	-12349
рана	-12350
▁tarkibiga	-12351
zech	-12352
▁pů	-12353
дека	-12354
▁क्र	-12355
▁ue	-12356
lies	-12357
▁när	-12358
éra	-12359
อม	-12360
▁núm	-12361
oy	-12362
dra	-12363
ربية	-12364
▁regione	-12365
ън	-12366
▁кой	-12367
слу	-12368
▁hala	-12369
sw	-12370
رم	-12371
eft	-12372
▁lớ	-12373
▁čer	-12374
stup	-12375
ദ്യ	-12376
sob	-12377
▁vig	-12378
логі	-12379
▁мор	-12380
ότη	-12381
▁jedan	-12382
ρώ	-12383
▁hapit	-12384
kins	-12385
tava	-12386
▁aran	-12387
мпі	-12388
ירות	-12389
▁kasal	-12390
▁հայտն	-12391
▁division	-12392
▁urb	-12393
▁costa	-12394
▁vinc	-12395
tod	-12396
▁قبل	-12397
ľa	-12398
▁segunda	-12399
لار	-12400
▁boy	-12401
రం	-12402
ירה	-12403
▁kunne	-12404
нак	-12405
ласы	-12406
lərdə	-12407
ким	-12408
▁engel	-12409
гол	-12410
មាន	-12411
▁été	-12412
▁بت	-12413
▁américa	-12414
вори	-12415
▁xviii	-12416
jek	-12417
ันธ	-12418
▁ən	-12419
▁મુ	-12420
ligere	-12421
▁жұ	-12422
pha	-12423
क्क	-12424
、0	-12425
ంగ్	-12426
▁գյուղ	-12427
▁*0	-12428
ത്ത്	-12429
▁дзя	-12430
▁chic	-12431
▁skulle	-12432
वन	-12433
انية	-12434
▁నిర్	-12435
atos	-12436
margin	-12437
ศาสตร์	-12438
timo	-12439
אים	-12440
עי	-12441
▁down	-12442
▁több	-12443
နှစ်	-12444
oor	-12445
поль	-12446
ivan	-12447
▁iti	-12448
ನು	-12449
▁soviet	-12450
▁kø	-12451
žev	-12452
▁حيث	-12453
▁bé	-12454
▁музе	-12455
وع	-12456
ാണ	-12457
ību	-12458
рын	-12459
▁wolf	-12460
aux	-12461
▁chor	-12462
dü	-12463
íos	-12464
▁köy	-12465
▁сол	-12466
▁సి	-12467
ature	-12468
▁مرب	-12469
empion	-12470
iven	-12471
▁informa	-12472
lardan	-12473
▁primeiro	-12474
skie	-12475
tagon	-12476
▁שמ	-12477
ilir	-12478
▁hari	-12479
▁دە	-12480
mist	-12481
▁gud	-12482
▁설	-12483
oster	-12484
▁také	-12485
ุก	-12486
ğlu	-12487
кови	-12488
▁baru	-12489
βα	-12490
ởi	-12491
ous	-12492
ició	-12493
▁viên	-12494
æg	-12495
▁명	-12496
граф	-12497
▁add	-12498
ėje	-12499
▁reich	-12500
▁među	-12501
▁medlem	-12502
pont	-12503
▁לת	-12504
▁व्य	-12505
▁sakop	-12506
▁francus	-12507
▁אמ	-12508
▁fla	-12509
▁går	-12510
▁ikkje	-12511
▁shk	-12512
▁кален	-12513
▁rese	-12514
obb	-12515
ikut	-12516
▁இய	-12517
▁italian	-12518
chin	-12519
issance	-12520
▁oce	-12521
rey	-12522
ordo	-12523
čkoj	-12524
ilgan	-12525
▁čet	-12526
▁banyak	-12527
ਆਂ	-12528
▁ensim	-12529
pués	-12530
▁lê	-12531
▁같	-12532
нья	-12533
▁vill	-12534
▁եղ	-12535
▁центра	-12536
▁francés	-12537
▁הט	-12538
வில்	-12539
annt	-12540
idin	-12541
ਤੀ	-12542
ੱਕ	-12543
▁khác	-12544
▁ї	-12545
gren	-12546
▁али	-12547
dam	-12548
য়ার	-12549
antuak	-12550
▁simon	-12551
▁edo	-12552
▁моск	-12553
chester	-12554
▁dž	-12555
tual	-12556
वत	-12557
(''	-12558
▁축구	-12559
▁compet	-12560
▁اج	-12561
дай	-12562
ელიც	-12563
▁church	-12564
olg	-12565
▁הר	-12566
▁sjev	-12567
kang	-12568
▁nego	-12569
vv	-12570
▁ensimmä	-12571
idá	-12572
iez	-12573
▁sacaro	-12574
λλην	-12575
ליה	-12576
▁git	-12577
▁multi	-12578
▁которы	-12579
lui	-12580
▁alat	-12581
лага	-12582
▁anci	-12583
▁mehr	-12584
ål	-12585
ެވެ	-12586
த்தை	-12587
▁категори	-12588
▁ér	-12589
یاست	-12590
▁định	-12591
▁viss	-12592
čni	-12593
ходзі	-12594
nego	-12595
▁έχει	-12596
აბ	-12597
ақ	-12598
▁huvud	-12599
▁помо	-12600
ró	-12601
гә	-12602
▁ազ	-12603
▁vě	-12604
িয়া	-12605
յուն	-12606
klju	-12607
▁scen	-12608
kh	-12609
▁કે	-12610
▁jones	-12611
нам	-12612
▁ול	-12613
▁disse	-12614
ར་	-12615
▁vyd	-12616
пис	-12617
▁reb	-12618
▁কো	-12619
▁المس	-12620
▁horn	-12621
▁sha	-12622
▁einen	-12623
▁voz	-12624
ovu	-12625
▁rz	-12626
▁opć	-12627
ילה	-12628
рани	-12629
ிற்க	-12630
itur	-12631
▁seri	-12632
▁ಲ	-12633
▁кори	-12634
▁hình	-12635
▁kak	-12636
▁його	-12637
agog	-12638
ديد	-12639
mb	-12640
▁gih	-12641
▁departam	-12642
▁presidente	-12643
▁ঘ	-12644
בו	-12645
▁develop	-12646
▁éta	-12647
▁ಕೆ	-12648
▁planetesimal	-12649
▁papa	-12650
▁secret	-12651
үйе	-12652
ardi	-12653
▁brand	-12654
▁받	-12655
▁mosk	-12656
▁dụ	-12657
▁אך	-12658
▁aos	-12659
elia	-12660
uu	-12661
▁mindre	-12662
δη	-12663
ცხ	-12664
▁میل	-12665
ಾರೆ	-12666
▁podob	-12667
ạng	-12668
▁جان	-12669
▁дел	-12670
▁بھی	-12671
▁ઉ	-12672
▁during	-12673
chs	-12674
▁või	-12675
اض	-12676
▁football	-12677
ोभ	-12678
uduk	-12679
▁över	-12680
unyai	-12681
▁пов	-12682
вание	-12683
▁bomb	-12684
ай	-12685
పా	-12686
▁биле	-12687
▁много	-12688
ited	-12689
board	-12690
ટે	-12691
これ	-12692
כות	-12693
▁blir	-12694
сій	-12695
רות	-12696
▁كل	-12697
▁primeira	-12698
▁안	-12699
▁մեկ	-12700
リア	-12701
აცი	-12702
▁wed	-12703
▁бир	-12704
мір	-12705
mand	-12706
00.0	-12707
▁kara	-12708
▁sava	-12709
▁mana	-12710
▁bok	-12711
▁repr	-12712
רון	-12713
▁lac	-12714
ารถ	-12715
▁congr	-12716
ραγ	-12717
▁الأول	-12718
▁igra	-12719
▁artik	-12720
াশ	-12721
σκε	-12722
ingi	-12723
արհ	-12724
etty	-12725
▁yüks	-12726
▁place	-12727
▁rr	-12728
▁tü	-12729
ilio	-12730
▁பே	-12731
▁još	-12732
00.0000	-12733
ורי	-12734
rž	-12735
▁retr	-12736
▁ఉంది	-12737
ips	-12738
eco	-12739
▁gjennom	-12740
▁kaip	-12741
▁santi	-12742
▁사용	-12743
områ	-12744
▁əsas	-12745
ciji	-12746
кро	-12747
министра	-12748
jest	-12749
פות	-12750
ည့်	-12751
▁에	-12752
▁mh	-12753
وات	-12754
▁copa	-12755
šten	-12756
▁road	-12757
▁लग	-12758
▁democ	-12759
▁mempunyai	-12760
▁կողմ	-12761
ারত	-12762
▁sier	-12763
isesti	-12764
▁document	-12765
▁urban	-12766
куль	-12767
▁হার	-12768
▁ét	-12769
್ಳ	-12770
▁ไ	-12771
født	-12772
ването	-12773
യുടെ	-12774
▁río	-12775
nú	-12776
▁attr	-12777
gh	-12778
▁ră	-12779
▁pró	-12780
▁sous	-12781
▁۲۰۱	-12782
▁lia	-12783
▁стру	-12784
▁turk	-12785
▁street	-12786
hez	-12787
▁кей	-12788
ское	-12789
▁gle	-12790
که	-12791
ొక్క	-12792
ymen	-12793
owo	-12794
▁irland	-12795
▁هذا	-12796
▁rin	-12797
▁cette	-12798
、「	-12799
▁italien	-12800
ўні	-12801
▁atom	-12802
кол	-12803
лото	-12804
▁обь	-12805
▁such	-12806
▁말	-12807
▁ապ	-12808
▁сп	-12809
eret	-12810
یلی	-12811
▁федераль	-12812
▁کە	-12813
▁მოს	-12814
▁eru	-12815
▁drugi	-12816
▁၁	-12817
ريق	-12818
other	-12819
▁jag	-12820
▁sele	-12821
▁tussen	-12822
▁niz	-12823
▁alta	-12824
র্ব	-12825
▁ataupun	-12826
كة	-12827
cijos	-12828
▁संस्कृत	-12829
▁book	-12830
▁sint	-12831
▁ama	-12832
▁интер	-12833
رح	-12834
▁wall	-12835
หน้า	-12836
ভা	-12837
emain	-12838
▁0000.)	-12839
சிய	-12840
▁gard	-12841
iyyət	-12842
에서는	-12843
mai	-12844
arts	-12845
▁ktorá	-12846
йг	-12847
वरी	-12848
erie	-12849
▁sko	-12850
▁fabr	-12851
лін	-12852
▁ûn	-12853
▁gén	-12854
▁něm	-12855
کل	-12856
jung	-12857
žel	-12858
▁après	-12859
▁pamilya	-12860
▁тик	-12861
▁laut	-12862
▁nin	-12863
ვნ	-12864
스트	-12865
von	-12866
▁vagy	-12867
eca	-12868
▁ocup	-12869
▁bahwa	-12870
東京	-12871
▁henri	-12872
ிகள	-12873
▁tarih	-12874
mur	-12875
▁gym	-12876
▁האי	-12877
▁españa	-12878
сама	-12879
▁finland	-12880
աժ	-12881
▁вид	-12882
▁them	-12883
ojas	-12884
േഷ	-12885
amos	-12886
erea	-12887
▁molek	-12888
▁რომელიც	-12889
ję	-12890
▁há	-12891
เห	-12892
ана	-12893
▁изда	-12894
▁ජ	-12895
باش	-12896
▁ഹ	-12897
▁kadar	-12898
fé	-12899
ಿಸಿದ	-12900
▁arc	-12901
ద్య	-12902
ware	-12903
▁పరి	-12904
วม	-12905
agon	-12906
▁dapit	-12907
ĵo	-12908
00-00	-12909
▁təs	-12910
▁voe	-12911
ecto	-12912
▁klass	-12913
sterd	-12914
indi	-12915
▁bisk	-12916
තර	-12917
▁재	-12918
აღ	-12919
▁მონ	-12920
▁बा	-12921
olen	-12922
▁lon	-12923
olj	-12924
▁sø	-12925
▁обе	-12926
▁δύ	-12927
allo	-12928
වා	-12929
uus	-12930
▁ಹಾಗ	-12931
▁?	-12932
▁Ꭰ	-12933
▁नेप	-12934
▁mengg	-12935
nev	-12936
▁biblio	-12937
ריק	-12938
ស្	-12939
kay	-12940
হান	-12941
▁dro	-12942
ғар	-12943
idea	-12944
▁smr	-12945
जा	-12946
osten	-12947
дол	-12948
▁knj	-12949
ობს	-12950
ometr	-12951
män	-12952
несу	-12953
▁andere	-12954
▁margin	-12955
▁0-00000	-12956
чных	-12957
ittel	-12958
məsi	-12959
ಟಿ	-12960
▁mesto	-12961
લી	-12962
▁доби	-12963
мына	-12964
▁пода	-12965
ాల్	-12966
▁неза	-12967
▁মানু	-12968
하게	-12969
▁ndër	-12970
თავ	-12971
▁šv	-12972
▁tít	-12973
▁меди	-12974
▁ellen	-12975
▁indian	-12976
▁ହ	-12977
▁ନ	-12978
▁սկ	-12979
▁rast	-12980
00,000	-12981
▁એક	-12982
▁xuất	-12983
▁olu	-12984
akat	-12985
▁adı	-12986
ysk	-12987
سته	-12988
▁sinh	-12989
rep	-12990
गर	-12991
▁روست	-12992
▁పె	-12993
جة	-12994
тыр	-12995
amatan	-12996
каў	-12997
▁famüls	-12998
nio	-12999
▁ауыл	-13000
சு	-13001
кай	-13002
तीय	-13003
עת	-13004
yll	-13005
▁уста	-13006
ուկ	-13007
▁lödanefa	-13008
放送	-13009
श्च	-13010
▁২০০	-13011
erta	-13012
▁emb	-13013
▁був	-13014
▁بین	-13015
்த்த	-13016
면서	-13017
ارت	-13018
доб	-13019
igs	-13020
▁nå	-13021
uose	-13022
▁dün	-13023
kä	-13024
λου	-13025
▁tetapi	-13026
ijs	-13027
▁kë	-13028
ქმ	-13029
▁slag	-13030
▁konser	-13031
▁ഏ	-13032
▁distribu	-13033
▁seks	-13034
వే	-13035
דו	-13036
▁metr	-13037
▁todo	-13038
ματος	-13039
▁ath	-13040
رز	-13041
лал	-13042
▁degli	-13043
ือน	-13044
▁coma	-13045
usz	-13046
ūn	-13047
▁நில	-13048
▁резу	-13049
▁थे	-13050
صب	-13051
▁herr	-13052
▁volta	-13053
▁than	-13054
▁виси	-13055
可以	-13056
▁territor	-13057
rim	-13058
ște	-13059
▁rand	-13060
werk	-13061
▁(00000)	-13062
নে	-13063
▁good	-13064
әк	-13065
▁หรือ	-13066
ایش	-13067
้าย	-13068
erse	-13069
▁терито	-13070
ତି	-13071
olle	-13072
▁demü	-13073
▁voms	-13074
ชาติ	-13075
สถ	-13076
έν	-13077
▁ädabinoms	-13078
テレ	-13079
▁rik	-13080
▁администра	-13081
▁både	-13082
ują	-13083
त्य	-13084
iyi	-13085
▁bygg	-13086
▁პრო	-13087
▁בר	-13088
▁anys	-13089
▁roc	-13090
▁כא	-13091
▁sast	-13092
της	-13093
ורת	-13094
વામાં	-13095
▁oxford	-13096
amerikan	-13097
lain	-13098
▁ibilga	-13099
itek	-13100
ction	-13101
▁מב	-13102
▁lokal	-13103
▁hội	-13104
рендә	-13105
▁ő	-13106
▁alber	-13107
گران	-13108
റ്റ്	-13109
فته	-13110
▁sabagai	-13111
һе	-13112
들이	-13113
▁chủ	-13114
চ্চ	-13115
gus	-13116
▁rac	-13117
راء	-13118
▁тру	-13119
isin	-13120
ßen	-13121
dec	-13122
▁بول	-13123
▁πρό	-13124
▁isa	-13125
▁ose	-13126
▁miest	-13127
▁започ	-13128
ektedir	-13129
над	-13130
inner	-13131
▁юхан	-13132
▁wurden	-13133
▁''00	-13134
▁اد	-13135
nap	-13136
▁ישראל	-13137
▁población	-13138
ляр	-13139
▁مط	-13140
emento	-13141
▁پیش	-13142
okr	-13143
ত্ত	-13144
ရေး	-13145
ुत	-13146
▁두	-13147
▁към	-13148
▁հան	-13149
่าน	-13150
alus	-13151
tify	-13152
▁prek	-13153
íd	-13154
гълү	-13155
klar	-13156
ನಿ	-13157
лькі	-13158
лө	-13159
вања	-13160
▁occident	-13161
▁წარ	-13162
▁प्रति	-13163
▁thứ	-13164
▁nafar	-13165
▁vala	-13166
▁että	-13167
▁мәгълү	-13168
wh	-13169
▁өйр	-13170
tuur	-13171
▁napr	-13172
шыв	-13173
ദേശ	-13174
veg	-13175
ஞ்ச	-13176
table	-13177
▁निर्	-13178
▁эр	-13179
ádza	-13180
pur	-13181
رکت	-13182
▁тек	-13183
▁един	-13184
зик	-13185
▁desenvol	-13186
ადგენ	-13187
chts	-13188
цый	-13189
స్థ	-13190
▁американ	-13191
▁rid	-13192
▁game	-13193
▁एव	-13194
work	-13195
▁uta	-13196
nit	-13197
▁оның	-13198
īb	-13199
ველი	-13200
rej	-13201
▁poli	-13202
▁hulle	-13203
ხვა	-13204
illy	-13205
▁hər	-13206
▁causa	-13207
gc	-13208
ត្រ	-13209
aban	-13210
▁ప్రా	-13211
ток	-13212
amién	-13213
▁trường	-13214
▁tự	-13215
pinumam	-13216
unci	-13217
▁dövlə	-13218
▁verw	-13219
▁зертте	-13220
▁प्रभाव	-13221
стри	-13222
▁séc	-13223
▁området	-13224
▁até	-13225
▁three	-13226
▁ਨੂੰ	-13227
▁mamp	-13228
ുകള	-13229
▁welt	-13230
▁büyük	-13231
▁wester	-13232
abi	-13233
▁lai	-13234
▁fron	-13235
▁ป	-13236
▁այդ	-13237
লো	-13238
▁сезо	-13239
:0000-	-13240
▁ছ	-13241
▁단	-13242
▁музи	-13243
▁prae	-13244
▁pô	-13245
▁conta	-13246
▁차	-13247
▁iar	-13248
▁collec	-13249
▁ის	-13250
ries	-13251
▁times	-13252
▁gat	-13253
egt	-13254
▁tradic	-13255
▁нао	-13256
सार	-13257
▁research	-13258
▁සි	-13259
ாம	-13260
вла	-13261
▁друго	-13262
▁chin	-13263
▁scalemajor	-13264
ยน	-13265
▁tenn	-13266
▁истори	-13267
▁pedro	-13268
вся	-13269
скіх	-13270
elöl	-13271
▁yerləş	-13272
▁ecc	-13273
zig	-13274
▁יה	-13275
▁عدد	-13276
ਦੀ	-13277
वे	-13278
ਾਨ	-13279
開始	-13280
neo	-13281
τών	-13282
کر	-13283
▁gest	-13284
▁hơn	-13285
▁ĝis	-13286
rup	-13287
▁incol	-13288
iteit	-13289
usakan	-13290
▁ஆகும்	-13291
قب	-13292
elijk	-13293
yin	-13294
▁jeung	-13295
یری	-13296
elik	-13297
▁televiz	-13298
ತೆ	-13299
▁акти	-13300
حر	-13301
uls	-13302
▁kaliwatan	-13303
▁−	-13304
ียว	-13305
▁ด	-13306
▁vyr	-13307
▁ได้	-13308
▁דער	-13309
▁manjadi	-13310
▁объект	-13311
ಲಾಗ	-13312
▁nás	-13313
▁예	-13314
▁kirj	-13315
ödöl	-13316
▁бла	-13317
▁(0000-	-13318
▁fred	-13319
▁vaan	-13320
▁מכ	-13321
χν	-13322
▁ito	-13323
▁नं	-13324
▁novi	-13325
كس	-13326
gat	-13327
▁तक	-13328
▁बाद	-13329
▁februari	-13330
க்கோ	-13331
▁jazz	-13332
▁személy	-13333
▁lödö	-13334
▁novo	-13335
ាស	-13336
▁amely	-13337
elser	-13338
illä	-13339
▁people	-13340
하기	-13341
▁plaats	-13342
اسی	-13343
цій	-13344
enger	-13345
▁кото	-13346
▁party	-13347
ème	-13348
ುದು	-13349
▁nell	-13350
แต่	-13351
▁henero	-13352
▁মার	-13353
▁brown	-13354
▁سطح	-13355
▁орта	-13356
▁dêr	-13357
▁fine	-13358
▁situa	-13359
▁üm	-13360
itse	-13361
дік	-13362
েলা	-13363
▁голо	-13364
▁jackson	-13365
▁కూ	-13366
gn	-13367
ոչ	-13368
▁lomanefs	-13369
▁ಇದ	-13370
▁verlag	-13371
рих	-13372
▁timur	-13373
▁empres	-13374
▁duc	-13375
йма	-13376
▁prí	-13377
มิ	-13378
tures	-13379
ংশ	-13380
kis	-13381
oliko	-13382
▁پای	-13383
▁rī	-13384
र्श	-13385
▁brug	-13386
▁terb	-13387
▁thủ	-13388
▁ओ	-13389
▁அல்ல	-13390
▁요	-13391
▁favor	-13392
▁only	-13393
ներին	-13394
▁muze	-13395
ใจ	-13396
ној	-13397
тың	-13398
▁ऑ	-13399
バー	-13400
ンド	-13401
▁jedin	-13402
▁protiv	-13403
lø	-13404
след	-13405
▁vs	-13406
▁continu	-13407
▁한다	-13408
раз	-13409
سان	-13410
▁lagu	-13411
عات	-13412
ตาม	-13413
▁وم	-13414
▁நீ	-13415
▁0.000,	-13416
▁çok	-13417
▁mā	-13418
▁qəd	-13419
▁görə	-13420
▁tyd	-13421
නු	-13422
▁جنگ	-13423
▁ক্র	-13424
alik	-13425
ส่วน	-13426
æng	-13427
зија	-13428
▁vị	-13429
▁fic	-13430
ལ་	-13431
되었	-13432
երո	-13433
▁yels	-13434
zim	-13435
ká	-13436
рода	-13437
म्बर	-13438
्रा	-13439
สู	-13440
ëve	-13441
dens	-13442
เพื่อ	-13443
နိုင်	-13444
▁venez	-13445
دي	-13446
allen	-13447
úl	-13448
▁참	-13449
ším	-13450
▁indak	-13451
▁mek	-13452
atutako	-13453
▁विभ	-13454
▁programa	-13455
тата	-13456
ीय	-13457
шко	-13458
גה	-13459
▁зи	-13460
▁मा	-13461
▁lane	-13462
эрэ	-13463
▁vznik	-13464
▁música	-13465
yth	-13466
вым	-13467
▁power	-13468
▁ඉ	-13469
ையின்	-13470
▁scott	-13471
▁ενώ	-13472
▁нор	-13473
▁ға	-13474
зиден	-13475
▁함	-13476
nyo	-13477
هن	-13478
▁bild	-13479
nyt	-13480
แรก	-13481
▁сві	-13482
ერს	-13483
▁جنوب	-13484
yje	-13485
▁virgin	-13486
esia	-13487
into	-13488
arios	-13489
▁različ	-13490
стве	-13491
liku	-13492
▁maría	-13493
▁които	-13494
▁million	-13495
▁ага	-13496
ье	-13497
▁пасля	-13498
stra	-13499
▁etc	-13500
stat	-13501
ugi	-13502
▁äso	-13503
可能	-13504
▁leid	-13505
▁ľ	-13506
wak	-13507
jeni	-13508
▁pode	-13509
rí	-13510
▁mundial	-13511
▁aang	-13512
▁punt	-13513
▁sjed	-13514
่อน	-13515
▁äsoelöl	-13516
▁williams	-13517
▁äbinädons	-13518
ர்கள	-13519
▁kron	-13520
▁меѓу	-13521
ogram	-13522
▁karena	-13523
ರಣ	-13524
ุ่น	-13525
έα	-13526
syn	-13527
▁spra	-13528
▁mia	-13529
▁yen	-13530
▁nikola	-13531
▁вій	-13532
▁status	-13533
▁pösod	-13534
talet	-13535
θν	-13536
▁обо	-13537
ieren	-13538
кам	-13539
ikka	-13540
▁yax	-13541
логик	-13542
▁böyük	-13543
rij	-13544
æt	-13545
จัก	-13546
▁stil	-13547
▁0000،	-13548
"),	-13549
▁jego	-13550
iais	-13551
mény	-13552
▁kast	-13553
▁senere	-13554
▁være	-13555
řed	-13556
▁actual	-13557
▁lü	-13558
▁tamién	-13559
ife	-13560
elum	-13561
▁ऐ	-13562
vá	-13563
▁озна	-13564
øm	-13565
τορ	-13566
▁perc	-13567
▁בכ	-13568
▁عم	-13569
్రి	-13570
ihin	-13571
luv	-13572
रण	-13573
կար	-13574
ვით	-13575
essen	-13576
▁sarupo	-13577
▁৫	-13578
▁â	-13579
▁muh	-13580
▁siv	-13581
▁प्रा	-13582
ξη	-13583
▁zil	-13584
▁коро	-13585
▁lux	-13586
holm	-13587
nier	-13588
กรรม	-13589
▁타	-13590
▁heinrich	-13591
▁izv	-13592
▁nya	-13593
▁taip	-13594
њето	-13595
▁mən	-13596
enig	-13597
ंत्र	-13598
çois	-13599
öz	-13600
▁→	-13601
ilat	-13602
ální	-13603
▁teen	-13604
▁partici	-13605
ттар	-13606
プロ	-13607
יש	-13608
▁мұ	-13609
agian	-13610
сэн	-13611
▁комму	-13612
▁муниципали	-13613
▁יותר	-13614
▁reprezent	-13615
born	-13616
ברי	-13617
ოდა	-13618
▁кыргыз	-13619
ખ્ય	-13620
▁также	-13621
▁oks	-13622
onc	-13623
ấu	-13624
▁udalerrian	-13625
famil	-13626
▁ditab	-13627
dark	-13628
▁로	-13629
▁zajed	-13630
тү	-13631
wang	-13632
▁pils	-13633
ουσ	-13634
▁사람	-13635
▁viii	-13636
तु	-13637
▁egin	-13638
sce	-13639
vé	-13640
irea	-13641
ަށ	-13642
▁ކ	-13643
եզ	-13644
θή	-13645
▁drama	-13646
▁hó	-13647
▁sej	-13648
стары	-13649
format	-13650
ายน	-13651
▁nang	-13652
ාල	-13653
ตะ	-13654
▁tabantuak	-13655
▁seh	-13656
ристо	-13657
▁특	-13658
▁ομά	-13659
uruahan	-13660
▁kasaluruahan	-13661
arse	-13662
▁యొక్క	-13663
พล	-13664
▁ml	-13665
▁देश	-13666
▁spisak	-13667
δια	-13668
inor	-13669
▁ಮೂ	-13670
▁болып	-13671
ակի	-13672
ிரை	-13673
etat	-13674
elte	-13675
iber	-13676
でき	-13677
ekat	-13678
իպ	-13679
ներից	-13680
▁folk	-13681
ագործ	-13682
▁tina	-13683
▁oslo	-13684
▁presiden	-13685
ంప	-13686
▁որը	-13687
▁ذلك	-13688
▁mien	-13689
▁तक्क	-13690
sala	-13691
ใหญ	-13692
наль	-13693
แสดง	-13694
sloven	-13695
asser	-13696
▁алабы	-13697
▁pyr	-13698
сць	-13699
▁rata	-13700
ിവ	-13701
ूम	-13702
▁उत्तर	-13703
▁భా	-13704
ដែ	-13705
▁dende	-13706
xon	-13707
▁αι	-13708
▁bekend	-13709
▁iste	-13710
▁harry	-13711
▁columb	-13712
▁province	-13713
▁dansk	-13714
▁krit	-13715
ное	-13716
til	-13717
▁hed	-13718
ுள்ளது	-13719
▁він	-13720
ด์	-13721
▁terd	-13722
▁zerb	-13723
▁વિ	-13724
ותה	-13725
▁census	-13726
▁chuy	-13727
▁мәгълүматы	-13728
гот	-13729
▁ishte	-13730
าะ	-13731
▁köl	-13732
ությունների	-13733
▁bach	-13734
▁00.00.0000	-13735
▁hamb	-13736
ození	-13737
▁германи	-13738
ుల	-13739
fort	-13740
▁կամ	-13741
▁cambridge	-13742
्ल	-13743
ımı	-13744
▁šir	-13745
▁కో	-13746
▁কৰ	-13747
▁ekz	-13748
▁юханшыв	-13749
κά	-13750
non	-13751
▁anv	-13752
იან	-13753
حة	-13754
eny	-13755
టీ	-13756
amai	-13757
ibli	-13758
urut	-13759
ிட்ட	-13760
իզ	-13761
ジャ	-13762
ವಾಗ	-13763
▁ವರ್	-13764
lach	-13765
▁коли	-13766
▁barat	-13767
മ്മ	-13768
▁mora	-13769
год	-13770
▁''„	-13771
00.00	-13772
▁nhưng	-13773
ifer	-13774
ninger	-13775
جی	-13776
mga	-13777
وري	-13778
▁јо	-13779
▁સ્	-13780
▁награ	-13781
▁planta	-13782
ंध	-13783
ỉnh	-13784
▁descr	-13785
▁ditam	-13786
▁teis	-13787
▁режи	-13788
▁ડ	-13789
▁văn	-13790
▁gegen	-13791
▁разви	-13792
đe	-13793
:''	-13794
ต่าง	-13795
▁урын	-13796
▁nato	-13797
▁lek	-13798
ädas	-13799
▁vasta	-13800
▁tym	-13801
сса	-13802
َّ	-13803
ulp	-13804
हरू	-13805
▁náz	-13806
▁মধ্য	-13807
▁després	-13808
▁*"	-13809
તો	-13810
ىل	-13811
יס	-13812
iculus	-13813
▁ры	-13814
▁gub	-13815
זור	-13816
▁service	-13817
▁население	-13818
▁περιο	-13819
▁الي	-13820
্যাল	-13821
ରି	-13822
ാപ	-13823
▁ఉన్న	-13824
elde	-13825
abb	-13826
ުން	-13827
anz	-13828
▁تج	-13829
▁ener	-13830
▁जी	-13831
▁area	-13832
пози	-13833
hun	-13834
lung	-13835
▁منط	-13836
▁kawasan	-13837
▁იმ	-13838
ammad	-13839
▁liel	-13840
▁selatan	-13841
បាន	-13842
র্ম	-13843
▁이후	-13844
▁projekt	-13845
ρυ	-13846
ladı	-13847
sted	-13848
ők	-13849
imet	-13850
▁nis	-13851
▁hely	-13852
▁அமைந்துள்ள	-13853
гро	-13854
▁futbolcuları	-13855
arp	-13856
▁ties	-13857
▁00'	-13858
▁цент	-13859
▁जन	-13860
stä	-13861
emon	-13862
▁вялі	-13863
▁incolarum	-13864
ندر	-13865
にお	-13866
насти	-13867
▁система	-13868
▁perman	-13869
▁sastav	-13870
▁seç	-13871
▁jadi	-13872
▁apie	-13873
opol	-13874
తీ	-13875
เภ	-13876
sat	-13877
▁ಫ	-13878
ர்வ	-13879
▁ene	-13880
▁põh	-13881
▁области	-13882
▁군	-13883
мента	-13884
prov	-13885
00000	-13886
▁мы	-13887
ılır	-13888
▁estudi	-13889
dez	-13890
heit	-13891
▁ଦ	-13892
heten	-13893
oloog	-13894
ności	-13895
▁famü	-13896
▁hop	-13897
ание	-13898
▁head	-13899
▁رہ	-13900
lob	-13901
▁առաջին	-13902
▁കു	-13903
izione	-13904
ppe	-13905
utes	-13906
▁jr	-13907
กว่า	-13908
▁erk	-13909
▁postav	-13910
hein	-13911
▁lahko	-13912
lən	-13913
▁bidädas	-13914
▁orden	-13915
▁bandar	-13916
ိုက်	-13917
နေ	-13918
asis	-13919
▁association	-13920
bot	-13921
▁amor	-13922
▁zerbitz	-13923
ഞ്ഞ	-13924
ரம்	-13925
▁пайда	-13926
ická	-13927
▁država	-13928
部分	-13929
інің	-13930
▁මෙ	-13931
kuuta	-13932
main	-13933
слав	-13934
▁prá	-13935
▁your	-13936
▁זו	-13937
izm	-13938
▁rej	-13939
▁registr	-13940
▁카	-13941
▁منت	-13942
▁रुप	-13943
▁otto	-13944
ართველ	-13945
▁aller	-13946
upi	-13947
elet	-13948
▁hong	-13949
ners	-13950
▁maxim	-13951
▁وع	-13952
▁кул	-13953
.;	-13954
▁mlad	-13955
िले	-13956
าท	-13957
folk	-13958
▁успе	-13959
wod	-13960
τής	-13961
ख्या	-13962
▁அரச	-13963
entra	-13964
แข	-13965
ged	-13966
վեց	-13967
रिक	-13968
ังห	-13969
γά	-13970
នុ	-13971
▁vrijeme	-13972
▁ล	-13973
ោះ	-13974
tela	-13975
▁között	-13976
asının	-13977
ào	-13978
ವಾದ	-13979
▁ank	-13980
िम	-13981
▁uban	-13982
রা	-13983
لت	-13984
ểm	-13985
чар	-13986
▁ie	-13987
▁stabil	-13988
ój	-13989
arb	-13990
.00	-13991
oty	-13992
▁۳	-13993
സ്ഥ	-13994
▁todos	-13995
zenia	-13996
చి	-13997
▁used	-13998
▁(0000—0000)	-13999
▁castell	-14000
▁nü	-14001
▁bav	-14002
▁batt	-14003
ének	-14004
▁jin	-14005
պան	-14006
▁كانت	-14007
тів	-14008
тері	-14009
▁gihulagway	-14010
▁დას	-14011
ತಿಯ	-14012
▁srb	-14013
▁който	-14014
▁estud	-14015
ؤن	-14016
▁суша	-14017
▁kraljev	-14018
ద్ద	-14019
ías	-14020
▁اع	-14021
ப்படுகிறது	-14022
中心	-14023
աշտ	-14024
ാക്ക	-14025
▁გადა	-14026
▁mali	-14027
▁shah	-14028
illere	-14029
▁két	-14030
▁aust	-14031
ייה	-14032
▁princ	-14033
▁já	-14034
▁liên	-14035
▁সে	-14036
iap	-14037
▁വർഗ്	-14038
երոիդ	-14039
จุ	-14040
ابق	-14041
▁کشور	-14042
▁jung	-14043
▁langs	-14044
രം	-14045
lai	-14046
▁мәғ	-14047
▁kiuj	-14048
▁industri	-14049
რძ	-14050
στηκε	-14051
▁raja	-14052
čkog	-14053
უბ	-14054
elin	-14055
িত্র	-14056
▁sünd	-14057
▁trip	-14058
▁poste	-14059
▁justify	-14060
łow	-14061
▁atmos	-14062
▁profesor	-14063
▁בנ	-14064
▁ते	-14065
▁egip	-14066
▁luis	-14067
▁парти	-14068
asal	-14069
▁lett	-14070
▁daž	-14071
anza	-14072
ுத்	-14073
óng	-14074
μαν	-14075
ಾರಿ	-14076
▁šiaur	-14077
들은	-14078
ség	-14079
▁aby	-14080
▁tör	-14081
▁ഫ	-14082
的一	-14083
▁ante	-14084
ೇಕ	-14085
ورة	-14086
昭和	-14087
▁աշխատ	-14088
▁kai	-14089
anju	-14090
▁வெள	-14091
нем	-14092
dol	-14093
شتی	-14094
vard	-14095
▁znač	-14096
łów	-14097
▁χα	-14098
▁moment	-14099
ಸಿ	-14100
▁യ	-14101
руу	-14102
▁νο	-14103
inük	-14104
ოლი	-14105
▁persones	-14106
▁struktur	-14107
▁nuc	-14108
ัล	-14109
ション	-14110
пла	-14111
લ્	-14112
▁మా	-14113
▁giovan	-14114
ნა	-14115
▁सू	-14116
народ	-14117
▁util	-14118
▁shum	-14119
▁المح	-14120
ברה	-14121
▁sovjet	-14122
пло	-14123
▁00–00	-14124
פל	-14125
valora	-14126
▁சிற	-14127
▁వే	-14128
▁crist	-14129
▁datoteka	-14130
เคร	-14131
▁jacob	-14132
▁000-000.	-14133
நா	-14134
ისა	-14135
ことが	-14136
▁alman	-14137
ന്ത	-14138
▁гре	-14139
▁istiq	-14140
▁eig	-14141
ئيس	-14142
ьо	-14143
▁cyn	-14144
▁tos	-14145
ަރ	-14146
edit	-14147
jd	-14148
▁budap	-14149
fut	-14150
тека	-14151
▁סי	-14152
▁bruk	-14153
ပြီး	-14154
現在	-14155
ικών	-14156
▁պետ	-14157
▁cách	-14158
▁također	-14159
бен	-14160
▁kib	-14161
stu	-14162
य्या	-14163
edal	-14164
ーク	-14165
▁일본	-14166
▁anat	-14167
▁kabup	-14168
sus	-14169
▁educ	-14170
▁perten	-14171
▁bắc	-14172
न्म	-14173
▁ferdin	-14174
▁vita	-14175
ختلف	-14176
éri	-14177
▁eren	-14178
▁додека	-14179
▁opštini	-14180
verk	-14181
ìa	-14182
дук	-14183
cam	-14184
▁كرة	-14185
▁midd	-14186
ศึกษา	-14187
▁բնակչ	-14188
keit	-14189
▁کیا	-14190
ਿਲ	-14191
▁xa	-14192
իւ	-14193
▁styr	-14194
ҳи	-14195
rə	-14196
▁ਸ਼	-14197
▁outros	-14198
ेट	-14199
▁bj	-14200
▁así	-14201
▁ew	-14202
cil	-14203
ulta	-14204
▁awards	-14205
hall	-14206
▁αλλά	-14207
obre	-14208
лған	-14209
σω	-14210
ứng	-14211
▁маг	-14212
óns	-14213
agh	-14214
ário	-14215
▁وقد	-14216
▁diken	-14217
▁zast	-14218
сов	-14219
▁eliz	-14220
პი	-14221
kamp	-14222
▁спа	-14223
▁000–000	-14224
rupa	-14225
yor	-14226
▁құрамына	-14227
▁dl	-14228
স্ত	-14229
itim	-14230
▁kép	-14231
▁вар	-14232
alin	-14233
ffen	-14234
▁národ	-14235
▁mezvalora	-14236
▁územ	-14237
عداد	-14238
▁napole	-14239
▁деп	-14240
▁cruz	-14241
▁ڕ	-14242
nai	-14243
ാജ	-14244
리아	-14245
▁mudo	-14246
هد	-14247
▁normal	-14248
▁ইউ	-14249
ıq	-14250
จัด	-14251
สี	-14252
empor	-14253
արակ	-14254
oci	-14255
ը՝	-14256
lando	-14257
▁between	-14258
▁ces	-14259
▁tac	-14260
ëtzeb	-14261
▁είχε	-14262
▁شهرستان	-14263
meg	-14264
▁олимпи	-14265
ابل	-14266
amu	-14267
แล้ว	-14268
used	-14269
▁hänen	-14270
illet	-14271
úg	-14272
▁horien	-14273
utor	-14274
▁rig	-14275
▁நிற	-14276
രണ	-14277
esz	-14278
john	-14279
▁المن	-14280
ectiv	-14281
▁konkur	-14282
ак	-14283
▁эл	-14284
ച്ച്	-14285
უფ	-14286
abat	-14287
ưa	-14288
љи	-14289
кор	-14290
▁τέ	-14291
▁lli	-14292
▁tanan	-14293
ङ्	-14294
žd	-14295
作品	-14296
ických	-14297
ҙа	-14298
xico	-14299
taq	-14300
▁conn	-14301
▁evante	-14302
ських	-14303
▁xiii	-14304
—00	-14305
ğer	-14306
ைக்க	-14307
▁मार्	-14308
▁frá	-14309
arang	-14310
рус	-14311
▁sı	-14312
லி	-14313
▁preb	-14314
▁орган	-14315
ركة	-14316
▁haj	-14317
šin	-14318
jud	-14319
▁giải	-14320
лыҡ	-14321
eling	-14322
▁zal	-14323
▁साम	-14324
ói	-14325
του	-14326
▁خط	-14327
ției	-14328
द्या	-14329
ตรี	-14330
▁pec	-14331
▁(000–000	-14332
һа	-14333
าลัย	-14334
जन	-14335
テレビ	-14336
▁peny	-14337
▁če	-14338
калық	-14339
▁construc	-14340
▁մեջ	-14341
").	-14342
ازی	-14343
▁ब्रिट	-14344
ការ	-14345
▁विश्व	-14346
▁cuộc	-14347
第二	-14348
▁manuel	-14349
▁internacional	-14350
▁раё	-14351
itori	-14352
▁restaur	-14353
▁आध	-14354
emin	-14355
▁000.0	-14356
▁בני	-14357
ರಲ್ಲಿ	-14358
лна	-14359
▁đội	-14360
....	-14361
▁ey	-14362
ன்று	-14363
▁сель	-14364
вом	-14365
പ്പെട	-14366
▁ڈ	-14367
ိုင်း	-14368
▁פע	-14369
ński	-14370
▁nal	-14371
▁ден	-14372
jonen	-14373
代表	-14374
▁جمعیت	-14375
ട്ടു	-14376
▁շար	-14377
ിന	-14378
قى	-14379
▁هن	-14380
▁вра	-14381
луы	-14382
air	-14383
vania	-14384
ští	-14385
ental	-14386
ธรรม	-14387
▁הייתה	-14388
ilə	-14389
▁površ	-14390
ñu	-14391
▁ընդ	-14392
▁hes	-14393
▁tây	-14394
▁कथं	-14395
▁century	-14396
เกิด	-14397
תי	-14398
▁объектының	-14399
▁реестрында	-14400
より	-14401
лаш	-14402
▁zituen	-14403
▁boli	-14404
▁lingua	-14405
იცი	-14406
▁இர	-14407
ənin	-14408
▁ער	-14409
мену	-14410
amt	-14411
▁ਇਸ	-14412
▁priz	-14413
▁българ	-14414
»)	-14415
ช่ว	-14416
keun	-14417
▁pik	-14418
▁ท	-14419
▁získ	-14420
▁প্রতি	-14421
kiem	-14422
おり	-14423
▁гро	-14424
▁alam	-14425
▁баста	-14426
▁éd	-14427
▁هر	-14428
▁неме	-14429
▁жур	-14430
▁któ	-14431
▁arme	-14432
เค	-14433
▁texas	-14434
▁especi	-14435
umā	-14436
เรื่อง	-14437
▁fə	-14438
▁arn	-14439
▁desta	-14440
▁münchen	-14441
ัม	-14442
▁antes	-14443
▁kontrol	-14444
▁biti	-14445
ანს	-14446
により	-14447
▁(0000.)	-14448
▁ketika	-14449
prim	-14450
▁във	-14451
дзя	-14452
▁dự	-14453
▁ard	-14454
▁ör	-14455
▁fast	-14456
клу	-14457
▁кня	-14458
บล	-14459
▁ٹ	-14460
present	-14461
או	-14462
▁noord	-14463
ესი	-14464
обра	-14465
iyyə	-14466
▁կմ	-14467
▁eug	-14468
лүмә	-14469
ಬ್	-14470
▁huvudsak	-14471
▁lập	-14472
ขา	-14473
▁уче	-14474
▁hosp	-14475
γγ	-14476
fore	-14477
▁xvii	-14478
▁ең	-14479
sing	-14480
eln	-14481
tech	-14482
loss	-14483
▁kanssa	-14484
▁데	-14485
▁bylo	-14486
icio	-14487
▁кам	-14488
▁пан	-14489
čius	-14490
ង្	-14491
chy	-14492
icae	-14493
зон	-14494
ల్ల	-14495
▁namun	-14496
▁population	-14497
▁μπο	-14498
▁roll	-14499
angsaan	-14500
▁роман	-14501
யில	-14502
▁nit	-14503
▁мәғлүмә	-14504
▁العالم	-14505
▁istan	-14506
ठी	-14507
తా	-14508
alta	-14509
▁000,00	-14510
▁terdapat	-14511
gte	-14512
ybės	-14513
▁gram	-14514
สุ	-14515
▁독	-14516
▁ls	-14517
▁prak	-14518
roz	-14519
▁edition	-14520
▁цр	-14521
▁(0):	-14522
▁sebelum	-14523
сце	-14524
▁kedua	-14525
ನೆಯ	-14526
▁phần	-14527
▁ساخت	-14528
▁организа	-14529
▁manif	-14530
ція	-14531
ಸ್ಥ	-14532
▁siden	-14533
▁ła	-14534
åk	-14535
кого	-14536
▁són	-14537
udu	-14538
ೀಯ	-14539
ใหญ่	-14540
▁kard	-14541
▁сушаруашы	-14542
מר	-14543
лены	-14544
jam	-14545
▁таксама	-14546
▁cuk	-14547
латын	-14548
▁eins	-14549
▁psych	-14550
▁نہ	-14551
▁után	-14552
▁tilb	-14553
unc	-14554
чны	-14555
▁gian	-14556
▁przed	-14557
ოგ	-14558
▁мү	-14559
kabukiran	-14560
▁bakarrik	-14561
▁округында	-14562
গ্র	-14563
ตํา	-14564
personer	-14565
▁کتاب	-14566
▁gitar	-14567
्स	-14568
ަކ	-14569
urr	-14570
vē	-14571
▁தெ	-14572
ვლ	-14573
▁შემდეგ	-14574
istoj	-14575
▁abril	-14576
يب	-14577
▁fy	-14578
larını	-14579
ներում	-14580
كم	-14581
νης	-14582
راف	-14583
▁дер	-14584
▁filem	-14585
ting	-14586
▁бөлігі	-14587
▁ayn	-14588
▁coll	-14589
siy	-14590
▁cuando	-14591
ẫn	-14592
▁aiz	-14593
antis	-14594
▁žem	-14595
▁gadang	-14596
สน	-14597
سین	-14598
šnj	-14599
opus	-14600
▁xiv	-14601
▁debut	-14602
erer	-14603
ելու	-14604
▁mentre	-14605
зва	-14606
▁црк	-14607
бек	-14608
▁реестры	-14609
iyle	-14610
undan	-14611
▁ljud	-14612
▁лет	-14613
▁mjesto	-14614
narození	-14615
гү	-14616
▁pertson	-14617
irs	-14618
ていた	-14619
▁кер	-14620
بع	-14621
▁мін	-14622
▁nouv	-14623
▁ਭ	-14624
เพลง	-14625
▁बह	-14626
iac	-14627
▁village	-14628
ас	-14629
hé	-14630
itsch	-14631
лды	-14632
▁ustan	-14633
บท	-14634
omer	-14635
▁фило	-14636
fə	-14637
▁saman	-14638
▁siy	-14639
▁пот	-14640
್ವ	-14641
шын	-14642
arde	-14643
▁aktibo	-14644
000)	-14645
▁vse	-14646
▁വർഗ്ഗം	-14647
▁havas	-14648
▁fasciculus	-14649
▁ê	-14650
եղծ	-14651
▁mete	-14652
ρας	-14653
▁kitab	-14654
міні	-14655
▁při	-14656
త్స	-14657
▁disp	-14658
▁olduğu	-14659
▁ingkang	-14660
▁гө	-14661
arius	-14662
▁či	-14663
▁инде	-14664
กํา	-14665
zeko	-14666
▁гз	-14667
führ	-14668
▁oscar	-14669
▁beh	-14670
▁penduduk	-14671
▁osn	-14672
ensen	-14673
による	-14674
่วม	-14675
▁tej	-14676
▁dall	-14677
▁luft	-14678
▁varia	-14679
▁oblast	-14680
▁tərəfindən	-14681
ène	-14682
▁आदि	-14683
ನಾ	-14684
шан	-14685
ต้	-14686
▁dụng	-14687
ংলাদেশ	-14688
মি	-14689
ังหวัด	-14690
sec	-14691
кой	-14692
ларын	-14693
▁deter	-14694
▁matang	-14695
andre	-14696
▁sea	-14697
אן	-14698
▁қыз	-14699
ँग	-14700
▁『	-14701
ování	-14702
vator	-14703
▁dd	-14704
ास्त	-14705
දී	-14706
▁პირ	-14707
-,	-14708
▁كما	-14709
чение	-14710
▁проти	-14711
mektedir	-14712
▁тан	-14713
mans	-14714
նդ	-14715
▁೧	-14716
▁المع	-14717
arre	-14718
▁mater	-14719
▁миха	-14720
▁autonom	-14721
سا	-14722
mol	-14723
▁काल	-14724
วิทยาลัย	-14725
ної	-14726
▁ಬೆ	-14727
▁jis	-14728
▁sut	-14729
▁україни	-14730
▁đông	-14731
avon	-14732
kai	-14733
▁شمال	-14734
àu	-14735
rok	-14736
▁republike	-14737
▁perk	-14738
-0000.	-14739
हित	-14740
▁tis	-14741
▁situada	-14742
▁cou	-14743
▁pt	-14744
▁saw	-14745
ின்றன	-14746
▁micros	-14747
▁wys	-14748
▁nest	-14749
▁univerz	-14750
▁종	-14751
opsis	-14752
спа	-14753
▁esas	-14754
éb	-14755
λεί	-14756
atore	-14757
▁aik	-14758
▁ciudad	-14759
▁истра	-14760
ุ่ม	-14761
▁라	-14762
▁cort	-14763
▁בצ	-14764
แม	-14765
ριο	-14766
fik	-14767
тк	-14768
▁seit	-14769
▁sailk	-14770
etts	-14771
ക്കു	-14772
▁države	-14773
emia	-14774
▁studi	-14775
juk	-14776
camp	-14777
▁գտն	-14778
▁יצ	-14779
pala	-14780
▁diam	-14781
▁участ	-14782
▁heeft	-14783
▁fix	-14784
▁impl	-14785
æn	-14786
ังก	-14787
τω	-14788
laki	-14789
▁reven	-14790
▁थाय्या	-14791
▁које	-14792
▁dagat	-14793
▁জন্য	-14794
▁якія	-14795
▁orientation	-14796
▁0/0	-14797
width	-14798
▁ҡу	-14799
▁libr	-14800
▁وق	-14801
▁druge	-14802
▁championship	-14803
▁όπ	-14804
▁walter	-14805
▁hanya	-14806
iją	-14807
▁হিস	-14808
▁osnov	-14809
ණය	-14810
unea	-14811
▁wir	-14812
▁toga	-14813
▁number	-14814
▁süd	-14815
ints	-14816
skem	-14817
އް	-14818
neh	-14819
▁гр	-14820
sas	-14821
▁0-000-00000-0	-14822
רץ	-14823
ুন	-14824
েক	-14825
▁alm	-14826
arten	-14827
▁მარ	-14828
್ಧ	-14829
pap	-14830
tais	-14831
קופ	-14832
uas	-14833
ðar	-14834
uso	-14835
▁birlik	-14836
▁parro	-14837
rie	-14838
▁зае	-14839
▁поч	-14840
▁piano	-14841
▁grandes	-14842
دو	-14843
▁בו	-14844
▁sound	-14845
ുകൾ	-14846
으나	-14847
▁qe	-14848
2).	-14849
ในการ	-14850
▁אח	-14851
▁math	-14852
▁عمل	-14853
enso	-14854
ibi	-14855
արան	-14856
▁సంఖ్య	-14857
ovima	-14858
▁cuku	-14859
▁prés	-14860
▁reser	-14861
িচ	-14862
▁coa	-14863
สร้าง	-14864
▁corres	-14865
▁hrvatske	-14866
▁zerbitzu	-14867
gle	-14868
▁álbum	-14869
▁cukuik	-14870
▁אוי	-14871
アル	-14872
ọi	-14873
▁tiek	-14874
▁ચ	-14875
▁barubah	-14876
▁kapit	-14877
ынан	-14878
▁македон	-14879
▁sasuatu	-14880
πε	-14881
fund	-14882
▁druž	-14883
ướng	-14884
▁اسلام	-14885
▁pacahan	-14886
дова	-14887
ench	-14888
▁miz	-14889
wikip	-14890
▁eti	-14891
▁поради	-14892
▁taas	-14893
▁kaup	-14894
ayo	-14895
later	-14896
တို့	-14897
▁(0000.	-14898
▁בית	-14899
▁hig	-14900
▁zon	-14901
ليم	-14902
ligi	-14903
▁allen	-14904
▁θα	-14905
▁anul	-14906
▁kole	-14907
മു	-14908
▁dvd	-14909
▁ად	-14910
▁ուղ	-14911
icar	-14912
▁감	-14913
ają	-14914
▁گیا	-14915
▁família	-14916
arian	-14917
dorf	-14918
▁въз	-14919
ाना	-14920
▁evit	-14921
▁potreb	-14922
▁********	-14923
▁fis	-14924
дегі	-14925
▁giới	-14926
▁conqu	-14927
▁dedic	-14928
▁tempat	-14929
మె	-14930
▁tanto	-14931
▁అనే	-14932
▁institute	-14933
▁veel	-14934
▁knji	-14935
žit	-14936
▁kov	-14937
▁paulo	-14938
sis	-14939
▁roh	-14940
ุง	-14941
nič	-14942
▁против	-14943
sterdam	-14944
▁ró	-14945
▁நட	-14946
▁hell	-14947
▁primo	-14948
▁şark	-14949
▁canad	-14950
)։	-14951
থম	-14952
iene	-14953
بازی	-14954
κη	-14955
▁تک	-14956
▁puol	-14957
▁fyrir	-14958
рев	-14959
▁aver	-14960
▁poznat	-14961
ائے	-14962
▁nab	-14963
▁այլ	-14964
▁شہر	-14965
▁uefa	-14966
▁الله	-14967
▁було	-14968
▁xii	-14969
▁الز	-14970
▁कुमा	-14971
▁במק	-14972
それ	-14973
പ്ര	-14974
▁ეს	-14975
രുന്ന	-14976
▁information	-14977
▁çıx	-14978
▁etxetan	-14979
▁tad	-14980
ệp	-14981
ಮ್ಮ	-14982
antal	-14983
uzione	-14984
наў	-14985
לות	-14986
▁teil	-14987
cm	-14988
▁okol	-14989
enk	-14990
▁mold	-14991
peh	-14992
▁importante	-14993
եան	-14994
▁სი	-14995
ुल	-14996
▁asya	-14997
onis	-14998
vus	-14999
като	-15000
▁הבי	-15001
▁wood	-15002
sche	-15003
ორის	-15004
▁उन्ह	-15005
skab	-15006
▁tunn	-15007
▁complet	-15008
ział	-15009
▁۾	-15010
נוע	-15011
▁artic	-15012
▁தொகுத	-15013
▁ross	-15014
▁жата	-15015
▁bởi	-15016
тек	-15017
anyol	-15018
йында	-15019
wyr	-15020
icha	-15021
▁tada	-15022
▁насеље	-15023
▁signific	-15024
▁pron	-15025
▁பிற	-15026
atzen	-15027
▁poseb	-15028
▁tipo	-15029
ņa	-15030
▁sax	-15031
▁dela	-15032
▁moun	-15033
ที่มี	-15034
▁પ્રા	-15035
нии	-15036
ونه	-15037
▁يت	-15038
▁nod	-15039
▁bersama	-15040
һи	-15041
asin	-15042
▁even	-15043
▁prins	-15044
▁selle	-15045
national	-15046
▁lista	-15047
انگ	-15048
▁bình	-15049
▁muut	-15050
▁zalo	-15051
▁зу	-15052
▁suid	-15053
▁dau	-15054
▁arthur	-15055
▁hitler	-15056
▁oluş	-15057
▁akhir	-15058
ტიკ	-15059
beste	-15060
▁초	-15061
мов	-15062
▁неговата	-15063
▁ի	-15064
▁eh	-15065
▁×	-15066
ierte	-15067
øre	-15068
▁canton	-15069
▁liik	-15070
▁jumlah	-15071
▁michel	-15072
▁alli	-15073
۰۰	-15074
เขา	-15075
▁aix	-15076
▁kac	-15077
▁soft	-15078
▁муниципалитет	-15079
نىڭ	-15080
▁fogu	-15081
▁znan	-15082
لاح	-15083
▁enk	-15084
cian	-15085
▁cơ	-15086
▁дома	-15087
▁lớn	-15088
▁serta	-15089
pak	-15090
▁söz	-15091
▁yok	-15092
شده	-15093
▁kontin	-15094
▁عنوان	-15095
▁운	-15096
▁جز	-15097
▁cele	-15098
▁nekoliko	-15099
▁বারো	-15100
ćen	-15101
▁இட	-15102
▁воен	-15103
ettu	-15104
▁desember	-15105
րո	-15106
▁cual	-15107
▁(„	-15108
▁nye	-15109
uren	-15110
ടെ	-15111
اتا	-15112
▁لت	-15113
▁libert	-15114
йт	-15115
lais	-15116
inum	-15117
▁мат	-15118
öld	-15119
▁personal	-15120
▁стату	-15121
kasadpan	-15122
リカ	-15123
tors	-15124
лько	-15125
▁perang	-15126
elk	-15127
ecu	-15128
ൂർ	-15129
▁esku	-15130
▁аба	-15131
òl	-15132
▁gə	-15133
▁vá	-15134
▁gibi	-15135
▁gebruik	-15136
nosť	-15137
▁නි	-15138
▁سم	-15139
▁člen	-15140
ުރ	-15141
▁inici	-15142
onne	-15143
saint	-15144
▁populasyon	-15145
▁ట	-15146
mart	-15147
▁санат	-15148
клад	-15149
ಜ್	-15150
ודה	-15151
dav	-15152
▁рф	-15153
▁santiago	-15154
▁vör	-15155
▁מג	-15156
շտ	-15157
şi	-15158
▁superior	-15159
מד	-15160
▁срп	-15161
▁mū	-15162
▁''«	-15163
ating	-15164
টার	-15165
▁honor	-15166
▁ца	-15167
დამი	-15168
opis	-15169
iaceae	-15170
zor	-15171
▁anders	-15172
▁capita	-15173
ometer	-15174
▁образо	-15175
туу	-15176
ilus	-15177
▁მას	-15178
▁gyven	-15179
жение	-15180
▁ست	-15181
▁ryt	-15182
▁bene	-15183
▁लाग	-15184
್ರಾ	-15185
anten	-15186
▁jälkeen	-15187
▁пет	-15188
▁कार्य	-15189
▁dituzten	-15190
unes	-15191
ೋಗ	-15192
▁тиклем	-15193
▁ഡ	-15194
ioa	-15195
▁надмор	-15196
orr	-15197
iane	-15198
fc	-15199
பா	-15200
▁rū	-15201
▁phía	-15202
▁diper	-15203
kreis	-15204
ಸ್ತ	-15205
rd	-15206
▁listop	-15207
▁asi	-15208
▁أك	-15209
asida	-15210
▁abitant	-15211
▁images	-15212
▁올	-15213
div	-15214
ugo	-15215
▁baino	-15216
▁obdob	-15217
▁шар	-15218
かった	-15219
ural	-15220
▁alap	-15221
▁fev	-15222
▁მისი	-15223
!''	-15224
▁bard	-15225
luk	-15226
▁شخص	-15227
▁оны	-15228
▁prix	-15229
▁concello	-15230
iani	-15231
py	-15232
ৰু	-15233
viet	-15234
рей	-15235
▁गढ	-15236
గ్	-15237
▁phải	-15238
jus	-15239
icul	-15240
▁magaz	-15241
▁ostat	-15242
▁utama	-15243
▁যে	-15244
eris	-15245
וך	-15246
▁রাজ	-15247
يان	-15248
▁hoof	-15249
ból	-15250
rix	-15251
▁ਹੋ	-15252
യിലെ	-15253
▁aff	-15254
▁mê	-15255
▁muk	-15256
ங்கு	-15257
▁0000–00,	-15258
ження	-15259
▁נוס	-15260
▁holland	-15261
ята	-15262
▁bureau	-15263
▁представ	-15264
פע	-15265
λί	-15266
▁θέ	-15267
▁પા	-15268
▁इन	-15269
▁рево	-15270
คือ	-15271
ବା	-15272
▁జిల్	-15273
▁ří	-15274
▁gele	-15275
▁batal	-15276
ésia	-15277
▁השני	-15278
hos	-15279
▁էին	-15280
▁scaleminor	-15281
▁hau	-15282
nico	-15283
▁arv	-15284
▁kebangsaan	-15285
inë	-15286
▁determin	-15287
▁potom	-15288
▁မြ	-15289
ollow	-15290
gaz	-15291
وال	-15292
▁año	-15293
▁jet	-15294
▁ash	-15295
▁spol	-15296
▁temps	-15297
▁process	-15298
inna	-15299
lade	-15300
▁fiv	-15301
íz	-15302
ліся	-15303
▁klimat	-15304
▁bakı	-15305
▁aks	-15306
▁popisu	-15307
rier	-15308
▁सन्	-15309
▁tekn	-15310
лардың	-15311
▁ente	-15312
ന്ദ	-15313
тінде	-15314
▁lord	-15315
▁argentina	-15316
▁आणि	-15317
▁marca	-15318
▁ভারত	-15319
syl	-15320
pit	-15321
โอ	-15322
ップ	-15323
aken	-15324
enten	-15325
ánd	-15326
▁bih	-15327
нали	-15328
των	-15329
▁օգ	-15330
ąz	-15331
िए	-15332
హి	-15333
▁pref	-15334
ฤษ	-15335
ларының	-15336
▁timea	-15337
▁komunumo	-15338
egel	-15339
imm	-15340
xía	-15341
▁селото	-15342
ကြီး	-15343
▁осво	-15344
▁doğum	-15345
▁cultura	-15346
izer	-15347
ψη	-15348
гля	-15349
bres	-15350
▁되었다	-15351
▁òg	-15352
▁kuk	-15353
▁باز	-15354
ว่าง	-15355
▁fifa	-15356
▁dünya	-15357
▁срби	-15358
▁versch	-15359
teau	-15360
▁pent	-15361
▁наста	-15362
স্ট	-15363
▁वा	-15364
лли	-15365
േര	-15366
▁「	-15367
中央	-15368
ាយ	-15369
ники	-15370
▁hotel	-15371
ம்ம	-15372
▁duk	-15373
00,0	-15374
ումը	-15375
文化	-15376
▁dè	-15377
▁ين	-15378
▁із	-15379
edra	-15380
្ល	-15381
нах	-15382
▁прое	-15383
▁राष्ट	-15384
▁ನೀ	-15385
▁alfred	-15386
▁вико	-15387
द्य	-15388
ean	-15389
öö	-15390
lagt	-15391
▁project	-15392
▁mall	-15393
aldean	-15394
pond	-15395
▁jawa	-15396
arti	-15397
ணி	-15398
oby	-15399
teen	-15400
であった	-15401
▁музы	-15402
ıcı	-15403
ेष	-15404
▁indon	-15405
▁урнаш	-15406
ستانی	-15407
เรีย	-15408
▁timeaxis	-15409
ীন	-15410
▁אשר	-15411
▁kū	-15412
▁עב	-15413
▁spre	-15414
▁ქალაქ	-15415
▁victoria	-15416
kev	-15417
دان	-15418
▁crk	-15419
austr	-15420
▁spiel	-15421
▁जू	-15422
▁ditamukan	-15423
र्ष	-15424
▁наоѓа	-15425
였다	-15426
▁aa	-15427
▁projek	-15428
▁склада	-15429
धान	-15430
▁पहा	-15431
▁құрайды	-15432
jší	-15433
▁մարզ	-15434
▁where	-15435
ρίου	-15436
레이	-15437
โลก	-15438
كى	-15439
▁เมื่อ	-15440
▁giữ	-15441
ajaan	-15442
▁ظ	-15443
▁സ്ഥ	-15444
ступа	-15445
prof	-15446
كرة	-15447
▁வக	-15448
▁niini	-15449
reo	-15450
сор	-15451
ต้อง	-15452
▁proto	-15453
▁gospod	-15454
קי	-15455
▁많	-15456
ucn	-15457
▁кро	-15458
tris	-15459
▁təş	-15460
pot	-15461
▁little	-15462
elige	-15463
▁arts	-15464
asie	-15465
▁საქ	-15466
çe	-15467
әлә	-15468
▁sof	-15469
utz	-15470
▁جا	-15471
ื่น	-15472
▁მხ	-15473
▁pab	-15474
▁облысы	-15475
tallet	-15476
▁campe	-15477
▁light	-15478
писа	-15479
▁karşı	-15480
▁order	-15481
arra	-15482
angen	-15483
▁göst	-15484
իսի	-15485
tez	-15486
ظم	-15487
хід	-15488
ভিন	-15489
▁կողմից	-15490
▁sle	-15491
న్నాయి	-15492
▁શા	-15493
▁mér	-15494
▁영화	-15495
▁utanas	-15496
▁ایل	-15497
▁teatr	-15498
▁inspir	-15499
union	-15500
▁zp	-15501
▁điều	-15502
▁երկր	-15503
antar	-15504
▁pand	-15505
▁anta	-15506
amerik	-15507
્યા	-15508
▁partido	-15509
ויות	-15510
▁rész	-15511
house	-15512
▁conoc	-15513
▁코	-15514
కో	-15515
edje	-15516
ир	-15517
owski	-15518
▁wen	-15519
▁οποία	-15520
cev	-15521
년에	-15522
ølv	-15523
▁ပြ	-15524
imą	-15525
▁ngo	-15526
▁கால	-15527
▁janë	-15528
==	-15529
▁bef	-15530
▁հատ	-15531
▁citt	-15532
onen	-15533
%),	-15534
uvi	-15535
vre	-15536
ଙ୍କ	-15537
▁הז	-15538
пису	-15539
▁양	-15540
мад	-15541
▁conv	-15542
ших	-15543
▁ته	-15544
▁our	-15545
osios	-15546
▁үз	-15547
agan	-15548
▁tug	-15549
แน	-15550
▁аў	-15551
hout	-15552
▁chicago	-15553
անց	-15554
▁canvas	-15555
aix	-15556
iyaning	-15557
▁tidligere	-15558
ାନ	-15559
▁sund	-15560
راق	-15561
▁bem	-15562
▁بعض	-15563
▁000–	-15564
tih	-15565
▁auto	-15566
▁latvijas	-15567
았다	-15568
▁այս	-15569
ffe	-15570
geme	-15571
ിത്ര	-15572
ംഗ	-15573
レー	-15574
▁ռուս	-15575
▁trước	-15576
ρεί	-15577
▁проте	-15578
▁habitants	-15579
ตุ	-15580
ahu	-15581
بت	-15582
▁дире	-15583
ôr	-15584
เหล	-15585
mich	-15586
▁staat	-15587
ives	-15588
▁kore	-15589
mışdır	-15590
ડી	-15591
▁گٹھ	-15592
▁warsza	-15593
▁состав	-15594
issement	-15595
▁büt	-15596
▁ea	-15597
onic	-15598
парта	-15599
▁olim	-15600
▁filme	-15601
▁പി	-15602
▁kand	-15603
μός	-15604
ammen	-15605
▁મુખ્ય	-15606
▁magnet	-15607
▁två	-15608
ทําให้	-15609
▁lad	-15610
▁влади	-15611
▁gradu	-15612
وص	-15613
нун	-15614
▁pò	-15615
ness	-15616
ོ་	-15617
inne	-15618
ুক্ত	-15619
▁sila	-15620
кли	-15621
როს	-15622
▁beat	-15623
лн	-15624
▁حال	-15625
▁salv	-15626
▁razv	-15627
していた	-15628
arl	-15629
cen	-15630
▁δύο	-15631
labor	-15632
▁vuoden	-15633
▁ця	-15634
oter	-15635
▁cross	-15636
ml	-15637
eses	-15638
èisa	-15639
▁sendo	-15640
▁patri	-15641
▁csak	-15642
asz	-15643
лось	-15644
▁gere	-15645
лись	-15646
▁सी	-15647
น้ํา	-15648
ícula	-15649
▁teng	-15650
ސް	-15651
ेन	-15652
ття	-15653
▁leis	-15654
▁prije	-15655
ගේ	-15656
▁sær	-15657
ring	-15658
▁lete	-15659
▁추	-15660
adel	-15661
ased	-15662
以及	-15663
▁dus	-15664
ёл	-15665
▁및	-15666
▁ljubl	-15667
▁לכ	-15668
▁czę	-15669
ഡ്	-15670
avy	-15671
untza	-15672
american	-15673
ոկ	-15674
чын	-15675
jó	-15676
ਰਾ	-15677
miss	-15678
▁ola	-15679
ála	-15680
теді	-15681
▁урнашкан	-15682
lerin	-15683
▁ofici	-15684
▁llu	-15685
ാൽ	-15686
▁റ	-15687
▁гэта	-15688
▁వె	-15689
onso	-15690
▁full	-15691
▁000-0000	-15692
നം	-15693
خاص	-15694
ərək	-15695
▁жаса	-15696
▁bottom	-15697
ادر	-15698
▁lượng	-15699
▁ludwig	-15700
ána	-15701
▁doma	-15702
्म	-15703
ரோ	-15704
даа	-15705
ត្ត	-15706
▁sina	-15707
skip	-15708
▁пари	-15709
▁armen	-15710
பெ	-15711
▁gul	-15712
▁теат	-15713
時代	-15714
▁також	-15715
▁aktor	-15716
نة	-15717
▁τε	-15718
illar	-15719
▁fina	-15720
▁кезде	-15721
edet	-15722
йо	-15723
यु	-15724
லக	-15725
▁αρ	-15726
яўля	-15727
▁права	-15728
ustus	-15729
▁lung	-15730
▁eigen	-15731
pia	-15732
ելով	-15733
τισ	-15734
▁nalista	-15735
tien	-15736
▁deres	-15737
▁где	-15738
ált	-15739
стон	-15740
rio	-15741
իճ	-15742
lib	-15743
▁cri	-15744
▁confer	-15745
▁trabal	-15746
فاده	-15747
▁अव	-15748
▁joan	-15749
▁homes	-15750
▁bě	-15751
▁koz	-15752
▁trup	-15753
▁импе	-15754
▁musical	-15755
richt	-15756
▁bulun	-15757
бір	-15758
▁avo	-15759
▁արտ	-15760
áll	-15761
:00)	-15762
▁годината	-15763
▁cé	-15764
ksi	-15765
▁ás	-15766
▁dövlət	-15767
▁ngaran	-15768
▁mie	-15769
▁իսկ	-15770
gew	-15771
▁**''	-15772
asse	-15773
▁alp	-15774
▁ён	-15775
▁կառ	-15776
▁propri	-15777
▁іс	-15778
▁shak	-15779
▁death	-15780
▁still	-15781
::	-15782
אס	-15783
ivu	-15784
▁kanada	-15785
рес	-15786
▁կր	-15787
chten	-15788
▁ď	-15789
▁majd	-15790
▁دریا	-15791
}-.	-15792
owego	-15793
pov	-15794
ennes	-15795
्यू	-15796
itto	-15797
мена	-15798
▁spa	-15799
▁воб	-15800
pier	-15801
▁وفي	-15802
ovanje	-15803
sir	-15804
افة	-15805
اريخ	-15806
▁smrti	-15807
orig	-15808
اہ	-15809
▁trở	-15810
▁blue	-15811
▁istanbul	-15812
▁жү	-15813
▁जै	-15814
▁població	-15815
нае	-15816
udes	-15817
чке	-15818
ēlē	-15819
örtén	-15820
muse	-15821
ण्या	-15822
▁margar	-15823
tiques	-15824
▁eraik	-15825
▁يق	-15826
ected	-15827
чай	-15828
rið	-15829
▁osvoj	-15830
स्था	-15831
▁field	-15832
▁türki	-15833
▁أمريك	-15834
▁kasnije	-15835
▁bisa	-15836
ാള	-15837
▁saka	-15838
▁olaraq	-15839
δε	-15840
▁παρά	-15841
▁орден	-15842
▁posterior	-15843
olet	-15844
adur	-15845
▁قدم	-15846
▁календар	-15847
okuv	-15848
▁cím	-15849
yka	-15850
▁munisip	-15851
▁orb	-15852
▁lili	-15853
бору	-15854
дини	-15855
▁biri	-15856
▁comune	-15857
▁కు	-15858
wir	-15859
ява	-15860
▁subst	-15861
▁қазақстан	-15862
xes	-15863
otus	-15864
▁ула	-15865
ىلى	-15866
бир	-15867
▁bằng	-15868
▁አ	-15869
nut	-15870
▁외	-15871
lığ	-15872
ficie	-15873
▁боле	-15874
يش	-15875
▁мето	-15876
▁cerro	-15877
ские	-15878
ুরু	-15879
fatt	-15880
బడి	-15881
▁موج	-15882
▁kdy	-15883
▁ինչ	-15884
ാഗ	-15885
uju	-15886
furt	-15887
▁establ	-15888
▁tỉnh	-15889
սի	-15890
▁δυ	-15891
šana	-15892
▁held	-15893
▁hiss	-15894
φα	-15895
stav	-15896
لوم	-15897
iril	-15898
хар	-15899
onda	-15900
▁strateg	-15901
jur	-15902
ಂಗ್	-15903
▁провин	-15904
יום	-15905
▁കൊ	-15906
▁case	-15907
▁olur	-15908
itelj	-15909
▁dima	-15910
ned	-15911
ợp	-15912
▁होते	-15913
▁కి	-15914
▁فرانس	-15915
மைய	-15916
ദേഹ	-15917
egra	-15918
▁hele	-15919
▁предста	-15920
พร	-15921
▁inim	-15922
▁ہیں۔	-15923
▁oficial	-15924
вра	-15925
▁مصر	-15926
となった	-15927
ูล	-15928
িতে	-15929
doni	-15930
лд	-15931
▁edu	-15932
oly	-15933
час	-15934
▁প্ৰ	-15935
▁rost	-15936
віч	-15937
راه	-15938
js	-15939
ято	-15940
վյալ	-15941
▁매	-15942
▁دول	-15943
کو	-15944
▁האט	-15945
að	-15946
fyd	-15947
בן	-15948
ajā	-15949
▁açı	-15950
▁ming	-15951
jul	-15952
իլմ	-15953
▁samme	-15954
colors	-15955
▁0000-00,	-15956
▁ஆம்	-15957
▁än	-15958
▁mcg	-15959
▁lenghe	-15960
▁lys	-15961
ahkan	-15962
യ്	-15963
▁жүйе	-15964
вале	-15965
▁жу	-15966
▁zego	-15967
▁vì	-15968
cla	-15969
юцца	-15970
anus	-15971
▁हा	-15972
-000000	-15973
ப்படும்	-15974
kk	-15975
ற்று	-15976
දු	-15977
rum	-15978
ലി	-15979
ื้อ	-15980
دة	-15981
▁svetov	-15982
head	-15983
յուս	-15984
חות	-15985
▁salt	-15986
▁bawah	-15987
▁units	-15988
▁jard	-15989
▁winter	-15990
▁տես	-15991
▁estaven	-15992
ymenoptera	-15993
▁here	-15994
▁pár	-15995
sub	-15996
جم	-15997
▁കോ	-15998
▁korea	-15999
dik	-16000
ائل	-16001
▁ახ	-16002
▁अपने	-16003
නි	-16004
▁campion	-16005
▁mob	-16006
▁tvr	-16007
ető	-16008
▁לצ	-16009
▁aper	-16010
▁osa	-16011
▁diri	-16012
igur	-16013
sey	-16014
jena	-16015
centr	-16016
▁arqu	-16017
▁fuit	-16018
▁(0000):	-16019
icano	-16020
даг	-16021
▁tes	-16022
▁офи	-16023
ahl	-16024
μετ	-16025
्रीय	-16026
▁մին	-16027
ique	-16028
▁vog	-16029
▁دیگر	-16030
▁физи	-16031
▁zus	-16032
▁علم	-16033
によって	-16034
▁cala	-16035
produk	-16036
вото	-16037
hot	-16038
ില്ല	-16039
bed	-16040
ալի	-16041
รู	-16042
▁tyr	-16043
▁wyd	-16044
czas	-16045
vey	-16046
scht	-16047
alk	-16048
▁അവ	-16049
ுறை	-16050
тивно	-16051
गू	-16052
▁fait	-16053
ोट	-16054
-00)	-16055
▁besch	-16056
▁ਪ੍ਰ	-16057
ĩa	-16058
▁أس	-16059
юн	-16060
ിലെ	-16061
▁føl	-16062
iseen	-16063
italia	-16064
ses	-16065
чні	-16066
▁eran	-16067
▁federal	-16068
▁kob	-16069
ína	-16070
▁thống	-16071
▁שני	-16072
inak	-16073
ronan	-16074
هي	-16075
پی	-16076
ధ్య	-16077
ogle	-16078
ango	-16079
ेलि	-16080
▁نا	-16081
▁सर्व	-16082
▁basket	-16083
ौर	-16084
▁jää	-16085
טא	-16086
▁۱۸	-16087
▁tier	-16088
▁capac	-16089
▁stadion	-16090
ராக	-16091
▁hok	-16092
▁توسط	-16093
▁աստերոիդ	-16094
▁hidu	-16095
▁нема	-16096
пей	-16097
ורים	-16098
ాలను	-16099
▁پہ	-16100
ارة	-16101
▁books	-16102
ելի	-16103
ոնի	-16104
▁giovanni	-16105
▁μο	-16106
elä	-16107
▁hiduik	-16108
ological	-16109
)'',	-16110
elec	-16111
▁suc	-16112
лыш	-16113
čiau	-16114
▁oblasti	-16115
▁kond	-16116
▁ಸಮ	-16117
iola	-16118
ಿಸುವ	-16119
▁ντ	-16120
omos	-16121
▁najveći	-16122
ப்பட்டது	-16123
ാട	-16124
riv	-16125
▁respons	-16126
стр	-16127
▁сим	-16128
▁protagon	-16129
ื้น	-16130
atti	-16131
unas	-16132
gsa	-16133
▁kata	-16134
▁hoved	-16135
▁ज्या	-16136
▁hazır	-16137
▁hợp	-16138
▁nueva	-16139
▁ade	-16140
▁iso	-16141
తం	-16142
ロー	-16143
▁bundes	-16144
nun	-16145
▁ईसा	-16146
▁kier	-16147
माण	-16148
ător	-16149
▁komon	-16150
од	-16151
یکی	-16152
▁gren	-16153
νού	-16154
▁zna	-16155
▁mutlak	-16156
عود	-16157
نین	-16158
▁хер	-16159
▁aholi	-16160
ეთი	-16161
ingo	-16162
▁sco	-16163
▁ଜ	-16164
ยุ	-16165
▁pare	-16166
דם	-16167
▁gəl	-16168
aké	-16169
がある	-16170
▁világ	-16171
imiento	-16172
sek	-16173
▁niem	-16174
ayı	-16175
უშ	-16176
ält	-16177
▁беларусі	-16178
ەوە	-16179
▁مغ	-16180
чаны	-16181
▁ಮೇ	-16182
▁orde	-16183
▁chúng	-16184
anton	-16185
тым	-16186
lightgrey	-16187
ทรง	-16188
▁número	-16189
זרח	-16190
kit	-16191
ône	-16192
▁##	-16193
▁danas	-16194
▁மக்கள்	-16195
▁оку	-16196
▁bibli	-16197
odas	-16198
פים	-16199
▁ارت	-16200
лено	-16201
▁praha	-16202
▁would	-16203
▁genera	-16204
▁입	-16205
▁коло	-16206
upiter	-16207
▁online	-16208
▁xalq	-16209
▁latach	-16210
▁pasaul	-16211
νή	-16212
jär	-16213
▁nje	-16214
▁বিশ্ব	-16215
opo	-16216
рабо	-16217
្យ	-16218
zeit	-16219
▁கரு	-16220
▁kilometr	-16221
лын	-16222
ūk	-16223
िण	-16224
ంటి	-16225
▁english	-16226
λλα	-16227
াকে	-16228
مانی	-16229
▁١	-16230
elv	-16231
▁family	-16232
▁hidup	-16233
een	-16234
klimat	-16235
tip	-16236
рэн	-16237
▁televis	-16238
ुक	-16239
▁klar	-16240
فاع	-16241
ogne	-16242
▁sky	-16243
▁پار	-16244
▁fivond	-16245
inig	-16246
▁կեն	-16247
▁kish	-16248
▁mezi	-16249
▁ké	-16250
alli	-16251
▁επίσης	-16252
▁fivondronan	-16253
▁நூ	-16254
▁metatra	-16255
lij	-16256
တော်	-16257
▁бере	-16258
▁සහ	-16259
▁atl	-16260
▁espan	-16261
ાજ	-16262
hec	-16263
мақ	-16264
نية	-16265
ដែល	-16266
自己	-16267
darkgrey	-16268
ිත	-16269
▁kənd	-16270
රු	-16271
әре	-16272
erin	-16273
▁foto	-16274
▁үшін	-16275
ვალ	-16276
เศ	-16277
avad	-16278
мда	-16279
▁jab	-16280
ദ്ദേഹ	-16281
ตก	-16282
ror	-16283
mint	-16284
itude	-16285
▁hispan	-16286
▁деген	-16287
ικα	-16288
▁билә	-16289
▁కూడా	-16290
ష్ట	-16291
▁հր	-16292
▁pemer	-16293
▁tarix	-16294
เย	-16295
▁행	-16296
▁πολι	-16297
زه	-16298
aug	-16299
▁asc	-16300
▁személyek	-16301
يين	-16302
ানে	-16303
▁arb	-16304
što	-16305
▁داد	-16306
▁chang	-16307
▁muslim	-16308
▁janeiro	-16309
▁აქ	-16310
wart	-16311
▁deven	-16312
বা	-16313
▁زبان	-16314
▁לג	-16315
ostat	-16316
ωγ	-16317
မှာ	-16318
▁프로	-16319
icky	-16320
▁komis	-16321
▁menggunakan	-16322
gab	-16323
▁finale	-16324
▁(0000–	-16325
▁sır	-16326
oder	-16327
وو	-16328
sidlakan	-16329
▁вклю	-16330
▁ஆண்டு	-16331
▁ion	-16332
▁όπως	-16333
▁башҡ	-16334
arin	-16335
джа	-16336
lina	-16337
▁кең	-16338
ിച്ചു	-16339
roč	-16340
▁lau	-16341
ос	-16342
jų	-16343
▁zde	-16344
▁prej	-16345
▁noong	-16346
▁నుండి	-16347
ేవ	-16348
▁χω	-16349
▁ปี	-16350
▁ស	-16351
tong	-16352
▁moderne	-16353
▁čempion	-16354
্ল	-16355
νας	-16356
▁նրա	-16357
▁francúz	-16358
əb	-16359
λει	-16360
▁ફ	-16361
▁జిల్లా	-16362
▁creek	-16363
ிக்கும்	-16364
افظ	-16365
▁první	-16366
визи	-16367
▁pays	-16368
▁letter	-16369
▁through	-16370
▁каталог	-16371
▁לס	-16372
コン	-16373
▁jacques	-16374
stvu	-16375
▁#000	-16376
क्व	-16377
▁ej	-16378
▁һа	-16379
▁διά	-16380
▁teknik	-16381
iago	-16382
▁स्ट	-16383
▁ಮಾ	-16384
▁bhí	-16385
▁வள	-16386
▁densità	-16387
▁остро	-16388
一個	-16389
▁regional	-16390
▁tradition	-16391
▁particular	-16392
ಂತರ	-16393
▁milan	-16394
чних	-16395
▁अन्य	-16396
ცა	-16397
▁dire	-16398
▁حد	-16399
▁baj	-16400
тся	-16401
ياس	-16402
публі	-16403
▁ут	-16404
▁tengah	-16405
প্র	-16406
ინა	-16407
nju	-16408
benhav	-16409
▁república	-16410
▁तर	-16411
▁nepr	-16412
▁bourg	-16413
▁rail	-16414
mah	-16415
asia	-16416
▁परिव	-16417
▁story	-16418
▁bolo	-16419
▁αυτό	-16420
▁magnitudo	-16421
nud	-16422
wald	-16423
▁المج	-16424
சி	-16425
ალური	-16426
▁கி	-16427
▁româ	-16428
▁campo	-16429
▁герман	-16430
oju	-16431
ozi	-16432
▁lod	-16433
▁these	-16434
أن	-16435
غا	-16436
▁dax	-16437
▁англи	-16438
orit	-16439
ிக்	-16440
▁ակ	-16441
ljed	-16442
▁ملی	-16443
mut	-16444
▁изнесу	-16445
▁президен	-16446
▁פאר	-16447
▁जन्म	-16448
шин	-16449
▁kemb	-16450
עים	-16451
▁પર	-16452
▁ür	-16453
franc	-16454
▁temper	-16455
ём	-16456
▁jelent	-16457
цер	-16458
чев	-16459
▁tax	-16460
▁sinn	-16461
▁talagsa	-16462
ims	-16463
alom	-16464
▁comb	-16465
▁talagsaon	-16466
ensä	-16467
▁mokyk	-16468
▁воблас	-16469
щен	-16470
avan	-16471
ените	-16472
▁teatro	-16473
▁død	-16474
▁site	-16475
▁nõ	-16476
▁ны	-16477
▁stein	-16478
רוש	-16479
ෙස	-16480
▁uzun	-16481
ਿਸ	-16482
▁음	-16483
▁होती	-16484
▁ட	-16485
▁austria	-16486
డం	-16487
ത്തില	-16488
▁управ	-16489
▁গ্র	-16490
▁prven	-16491
סה	-16492
قط	-16493
主要	-16494
ಪು	-16495
ನ್ಯ	-16496
▁hingga	-16497
▁гри	-16498
▁وجود	-16499
fly	-16500
▁plaza	-16501
گرد	-16502
▁że	-16503
naz	-16504
▁তাঁ	-16505
สามารถ	-16506
▁norge	-16507
▁phi	-16508
▁sehingga	-16509
▁která	-16510
▁đường	-16511
▁около	-16512
▁септе	-16513
фия	-16514
best	-16515
▁эле	-16516
чер	-16517
▁vyt	-16518
անկ	-16519
▁нө	-16520
bild	-16521
יט	-16522
མ་	-16523
▁వర్గం	-16524
ìn	-16525
weh	-16526
ñec	-16527
▁הם	-16528
▁hög	-16529
▁રા	-16530
▁مان	-16531
▁olimpij	-16532
ಕೆ	-16533
▁васи	-16534
atum	-16535
kring	-16536
พันธ	-16537
▁gek	-16538
روف	-16539
distr	-16540
でも	-16541
зво	-16542
▁सब	-16543
▁পা	-16544
alist	-16545
▁sieg	-16546
▁habagatang	-16547
▁mening	-16548
▁қарасты	-16549
üc	-16550
▁giáo	-16551
▁broad	-16552
არს	-16553
▁सर	-16554
undi	-16555
▁truy	-16556
▁५	-16557
maa	-16558
▁vent	-16559
▁பயன்ப	-16560
▁premio	-16561
▁lëtzeb	-16562
▁جس	-16563
▁ეკ	-16564
chaf	-16565
тя	-16566
cov	-16567
▁face	-16568
гия	-16569
▁conver	-16570
▁important	-16571
δι	-16572
скую	-16573
▁अंत	-16574
▁ਫ	-16575
▁במש	-16576
ysval	-16577
өт	-16578
▁др	-16579
▁üzer	-16580
ذلك	-16581
▁«''	-16582
asten	-16583
▁broju	-16584
ਿੱ	-16585
▁arist	-16586
▁ell	-16587
ियन	-16588
▁fiskal	-16589
смо	-16590
intas	-16591
▁kid	-16592
▁uprav	-16593
ədə	-16594
vár	-16595
īja	-16596
चार	-16597
song	-16598
▁استفاده	-16599
▁alko	-16600
時間	-16601
wed	-16602
▁दूगु	-16603
ләрендә	-16604
▁corpor	-16605
ప్ర	-16606
▁म्ह	-16607
▁grada	-16608
▁angel	-16609
▁кана	-16610
rog	-16611
ایت	-16612
kum	-16613
רכז	-16614
ําร	-16615
▁stort	-16616
سى	-16617
zes	-16618
▁thường	-16619
▁сә	-16620
▁struc	-16621
▁مثل	-16622
got	-16623
gem	-16624
▁왕	-16625
▁height	-16626
▁digital	-16627
▁اند	-16628
eir	-16629
itta	-16630
вид	-16631
هنگ	-16632
▁jaro	-16633
даў	-16634
лась	-16635
anı	-16636
▁სტ	-16637
▁تحت	-16638
цэ	-16639
alabak	-16640
áš	-16641
▁spole	-16642
rah	-16643
ய்ய	-16644
ในปี	-16645
▁tarp	-16646
ญา	-16647
ခြင်း	-16648
▁minangka	-16649
▁аст	-16650
▁sverige	-16651
cji	-16652
κρα	-16653
▁형	-16654
གས་	-16655
etter	-16656
▁गा	-16657
รม	-16658
ुन	-16659
▁persona	-16660
▁ਚ	-16661
чний	-16662
▁strane	-16663
▁ހ	-16664
れる	-16665
ต้น	-16666
▁phố	-16667
ebra	-16668
▁span	-16669
▁seramai	-16670
യില	-16671
▁bunda	-16672
▁(000–000)	-16673
▁बी	-16674
とも	-16675
▁mcc	-16676
ljiv	-16677
ეხ	-16678
awa	-16679
τρο	-16680
▁стар	-16681
льного	-16682
సం	-16683
ράφ	-16684
ոստ	-16685
atelj	-16686
▁dä	-16687
lage	-16688
▁conse	-16689
bad	-16690
▁ingr	-16691
▁abdul	-16692
ország	-16693
tem	-16694
раў	-16695
▁vùng	-16696
▁ગામમાં	-16697
▁извест	-16698
فق	-16699
▁խաղ	-16700
▁frag	-16701
ახლე	-16702
▁eli	-16703
ieu	-16704
▁tamp	-16705
▁século	-16706
сінің	-16707
▁châu	-16708
▁špan	-16709
▁ஆகிய	-16710
ované	-16711
▁ilin	-16712
▁iucn	-16713
▁संवत	-16714
bula	-16715
▁писа	-16716
▁uporab	-16717
▁trou	-16718
スタ	-16719
րապ	-16720
▁kuul	-16721
▁tard	-16722
റിയ	-16723
ară	-16724
כול	-16725
سة	-16726
▁३	-16727
▁दिया	-16728
▁force	-16729
ུ་	-16730
วรร	-16731
▁тығы	-16732
▁μη	-16733
зын	-16734
ူး	-16735
ston	-16736
▁וש	-16737
χαν	-16738
جام	-16739
้อม	-16740
apar	-16741
▁caus	-16742
▁వ్య	-16743
▁pilsē	-16744
▁तो	-16745
▁kald	-16746
дри	-16747
日に	-16748
ván	-16749
▁افراد	-16750
nea	-16751
▁(00,00%	-16752
▁jõ	-16753
▁ork	-16754
masuk	-16755
сә	-16756
ர்ந்த	-16757
лах	-16758
▁попу	-16759
िता	-16760
▁भारतीय	-16761
▁յ	-16762
▁tiếng	-16763
igis	-16764
▁pó	-16765
สา	-16766
▁syr	-16767
▁zgod	-16768
нівер	-16769
▁cet	-16770
illon	-16771
θο	-16772
ล์	-16773
ība	-16774
▁sido	-16775
aze	-16776
▁dzi	-16777
hasil	-16778
ավայր	-16779
సా	-16780
▁lực	-16781
▁đoàn	-16782
▁वै	-16783
annes	-16784
▁ави	-16785
▁volume	-16786
▁ҷ	-16787
▁время	-16788
زادگان	-16789
▁trình	-16790
▁רי	-16791
▁når	-16792
▁ਕਰ	-16793
▁اخت	-16794
▁største	-16795
նի	-16796
▁អ	-16797
müş	-16798
▁syl	-16799
▁உரு	-16800
пор	-16801
чнай	-16802
فع	-16803
बा	-16804
▁suomen	-16805
▁πέ	-16806
olar	-16807
▁poł	-16808
▁ๆ	-16809
sfondo	-16810
તિ	-16811
▁околу	-16812
▁jedna	-16813
েত	-16814
▁સા	-16815
ěl	-16816
▁dc	-16817
▁bernard	-16818
тің	-16819
▁növ	-16820
▁adlı	-16821
▁kommunadir	-16822
ights	-16823
▁conform	-16824
ított	-16825
▁нови	-16826
azz	-16827
phil	-16828
▁sempre	-16829
ודים	-16830
▁میت	-16831
▁fü	-16832
▁méd	-16833
▁فار	-16834
▁vė	-16835
▁then	-16836
▁%)	-16837
▁оң	-16838
▁lehen	-16839
ubre	-16840
сет	-16841
▁saks	-16842
မှု	-16843
▁gabri	-16844
▁követ	-16845
ittä	-16846
тери	-16847
▁galaks	-16848
▁isto	-16849
ол	-16850
ព្រះ	-16851
ける	-16852
▁변	-16853
ítás	-16854
▁संग	-16855
▁ადამი	-16856
აზე	-16857
▁meksiku	-16858
рь	-16859
▁நக	-16860
▁تھا	-16861
▁متر	-16862
▁internas	-16863
▁iw	-16864
aktor	-16865
▁더	-16866
▁sow	-16867
▁мла	-16868
▁gio	-16869
▁find	-16870
▁phys	-16871
rar	-16872
▁build	-16873
▁hie	-16874
▁bord	-16875
▁그리	-16876
▁ida	-16877
คํา	-16878
iones	-16879
amaan	-16880
▁στρα	-16881
▁උ	-16882
μου	-16883
▁നട	-16884
koz	-16885
チャ	-16886
▁maydoni	-16887
▁சி	-16888
ệm	-16889
ਜ਼	-16890
▁naziv	-16891
▁paling	-16892
খ্যা	-16893
ுடன்	-16894
seen	-16895
▁उत्	-16896
ną	-16897
▁sche	-16898
▁simp	-16899
▁הרב	-16900
ರುತ್ತ	-16901
▁گرو	-16902
▁კონ	-16903
▁kalas	-16904
▁zegoen	-16905
lub	-16906
gota	-16907
long	-16908
▁ahol	-16909
";	-16910
▁afg	-16911
èm	-16912
▁zr	-16913
▁때문	-16914
フィ	-16915
isp	-16916
▁jong	-16917
โรงเรียน	-16918
بط	-16919
▁collapse	-16920
教育	-16921
▁jedno	-16922
edu	-16923
țin	-16924
atge	-16925
▁logo	-16926
▁piir	-16927
▁обще	-16928
▁ଓ	-16929
▁francesa	-16930
گە	-16931
▁jeff	-16932
▁legend	-16933
▁என்பது	-16934
▁활	-16935
eras	-16936
اره	-16937
▁öster	-16938
▁ಸೇ	-16939
▁gmt	-16940
▁אחר	-16941
فه	-16942
▁),	-16943
▁پاک	-16944
▁λα	-16945
▁toerana	-16946
ۆل	-16947
koa	-16948
లుగు	-16949
насць	-16950
▁tant	-16951
一个	-16952
ené	-16953
цио	-16954
iniai	-16955
▁проц	-16956
▁україн	-16957
▁элект	-16958
प्त	-16959
ześ	-16960
▁화	-16961
▁במה	-16962
હે	-16963
chos	-16964
▁המק	-16965
▁κύ	-16966
ново	-16967
▁dú	-16968
▁devlet	-16969
▁amsterdam	-16970
▁பின்	-16971
▁alın	-16972
кім	-16973
▁그는	-16974
▁posled	-16975
മി	-16976
urb	-16977
utos	-16978
▁після	-16979
meister	-16980
▁morte	-16981
▁landet	-16982
нова	-16983
▁آنها	-16984
▁χρό	-16985
lular	-16986
парат	-16987
neur	-16988
▁mini	-16989
្វ	-16990
▁இல	-16991
▁cli	-16992
▁izd	-16993
▁série	-16994
umento	-16995
▁уби	-16996
▁00/00	-16997
ūros	-16998
▁chiế	-16999
▁تت	-17000
▁eftir	-17001
خان	-17002
▁հաս	-17003
▁express	-17004
▁피	-17005
▁roger	-17006
▁geg	-17007
▁биләмә	-17008
abel	-17009
bars	-17010
inom	-17011
ण्डल	-17012
▁dina	-17013
▁승	-17014
úm	-17015
▁perí	-17016
ுக்	-17017
▁bile	-17018
доў	-17019
▁ווא	-17020
0000)	-17021
▁روز	-17022
hausen	-17023
▁kie	-17024
ेम्बर	-17025
▁mỹ	-17026
▁एवं	-17027
▁ପ୍ର	-17028
는데	-17029
aid	-17030
▁rele	-17031
tex	-17032
▁مخ	-17033
▁وكان	-17034
forme	-17035
▁chức	-17036
▁philosoph	-17037
седа	-17038
ีน	-17039
▁экс	-17040
ektiv	-17041
▁vých	-17042
▁maja	-17043
人民	-17044
▁omgiv	-17045
▁உள்ளது	-17046
ắc	-17047
▁ބ	-17048
equ	-17049
oco	-17050
աճ	-17051
حص	-17052
ера	-17053
▁vuos	-17054
▁még	-17055
formas	-17056
ंप	-17057
oem	-17058
▁بط	-17059
▁کې	-17060
▁본	-17061
കൾ	-17062
ób	-17063
ukku	-17064
ading	-17065
щу	-17066
▁خلال	-17067
▁τό	-17068
лда	-17069
წყ	-17070
arii	-17071
▁kater	-17072
▁анг	-17073
irao	-17074
unar	-17075
▁худо	-17076
▁زمان	-17077
▁heart	-17078
որհ	-17079
kola	-17080
▁ingl	-17081
▁haavon	-17082
」(	-17083
▁जुइ	-17084
▁துடு	-17085
aw	-17086
ەم	-17087
▁평	-17088
▁wid	-17089
æs	-17090
turae	-17091
ಕಾ	-17092
ştir	-17093
▁win	-17094
▁ծն	-17095
ishi	-17096
usse	-17097
▁minh	-17098
ystem	-17099
▁zdrav	-17100
стре	-17101
▁göstər	-17102
ହି	-17103
▁oč	-17104
estä	-17105
owad	-17106
вае	-17107
hou	-17108
との	-17109
лів	-17110
ნენ	-17111
▁անվ	-17112
urile	-17113
ագույն	-17114
▁մր	-17115
▁लोक	-17116
ਦੇ	-17117
nez	-17118
ดา	-17119
yta	-17120
▁тау	-17121
▁אבי	-17122
lingen	-17123
əsinin	-17124
sburg	-17125
веден	-17126
▁прин	-17127
ঞ্চ	-17128
nings	-17129
▁označ	-17130
▁cultural	-17131
izin	-17132
▁ίδ	-17133
▁сою	-17134
▁adolf	-17135
▁vietnam	-17136
▁literatur	-17137
▁университе	-17138
+0	-17139
ogon	-17140
▁մոտ	-17141
▁alte	-17142
▁european	-17143
ัจ	-17144
▁μό	-17145
▁შეს	-17146
žil	-17147
▁ਇੱਕ	-17148
కొ	-17149
▁სიმ	-17150
▁reino	-17151
òa	-17152
нови	-17153
▁vaz	-17154
▁direkt	-17155
▁mille	-17156
bold	-17157
▁مرکز	-17158
ográ	-17159
oš	-17160
כו	-17161
▁kandid	-17162
▁२००	-17163
чил	-17164
อีก	-17165
▁건	-17166
asanya	-17167
年代	-17168
▁कुछ	-17169
దేశ	-17170
▁lors	-17171
atë	-17172
ഞ്ച	-17173
▁위해	-17174
лән	-17175
ocar	-17176
▁ресурс	-17177
িং	-17178
▁მათ	-17179
▁ನಿರ್	-17180
സം	-17181
buch	-17182
▁hoàng	-17183
జ్	-17184
რდ	-17185
կայ	-17186
ნის	-17187
atta	-17188
ācijas	-17189
▁회	-17190
đa	-17191
pom	-17192
дэн	-17193
onta	-17194
ést	-17195
եստ	-17196
cut	-17197
рун	-17198
льм	-17199
▁åt	-17200
▁flag	-17201
куп	-17202
дері	-17203
▁hac	-17204
▁volks	-17205
▁direktor	-17206
▁ij	-17207
▁علی	-17208
▁երեւ	-17209
包括	-17210
isz	-17211
▁wu	-17212
ellt	-17213
▁základ	-17214
▁diễn	-17215
âl	-17216
▁preko	-17217
▁ಹೆಚ್ಚ	-17218
▁რე	-17219
▁wilson	-17220
▁ske	-17221
▁zim	-17222
yne	-17223
িশ	-17224
▁учили	-17225
▁للم	-17226
▁azon	-17227
▁били	-17228
דול	-17229
لات	-17230
▁עצ	-17231
▁екс	-17232
σί	-17233
ಲ್ಪ	-17234
▁որոն	-17235
▁seo	-17236
▁betr	-17237
жени	-17238
▁धुं	-17239
▁ģ	-17240
ज्या	-17241
▁hof	-17242
▁lên	-17243
▁зі	-17244
▁rex	-17245
▁herz	-17246
▁guitar	-17247
ەکانی	-17248
jai	-17249
▁yhte	-17250
▁каде	-17251
▁dateformat	-17252
▁sekret	-17253
▁הראשון	-17254
ാഷ	-17255
▁oer	-17256
▁fransän	-17257
▁적	-17258
stwa	-17259
дзен	-17260
▁françois	-17261
אות	-17262
lywood	-17263
▁proses	-17264
ាំង	-17265
▁društ	-17266
cí	-17267
となる	-17268
▁गढव	-17269
sport	-17270
▁анти	-17271
araq	-17272
▁øst	-17273
▁julka	-17274
อุ	-17275
ิจ	-17276
məd	-17277
orte	-17278
▁sản	-17279
▁chile	-17280
▁ûnder	-17281
แท	-17282
uris	-17283
▁leh	-17284
▁pgc	-17285
キャ	-17286
arik	-17287
lend	-17288
דת	-17289
▁њего	-17290
▁bie	-17291
▁neur	-17292
▁trị	-17293
▁ساز	-17294
▁често	-17295
▁γεν	-17296
▁дене	-17297
সং	-17298
▁públ	-17299
ateur	-17300
āt	-17301
▁კმ	-17302
elta	-17303
ersey	-17304
κι	-17305
விய	-17306
▁அல்லது	-17307
▁într	-17308
ަށް	-17309
▁бр	-17310
▁kõr	-17311
йш	-17312
eval	-17313
ர்க்க	-17314
▁امریک	-17315
่าว	-17316
osan	-17317
ünde	-17318
ონის	-17319
itter	-17320
▁mener	-17321
▁துடுப்பாட்ட	-17322
▁ய	-17323
utsche	-17324
larına	-17325
▁mellem	-17326
egs	-17327
wil	-17328
▁వీ	-17329
utar	-17330
▁وهو	-17331
▁talatak	-17332
ಡು	-17333
ूर	-17334
▁kritik	-17335
▁जुल	-17336
▁հանդ	-17337
▁மீ	-17338
들어	-17339
nil	-17340
▁आप	-17341
fico	-17342
▁इसके	-17343
جر	-17344
なく	-17345
حت	-17346
lakukan	-17347
▁bungtod	-17348
▁산	-17349
ript	-17350
▁wsp	-17351
▁بخش	-17352
▁नाप	-17353
▁rá	-17354
▁tế	-17355
▁norske	-17356
ális	-17357
▁narr	-17358
നെ	-17359
▁medio	-17360
▁fabrik	-17361
▁hà	-17362
▁۱۳۸	-17363
โน	-17364
▁luz	-17365
darúg	-17366
▁johnson	-17367
рып	-17368
தாக	-17369
ဦး	-17370
▁елект	-17371
elő	-17372
▁미국	-17373
▁akad	-17374
▁фото	-17375
шал	-17376
▁хра	-17377
▁jednot	-17378
orm	-17379
bij	-17380
nius	-17381
▁gez	-17382
▁þar	-17383
▁чемпи	-17384
▁space	-17385
ייט	-17386
▁यु	-17387
▁были	-17388
▁служ	-17389
▁स्थित	-17390
inson	-17391
▁gouf	-17392
▁menurut	-17393
▁호	-17394
▁кр	-17395
▁цэн	-17396
▁inten	-17397
▁মধ্যে	-17398
্জ	-17399
▁eman	-17400
▁spo	-17401
▁ביותר	-17402
▁ਸੀ	-17403
จักร	-17404
skou	-17405
▁drie	-17406
▁प्रकार	-17407
ಪ್ರ	-17408
▁धुंका	-17409
धि	-17410
アメ	-17411
▁ds	-17412
jela	-17413
æð	-17414
ేష	-17415
bok	-17416
izio	-17417
ads	-17418
ября	-17419
asid	-17420
▁vista	-17421
рії	-17422
tei	-17423
ெடு	-17424
▁dövr	-17425
upe	-17426
omány	-17427
▁trab	-17428
▁visu	-17429
vere	-17430
jeva	-17431
edig	-17432
▁откри	-17433
▁conven	-17434
ütt	-17435
arda	-17436
wag	-17437
yclop	-17438
▁kana	-17439
ис	-17440
tern	-17441
టర్	-17442
▁вай	-17443
▁ور	-17444
erso	-17445
love	-17446
ških	-17447
▁kerajaan	-17448
มหา	-17449
open	-17450
▁izg	-17451
alth	-17452
▁छ्येलि	-17453
▁حک	-17454
ytet	-17455
▁проб	-17456
স্ক	-17457
▁tiếp	-17458
▁hercegov	-17459
▁छ्येलिगु	-17460
ოკ	-17461
rent	-17462
ენი	-17463
peri	-17464
ત્ર	-17465
chem	-17466
εια	-17467
vens	-17468
▁oyn	-17469
времен	-17470
▁parroquia	-17471
▁kết	-17472
▁տվյալ	-17473
:#	-17474
mens	-17475
▁hamp	-17476
▁utara	-17477
jac	-17478
▁apo	-17479
▁aki	-17480
arus	-17481
▁हुआ	-17482
otu	-17483
ického	-17484
נצ	-17485
toz	-17486
▁მს	-17487
ovou	-17488
ებულ	-17489
▁vair	-17490
▁boleh	-17491
▁garr	-17492
▁cru	-17493
▁негі	-17494
ന്നു	-17495
▁tubig	-17496
ଲେ	-17497
खण्ड	-17498
▁gara	-17499
embrie	-17500
▁taona	-17501
▁weg	-17502
▁гур	-17503
นํา	-17504
▁skip	-17505
but	-17506
▁ئى	-17507
▁tung	-17508
▁wz	-17509
▁tinggi	-17510
фан	-17511
atte	-17512
olong	-17513
เธ	-17514
▁fod	-17515
ורך	-17516
หว่าง	-17517
xx	-17518
ikos	-17519
▁imag	-17520
▁københav	-17521
সম	-17522
pehint	-17523
äg	-17524
▁prvo	-17525
מבר	-17526
▁цер	-17527
न्द्र	-17528
ناء	-17529
න්න	-17530
▁छगू	-17531
හා	-17532
èron	-17533
的な	-17534
▁pá	-17535
ូវ	-17536
โม	-17537
▁viene	-17538
غير	-17539
▁भाग	-17540
▁nhận	-17541
▁rundt	-17542
▁zaradi	-17543
▁స్థ	-17544
زد	-17545
жува	-17546
/000	-17547
▁pah	-17548
▁toe	-17549
▁כת	-17550
ibe	-17551
нес	-17552
लाई	-17553
ିକ	-17554
шке	-17555
▁00–	-17556
▁ian	-17557
▁рус	-17558
ốn	-17559
▁베	-17560
(00	-17561
민국의	-17562
▁differ	-17563
▁academy	-17564
elek	-17565
▁과	-17566
▁크	-17567
islav	-17568
▁ginhatag	-17569
లలో	-17570
▁essere	-17571
▁pagkay	-17572
ljena	-17573
▁binne	-17574
▁matemat	-17575
▁geografija	-17576
▁شه	-17577
גע	-17578
ebo	-17579
▁pels	-17580
▁praefec	-17581
▁pagkayana	-17582
επ	-17583
▁dve	-17584
iooni	-17585
akı	-17586
насці	-17587
▁izra	-17588
azərbaycan	-17589
イル	-17590
▁gut	-17591
▁segun	-17592
מע	-17593
ført	-17594
tics	-17595
antoj	-17596
▁flam	-17597
▁bucure	-17598
▁ուս	-17599
▁генерал	-17600
▁מד	-17601
▁округі	-17602
लय	-17603
▁jeden	-17604
▁cher	-17605
▁tweede	-17606
ারণ	-17607
▁ils	-17608
▁vana	-17609
▁belang	-17610
▁caso	-17611
▁որպես	-17612
▁gene	-17613
▁slut	-17614
▁santo	-17615
▁ferdinand	-17616
ஆம்	-17617
χη	-17618
empo	-17619
lech	-17620
▁изд	-17621
▁symbol	-17622
▁تأ	-17623
▁gord	-17624
▁består	-17625
ҡы	-17626
ակեր	-17627
れた	-17628
▁وہ	-17629
ography	-17630
▁provins	-17631
эх	-17632
▁قط	-17633
pañ	-17634
ünü	-17635
ваний	-17636
ومت	-17637
▁erd	-17638
▁ประ	-17639
▁doug	-17640
▁esa	-17641
▁kry	-17642
zés	-17643
▁клуб	-17644
pf	-17645
gir	-17646
▁estre	-17647
▁նոր	-17648
elson	-17649
दे	-17650
љено	-17651
भी	-17652
▁شی	-17653
▁մրց	-17654
кал	-17655
▁buah	-17656
iper	-17657
▁stu	-17658
▁seis	-17659
▁disk	-17660
ହା	-17661
▁प्राप	-17662
▁biztan	-17663
ям	-17664
rig	-17665
▁palest	-17666
လာ	-17667
bau	-17668
▁actr	-17669
▁иван	-17670
▁již	-17671
dí	-17672
fus	-17673
▁мамлекет	-17674
вый	-17675
▁loĝ	-17676
чного	-17677
▁budapest	-17678
▁жылғы	-17679
dl	-17680
▁miguel	-17681
▁lagi	-17682
▁merid	-17683
▁مک	-17684
▁manag	-17685
лімі	-17686
ฐาน	-17687
▁ഉപ	-17688
fried	-17689
▁ís	-17690
▁það	-17691
судар	-17692
▁inyo	-17693
▁προσ	-17694
주의	-17695
▁عند	-17696
▁স্ব	-17697
▁fantas	-17698
▁termasuk	-17699
▁خو	-17700
▁lleg	-17701
▁பகுத	-17702
▁ғ	-17703
alna	-17704
▁loro	-17705
▁trin	-17706
▁otros	-17707
شخاص	-17708
тисти	-17709
▁luxemb	-17710
טו	-17711
ieke	-17712
▁sede	-17713
▁internation	-17714
▁пен	-17715
▁gott	-17716
ใหม	-17717
скія	-17718
▁شدهاست	-17719
מית	-17720
ilea	-17721
wydd	-17722
▁arbeid	-17723
diri	-17724
θέ	-17725
ःया	-17726
kaan	-17727
▁engine	-17728
▁دي	-17729
▁dont	-17730
ിലും	-17731
▁иде	-17732
▁게	-17733
▁arhit	-17734
▁темпера	-17735
▁ဖြစ်	-17736
țional	-17737
зам	-17738
▁yil	-17739
▁ανά	-17740
▁הרו	-17741
▁அம	-17742
▁həm	-17743
▁papel	-17744
vek	-17745
▁бага	-17746
irm	-17747
▁гора	-17748
▁delen	-17749
▁barn	-17750
▁age	-17751
▁tvor	-17752
▁wyn	-17753
ணை	-17754
▁میباش	-17755
kiego	-17756
ministra	-17757
▁xo	-17758
▁دانشگاه	-17759
▁чело	-17760
▁ֆիլմ	-17761
▁završ	-17762
▁লা	-17763
enes	-17764
ssä	-17765
、00	-17766
جان	-17767
▁først	-17768
▁letech	-17769
存在	-17770
ρες	-17771
erad	-17772
▁istif	-17773
ningarna	-17774
カー	-17775
▁prir	-17776
▁country	-17777
▁کان	-17778
szy	-17779
▁requ	-17780
▁בד	-17781
లకు	-17782
0,000	-17783
▁بزر	-17784
там	-17785
▁pojav	-17786
▁оке	-17787
▁stone	-17788
▁dör	-17789
ექტ	-17790
,"	-17791
้อย	-17792
▁கட்டு	-17793
▁zwischen	-17794
tum	-17795
قر	-17796
lid	-17797
otos	-17798
inois	-17799
פו	-17800
āka	-17801
соб	-17802
▁dương	-17803
▁पहाडी	-17804
▁sĩ	-17805
▁tend	-17806
েবে	-17807
abuik	-17808
▁gent	-17809
ҡан	-17810
▁вё	-17811
▁sku	-17812
▁анд	-17813
▁ред	-17814
▁गु	-17815
aret	-17816
▁industrial	-17817
andin	-17818
▁نوں	-17819
▁compar	-17820
▁verz	-17821
▁thông	-17822
▁0°00’	-17823
лян	-17824
▁ഓ	-17825
▁pierws	-17826
дні	-17827
▁aç	-17828
ativo	-17829
▁kuning	-17830
▁через	-17831
▁questo	-17832
▁0000-0000)	-17833
▁හා	-17834
(0000)	-17835
ிரைப்பட	-17836
iešu	-17837
▁ਹਨ	-17838
▁కలి	-17839
лија	-17840
[...]
