<s>	0
</s>	0
<unk>	0
<pad>	0
,	-3.33876
▁the	-3.5534
▁de	-3.73334
.	-3.73504
s	-4.05758
▁of	-4.23296
▁la	-4.24599
▁to	-4.30056
▁and	-4.46937
▁et	-4.5438
▁a	-4.61928
▁in	-4.65152
▁le	-4.6588
▁à	-4.76118
▁les	-4.76803
▁des	-4.82319
▁que	-4.95542
▁that	-4.96092
▁is	-4.99675
▁en	-5.14019
▁for	-5.37059
▁I	-5.37821
▁du	-5.41038
▁on	-5.44108
▁dans	-5.56138
▁pour	-5.56884
▁nous	-5.57518
▁qui	-5.58914
▁be	-5.59867
▁this	-5.62946
e	-5.6449
▁we	-5.65519
▁un	-5.67027
▁une	-5.71601
▁ce	-5.7642
▁est	-5.79593
▁are	-5.81339
▁pas	-5.85162
▁have	-5.85842
▁sur	-5.86052
▁-	-5.86607
▁not	-5.87077
▁it	-5.88267
▁au	-5.88758
▁	-5.9483
▁with	-5.97373
▁par	-5.98603
▁as	-5.99628
▁which	-6.00907
▁ne	-6.03539
▁European	-6.03918
r	-6.06723
▁Commission	-6.08632
▁The	-6.13324
▁will	-6.15539
▁by	-6.17506
ing	-6.19168
▁plus	-6.25039
▁je	-6.28364
▁has	-6.28632
s.	-6.37961
d	-6.40506
▁Mr	-6.43801
es	-6.47153
ed	-6.47334
▁Je	-6.48956
▁an	-6.5068
▁cette	-6.51914
▁aux	-6.52332
▁il	-6.5598
s,	-6.56463
▁at	-6.57065
er	-6.5828
▁sont	-6.60886
▁would	-6.6128
▁also	-6.62625
▁se	-6.66258
▁all	-6.66453
▁should	-6.66564
▁from	-6.71904
▁We	-6.71961
▁avec	-6.72646
▁but	-6.74022
▁our	-6.74438
▁must	-6.75363
▁Il	-6.77992
▁Nous	-6.78294
▁l'	-6.78481
-	-6.78916
▁mais	-6.82599
nt	-6.8287
▁been	-6.83825
:	-6.83915
▁Monsieur	-6.84698
ment	-6.85206
▁être	-6.86059
▁pays	-6.88941
▁La	-6.89041
▁do	-6.92304
▁ces	-6.92551
▁européenne	-6.93096
t	-6.93252
▁été	-6.93437
▁Le	-6.93547
▁ont	-6.93627
▁can	-6.93884
▁It	-6.94493
▁d'	-6.9555
▁fait	-6.96031
▁President,	-6.97849
▁important	-6.98109
▁or	-6.98508
▁you	-6.98656
▁politique	-6.99239
▁Member	-6.99309
▁was	-7.00091
▁question	-7.02159
▁more	-7.02227
n	-7.02817
?	-7.03208
▁vous	-7.03379
ly	-7.0364
▁rapport	-7.04985
▁comme	-7.0529
▁qu'il	-7.06163
▁Parlement	-7.06604
y	-7.07337
▁tout	-7.08501
▁like	-7.09237
▁their	-7.09286
▁l'Union	-7.0945
é	-7.0967
▁its	-7.10773
▁there	-7.11953
▁In	-7.12653
▁ou	-7.13443
▁Président,	-7.13644
▁États	-7.14026
▁very	-7.14594
▁également	-7.15285
▁so	-7.17521
▁Union	-7.17946
▁This	-7.1849
▁si	-7.21392
▁these	-7.21455
▁point	-7.21713
▁aussi	-7.21955
▁report	-7.22402
▁me	-7.23416
▁one	-7.24857
▁they	-7.25453
▁faire	-7.26598
▁Parliament	-7.26754
▁d'une	-7.26983
a	-7.27757
▁Conseil	-7.2789
▁notre	-7.28598
ant	-7.29199
▁who	-7.30809
c	-7.31158
▁about	-7.31404
▁Europe	-7.31407
▁other	-7.31652
▁Council	-7.32235
▁leur	-7.33849
▁situation	-7.34019
;	-7.34316
▁avons	-7.34379
▁no	-7.34435
▁need	-7.3499
▁what	-7.35312
▁doit	-7.35416
▁membres	-7.36012
al	-7.36565
▁tous	-7.36749
▁bien	-7.37142
▁M.	-7.37582
▁EU	-7.38039
▁son	-7.38124
▁us	-7.38632
▁y	-7.3933
▁très	-7.39348
▁même	-7.40294
▁En	-7.40743
▁my	-7.4082
▁new	-7.40976
▁States	-7.41222
▁d'un	-7.41271
▁Les	-7.42007
▁entre	-7.42086
ons	-7.42691
▁européen	-7.4301
▁part	-7.4306
▁people	-7.44258
▁only	-7.44337
ation	-7.45247
▁support	-7.48097
▁Ce	-7.48876
▁because	-7.48881
)	-7.48937
▁if	-7.49311
▁time	-7.50688
▁am	-7.50765
▁devons	-7.51145
▁out	-7.51525
ent	-7.52326
▁up	-7.52655
ra	-7.53175
'	-7.53412
▁sa	-7.55602
l	-7.55919
▁re	-7.56342
▁droits	-7.56639
▁nos	-7.58161
▁countries	-7.58809
▁now	-7.59005
re	-7.5963
▁contre	-7.6062
▁such	-7.61014
▁take	-7.61809
▁make	-7.61961
▁vote	-7.63071
▁protection	-7.63409
▁into	-7.64466
▁possible	-7.64846
▁social	-7.65051
▁directive	-7.65453
▁work	-7.65916
▁between	-7.66524
▁voudrais	-7.66806
▁those	-7.6715
▁peut	-7.67874
▁place	-7.68448
's	-7.6852
p	-7.70531
▁proposition	-7.71299
▁donc	-7.71406
▁non	-7.71488
▁when	-7.72483
▁l’	-7.73154
▁some	-7.73185
le	-7.73275
▁rapporteur	-7.73423
▁being	-7.73504
u	-7.73897
▁therefore	-7.7421
▁dont	-7.7431
▁any	-7.75249
▁commission	-7.75309
▁C'est	-7.7531
▁car	-7.75579
▁soit	-7.76583
▁s	-7.76673
▁sans	-7.7704
▁cela	-7.77043
i	-7.77198
▁believe	-7.7778
▁policy	-7.78523
▁encore	-7.78741
▁public	-7.78774
▁political	-7.78904
▁d’	-7.79009
▁développement	-7.79181
▁fact	-7.79723
▁made	-7.79894
▁position	-7.80829
▁deux	-7.80926
▁cas	-7.80951
▁respect	-7.81081
▁national	-7.81091
▁were	-7.81101
in	-7.81931
▁faut	-7.82533
▁than	-7.82883
▁economic	-7.8303
▁ainsi	-7.83115
▁A	-7.83302
▁c'est	-7.84346
▁matière	-7.84349
▁sécurité	-7.85702
▁say	-7.86019
▁suis	-7.87223
▁way	-7.87948
▁pense	-7.88143
▁marché	-7.88682
▁programme	-7.88962
▁ses	-7.89446
▁budget	-7.8973
▁many	-7.90291
▁against	-7.90301
▁n'est	-7.90961
▁mesures	-7.91271
tte	-7.91411
▁international	-7.91904
▁travail	-7.92476
▁first	-7.92744
▁mon	-7.94252
▁(	-7.94585
▁dire	-7.9459
▁services	-7.94694
▁groupe	-7.95015
▁questions	-7.95816
o	-7.95908
▁just	-7.96184
▁think	-7.96253
▁proposal	-7.9633
▁"	-7.96338
ri	-7.96592
/	-7.96927
▁That	-7.9715
▁human	-7.97642
▁doivent	-7.97717
▁afin	-7.98302
▁cet	-7.98338
▁leurs	-7.985
▁dé	-7.98524
▁droit	-7.98805
▁débat	-7.99166
it	-7.99528
▁them	-7.99608
▁sommes	-8.00087
▁Committee	-8.00234
▁déjà	-8.00301
▁rights	-8.00726
▁manière	-8.01016
▁cadre	-8.01446
▁As	-8.0153
▁elle	-8.01548
▁où	-8.01916
▁over	-8.02308
▁order	-8.02954
▁debate	-8.02972
▁conditions	-8.03071
▁right	-8.03446
ur	-8.03539
▁citoyens	-8.0416
▁want	-8.04629
▁concerne	-8.04727
ro	-8.05805
▁Madame	-8.05819
▁politiques	-8.06483
▁two	-8.06712
▁cannot	-8.06955
▁same	-8.0767
▁even	-8.08442
▁development	-8.08519
▁sera	-8.08863
▁had	-8.08884
▁does	-8.09216
▁issue	-8.09309
ion	-8.09368
▁tant	-8.09663
en	-8.09695
▁clear	-8.10004
▁measures	-8.10174
▁niveau	-8.10561
▁under	-8.10614
▁action	-8.107
▁could	-8.11578
▁most	-8.11619
f	-8.11695
able	-8.11777
▁President	-8.12288
▁agreement	-8.12331
▁said	-8.12934
▁where	-8.12986
m	-8.13651
▁good	-8.13926
▁certain	-8.152
▁L'	-8.15996
g	-8.16087
▁already	-8.16251
▁personnes	-8.16258
▁much	-8.16275
▁financial	-8.16277
ait	-8.16443
▁hope	-8.16461
▁dit	-8.16712
▁'	-8.16776
h	-8.17223
▁transport	-8.17627
que	-8.17814
▁–	-8.18111
▁lors	-8.18201
ir	-8.18273
▁use	-8.18393
▁long	-8.18774
▁too	-8.19187
▁within	-8.1922
▁S	-8.1958
▁view	-8.19904
▁well	-8.1998
▁plan	-8.19987
▁still	-8.20458
▁how	-8.20733
és	-8.20796
▁particular	-8.21127
▁toute	-8.21191
at	-8.21351
▁common	-8.21537
▁problème	-8.21831
▁future	-8.21952
▁fois	-8.22151
▁see	-8.22225
▁There	-8.22283
ée	-8.22334
▁here	-8.22544
▁both	-8.22652
▁ensure	-8.23223
ci	-8.23476
▁parce	-8.23774
▁vue	-8.23829
ter	-8.24053
▁your	-8.24071
▁Dans	-8.24174
▁économique	-8.24222
▁concernant	-8.24325
▁market	-8.24653
▁Si	-8.24661
▁he	-8.24719
▁ma	-8.24739
▁However,	-8.24873
▁cooperation	-8.24991
▁autres	-8.25115
▁sein	-8.25238
z	-8.25423
▁l'a	-8.25522
▁coopération	-8.25896
▁On	-8.26329
▁ré	-8.26517
▁toutes	-8.2655
▁Community	-8.26576
▁information	-8.26676
▁certains	-8.26809
▁d'autres	-8.26839
▁Mme	-8.27019
▁efforts	-8.27047
▁système	-8.27433
▁base	-8.27478
▁know	-8.27705
an	-8.27894
▁résolution	-8.28029
▁compte	-8.2804
se	-8.28051
▁institutions	-8.28487
▁moins	-8.28528
▁taken	-8.28624
▁é	-8.28654
▁case	-8.28729
e.	-8.28763
▁own	-8.28872
or	-8.29117
▁raison	-8.29309
▁Mrs	-8.29388
▁his	-8.29734
▁%	-8.2977
li	-8.29931
▁number	-8.30036
▁put	-8.30345
▁Commissioner	-8.30423
▁nom	-8.30922
▁able	-8.31097
▁last	-8.31101
▁n'a	-8.31344
th	-8.31606
ity	-8.3191
▁seulement	-8.31989
▁dis	-8.32165
▁citizens	-8.32328
▁regard	-8.32522
▁mise	-8.32598
▁end	-8.32623
▁accord	-8.32913
▁solution	-8.33041
▁temps	-8.33224
▁moment	-8.33429
▁mettre	-8.33594
▁européenne.	-8.33673
il	-8.34044
▁particulier	-8.34044
▁may	-8.34164
▁why	-8.34346
▁problèmes	-8.34505
▁pourquoi	-8.34847
v	-8.35367
▁energy	-8.35431
▁secteur	-8.35979
▁grande	-8.36102
ité	-8.36249
▁demande	-8.36859
ive	-8.37027
▁président	-8.37064
▁C	-8.3714
▁domaine	-8.37456
▁Pour	-8.37671
▁means	-8.37932
▁continue	-8.38213
▁nombre	-8.38356
▁processus	-8.39019
▁lieu	-8.39228
▁importance	-8.3926
▁avoir	-8.39633
▁system	-8.39872
▁without	-8.4018
▁savoir	-8.40203
▁through	-8.40541
▁relations	-8.4065
▁Mais	-8.40873
▁avant	-8.40911
▁today	-8.41011
▁toujours	-8.41119
▁De	-8.41178
▁aujourd'hui	-8.41234
▁s'agit	-8.41258
▁partie	-8.41284
ar	-8.4137
▁production	-8.41487
▁however	-8.41523
▁s'	-8.41562
▁country	-8.41588
▁M	-8.41825
lo	-8.41867
▁devrait	-8.42134
▁l'UE	-8.42215
▁présent	-8.42452
▁jour	-8.42689
▁gentlemen,	-8.42841
▁If	-8.42867
▁règlement	-8.43168
▁gouvernement	-8.43373
▁beaucoup	-8.43414
▁points	-8.43642
te	-8.43686
▁con	-8.43863
▁process	-8.43993
▁years	-8.44198
▁commune	-8.44345
▁programmes	-8.44587
▁co	-8.44606
▁dialogue	-8.44738
▁entreprises	-8.44787
▁problems	-8.44862
▁notamment	-8.45054
▁mesure	-8.45142
▁Madam	-8.45156
▁laquelle	-8.45221
▁traité	-8.45236
▁cours	-8.45319
▁À	-8.45341
▁necessary	-8.45389
▁give	-8.4563
▁particularly	-8.45667
▁before	-8.4591
ions	-8.46109
▁resolution	-8.46268
ement	-8.46288
la	-8.46303
▁rôle	-8.4649
▁prendre	-8.46543
▁soutien	-8.46663
"	-8.46737
▁great	-8.46739
▁then	-8.46862
6	-8.46995
▁ceux	-8.4704
▁nécessaire	-8.47591
on	-8.47654
▁Cela	-8.47716
▁attention	-8.47841
▁far	-8.47864
▁l'Europe	-8.48021
▁legal	-8.48102
▁j'ai	-8.48253
4	-8.48387
▁faveur	-8.48412
b	-8.48469
▁set	-8.48667
▁security	-8.48995
▁large	-8.48998
▁Commission,	-8.49007
▁effet	-8.49309
▁fin	-8.49492
▁monde	-8.49626
▁besoin	-8.49664
▁area	-8.49667
ne	-8.49677
▁given	-8.49711
▁problem	-8.498
▁santé	-8.50561
▁Treaty	-8.50915
ré	-8.51214
▁progress	-8.51245
▁cha	-8.51538
▁qu'elle	-8.51873
is	-8.51908
▁votre	-8.52046
▁soient	-8.52108
7	-8.52187
▁propositions	-8.52701
ront	-8.52779
▁va	-8.52905
▁since	-8.52944
▁change	-8.52958
▁T	-8.53077
ch	-8.53086
▁thank	-8.53484
▁favour	-8.53626
▁femmes	-8.53709
ance	-8.53856
▁House	-8.53872
▁F	-8.54215
▁aid	-8.54301
▁nouvelle	-8.54547
e,	-8.54579
▁world	-8.54639
▁vie	-8.54743
es.	-8.55011
ul	-8.55095
▁whether	-8.55145
▁role	-8.55587
▁Par	-8.55747
▁again	-8.55836
▁positive	-8.55868
▁ladies	-8.55954
▁pouvoir	-8.55961
▁face	-8.56164
▁pouvons	-8.56359
▁agree	-8.56548
▁qu’il	-8.56656
▁.	-8.56745
age	-8.56838
▁amendements	-8.5684
▁United	-8.56885
▁nouveau	-8.57168
▁stratégie	-8.57267
k	-8.57374
▁amendments	-8.57459
5	-8.57499
▁further	-8.57508
▁population	-8.57545
▁autre	-8.57577
▁l’Union	-8.57649
▁sujet	-8.57999
di	-8.58076
▁For	-8.58111
▁peu	-8.58145
▁objectifs	-8.58183
▁décision	-8.58543
▁behalf	-8.58648
▁serait	-8.58682
▁different	-8.5886
▁f	-8.5889
▁trade	-8.58939
▁ni	-8.59084
▁ici	-8.59716
▁peuvent	-8.59811
▁était	-8.59845
▁commissaire	-8.59867
▁help	-8.59898
▁recherche	-8.60187
▁basis	-8.60296
ce	-8.60423
▁bon	-8.60511
ées	-8.60664
▁present	-8.60718
▁contrôle	-8.60746
▁next	-8.60905
!	-8.61111
▁women	-8.61159
▁terms	-8.61296
▁second	-8.61433
▁e	-8.6192
▁come	-8.62526
us	-8.62545
▁E	-8.62774
ou	-8.62953
▁health	-8.63026
▁issues	-8.63138
▁done	-8.63211
2	-8.63238
▁B	-8.63242
▁qu'	-8.633
vi	-8.63464
▁account	-8.63708
st	-8.63862
▁crise	-8.63961
▁proposals	-8.64017
▁produits	-8.64043
▁wish	-8.64142
▁result	-8.64351
▁rules	-8.6437
▁façon	-8.64412
▁better	-8.64465
▁depuis	-8.64665
▁millions	-8.64872
▁Europe.	-8.6489
▁matter	-8.65123
▁adopted	-8.65217
▁framework	-8.65365
▁alors	-8.65794
▁l'on	-8.65834
▁level	-8.6605
▁approach	-8.66268
▁crois	-8.66275
▁présidence	-8.66295
▁force	-8.6673
▁year	-8.66733
▁principe	-8.66749
▁subject	-8.67007
▁:	-8.67115
▁5	-8.67121
▁What	-8.67393
tra	-8.67575
▁mis	-8.67641
▁go	-8.67684
▁inter	-8.67702
w	-8.67749
▁législation	-8.6777
▁areas	-8.68187
▁welcome	-8.68279
ers	-8.68332
▁Commission.	-8.68421
▁première	-8.68654
▁after	-8.68705
ta	-8.68765
▁ask	-8.6882
▁eu	-8.69018
3	-8.69138
▁sector	-8.69212
▁group	-8.69434
▁vers	-8.69896
▁Members	-8.69928
de	-8.70024
▁decision	-8.70104
▁grand	-8.7018
▁députés	-8.70195
▁Commissioner,	-8.7033
▁bonne	-8.70481
ie	-8.70506
▁But	-8.70829
▁communication	-8.70837
▁européenne,	-8.70873
▁justice	-8.70902
op	-8.71039
▁parties	-8.71093
▁Commissaire,	-8.7112
I	-8.71425
▁règles	-8.71531
9	-8.71742
▁State	-8.71921
▁projet	-8.72315
1	-8.72342
▁No	-8.72527
ic	-8.72605
es,	-8.72789
▁régions	-8.72823
▁Mesdames	-8.72831
im	-8.72948
▁Group	-8.73239
ate	-8.7331
▁initiative	-8.73617
▁d’une	-8.73647
▁actions	-8.73912
A	-8.73934
▁needs	-8.74026
▁garantir	-8.74268
▁whole	-8.74482
▁fonds	-8.74678
▁million	-8.74899
▁forward	-8.74998
▁aspects	-8.75003
▁increase	-8.75061
té	-8.75099
▁l'homme	-8.75242
▁lutte	-8.75292
▁mes	-8.75372
▁ils	-8.75444
▁nouveaux	-8.75696
▁going	-8.75697
▁après	-8.75764
▁sous	-8.75866
▁P	-8.75912
isation	-8.75974
▁qualité	-8.76042
▁quelques	-8.76074
▁1	-8.7633
▁working	-8.76452
▁three	-8.76664
▁towards	-8.7702
▁few	-8.77151
▁premier	-8.77386
▁d'a	-8.77418
▁So	-8.77534
▁3	-8.77544
ad	-8.77704
▁global	-8.77892
▁become	-8.77947
▁euro	-8.78119
▁principle	-8.7817
▁trois	-8.78194
▁Union.	-8.78208
▁something	-8.78457
▁lui	-8.78493
x	-8.78895
▁voted	-8.79037
au	-8.79332
▁real	-8.79404
▁négociations	-8.79549
▁selon	-8.79597
ign	-8.796
▁clairement	-8.79834
▁Présidente,	-8.79848
▁pêche	-8.79906
▁procédure	-8.79948
▁main	-8.79956
▁œuvre	-8.80272
▁provide	-8.80777
▁européens	-8.80818
▁pro	-8.81028
▁G	-8.81035
▁remercier	-8.81144
▁current	-8.81237
▁là	-8.81237
▁specific	-8.81437
▁J'ai	-8.8163
▁back	-8.81659
▁chose	-8.81845
▁voté	-8.81869
▁resources	-8.81906
▁accept	-8.81912
me	-8.8205
▁allow	-8.82114
▁state	-8.82321
▁Au	-8.82342
▁cause	-8.82414
▁nombreux	-8.82577
▁legislation	-8.82593
um	-8.82631
est	-8.82699
▁nouvelles	-8.82971
▁discussion	-8.83104
▁including	-8.83141
▁reste	-8.83298
▁down	-8.83372
ez	-8.83417
▁seront	-8.83445
▁hand	-8.83718
▁pourrait	-8.83744
▁juridique	-8.83794
▁mois	-8.83824
▁Presidency	-8.84016
▁proposed	-8.84026
▁opportunity	-8.84054
▁nécessité	-8.84066
▁fundamental	-8.8422
▁4	-8.84351
▁trop	-8.84474
▁exemple	-8.84578
▁s'est	-8.84696
▁shall	-8.84717
▁really	-8.84733
▁did	-8.84918
▁violence	-8.84952
▁find	-8.8512
▁effective	-8.85154
id	-8.85218
▁employment	-8.85306
dès	-8.85588
▁opinion	-8.85609
▁authorities	-8.85771
▁regulation	-8.85847
▁policies	-8.85942
▁voir	-8.85965
el	-8.86011
▁together	-8.86021
▁contribution	-8.86254
▁reason	-8.86441
’	-8.8655
▁service	-8.86568
che	-8.86585
ist	-8.86917
▁law	-8.86934
▁research	-8.87002
▁Un	-8.87037
▁d’un	-8.87054
▁general	-8.87062
▁serious	-8.87313
▁used	-8.87325
▁société	-8.87458
▁Convention	-8.8749
▁maintenant	-8.87547
▁especially	-8.87615
mi	-8.87638
▁membre	-8.87641
▁during	-8.87875
▁every	-8.87889
▁démocratie	-8.87958
▁industry	-8.88422
▁plusieurs	-8.88664
S	-8.88728
▁donner	-8.88819
▁n'	-8.89045
▁sens	-8.89116
▁«	-8.89489
▁course	-8.89565
▁000	-8.89694
▁strategy	-8.89705
▁10	-8.89827
▁clearly	-8.89876
▁access	-8.89955
▁autorités	-8.90112
▁negotiations	-8.90144
▁itself	-8.90594
▁look	-8.90608
▁another	-8.90635
▁Nations	-8.90693
▁environmental	-8.90929
▁comment	-8.90956
’s	-8.91082
co	-8.91213
▁least	-8.91261
▁At	-8.91263
▁greater	-8.91292
▁responsibility	-8.91318
▁visant	-8.91467
▁concerned	-8.91511
▁To	-8.91572
▁aucun	-8.91644
rait	-8.9167
▁t	-8.9173
ner	-8.91734
▁small	-8.91743
et	-8.91882
▁constitue	-8.91933
▁liberté	-8.91937
▁quite	-8.92202
▁third	-8.92209
▁prix	-8.92222
▁organisations	-8.92262
▁safety	-8.92271
▁major	-8.92672
▁surtout	-8.92808
▁D	-8.92862
▁rather	-8.9299
▁ressources	-8.93156
▁pu	-8.93174
▁terme	-8.93245
▁Une	-8.93305
▁products	-8.93397
▁consider	-8.93585
ck	-8.93607
▁Europe,	-8.93762
▁final	-8.93853
▁?	-8.93907
8	-8.93978
▁certaines	-8.94176
ve	-8.94407
▁propos	-8.94475
▁call	-8.94497
▁responsabilité	-8.94518
▁Messieurs,	-8.94536
ence	-8.94627
▁réponse	-8.94849
▁communautaire	-8.94872
▁l'environnement	-8.94898
▁reform	-8.95128
▁They	-8.95317
▁conséquent	-8.95404
▁deal	-8.95412
▁Elle	-8.95485
as	-8.95544
▁freedom	-8.95578
ge	-8.9571
▁course,	-8.95748
pp	-8.95773
P	-8.95812
▁democracy	-8.95849
▁essential	-8.95868
▁ex	-8.959
▁voulons	-8.96004
▁always	-8.96022
▁internal	-8.96217
▁tiens	-8.96239
▁get	-8.96321
▁avez	-8.96366
▁difficult	-8.9643
▁free	-8.96576
▁making	-8.96763
ous	-8.96824
▁impact	-8.97059
▁6	-8.97077
▁12	-8.97208
▁excellent	-8.97272
▁achieve	-8.97328
ique	-8.97445
▁sorte	-8.97628
con	-8.97633
va	-8.97639
▁high	-8.97648
▁These	-8.97749
▁importante	-8.97873
▁Et	-8.97907
▁semble	-8.98104
▁once	-8.98165
▁croissance	-8.98241
aux	-8.98266
▁document	-8.98288
▁pré	-8.98388
▁Comme	-8.986
▁sûr	-8.98659
ated	-8.98663
▁20	-8.98806
▁propose	-8.98919
ticulièrement	-8.98953
▁government	-8.98978
▁st	-8.99044
▁concurrence	-8.99055
▁Commission's	-8.99058
▁donné	-8.99093
vo	-8.99143
ni	-8.99263
ex	-8.99311
▁8	-8.99372
▁travailleurs	-8.99383
▁davantage	-8.99394
▁States.	-8.99568
▁d'accord	-8.99763
▁instruments	-8.99764
▁Ces	-8.99831
▁dernier	-8.99883
▁soutenir	-8.99909
ma	-8.99916
▁implementation	-9.00072
▁taking	-9.00116
▁based	-9.00355
ct	-9.00499
▁regions	-9.005
tre	-9.00591
▁bring	-9.00784
▁things	-9.00939
▁democratic	-9.00965
▁internationale	-9.00987
▁interests	-9.01074
▁local	-9.01118
▁various	-9.01986
▁application	-9.02003
▁économiques	-9.02079
▁consommateurs	-9.02102
▁compris	-9.02115
▁control	-9.02136
▁voie	-9.02295
▁money	-9.02296
▁égard	-9.02353
▁actuellement	-9.02512
▁nature	-9.02671
▁culture	-9.02692
▁form	-9.02707
▁lorsque	-9.02711
om	-9.02887
gi	-9.02917
▁c	-9.0305
▁step	-9.03052
▁existe	-9.03166
▁État	-9.03197
▁EUR	-9.03198
▁création	-9.03381
▁text	-9.03382
▁dernière	-9.03576
end	-9.03616
ise	-9.03653
▁instrument	-9.03721
ti	-9.03894
▁Président	-9.03896
▁each	-9.0396
▁crisis	-9.03963
▁type	-9.04031
▁19	-9.04069
▁procedure	-9.04088
▁région	-9.04094
▁période	-9.04443
▁d'abord	-9.04504
▁souligner	-9.04564
▁unique	-9.04698
▁committee	-9.04774
▁initiatives	-9.04874
▁11	-9.05115
▁progrès	-9.05249
▁général	-9.05343
▁7	-9.05623
▁per	-9.05945
▁yet	-9.05991
▁example,	-9.06015
T	-9.06293
▁participation	-9.06336
▁différents	-9.06378
▁while	-9.06405
▁paix	-9.06426
▁imp	-9.0648
▁K	-9.06543
▁texte	-9.06558
▁gestion	-9.06618
▁sociale	-9.06654
▁elles	-9.067
▁souhaite	-9.06776
▁create	-9.06852
ill	-9.06865
▁power	-9.06953
▁coordination	-9.06977
▁Government	-9.07004
▁l’a	-9.0715
▁You	-9.07166
▁Re	-9.07325
aient	-9.07355
▁food	-9.07386
▁competition	-9.07455
▁period	-9.0749
▁souvent	-9.07514
▁financement	-9.07556
to	-9.0758
▁example	-9.07605
▁concern	-9.07636
ating	-9.07776
▁single	-9.07922
▁full	-9.07957
▁toutefois	-9.08166
▁aucune	-9.08181
▁quant	-9.08189
▁peace	-9.0819
▁15	-9.08207
C	-9.0823
▁field	-9.08327
▁efficace	-9.08439
▁avis	-9.08443
ca	-9.08471
▁avait	-9.08497
▁involved	-9.08533
min	-9.0866
▁commerce	-9.08834
pe	-9.08913
▁renforcer	-9.09054
▁objective	-9.0906
▁réforme	-9.09152
▁rien	-9.092
▁concerns	-9.09279
▁funds	-9.09294
▁qu'une	-9.09391
▁growth	-9.09425
▁her	-9.09437
▁affaires	-9.09567
▁civil	-9.09664
▁mieux	-9.09796
▁having	-9.09898
ations	-9.0993
▁children	-9.10182
▁aura	-9.1022
▁workers	-9.10233
ly,	-9.10238
▁années	-9.10268
▁termes	-9.1043
▁domaines	-9.10474
▁clair	-9.10525
▁publique	-9.10541
▁tel	-9.10556
▁g	-9.10619
▁interest	-9.10716
▁États-Unis	-9.10719
D	-9.10968
▁possibilité	-9.11002
▁données	-9.1126
▁off	-9.11365
▁telle	-9.11484
▁doute	-9.11634
rai	-9.11733
▁créer	-9.11736
ais	-9.11823
▁companies	-9.12041
▁collègues	-9.12064
▁message	-9.12071
ut	-9.12102
▁France	-9.12208
▁objectives	-9.12283
▁b	-9.12333
▁report.	-9.12365
▁amendment	-9.12594
▁lequel	-9.12662
▁pris	-9.12702
qui	-9.12705
▁trouver	-9.1271
▁objectif	-9.12733
▁open	-9.1274
▁Lisbon	-9.12845
▁demander	-9.13227
▁best	-9.13232
▁enfants	-9.13304
▁2	-9.13324
▁membres.	-9.13523
▁étant	-9.13556
▁simple	-9.13579
▁Toutefois	-9.13602
go	-9.13764
▁l'emploi	-9.13814
▁six	-9.13826
▁décisions	-9.13996
▁quality	-9.14084
▁fully	-9.14102
▁risque	-9.14145
ud	-9.14146
▁résultats	-9.14211
ism	-9.14232
▁celui	-9.14248
▁discrimination	-9.14314
▁peut-être	-9.14389
▁And	-9.14392
M	-9.14432
▁majority	-9.14695
▁standards	-9.14752
▁moyens	-9.14925
▁discussions	-9.15025
O	-9.15111
▁permettre	-9.15154
▁understand	-9.15195
▁ait	-9.1521
▁recent	-9.15429
lé	-9.15519
lu	-9.15766
▁quelque	-9.15766
▁relation	-9.15769
▁d'être	-9.15853
▁po	-9.15862
▁européen,	-9.16044
▁simply	-9.16261
▁following	-9.16305
▁majorité	-9.16394
▁commun	-9.16398
▁nombreuses	-9.16542
▁année	-9.16663
▁promote	-9.16664
▁certainly	-9.16706
▁devraient	-9.16928
ver	-9.16982
▁often	-9.17121
▁States,	-9.17187
▁aim	-9.17231
ts	-9.17466
▁européennes	-9.1753
▁européen.	-9.17604
ll	-9.1766
ff	-9.17673
▁normes	-9.17707
▁agricultural	-9.1779
▁risk	-9.17796
na	-9.17851
▁answer	-9.17983
mo	-9.18234
▁Ma	-9.18235
mp	-9.18242
▁difficile	-9.18269
▁choses	-9.18311
ard	-9.1835
▁extremely	-9.18376
▁compromis	-9.18432
▁context	-9.18439
▁titre	-9.18486
▁Turkey	-9.1861
▁seule	-9.18653
▁solutions	-9.1866
▁aware	-9.18742
ative	-9.1875
▁démocratique	-9.18754
un	-9.18829
isme	-9.18986
▁deuxième	-9.18989
nd	-9.19008
▁juste	-9.19125
▁entendu	-9.19205
▁(DE)	-9.19367
▁life	-9.19392
ry	-9.19565
▁nécessaires	-9.19602
ten	-9.19627
▁kind	-9.19688
▁Article	-9.1972
▁durable	-9.19776
▁appropriate	-9.1983
▁réalité	-9.20109
▁Enfin	-9.20144
▁decisions	-9.20215
▁propre	-9.20231
▁essentiel	-9.20486
▁improve	-9.20494
▁relative	-9.20617
▁celle	-9.20741
▁countries.	-9.20773
▁start	-9.20794
▁devrions	-9.20802
▁fight	-9.21383
▁9	-9.21592
▁Parliament,	-9.21805
▁ago	-9.21826
▁preuve	-9.21842
ens	-9.21913
▁accords	-9.21915
▁Turquie	-9.2192
▁agreements	-9.22029
▁(EN)	-9.22097
am	-9.22117
▁simplement	-9.22171
▁capital	-9.22243
▁adopté	-9.22314
▁enlargement	-9.22346
▁might	-9.22356
▁nationaux	-9.22431
▁date	-9.22442
▁qu'un	-9.22537
▁financière	-9.22595
les	-9.22605
▁projets	-9.22622
▁Union,	-9.22843
▁actually	-9.2293
▁lack	-9.22934
▁compromise	-9.22977
▁developing	-9.23031
▁crucial	-9.23141
▁approche	-9.23225
▁Court	-9.23267
▁conclusions	-9.23412
▁exemple,	-9.23459
▁Russie	-9.23572
▁représente	-9.23692
▁met	-9.23792
▁meeting	-9.23806
ia	-9.24057
▁groupes	-9.2409
▁regional	-9.24105
ère	-9.24142
▁mentioned	-9.24478
▁available	-9.24548
▁economy	-9.2455
gr	-9.24624
▁act	-9.24628
▁énergétique	-9.24829
▁pay	-9.24893
▁groups	-9.24946
▁society	-9.24957
eur	-9.25033
▁intérieur	-9.25335
▁special	-9.25409
▁lead	-9.25424
▁suite	-9.255
▁indeed	-9.25603
▁écrit.	-9.25721
▁aide	-9.2589
▁mondiale	-9.25893
em	-9.25904
▁stabilité	-9.25981
▁direct	-9.26044
▁l'accord	-9.26048
▁environment	-9.26057
▁Let	-9.26095
»	-9.2613
▁climate	-9.2616
▁play	-9.26202
▁contexte	-9.26211
▁ensemble	-9.26287
▁Finally	-9.26664
▁intérêts	-9.26687
▁individual	-9.26692
▁tiers	-9.26739
▁success	-9.26757
▁Russia	-9.26885
▁report,	-9.27016
▁collègues,	-9.27039
▁currently	-9.27137
▁ailleurs	-9.27383
vent	-9.27387
▁concerning	-9.27401
▁states	-9.27532
ns	-9.27536
▁jobs	-9.27593
▁l'ensemble	-9.27708
aire	-9.27729
▁l'avenir	-9.27732
rons	-9.28101
▁dispositions	-9.28126
ction	-9.28191
ine	-9.28201
▁vraiment	-9.28243
no	-9.28349
▁cependant	-9.28405
tic	-9.28431
▁véritable	-9.28435
gu	-9.28441
▁changement	-9.28581
▁mi	-9.28618
ial	-9.28632
ed.	-9.28695
▁education	-9.2873
▁Assemblée	-9.28811
▁Tout	-9.28886
▁data	-9.29096
▁ch	-9.29127
▁policy.	-9.2918
ont	-9.29346
▁Conseil,	-9.29529
ness	-9.29705
▁key	-9.29717
ting	-9.29724
▁forces	-9.29778
▁responsible	-9.29786
▁jamais	-9.29803
▁réduction	-9.30012
▁parti	-9.30101
▁convient	-9.30108
▁feel	-9.30166
▁dimension	-9.30195
▁Vous	-9.30211
ol	-9.30227
▁adopt	-9.30339
▁formation	-9.30352
▁n'y	-9.304
▁C’est	-9.30405
▁move	-9.30433
▁thing	-9.30522
if	-9.30534
▁tax	-9.30584
▁themselves	-9.30606
▁marchés	-9.30873
▁share	-9.31017
▁Cour	-9.3104
▁region	-9.31196
eurs	-9.31385
▁O	-9.31695
▁libre	-9.31742
▁pre	-9.31851
iv	-9.31896
▁bo	-9.31924
acc	-9.3193
▁management	-9.31947
▁quand	-9.31955
B	-9.31981
ient	-9.31989
▁results	-9.32006
▁budgétaire	-9.32021
▁plutôt	-9.3208
▁affect	-9.32084
▁total	-9.32127
▁vital	-9.32243
▁signifie	-9.32249
▁Constitution	-9.32266
▁months	-9.32288
▁extrêmement	-9.32354
▁activités	-9.32437
▁Communauté	-9.32463
▁principes	-9.32469
▁moyen	-9.32489
▁direction	-9.32606
▁font	-9.32741
▁n'ont	-9.32772
▁h	-9.32944
▁members	-9.33122
▁rendre	-9.33129
▁particulière	-9.3317
▁With	-9.33236
▁doing	-9.33307
▁promotion	-9.33308
▁l'article	-9.33317
▁war	-9.33419
▁consumers	-9.33439
▁manque	-9.33442
val	-9.3349
▁sign	-9.3359
▁needed	-9.3365
▁request	-9.337
▁remain	-9.33779
▁transparence	-9.33792
▁effect	-9.33812
▁parler	-9.33828
▁volonté	-9.33901
aires	-9.33928
▁l’Europe	-9.34131
▁remercie	-9.34158
▁raisons	-9.34209
▁répondre	-9.34255
▁rapidement	-9.34307
▁Ca	-9.34403
▁motion	-9.34661
▁vu	-9.34682
▁enough	-9.34787
▁prevent	-9.34791
ot	-9.34795
iser	-9.34868
▁ra	-9.34977
▁mention	-9.35134
▁comp	-9.35198
▁agenda	-9.35553
".	-9.35556
▁zone	-9.35658
▁Kosovo	-9.35682
▁term	-9.35704
▁commitment	-9.35847
▁déclaration	-9.35853
▁présente	-9.35871
use	-9.35962
▁dernières	-9.36043
▁joint	-9.36053
▁Parliament's	-9.36108
▁appelle	-9.36148
▁conséquences	-9.36428
▁c’est	-9.36431
▁My	-9.36479
▁benefit	-9.36499
▁j'	-9.36532
▁membres,	-9.36537
▁sommet	-9.36579
▁draft	-9.36651
▁strong	-9.36717
per	-9.36723
▁day	-9.36785
▁forme	-9.36835
▁effort	-9.36841
▁water	-9.36915
▁Cependant	-9.36989
▁concept	-9.37025
▁réduire	-9.37027
qua	-9.37046
▁di	-9.37052
▁countries,	-9.3708
▁non-	-9.37087
▁puisse	-9.37094
▁ban	-9.37154
▁congratulate	-9.37176
▁collègue	-9.37181
▁though	-9.37239
▁idea	-9.3724
tant	-9.37482
▁passé	-9.37482
▁Council,	-9.37587
▁p	-9.37652
▁achieved	-9.37768
▁intervention	-9.37774
▁principles	-9.37789
com	-9.3781
▁longer	-9.37818
▁mean	-9.37993
▁l'aide	-9.38013
▁mort	-9.38015
▁n’est	-9.38019
▁court	-9.38095
▁line	-9.38137
▁let	-9.38187
▁différentes	-9.3825
▁condition	-9.38301
▁response	-9.38419
▁tels	-9.3843
▁rural	-9.38545
▁express	-9.38612
▁activities	-9.38665
▁Affairs	-9.38749
ven	-9.38767
▁assistance	-9.38907
du	-9.39008
▁among	-9.39056
▁qu'en	-9.39092
▁solidarité	-9.39094
▁meilleure	-9.39102
▁funding	-9.39154
▁informations	-9.39217
▁matters	-9.39241
▁costs	-9.3935
▁13	-9.394
▁conclusion	-9.39487
▁devant	-9.39633
▁projects	-9.39657
▁reasons	-9.39663
▁Fonds	-9.39667
▁L’	-9.39693
ary	-9.3974
▁W	-9.39848
▁fondamentaux	-9.3985
ling	-9.39894
▁priority	-9.39894
▁chers	-9.39979
par	-9.40114
▁significant	-9.40124
▁young	-9.40132
▁peux	-9.40136
▁nationales	-9.40154
▁encourage	-9.40422
▁pratique	-9.40488
▁regards	-9.40506
nce	-9.40577
▁addition	-9.4064
▁He	-9.40715
▁systems	-9.40821
res	-9.40928
▁writing.	-9.41105
▁although	-9.41107
▁true	-9.41116
ier	-9.41204
▁cases	-9.41211
▁jeunes	-9.41365
▁défense	-9.4137
▁little	-9.41496
▁project	-9.41653
▁labour	-9.4182
▁aspect	-9.41935
▁seul	-9.42016
▁savons	-9.42016
eux	-9.42087
▁ten	-9.42252
▁cohésion	-9.4231
▁legislative	-9.42351
▁25	-9.4237
▁agricole	-9.42426
▁pendant	-9.42468
man	-9.4247
▁régime	-9.42539
E	-9.42561
▁nothing	-9.42658
▁grâce	-9.42715
▁personne	-9.42815
▁tenu	-9.42851
▁them.	-9.42867
▁trouve	-9.42911
▁include	-9.43028
▁guarantee	-9.43036
▁active	-9.43092
▁provided	-9.43094
▁Amendment	-9.43224
▁frontières	-9.43231
▁mind	-9.43245
▁vrai	-9.43369
ue	-9.43426
ire	-9.43629
ure	-9.43659
▁sustainable	-9.43694
▁mer	-9.43825
dé	-9.43832
▁confiance	-9.43908
vis	-9.43913
▁30	-9.43938
▁Directive	-9.43951
▁féliciter	-9.43962
▁contraire	-9.44003
▁systèmes	-9.44006
▁foreign	-9.44032
▁perhaps	-9.44059
▁br	-9.44204
▁occasion	-9.44215
▁résultat	-9.44228
▁perspective	-9.44244
▁o	-9.44369
▁début	-9.44481
▁doubt	-9.44571
%	-9.44629
▁présenté	-9.44637
U	-9.44669
▁crime	-9.44756
▁sanctions	-9.44831
▁demain	-9.44956
▁show	-9.44972
▁rest	-9.44974
▁assurer	-9.4506
▁nuclear	-9.45066
▁past	-9.4508
▁speak	-9.45151
F	-9.45285
▁consumer	-9.45296
▁ministre	-9.45316
urs	-9.45333
▁Rights	-9.4539
▁it.	-9.45392
▁technical	-9.45482
▁protect	-9.4551
▁solidarity	-9.45532
▁gouvernements	-9.4554
R	-9.45563
▁n’a	-9.45589
▁critères	-9.45613
▁governments	-9.4567
tent	-9.45704
▁taux	-9.45712
▁statut	-9.45931
▁above	-9.45971
▁central	-9.46024
▁chance	-9.4607
▁vigueur	-9.46185
▁all,	-9.46189
▁guerre	-9.46267
▁documents	-9.46426
▁aurait	-9.46486
N	-9.46598
▁regarding	-9.46656
▁profit	-9.46722
▁;	-9.46864
▁note	-9.46877
▁combat	-9.46886
▁considération	-9.46904
▁l’UE	-9.46913
ai	-9.4704
▁unies	-9.47069
▁technologies	-9.47103
▁close	-9.47214
▁agreed	-9.473
ty	-9.47321
▁2004	-9.47328
▁possible.	-9.47428
-in-Office	-9.47452
▁Or	-9.47467
▁commercial	-9.47491
▁exercice	-9.47494
▁due	-9.47579
▁item	-9.4768
▁export	-9.47834
ale	-9.4784
L	-9.47881
ler	-9.47923
pa	-9.47931
▁actuelle	-9.47934
▁business	-9.48025
▁focus	-9.4804
▁voter	-9.48227
▁transparency	-9.48233
ag	-9.4825
▁integration	-9.48296
▁qu'à	-9.48312
▁telles	-9.48363
ants	-9.48533
▁produit	-9.48692
▁construction	-9.48703
iste	-9.48829
▁demand	-9.49019
ux	-9.4905
▁words	-9.49071
hi	-9.49129
▁several	-9.49146
▁seen	-9.49187
▁travers	-9.4941
elle	-9.49451
▁structure	-9.4951
ian	-9.49517
▁terrorisme	-9.49568
▁améliorer	-9.49573
▁stage	-9.49676
▁consensus	-9.49749
▁soon	-9.49864
▁Our	-9.49959
▁climatique	-9.49996
▁balance	-9.50002
cé	-9.50024
ted	-9.50185
ment,	-9.50232
▁police	-9.5027
▁valeurs	-9.50362
av	-9.50417
▁Parliament.	-9.50419
▁UN	-9.50557
▁apply	-9.5057
▁practice	-9.50668
▁Ba	-9.50882
▁fond	-9.50898
▁2007	-9.50912
▁procédures	-9.50949
▁she	-9.50968
▁côté	-9.51019
▁tomorrow	-9.51159
▁relatives	-9.51171
▁meet	-9.51178
▁rule	-9.51212
▁Minister	-9.51247
00	-9.51249
▁14	-9.51311
▁prise	-9.51319
▁upon	-9.51332
mé	-9.51402
ger	-9.5141
▁All	-9.51487
▁référence	-9.51493
▁others	-9.51579
▁réellement	-9.5158
ification	-9.51647
ally	-9.51707
▁prises	-9.5173
▁l'un	-9.51782
lic	-9.51787
▁enfin	-9.51789
men	-9.51879
▁1999	-9.51942
▁fonction	-9.52015
▁investment	-9.5206
▁uniquement	-9.52068
▁élections	-9.52112
▁found	-9.52155
▁convention	-9.52227
▁prochaine	-9.52231
▁victimes	-9.52274
▁rappeler	-9.52344
ière	-9.52369
▁week	-9.52378
pr	-9.52387
▁l'énergie	-9.5241
▁r	-9.52411
ho	-9.52625
▁road	-9.52688
▁paragraphe	-9.52725
▁certainement	-9.5286
▁offer	-9.52863
).	-9.52894
▁mal	-9.52956
ph	-9.53026
▁traitement	-9.53039
▁d'action	-9.53116
▁l'industrie	-9.53127
▁propres	-9.53193
▁présenter	-9.53223
▁terrorism	-9.53389
land	-9.53465
tor	-9.53495
▁promouvoir	-9.53499
▁comes	-9.53602
ba	-9.53813
▁moi	-9.53847
▁l'amendement	-9.53885
▁l'économie	-9.53971
▁monétaire	-9.53974
▁potential	-9.54018
▁him	-9.5406
▁veut	-9.54084
▁pl	-9.54138
▁s'il	-9.54147
▁financières	-9.54231
▁criteria	-9.54351
▁demandé	-9.54394
▁2006	-9.54434
▁continuer	-9.54462
▁Bien	-9.54481
do	-9.54534
▁content	-9.54539
▁outre,	-9.54586
▁personnel	-9.5466
▁J'espère	-9.54673
▁draw	-9.54705
less	-9.54723
▁normal	-9.5479
▁veiller	-9.54798
▁enable	-9.54801
▁civile	-9.54821
▁l'é	-9.54833
ised	-9.54846
▁accession	-9.5486
▁One	-9.54866
G	-9.54937
▁pression	-9.55004
ha	-9.55023
▁tenir	-9.55029
▁pleased	-9.55092
▁movement	-9.55176
▁seems	-9.55179
▁mission	-9.55253
▁session	-9.55321
▁voting	-9.55351
▁review	-9.55467
▁existing	-9.5549
▁l'année	-9.55509
▁Thank	-9.55659
ante	-9.5568
▁rec	-9.55692
▁avoid	-9.55693
▁provisions	-9.55781
istes	-9.55782
▁sure	-9.55854
▁plans	-9.55867
▁‘	-9.55907
▁Des	-9.55923
▁s’	-9.55932
▁train	-9.55974
▁colleagues	-9.56032
ies	-9.56112
▁protéger	-9.56155
▁eux	-9.56167
▁value	-9.56182
▁elections	-9.56201
▁obligations	-9.56249
▁18	-9.56261
▁values	-9.56288
▁autant	-9.56323
▁priorité	-9.56353
▁urgent	-9.56395
▁short	-9.5655
ton	-9.56566
▁Parlement,	-9.56583
ities	-9.56585
▁sport	-9.56636
▁stability	-9.56731
▁address	-9.56734
▁sources	-9.56755
▁l'importance	-9.56767
he	-9.56838
▁influence	-9.5687
▁Secondly,	-9.56896
▁signal	-9.56904
▁2008	-9.56928
▁ourselves	-9.57007
ssent	-9.57017
▁minimum	-9.57052
▁2000	-9.57055
▁parvenir	-9.57057
▁porte	-9.57173
▁centrale	-9.57263
▁Union's	-9.57292
▁attitude	-9.57316
▁reduce	-9.57327
▁ans	-9.57349
▁su	-9.57416
▁considère	-9.57464
▁tell	-9.57511
▁évidemment	-9.57636
à	-9.57645
ateurs	-9.57653
▁financier	-9.57807
▁respecter	-9.57828
▁fall	-9.57846
ser	-9.57849
▁partenariat	-9.579
▁rapport.	-9.57988
▁makes	-9.58027
▁markets	-9.58141
▁China	-9.58212
▁H	-9.58226
▁rend	-9.583
ide	-9.58421
cu	-9.58435
▁dois	-9.58436
▁develop	-9.58452
▁cohesion	-9.58582
▁creation	-9.58582
▁until	-9.58612
▁experience	-9.58724
▁impossible	-9.58767
▁fort	-9.58883
▁basic	-9.58898
▁poverty	-9.59011
▁cultural	-9.59036
▁financiers	-9.59036
▁everyone	-9.59114
▁loin	-9.59183
▁2005	-9.59222
▁charge	-9.59326
▁pauvreté	-9.59536
tu	-9.59539
▁conflict	-9.59606
sh	-9.59618
▁partage	-9.5964
▁never	-9.59697
▁établi	-9.59698
▁pays.	-9.5973
▁four	-9.59752
▁modèle	-9.59888
▁statement	-9.59924
▁coûts	-9.59991
▁cost	-9.60102
int	-9.60166
H	-9.60187
▁permet	-9.60215
▁carried	-9.60218
▁stress	-9.60237
▁sort	-9.60292
▁reduction	-9.6037
▁join	-9.60464
▁Chine	-9.60473
▁sense	-9.60488
▁changes	-9.60566
▁acceptable	-9.60647
▁territoire	-9.60666
▁saying	-9.60697
▁petites	-9.60711
▁agriculture	-9.6096
è	-9.61015
▁menace	-9.61058
▁17	-9.61092
▁collaboration	-9.61098
▁expect	-9.6118
▁military	-9.61188
▁éléments	-9.61194
▁reports	-9.61261
▁procedures	-9.61399
▁environnemental	-9.61429
▁amendement	-9.61433
▁list	-9.61442
▁tabled	-9.61502
▁Traité	-9.61526
▁asked	-9.61564
▁absolument	-9.61579
▁increased	-9.61609
▁consequences	-9.61686
▁grave	-9.6171
▁job	-9.61727
▁equal	-9.61745
▁consultation	-9.61773
▁m'	-9.61781
▁rapports	-9.61783
od	-9.61828
ile	-9.61839
▁continent	-9.61952
▁contenu	-9.61988
ful	-9.6203
▁establish	-9.62042
ins	-9.62054
▁increasing	-9.62064
▁held	-9.62076
▁relating	-9.6212
▁étaient	-9.62144
▁mé	-9.62189
▁farmers	-9.622
act	-9.62206
▁sociaux	-9.62297
▁2003	-9.62339
▁indispensable	-9.62372
▁d'euros	-9.62393
▁précisément	-9.6242
▁add	-9.62475
▁qu'on	-9.62528
ru	-9.62593
▁grandes	-9.62602
▁parole	-9.62645
vers	-9.62689
▁vi	-9.62698
▁réunion	-9.62705
▁priorités	-9.62713
▁zones	-9.62753
▁illegal	-9.6283
▁keep	-9.62905
pos	-9.6294
emp	-9.62957
▁namely	-9.63003
▁training	-9.63231
▁générale	-9.63394
▁accepter	-9.6343
▁When	-9.63473
▁travailler	-9.63515
▁hommes	-9.63656
▁proposé	-9.63728
▁pressure	-9.63773
side	-9.63797
▁men	-9.63801
▁required	-9.63823
▁peuple	-9.6384
▁requirements	-9.63925
▁organisation	-9.63993
▁d'in	-9.64006
▁coût	-9.64054
▁mondial	-9.64104
▁dépenses	-9.64112
ors	-9.64125
▁fishing	-9.64176
▁d'avoir	-9.64176
▁totalement	-9.64177
gé	-9.64213
▁everything	-9.64341
▁dû	-9.64355
▁future.	-9.64369
▁Mo	-9.6444
▁insist	-9.64516
▁policy,	-9.64531
▁live	-9.64553
▁d’autres	-9.64693
▁décidé	-9.64759
▁question.	-9.64762
ight	-9.64772
▁criminal	-9.6481
▁presented	-9.64817
▁Bo	-9.64838
▁quel	-9.64894
▁directives	-9.64968
ng	-9.65071
▁2002	-9.65103
▁attempt	-9.65105
▁maritime	-9.65117
▁l'utilisation	-9.65191
▁thus	-9.65199
▁développer	-9.65219
pé	-9.65424
▁opportunities	-9.65517
▁adoption	-9.65569
▁administrative	-9.65583
▁parmi	-9.65657
▁model	-9.65699
▁task	-9.65819
▁billion	-9.65837
▁jusqu'à	-9.65876
▁qu'elles	-9.65912
▁relevant	-9.65949
▁sensible	-9.65975
▁refer	-9.66162
▁qu’elle	-9.66204
▁external	-9.66213
▁throughout	-9.66283
▁package	-9.66287
▁conférence	-9.66324
tion	-9.66344
▁stand	-9.66363
▁regret	-9.66378
▁gens	-9.66391
▁contribuer	-9.66472
▁regulations	-9.66477
ienne	-9.66477
▁16	-9.66628
▁semaine	-9.66651
▁lecture	-9.66663
▁celles	-9.6667
cul	-9.66701
▁partenaires	-9.66744
▁immigration	-9.66751
▁institution	-9.66784
▁fair	-9.66793
bu	-9.66867
▁valeur	-9.66945
▁substances	-9.67015
▁capacité	-9.67061
▁remind	-9.67104
▁commencer	-9.67154
▁priorities	-9.6727
▁communautaires	-9.67354
▁either	-9.67445
▁pose	-9.67539
▁budgetary	-9.67583
▁phase	-9.67597
lement	-9.67733
▁résoudre	-9.67774
ga	-9.67842
▁Sa	-9.67885
ible	-9.67909
▁assessment	-9.6802
mer	-9.68023
▁rapporteurs	-9.68024
our	-9.68141
▁l'objet	-9.68156
▁called	-9.68254
▁permettra	-9.68274
▁Fund	-9.68327
▁l'heure	-9.68365
▁analyse	-9.68371
▁ho	-9.68386
lle	-9.68411
▁apporter	-9.68411
▁return	-9.68437
▁peine	-9.68521
▁réformes	-9.68641
da	-9.68666
▁around	-9.68874
▁follow	-9.68899
▁waste	-9.68954
▁quatre	-9.6904
▁suivi	-9.69092
),	-9.69102
▁Party	-9.69141
▁quoi	-9.69161
▁pleinement	-9.69221
pro	-9.69229
▁community	-9.69313
▁difficultés	-9.69368
d.	-9.69504
▁constituent	-9.69561
▁prepared	-9.69565
▁chacun	-9.69621
▁transports	-9.69659
▁d’a	-9.69727
▁consideration	-9.69746
▁decided	-9.69806
▁J'	-9.69835
▁liste	-9.69844
▁Schengen	-9.69854
▁jouer	-9.69873
all	-9.699
▁coup	-9.70017
ke	-9.7006
▁pratiques	-9.70126
▁appel	-9.70254
0	-9.70256
non	-9.70362
ables	-9.70371
▁sp	-9.70372
▁favorable	-9.7039
▁old	-9.70485
▁d'é	-9.70502
▁lesquels	-9.70504
po	-9.70566
▁50	-9.70631
▁V	-9.70783
mission	-9.70928
▁séance	-9.70935
os	-9.70978
▁courage	-9.7109
▁succès	-9.71093
▁félicite	-9.71128
▁donne	-9.71139
fi	-9.71173
▁turn	-9.71195
ig	-9.71217
▁l'in	-9.7122
▁innovation	-9.71235
▁utile	-9.71251
▁(PL)	-9.71343
▁considérable	-9.71355
▁sociales	-9.71403
▁practical	-9.71501
▁2001	-9.7156
tin	-9.71577
▁permis	-9.7158
▁2020	-9.71669
be	-9.71699
▁Se	-9.71719
▁l'agriculture	-9.71736
▁previous	-9.71737
▁sub	-9.71838
▁permettant	-9.71973
▁grands	-9.71983
▁administration	-9.72031
▁constructive	-9.72036
▁secteurs	-9.72053
▁reached	-9.72058
su	-9.72125
▁communauté	-9.72128
led	-9.72135
▁five	-9.72176
▁aujourd’hui	-9.72415
▁origin	-9.72421
▁monitoring	-9.72479
▁puissent	-9.72489
▁passer	-9.72491
▁contribute	-9.72565
▁sais	-9.72566
▁raised	-9.72572
▁danger	-9.72595
▁man	-9.72633
▁market.	-9.72656
▁expressed	-9.72673
▁An	-9.72777
▁amount	-9.72782
▁alimentaire	-9.72927
▁venir	-9.72931
▁Mar	-9.72959
▁care	-9.73124
ning	-9.73128
mb	-9.73132
▁déclaré	-9.73217
▁Notre	-9.73233
▁Ils	-9.73244
bi	-9.73273
ice	-9.73364
and	-9.73407
▁parlementaire	-9.73498
▁d'entre	-9.7352
▁circulation	-9.73527
out	-9.73559
▁reading	-9.7359
▁across	-9.73633
▁talking	-9.73643
▁Po	-9.73674
▁Portugal	-9.73755
▁death	-9.73805
▁réglementation	-9.73819
▁air	-9.73835
▁Therefore,	-9.73854
▁using	-9.73875
▁perspectives	-9.73896
▁Lisbonne	-9.73921
né	-9.73964
▁pourra	-9.73972
▁implement	-9.74063
▁temps,	-9.74116
son	-9.74137
▁limit	-9.74254
▁exigences	-9.74274
▁vos	-9.7428
▁prochain	-9.74287
▁renforcement	-9.74288
▁light	-9.74371
▁cinq	-9.74419
▁confirm	-9.74485
tes	-9.7455
ward	-9.74579
▁tard	-9.74607
▁respond	-9.74649
▁moi,	-9.7465
▁pa	-9.74723
▁cover	-9.7476
▁implemented	-9.74822
▁mot	-9.74823
▁passe	-9.74828
▁troisième	-9.74834
▁home	-9.74835
▁challenges	-9.74914
▁pourraient	-9.74928
▁poursuivre	-9.75099
▁private	-9.75117
▁rapide	-9.75129
▁try	-9.75192
▁Ireland	-9.75236
▁mandat	-9.7525
▁vient	-9.75307
▁travaux	-9.75372
▁reach	-9.75447
▁loi	-9.75527
▁l'occasion	-9.75551
▁fellow	-9.75647
▁fisheries	-9.75661
▁rapport,	-9.75663
lant	-9.75764
▁included	-9.75812
▁27	-9.75848
▁compétitivité	-9.7595
▁engagement	-9.75994
▁compétences	-9.76098
▁price	-9.76108
▁devoir	-9.76159
▁talk	-9.76242
▁comprendre	-9.76245
▁French	-9.7635
▁série	-9.76368
▁chômage	-9.76392
▁regime	-9.76392
▁hard	-9.76488
▁absolutely	-9.76572
▁quickly	-9.76573
▁Be	-9.76822
▁l'élargissement	-9.77005
▁serve	-9.77082
▁May	-9.77168
▁aider	-9.77203
tien	-9.77211
▁established	-9.77235
▁presidency	-9.77324
▁structures	-9.77349
oc	-9.77432
▁éviter	-9.77464
▁strengthen	-9.77484
emb	-9.77538
▁l'objectif	-9.77548
ical	-9.77586
▁recently	-9.7762
▁Li	-9.77738
▁outside	-9.77765
▁risques	-9.7777
▁ad	-9.77784
▁partnership	-9.77829
▁ensuite	-9.77856
▁R	-9.77907
▁vision	-9.77913
▁stop	-9.77929
ability	-9.77935
▁d	-9.77943
▁malheureusement	-9.77955
▁vise	-9.77964
▁correct	-9.78017
▁coming	-9.78098
▁importantes	-9.78115
▁reality	-9.78119
▁longtemps	-9.78124
▁réjouis	-9.78145
▁partners	-9.78161
▁quelle	-9.78166
ac	-9.78184
▁source	-9.7821
▁Deuxièmement	-9.78239
▁Conference	-9.78307
▁powers	-9.78436
▁élément	-9.78469
▁victims	-9.78674
▁choix	-9.78675
▁retard	-9.78689
ès	-9.7873
▁Parlement.	-9.78765
▁révision	-9.78785
▁forte	-9.78825
▁spécifiques	-9.7889
bo	-9.78937
ay	-9.7899
▁candidats	-9.79065
▁port	-9.79069
▁Development	-9.79115
▁adopter	-9.79123
▁industrial	-9.79171
▁N	-9.79183
▁additional	-9.79223
pi	-9.79291
▁lot	-9.79344
▁l'État	-9.79403
▁produce	-9.79413
▁puis	-9.79423
▁assez	-9.7944
▁d'en	-9.79539
▁Al	-9.79646
▁defend	-9.79652
▁reference	-9.79686
port	-9.79711
▁table	-9.79717
▁importe	-9.79727
-il	-9.79736
▁vis-à-vis	-9.79829
▁Africa	-9.79888
▁exchange	-9.79962
▁begin	-9.79982
▁completely	-9.79993
uel	-9.80005
▁genre	-9.8003
▁borders	-9.8007
▁structural	-9.80144
ille	-9.80157
▁supported	-9.80168
▁years.	-9.80209
▁test	-9.80217
▁pi	-9.80284
▁Ro	-9.80312
▁vo	-9.80362
▁possibilités	-9.80426
▁besoins	-9.80431
ui	-9.80438
▁cut	-9.80491
▁consiste	-9.80494
ici	-9.80585
▁l'UE.	-9.80601
ising	-9.80616
▁product	-9.80652
▁brought	-9.80764
ably	-9.80774
V	-9.80814
▁strict	-9.81116
▁ministres	-9.8116
▁pollution	-9.81228
▁ever	-9.81281
▁longue	-9.81312
▁giving	-9.81374
▁publics	-9.814
▁élevé	-9.81417
▁exist	-9.81419
▁ver	-9.81437
▁threat	-9.81444
▁treatment	-9.81489
▁lutter	-9.81562
▁21	-9.81595
▁St	-9.81757
▁left	-9.81772
ries	-9.81788
▁Co	-9.81803
▁times	-9.8184
▁fonctionnement	-9.81918
▁effects	-9.81947
▁broad	-9.82068
investissement	-9.82204
▁levels	-9.82319
▁près	-9.82358
▁US	-9.82379
",	-9.82387
▁conclu	-9.8244
▁summit	-9.82518
▁parle	-9.82526
▁union	-9.82574
▁2009	-9.82604
▁opposition	-9.82677
▁extent	-9.82696
▁finally	-9.82856
ités	-9.82894
▁December	-9.82958
▁d'ailleurs	-9.82958
▁Republic	-9.82959
▁emissions	-9.83044
ord	-9.83057
▁ayant	-9.83103
▁centre	-9.83103
▁défis	-9.83174
▁unemployment	-9.83195
▁Barroso	-9.83224
cy	-9.8323
▁vont	-9.83242
▁Council.	-9.83298
▁milliards	-9.8331
line	-9.8331
▁took	-9.83357
▁candidate	-9.83371
▁press	-9.83384
▁received	-9.8343
▁possibility	-9.83432
▁applied	-9.83521
▁décembre	-9.83521
▁surveillance	-9.83521
▁responsables	-9.83572
▁déc	-9.83588
▁businesses	-9.83624
▁trans	-9.83655
▁inform	-9.83673
▁heard	-9.8372
▁représentants	-9.83772
▁dix	-9.83816
▁along	-9.83888
rie	-9.83921
▁ensuring	-9.83924
▁aides	-9.83972
▁puisque	-9.84028
▁almost	-9.84088
▁invite	-9.84138
▁EU's	-9.84175
▁ACP	-9.84208
▁representatives	-9.84217
▁Agreement	-9.84238
▁plupart	-9.84238
▁derniers	-9.84267
▁Of	-9.84268
▁devra	-9.8432
▁approved	-9.84322
▁natural	-9.8442
ordre	-9.8447
▁rights.	-9.84486
▁Firstly	-9.84528
▁Conseil.	-9.84538
▁dossier	-9.84699
▁l’homme	-9.84799
▁Mon	-9.84821
▁nucléaire	-9.84854
▁side	-9.8488
▁years,	-9.84938
▁L'Union	-9.84963
▁year.	-9.84966
▁exprimé	-9.85031
▁proper	-9.85058
▁cons	-9.85064
hé	-9.85066
▁fournir	-9.85073
▁British	-9.8508
▁International	-9.85125
▁poor	-9.85132
▁Commissaire	-9.85185
▁lesquelles	-9.85186
▁fund	-9.8525
▁you,	-9.85294
▁investissements	-9.85298
▁mo	-9.85352
▁discussed	-9.85416
▁Bank	-9.85448
ak	-9.8548
▁bar	-9.85516
▁prices	-9.85521
▁actuel	-9.85532
▁discuss	-9.85549
▁behind	-9.85579
▁represent	-9.85585
▁ca	-9.856
▁confidence	-9.8561
-elle	-9.85623
▁Furthermore	-9.85625
▁conflit	-9.85642
▁creating	-9.85731
▁living	-9.85812
jo	-9.85815
▁Euro	-9.85851
▁implique	-9.85901
▁importants	-9.85921
▁East	-9.85929
▁travail.	-9.85936
▁away	-9.85971
▁thanks	-9.85972
▁connection	-9.85986
▁double	-9.86052
▁personal	-9.86071
vant	-9.86078
▁constater	-9.8612
▁L	-9.86153
▁positions	-9.86163
▁l'application	-9.86197
▁sitting	-9.86285
▁n'en	-9.8632
▁media	-9.86416
▁Justice	-9.8642
▁1998	-9.8649
▁competitiveness	-9.86532
▁effets	-9.86534
▁instance	-9.86541
▁Balkans	-9.86543
▁provision	-9.86564
▁intention	-9.86707
fe	-9.86822
▁measure	-9.86841
▁conclure	-9.86865
ving	-9.86874
▁100	-9.86886
▁techniques	-9.86898
▁seek	-9.8695
▁quotas	-9.86971
mit	-9.86973
▁office	-9.86975
▁building	-9.87021
▁leave	-9.87021
ob	-9.87189
▁yeux	-9.87204
nel	-9.87255
▁réalisé	-9.87303
▁humanitaire	-9.87354
▁Europe's	-9.87376
▁souligné	-9.87479
▁visa	-9.87578
tons	-9.8758
▁reforms	-9.87618
▁futur	-9.87622
ach	-9.8765
mar	-9.87721
▁permanent	-9.87791
▁délégation	-9.8782
▁independent	-9.8782
▁conformément	-9.87853
▁rate	-9.87873
▁constitution	-9.87894
▁l'ordre	-9.87906
▁time.	-9.87963
▁guidelines	-9.88147
tal	-9.88208
▁name	-9.88215
▁Green	-9.88224
▁unacceptable	-9.8824
▁sectors	-9.88298
ments	-9.88329
▁pr	-9.88357
▁parliamentary	-9.88383
▁émissions	-9.88444
▁fourni	-9.88444
▁nor	-9.88471
▁knowledge	-9.8849
▁montre	-9.88546
▁l'adoption	-9.88552
▁effectively	-9.88617
▁paragraph	-9.8867
▁nationale	-9.88735
▁level.	-9.88799
nant	-9.8881
▁reçu	-9.88913
▁technique	-9.88971
▁urge	-9.8898
▁c'est-à-dire	-9.89007
▁capacity	-9.89007
▁fondamental	-9.89015
▁conclude	-9.89033
▁challenge	-9.89126
▁Nord	-9.89205
▁n’	-9.89247
▁attend	-9.89274
▁d'État	-9.89275
▁agriculteurs	-9.89275
▁alternative	-9.89421
▁transparent	-9.89428
▁receive	-9.89466
▁Regulation	-9.89479
▁Belarus	-9.89511
ip	-9.8958
▁events	-9.89583
▁year,	-9.89595
▁ta	-9.89669
▁delay	-9.89699
▁etc.	-9.89719
era	-9.89746
▁pensons	-9.89762
▁positif	-9.89903
▁scope	-9.89906
▁gaz	-9.90069
▁comité	-9.90085
ub	-9.9014
▁capable	-9.90222
▁exige	-9.90273
▁huge	-9.90311
▁emplois	-9.90316
▁figure	-9.90343
▁jours	-9.90344
▁defence	-9.90464
s'	-9.90483
▁Permettez-moi	-9.9051
▁stratégique	-9.9059
▁certaine	-9.9064
isé	-9.90678
▁responsable	-9.9068
▁animal	-9.907
▁introduction	-9.90757
▁prévu	-9.90765
▁read	-9.90803
▁code	-9.90855
▁vert	-9.90885
ain	-9.90894
▁li	-9.91026
pt	-9.91027
▁violations	-9.91062
ping	-9.91116
▁République	-9.91198
▁family	-9.91198
▁world.	-9.9121
▁structurels	-9.91217
▁remains	-9.91246
▁animaux	-9.91247
▁2010	-9.91255
▁considered	-9.91333
▁récemment	-9.91343
▁mentionné	-9.91399
met	-9.91424
▁gas	-9.91457
ual	-9.9146
ateur	-9.91466
▁visit	-9.91508
▁Con	-9.91534
▁nations	-9.9155
▁claire	-9.91603
cour	-9.91603
▁mener	-9.91644
▁s’agit	-9.91713
▁despite	-9.91762
▁affected	-9.91885
▁changements	-9.91908
▁Central	-9.9194
▁humanitarian	-9.91945
▁effectivement	-9.92003
▁low	-9.92017
▁Ne	-9.92024
▁aimed	-9.92062
ever	-9.9207
▁producteurs	-9.9208
ran	-9.92153
▁American	-9.92162
▁divers	-9.92198
▁Internet	-9.92288
▁fa	-9.92525
▁Pa	-9.92587
▁veux	-9.92687
une	-9.92705
ite	-9.92721
▁définition	-9.92724
▁caractère	-9.92752
bil	-9.92815
▁prend	-9.92839
▁défini	-9.9285
▁fl	-9.92898
▁World	-9.92915
▁First	-9.92974
▁precisely	-9.92988
▁désormais	-9.92997
▁l'égard	-9.93016
▁difficulties	-9.93067
▁asylum	-9.9316
▁budgets	-9.93168
▁hold	-9.93258
▁ba	-9.93268
▁trying	-9.93273
▁exploit	-9.93284
▁invest	-9.93343
▁haut	-9.9337
▁rights,	-9.93391
près	-9.93391
▁fer	-9.93405
▁na	-9.935
▁rester	-9.93514
▁souhaiterais	-9.93537
▁situation.	-9.93552
▁Economic	-9.93603
▁défi	-9.9363
▁supply	-9.93636
▁j’ai	-9.93657
▁l'autre	-9.93669
▁sérieux	-9.93678
▁(PT)	-9.93685
▁lu	-9.93723
▁efficiency	-9.93801
▁Ka	-9.9382
▁Now	-9.93892
iques	-9.93968
▁carry	-9.93985
▁Strasbourg	-9.94015
iers	-9.9403
▁shown	-9.94124
▁Sur	-9.94146
▁June	-9.94157
▁safeguard	-9.94164
▁tour	-9.94175
nes	-9.94267
▁instead	-9.9428
▁decide	-9.94334
▁adoptée	-9.94376
▁conséquence	-9.94384
▁ligne	-9.94397
▁conscience	-9.94462
ab	-9.94477
(	-9.94483
▁législatif	-9.94562
▁évident	-9.9461
▁assist	-9.94638
▁déchets	-9.94645
▁anti-	-9.94649
▁days	-9.94666
▁developed	-9.9473
der	-9.94788
▁terrorist	-9.94815
▁purpose	-9.94859
▁suivre	-9.94861
▁dealing	-9.94871
▁honourable	-9.94875
▁supplémentaires	-9.94879
▁années,	-9.9501
▁circumstances	-9.95078
▁conciliation	-9.95078
▁obstacles	-9.95126
▁How	-9.95218
▁maintain	-9.95228
▁beginning	-9.95235
▁half	-9.95247
▁original	-9.95262
je	-9.95296
▁accordance	-9.9531
▁providing	-9.95328
way	-9.95333
lin	-9.95463
▁proportion	-9.95492
▁Palestinian	-9.95529
▁institutional	-9.95589
▁advantage	-9.95613
▁mai	-9.95692
▁route	-9.95711
▁technology	-9.95714
▁recognise	-9.95734
▁situations	-9.95745
▁libéralisation	-9.95757
▁étrangère	-9.9576
▁juin	-9.95785
rog	-9.95785
▁oil	-9.95839
▁responsabilités	-9.9584
▁l'euro	-9.95897
▁atteindre	-9.95933
▁votes	-9.95965
▁raise	-9.95998
▁maintien	-9.96062
▁prévention	-9.96067
▁improving	-9.96185
▁entire	-9.96207
▁today.	-9.9624
▁soutiens	-9.96264
▁d'autre	-9.96287
▁parfois	-9.96337
rais	-9.96361
▁Do	-9.96388
▁maintenir	-9.96439
▁disposition	-9.96488
▁agir	-9.96562
▁committed	-9.96594
▁corruption	-9.96645
▁inacceptable	-9.96676
▁1997	-9.96738
▁paquet	-9.96778
▁tri	-9.96788
▁speech	-9.96798
▁biais	-9.9682
▁Voilà	-9.96931
▁suffisamment	-9.96999
▁présence	-9.97016
▁wrong	-9.97033
▁via	-9.97091
▁l’é	-9.97092
issent	-9.97112
▁principal	-9.97119
▁delegation	-9.97135
▁Ha	-9.97157
▁former	-9.97246
▁highlight	-9.97317
▁according	-9.97346
▁Germany	-9.97352
str	-9.97358
ish	-9.97371
▁relatif	-9.974
▁niveaux	-9.97402
▁j'espère	-9.97408
▁Royaume-Uni	-9.9751
▁atteint	-9.97521
▁allowed	-9.97568
▁montant	-9.97714
▁réaliser	-9.97812
lar	-9.97898
▁Social	-9.9793
▁successful	-9.9793
▁scientific	-9.97939
▁created	-9.97973
▁goes	-9.97977
▁voix	-9.97993
▁judiciaire	-9.98025
▁malgré	-9.98043
▁répond	-9.98066
▁Me	-9.98094
▁député	-9.98117
▁(FR)	-9.98128
▁restrictions	-9.98157
▁Ra	-9.98227
▁fear	-9.98232
▁emphasise	-9.98265
▁obtenu	-9.983
▁maximum	-9.98339
▁(IT)	-9.98369
▁gain	-9.98383
▁assure	-9.984
▁damage	-9.98404
▁status	-9.9841
▁intérêt	-9.98426
▁pen	-9.98433
▁meilleur	-9.98444
▁benefits	-9.98502
▁enterprises	-9.98518
▁partir	-9.98568
▁engagements	-9.98641
▁event	-9.98676
▁considerable	-9.98775
▁d'énergie	-9.98792
▁duty	-9.98835
▁colleague	-9.98869
alité	-9.98888
form	-9.98894
▁Vi	-9.98999
ages	-9.99076
▁directive.	-9.99109
▁Policy	-9.99114
▁citizens.	-9.99123
▁initial	-9.9919
▁opinion,	-9.99265
▁accepted	-9.99378
▁40	-9.99383
▁rightly	-9.99508
▁II	-9.99546
▁WTO	-9.99619
▁outre	-9.99786
▁strategic	-9.99864
▁l'accès	-9.99951
▁claim	-9.99955
▁implementing	-9.9997
▁libertés	-9.99981
▁événements	-9.99991
▁Brussels	-10.0007
▁tâche	-10.0012
ade	-10.0014
▁l'information	-10.0016
▁participer	-10.0019
▁choice	-10.0021
▁obtenir	-10.003
▁estime	-10.0032
▁causes	-10.0034
ap	-10.0037
▁ha	-10.0038
▁critique	-10.0039
▁rendu	-10.0045
▁Présidence	-10.0046
▁prévoit	-10.0048
'.	-10.0048
▁n'avons	-10.0048
▁augmentation	-10.0049
▁rise	-10.0052
cur	-10.0052
car	-10.0052
▁infrastructure	-10.0056
▁allons	-10.0059
▁Iraq	-10.0059
▁ratification	-10.006
dit	-10.006
▁unfortunately	-10.0063
▁clause	-10.0069
rant	-10.0074
▁collective	-10.0075
▁correspond	-10.008
ration	-10.0082
▁Nos	-10.0083
▁stated	-10.0089
▁similar	-10.009
▁promoting	-10.0092
cent	-10.0094
▁évaluation	-10.0095
▁Car	-10.0103
▁crimes	-10.0105
▁thought	-10.0107
▁envisage	-10.0109
▁publiques	-10.012
98	-10.0121
▁referred	-10.0127
▁adapt	-10.013
01	-10.0135
▁étrangères	-10.0135
▁arrive	-10.0136
▁Merci	-10.0136
▁internationales	-10.0142
97	-10.0142
▁déclarations	-10.0149
▁specifically	-10.0151
▁closely	-10.0151
▁aller	-10.0156
tim	-10.0157
ques	-10.016
ène	-10.0162
▁overall	-10.0164
▁German	-10.0167
▁happen	-10.0173
▁spirit	-10.0181
▁liés	-10.0182
▁l'égalité	-10.0182
-f	-10.0196
▁border	-10.02
▁seriously	-10.0201
▁directement	-10.0203
▁veulent	-10.0208
one	-10.0216
▁Banque	-10.0217
ka	-10.0217
▁Israel	-10.0221
▁Human	-10.0222
▁potentiel	-10.0225
▁excessive	-10.0237
itaire	-10.0245
▁firm	-10.0255
her	-10.0262
▁remember	-10.0263
▁bas	-10.0274
▁impose	-10.0275
ious	-10.0282
▁pension	-10.0283
▁dispose	-10.0286
▁res	-10.0289
▁area.	-10.0291
▁transition	-10.0294
▁convaincu	-10.0297
▁beyond	-10.0298
▁provides	-10.03
▁Bruxelles	-10.0303
▁long-term	-10.0303
▁relationship	-10.0304
▁history	-10.0305
▁sociétés	-10.0306
▁depend	-10.0307
▁ju	-10.0308
▁Ch	-10.0309
tri	-10.0309
uff	-10.0314
▁takes	-10.0314
▁multi	-10.0326
▁accès	-10.0327
▁l'Europe.	-10.0336
▁juridiques	-10.0344
▁Cet	-10.0352
▁populations	-10.0358
▁réfugiés	-10.0359
▁work.	-10.0364
▁complete	-10.037
▁précédent	-10.0389
ifs	-10.0395
▁faisant	-10.0401
▁celle-ci	-10.0407
▁auquel	-10.0408
▁country,	-10.0409
▁calls	-10.0413
▁pourrons	-10.0415
▁Ukraine	-10.0416
▁directly	-10.0416
▁Socialist	-10.0422
▁standard	-10.0427
ition	-10.0429
▁accompli	-10.0434
▁k	-10.0437
▁Group.	-10.0447
▁know,	-10.0449
▁monde.	-10.045
▁européens.	-10.0463
mon	-10.0469
▁expenditure	-10.0476
▁lignes	-10.0476
▁age	-10.048
▁l'adhésion	-10.0484
ding	-10.0485
ize	-10.0486
▁Today	-10.0491
▁équitable	-10.0491
▁graves	-10.0495
ces	-10.0497
issement	-10.0499
▁lives	-10.05
▁expression	-10.05
▁comptes	-10.0503
▁évoqué	-10.0507
euse	-10.051
▁financing	-10.0512
▁study	-10.0519
▁annual	-10.0519
▁wanted	-10.0519
▁réalisation	-10.0523
▁Mediterranean	-10.053
vé	-10.053
20	-10.0531
▁contact	-10.0532
qué	-10.0537
▁conference	-10.0539
ber	-10.0539
onne	-10.054
▁efficient	-10.0542
▁gr	-10.0547
▁forms	-10.0548
▁continu	-10.0552
▁Irish	-10.0554
▁appear	-10.0554
▁poser	-10.0556
▁applicable	-10.0557
▁spécifique	-10.0557
▁comments	-10.0561
▁britannique	-10.0563
▁reconnaissance	-10.057
▁recours	-10.0572
▁campagne	-10.0576
▁issue.	-10.0576
▁sea	-10.0579
▁requires	-10.0581
▁soumis	-10.0591
▁obligation	-10.0593
▁globale	-10.0596
▁useful	-10.06
▁harmonisation	-10.0615
▁competence	-10.0626
▁mêmes	-10.0631
▁compensation	-10.0636
ats	-10.0646
▁soutenu	-10.0651
▁d'Europe	-10.0652
▁utiliser	-10.0654
▁l'efficacité	-10.066
▁réelle	-10.0661
▁Premièrement	-10.0665
cra	-10.0676
▁économique,	-10.0676
03	-10.068
▁fraud	-10.0682
▁procès-verbal	-10.0682
▁garantie	-10.0683
▁dépend	-10.0686
▁connaissance	-10.0691
▁écrit	-10.0691
▁préoccupations	-10.0691
▁equality	-10.0694
▁refus	-10.0694
▁ans,	-10.0705
▁experts	-10.0705
▁Iran	-10.0706
▁campaign	-10.0709
▁process.	-10.0713
gg	-10.0713
▁1996	-10.0722
▁important.	-10.073
▁here.	-10.0735
▁setting	-10.0742
▁peuples	-10.0744
▁myself	-10.0745
▁goods	-10.0749
▁envers	-10.0749
▁agricoles	-10.0751
▁réseaux	-10.0755
attaque	-10.0763
▁m'a	-10.0764
▁fiscale	-10.0766
▁January	-10.0769
▁Summit	-10.0769
▁consommation	-10.0771
▁introduce	-10.0771
▁intended	-10.0772
▁militaire	-10.0774
▁défendre	-10.0779
▁sait	-10.0779
▁reflect	-10.0782
▁activity	-10.0783
▁outcome	-10.0786
».	-10.079
cre	-10.079
ly.	-10.0792
▁red	-10.0793
▁devenir	-10.0795
▁mérite	-10.0796
▁enter	-10.0804
▁sufficient	-10.0809
▁trafic	-10.0813
▁l'ai	-10.0817
▁ceci	-10.0825
▁état	-10.0827
▁néanmoins	-10.083
ster	-10.0838
vie	-10.0839
rit	-10.084
▁principaux	-10.0845
▁burden	-10.0851
sé	-10.0851
▁montrer	-10.0853
▁qu’	-10.0855
mes	-10.0859
▁complex	-10.0859
▁naturellement	-10.086
▁qu'au	-10.0863
▁janvier	-10.0864
▁trust	-10.0864
▁paid	-10.0872
▁convergence	-10.0872
▁reconnaître	-10.0873
▁closed.	-10.0873
▁ignore	-10.0877
▁tirer	-10.0881
up	-10.0885
ture	-10.0895
▁modification	-10.0895
▁words,	-10.0896
lam	-10.0899
▁distribution	-10.0901
▁l'intérêt	-10.0922
▁ground	-10.0925
▁d'aide	-10.0928
▁crédits	-10.0929
ki	-10.0929
▁souligne	-10.0934
▁Luxembourg	-10.0939
▁desire	-10.094
▁Prodi	-10.0943
▁exprimer	-10.0943
▁alone	-10.0944
▁post	-10.0944
▁pe	-10.0944
▁version	-10.0954
raient	-10.0959
▁speaking	-10.0962
▁23	-10.0969
▁oral	-10.0973
▁party	-10.0974
▁highly	-10.0974
▁bodies	-10.0976
part	-10.0978
▁steps	-10.0983
▁employ	-10.0984
▁économie	-10.0986
▁anything	-10.0989
▁Greece	-10.0997
▁competitive	-10.0998
dre	-10.0998
rm	-10.1002
▁pauvres	-10.1005
▁lorsqu'il	-10.1006
ans	-10.1019
io	-10.102
ris	-10.1021
▁tend	-10.1026
iel	-10.1028
▁CO2	-10.1032
▁substantial	-10.1032
▁ouverte	-10.1033
▁Sud	-10.1036
▁traite	-10.104
▁bonnes	-10.1043
▁offre	-10.1045
▁adequate	-10.1046
▁espérons	-10.1051
▁représentant	-10.1052
▁bear	-10.1052
▁ob	-10.1061
▁properly	-10.1064
▁ambitious	-10.1081
▁permettez-moi	-10.1085
▁Some	-10.1086
▁Ga	-10.1087
▁auto	-10.1088
▁genuine	-10.1093
▁yesterday	-10.1096
tique	-10.1099
▁medium-sized	-10.1102
▁dés	-10.1111
▁commitments	-10.1114
ring	-10.1116
▁demands	-10.1126
▁souhait	-10.1127
▁higher	-10.1128
▁language	-10.1128
▁patients	-10.1138
▁résolu	-10.1143
▁limited	-10.1152
▁humains	-10.1153
tat	-10.1155
▁discussing	-10.1156
rez	-10.1163
▁Although	-10.1165
▁24	-10.1166
▁forget	-10.1175
▁parlé	-10.1185
▁acquis	-10.1191
▁Environment	-10.12
▁known	-10.1202
▁supporting	-10.1208
▁l'idée	-10.121
▁authority	-10.1214
▁declaration	-10.1216
▁endorse	-10.1219
▁Pro	-10.1221
▁increasingly	-10.1222
▁word	-10.1223
▁traiter	-10.1228
▁establishing	-10.1234
▁country.	-10.1235
▁l'en	-10.1237
▁pacte	-10.124
▁Selon	-10.1243
▁calling	-10.1245
lli	-10.1246
▁emploi	-10.1247
▁exploitation	-10.1249
▁flexible	-10.1252
▁Unfortunately	-10.1254
▁seem	-10.1257
▁Ceci	-10.1258
▁compétence	-10.1262
▁whom	-10.1264
▁hear	-10.1265
▁procéder	-10.127
▁caused	-10.1272
▁Rules	-10.1277
lon	-10.1278
▁method	-10.1283
▁big	-10.129
▁mutual	-10.129
▁s'en	-10.129
▁salue	-10.1299
▁clos.	-10.13
▁médias	-10.1304
▁early	-10.1304
▁tourisme	-10.1304
▁improved	-10.1309
▁cent	-10.1309
▁monnaie	-10.1312
isse	-10.1312
▁March	-10.1317
▁violation	-10.1317
▁achieving	-10.132
▁étape	-10.1322
rou	-10.1325
▁deliver	-10.1332
▁Di	-10.1333
▁laisser	-10.1344
sa	-10.135
▁land	-10.135
▁discuter	-10.135
▁By	-10.1354
▁run	-10.136
▁départ	-10.1369
▁stocks	-10.1369
▁learn	-10.1376
▁shows	-10.1379
▁im	-10.1381
▁réseau	-10.1383
▁l'éducation	-10.1386
▁l'attention	-10.1386
▁comprehensive	-10.1396
nn	-10.1405
▁record	-10.1405
ang	-10.1406
si	-10.141
▁affaire	-10.1412
ident	-10.1412
▁fi	-10.1412
▁happened	-10.1413
abilité	-10.1413
▁ai	-10.1415
▁humaine	-10.1417
▁definition	-10.143
▁prison	-10.1437
▁child	-10.1438
▁market,	-10.1442
▁l'intégration	-10.1443
▁(S	-10.1444
▁consistent	-10.1445
▁Security	-10.1447
▁require	-10.1448
▁opinions	-10.1448
▁strengthening	-10.1456
ld	-10.1457
▁l'Assemblée	-10.1459
▁Minutes	-10.1461
▁budgétaires	-10.1462
▁manner	-10.1465
-c	-10.1467
▁reducing	-10.1469
▁22	-10.1474
▁uvre	-10.1479
▁tackle	-10.1487
▁sou	-10.1488
▁soi	-10.1489
▁semaines	-10.1493
▁obviously	-10.1496
▁produced	-10.1499
▁précis	-10.15
▁exercise	-10.151
▁populaire	-10.151
▁cro	-10.1511
▁Since	-10.1515
position	-10.1525
▁régionale	-10.1534
▁arguments	-10.1534
▁represents	-10.154
▁professionnelle	-10.1549
▁soulevé	-10.1557
▁pourtant	-10.1562
own	-10.1567
▁reject	-10.1569
▁taxes	-10.157
▁mars	-10.1575
▁sentiment	-10.1579
▁failure	-10.1582
▁Da	-10.1585
▁moyennes	-10.1589
▁Néanmoins	-10.1594
▁convinced	-10.1606
▁Elles	-10.1612
▁views	-10.1621
▁currency	-10.1622
▁send	-10.1625
▁check	-10.1627
▁establishment	-10.1628
▁producers	-10.1628
ev	-10.1635
▁cur	-10.1642
▁déposé	-10.1643
▁Amsterdam	-10.1655
▁Foreign	-10.1662
▁heureux	-10.1666
▁member	-10.1668
▁reconstruction	-10.167
▁largement	-10.1671
fin	-10.1671
▁weeks	-10.1671
▁Moreover	-10.1676
ron	-10.1678
▁(A	-10.1683
▁encourager	-10.1685
▁looking	-10.169
esse	-10.1692
▁économies	-10.1694
▁débats	-10.1695
▁migration	-10.1701
responsibilities	-10.1712
▁chemin	-10.1714
▁nouvel	-10.1715
▁bad	-10.1716
▁historique	-10.1718
▁front	-10.172
▁approuvé	-10.1724
▁substance	-10.1724
▁enormous	-10.1726
▁monitor	-10.1729
▁proposer	-10.173
▁ferme	-10.1735
▁démocratiques	-10.1735
-nous	-10.1736
▁income	-10.1738
▁spécial	-10.1739
▁Italy	-10.1744
▁person	-10.1745
▁chez	-10.1746
▁partis	-10.1746
▁clé	-10.1748
▁Fa	-10.1755
▁types	-10.1758
ons-nous	-10.1759
▁parfaitement	-10.1762
gen	-10.1765
▁vote.	-10.1766
▁contract	-10.1771
ché	-10.1774
▁article	-10.1774
▁contributions	-10.178
▁safe	-10.178
▁transfer	-10.1783
▁PME	-10.1785
▁industries	-10.1789
▁créé	-10.1792
intégr	-10.1793
ç	-10.1794
▁monetary	-10.1799
▁law.	-10.18
▁sector.	-10.1802
▁pourront	-10.1807
á	-10.1808
▁combating	-10.1809
ef	-10.1813
▁balanced	-10.1813
nent	-10.1813
▁sometimes	-10.182
▁infrastructures	-10.1821
▁gra	-10.1821
▁actes	-10.1823
▁analysis	-10.1839
▁conflits	-10.1841
▁Grèce	-10.1843
▁aient	-10.1847
▁appeal	-10.1848
▁qu'a	-10.1853
▁staff	-10.1854
▁earlier	-10.1856
▁bénéficier	-10.1858
▁destruction	-10.186
▁recognition	-10.1862
▁so-called	-10.1865
▁soins	-10.1875
▁l'esprit	-10.1877
▁développement.	-10.1878
▁fail	-10.1878
▁mécanisme	-10.188
▁expérience	-10.1886
▁l'UE,	-10.1887
▁(NL)	-10.1888
▁concrete	-10.1889
▁statements	-10.1892
▁risks	-10.1899
▁dangerous	-10.1903
▁mondialisation	-10.1916
▁suggest	-10.1922
ines	-10.1923
▁taxation	-10.193
▁internationaux	-10.1932
▁citoyens.	-10.1937
▁institutions.	-10.1939
▁demonstrate	-10.1954
-t-elle	-10.1954
▁Spanish	-10.196
▁entirely	-10.1964
▁becoming	-10.1965
▁Cuba	-10.1967
▁firstly	-10.197
▁contrôles	-10.197
▁i	-10.1971
▁avenir	-10.1972
▁culturelle	-10.1974
▁contrary	-10.1977
▁introduit	-10.1977
▁européens,	-10.1985
▁protocole	-10.1987
▁protest	-10.199
▁Ainsi	-10.1992
▁extra	-10.1998
▁option	-10.1999
▁Romania	-10.201
▁facing	-10.201
▁durant	-10.2011
▁alimentaires	-10.2013
▁montré	-10.2016
▁voice	-10.2019
▁aims	-10.202
▁soir	-10.2021
▁prevention	-10.2023
▁Après	-10.2023
▁After	-10.2029
▁avaient	-10.2029
▁finance	-10.2031
▁introduced	-10.2041
▁Programme	-10.2041
▁Russian	-10.2043
cer	-10.2054
▁official	-10.2054
▁negative	-10.2061
▁elements	-10.2063
▁animals	-10.2067
▁pouvoirs	-10.2069
▁retour	-10.2074
▁rappelle	-10.2078
▁network	-10.2079
▁regrettable	-10.2087
▁nu	-10.2088
▁Nevertheless	-10.2093
▁conduct	-10.2097
▁thinking	-10.21
▁professional	-10.21
▁disposer	-10.2101
▁servir	-10.2104
▁touche	-10.2105
▁heart	-10.2107
▁au-delà	-10.211
▁Conférence	-10.2113
▁cross-border	-10.2113
▁hier	-10.2115
▁reduced	-10.2123
▁UK	-10.2124
▁négociation	-10.2124
02	-10.2127
▁livre	-10.2128
▁d'ex	-10.2134
▁sé	-10.2135
▁faudrait	-10.2135
▁rapporteur.	-10.2137
▁discours	-10.2147
▁supplémentaire	-10.2152
▁méthode	-10.2153
▁décider	-10.2154
▁actual	-10.2155
▁head	-10.2156
▁plénière	-10.216
▁South	-10.2163
▁condemn	-10.2165
▁gives	-10.2166
rent	-10.2168
▁1,	-10.2169
▁flexibility	-10.2171
▁speed	-10.2171
▁effectué	-10.2172
▁définir	-10.2172
▁parlementaires	-10.2177
▁entend	-10.2179
▁asking	-10.2182
▁debate.	-10.2183
isée	-10.2185
▁septembre	-10.2187
▁sent	-10.22
▁climat	-10.2202
▁people.	-10.2204
▁d'information	-10.2216
▁Can	-10.2218
▁religion	-10.2224
▁w	-10.2224
▁liberalisation	-10.2225
▁repeat	-10.2227
▁décharge	-10.223
bor	-10.2241
lla	-10.2241
▁differences	-10.2245
▁Malheureusement	-10.2246
▁immigrants	-10.2246
▁réaction	-10.2248
just	-10.225
▁build	-10.2252
▁Européens	-10.2253
▁réussi	-10.2253
▁examine	-10.2253
▁ship	-10.2253
▁rencontre	-10.2257
▁recommandations	-10.2259
▁raisonnable	-10.2263
▁van	-10.2264
▁précise	-10.2265
30	-10.2266
▁September	-10.2268
▁n'ai	-10.2269
▁Messieurs	-10.2271
▁devront	-10.2275
▁liées	-10.2275
▁d'améliorer	-10.2275
▁Go	-10.2276
▁conseil	-10.2278
▁fondamentale	-10.2288
able.	-10.2288
▁Afghanistan	-10.229
inter	-10.2291
▁probably	-10.2292
▁adéquate	-10.2293
ren	-10.2293
▁Spain	-10.2294
▁morning	-10.2296
▁équilibre	-10.2297
▁added	-10.2298
▁réel	-10.2301
▁armes	-10.2302
▁critical	-10.2303
ôt	-10.2308
▁conclusion,	-10.2308
▁pointed	-10.2309
▁matin	-10.2311
tention	-10.2317
▁stable	-10.2324
▁faudra	-10.2326
▁EU.	-10.2328
▁réserve	-10.233
og	-10.2335
▁America	-10.2339
▁simplification	-10.234
▁explain	-10.2343
▁Indeed	-10.2347
▁l'une	-10.2349
▁essentielle	-10.2352
▁massive	-10.2362
▁exclu	-10.2364
▁développé	-10.2365
▁closer	-10.2368
▁souhaitons	-10.2375
▁else	-10.238
we	-10.2388
▁recommendations	-10.2389
ble	-10.239
▁réflexion	-10.2392
▁criticism	-10.2396
▁acknowledge	-10.2398
▁conviction	-10.2398
▁body	-10.2399
▁assess	-10.2403
ros	-10.2405
▁communes	-10.2405
▁conforme	-10.2408
▁faisons	-10.2409
▁Roumanie	-10.2414
▁sound	-10.2414
▁budget.	-10.2417
▁Italian	-10.2434
▁l'ex	-10.2437
▁Que	-10.2438
▁réuni	-10.244
▁secure	-10.2441
▁mandate	-10.2443
▁avions	-10.2444
▁avantages	-10.2447
iez	-10.2455
▁complexe	-10.2463
ï	-10.2466
▁américain	-10.2468
▁strongly	-10.2484
▁éco	-10.2487
▁seraient	-10.2488
▁ge	-10.249
sur	-10.2494
▁minutes	-10.2494
▁applies	-10.2501
▁Aujourd'hui	-10.2504
▁l'initiative	-10.2508
▁leaders	-10.2512
▁understanding	-10.2513
▁exactly	-10.2516
▁Vo	-10.2517
▁fonctionne	-10.252
▁modern	-10.252
▁cr	-10.2522
▁Pact	-10.2526
▁celui-ci	-10.2528
▁revêt	-10.2533
▁aborder	-10.2538
iens	-10.2539
ging	-10.2548
▁efficaces	-10.255
▁d'ici	-10.2554
▁élu	-10.2558
pul	-10.2566
▁idée	-10.2569
▁presque	-10.2581
▁mechanism	-10.2582
▁renewable	-10.2583
▁travel	-10.2584
▁conserv	-10.2586
▁later	-10.2586
▁représentent	-10.2588
▁chances	-10.2591
▁abuse	-10.2591
▁November	-10.2601
▁company	-10.2601
urg	-10.2606
▁thème	-10.2609
▁Question	-10.2612
▁drawn	-10.2616
▁ways	-10.2619
▁accepté	-10.2624
▁fraude	-10.2629
▁parlons	-10.2629
▁presse	-10.2631
▁Procedure	-10.2637
▁vol	-10.264
▁improvement	-10.264
▁col	-10.264
▁discharge	-10.2644
▁modifier	-10.2646
exprim	-10.2647
ys	-10.2649
▁milliers	-10.2651
▁constitutionnel	-10.2653
▁cré	-10.2655
ust	-10.2657
▁aérien	-10.266
▁fera	-10.266
▁Pakistan	-10.266
▁author	-10.2662
▁novembre	-10.2662
nu	-10.2668
▁limite	-10.2672
▁credit	-10.2674
▁famille	-10.2674
▁impression	-10.2676
teur	-10.2678
ez-vous	-10.2685
▁lancé	-10.2686
apport	-10.2688
▁consommateur	-10.2689
▁reprises	-10.2689
▁faciliter	-10.2691
▁faible	-10.2701
▁import	-10.2703
ifié	-10.2707
▁!	-10.2712
▁weak	-10.2714
▁demandons	-10.2715
▁extend	-10.2717
nement	-10.2726
▁concernés	-10.273
▁opening	-10.2735
▁traffic	-10.2736
▁reply	-10.2736
▁Premier	-10.2738
▁mécanismes	-10.2745
the	-10.2748
▁refugees	-10.2748
ow	-10.2752
▁auxquels	-10.2754
▁methods	-10.2757
▁dealt	-10.2762
nk	-10.2767
▁énorme	-10.2768
cing	-10.277
▁super	-10.2772
▁concentrer	-10.2772
▁constitute	-10.2773
force	-10.2776
▁examiner	-10.2776
org	-10.2776
▁networks	-10.2777
▁submitted	-10.2785
99	-10.2789
▁obtain	-10.2799
▁Paper	-10.28
▁regrette	-10.2809
▁agencies	-10.281
▁heures	-10.2811
ists	-10.2813
/2001	-10.2817
▁PPE-DE	-10.2819
▁us.	-10.282
▁médicaments	-10.2821
▁obligatoire	-10.2829
▁happy	-10.2836
▁s’est	-10.284
▁MEPs	-10.284
▁cela,	-10.284
▁délai	-10.2847
▁Na	-10.2861
▁Ladies	-10.2868
▁travail,	-10.2869
▁vais	-10.2875
ified	-10.288
▁juge	-10.288
▁function	-10.2881
▁fil	-10.2881
▁addressed	-10.2885
▁forest	-10.2887
▁500	-10.2888
▁degree	-10.2894
téri	-10.2894
▁governance	-10.2899
▁assume	-10.2902
▁sous-	-10.2905
▁came	-10.2911
naire	-10.2913
▁principalement	-10.2916
▁1995	-10.2917
▁entièrement	-10.2925
▁U	-10.2934
▁operation	-10.2935
▁rail	-10.2936
▁champ	-10.2937
▁voyage	-10.2938
▁l'argent	-10.2941
▁Why	-10.2944
▁Kyoto	-10.2953
▁informed	-10.2953
fer	-10.2955
▁integrated	-10.296
▁flexibilité	-10.2962
▁bio	-10.2967
issant	-10.2967
chi	-10.2967
▁consent	-10.2978
▁ouvert	-10.2979
▁putting	-10.2981
▁tradition	-10.2983
▁fixé	-10.299
▁domaine.	-10.2992
▁interne	-10.2993
▁présentée	-10.2993
▁stade	-10.2994
nom	-10.3014
êt	-10.3015
▁Even	-10.3019
▁l'action	-10.3026
▁level,	-10.3035
▁fulfil	-10.3037
▁Bulgaria	-10.304
▁system.	-10.3042
▁pied	-10.3042
lan	-10.3043
▁confrontés	-10.3047
▁Middle	-10.3047
▁oeuvre	-10.305
▁fais	-10.305
▁l'intention	-10.305
▁evidence	-10.3054
▁rapid	-10.3055
ctor	-10.3055
▁minorités	-10.3057
▁immediately	-10.3058
▁cor	-10.3058
▁services.	-10.306
wa	-10.3062
▁growing	-10.3064
▁Kingdom	-10.3069
▁l'ont	-10.3069
â	-10.307
▁managed	-10.3071
▁targets	-10.3074
▁s'a	-10.3076
▁future,	-10.3087
▁J	-10.3091
▁logique	-10.3093
▁Ministers	-10.3097
▁formal	-10.31
▁diversité	-10.3104
▁fish	-10.3109
▁Trade	-10.311
▁factor	-10.3112
▁acteurs	-10.3112
▁New	-10.3112
ori	-10.3113
▁annuel	-10.3118
so	-10.3118
▁lumière	-10.3119
▁considérer	-10.3121
▁l'OMC	-10.3121
▁sensitive	-10.3121
istic	-10.3126
▁October	-10.3131
▁accidents	-10.3131
▁concrètes	-10.3133
▁catastrophe	-10.3142
▁ahead	-10.3143
▁moindre	-10.3143
▁organised	-10.3145
▁rep	-10.3146
▁Nice	-10.3148
▁contient	-10.3151
▁probablement	-10.3156
ari	-10.3166
tour	-10.3169
duc	-10.3172
▁2,	-10.3177
▁satisfaction	-10.318
▁Prime	-10.3181
▁d'asile	-10.3184
▁remarque	-10.3193
▁évolution	-10.3195
gue	-10.3197
▁tentative	-10.3198
▁textile	-10.3198
king	-10.3199
▁d'emplois	-10.3203
▁direction.	-10.3207
-0	-10.3219
▁Strategy	-10.322
▁profiter	-10.3225
▁comply	-10.3228
bs	-10.3232
▁emphasis	-10.3234
▁mainly	-10.3235
▁L'a	-10.3236
▁contains	-10.3239
▁circ	-10.3243
▁rejected	-10.3244
▁concitoyens	-10.3244
▁practices	-10.3246
▁occasions	-10.325
und	-10.3254
▁locales	-10.3258
▁majeur	-10.3262
▁sujet.	-10.3265
▁indiqué	-10.3266
▁gouvernance	-10.3267
▁laws	-10.327
▁manage	-10.327
▁Democrats	-10.3271
▁disaster	-10.3272
▁developments	-10.3275
▁drogue	-10.3278
▁prêts	-10.328
▁maladies	-10.328
▁Roma	-10.3282
▁ports	-10.3284
▁femme	-10.3291
▁development.	-10.3295
▁l'encontre	-10.3303
▁parliaments	-10.3307
▁Pourquoi	-10.331
▁finalement	-10.3311
▁laid	-10.3312
▁merely	-10.3312
▁counter	-10.3314
▁remarques	-10.3314
▁Health	-10.3315
▁participate	-10.3317
▁fuel	-10.3319
▁easy	-10.3322
▁limiter	-10.3323
▁Agency	-10.3325
vel	-10.3326
nder	-10.3326
▁culturel	-10.3327
impl	-10.3327
▁resolve	-10.333
▁1.	-10.3336
fa	-10.3348
▁d'intérêt	-10.3351
▁satisfait	-10.3354
▁l	-10.3356
▁mauvaise	-10.336
▁ideas	-10.336
ES	-10.336
▁parlements	-10.3364
▁euros	-10.3366
▁separate	-10.3371
den	-10.3371
▁orientations	-10.3378
▁Charter	-10.3378
▁leading	-10.3381
▁accorder	-10.3393
▁appliquer	-10.3393
▁Chamber	-10.3401
▁rare	-10.3405
▁fondamentales	-10.3408
▁topic	-10.3409
▁unable	-10.341
ication	-10.343
-de	-10.3435
▁pilier	-10.3436
▁sud	-10.3437
uche	-10.3441
▁Turkish	-10.3443
▁mechanisms	-10.3444
▁signed	-10.3444
▁continuing	-10.3449
▁trouvé	-10.3453
▁enquête	-10.3455
ième	-10.3455
▁wants	-10.3458
rate	-10.3462
ception	-10.347
▁préparation	-10.3475
▁connu	-10.3476
▁enjoy	-10.3477
▁operate	-10.3482
50	-10.3489
▁crises	-10.3491
▁tendance	-10.3492
▁mots	-10.3492
▁opposé	-10.3502
▁oublier	-10.3504
▁recommendation	-10.3506
▁extérieure	-10.3507
▁petits	-10.3511
ute	-10.3513
▁Même	-10.3525
▁efficacement	-10.3539
▁l'immigration	-10.354
▁l'A	-10.3546
▁intentions	-10.3553
▁bi	-10.3554
▁thousands	-10.3555
▁elected	-10.3557
▁60	-10.3557
▁range	-10.357
mor	-10.3573
▁recommandation	-10.3574
tur	-10.3578
érer	-10.3578
▁limites	-10.358
▁mouvement	-10.3587
▁mistake	-10.3587
▁criminalité	-10.3592
▁31	-10.3596
▁l'Europe,	-10.3603
▁debt	-10.3604
▁scientifique	-10.3607
▁institutions,	-10.3611
▁lost	-10.3612
▁J’ai	-10.3618
▁l'homme.	-10.3618
▁ren	-10.3621
▁Comment	-10.363
▁modifications	-10.3632
lor	-10.3636
▁scientifiques	-10.3638
▁privée	-10.3639
▁catégorie	-10.364
▁intend	-10.3641
ê	-10.3642
▁related	-10.3645
▁Many	-10.3648
tter	-10.3651
▁prochaines	-10.3656
▁independence	-10.3658
▁subsidiarité	-10.366
▁argument	-10.3663
▁fiscal	-10.3672
▁fruit	-10.3673
br	-10.3674
▁référendum	-10.3675
▁commerciales	-10.3677
▁secret	-10.368
▁target	-10.3686
▁Gu	-10.3708
▁26	-10.371
▁disposons	-10.3711
▁ought	-10.3711
▁persons	-10.3716
▁soutient	-10.3721
▁choisi	-10.3726
▁totally	-10.3727
habi	-10.3729
ug	-10.3735
ates	-10.3737
ste	-10.374
▁véhicules	-10.3742
▁l'absence	-10.3744
▁preparation	-10.3744
▁l’on	-10.3747
V)	-10.3748
▁méthodes	-10.375
▁années.	-10.3756
▁globalisation	-10.3757
▁told	-10.3759
▁voisins	-10.3762
mu	-10.3765
▁terrain	-10.3767
▁environnement	-10.3768
▁proche	-10.3769
▁incident	-10.3775
▁Ta	-10.3776
▁facile	-10.3784
▁worked	-10.3788
cho	-10.379
▁interventions	-10.3791
▁com	-10.3793
▁(ES)	-10.38
rég	-10.3801
▁deep	-10.3801
▁(The	-10.3803
mination	-10.3804
▁nation	-10.3809
▁calcul	-10.3813
ound	-10.3813
▁tient	-10.3815
▁figures	-10.3817
▁complète	-10.3818
▁considéré	-10.3821
tage	-10.3822
▁lui-même	-10.3826
▁centres	-10.3827
▁totale	-10.3832
antes	-10.3837
▁conduite	-10.3838
▁critiques	-10.3844
▁subsidiarity	-10.3849
▁proposal.	-10.3851
▁economies	-10.3859
née	-10.3863
utili	-10.3866
▁Amendments	-10.3866
▁elle-même	-10.3868
▁failed	-10.3869
▁African	-10.3869
fic	-10.387
▁link	-10.3874
▁transfert	-10.3877
▁attirer	-10.388
▁opt	-10.3881
▁Ex	-10.3883
▁North	-10.3887
▁finances	-10.3888
▁attack	-10.3889
▁speakers	-10.3895
▁programme.	-10.3901
▁element	-10.3904
▁siècle	-10.3906
▁démontre	-10.3906
▁revenir	-10.3907
▁citoyen	-10.3911
▁path	-10.3915
▁moi-même	-10.3919
▁contain	-10.3922
▁29	-10.3923
cal	-10.3924
▁0	-10.3925
▁j’	-10.3926
▁wishes	-10.3927
▁division	-10.3927
▁evaluation	-10.3934
▁refuse	-10.3935
▁grateful	-10.3937
▁régional	-10.3937
▁visite	-10.3942
▁liberal	-10.3943
▁goal	-10.3944
▁payments	-10.3948
▁terminer	-10.3948
▁rejet	-10.3951
▁établir	-10.3951
administration	-10.3954
▁contraignant	-10.3955
▁passagers	-10.3956
▁Depuis	-10.3958
▁territory	-10.396
▁problem.	-10.3969
▁lower	-10.3977
▁membership	-10.3979
▁vaste	-10.3984
▁écologique	-10.3984
▁d'origine	-10.3986
dis	-10.3987
▁guarantees	-10.3987
▁cycle	-10.3987
▁mode	-10.3989
▁favoriser	-10.3993
▁suivant	-10.3994
▁1er	-10.3995
▁SMEs	-10.3997
▁informé	-10.3997
▁includes	-10.4001
▁28	-10.4001
▁treaty	-10.4002
▁phénomène	-10.4002
isés	-10.4003
▁prove	-10.4003
▁récente	-10.4003
▁linked	-10.4006
▁Monetary	-10.401
▁garanties	-10.4018
▁légitime	-10.402
▁bringing	-10.4024
▁Van	-10.4025
▁lois	-10.4032
▁moral	-10.4035
▁respecté	-10.4035
uer	-10.4039
▁obvious	-10.404
mis	-10.4046
▁facilitate	-10.4047
▁families	-10.4047
▁mobilité	-10.4049
▁s'applique	-10.4049
▁trafficking	-10.405
▁disease	-10.4064
▁navires	-10.4068
▁election	-10.407
▁habit	-10.4071
▁terrible	-10.4076
▁involving	-10.4084
▁involvement	-10.4084
▁affairs	-10.4084
▁Alors	-10.4085
▁voire	-10.4108
▁majeure	-10.4109
▁opposed	-10.4111
▁déficit	-10.4113
▁Y	-10.4113
▁Cyprus	-10.4115
▁industrielle	-10.4117
▁lettre	-10.4117
▁Structural	-10.4118
ssons	-10.412
▁realise	-10.412
▁d'application	-10.4121
lt	-10.4125
▁mark	-10.413
▁getting	-10.413
▁l'avis	-10.413
▁matter.	-10.4131
▁complain	-10.4134
▁réussite	-10.4146
▁recommend	-10.4148
▁intérieures	-10.415
▁anti	-10.4151
▁well.	-10.4152
uelle	-10.4153
▁(RO)	-10.4158
▁Man	-10.4158
▁poursuite	-10.4162
▁cher	-10.4164
▁terroristes	-10.4165
ois	-10.4166
▁sum	-10.4168
▁Council's	-10.4171
▁decision-making	-10.4177
▁round	-10.4185
▁truly	-10.419
▁ajouter	-10.4191
▁referendum	-10.4198
▁problème.	-10.4198
▁fondée	-10.4199
voir	-10.4204
put	-10.4205
▁immediate	-10.4207
▁class	-10.4216
▁worse	-10.4216
▁technologie	-10.4226
▁accrue	-10.4228
▁suivante	-10.423
nelle	-10.4231
quer	-10.4234
▁échanges	-10.4235
▁idées	-10.4238
▁ready	-10.4241
▁évidence	-10.4246
gouvernementale	-10.4252
▁formes	-10.4255
▁vertu	-10.4256
▁perdu	-10.4261
▁l’in	-10.4264
▁plenary	-10.427
hu	-10.4271
ane	-10.4272
espér	-10.4272
▁weapons	-10.4273
▁empêcher	-10.4273
▁proceed	-10.4275
▁électronique	-10.4275
▁supervision	-10.4276
▁législative	-10.4276
▁trait	-10.4277
▁extension	-10.4277
▁actuelle,	-10.4277
til	-10.4279
5%	-10.428
spir	-10.4282
mm	-10.4288
hor	-10.4292
▁happening	-10.4292
▁law,	-10.4294
▁sens,	-10.4295
▁durée	-10.4298
▁tourism	-10.43
ule	-10.4301
▁relever	-10.4305
▁chefs	-10.4305
▁circonstances	-10.4308
action	-10.4314
▁persist	-10.4315
▁Certains	-10.4317
▁penser	-10.432
▁indirect	-10.4321
▁dispute	-10.4321
▁oppose	-10.4326
▁existence	-10.4327
▁d'urgence	-10.4329
▁renouvelables	-10.4332
▁faced	-10.4335
▁changer	-10.434
▁rates	-10.4344
▁Budget	-10.4352
▁2011	-10.4354
▁hu	-10.4358
▁contradiction	-10.4363
▁protecting	-10.4367
▁commerciaux	-10.437
▁justement	-10.4373
▁agences	-10.4375
▁pertinent	-10.4386
▁approprié	-10.4389
▁marque	-10.439
▁petit	-10.4392
▁européennes.	-10.4393
▁greatest	-10.4394
▁commence	-10.4402
▁nécessite	-10.4402
▁haute	-10.4409
▁India	-10.4411
▁ravi	-10.4412
▁nucléaires	-10.4413
▁crisis.	-10.4415
▁venu	-10.4416
▁says	-10.4419
▁gender	-10.4425
▁véritablement	-10.4426
▁Poland	-10.4426
▁attach	-10.4426
▁concernées	-10.4428
▁recognised	-10.4435
▁libéral	-10.4436
▁faites	-10.4445
▁consult	-10.4445
▁arrangements	-10.4446
▁quelles	-10.445
pprovisionnement	-10.4452
▁drugs	-10.4454
▁estimons	-10.4461
▁forced	-10.4463
ization	-10.4463
▁starting	-10.4467
▁Ho	-10.447
▁arise	-10.4471
▁block	-10.4474
▁produire	-10.4476
▁repose	-10.4482
▁chiffres	-10.4483
▁followed	-10.4487
▁organ	-10.4497
▁conventions	-10.4499
▁adopting	-10.4501
▁parts	-10.4507
▁sociale.	-10.4511
▁insister	-10.4511
▁areas.	-10.4513
▁involve	-10.4513
▁relatifs	-10.4524
spe	-10.4526
▁paper	-10.4527
▁ceux-ci	-10.4529
▁granted	-10.4529
▁board	-10.4529
▁arrest	-10.4534
▁d’en	-10.4535
▁préalable	-10.4537
▁disponibles	-10.4539
▁seeking	-10.4541
▁Ko	-10.4542
▁ferroviaire	-10.4545
▁interesting	-10.4546
▁immédiatement	-10.4547
▁génération	-10.4549
bel	-10.4549
▁diversity	-10.4558
▁d'aujourd'hui	-10.4559
▁investigation	-10.4559
▁d'A	-10.4562
▁l'amélioration	-10.4563
asse	-10.4566
▁illégale	-10.4567
▁pillar	-10.4567
▁According	-10.4567
▁dirigeants	-10.4568
▁déterminer	-10.4569
▁traités	-10.457
▁signature	-10.4573
▁absence	-10.4573
▁extérieures	-10.458
▁français	-10.4581
▁July	-10.4583
van	-10.459
▁eye	-10.4592
▁minute	-10.4593
▁entier	-10.4593
▁tonnes	-10.4604
▁réduit	-10.4604
▁ability	-10.4605
▁cancer	-10.461
▁supérieur	-10.4612
▁Lorsque	-10.4614
▁Maastricht	-10.462
oire	-10.462
▁demandes	-10.4628
▁talks	-10.4628
▁distinction	-10.4628
▁augmenter	-10.4632
▁bilateral	-10.4637
▁juillet	-10.4637
▁pourrions	-10.4641
▁host	-10.4642
▁Pre	-10.4642
▁generation	-10.4642
▁abus	-10.4646
▁progresser	-10.4651
▁attendre	-10.4653
▁calendrier	-10.4656
▁forum	-10.4659
▁pensions	-10.4659
▁charges	-10.4662
▁apporte	-10.4663
▁porter	-10.4663
▁shared	-10.4668
cha	-10.4672
▁d'emploi	-10.4673
▁technologique	-10.4676
▁patent	-10.468
▁bomb	-10.4684
▁PSE	-10.4685
▁carefully	-10.4691
▁brevet	-10.4693
▁mobility	-10.4693
▁minorities	-10.4693
▁covered	-10.4695
▁section	-10.4696
▁Sweden	-10.4701
▁délais	-10.4705
o-	-10.4706
▁économique.	-10.4714
▁Public	-10.4715
▁count	-10.4721
▁l'état	-10.4727
▁communautaire.	-10.4737
▁vite	-10.4739
▁mutuelle	-10.4742
▁utilisation	-10.4743
ze	-10.4745
▁constituer	-10.4749
▁suffering	-10.4752
▁letter	-10.4753
▁General	-10.4754
▁devait	-10.4759
▁Avec	-10.476
stitut	-10.4764
▁USA	-10.4766
▁l'introduction	-10.4774
▁Thirdly,	-10.4777
▁m	-10.4781
bre	-10.4789
for	-10.479
isant	-10.4792
▁puissions	-10.4794
▁jou	-10.4795
▁detail	-10.4797
▁avancer	-10.4806
▁Ar	-10.4807
▁ressort	-10.4808
▁d'éviter	-10.4811
▁designed	-10.4815
ft	-10.4816
▁credibility	-10.4817
-ils	-10.4818
▁way.	-10.4824
▁month	-10.4832
▁detailed	-10.4833
▁Berlin	-10.4834
▁jeu	-10.4836
rn	-10.4837
▁(EL)	-10.4839
▁Affairs,	-10.484
▁80	-10.484
▁ans.	-10.484
vert	-10.4841
▁release	-10.4842
▁presence	-10.4842
▁mini	-10.4847
▁Bureau	-10.4848
-t-il	-10.4848
▁l'innovation	-10.485
▁vehicles	-10.485
▁advance	-10.485
▁contrôler	-10.4851
atif	-10.4852
▁science	-10.4862
European	-10.4864
▁exception	-10.4866
▁issues.	-10.4871
▁rejeté	-10.4873
▁Greek	-10.4879
▁Pologne	-10.4879
▁apporté	-10.4879
cut	-10.4882
▁devrons	-10.4882
▁maladie	-10.4883
▁octobre	-10.4885
▁soutenons	-10.4885
▁appreciate	-10.4888
▁j'aimerais	-10.4888
▁society.	-10.4889
▁subsidies	-10.4892
▁garde	-10.4895
▁autorisé	-10.4897
▁compagnies	-10.4899
▁thereby	-10.49
▁ordre	-10.4901
▁communities	-10.4902
▁socialiste	-10.4904
▁diverses	-10.4905
▁légale	-10.4907
titu	-10.4909
▁l’avenir	-10.4909
▁resolutions	-10.4914
enne	-10.4918
▁While	-10.4919
▁eaux	-10.492
▁reconnu	-10.4922
▁contacts	-10.4923
▁ambitieux	-10.4925
▁auront	-10.4928
tar	-10.4929
▁utilisé	-10.4929
▁différences	-10.4932
▁opportun	-10.4933
▁sides	-10.4938
ien	-10.4939
▁finding	-10.4939
▁worth	-10.494
▁abordé	-10.4941
lf	-10.4941
tch	-10.4942
▁proposing	-10.4943
ju	-10.4945
▁militaires	-10.4946
ja	-10.4946
▁image	-10.495
▁viande	-10.4951
▁torture	-10.4952
▁suppression	-10.4955
▁PPE	-10.4955
▁legislation.	-10.4956
lier	-10.4958
▁acts	-10.4959
▁comporte	-10.496
▁subventions	-10.4961
▁concentration	-10.4968
vaient	-10.4968
▁disposé	-10.4968
▁floor	-10.4971
▁judge	-10.4983
▁Swedish	-10.4986
▁Troisièmement	-10.4986
▁changed	-10.4986
▁Israël	-10.4987
▁200	-10.4987
▁langues	-10.4992
▁judicial	-10.4994
▁statistiques	-10.4995
▁inutile	-10.4997
▁aurons	-10.4998
▁lancer	-10.4998
▁russe	-10.5
05	-10.5004
▁harm	-10.5005
▁prête	-10.5005
▁paraît	-10.5007
▁demeure	-10.5009
▁espace	-10.5009
gent	-10.501
uvre	-10.5011
▁démarche	-10.5012
▁options	-10.5022
▁(A5-	-10.5023
▁sujets	-10.5023
▁break	-10.5026
▁portant	-10.5029
-up	-10.5033
▁marchandises	-10.5035
▁arms	-10.5038
▁planning	-10.5041
▁accident	-10.5041
q	-10.5046
▁naturally	-10.5046
▁l'évolution	-10.5047
▁lines	-10.5047
▁Funds	-10.5048
▁langue	-10.5049
▁deficit	-10.5049
▁baisse	-10.5052
▁parlement	-10.5052
▁performance	-10.5056
▁Su	-10.506
▁concentr	-10.506
▁qu’une	-10.506
▁définitive	-10.5061
▁Sch	-10.5062
▁utilisés	-10.5063
ency	-10.5067
▁spent	-10.507
▁representative	-10.5076
▁faite	-10.5079
bat	-10.5086
▁series	-10.5087
▁binding	-10.5087
écart	-10.5087
▁l’un	-10.5088
▁aujourd'hui.	-10.5095
▁Auditors	-10.5096
▁signé	-10.5099
▁relève	-10.5102
▁poll	-10.5108
▁radical	-10.5108
▁Sea	-10.5109
euses	-10.5109
▁poids	-10.5113
▁Suède	-10.5116
▁suffit	-10.5121
▁visas	-10.5122
▁commis	-10.5122
▁sociale,	-10.5124
▁correctement	-10.5125
ore	-10.5126
▁bat	-10.5129
▁approval	-10.5133
▁officielle	-10.5133
▁passage	-10.514
▁portée	-10.5143
▁anyone	-10.5144
▁déli	-10.5146
▁directe	-10.5147
▁signe	-10.5151
▁étroite	-10.5152
▁plant	-10.5156
ison	-10.5157
▁États-Unis,	-10.5157
▁combien	-10.5157
▁revenus	-10.5158
dy	-10.5158
▁minority	-10.5159
▁consumption	-10.5166
▁outil	-10.5168
▁exactement	-10.5168
▁règle	-10.5171
af	-10.5173
▁da	-10.5175
K	-10.5175
▁l'opinion	-10.5178
over	-10.5186
▁controls	-10.5188
▁fasse	-10.5192
pplaudissements)	-10.5193
▁traditional	-10.5198
cteur	-10.5205
▁Rule	-10.5205
▁offrir	-10.5206
▁él	-10.5207
▁crisis,	-10.5209
▁Eastern	-10.5216
▁banques	-10.5218
▁essentiellement	-10.5218
▁parents	-10.522
▁hours	-10.5225
▁cultures	-10.5227
chant	-10.5228
▁rich	-10.5229
▁l'an	-10.5229
▁Europol	-10.5231
des	-10.5241
don	-10.5242
▁prolong	-10.5244
▁expected	-10.5244
▁blanc	-10.5246
▁environ	-10.5247
▁Tous	-10.5253
04	-10.5253
▁d’in	-10.5255
ég	-10.5256
▁Qui	-10.5262
▁d’être	-10.5263
uve	-10.5265
▁pénal	-10.5267
nic	-10.5271
▁quantité	-10.5272
▁valid	-10.5273
▁entreprise	-10.5273
fait	-10.5275
▁Energy	-10.5275
▁reasonable	-10.5292
▁acte	-10.5293
▁April	-10.5293
▁implications	-10.5293
plique	-10.5299
fort	-10.5303
▁transactions	-10.5305
▁terre	-10.5306
▁amend	-10.5309
▁d’accord	-10.5313
tandis	-10.5315
▁clo	-10.5317
▁peaceful	-10.5328
▁n'était	-10.5329
▁otherwise	-10.5329
▁défend	-10.5333
▁réponses	-10.5333
▁Z	-10.5335
▁trouvent	-10.5336
▁2000,	-10.5342
▁institutionnel	-10.5349
▁essentiels	-10.5354
▁People'	-10.5354
▁d'informations	-10.5356
▁employees	-10.5356
▁emerge	-10.536
venu	-10.5361
▁Liberal	-10.5362
▁cour	-10.5366
▁economy.	-10.5367
▁Bulgarie	-10.5368
▁préparer	-10.5378
▁l'avenir.	-10.5379
▁citizen	-10.5382
▁inclusion	-10.5382
▁accessible	-10.5389
▁solide	-10.539
▁House.	-10.5393
▁gave	-10.5395
▁l’environnement	-10.5396
▁prêt	-10.5396
▁financer	-10.5398
dition	-10.5398
▁préserver	-10.5401
▁self-	-10.5401
▁familles	-10.5409
▁frais	-10.5414
2002	-10.5415
vit	-10.5417
▁promise	-10.5417
▁organisée	-10.5417
ccept	-10.5428
pla	-10.5429
atrice	-10.5431
▁subi	-10.5437
ship	-10.5444
▁seuls	-10.5447
▁lose	-10.5458
▁Not	-10.5461
nage	-10.5465
▁solve	-10.5471
▁improvements	-10.5471
▁amongst	-10.5474
rage	-10.5486
▁Assemblée,	-10.5489
▁souci	-10.5493
▁étude	-10.5498
▁wonder	-10.55
▁fermement	-10.5502
med	-10.5503
▁Such	-10.5503
▁précédente	-10.5506
▁fortement	-10.5516
▁d'assurer	-10.5516
▁glad	-10.5523
▁hausse	-10.5528
▁entry	-10.5535
▁désir	-10.5535
▁l'O	-10.5537
▁recovery	-10.5537
▁reinforce	-10.555
▁eux-mêmes	-10.555
▁Pr	-10.5552
ib	-10.5553
▁fins	-10.5553
▁region.	-10.5556
▁religious	-10.5556
▁Only	-10.5559
▁parvenus	-10.5561
▁audit	-10.5564
▁Agriculture	-10.5565
▁Czech	-10.5565
lles	-10.5566
▁payer	-10.5566
▁crédibilité	-10.5568
▁decisive	-10.5568
▁imagine	-10.5568
▁vente	-10.5568
▁mises	-10.5569
▁certes	-10.5571
▁voulu	-10.5574
▁association	-10.558
▁meetings	-10.5581
▁tests	-10.5582
▁organisé	-10.5582
▁j'estime	-10.5586
▁Va	-10.5587
▁environment.	-10.5588
▁règlements	-10.5589
▁neither	-10.5589
▁regulatory	-10.5591
▁d'im	-10.5592
ements	-10.5594
▁transit	-10.5595
▁cesse	-10.5604
nov	-10.5606
▁easier	-10.5611
▁domestic	-10.5614
▁indication	-10.5614
▁achievement	-10.5625
j	-10.5628
ignor	-10.5631
▁started	-10.5634
▁restent	-10.5635
▁dépasse	-10.5639
▁Israeli	-10.564
▁politicians	-10.5648
▁êtes	-10.5648
▁comprend	-10.5653
▁consommateurs.	-10.5659
arme	-10.566
▁Those	-10.566
dam	-10.5664
▁réalisés	-10.5671
▁d'adopter	-10.5672
▁States'	-10.5679
har	-10.5681
▁encouraging	-10.5682
▁esprit	-10.5685
▁destinés	-10.5695
▁viens	-10.5705
▁whilst	-10.5707
▁Agenda	-10.571
▁volontaire	-10.5713
▁reserve	-10.5713
▁lies	-10.5713
▁abandon	-10.5716
▁cœur	-10.5716
▁speaker	-10.5721
▁tabac	-10.573
▁goals	-10.5731
ât	-10.5733
▁generally	-10.5742
▁savez,	-10.5747
ira	-10.5752
▁distance	-10.5753
▁signaler	-10.5753
▁points.	-10.5757
▁adoptées	-10.5761
grad	-10.5762
bri	-10.577
▁joue	-10.5771
-là	-10.5778
▁material	-10.5783
▁comprends	-10.5787
▁belong	-10.5791
▁combattre	-10.5794
▁catastrophes	-10.5798
▁grant	-10.5801
▁connaît	-10.5807
▁automobile	-10.5809
▁Commission’s	-10.5814
▁From	-10.5819
égalité	-10.5821
▁partner	-10.5823
▁l’ex	-10.5827
▁sexual	-10.5828
▁profession	-10.583
▁symbol	-10.583
▁Yet	-10.5839
▁réfléchir	-10.5841
»,	-10.5843
▁l'eau	-10.5844
▁react	-10.5848
▁Research	-10.5853
▁confident	-10.5853
agin	-10.5856
▁Gaza	-10.586
▁reprise	-10.5861
▁limits	-10.5863
▁moving	-10.5867
▁scale	-10.5869
▁viable	-10.5871
▁bien-être	-10.5872
▁re-	-10.5875
▁entraîne	-10.5879
▁hors	-10.588
▁proposée	-10.588
▁(C	-10.5891
▁terme,	-10.5892
▁préoccupation	-10.5893
bli	-10.5896
▁legitimate	-10.5898
▁usage	-10.5899
▁cohérente	-10.5899
W	-10.5906
▁Serbia	-10.591
▁requirement	-10.591
▁élaboré	-10.591
▁Zimbabwe	-10.5913
▁l'élaboration	-10.5913
▁Western	-10.592
▁Legal	-10.5923
▁récent	-10.5923
▁delighted	-10.5926
▁américaine	-10.5932
▁dehors	-10.5932
▁stock	-10.5935
▁intégrée	-10.5937
▁meilleures	-10.5938
▁cohérence	-10.5939
▁notion	-10.5943
▁p.m.	-10.5945
▁laisse	-10.5951
▁n'existe	-10.5951
▁Rome	-10.5952
time	-10.5953
▁concentrate	-10.5954
▁welfare	-10.5955
▁EC	-10.5956
▁d’abord	-10.5958
▁factors	-10.5963
▁paiement	-10.5965
▁commentaires	-10.597
▁négatif	-10.5971
▁pacifique	-10.5977
▁concerned.	-10.5982
▁constitutional	-10.5988
▁suffisante	-10.5991
▁commerciale	-10.5992
▁volume	-10.5993
▁assurance	-10.5996
▁late	-10.6002
▁committees	-10.6003
▁(Applause)	-10.6003
▁politics	-10.6004
▁spoke	-10.6007
▁Nor	-10.6007
▁imposed	-10.6008
offre	-10.6008
▁Chypre	-10.6009
▁exposé	-10.6012
▁attendons	-10.6014
▁Market	-10.6015
▁relance	-10.6015
▁reflète	-10.6018
▁Quelle	-10.6019
▁retraite	-10.602
▁opportunité	-10.6023
▁l'espace	-10.6023
droit	-10.6025
▁fut	-10.6026
▁observer	-10.6035
▁courant	-10.6037
▁suppose	-10.6041
▁compliance	-10.6041
▁underline	-10.6042
▁retire	-10.6043
ook	-10.6044
▁banks	-10.6045
▁Lisbonne.	-10.6045
▁attacks	-10.6049
▁equally	-10.6049
▁tôt	-10.6052
▁intéressant	-10.6053
▁Th	-10.6054
▁Ni	-10.6055
▁(Le	-10.6055
-based	-10.6057
▁Livre	-10.6057
▁Lisbonne,	-10.6057
▁optimis	-10.6058
▁modernisation	-10.6059
▁Moyen-Orient	-10.606
▁conscient	-10.6061
ssant	-10.6066
▁approve	-10.6068
auto	-10.6069
▁leadership	-10.607
▁submit	-10.607
▁premières	-10.6071
▁Christian	-10.6076
▁appropriations	-10.608
▁arriver	-10.6081
▁inspection	-10.6085
▁contribué	-10.6086
▁revient	-10.6086
hy	-10.6088
▁souhaitent	-10.6094
▁région.	-10.6095
▁entière	-10.6098
▁apparaît	-10.6099
▁française	-10.6099
▁J'estime	-10.6102
▁cooperate	-10.6102
▁anticip	-10.6109
▁grounds	-10.6109
▁associations	-10.611
▁principales	-10.6112
▁fonctionnaires	-10.6112
▁payment	-10.6116
▁uniform	-10.6119
▁century	-10.6125
▁compatible	-10.6128
▁convenu	-10.613
▁constate	-10.6134
▁exclusion	-10.614
▁systématique	-10.6147
▁qualifi	-10.615
▁appears	-10.6162
dra	-10.6166
▁conservation	-10.6172
▁comportement	-10.6174
▁continues	-10.6175
-on	-10.6177
▁permettent	-10.6177
▁pilot	-10.6183
▁erreur	-10.6189
wi	-10.6191
▁forthcoming	-10.6193
▁seven	-10.6198
▁vaut	-10.6198
éré	-10.6205
▁arrivé	-10.6208
▁déroule	-10.6212
étai	-10.6213
▁Action	-10.6214
▁retrait	-10.6214
ko	-10.6215
▁L'Europe	-10.6218
▁auxquelles	-10.6219
▁marge	-10.6219
▁prioritaire	-10.6223
▁wide	-10.6225
▁spending	-10.6226
▁clarify	-10.6229
▁dépens	-10.623
▁Copenhagen	-10.6232
▁negotiating	-10.6238
▁positifs	-10.6239
off	-10.6245
▁qu’un	-10.6248
ieux	-10.6248
▁debates	-10.6251
▁Copenhague	-10.6255
▁Stability	-10.6256
vol	-10.6256
let	-10.6259
▁requis	-10.6259
▁evening	-10.626
▁d'Amsterdam	-10.6261
▁suggestions	-10.6264
▁licence	-10.6265
▁identify	-10.6265
ili	-10.6267
▁prouve	-10.6271
▁interested	-10.6276
▁Charte	-10.6278
▁pan	-10.6279
▁suffisant	-10.628
▁art	-10.628
▁today's	-10.6282
▁NATO	-10.6284
▁Netherlands	-10.6284
▁Jo	-10.6286
▁guaranteed	-10.6287
▁c'	-10.6292
▁cite	-10.6296
▁compar	-10.6301
▁entendre	-10.6301
▁similaire	-10.6304
▁communications	-10.6305
▁opérations	-10.6308
▁micro	-10.6311
▁tobacco	-10.6314
▁soumise	-10.6316
▁Asia	-10.6318
▁progressive	-10.6325
▁intelligent	-10.6327
▁th	-10.6335
▁moitié	-10.634
▁réserves	-10.6343
▁numerous	-10.6344
▁supprimer	-10.6344
▁helping	-10.6347
▁personally	-10.6348
▁observations	-10.6351
▁existant	-10.6355
çant	-10.6364
▁Consumer	-10.6367
▁carte	-10.6368
▁vivre	-10.637
EC	-10.6374
▁Ja	-10.6376
▁basée	-10.6382
▁rational	-10.6383
▁fighting	-10.6385
▁truth	-10.6387
ved	-10.6392
▁scheme	-10.6393
▁resolved	-10.6396
ped	-10.6398
▁missions	-10.6398
▁fire	-10.6403
▁plein	-10.6406
▁explanation	-10.6407
▁labelling	-10.6408
vision	-10.641
▁allowing	-10.6412
▁garder	-10.6413
▁intensif	-10.6414
▁Are	-10.6415
▁respected	-10.6417
cier	-10.6418
▁trading	-10.642
▁Service	-10.6423
▁Aussi	-10.6423
vesti	-10.6428
▁codécision	-10.643
▁violent	-10.6435
▁publié	-10.6437
▁withdraw	-10.6437
▁communautés	-10.6439
▁privé	-10.644
tan	-10.6441
▁consacré	-10.645
▁viol	-10.6452
▁wage	-10.6453
▁alternatives	-10.6455
▁languages	-10.646
▁likely	-10.6461
▁cap	-10.6462
▁renforcée	-10.647
▁fixer	-10.6472
▁slow	-10.6473
▁guide	-10.6477
▁actif	-10.6478
ria	-10.6485
▁Canada	-10.6487
▁customs	-10.6489
▁mass	-10.6493
organisation	-10.6496
▁l'accent	-10.6497
venir	-10.65
▁suffer	-10.65
tendre	-10.6502
▁Organisation	-10.6504
▁impliqué	-10.6505
▁l'impact	-10.6505
▁Dur	-10.651
tti	-10.6511
▁thorough	-10.6514
▁vouloir	-10.6514
▁Ri	-10.6516
ized	-10.6519
▁Baltic	-10.6524
▁defined	-10.6526
▁pêcheurs	-10.653
▁effectiveness	-10.653
▁bases	-10.6534
lit	-10.6536
▁voluntary	-10.6537
▁incentive	-10.6541
▁articles	-10.6541
▁activité	-10.6541
▁limitation	-10.6543
▁placed	-10.6544
▁island	-10.6547
▁Tibet	-10.6551
arch	-10.6553
▁ECU	-10.6555
▁vivent	-10.6557
▁pénale	-10.657
▁J'aimerais	-10.6575
▁différence	-10.6577
▁ultimately	-10.6579
▁d'adhésion	-10.6581
▁amélioration	-10.6584
▁Croatia	-10.6585
▁sérieusement	-10.6585
▁touch	-10.6589
▁universal	-10.6598
▁alarm	-10.6606
▁contribue	-10.6609
▁CE	-10.6609
▁débattre	-10.6613
▁législatives	-10.6615
▁demonstrated	-10.6619
▁considérables	-10.6619
▁Non	-10.662
▁détail	-10.6622
▁Head	-10.6628
▁Plus	-10.6632
▁distribu	-10.6637
▁Quel	-10.6638
▁operations	-10.664
like	-10.6644
▁associé	-10.6646
▁mu	-10.6655
gne	-10.6655
▁associated	-10.6656
▁l'échelle	-10.6656
▁High	-10.666
▁tenter	-10.666
▁actuelles	-10.6661
▁Another	-10.6663
▁lien	-10.6664
▁capitale	-10.6664
▁continued	-10.6664
▁register	-10.6666
▁personnellement	-10.6672
▁functioning	-10.6672
▁recevoir	-10.6673
▁incombe	-10.6676
▁pétrole	-10.6677
▁reaction	-10.6677
mou	-10.668
▁35	-10.6685
▁mix	-10.669
▁written	-10.669
▁foundation	-10.6692
▁engage	-10.6694
▁chargé	-10.6695
▁undermine	-10.6698
▁adressé	-10.67
▁farm	-10.6702
▁Vice-President	-10.6704
▁tchèque	-10.6704
ties	-10.6709
▁Méditerranée	-10.6711
▁90	-10.6712
dépendance	-10.6715
▁bloc	-10.6717
▁d'obtenir	-10.6725
▁overcome	-10.6725
cin	-10.6729
▁constant	-10.6733
▁Quant	-10.6735
▁space	-10.6735
▁railway	-10.6742
pol	-10.6742
▁Rapport	-10.6743
▁connaître	-10.6748
▁remarks	-10.6753
▁label	-10.6754
art	-10.6754
▁études	-10.6757
▁average	-10.6769
▁honour	-10.6773
▁diseases	-10.6775
▁imposer	-10.6776
▁Framework	-10.678
▁appropriée	-10.6783
▁l'histoire	-10.6783
▁régionales	-10.6786
dict	-10.6788
▁l'augmentation	-10.6789
▁retain	-10.679
▁démocrates	-10.6794
▁grow	-10.6799
▁modifié	-10.6806
▁Éta	-10.6808
étude	-10.681
▁qualifications	-10.681
▁respective	-10.681
ulation	-10.681
▁Lastly	-10.6811
▁Du	-10.6814
▁scandal	-10.6823
▁tried	-10.6826
▁Austria	-10.683
▁confusion	-10.6832
▁difference	-10.6834
▁revision	-10.6834
▁Ombudsman	-10.6835
pin	-10.6841
▁operators	-10.6841
▁accordée	-10.6842
▁flow	-10.6843
▁propriété	-10.6845
▁personnelle	-10.6848
▁annoncé	-10.6849
pu	-10.6851
can	-10.6852
▁brief	-10.6852
▁conflicts	-10.6853
▁feed	-10.6857
▁actuels	-10.6862
▁partout	-10.6865
▁concernent	-10.6865
▁ethnic	-10.6866
▁protected	-10.6872
▁Pays-Bas	-10.6873
▁chapitre	-10.6873
▁contained	-10.6874
▁proposés	-10.6874
▁Ad	-10.688
▁indique	-10.688
▁destinées	-10.6886
▁entitled	-10.6887
tions	-10.6889
07	-10.689
▁Portuguese	-10.6891
bl	-10.6894
▁Avant	-10.6896
▁Alliance	-10.6898
▁cross	-10.6903
▁1994	-10.6905
▁...	-10.6906
▁initiale	-10.6907
atoire	-10.691
▁replace	-10.6913
▁dangereux	-10.6914
▁lit	-10.6914
▁discuté	-10.6915
annonce	-10.6915
▁Per	-10.6918
▁facteurs	-10.6922
▁Financial	-10.6922
▁2013	-10.6926
▁primarily	-10.6926
▁irlandais	-10.693
▁2.	-10.6931
onie	-10.6932
▁possède	-10.6933
▁succeed	-10.6933
▁avril	-10.6936
▁awareness	-10.6937
▁moderne	-10.6938
▁aliments	-10.6942
▁citer	-10.6949
▁complet	-10.6952
bon	-10.6959
▁appelé	-10.6959
▁complémentaire	-10.6959
▁concluded	-10.696
▁élargissement	-10.6966
▁préciser	-10.6973
▁gap	-10.6974
oli	-10.6975
▁significative	-10.6978
▁spread	-10.6978
▁obstacle	-10.6979
▁visible	-10.6982
▁posée	-10.6984
▁problématique	-10.6985
▁advocate	-10.6986
▁define	-10.6987
▁justified	-10.6988
▁victim	-10.6992
▁meaning	-10.6995
▁wine	-10.7002
TA	-10.7004
▁serons	-10.7004
▁dignité	-10.701
▁garanti	-10.7011
▁adhésion	-10.7014
mat	-10.7014
▁d'entreprise	-10.7015
▁PAC	-10.7015
▁taxe	-10.7016
▁élevés	-10.7017
▁celles-ci	-10.7021
▁electronic	-10.7024
▁Cor	-10.7028
▁dignity	-10.7031
ves	-10.7033
▁savez	-10.7036
▁mou	-10.7037
▁involves	-10.7039
▁prévue	-10.7048
▁l'évaluation	-10.7049
▁?uvre	-10.7051
cher	-10.7052
▁promesse	-10.7053
▁investments	-10.7055
▁petite	-10.706
▁orientale	-10.7065
▁Assemblée.	-10.7066
EM	-10.7071
▁dépit	-10.7078
▁win	-10.7079
▁tasks	-10.7079
▁l'engagement	-10.708
▁naturelles	-10.7085
tiques	-10.7085
▁technological	-10.7088
▁compétente	-10.7091
▁profits	-10.7094
▁gross	-10.7095
▁statistics	-10.7095
mand	-10.7102
▁sentence	-10.7105
▁complètement	-10.7107
▁D'autre	-10.711
▁difficiles	-10.7113
▁C'	-10.7117
▁l'exercice	-10.712
▁claires	-10.7121
▁disasters	-10.7122
▁exact	-10.7129
▁bout	-10.7129
▁humain	-10.713
▁Lors	-10.713
▁Despite	-10.7135
▁relativement	-10.7139
▁prepare	-10.7139
▁airport	-10.714
▁ajoutée	-10.7141
▁Treaties	-10.7142
▁vois	-10.7152
▁capacités	-10.7154
▁hearing	-10.7157
▁sortir	-10.7161
▁fine	-10.7162
ER	-10.7163
▁penalty	-10.7163
tif	-10.7167
point	-10.7168
▁Dutch	-10.7171
▁Chinese	-10.7173
▁permettrait	-10.7177
▁d'autant	-10.7178
▁paiements	-10.7178
▁Budgets	-10.718
▁1990	-10.7181
▁allocated	-10.7182
▁Irlande	-10.7188
▁Transport	-10.7189
ix	-10.719
▁cherche	-10.7192
▁extended	-10.7193
▁intervenir	-10.7194
▁J’	-10.7197
▁seconde	-10.7197
▁pursue	-10.7198
▁unit	-10.7201
▁played	-10.7205
▁passed	-10.7211
▁purposes	-10.7214
▁heureuse	-10.7214
▁principale	-10.7216
▁perd	-10.7226
▁inscrit	-10.7228
▁loss	-10.723
▁homme	-10.7233
▁prime	-10.7234
▁freedoms	-10.7238
▁temporary	-10.7239
▁clean	-10.7239
▁africain	-10.7243
atory	-10.7243
▁firmly	-10.7244
▁mauvais	-10.7245
▁push	-10.7249
▁mène	-10.7254
▁mentionner	-10.7255
▁nevertheless	-10.7261
▁pouvait	-10.7261
▁proposes	-10.7261
▁closed	-10.7263
▁San	-10.7267
▁ambition	-10.7271
▁heures.	-10.7272
▁drive	-10.7275
▁dumping	-10.7283
▁emergency	-10.7286
▁nul	-10.7287
▁February	-10.729
▁détermination	-10.729
▁handicap	-10.7295
J	-10.7296
▁lobby	-10.7297
▁holding	-10.7299
▁whatever	-10.7301
▁consolidation	-10.7304
▁officials	-10.7309
nding	-10.7311
nie	-10.7313
▁autour	-10.7313
œ	-10.7315
▁Georgia	-10.7319
▁territorial	-10.732
▁CAP	-10.732
▁treated	-10.7321
▁migrants	-10.7323
▁Given	-10.7326
▁formulation	-10.7329
▁suit	-10.7329
▁transform	-10.7332
▁2000.	-10.7336
▁exists	-10.7341
▁existent	-10.7341
▁conscients	-10.7343
▁février	-10.7348
▁rempli	-10.7351
▁quels	-10.7351
▁inquiétudes	-10.7356
▁orateurs	-10.7356
▁sérieuse	-10.7357
▁organes	-10.7366
▁ph	-10.7371
ose	-10.7371
AS	-10.7373
▁parvenu	-10.7373
▁vulnerable	-10.7374
▁réunions	-10.7381
▁Perhaps	-10.7388
▁formuler	-10.7394
▁d'argent	-10.7396
▁please	-10.7396
▁planned	-10.7396
▁vague	-10.7398
-je	-10.7398
▁répéter	-10.7399
AC	-10.7401
▁pouvez	-10.7403
▁got	-10.7404
▁l'organisation	-10.7404
▁farming	-10.741
▁Palestine	-10.741
▁perdre	-10.7413
▁puissance	-10.7413
▁punish	-10.7413
▁Cha	-10.7414
▁poisson	-10.7415
ctive	-10.7424
▁d'établir	-10.7425
▁capables	-10.7426
▁adéquat	-10.7431
▁l’ensemble	-10.7438
▁(HU	-10.744
▁murder	-10.744
▁installations	-10.7445
▁Ensuite	-10.7447
▁chemical	-10.7451
▁s’il	-10.7452
ajou	-10.7454
▁Ge	-10.7454
▁vérité	-10.7455
▁fast	-10.7459
▁pain	-10.7459
▁Bu	-10.7459
▁prior	-10.746
▁prévenir	-10.746
▁vend	-10.7465
▁plaisir	-10.7466
▁publicité	-10.747
▁recall	-10.7472
▁More	-10.7474
▁Assembly	-10.7477
▁manifeste	-10.7478
▁favorables	-10.7479
▁70	-10.7482
▁mené	-10.7483
▁prohibit	-10.7488
sol	-10.7488
ory	-10.7488
isées	-10.7491
▁unless	-10.7492
▁posé	-10.7492
▁mine	-10.7493
▁requested	-10.75
▁clarification	-10.7503
19	-10.7503
▁l'intérieur	-10.7506
▁somewhat	-10.7506
▁traditions	-10.7507
old	-10.7509
col	-10.7511
▁auraient	-10.7513
▁l'approche	-10.7514
▁l'avons	-10.7514
▁proposées	-10.7516
▁Here	-10.7516
▁facteur	-10.7517
▁rencontré	-10.7521
▁collect	-10.7526
▁amounts	-10.7527
▁exécut	-10.7527
▁jusqu’	-10.7529
vocat	-10.7531
ô	-10.7533
▁bit	-10.7534
ccident	-10.7536
▁citizens'	-10.7539
▁conception	-10.754
▁excuse	-10.7545
▁realistic	-10.7546
▁afford	-10.7547
▁honest	-10.7547
bé	-10.7553
▁passengers	-10.7555
▁ministers	-10.7556
tron	-10.7557
▁croire	-10.7564
liber	-10.7565
▁indépendante	-10.7565
▁siège	-10.7566
za	-10.7573
▁directrices	-10.7577
▁envisager	-10.7579
▁preparing	-10.7581
▁répartition	-10.7581
▁gone	-10.7589
▁ONG	-10.7592
▁agency	-10.7592
oyer	-10.7598
▁silence	-10.76
ati	-10.7604
▁l'im	-10.761
▁ethnique	-10.7611
▁négative	-10.7611
▁centrales	-10.7612
▁soumettre	-10.7616
tig	-10.7616
▁touché	-10.7616
▁réaliste	-10.7619
uit	-10.762
▁Sans	-10.7622
▁constaté	-10.7622
▁capitaux	-10.763
▁compared	-10.7634
fo	-10.7636
▁sites	-10.7636
▁compter	-10.764
▁temporaire	-10.7645
▁deadline	-10.7649
flu	-10.7649
▁Lu	-10.7652
▁property	-10.7662
▁ill	-10.7664
▁Concernant	-10.7667
▁m’	-10.7669
▁ambitions	-10.7676
▁villes	-10.7676
▁highest	-10.7676
▁recommande	-10.7683
▁rédigé	-10.7683
▁réglementaire	-10.7683
▁latter	-10.7684
▁undoubtedly	-10.769
▁People	-10.7692
▁industriel	-10.7693
▁wait	-10.7698
char	-10.7701
▁financé	-10.7702
▁Report	-10.7708
ifier	-10.7709
▁preventing	-10.771
▁customer	-10.7712
▁l'ONU	-10.7713
▁imports	-10.7714
▁feeling	-10.7714
▁Fundamental	-10.7717
▁remarquer	-10.7718
▁secondly	-10.772
▁constantly	-10.7723
▁occupe	-10.7724
▁insurance	-10.7724
▁réglementations	-10.7725
▁indicate	-10.7725
by	-10.7727
▁spoken	-10.7727
▁unfair	-10.7728
honorable	-10.7729
▁bound	-10.7731
▁degré	-10.7732
▁disadvantage	-10.7732
▁commencé	-10.7736
tric	-10.7738
▁hui	-10.7738
▁tente	-10.7739
▁behaviour	-10.7739
▁tenue	-10.774
▁bref	-10.7741
▁existantes	-10.7743
▁réagir	-10.7749
▁considering	-10.7749
▁cont	-10.775
▁operational	-10.7752
▁voisinage	-10.7756
▁l'obligation	-10.7757
▁Protection	-10.7758
▁différente	-10.7761
▁oblige	-10.7761
▁considérée	-10.7762
▁vice-président	-10.777
▁Hungarian	-10.7774
▁allemand	-10.7774
▁launch	-10.7776
▁milieu	-10.7776
▁NGOs	-10.7778
▁2009.	-10.7784
▁drawing	-10.7786
appa	-10.7789
▁Doha	-10.7795
▁programme-cadre	-10.7799
▁urgently	-10.7802
produ	-10.7805
lée	-10.7805
▁trend	-10.7808
▁fishermen	-10.7812
algré	-10.7816
▁formulé	-10.782
▁administratives	-10.7821
/2000	-10.7823
▁montrent	-10.7824
▁civilian	-10.7824
▁dynamique	-10.7827
▁importations	-10.7829
▁Because	-10.7831
▁West	-10.7837
▁revanche	-10.7843
▁fleet	-10.7843
▁expectations	-10.7843
▁latest	-10.7851
▁Korea	-10.7855
▁travaillé	-10.7857
▁strategies	-10.7862
▁suffi	-10.7863
▁détails	-10.7865
gard	-10.7867
▁couvert	-10.7873
▁prononcé	-10.7873
▁occur	-10.7877
▁souveraineté	-10.7877
▁ja	-10.7878
▁applying	-10.7881
▁adopte	-10.7884
▁l'entrée	-10.7885
▁répète	-10.7885
▁codecision	-10.7885
▁distort	-10.789
▁300	-10.789
▁néglige	-10.7893
▁confront	-10.7894
▁individuals	-10.7895
▁civilisation	-10.7897
▁suggestion	-10.7899
▁discipline	-10.79
▁d’euros	-10.7901
▁limitée	-10.7903
▁construire	-10.7904
▁préoccupe	-10.7905
▁historic	-10.7906
▁stronger	-10.7908
▁taxpayer	-10.7912
▁prennent	-10.7912
▁introducing	-10.7916
▁Pourtant	-10.7918
▁profonde	-10.7923
▁appliqué	-10.7929
▁duties	-10.7931
place	-10.7933
▁charte	-10.7934
▁prospérité	-10.7935
▁intégré	-10.7937
▁couple	-10.7937
▁restrict	-10.7939
▁determined	-10.7942
▁l'Irlande	-10.7943
▁keeping	-10.7946
ther	-10.7949
CO	-10.795
▁studies	-10.7951
▁allocation	-10.7952
anci	-10.7954
▁contest	-10.7954
▁school	-10.7955
▁relates	-10.7955
▁Dublin	-10.7955
▁described	-10.7956
▁regular	-10.7959
▁l'origine	-10.7962
▁witness	-10.7962
▁prétend	-10.7962
aine	-10.7964
▁announced	-10.797
▁prosperity	-10.797
▁reconnaît	-10.7971
▁manifestation	-10.7973
▁Japan	-10.7978
▁autrement	-10.7979
▁chef	-10.7979
▁precise	-10.798
▁vin	-10.798
▁géographique	-10.7982
▁extérieur	-10.7984
▁UE	-10.7986
▁Com	-10.7988
▁conduit	-10.7991
▁défaut	-10.7997
▁gérer	-10.7999
▁interdit	-10.8002
▁proceedings	-10.8002
▁j'en	-10.8002
▁choose	-10.8005
rier	-10.8006
▁reconnaissant	-10.801
ON	-10.8011
▁brutal	-10.8013
▁transformation	-10.8014
▁régimes	-10.8015
▁sauvegarde	-10.8021
▁transposition	-10.8022
▁permit	-10.8023
▁joué	-10.8025
▁l'ouverture	-10.8025
▁engagée	-10.8028
▁fédéral	-10.8029
▁reiterate	-10.8029
▁buy	-10.8033
▁offers	-10.8034
ov	-10.8041
▁crédit	-10.8041
ivité	-10.8043
PE	-10.8045
▁tool	-10.8047
▁améliorations	-10.8048
▁l'époque	-10.8056
▁bientôt	-10.8056
▁devenu	-10.8059
▁émis	-10.8061
▁générales	-10.8063
▁d'agir	-10.8064
▁mobile	-10.8068
▁diminution	-10.8072
▁agit	-10.8075
▁details	-10.8078
▁sûre	-10.8078
▁happens	-10.8079
-S	-10.8079
▁multilateral	-10.808
▁operating	-10.808
▁l'unanimité	-10.8081
▁quote	-10.8082
▁Lo	-10.8082
ères	-10.8087
▁consist	-10.8087
▁expense	-10.8088
▁door	-10.8088
ó	-10.8092
▁l'OTAN	-10.8092
▁X	-10.8095
▁organismes	-10.8108
▁fé	-10.8109
▁prévoir	-10.8109
▁plainte	-10.8109
▁sept	-10.811
▁inclus	-10.8114
▁assuré	-10.8117
▁barriers	-10.8123
▁disagree	-10.8127
▁viennent	-10.8127
▁communs	-10.8136
▁Croatie	-10.8139
▁atteinte	-10.814
▁strengthened	-10.8142
▁expliquer	-10.8143
▁examples	-10.8144
amin	-10.8144
▁Inter	-10.8145
▁confirmed	-10.8146
▁pire	-10.8151
▁welcomed	-10.8156
▁Tel	-10.816
▁n’ont	-10.8161
▁Fisheries	-10.8167
▁régler	-10.8167
▁naturel	-10.8172
présent	-10.8176
▁represented	-10.8177
▁condamné	-10.8182
▁palestinien	-10.8184
▁coordinated	-10.8184
▁affirm	-10.8185
▁urgency	-10.819
▁flotte	-10.819
▁ayons	-10.8193
▁menacé	-10.8195
▁respecte	-10.82
▁chaîne	-10.8202
▁continuent	-10.8203
transfrontalière	-10.821
▁intensive	-10.821
▁kept	-10.821
▁réclame	-10.821
▁industrie	-10.8211
fou	-10.8214
électricité	-10.8222
▁espoir	-10.8222
):	-10.8227
▁L'UE	-10.8228
▁mental	-10.8231
▁efficacité	-10.8233
▁tâches	-10.8236
▁processes	-10.8238
▁médiateur	-10.8238
▁timetable	-10.8243
ibility	-10.8246
▁meilleurs	-10.8251
omb	-10.8265
▁briefly	-10.827
▁maintaining	-10.8271
▁prospect	-10.8274
▁prie	-10.8274
terinstitutional	-10.8274
▁s'ils	-10.8278
az	-10.8278
▁suscite	-10.8278
▁travaillent	-10.8281
approuve	-10.8285
▁debating	-10.8287
▁Pi	-10.8288
▁tête	-10.829
▁semblent	-10.8292
▁échange	-10.8293
▁aurions	-10.8294
▁comparable	-10.8294
▁néerlandais	-10.8298
▁débattu	-10.8307
▁largest	-10.8307
▁menée	-10.8313
▁sincèrement	-10.8316
▁expose	-10.8317
▁justifie	-10.8318
▁Protocol	-10.8319
▁d'initiative	-10.8319
▁prefer	-10.8319
▁near	-10.8319
▁sexuelle	-10.832
▁exemption	-10.832
▁vingt	-10.8327
▁sovereignty	-10.8331
▁interpretation	-10.834
▁abord	-10.8347
▁Afrique	-10.8351
▁leader	-10.8352
▁equipment	-10.8355
▁2012	-10.8356
▁conserver	-10.836
▁published	-10.8361
▁eight	-10.8361
▁déclare	-10.8363
uf	-10.8365
▁coherent	-10.8367
▁activement	-10.8368
▁largely	-10.8372
engagement	-10.8376
vait	-10.8389
▁quota	-10.8392
▁crée	-10.8392
▁d'avis	-10.8398
▁liée	-10.8399
▁décennie	-10.8403
▁Time	-10.8404
▁2010.	-10.8404
▁Congo	-10.8406
▁Patten	-10.8408
▁vivant	-10.8409
▁ville	-10.841
▁textes	-10.8411
▁menées	-10.8411
▁reconnais	-10.8414
ED	-10.8416
▁strike	-10.8416
pou	-10.8416
▁publication	-10.8419
▁l’aide	-10.8424
▁electricity	-10.8424
▁perform	-10.8425
▁limité	-10.8427
nés	-10.8431
▁extensive	-10.8432
accueil	-10.8435
▁commissaires	-10.8441
▁intends	-10.8443
appui	-10.8448
▁considérons	-10.8456
▁innovative	-10.8456
▁causé	-10.8457
▁classe	-10.8466
cide	-10.8469
▁protégé	-10.8469
▁collabor	-10.8472
▁Instead	-10.8473
▁l'Afrique	-10.8479
▁annex	-10.8485
▁Employment	-10.8489
▁ressortissants	-10.8497
cle	-10.8499
▁moyenne	-10.85
▁cru	-10.85
▁dependent	-10.8501
▁undertaken	-10.8503
▁restore	-10.8506
éné	-10.8513
▁témoigne	-10.8518
▁coordinate	-10.8521
▁interdiction	-10.8524
▁existants	-10.8526
▁mobilise	-10.8526
▁room	-10.8526
issons	-10.8533
▁tangible	-10.8534
▁Solana	-10.8538
▁perfectly	-10.8546
▁énergies	-10.8546
▁parliament	-10.8551
élection	-10.856
▁abolish	-10.856
▁restructuration	-10.8563
▁shadow	-10.8563
▁D'un	-10.8565
▁united	-10.8568
▁modest	-10.857
ö	-10.8576
▁vivement	-10.8577
▁significantly	-10.8582
▁né	-10.8583
▁Constitutional	-10.8584
▁ongoing	-10.8584
▁Finland	-10.8585
▁bâtiment	-10.8588
▁offered	-10.859
▁dangers	-10.859
▁restructuring	-10.8596
▁locaux	-10.86
▁identity	-10.8605
▁felt	-10.8605
▁égal	-10.8609
▁Common	-10.8613
▁invité	-10.8617
▁careful	-10.8618
▁ALDE	-10.8621
▁sad	-10.8624
▁incapable	-10.8625
▁remis	-10.8629
▁amending	-10.8629
▁irre	-10.8632
▁tu	-10.8635
▁politically	-10.8643
▁partenaire	-10.8644
▁concrète	-10.8645
ologie	-10.8651
EU	-10.8658
▁poste	-10.8658
▁équilibré	-10.8659
▁essentielles	-10.8661
▁prompt	-10.8662
▁enhance	-10.8662
▁notice	-10.8663
▁perte	-10.8671
▁exportations	-10.8672
▁chinois	-10.8675
-year	-10.8678
▁permette	-10.8679
▁matériel	-10.868
▁l’accord	-10.8682
▁riches	-10.8686
méditerranéen	-10.8688
▁sanction	-10.8689
▁Under	-10.8697
▁interpret	-10.8699
▁entrer	-10.8702
▁observation	-10.8704
▁valuable	-10.8705
▁determination	-10.8705
▁hands	-10.8706
▁observe	-10.8708
-P	-10.8708
▁understood	-10.8709
▁seuil	-10.8709
light	-10.8712
▁arriv	-10.8713
▁d'utiliser	-10.8713
▁denrées	-10.8713
▁envisagé	-10.8713
▁délicat	-10.8717
▁frontière	-10.8718
▁Then	-10.8719
▁endeavour	-10.8725
▁l'Organisation	-10.8725
▁équilibrée	-10.8726
▁réside	-10.8727
▁justification	-10.8731
▁minister	-10.8733
▁feature	-10.8734
▁libre-échange	-10.8734
▁visent	-10.8738
í	-10.8738
▁piece	-10.8742
▁d'y	-10.8745
▁l'existence	-10.8745
▁fonctionner	-10.8747
▁waiting	-10.8748
▁Arab	-10.875
▁Hu	-10.8751
▁généralement	-10.8755
▁centaines	-10.8755
import	-10.8756
▁genuinely	-10.8757
▁intéressé	-10.8759
▁materials	-10.8766
▁wealth	-10.8772
▁saluer	-10.8783
▁concert	-10.8784
▁promis	-10.8786
▁eliminate	-10.8789
▁Fi	-10.8789
▁examen	-10.8793
asso	-10.8793
▁learning	-10.8793
assi	-10.8797
▁changing	-10.8797
arrêt	-10.8799
▁nord	-10.88
▁moteur	-10.8802
▁clauses	-10.8806
orientation	-10.8818
▁negotiation	-10.8818
ically	-10.8818
▁Est	-10.8822
▁avancées	-10.8822
▁routes	-10.8823
▁net	-10.8826
▁partisan	-10.8829
▁proved	-10.883
▁qualified	-10.8848
▁commit	-10.8849
▁radio	-10.8851
▁taille	-10.8852
▁d'association	-10.8852
▁explication	-10.8852
▁medical	-10.8852
▁cri	-10.8854
▁Commission'	-10.8855
▁fruits	-10.8856
▁crainte	-10.8856
▁ajout	-10.8858
▁co-	-10.886
▁énergie	-10.8866
▁espagnol	-10.8867
▁heading	-10.8875
▁actively	-10.8876
▁accroître	-10.8883
▁listen	-10.8886
▁alloué	-10.8886
▁provenance	-10.8892
▁legally	-10.8892
▁É	-10.8893
▁participants	-10.8897
▁difficulty	-10.8901
opération	-10.8906
▁décide	-10.8906
▁connais	-10.8907
▁résulte	-10.8908
▁s’a	-10.8911
▁d'atteindre	-10.8912
▁stabilisation	-10.8918
▁threaten	-10.8918
▁répercussions	-10.892
dge	-10.8923
▁assumer	-10.8925
▁s'impose	-10.8926
▁l'établissement	-10.8929
▁est-il	-10.893
▁Plan	-10.8932
pprobation	-10.8935
▁consultations	-10.8935
alisation	-10.8939
▁laissé	-10.8943
han	-10.8946
▁disposent	-10.8946
Afrique	-10.8947
▁présentation	-10.8949
▁trou	-10.895
pac	-10.8954
lev	-10.8954
▁tragic	-10.8959
▁complement	-10.8962
▁highlighted	-10.8966
▁significance	-10.8968
▁save	-10.8976
▁supposed	-10.8976
▁amended	-10.8978
▁organization	-10.8981
▁rurales	-10.8983
▁Pol	-10.8986
▁Bosnia	-10.8989
▁fondement	-10.8996
▁occupation	-10.8997
▁Ashton	-10.8998
▁disposal	-10.8998
▁Control	-10.9002
▁socialistes	-10.9007
-C	-10.9007
institution	-10.9008
▁brièvement	-10.9011
ann	-10.9011
mettre	-10.9016
▁minimal	-10.9023
▁VAT	-10.9024
▁error	-10.9024
▁transfrontalier	-10.9028
▁composition	-10.9029
▁J'en	-10.9031
ications	-10.9032
emploi	-10.9033
aï	-10.9035
▁d’action	-10.9037
▁fier	-10.9038
ink	-10.9042
érant	-10.9043
▁remarquable	-10.9045
lais	-10.9048
EP	-10.9049
▁1992	-10.9054
▁l'Est	-10.9056
▁inadequate	-10.9058
▁drug	-10.9059
▁vessels	-10.906
▁Food	-10.9063
▁applicant	-10.9063
▁teach	-10.9063
▁connaissons	-10.9063
▁provenant	-10.9065
▁Latin	-10.9066
▁transparente	-10.9068
rice	-10.9068
▁prévues	-10.9077
▁suspend	-10.9078
▁satisfactory	-10.908
▁provoque	-10.9084
▁renforcé	-10.9089
▁habitants	-10.909
▁preserve	-10.9093
▁destination	-10.9093
▁referring	-10.9095
▁travaille	-10.9098
▁Cooperation	-10.9102
▁Ab	-10.911
▁accordé	-10.9111
▁avancé	-10.9115
▁driving	-10.9115
▁occup	-10.9115
▁humaines	-10.9117
▁Representative	-10.9119
▁breach	-10.9119
▁satellite	-10.9123
▁Roms	-10.9124
▁contracts	-10.9127
▁Parliament’s	-10.9128
▁margin	-10.9128
▁renforce	-10.913
▁urban	-10.913
▁augmente	-10.9131
▁tellement	-10.9133
▁postes	-10.9136
▁Fischler	-10.9141
▁électeurs	-10.9141
▁Last	-10.9142
▁utilisées	-10.9142
▁bénéfices	-10.9143
▁suspect	-10.9145
▁extraordinaire	-10.9145
▁soyons	-10.915
▁Austrian	-10.9151
▁strictes	-10.9161
▁White	-10.9163
▁GUE/NGL	-10.9167
▁envoyé	-10.9167
▁paroles	-10.9168
▁indépendants	-10.9168
ouvrir	-10.9169
▁settlement	-10.9169
▁reprendre	-10.9173
nou	-10.918
▁allemande	-10.918
▁primary	-10.918
▁neighbours	-10.9184
shed	-10.9184
▁essayer	-10.9185
▁Thursday	-10.9189
▁télévision	-10.9189
▁adult	-10.919
▁remove	-10.919
▁Over	-10.9192
▁simplify	-10.9194
EA	-10.9194
▁sexe	-10.9197
▁protocol	-10.9199
▁objections	-10.92
▁boost	-10.9202
▁Internal	-10.9206
▁Serbie	-10.9207
▁TVA	-10.9207
▁sustainability	-10.9207
Euro	-10.9211
▁Act	-10.9211
▁B5-	-10.9216
group	-10.9216
▁qu’en	-10.9216
▁somme	-10.9216
▁arrêté	-10.9218
▁Verheugen	-10.922
▁revenu	-10.9222
▁espagnole	-10.9222
▁Géorgie	-10.9224
▁accomplis	-10.9226
▁inférieur	-10.9229
▁l'impression	-10.9229
▁37	-10.9233
▁Quand	-10.9233
▁Schulz	-10.9233
▁devient	-10.9235
ntergovernmental	-10.9237
▁absolute	-10.9238
▁contrôl	-10.924
▁bal	-10.9241
▁size	-10.9241
▁milk	-10.9247
▁Will	-10.9254
▁Centre	-10.9256
▁apart	-10.9257
▁(vote)	-10.926
▁Comité	-10.9263
▁excellente	-10.9263
▁concrets	-10.9267
▁Second	-10.9267
▁exceptions	-10.9268
▁étroitement	-10.9268
▁attentes	-10.9269
▁fill	-10.9273
▁l'Agence	-10.9273
▁National	-10.9273
ète	-10.9274
▁daily	-10.9277
▁avantage	-10.9283
▁Once	-10.9291
amélioration	-10.9293
▁Dé	-10.9293
▁motor	-10.9294
▁resulting	-10.9294
▁introduire	-10.9295
▁obligé	-10.9295
▁Before	-10.93
▁placé	-10.93
▁informer	-10.9302
▁pleine	-10.9304
motion	-10.9305
▁levée	-10.9308
▁avancée	-10.931
▁War	-10.9315
▁seeing	-10.9317
çons	-10.9317
▁n°	-10.9317
gul	-10.9319
▁prononcer	-10.9326
▁Stockholm	-10.9326
▁page	-10.9329
▁représentation	-10.9331
▁entraîner	-10.9335
▁Northern	-10.9335
X	-10.9336
▁remettre	-10.9339
▁warm	-10.934
▁primordial	-10.934
▁apportée	-10.934
▁trouble	-10.934
ik	-10.934
▁enregistré	-10.9344
▁stake	-10.9344
ett	-10.9348
▁stay	-10.9348
▁prudent	-10.9349
▁Where	-10.9349
▁exceptional	-10.9351
▁[	-10.9352
▁territoriale	-10.9352
▁donnée	-10.9353
▁television	-10.9353
ya	-10.9354
▁Brok	-10.9358
▁suggested	-10.9359
▁individuelle	-10.9362
▁partagé	-10.9364
▁huit	-10.9367
venant	-10.9368
▁minor	-10.937
▁Verts/ALE	-10.9371
▁sales	-10.9372
▁exercer	-10.9372
▁someone	-10.9373
▁britanniques	-10.938
▁l’emploi	-10.938
▁pratiquement	-10.9382
▁neighbouring	-10.9384
▁restrictive	-10.9387
▁évaluer	-10.9388
▁italien	-10.9391
▁contribuera	-10.9393
zo	-10.9394
▁playing	-10.9395
▁severe	-10.9395
▁chiffre	-10.9396
▁disappear	-10.9398
▁root	-10.9398
▁saw	-10.9399
▁urgence	-10.9405
▁built	-10.9411
▁choisir	-10.9412
▁duquel	-10.9412
▁determine	-10.9417
AR	-10.9421
▁souhaité	-10.9421
▁n'ait	-10.9423
▁légal	-10.9425
change	-10.9431
▁users	-10.9432
▁lié	-10.9434
volution	-10.9436
▁honnête	-10.9436
▁satisfied	-10.9443
▁derrière	-10.9443
bal	-10.9445
▁détaillée	-10.9447
▁urbain	-10.9452
uni	-10.9456
▁l'interdiction	-10.947
▁faibles	-10.9479
▁20%	-10.948
▁confirmé	-10.9481
patri	-10.9481
▁Britain	-10.9484
rich	-10.9487
▁dérogation	-10.9488
gli	-10.949
▁inclure	-10.9493
▁Tampere	-10.9497
▁prenant	-10.95
▁transmis	-10.9503
▁confirmer	-10.9512
tta	-10.9512
▁journal	-10.9514
▁inflation	-10.9515
▁bank	-10.9522
▁medicines	-10.9526
▁Safety	-10.9529
▁elsewhere	-10.9529
▁meat	-10.953
▁contraint	-10.9531
▁team	-10.9534
être	-10.9536
▁wider	-10.9539
▁coopérer	-10.9547
▁libéraux	-10.9547
▁amis	-10.955
▁GDP	-10.9552
▁élaborer	-10.9559
▁Timor	-10.9561
▁football	-10.9561
▁voit	-10.9566
▁aviation	-10.9566
ify	-10.9567
▁Santer	-10.9569
▁turc	-10.957
▁d'émission	-10.9572
▁historical	-10.9572
▁procès	-10.9579
isent	-10.958
central	-10.9588
zi	-10.9593
▁opposite	-10.9593
▁routier	-10.9593
▁postpone	-10.9597
▁machine	-10.9602
▁approuver	-10.9618
▁opérateurs	-10.962
▁Regional	-10.9625
▁l'Allemagne	-10.9627
▁indicated	-10.9632
▁addressing	-10.9634
▁participé	-10.9634
▁augmenté	-10.9634
▁S'il	-10.9634
▁speeches	-10.9638
▁distinct	-10.9648
▁sufficiently	-10.9649
▁judgment	-10.9652
▁stands	-10.9652
▁possibly	-10.9657
▁treat	-10.9658
▁greatly	-10.9661
▁maintained	-10.9661
▁destiné	-10.9662
▁previously	-10.9662
▁gros	-10.9663
▁remplacer	-10.9663
▁Donc	-10.9666
▁External	-10.9666
▁Without	-10.9669
▁bu	-10.9669
▁caractéristique	-10.9671
▁régionaux	-10.9675
ana	-10.9675
▁permettront	-10.9675
▁generate	-10.9676
▁Allemagne	-10.9677
mark	-10.9679
▁quasi	-10.968
▁obliged	-10.9681
▁religieuse	-10.9689
▁découle	-10.9689
▁Consequently,	-10.9694
▁geographical	-10.9694
gal	-10.9695
lie	-10.9698
▁background	-10.9699
▁satisfaire	-10.9699
▁strength	-10.9705
▁phrase	-10.9708
aît	-10.971
▁transitional	-10.9711
▁flux	-10.9711
▁cheap	-10.9712
tie	-10.9712
ham	-10.9716
▁trial	-10.9716
▁électorale	-10.9728
▁jeudi	-10.973
▁identified	-10.9731
▁contrats	-10.9732
▁finish	-10.9732
-m	-10.9732
européen	-10.9734
▁affirme	-10.9735
▁bilatéral	-10.9736
▁l'examen	-10.9736
▁liens	-10.9738
▁préparé	-10.974
▁difficulté	-10.9741
▁pesticides	-10.9745
▁moreover	-10.9745
▁profondément	-10.975
▁Work	-10.975
▁qualifiée	-10.975
]	-10.9754
▁camps	-10.9756
gression	-10.9763
▁friends	-10.9764
▁El	-10.9767
▁clarté	-10.9768
▁représenté	-10.9773
▁l'opposition	-10.9777
▁mobilisation	-10.9777
▁démontré	-10.9782
▁éventuelle	-10.9788
▁dynamic	-10.9791
▁oui	-10.9798
▁compulsory	-10.9801
▁running	-10.9802
▁competent	-10.9809
▁prisoners	-10.981
▁bureaucratie	-10.9811
dio	-10.9812
▁Thus	-10.9818
guer	-10.982
▁susceptibles	-10.9824
10	-10.9827
▁croissante	-10.9828
▁gauche	-10.9829
▁anciens	-10.9831
▁l’industrie	-10.9836
▁histoire	-10.9838
▁intervene	-10.9839
▁connaissances	-10.9845
▁Finlande	-10.9847
▁sévère	-10.9848
▁enforcement	-10.9848
ken	-10.9855
▁étendu	-10.9858
▁aériennes	-10.9864
▁BSE	-10.9868
▁himself	-10.9871
▁thanking	-10.9875
▁suffered	-10.9876
▁marine	-10.9879
▁privatisation	-10.9881
▁trouvons	-10.9881
graph	-10.9883
▁chair	-10.9887
▁afternoon	-10.989
▁salaires	-10.989
▁l'exploitation	-10.989
human	-10.9891
▁argue	-10.9896
▁spend	-10.9897
▁Belgian	-10.9899
▁rappelé	-10.99
▁voitures	-10.9905
▁launched	-10.9907
ged	-10.9909
▁Pas	-10.9913
▁terres	-10.9916
▁ultérieur	-10.9918
▁chercher	-10.9926
▁gagner	-10.9929
▁(SK)	-10.9932
▁imposé	-10.9934
▁(CS)	-10.9937
▁l'Ukraine	-10.9937
▁possibilities	-10.9937
▁dossiers	-10.9939
▁retirer	-10.9939
z-vous	-10.9948
▁plants	-10.9955
▁meant	-10.9956
▁societies	-10.9956
▁déposés	-10.9962
▁diplomatic	-10.9966
▁chairman	-10.9966
▁Having	-10.9967
▁traditionnelle	-10.9971
▁chosen	-10.9971
▁collecte	-10.9973
▁tenant	-10.9975
▁sanitaire	-10.9975
2006	-10.9981
▁proof	-10.9985
row	-10.9986
▁thèmes	-10.9986
▁successfully	-10.9987
environnementaux	-10.999
▁mettent	-10.9994
firm	-10.9995
▁conducted	-10.9995
▁carrying	-10.9996
▁compréhension	-10.9999
▁flood	-10.9999
▁refuge	-11.0002
▁âgées	-11.0002
▁souhaiter	-11.0002
-out	-11.0004
▁foot	-11.0004
▁bilan	-11.0004
▁Irak	-11.0009
certain	-11.0011
▁pure	-11.0012
▁Pen	-11.0014
▁differ	-11.0016
▁privés	-11.0018
▁completed	-11.002
▁approfondie	-11.0025
▁polonais	-11.0028
▁conduire	-11.0028
▁species	-11.0028
▁l'indépendance	-11.0028
gram	-11.003
▁vérifier	-11.0032
▁vulnérables	-11.0032
▁formule	-11.0037
▁Qu'	-11.0039
▁Grande-Bretagne	-11.0042
▁multinational	-11.0045
▁Parti	-11.0046
▁physique	-11.0047
▁chimiques	-11.0047
▁length	-11.0047
▁disant	-11.0051
▁provoqué	-11.0052
▁criticise	-11.0056
mbo	-11.0057
▁qu'aucun	-11.0061
▁complicated	-11.0066
▁d'accès	-11.0071
▁danois	-11.0071
▁vit	-11.0073
▁organise	-11.0076
▁deserves	-11.008
▁links	-11.0081
▁franchi	-11.0082
▁partly	-11.0082
▁adaptation	-11.0089
▁transatlantique	-11.009
▁détriment	-11.009
▁helped	-11.0091
▁saisir	-11.01
fully	-11.01
▁guaranteeing	-11.0102
▁Galileo	-11.0104
▁concerné	-11.0105
▁spite	-11.0106
▁d’entre	-11.0107
▁J’espère	-11.0109
▁époque	-11.0109
▁multiple	-11.0109
▁Aucun	-11.011
▁extreme	-11.011
▁belief	-11.0114
▁devote	-11.0114
▁sorry	-11.0114
▁entrave	-11.0115
trait	-11.0116
▁Italie	-11.0116
▁poorest	-11.0124
▁animale	-11.0126
▁PIB	-11.0128
▁facilities	-11.0133
▁crains	-11.0133
▁contribuables	-11.0142
▁intellectual	-11.0143
▁significatif	-11.0143
▁gouvernementale	-11.0145
équilibr	-11.0147
▁Danish	-11.0148
▁déclarer	-11.0148
▁She	-11.0153
▁exclusivement	-11.0153
SE	-11.0153
▁ratified	-11.0162
▁tragedy	-11.0162
pic	-11.0165
▁Hungary	-11.0167
▁Bosnie	-11.0167
▁internes	-11.0168
▁well-	-11.0168
▁Just	-11.017
▁diplomatique	-11.017
▁definitely	-11.017
▁poursuivi	-11.0172
▁surely	-11.0176
▁d'intégration	-11.0177
▁rejeter	-11.0179
▁Corée	-11.0181
▁séparé	-11.0182
▁dirige	-11.0186
▁lé	-11.0186
▁1993	-11.0187
▁sell	-11.0188
▁45	-11.0191
▁considérant	-11.0191
institutionnel	-11.0195
▁biologique	-11.0197
▁worldwide	-11.0211
▁marqué	-11.0211
▁intégration	-11.0211
▁admit	-11.0212
▁tombe	-11.0213
▁belge	-11.0216
▁skills	-11.0216
▁l’article	-11.0218
▁whereby	-11.022
▁green	-11.0221
▁désire	-11.0221
ä	-11.0225
▁southern	-11.0225
▁catch	-11.023
▁debated	-11.0236
▁heavy	-11.024
▁négocier	-11.0241
▁pétitions	-11.0241
▁representation	-11.0242
▁l'exécution	-11.0244
gage	-11.0245
▁Union’s	-11.0246
▁openness	-11.0246
▁lourd	-11.0247
IC	-11.025
▁(P	-11.025
▁d'écus	-11.025
▁divergence	-11.0255
▁communiste	-11.0255
▁d'apporter	-11.026
▁désastre	-11.0265
▁repos	-11.0265
▁Sommet	-11.0269
▁s'avère	-11.0269
ût	-11.0273
▁différent	-11.0274
▁digital	-11.0274
matic	-11.0275
vin	-11.0278
▁Japon	-11.0284
▁client	-11.0284
▁forêts	-11.0287
▁ouvrir	-11.0289
▁quinze	-11.0289
▁argent	-11.0289
▁sugar	-11.029
▁infringement	-11.029
adapt	-11.0294
▁corps	-11.0295
▁professionnels	-11.03
▁Subject	-11.0304
▁liquid	-11.0304
▁issued	-11.0307
▁confrontée	-11.0308
▁immense	-11.0309
▁Lithuania	-11.0314
▁Democrats)	-11.0315
▁spéciale	-11.032
▁préoccupé	-11.0323
▁deserve	-11.0328
▁(Christian	-11.0328
▁expand	-11.0328
▁structurelles	-11.033
▁innocent	-11.0333
▁entrepreneurs	-11.0335
▁Barcelone	-11.0338
▁scène	-11.0338
▁channel	-11.0338
▁Belgium	-11.0343
▁attendent	-11.0345
▁warning	-11.0346
▁Home	-11.0348
▁advertising	-11.0348
▁purely	-11.0352
▁cities	-11.0353
▁Martin	-11.0355
▁Culture	-11.0358
▁concessions	-11.0358
▁Verts	-11.0359
expérience	-11.036
▁répondu	-11.0361
▁Barcelona	-11.0363
▁régulièrement	-11.0364
▁prisonniers	-11.0368
étique	-11.0372
▁inspect	-11.0373
▁object	-11.0373
▁part-session	-11.0378
▁lacunes	-11.0378
▁planète	-11.0381
▁L'objectif	-11.0383
▁surmonter	-11.0383
▁fixés	-11.0384
-20	-11.0385
▁Partnership	-11.0388
▁incite	-11.039
▁horizontal	-11.0393
▁multilatéral	-11.0397
▁surprise	-11.04
▁souhaitable	-11.0405
▁orientation	-11.0405
▁agents	-11.0408
▁serre	-11.0409
▁immédiate	-11.0415
▁respectent	-11.0416
▁Bush	-11.0418
▁continuera	-11.042
▁solely	-11.0421
▁revenue	-11.0428
▁surpris	-11.0428
▁modes	-11.0433
occupe	-11.0441
▁fragment	-11.0442
▁harmful	-11.0443
▁erreurs	-11.0444
▁players	-11.0445
▁tensions	-11.0446
▁convaincre	-11.0457
▁Polish	-11.0463
▁tire	-11.0463
▁(E	-11.0464
▁correcte	-11.0465
▁worst	-11.0467
▁sphere	-11.0467
▁unanimously	-11.0468
▁déf	-11.047
▁chapter	-11.0472
▁latine	-11.0472
▁hit	-11.0473
▁fit	-11.0479
▁familiar	-11.0482
▁retenu	-11.0483
▁schemes	-11.0483
▁hauteur	-11.0484
ole	-11.0486
▁directeur	-11.0486
▁jusqu'	-11.0487
▁destroy	-11.0489
▁arrêt	-11.0491
▁carbon	-11.0492
▁Saddam	-11.0492
▁patrimoine	-11.0492
▁worrying	-11.0494
▁bénéficient	-11.0497
▁blood	-11.0497
▁2007-2013	-11.0498
15	-11.0498
▁l’importance	-11.0502
▁neutral	-11.0502
▁Hamas	-11.0502
ught	-11.0503
▁initiate	-11.0504
▁examiné	-11.0511
▁intégrer	-11.0513
▁prospects	-11.0513
▁Peut-être	-11.0517
▁foremost	-11.0517
▁producing	-11.0517
▁discutons	-11.0517
▁premièrement	-11.0519
▁pencher	-11.0519
+	-11.0522
▁easily	-11.0522
▁préfér	-11.0527
▁bancaire	-11.0527
▁formulées	-11.0528
▁motifs	-11.053
▁irlandaise	-11.0536
▁(La	-11.0537
▁accueilli	-11.0537
▁suivante:	-11.0538
▁harmonise	-11.054
▁fiable	-11.0543
▁l'est	-11.0544
▁handicapées	-11.0545
▁phenomenon	-11.0547
▁individuel	-11.0548
▁italienne	-11.0551
▁demanding	-11.056
▁ideal	-11.0562
▁site	-11.0565
▁valable	-11.0573
▁a-t-il	-11.0581
▁l'équilibre	-11.0583
▁bienvenue	-11.0583
▁dirais	-11.0583
▁utilisée	-11.0585
▁governing	-11.0587
▁permanente	-11.0587
▁priv	-11.0589
▁lorsqu'	-11.059
▁opened	-11.059
▁explicit	-11.0591
▁prétexte	-11.0593
▁minorité	-11.0595
▁dollars	-11.06
▁maintenu	-11.0603
▁débattons	-11.0604
▁varie	-11.0606
▁extending	-11.0607
▁stressed	-11.061
▁richesse	-11.0615
▁essentially	-11.0618
▁Does	-11.0621
SA	-11.0621
▁character	-11.0623
▁censure	-11.0623
▁suspension	-11.0626
▁l'Italie	-11.0628
▁tragédie	-11.0628
▁(LT	-11.0629
▁Both	-11.0633
▁compétitive	-11.0633
▁heritage	-11.0633
▁méritent	-11.0642
▁lourde	-11.0646
▁vide	-11.0647
▁déplore	-11.0649
tergovernmental	-11.0649
▁affirmé	-11.0653
▁racisme	-11.0653
▁acting	-11.0653
pass	-11.0654
▁hundreds	-11.0655
▁couvre	-11.0657
▁healthy	-11.0658
▁mines	-11.0664
PA	-11.0665
▁finale	-11.0668
▁cruciale	-11.0668
▁prevail	-11.0669
▁dommages	-11.067
▁précédemment	-11.0674
▁télécommun	-11.0674
▁correctly	-11.0678
▁house	-11.0683
▁sang	-11.0683
▁légitimité	-11.0684
▁proud	-11.0689
▁Growth	-11.0689
▁enabling	-11.0695
ffect	-11.0696
▁d’État	-11.0697
▁core	-11.0698
▁Hongrie	-11.07
▁savings	-11.07
OM	-11.0702
▁l’État	-11.0707
▁remerciements	-11.0709
▁Egypt	-11.0715
▁rapidly	-11.0718
▁revoir	-11.072
▁reveal	-11.072
COM	-11.0723
▁nomination	-11.0723
▁tenté	-11.0725
▁advice	-11.0725
▁attache	-11.0727
-M	-11.073
▁facilement	-11.0732
iller	-11.0735
▁considerably	-11.074
▁prendra	-11.0744
/2003	-11.0746
▁lie	-11.0755
▁pertes	-11.0756
▁Left	-11.0763
▁auparavant	-11.0766
▁carburant	-11.0766
▁l'avant	-11.077
invite	-11.0776
▁marketing	-11.0776
▁s'assurer	-11.0777
▁peur	-11.0779
▁vaccin	-11.078
▁clarity	-11.0782
▁exceed	-11.0782
▁sert	-11.0789
▁remplir	-11.0794
▁picture	-11.0797
▁passenger	-11.0802
▁devenue	-11.0803
▁péri	-11.0806
▁basé	-11.0812
▁reliable	-11.0813
▁powerful	-11.0814
▁exclusive	-11.0818
▁Moldova	-11.0818
▁connaissent	-11.0818
▁avéré	-11.0818
▁donor	-11.0819
▁l'activité	-11.0825
▁tools	-11.083
pho	-11.0831
▁Belgique	-11.0833
▁willingness	-11.0834
ssions	-11.0834
▁justifier	-11.0837
▁commend	-11.0842
▁l’adhésion	-11.0844
▁pièce	-11.0844
▁lire	-11.0845
▁aboutir	-11.0848
▁shape	-11.0849
▁infect	-11.0849
▁lift	-11.085
▁préférence	-11.085
gh	-11.0852
▁décrit	-11.0856
▁environmentally	-11.0856
▁persuade	-11.0859
▁(FI	-11.0862
▁dramatic	-11.087
▁tragique	-11.087
▁équipe	-11.0871
▁jugé	-11.0872
▁démographique	-11.0875
▁tiendra	-11.0875
▁d'expression	-11.0875
▁quotidienne	-11.0881
▁L'un	-11.0884
▁promised	-11.0886
▁manufacturers	-11.0886
▁remaining	-11.0888
▁l’année	-11.0889
▁merci	-11.0889
▁destinée	-11.089
▁consolidate	-11.0891
▁engagés	-11.0894
été	-11.0896
▁appliquées	-11.09
▁alcohol	-11.0901
▁l'internet	-11.0901
▁tribunal	-11.0901
ü	-11.0906
▁repris	-11.0907
▁granting	-11.0914
▁dépendance	-11.0915
▁experienced	-11.0915
▁l'instant	-11.0917
▁sole	-11.0919
▁Toutes	-11.092
▁focused	-11.0935
▁32	-11.0935
▁apparent	-11.0936
▁friend	-11.0936
train	-11.094
▁adresser	-11.0943
▁bureaucracy	-11.0943
▁savent	-11.0945
▁médecin	-11.0948
▁sold	-11.0951
▁d'égalité	-11.0959
▁appropriées	-11.0959
▁suitable	-11.0963
▁favourable	-11.0966
▁carbone	-11.0971
▁transmission	-11.0971
▁faith	-11.0972
▁rom	-11.0984
▁clarifier	-11.0984
▁affront	-11.099
▁ECB	-11.0992
▁paying	-11.0993
▁flight	-11.0994
▁intérieure	-11.0999
low	-11.1005
▁appartient	-11.1006
▁simplifier	-11.1011
▁couvrir	-11.1012
▁decades	-11.1014
▁declared	-11.1021
▁75	-11.1022
▁grec	-11.1023
▁profil	-11.1027
▁encouraged	-11.1031
▁Equal	-11.1032
▁Bar	-11.1033
Qu	-11.1035
▁soutenue	-11.1036
▁await	-11.1038
▁Za	-11.1038
▁linguistique	-11.1043
▁schools	-11.1043
▁govern	-11.1044
▁présentent	-11.1045
▁constructif	-11.1051
▁navigation	-11.1053
▁rang	-11.1055
migrant	-11.1055
▁administratif	-11.1059
▁fragile	-11.1059
▁component	-11.1059
▁absent	-11.1059
▁postal	-11.1059
▁nettement	-11.1059
▁vain	-11.1064
11	-11.1068
▁weaken	-11.1069
▁physical	-11.1069
▁l’énergie	-11.107
▁certainty	-11.1074
▁ratifié	-11.1075
▁écoles	-11.1077
-related	-11.108
▁modified	-11.1081
▁entered	-11.1082
▁affirmer	-11.1083
▁Certes	-11.1085
▁contributed	-11.1089
▁post-	-11.1094
▁-B4	-11.1096
▁emphasised	-11.1096
▁weight	-11.1096
▁prenne	-11.1096
▁reflected	-11.1097
▁wording	-11.1097
gar	-11.1099
▁cité	-11.1101
▁legitimacy	-11.1101
-free	-11.1107
▁Tra	-11.1107
▁Macedonia	-11.1112
▁vast	-11.1113
▁finir	-11.1122
▁encourageant	-11.1123
▁refuser	-11.1127
▁externe	-11.1128
▁satisfaisante	-11.1136
▁400	-11.1142
▁succeeded	-11.1143
▁biggest	-11.1144
▁c'était	-11.1144
▁unnecessary	-11.1144
▁BCE	-11.1145
▁d'évaluation	-11.1147
▁justify	-11.1149
▁recettes	-11.1154
option	-11.1155
▁night	-11.116
▁appliquée	-11.1169
▁après-midi	-11.1171
▁Baltique	-11.1176
▁i.e.	-11.1176
▁l’économie	-11.118
▁espère	-11.1181
▁l'intervention	-11.1187
▁consequence	-11.1193
▁empêche	-11.1197
▁Ré	-11.12
▁s'agissait	-11.1208
▁eastern	-11.1208
▁d'échange	-11.1209
▁suédoise	-11.1214
▁file	-11.1214
▁MM.	-11.1219
▁demandent	-11.1224
▁familiale	-11.1224
▁Kinnock	-11.1224
▁crédible	-11.1224
▁servi	-11.1228
▁préjudice	-11.123
▁recourir	-11.123
▁instant	-11.123
▁manifest	-11.1235
▁unilateral	-11.1235
▁l'I	-11.1236
▁detriment	-11.1236
ong	-11.1246
ology	-11.1248
▁evident	-11.1251
exploitation	-11.1252
▁candidat	-11.1254
▁Rural	-11.1257
▁exercé	-11.1257
▁inquiétude	-11.1262
▁Denmark	-11.1262
▁Madrid	-11.1262
▁book	-11.1264
ndre	-11.1266
▁affecting	-11.1267
▁disent	-11.127
▁jeunesse	-11.1273
▁rapporteur's	-11.1277
▁autorise	-11.1277
ppuyer	-11.1278
▁d'amendements	-11.1282
arité	-11.1285
▁summer	-11.1285
▁espérer	-11.1289
▁l'autorité	-11.129
▁negotiated	-11.129
échec	-11.13
culture	-11.13
▁orale	-11.1301
▁whereas	-11.1301
2004	-11.1312
▁beef	-11.1312
▁Paris	-11.1313
▁dangereuses	-11.1315
▁adjustment	-11.1316
▁absolue	-11.1317
lock	-11.1317
▁monopole	-11.1322
▁Son	-11.1326
▁fondé	-11.1327
▁d'appliquer	-11.1333
▁quelconque	-11.1333
euro	-11.1333
▁l'expérience	-11.1334
▁33	-11.1348
▁l’élargissement	-11.1351
▁jugement	-11.1354
▁undertakings	-11.1356
▁perfect	-11.1356
▁removed	-11.1359
▁presenting	-11.1363
▁Civil	-11.1365
▁conçu	-11.1365
▁identique	-11.1365
▁Monti	-11.1368
▁abolition	-11.1371
▁Parliamentary	-11.1372
-A	-11.1375
▁Authority	-11.1376
▁passion	-11.138
▁reaching	-11.1381
ération	-11.1385
▁Like	-11.139
▁veille	-11.139
▁utmost	-11.1393
000	-11.1395
12	-11.1396
▁bénéficiaires	-11.1397
▁dispositif	-11.1398
▁Association	-11.1403
▁construct	-11.1404
▁indépendant	-11.1404
▁threshold	-11.1409
équ	-11.1411
▁uniforme	-11.1413
▁bénéficie	-11.1414
▁quatrième	-11.1415
▁Slovakia	-11.1415
▁reservations	-11.1419
▁dites	-11.1423
▁offering	-11.1424
▁dirai	-11.1425
▁greenhouse	-11.1426
▁infraction	-11.1426
▁healthcare	-11.1426
▁camp	-11.1427
▁bus	-11.1431
▁bureaucratique	-11.1434
▁l'union	-11.1435
▁fictif	-11.1437
▁expansion	-11.1439
▁deeply	-11.1441
▁séjour	-11.1442
▁substantielle	-11.1446
▁insufficient	-11.1448
▁sought	-11.145
▁Danemark	-11.1453
▁sake	-11.1454
▁regulate	-11.1456
Européen	-11.1458
▁stimuler	-11.1459
▁ruling	-11.1459
▁concrètement	-11.1462
▁voudrions	-11.1464
▁supplementary	-11.1465
▁afraid	-11.147
▁l’heure	-11.1478
▁incorporated	-11.1479
▁d'examiner	-11.1486
▁d'augmenter	-11.1486
▁aspirations	-11.1486
▁country's	-11.1487
▁l'Espagne	-11.1492
▁airlines	-11.1492
▁mettant	-11.1498
pha	-11.1499
▁exiger	-11.1499
▁ecological	-11.1503
▁fournisseur	-11.1503
▁Joint	-11.1509
▁l'E	-11.1519
▁regarded	-11.152
É	-11.152
▁exprimées	-11.1522
▁instamment	-11.1525
▁Any	-11.1532
▁mother	-11.1533
▁negotiate	-11.1535
▁hence	-11.1543
▁faiblesse	-11.1545
▁citizenship	-11.1548
▁die	-11.1557
▁everybody	-11.1558
▁étrangers	-11.1559
UE	-11.156
▁remédier	-11.1564
▁d'immigration	-11.1564
work	-11.1565
▁garantissant	-11.157
ncienne	-11.1572
▁l'avez	-11.1573
▁Blair	-11.1581
▁d’avoir	-11.1582
▁watch	-11.1592
▁command	-11.1592
06	-11.1595
▁Quoi	-11.1597
▁battle	-11.1603
▁demonstration	-11.1609
▁subsiste	-11.1609
ologique	-11.1613
▁evaluate	-11.1614
EN	-11.1615
▁women's	-11.1618
▁racism	-11.1621
▁fairly	-11.1622
▁flag	-11.1626
Q	-11.1629
écu	-11.1631
apprentissage	-11.1631
▁chaleureusement	-11.1631
▁changé	-11.1631
▁appris	-11.1631
▁sûreté	-11.1633
▁chargée	-11.1634
▁croissant	-11.1636
▁Air	-11.1636
▁Nigeria	-11.1637
▁extrême	-11.1637
▁36	-11.1641
▁leçons	-11.1642
▁souffrance	-11.1642
▁convaincue	-11.1644
▁pourcentage	-11.1648
▁durabilité	-11.1648
▁d'amendement	-11.1649
▁réduite	-11.1651
▁chain	-11.1657
▁massacre	-11.1659
▁honte	-11.1659
▁Ju	-11.1662
▁solid	-11.1663
▁plafond	-11.1665
▁pouvant	-11.1665
▁privilege	-11.1665
▁espèces	-11.1665
▁rappel	-11.1667
▁obtained	-11.1669
▁turque	-11.1671
▁jusqu'ici	-11.1671
▁G20	-11.1675
▁inévitable	-11.1676
▁VI	-11.1676
▁rejette	-11.1679
▁pact	-11.168
▁targeted	-11.168
▁télé	-11.1681
▁l'exclusion	-11.1682
-cadre	-11.1683
▁film	-11.1689
▁blame	-11.1699
▁sustain	-11.17
▁condamnation	-11.1704
▁leaving	-11.1705
▁contribuent	-11.1705
▁incidence	-11.1706
▁raising	-11.1708
▁transnational	-11.171
▁d’information	-11.1711
war	-11.1713
▁EU’s	-11.1714
▁échec	-11.1714
▁Follow	-11.1716
▁Slovenia	-11.1716
▁évolue	-11.1716
▁combine	-11.1721
▁fermeture	-11.1722
▁constat	-11.1725
-vous	-11.1725
▁(Parliament	-11.1727
▁tourist	-11.1727
▁situé	-11.1729
page	-11.173
ET	-11.1737
▁différ	-11.1737
▁shift	-11.1738
kin	-11.1745
▁citoyenneté	-11.1745
▁excluded	-11.1746
▁engagé	-11.1746
▁attribu	-11.1747
▁Burma	-11.175
▁Tourism	-11.175
▁l'excellent	-11.1751
berg	-11.1755
▁l'harmonisation	-11.1755
▁prestation	-11.1755
IT	-11.1761
▁minimales	-11.1762
▁devise	-11.1768
▁consacrer	-11.1768
▁fixe	-11.1773
▁manifestement	-11.1776
▁match	-11.1778
▁struggle	-11.1778
▁vitesse	-11.1784
▁smaller	-11.1785
bb	-11.1788
▁soulève	-11.179
polit	-11.1791
40	-11.1794
▁stipulat	-11.1795
institutionnelle	-11.1799
▁banana	-11.1802
▁engager	-11.1805
▁entail	-11.1807
▁voulais	-11.1812
▁ordinary	-11.1818
▁guère	-11.1818
▁franc	-11.1818
▁employers	-11.1825
▁recognize	-11.1835
▁indiquer	-11.1835
▁treaties	-11.1836
▁appui	-11.1837
Europe	-11.1841
▁equ	-11.1843
▁Bi	-11.1844
▁Ver	-11.1844
▁retrouver	-11.1848
▁palestinienne	-11.1851
▁élargie	-11.1851
▁fallait	-11.1855
▁coordonnée	-11.1857
▁autorité	-11.1858
▁évoquer	-11.1861
▁tort	-11.1861
▁York	-11.1864
▁voyons	-11.1864
▁Ou	-11.1868
parti	-11.1869
▁intellectuelle	-11.1869
▁dramatique	-11.1869
▁electoral	-11.1869
▁calm	-11.1872
▁Industry	-11.1875
▁Europe’s	-11.1878
▁scandale	-11.1878
▁Chaque	-11.1885
▁coll	-11.1886
▁résistance	-11.1887
izing	-11.1889
▁traduit	-11.1892
▁formelle	-11.1895
ifiant	-11.1898
▁occidentaux	-11.1898
▁credible	-11.1904
▁disabled	-11.1904
initi	-11.1906
▁l'enseignement	-11.191
▁l’égalité	-11.1912
▁wind	-11.1915
stitutionnelles	-11.1916
▁Yugoslavia	-11.192
▁ambitieuse	-11.1921
▁qu'avec	-11.1921
▁contrast	-11.1921
▁l’égard	-11.1922
▁armed	-11.1922
▁digne	-11.1923
▁portent	-11.1923
ccélér	-11.1927
▁necessarily	-11.1927
▁librement	-11.1928
▁revised	-11.1935
▁von	-11.1941
▁formula	-11.1942
▁showing	-11.1945
▁relate	-11.1946
▁criminels	-11.1947
▁pousse	-11.1952
tting	-11.1953
approche	-11.1954
▁Frontex	-11.1956
▁bureaucratic	-11.1958
I)	-11.1959
▁Milosevic	-11.1962
▁unanime	-11.1962
▁bord	-11.1963
▁répression	-11.1964
▁jointly	-11.1965
▁universel	-11.1965
▁combined	-11.1968
▁restriction	-11.1971
▁investir	-11.1972
▁medium	-11.1973
▁puissant	-11.1976
25	-11.1978
éducation	-11.1984
▁outstanding	-11.1985
▁Telle	-11.1992
▁politic	-11.1993
▁Grâce	-11.1997
▁pleasure	-11.1997
In	-11.1998
▁entamé	-11.2003
▁Tunisia	-11.2008
▁shortcomings	-11.2008
▁Well	-11.2011
▁discover	-11.2014
évaluation	-11.202
▁aujourd'	-11.202
▁numérique	-11.202
tag	-11.2025
stream	-11.2028
▁patient	-11.2029
▁surprised	-11.203
▁rapprocher	-11.2032
▁concret	-11.2038
▁neuf	-11.2038
▁puisqu'il	-11.2039
équipe	-11.204
▁exempt	-11.2041
▁aéroports	-11.2045
mble	-11.2048
▁Office	-11.2049
▁declare	-11.205
û	-11.206
▁pluralism	-11.2061
▁shock	-11.2061
▁Déclaration	-11.2061
▁rigid	-11.2061
▁approuvée	-11.2062
▁saisi	-11.2063
▁world's	-11.2064
▁élevées	-11.2067
introduction	-11.207
▁d'aider	-11.2072
▁agence	-11.2076
▁l'affaire	-11.2078
quête	-11.2079
▁organiser	-11.208
▁d'encourager	-11.2084
▁distorsion	-11.2084
▁Sudan	-11.2086
▁ethical	-11.2088
▁investigate	-11.209
▁repeatedly	-11.2094
▁qu’a	-11.2095
▁étions	-11.2095
▁décisionnel	-11.21
▁sacrifice	-11.2102
▁Macédoine	-11.2108
▁instruct	-11.2108
▁examined	-11.2111
▁déterminant	-11.2114
▁approfondi	-11.2115
▁Hong	-11.2115
▁signalé	-11.2119
▁a.m.	-11.2121
▁48	-11.2124
▁nourri	-11.2126
▁prenons	-11.2127
▁syndicat	-11.2131
▁critère	-11.2132
▁undertake	-11.2134
▁maxim	-11.2135
▁réservé	-11.2143
▁nearly	-11.2151
▁retrouve	-11.2153
▁Palestiniens	-11.2155
▁d'aucun	-11.2155
▁engine	-11.2156
▁cruel	-11.2157
▁susceptible	-11.2161
▁recycl	-11.2162
▁l’objet	-11.2167
▁aliment	-11.2169
▁drafting	-11.2172
▁schedule	-11.2173
▁Free	-11.2174
▁Députés	-11.2179
▁opérationnel	-11.2185
▁d'activité	-11.2185
▁coordonner	-11.2191
▁shame	-11.2191
▁quo	-11.2191
▁feront	-11.2194
▁authorisation	-11.2195
ifying	-11.2195
▁federal	-11.2197
hand	-11.2197
▁Helsinki	-11.2202
▁frappé	-11.2202
établissement	-11.2208
▁d'intervention	-11.2208
▁composant	-11.2208
placing	-11.2211
▁s'oppose	-11.2214
▁partageons	-11.2217
▁stance	-11.2219
▁constamment	-11.222
important	-11.2225
▁Hussein	-11.2226
ruct	-11.2228
▁expressing	-11.2229
▁150	-11.2233
▁bureau	-11.2237
▁transitoire	-11.2239
▁DG	-11.2239
▁utilise	-11.2246
▁l'Irak	-11.225
▁unemployed	-11.2256
▁L’Union	-11.2257
▁Américains	-11.2268
▁broader	-11.2271
▁foster	-11.2274
▁l'acquis	-11.2274
▁journalistes	-11.2275
ecommunications	-11.228
▁suspended	-11.2282
▁nuit	-11.2284
▁Therefore	-11.2284
▁bearing	-11.2284
▁engendre	-11.2286
▁Slovaquie	-11.2292
▁attentivement	-11.2293
▁productive	-11.2293
▁50%	-11.2295
▁encouragé	-11.2298
▁trompe	-11.2298
▁fusion	-11.2298
▁educational	-11.2299
▁collaborer	-11.2302
▁embryo	-11.2303
▁turned	-11.2303
▁constitué	-11.2304
▁transpose	-11.2306
▁d'ordre	-11.2306
▁intéressante	-11.2318
Y	-11.232
▁progressivement	-11.232
▁widespread	-11.2322
OP	-11.2325
▁planification	-11.2325
▁coalition	-11.2328
▁embargo	-11.2328
▁percentage	-11.2328
▁salariés	-11.2328
▁automatique	-11.2334
▁presentation	-11.2337
▁Every	-11.2338
▁veto	-11.234
▁voient	-11.2341
▁hardly	-11.2342
▁posent	-11.2351
▁fresh	-11.2352
▁economically	-11.2356
▁heure	-11.2358
▁biodiversity	-11.2364
▁biodiversité	-11.2364
▁printemps	-11.2364
▁refusé	-11.2373
▁preference	-11.2378
▁ratify	-11.2382
▁morale	-11.2388
▁34	-11.2397
opportunité	-11.2398
▁volet	-11.2405
espèce	-11.2406
▁d'introduire	-11.2406
▁passée	-11.2408
▁modifiée	-11.2409
▁below	-11.2412
▁négocié	-11.242
▁Michel	-11.2425
▁éthique	-11.2425
▁arabe	-11.2425
▁fourth	-11.2425
▁terminé	-11.2425
▁merit	-11.2428
▁l’occasion	-11.2431
▁fiscalité	-11.2431
▁liability	-11.2433
▁Day	-11.2437
▁Freedom	-11.2443
▁penalties	-11.2443
▁warmly	-11.2444
▁fix	-11.2449
autonomie	-11.2461
▁intense	-11.2462
▁nous-mêmes	-11.2462
▁journée	-11.2467
▁swift	-11.2467
éclair	-11.2467
▁transmettre	-11.2469
▁Compte	-11.2472
▁plain	-11.2473
▁track	-11.2473
▁tough	-11.2477
▁révolution	-11.2477
▁modalités	-11.2479
▁spécifiquement	-11.249
▁légère	-11.2492
▁précaution	-11.2492
▁tackling	-11.2492
▁announce	-11.2493
▁unilatérale	-11.2497
▁Most	-11.2497
▁précision	-11.2504
▁fewer	-11.251
▁instaurer	-11.251
▁octroyé	-11.251
▁repeated	-11.2511
▁broadcast	-11.2516
▁alter	-11.2518
▁compétent	-11.2518
▁rid	-11.2519
▁subsidi	-11.2519
▁diminuer	-11.2523
▁jouent	-11.2525
▁Maroc	-11.2531
▁douanière	-11.2535
▁l'exemple	-11.2535
▁libération	-11.2535
▁législature	-11.2535
-wide	-11.2535
▁fassent	-11.2536
▁unfortunate	-11.2537
▁armée	-11.2542
▁attract	-11.255
▁fan	-11.2552
▁qu'aux	-11.2553
▁partager	-11.2558
▁Washington	-11.2559
▁category	-11.2559
▁transatlantic	-11.2559
▁tariff	-11.2559
long	-11.256
▁annuelle	-11.2568
(1)	-11.2568
▁remplace	-11.257
▁expertise	-11.2573
▁(L	-11.2577
▁pluriannuel	-11.2578
▁sucre	-11.258
▁derogation	-11.2587
lève	-11.2588
60	-11.2589
▁d'enquête	-11.2591
▁médical	-11.2596
▁Laeken	-11.2596
loqu	-11.2599
▁acquire	-11.2602
▁suggère	-11.2602
▁entraîné	-11.2609
▁côte	-11.2609
▁enhanced	-11.261
▁losses	-11.2612
▁cesser	-11.2614
illusion	-11.2614
▁alliance	-11.2615
▁mainte	-11.2618
▁restricted	-11.2622
▁uncertainty	-11.2627
▁village	-11.2627
▁became	-11.2627
▁Islamic	-11.2629
▁Parmi	-11.263
▁42	-11.263
▁suédois	-11.2633
▁soulever	-11.2633
PC	-11.2635
▁correction	-11.2635
▁compete	-11.2637
▁city	-11.2643
mont	-11.2645
▁Clearly	-11.2646
▁préoccupant	-11.2652
▁SIS	-11.2652
▁Yes	-11.2655
▁rétablir	-11.2658
▁widely	-11.266
▁gratitude	-11.2664
▁garantit	-11.2665
▁Albania	-11.2665
registre	-11.2669
▁Geneva	-11.2671
▁apparu	-11.2671
▁club	-11.2671
▁tiré	-11.2672
▁milliard	-11.2672
▁dictatorship	-11.2677
CE	-11.2682
installation	-11.2683
▁échelle	-11.2683
ifiable	-11.2684
▁English	-11.2689
▁EMU	-11.2689
▁depriv	-11.2691
▁occurred	-11.2696
▁(article	-11.2698
▁correspondant	-11.2701
CR	-11.2701
▁dictature	-11.2702
▁dictate	-11.2708
▁Genève	-11.2708
▁OLAF	-11.2708
▁Morocco	-11.2708
▁détenu	-11.2708
▁exceptionnelle	-11.2708
▁applaud	-11.2713
▁aircraft	-11.2714
▁army	-11.2715
▁earn	-11.2715
▁game	-11.2715
▁freely	-11.2716
▁gradually	-11.2716
▁condemned	-11.272
▁Espagne	-11.2721
▁expensive	-11.2721
▁demandeurs	-11.2729
▁fourniture	-11.2729
▁contenter	-11.2729
▁devienne	-11.2735
▁undertaking	-11.2737
emprunt	-11.2739
▁regulated	-11.2744
▁explained	-11.2745
▁minimis	-11.2747
▁coast	-11.2758
▁grecque	-11.2763
▁assemblée	-11.2769
▁contrairement	-11.2775
▁collection	-11.2778
▁2015	-11.2779
▁absurd	-11.278
▁enceinte	-11.2783
▁receiving	-11.279
▁informal	-11.2792
&#x02BC;	-11.2796
▁Swoboda	-11.2796
▁drafted	-11.2799
▁wh	-11.28
▁l'octroi	-11.28
▁estimé	-11.2801
▁inquiétant	-11.2802
▁marche	-11.2804
▁demographic	-11.2809
▁Har	-11.2809
▁violate	-11.281
▁logical	-11.2812
▁écouté	-11.2815
▁unanimous	-11.282
wo	-11.282
▁nonetheless	-11.2827
back	-11.2828
▁ceiling	-11.2829
▁confine	-11.2837
▁vigilant	-11.284
▁causing	-11.284
▁Afin	-11.2846
▁Frattini	-11.2846
▁consolider	-11.2846
▁secrétaire	-11.2846
économie	-11.2849
▁assisté	-11.2851
▁outset	-11.2854
▁révélé	-11.2855
▁noise	-11.2858
▁supprimé	-11.2859
▁sovereign	-11.2865
▁regardless	-11.2867
▁défendu	-11.2871
▁douane	-11.2872
▁occupé	-11.2883
▁abstenu	-11.2885
▁masse	-11.2886
▁appointment	-11.2887
▁95	-11.2897
▁procurement	-11.2903
▁proposons	-11.2904
▁frank	-11.2904
▁condamner	-11.2906
▁îles	-11.291
▁d'accueil	-11.2912
▁urgente	-11.2919
▁turning	-11.292
▁failing	-11.292
▁Investment	-11.2923
▁n'importe	-11.2923
▁donnent	-11.2925
▁Obviously	-11.2929
▁aborde	-11.2933
▁raw	-11.2935
▁borne	-11.2938
▁Danube	-11.2942
▁l’amendement	-11.2942
▁n'é	-11.2947
▁incorporate	-11.295
regulation	-11.2954
▁mondiaux	-11.2955
▁procédé	-11.2957
▁listened	-11.2959
ological	-11.2963
▁négoci	-11.2964
▁reflection	-11.2966
Alliance	-11.2967
▁compliqué	-11.2968
▁dégâts	-11.2968
▁transformer	-11.2971
▁diffusion	-11.2974
▁voilà	-11.2974
▁décisif	-11.2974
▁exert	-11.2977
▁objet	-11.298
▁composé	-11.2981
▁extraordinary	-11.2987
▁programmation	-11.2987
▁Oui	-11.2992
▁elderly	-11.2993
▁began	-11.2994
▁logement	-11.2998
▁certification	-11.3
▁rapprochement	-11.3001
▁manufacture	-11.3012
▁engaged	-11.3018
▁souverain	-11.3019
▁l'instar	-11.3019
▁porté	-11.3023
▁Syria	-11.3025
▁invitation	-11.3026
▁souffrent	-11.3026
▁lorsqu'elle	-11.3026
▁supranational	-11.3032
▁ciblé	-11.3032
▁journalists	-11.3032
▁comparison	-11.3032
▁Other	-11.3033
▁Lituanie	-11.3038
▁l’objectif	-11.3038
▁situe	-11.3042
▁financed	-11.3049
▁observed	-11.3051
▁Barnier	-11.3051
▁loyal	-11.3051
▁structurelle	-11.3056
▁compétitif	-11.3058
▁règne	-11.3058
▁clarifie	-11.3059
08	-11.306
/1999	-11.3064
▁portugaise	-11.3069
▁fur	-11.3072
▁potentielle	-11.3074
▁dépensé	-11.3074
▁imposées	-11.3075
▁basically	-11.3075
▁élargi	-11.3076
essai	-11.3081
▁interprétation	-11.3084
▁intervenu	-11.3094
▁l'exportation	-11.3097
▁tribute	-11.3097
▁adhere	-11.3098
▁predict	-11.3105
▁qu'est	-11.3109
▁déséquilibre	-11.311
▁III	-11.3116
▁killed	-11.3116
pression	-11.3122
▁Bolkestein	-11.3123
▁beneficial	-11.3129
▁bilatéraux	-11.3129
▁tribunaux	-11.3129
▁REACH	-11.3136
nger	-11.3136
xi	-11.3137
mètre	-11.3143
Autriche	-11.3144
▁deploy	-11.3149
▁allusion	-11.3149
▁recul	-11.3149
▁congratulations	-11.3155
▁necessity	-11.3155
▁s'efforce	-11.3155
▁adaptée	-11.3158
▁paradox	-11.3162
▁hommage	-11.3162
▁dommage	-11.3167
▁Poettering	-11.3168
▁brut	-11.317
▁spring	-11.3171
▁inspire	-11.3173
/02	-11.3179
▁Nonetheless	-11.3181
▁throw	-11.3183
IN	-11.3185
▁petition	-11.3185
▁favorise	-11.3186
▁emphasize	-11.3188
▁territories	-11.3188
▁Face	-11.3188
▁saine	-11.3189
échéance	-11.319
▁occidentale	-11.3194
▁rubrique	-11.3195
▁l'Inde	-11.3195
▁génétiquement	-11.3196
▁l’en	-11.3196
▁cohérent	-11.3199
▁flu	-11.3201
▁d'enfants	-11.3201
▁deuxièmement	-11.3208
▁n'aura	-11.3214
▁London	-11.3221
▁venons	-11.3221
ocrat	-11.3221
▁broke	-11.3221
(2)	-11.3222
cket	-11.323
▁bénéfice	-11.3231
▁contamination	-11.3234
▁fiscaux	-11.3241
▁abstained	-11.3242
▁éventuellement	-11.3247
▁auteurs	-11.3249
▁Comp	-11.325
▁félicitations	-11.3254
▁s'agisse	-11.3254
▁spécialement	-11.3256
range	-11.3259
▁supplement	-11.3259
▁nine	-11.326
▁circonscription	-11.326
▁impliquant	-11.326
▁démocratisation	-11.3267
▁registre	-11.3268
▁popular	-11.3274
▁Malte	-11.3274
▁l'Iran	-11.3274
▁Soviet	-11.328
▁Iraqi	-11.3287
▁explor	-11.3287
▁supplies	-11.3287
▁parallel	-11.3287
utilisat	-11.3288
▁l’adoption	-11.3293
▁ancien	-11.3307
▁rassemble	-11.3307
▁agisse	-11.3307
▁frequently	-11.3312
▁prudence	-11.3313
ium	-11.3316
▁réussir	-11.3316
▁surface	-11.3319
▁prevented	-11.332
▁liaison	-11.332
▁m’a	-11.3321
▁drivers	-11.3321
incitation	-11.3323
▁search	-11.3325
▁insuffisant	-11.3326
▁vehicle	-11.3328
▁faux	-11.3329
▁foi	-11.3329
▁justifiée	-11.333
▁Palacio	-11.3333
▁l'échange	-11.3334
▁expliqué	-11.3336
▁améliorée	-11.3338
▁Declaration	-11.334
▁Brazil	-11.334
▁Labour	-11.334
▁d'armes	-11.3341
▁établissant	-11.3348
▁ça	-11.3353
▁Algeria	-11.3353
rait-il	-11.3354
▁race	-11.3356
▁chute	-11.3356
▁radicale	-11.3358
▁Chechnya	-11.336
▁d'élaborer	-11.336
▁troops	-11.336
▁étudiants	-11.336
viv	-11.336
▁disponible	-11.3361
▁censé	-11.3365
▁cible	-11.3366
▁nobody	-11.3367
▁D'	-11.3368
▁cache	-11.3371
▁Year	-11.3373
▁d'après	-11.3373
▁divide	-11.3376
▁approuve	-11.338
▁l'instrument	-11.3382
▁noon.	-11.3383
▁détention	-11.3384
▁sending	-11.3384
▁accru	-11.3384
▁IGC	-11.3387
▁sincerely	-11.3387
▁connue	-11.3389
▁puni	-11.3389
▁Birmanie	-11.3393
▁rejection	-11.3396
▁l'entreprise	-11.3397
▁éliminer	-11.34
▁admettre	-11.3401
▁pursued	-11.3402
▁officiel	-11.3402
▁43	-11.3405
▁l'extérieur	-11.3407
▁Libya	-11.3407
▁arising	-11.3409
▁accurate	-11.3413
▁cinquième	-11.3413
▁décisive	-11.3413
▁entamer	-11.3413
inflation	-11.3428
new	-11.3437
▁rendent	-11.3438
▁d'éducation	-11.3438
▁ferons	-11.3441
▁profondeur	-11.3444
▁salaire	-11.3447
▁soutiennent	-11.3447
▁subvention	-11.345
▁10%	-11.3456
▁dégager	-11.3461
▁s’en	-11.3463
▁modernise	-11.3463
▁employés	-11.3464
▁ferai	-11.3464
▁réagi	-11.3467
▁38	-11.3467
▁utilisateurs	-11.3467
▁envoyer	-11.3467
▁certifi	-11.3467
▁shortly	-11.348
▁rigorous	-11.3481
▁n’en	-11.3486
▁drink	-11.3487
▁déployés	-11.3487
▁Eurostat	-11.3487
▁Also	-11.3489
▁amélioré	-11.349
ritten	-11.3491
▁applique	-11.3494
▁provisoire	-11.3494
▁drop	-11.3494
employ	-11.3495
▁entrée	-11.3499
▁Parallèlement	-11.3501
▁accompanied	-11.3501
▁débouche	-11.3501
▁dominant	-11.3502
▁president	-11.3507
▁emerging	-11.3508
▁sinon	-11.3511
path	-11.3512
▁estimate	-11.3512
▁tunnel	-11.3514
▁congratulating	-11.3521
▁kilo	-11.3529
commun	-11.3529
▁Decision	-11.353
Albanie	-11.3535
▁banking	-11.3547
▁collapse	-11.3548
▁reçoivent	-11.3548
▁éprouv	-11.3548
merge	-11.3551
appe	-11.3554
▁généraux	-11.3555
existence	-11.3557
▁expert	-11.3559
▁bénéfique	-11.3562
▁compléter	-11.3569
▁approximately	-11.3569
▁visé	-11.3569
▁organe	-11.357
▁alongside	-11.3572
▁contraintes	-11.3572
▁pal	-11.3574
▁m'en	-11.3576
▁decline	-11.3576
▁divided	-11.3581
▁newspaper	-11.3582
▁opérationnelle	-11.3583
rreur	-11.3584
▁triste	-11.3588
▁accomplir	-11.3588
▁l'attitude	-11.3589
▁enlarged	-11.3589
▁l’utilisation	-11.3589
▁harmonisé	-11.3589
▁insisté	-11.3594
▁exclusively	-11.3596
▁exacerb	-11.3596
▁surveiller	-11.3596
▁l'essentiel	-11.361
▁birth	-11.361
▁keen	-11.361
▁hydr	-11.361
▁talked	-11.3611
▁Great	-11.3617
▁exprime	-11.362
▁déterminé	-11.3623
▁black	-11.3623
▁persuadé	-11.3623
▁rémunération	-11.3623
▁constatons	-11.3626
▁Mugabe	-11.363
▁lancement	-11.3631
clav	-11.3633
▁réglé	-11.3644
▁efficiently	-11.3647
▁Etats	-11.3649
▁dirigé	-11.3651
▁imbalance	-11.3651
▁rejoindre	-11.3658
▁maîtris	-11.3658
▁déçu	-11.3658
▁oppress	-11.3665
▁deviennent	-11.3677
▁dépassé	-11.3685
▁inégalités	-11.3697
▁harmonised	-11.3703
▁purchase	-11.3706
▁évidente	-11.3706
▁procure	-11.3709
▁absurde	-11.3709
▁l'actuel	-11.3709
win	-11.3711
▁rythme	-11.3713
▁capture	-11.3714
▁yourself	-11.372
▁soumet	-11.3721
indique	-11.3724
load	-11.3725
▁amené	-11.3726
▁concrétiser	-11.3728
appelle	-11.373
▁régi	-11.3734
▁Objective	-11.3734
▁crops	-11.3734
▁s'engager	-11.3735
▁marin	-11.3738
▁northern	-11.374
RE	-11.3746
▁requête	-11.3747
▁Education	-11.3747
▁Statute	-11.3747
▁gouvern	-11.375
▁advise	-11.3753
▁s'agissant	-11.3754
▁listening	-11.3756
▁strictly	-11.376
▁resource	-11.3761
▁attendu	-11.3762
année	-11.3765
▁renvoi	-11.3768
▁friendly	-11.377
▁banque	-11.3776
-level	-11.3782
▁insuffisante	-11.3783
▁satisfaisant	-11.3792
▁usual	-11.3793
▁demanderai	-11.3798
entreprise	-11.3798
▁Women	-11.3798
▁identifié	-11.3803
▁routière	-11.3803
▁Cotonou	-11.381
▁guard	-11.381
▁bois	-11.3817
▁Est-ce	-11.3817
▁S'agissant	-11.3817
▁disappointed	-11.3817
▁combler	-11.3817
▁bill	-11.3818
▁l'approbation	-11.3821
▁trans-European	-11.3824
▁sharing	-11.3824
▁experiencing	-11.3831
▁tenons	-11.3837
▁Petitions	-11.3838
igh	-11.3839
▁rising	-11.3842
▁Jusqu'	-11.3845
▁coherence	-11.3845
▁begun	-11.3845
▁accélérer	-11.3846
innovation	-11.3848
▁ultrapériphéri	-11.3852
▁Otherwise	-11.3852
▁troupes	-11.3852
▁géré	-11.3855
▁emission	-11.3856
▁isolé	-11.3856
▁unanimity	-11.3859
▁quarter	-11.3864
▁computer	-11.3866
▁désaccord	-11.3866
▁distinguish	-11.3873
▁stick	-11.3873
organisme	-11.3874
octroi	-11.3876
▁formulate	-11.388
▁requiert	-11.388
▁revolution	-11.3881
▁maximale	-11.3881
▁Certain	-11.3883
▁figurent	-11.3886
▁incompatible	-11.3887
▁l'Agenda	-11.3887
▁surrounding	-11.3887
▁settle	-11.3887
▁Reform	-11.3892
▁Trans	-11.3899
▁l’autre	-11.3901
▁underlying	-11.3902
▁constante	-11.3904
▁nôtre	-11.3908
RA	-11.3911
▁Cohesion	-11.3915
▁jurisdiction	-11.3915
▁ordinaire	-11.3915
▁His	-11.3916
▁avance	-11.3916
▁marked	-11.3923
▁feu	-11.3927
▁clandestine	-11.3928
▁utilisant	-11.3929
▁Atlantic	-11.3936
▁voulez	-11.3939
▁proven	-11.3941
▁soutiendra	-11.3942
▁Communist	-11.3943
▁neighbourhood	-11.3943
▁stem	-11.3946
▁l'ESB	-11.3951
▁suscité	-11.3958
▁soviétique	-11.3965
▁Information	-11.3965
▁Finnish	-11.3972
▁essence	-11.3979
▁desirable	-11.3987
lusieurs	-11.3992
▁(F	-11.3992
▁passant	-11.3993
▁surplus	-11.3993
▁racist	-11.3994
▁consulted	-11.3996
▁relèvent	-11.3998
▁update	-11.4002
▁d'assurance	-11.4007
occupation	-11.4008
▁parallèlement	-11.4009
▁entrepris	-11.4009
▁sauf	-11.401
▁mur	-11.401
▁log	-11.4011
▁communiqué	-11.4014
▁quelqu'un	-11.4014
▁demandant	-11.4018
▁dream	-11.4022
▁retiré	-11.4022
▁d’Europe	-11.4027
▁quotidien	-11.4028
▁investisseurs	-11.4029
▁musulman	-11.4029
application	-11.4034
▁accompagné	-11.4036
▁threatened	-11.404
▁55	-11.4041
▁j’espère	-11.4043
▁follow-up	-11.4044
▁événement	-11.4045
NA	-11.4047
▁renoncer	-11.405
▁1991	-11.405
▁dizaines	-11.4057
▁synergie	-11.4057
▁Two	-11.4059
▁Sakharov	-11.4064
▁l’esprit	-11.4064
▁encouragement	-11.407
▁reflét	-11.4072
▁pursuan	-11.4072
accord	-11.4074
exige	-11.4075
▁multinationales	-11.4075
▁closure	-11.4079
▁consacrée	-11.4079
▁permitted	-11.408
▁stabilise	-11.4086
▁Single	-11.4086
▁genetically	-11.4086
▁UEN	-11.4088
augmentation	-11.4091
▁Tchétchénie	-11.4093
▁connected	-11.4093
▁diversification	-11.4096
▁conformité	-11.41
▁impératif	-11.41
▁l’ordre	-11.4107
▁forgotten	-11.4115
▁replaced	-11.4115
▁révèle	-11.4115
inscrire	-11.4122
▁réjouir	-11.4122
▁ball	-11.4128
▁gather	-11.4129
▁d'accroître	-11.4129
▁inadmissible	-11.4129
▁sight	-11.4135
▁étrange	-11.4135
▁quart	-11.4138
▁acceptance	-11.4141
▁d'élargissement	-11.4143
▁hospital	-11.4143
▁procedural	-11.4143
▁rigoureuse	-11.4147
▁électrique	-11.4151
▁sélection	-11.4152
▁conjointe	-11.4153
▁israélien	-11.4158
▁consistant	-11.4161
▁l’application	-11.4162
▁municipal	-11.4165
▁province	-11.4165
▁tension	-11.4168
▁n'avait	-11.4169
▁objection	-11.417
▁explique	-11.4178
▁Mercosur	-11.4179
▁examination	-11.4179
▁residence	-11.4187
▁CIG	-11.4194
▁praise	-11.4196
▁adverse	-11.4201
▁defining	-11.421
8/9	-11.4212
▁injuste	-11.4217
▁Allow	-11.4219
▁hoc	-11.422
ji	-11.4222
▁stipule	-11.4223
▁déterminée	-11.4224
▁integrity	-11.423
▁compare	-11.4232
▁classification	-11.4232
▁refused	-11.4237
▁Ministre	-11.4238
▁impetus	-11.4238
▁prostitution	-11.4238
▁participent	-11.424
▁wise	-11.425
▁categories	-11.4252
▁régulation	-11.4252
▁d’autre	-11.4255
▁assert	-11.4255
flex	-11.4257
▁consequently	-11.4259
▁controversial	-11.4259
▁Defence	-11.4259
▁norme	-11.426
▁1989	-11.4261
▁remark	-11.4262
▁ouvre	-11.4263
▁hongroise	-11.4269
▁rigueur	-11.4274
▁irakien	-11.4274
▁frappe	-11.4274
▁feuille	-11.4282
▁cat	-11.4284
▁facilité	-11.4289
▁north	-11.4291
▁l'inclusion	-11.4302
▁equivalent	-11.4303
▁uphold	-11.4305
▁flagrant	-11.4312
93	-11.4312
▁Ru	-11.4312
▁produisent	-11.4315
▁d’aide	-11.4316
▁l’agriculture	-11.432
intelligence	-11.4325
▁contributing	-11.4325
▁south	-11.4326
▁m'ont	-11.4338
▁worthy	-11.4339
▁comprennent	-11.434
▁Malta	-11.434
▁(I	-11.4343
▁Regarding	-11.4347
▁tiennent	-11.4347
▁Natura	-11.4348
▁65	-11.4349
▁helpful	-11.4352
▁essayé	-11.4355
▁communiquer	-11.4356
mak	-11.4361
-Mediterranean	-11.4362
▁découvert	-11.4362
▁imposing	-11.4362
▁bateaux	-11.4363
▁ruin	-11.4365
▁employeurs	-11.4366
▁Conservative	-11.4369
▁illustrate	-11.4369
▁reconnue	-11.437
▁accusations	-11.4377
▁characteristics	-11.4377
▁reconciliation	-11.4384
▁resumed	-11.4385
▁Criminal	-11.4392
▁l'Amérique	-11.4392
▁anglais	-11.4392
▁Cher	-11.4397
▁cigarette	-11.4399
▁slightly	-11.4406
extradition	-11.4407
▁d'impact	-11.4409
▁Forum	-11.4409
▁toxic	-11.441
impact	-11.4411
Égypte	-11.4414
▁sauver	-11.4415
▁cla	-11.4417
▁(debate)	-11.4421
▁System	-11.4421
▁coexistence	-11.4424
▁abordée	-11.4427
▁tolérance	-11.4429
▁Pack	-11.4435
▁utilisent	-11.4435
▁observé	-11.4436
▁identité	-11.4436
▁pierre	-11.4436
▁désigné	-11.4436
▁fausse	-11.4436
▁align	-11.4438
▁rating	-11.4438
▁fossil	-11.4444
▁mépris	-11.4444
▁rigour	-11.4447
▁missing	-11.4449
▁devions	-11.4449
▁fournit	-11.445
▁(débat)	-11.4451
▁hémicycle	-11.4451
▁dictator	-11.4458
n-discrimination	-11.4458
▁ambigu	-11.4458
▁l'humanité	-11.4458
▁répété	-11.4458
▁préserv	-11.4461
▁divergent	-11.4466
▁short-term	-11.4466
▁perçu	-11.4466
▁housing	-11.4466
▁accordingly	-11.4466
▁lawyer	-11.4466
▁devez	-11.4471
▁mille	-11.4473
▁counterfeit	-11.4473
▁transeuropéens	-11.4473
impose	-11.4474
▁développe	-11.4475
▁estimated	-11.4477
▁scrutiny	-11.448
▁mentionne	-11.4488
▁hautement	-11.4489
▁voisin	-11.4489
▁consulté	-11.4492
▁aérienne	-11.4494
▁install	-11.4494
▁interim	-11.4507
▁acceptée	-11.4508
▁preventive	-11.4514
obligation	-11.4518
▁disregard	-11.4518
▁Posselt	-11.4526
▁énormément	-11.4526
▁street	-11.4526
▁thousand	-11.4531
▁convince	-11.4532
▁ministère	-11.4533
▁révél	-11.4538
▁withdrawal	-11.454
▁préventive	-11.4541
▁rédaction	-11.4541
▁August	-11.4548
▁Solidarity	-11.4548
▁l'alimentation	-11.4548
▁whatsoever	-11.4548
▁MEDA	-11.4563
▁combustible	-11.4563
▁execution	-11.4563
▁Kong	-11.4567
finance	-11.4567
▁immédiat	-11.4568
▁Ceux	-11.4568
purement	-11.4569
▁coastal	-11.4571
▁indépendamment	-11.4571
▁autonome	-11.4571
harm	-11.4571
▁systematic	-11.4577
▁Friday	-11.4578
▁preliminary	-11.4578
▁perception	-11.4582
▁d'aller	-11.4586
▁distributed	-11.4588
▁biotechnologi	-11.4593
▁maintenance	-11.4593
/EC	-11.4594
▁émett	-11.4595
▁subsequent	-11.4597
▁Ben	-11.4599
▁location	-11.4601
▁virus	-11.4601
mbi	-11.4606
▁subsequently	-11.4613
▁déplacé	-11.4616
▁managing	-11.4616
▁l'inter	-11.4617
▁Who	-11.4622
▁marginalis	-11.463
▁Please	-11.4631
▁Monday	-11.4631
▁translate	-11.4632
▁blind	-11.4639
▁croyons	-11.4639
▁describe	-11.464
▁attractive	-11.4642
▁cult	-11.4642
▁l’Assemblée	-11.4646
▁prouvé	-11.4646
▁enseignement	-11.4646
▁s'agir	-11.4646
▁vaccination	-11.4649
▁nommé	-11.465
▁controlled	-11.4653
▁l'occurrence	-11.4654
▁Londres	-11.4654
▁pair	-11.4654
▁except	-11.4656
▁l'instauration	-11.4667
▁définies	-11.4671
▁integrate	-11.4675
▁gla	-11.4676
▁OGM	-11.4677
▁resistance	-11.4678
▁reprend	-11.4679
▁80%	-11.4679
▁Far	-11.4682
▁cancel	-11.4683
enthousiasme	-11.4684
▁effectuer	-11.4687
▁investors	-11.4688
▁publish	-11.4689
▁ouverture	-11.4695
▁Deux	-11.4695
▁march	-11.4697
▁faim	-11.4699
▁d'eau	-11.47
outermost	-11.4707
▁l’intérêt	-11.4707
▁l’intégration	-11.4707
▁lieux	-11.4707
▁examinée	-11.4709
▁Watson	-11.4715
▁intermédiaire	-11.4715
▁Han	-11.4717
▁cease	-11.472
▁Muslim	-11.4722
▁illustre	-11.4722
CC	-11.4726
▁l’éducation	-11.4728
▁convey	-11.473
▁individus	-11.4731
▁advanced	-11.4739
▁destroyed	-11.4743
▁iron	-11.4744
▁j'avais	-11.4745
▁Affaire	-11.4753
▁travaillons	-11.4754
▁commentaire	-11.4754
abandon	-11.4758
▁dépendent	-11.4759
▁losing	-11.4761
▁exerce	-11.4762
▁congé	-11.4767
▁anniversaire	-11.4768
▁woman	-11.4768
▁ferait	-11.4774
▁30%	-11.4774
▁voterons	-11.4774
▁éventuel	-11.4775
/CE	-11.478
iff	-11.4781
▁Latvia	-11.4784
appareil	-11.4784
▁préconise	-11.4784
tech	-11.4787
▁Tunisie	-11.4791
▁adhérer	-11.4791
▁compliment	-11.4791
▁d'entendre	-11.48
pens	-11.4803
▁Personne	-11.4807
▁plea	-11.4816
▁parallèle	-11.4821
▁regularly	-11.4829
▁Tribunal	-11.483
▁d'Amérique	-11.483
▁participating	-11.483
▁universities	-11.483
▁pèse	-11.4831
▁pensée	-11.4832
▁stimulate	-11.4838
▁trace	-11.4839
▁hundred	-11.485
▁bovine	-11.4853
▁banned	-11.4853
▁fermé	-11.4857
▁Through	-11.4861
▁inhabitants	-11.4869
▁Annex	-11.4869
▁s'exprimer	-11.4869
▁gaspill	-11.4869
▁Outre	-11.487
▁plaide	-11.4876
Allemagne	-11.4878
▁iranien	-11.4884
▁adapté	-11.4887
▁Wednesday	-11.4892
▁solved	-11.4892
cision	-11.4896
▁profound	-11.4907
▁twenty	-11.4907
▁probable	-11.4919
▁complément	-11.4919
▁eventually	-11.4923
▁compréhensible	-11.4923
▁fixed	-11.4928
▁d'efficacité	-11.4931
▁l'étiquetage	-11.4931
▁motivation	-11.4931
▁écho	-11.4933
▁assurément	-11.4938
▁providers	-11.4943
▁Democratic	-11.4946
▁résume	-11.4964
quo	-11.4966
▁inondations	-11.497
▁d'imposer	-11.497
▁superflu	-11.4971
▁définitif	-11.4971
▁600	-11.4972
▁étudier	-11.4973
▁détruit	-11.4978
▁hour	-11.4979
▁arrêter	-11.4983
▁poursuit	-11.4984
▁péril	-11.4989
▁40%	-11.4989
▁Lebanon	-11.4993
▁pouvons-nous	-11.5001
▁pretext	-11.5001
▁traduction	-11.5001
ough	-11.5006
▁barrières	-11.5009
▁description	-11.5009
national	-11.5009
▁frein	-11.5009
▁mère	-11.5012
▁autrichienne	-11.5012
▁impartial	-11.5016
2010	-11.5017
▁Certaines	-11.5019
▁réfléchi	-11.5024
▁hélas	-11.5025
▁tolerance	-11.5025
▁mineurs	-11.5027
▁perturb	-11.5033
▁accent	-11.5033
control	-11.5038
▁certitude	-11.5041
▁immigrés	-11.5041
▁relie	-11.5048
▁Similarly	-11.5049
▁n’avons	-11.5049
▁révisé	-11.505
▁touchées	-11.5051
▁adjust	-11.5052
AP	-11.5058
structure	-11.5062
(COD))	-11.5064
▁abroad	-11.5064
▁l'espère	-11.5064
▁montagne	-11.5064
▁J'appelle	-11.5065
DC	-11.507
▁Women's	-11.507
▁jusqu'au	-11.507
▁Brésil	-11.5072
▁mandatory	-11.5074
▁executive	-11.508
▁intérimaire	-11.508
pêche	-11.5081
▁G8	-11.5084
▁ECHO	-11.5088
▁Indonesia	-11.5088
▁d'importance	-11.5096
▁incendies	-11.5096
▁concertation	-11.5097
▁Citizens'	-11.5098
▁comparaison	-11.5104
▁l’idée	-11.5104
▁continuation	-11.5105
▁stringent	-11.5112
▁stockage	-11.5117
▁ELDR	-11.512
▁judicieux	-11.512
prime	-11.5121
▁d'arrêt	-11.5122
▁conjointement	-11.5127
▁islamique	-11.5128
▁Penda	-11.5133
▁continuous	-11.5133
▁l'espoir	-11.5136
▁papier	-11.5136
▁concurrentiel	-11.5144
▁Sarkozy	-11.5144
▁modifiant	-11.5144
▁d'évaluer	-11.5149
z-moi	-11.5152
▁d'accepter	-11.5152
▁freight	-11.5152
▁gratuit	-11.5152
▁shop	-11.5152
7%	-11.5154
▁eau	-11.5156
▁puisqu'	-11.5157
▁nordique	-11.5158
▁Code	-11.516
▁warrant	-11.5164
▁dangereuse	-11.5166
▁disparu	-11.5168
▁indicateurs	-11.517
▁Taiwan	-11.5176
▁supervisory	-11.5176
▁charbon	-11.5176
▁préférable	-11.5183
▁préservation	-11.519
▁déloyale	-11.5192
▁confuse	-11.5192
▁exigence	-11.5192
▁norm	-11.5196
▁explicitement	-11.5203
▁arrangement	-11.5207
▁44	-11.5209
▁assign	-11.5215
▁l'issue	-11.5216
▁Hence	-11.5224
▁reverse	-11.5225
▁anniversary	-11.5232
▁resolving	-11.5232
▁display	-11.5232
▁poussé	-11.5232
▁insult	-11.5233
80	-11.5236
▁BEI	-11.524
▁l'étranger	-11.5248
▁victoire	-11.5248
▁stakeholders	-11.5248
▁déroulé	-11.5248
▁intervenants	-11.5248
▁assets	-11.5248
▁échéant	-11.5256
▁résident	-11.5261
financing	-11.5262
▁complexité	-11.5263
▁OSCE	-11.5264
▁PHARE	-11.5264
▁pursuing	-11.5272
▁registration	-11.5272
▁fallu	-11.5273
▁consistency	-11.5273
▁universités	-11.5273
▁suggéré	-11.528
▁entreprendre	-11.5285
▁l'élimination	-11.5288
▁l’accès	-11.5288
▁réconciliation	-11.5288
▁vérification	-11.5288
expulsion	-11.5288
▁erroné	-11.5296
LE	-11.5299
▁d’adhésion	-11.5305
▁Rien	-11.5305
▁Dan	-11.5311
▁Liban	-11.5313
▁straight	-11.5321
▁albeit	-11.5329
▁arrière	-11.5329
▁mountain	-11.5337
▁appelons	-11.534
▁reaffirm	-11.5341
▁compose	-11.5344
▁EIB	-11.5345
▁déplacement	-11.5345
▁Finance	-11.5345
▁Sahara	-11.5345
▁totalité	-11.5351
▁affaibli	-11.5352
▁Third	-11.536
▁pharmaceutique	-11.5361
▁smooth	-11.5361
18	-11.5364
active	-11.5367
▁chômeurs	-11.537
▁veil	-11.537
DA	-11.5375
▁exécution	-11.5379
▁Chairman	-11.5386
▁d’intérêt	-11.5386
▁gravité	-11.5386
▁l'ampleur	-11.5386
▁s'attaquer	-11.5386
▁l'être	-11.539
heure	-11.5392
▁faille	-11.5394
▁l'assistance	-11.5394
▁lorsqu’il	-11.5394
▁branch	-11.5394
▁L'accord	-11.5397
▁compromet	-11.5405
▁accountability	-11.5413
▁virtue	-11.5419
▁rêve	-11.5419
▁outlined	-11.5419
▁gel	-11.542
▁répand	-11.5427
▁l'Autriche	-11.5433
▁convert	-11.5434
▁Sha	-11.5441
▁d'experts	-11.5443
▁vendredi	-11.5443
▁imperative	-11.5443
▁sentir	-11.5445
▁Syrie	-11.5451
▁organic	-11.5453
▁actors	-11.5453
▁Romanian	-11.5458
▁experiment	-11.546
▁naissance	-11.546
▁réglementé	-11.546
▁Could	-11.546
▁expressément	-11.546
▁nourriture	-11.546
article	-11.5463
sécurité	-11.5466
▁furthermore	-11.5468
MO	-11.5468
▁compagnie	-11.5469
▁d'exécution	-11.5473
▁fifteen	-11.5476
▁optimal	-11.5476
▁variety	-11.5477
▁logic	-11.5489
▁participe	-11.5492
▁Wallström	-11.5493
▁female	-11.5493
▁essaie	-11.5494
▁meantime	-11.5495
▁wall	-11.5495
▁réjouissons	-11.5497
▁prépare	-11.5499
▁(Rule	-11.5501
▁Estonia	-11.5501
▁l'extension	-11.5507
▁proactive	-11.5511
▁sincère	-11.5514
▁denied	-11.5516
▁prerequisite	-11.5517
▁saluons	-11.5518
▁exhaustive	-11.552
▁impliquées	-11.5522
▁s'engage	-11.5523
▁douze	-11.5526
▁criterion	-11.5534
arbitr	-11.5538
unanimité	-11.5539
instrument	-11.5546
▁immunity	-11.5552
élargir	-11.5553
▁issus	-11.5556
▁Reding	-11.5556
▁shortage	-11.556
▁recover	-11.5561
▁justifié	-11.5567
▁disparition	-11.5567
▁brève	-11.5575
ensemble	-11.5576
▁enfant	-11.5581
▁pharmaceutical	-11.5584
▁pratiqu	-11.5587
activité	-11.5587
▁attribué	-11.5592
▁Celle-ci	-11.5592
▁third-country	-11.5592
▁recital	-11.5592
▁voudrait	-11.5592
▁cope	-11.5593
▁législateur	-11.56
▁mercredi	-11.56
▁l'enfant	-11.56
▁tonight	-11.5601
▁traduire	-11.5609
▁étendre	-11.5609
espace	-11.5613
▁(CE)	-11.5617
▁sympathy	-11.5617
▁fifth	-11.5617
▁oublié	-11.5617
▁saurait	-11.5619
EE	-11.5622
▁policière	-11.5626
▁réaffirme	-11.5626
▁gradual	-11.5631
▁effectif	-11.5632
▁antérieur	-11.5634
▁usually	-11.5637
▁directive-cadre	-11.5641
▁conjoint	-11.5641
▁perpétré	-11.5642
▁slaughter	-11.5642
▁éloigné	-11.5642
▁partiellement	-11.5642
▁communicate	-11.5643
▁profitable	-11.5643
▁director	-11.5647
09	-11.5649
non-governmental	-11.5651
▁Suisse	-11.5652
▁apprécié	-11.5659
▁autonomy	-11.5659
▁neglect	-11.5659
▁contradictoire	-11.5659
▁confrontation	-11.566
▁c’est-à-dire	-11.5667
▁voici	-11.5671
-même	-11.5677
corp	-11.5677
▁Millennium	-11.5684
▁radioactive	-11.5684
▁vivons	-11.5685
▁closing	-11.5685
▁protège	-11.5693
▁n'aurait	-11.5697
▁procéd	-11.5699
▁Objet:	-11.5699
▁l'urgence	-11.5701
▁1%	-11.5705
▁250	-11.5708
▁l'analyse	-11.5708
▁prescription	-11.571
▁admis	-11.571
▁wave	-11.5711
▁Lomé	-11.5711
▁contrat	-11.5717
comb	-11.5718
▁cutting	-11.5724
▁biocarburants	-11.5726
▁l'UEM	-11.5729
cultural	-11.5734
▁réglementer	-11.5735
▁criminelle	-11.5741
▁Vu	-11.575
▁mémoire	-11.5752
argument	-11.576
▁caution	-11.576
engager	-11.5762
▁excessif	-11.5766
▁fate	-11.5767
(CNS))	-11.5769
▁remplacé	-11.5769
▁GMOs	-11.5769
▁privilégié	-11.5774
▁améliore	-11.5775
▁Maintenant	-11.5777
▁controversé	-11.5777
▁exclude	-11.5778
▁recyclage	-11.578
▁oriental	-11.5782
▁profond	-11.5782
▁Jarzembowski	-11.5786
▁d'exprimer	-11.5786
▁Scotland	-11.5794
▁false	-11.5794
▁attentif	-11.5794
▁faisait	-11.5796
▁halt	-11.5797
▁corriger	-11.5803
▁disastrous	-11.5803
▁fossé	-11.5803
▁bruit	-11.5805
▁hopefully	-11.5816
▁renewed	-11.582
▁d’énergie	-11.5822
▁annul	-11.5823
▁virtually	-11.5823
▁l'aspect	-11.5827
▁personnalité	-11.5828
▁fabricants	-11.5829
▁appointed	-11.5833
▁risqu	-11.5837
▁néfaste	-11.5837
▁storage	-11.5837
▁accumul	-11.5844
intermédiaire	-11.5845
DE	-11.5845
▁dollar	-11.585
▁illégal	-11.5852
2009	-11.5853
▁forecast	-11.5854
▁Iranian	-11.5857
ecretary-General	-11.5858
▁Above	-11.5863
▁productivité	-11.5864
▁pipeline	-11.5871
▁préparatoire	-11.5871
▁l'effet	-11.5872
2008	-11.5875
petit	-11.5875
▁rue	-11.5876
▁exhaust	-11.5877
▁Corbett	-11.588
▁Naturally	-11.5888
▁chercheurs	-11.589
écrire	-11.5894
ivity	-11.5895
▁autorisation	-11.5897
▁productivity	-11.5906
ij	-11.5907
▁examining	-11.5914
▁l'agenda	-11.5923
▁âge	-11.5923
'après	-11.5923
▁vous-même	-11.5923
excellent	-11.5928
▁roumain	-11.594
▁chantier	-11.5941
▁licenciement	-11.5949
▁l’immigration	-11.5949
▁C6-	-11.595
▁reviendra	-11.5954
▁l'appel	-11.5955
▁(EC)	-11.5957
▁Colombia	-11.5957
▁Moldavie	-11.5957
▁scientists	-11.5957
▁réparti	-11.5963
▁manoeuvre	-11.5966
▁privacy	-11.5966
▁collectif	-11.597
89	-11.597
▁born	-11.5971
uranium	-11.5975
▁incorrect	-11.5975
▁lundi	-11.5975
▁souvenir	-11.5976
▁Beaucoup	-11.5983
▁statistical	-11.5983
▁évalué	-11.5983
▁contenant	-11.5983
migration	-11.5991
▁précieuse	-11.5992
▁apparently	-11.5995
▁qu’on	-11.5996
/2005	-11.6001
▁damaging	-11.6001
▁l’efficacité	-11.6022
▁MEP	-11.6024
▁inquiry	-11.6035
EF	-11.6043
▁ratifier	-11.6044
▁socio-economic	-11.6044
▁journey	-11.6044
▁survive	-11.6046
▁portugais	-11.6047
▁d'assistance	-11.6051
▁intégrante	-11.6053
▁strictement	-11.6057
▁examinons	-11.6062
bol	-11.6063
▁completion	-11.6069
▁d'intervenir	-11.607
▁guise	-11.607
attache	-11.6071
▁overlook	-11.6079
▁platform	-11.6079
▁Venezuela	-11.6088
▁comitologie	-11.6088
▁everywhere	-11.6088
▁Albanian	-11.6096
▁originaire	-11.6101
▁résumé	-11.6105
▁tolerate	-11.6106
▁120	-11.6111
▁far-reaching	-11.6114
▁programming	-11.6114
▁l'âge	-11.6114
▁handling	-11.6119
▁écoulé	-11.6123
▁soldats	-11.6124
▁qu’au	-11.613
▁definitive	-11.6132
▁l'effort	-11.6132
▁John	-11.6132
ra-t-il	-11.6139
▁délocalisation	-11.614
▁d’origine	-11.614
▁interrompu	-11.6149
▁story	-11.6152
holder	-11.6156
▁donnant	-11.6167
▁Libye	-11.6167
object	-11.6167
▁champion	-11.617
▁juridiction	-11.6176
▁TACIS	-11.6185
▁Vitorino	-11.6185
▁côtière	-11.6185
▁n'étaient	-11.6185
▁réexamin	-11.6185
▁garant	-11.6185
▁UE-	-11.6186
well	-11.6186
▁joindre	-11.6188
▁Erasmus	-11.6193
ciaux-démocrates	-11.6196
▁accusé	-11.6202
▁title	-11.6202
▁Islam	-11.6212
▁l’intention	-11.6212
▁équipements	-11.6212
coup	-11.6213
▁suspens	-11.6214
▁relief	-11.6214
▁democrat	-11.6217
▁Switzerland	-11.622
▁numéro	-11.622
▁Peter	-11.622
▁Whilst	-11.6238
▁USD	-11.6245
▁propriétaire	-11.6247
▁resort	-11.6247
observation	-11.6247
▁Aujourd’hui	-11.6256
▁Liikanen	-11.6256
▁démantèlement	-11.6256
▁142)	-11.6256
▁régulier	-11.6256
▁translation	-11.6256
▁manifesté	-11.626
comprehensible	-11.6265
▁precondition	-11.6265
▁'the	-11.627
▁tissu	-11.6273
▁précieux	-11.6282
aménagement	-11.6282
▁blue	-11.6282
▁d'ajustement	-11.6283
▁repression	-11.629
▁d'empêcher	-11.6291
▁rédiger	-11.6291
▁d'Israël	-11.6299
▁nutrition	-11.63
▁encounter	-11.63
▁fréquent	-11.63
▁struck	-11.63
▁satisfy	-11.6309
▁frustration	-11.6309
▁(A5-01	-11.6311
▁qu'après	-11.6311
▁universelle	-11.6313
▁generous	-11.6318
▁inappropriate	-11.6318
▁democratically	-11.632
▁fabrication	-11.6323
▁fatal	-11.6323
▁spéculation	-11.6324
individu	-11.6326
▁l’attention	-11.6327
▁redress	-11.6327
▁accused	-11.6336
▁precautionary	-11.6336
▁benchmark	-11.6345
▁quantitative	-11.6345
▁river	-11.6346
▁viabilité	-11.6348
enseigne	-11.6354
▁Ecofin	-11.6354
▁qualitative	-11.6354
▁Oomen-Ruijten	-11.6363
▁recueilli	-11.6363
▁s'adresse	-11.6372
▁interdire	-11.6372
▁mettra	-11.6377
▁deviendra	-11.6379
▁Liberties	-11.6381
vide	-11.6383
▁autumn	-11.639
-t-on	-11.6399
▁Lehne	-11.6399
/CEE	-11.64
▁décès	-11.6412
▁explicitly	-11.6417
▁semestre	-11.6417
▁dégagé	-11.6426
▁Costa	-11.6427
▁servant	-11.6427
▁scrutin	-11.6427
▁write	-11.6427
▁vive	-11.6429
▁d'animaux	-11.6435
▁fought	-11.6435
▁semblable	-11.6435
▁tighten	-11.6435
▁appren	-11.6436
▁génétique	-11.6443
▁Institute	-11.6445
▁étroit	-11.6451
▁Mexico	-11.6454
▁vocational	-11.6454
▁Trois	-11.6454
/EEC	-11.6463
▁irregularities	-11.6472
▁fault	-11.6472
▁middle	-11.6481
▁l'ancienne	-11.6487
▁council	-11.649
▁simplified	-11.649
▁observateurs	-11.649
▁soldiers	-11.6491
▁tape	-11.6499
▁absorb	-11.6499
▁identification	-11.6499
▁pick	-11.6503
▁détaillé	-11.6504
▁vieille	-11.6504
▁sexuel	-11.6506
▁Special	-11.6508
▁east	-11.6508
▁Vietnam	-11.6517
▁cofinancement	-11.6517
▁l’encontre	-11.6517
▁Naturellement	-11.6526
ajustement	-11.6529
▁d'environnement	-11.6531
▁Médiateur	-11.6536
▁enshrined	-11.6536
▁Tak	-11.6543
DA)	-11.6543
▁Olympic	-11.6545
▁repercussions	-11.6545
▁shipping	-11.6547
▁illégaux	-11.6554
▁sensibilisation	-11.6554
▁assorti	-11.6554
▁Cohn-Bendit	-11.6563
▁admitted	-11.6565
▁Berlusconi	-11.6572
▁Slovénie	-11.6572
▁d'analyse	-11.6578
▁israélienne	-11.6581
▁Would	-11.6582
▁Globalisation	-11.6583
▁fulfilled	-11.6584
▁abstain	-11.6589
▁tué	-11.659
▁spécificité	-11.6591
▁suspicion	-11.6591
affirmation	-11.6609
▁Pat	-11.6618
▁bataille	-11.6618
▁parviendrons	-11.6618
▁enterprise	-11.6622
▁pace	-11.6623
▁statu	-11.6625
▁vécu	-11.6628
▁bande	-11.6634
▁fashion	-11.6637
▁restreint	-11.6637
▁séparation	-11.6637
▁lifelong	-11.6638
▁importé	-11.6641
prendre	-11.6646
▁inequalities	-11.6646
▁privilège	-11.6646
▁democratisation	-11.6648
▁seekers	-11.665
▁bridge	-11.6655
▁fixation	-11.6665
▁dynamism	-11.6665
▁intéresse	-11.6665
▁produis	-11.6671
▁d'organiser	-11.6674
▁persecution	-11.6683
▁speculation	-11.6683
▁J'invite	-11.6684
▁caractérise	-11.6693
▁scenario	-11.6693
▁compensate	-11.6693
▁apparten	-11.6695
▁thon	-11.6695
6%	-11.6697
▁700	-11.67
medicinal	-11.6702
▁préfère	-11.6702
▁removal	-11.6702
▁rouge	-11.6702
État	-11.6703
▁d'efforts	-11.6711
▁disturb	-11.6711
▁l'armée	-11.6711
▁assistants	-11.6717
▁publier	-11.6721
▁Lanka	-11.6722
illon	-11.6728
▁Böge	-11.673
▁vegetable	-11.673
▁simultané	-11.673
▁resist	-11.673
▁strive	-11.674
▁tableau	-11.674
▁1980	-11.6741
▁enjeux	-11.6749
▁d'innovation	-11.6752
▁d'exercer	-11.6758
▁d'instaurer	-11.6758
▁parliamentarian	-11.6758
▁pourparlers	-11.6758
▁ownership	-11.6758
▁recruit	-11.6758
▁prévoyant	-11.6759
▁l’information	-11.676
▁idéologique	-11.6767
▁Progress	-11.6769
▁presidential	-11.6769
▁sensibilité	-11.6769
▁permanence	-11.6777
▁alleged	-11.6777
▁déposer	-11.6777
▁Ferrero-Waldner	-11.6786
▁preparatory	-11.6786
▁Langen	-11.6786
MS	-11.6791
▁ideological	-11.6796
▁vétérinaire	-11.6796
▁narrow	-11.6805
▁s'avérer	-11.6805
▁won	-11.6806
▁construit	-11.6814
▁Autrement	-11.6814
▁transferred	-11.6815
▁Haut	-11.6818
▁Federal	-11.6824
▁témoin	-11.6824
▁sépare	-11.6825
▁inclusive	-11.6829
▁Vienne	-11.683
▁twice	-11.6833
▁déploie	-11.6833
▁trente	-11.6843
▁vice	-11.6847
▁prétendu	-11.6855
▁conviendrait	-11.6855
▁transplant	-11.6862
▁'no'	-11.6862
▁naturelle	-11.6862
▁bull	-11.6866
▁Jacques	-11.6871
▁multiannual	-11.6871
▁vigour	-11.6871
▁bureaux	-11.6873
▁dependence	-11.6878
▁Johannesburg	-11.6881
▁Quatrièmement	-11.689
▁facility	-11.689
▁inevitably	-11.689
▁linguistic	-11.689
▁pouvaient	-11.689
▁reassure	-11.6894
▁aspire	-11.6896
▁heurt	-11.6899
▁cellules	-11.69
▁disponibilité	-11.69
▁overwhelming	-11.69
▁relevé	-11.69
▁l'expression	-11.69
▁Everyone	-11.69
▁bouc	-11.6904
▁abandonné	-11.6906
▁solidaire	-11.6909
▁d’ailleurs	-11.6909
▁patience	-11.6909
▁constraints	-11.6919
▁forestry	-11.6923
▁reproductive	-11.6924
▁screen	-11.6928
▁d’améliorer	-11.693
informer	-11.6935
▁apparemment	-11.6938
▁condamne	-11.6944
▁caractérisé	-11.6947
▁là-bas	-11.6947
▁precedent	-11.6947
▁malheur	-11.6948
▁decade	-11.6953
▁drastic	-11.6957
▁intitulé	-11.6957
▁trap	-11.6963
▁j'étais	-11.6966
▁Deuxième	-11.6974
▁detect	-11.6974
▁embark	-11.6976
▁pledge	-11.6976
-friendly	-11.6985
▁Barón	-11.6985
▁hunger	-11.6986
4%	-11.699
▁gentlemen	-11.6995
avortement	-11.6995
▁abortion	-11.6995
▁conseiller	-11.7
▁foodstuffs	-11.7005
▁appalling	-11.7014
▁citoyenne	-11.7015
▁photo	-11.7019
▁motif	-11.702
drew	-11.7023
▁légiférer	-11.7024
▁détach	-11.7024
▁remboursement	-11.7033
▁l'aviation	-11.7033
▁Harbour	-11.7053
▁monopoly	-11.7053
▁draftsman	-11.7053
▁attain	-11.7053
▁AIDS	-11.7062
▁s'inscrit	-11.7062
▁western	-11.7063
▁apprendre	-11.7063
▁candidature	-11.7064
establish	-11.7065
industrie	-11.7069
▁attentive	-11.707
▁découlant	-11.7072
▁félicitons	-11.7072
▁wholeheartedly	-11.7072
▁Schmid	-11.7072
▁faillite	-11.7072
assassin	-11.7079
▁Fourthly	-11.7082
▁characterised	-11.7083
▁XXIe	-11.7091
▁discriminatoire	-11.7091
▁l’OMC	-11.7091
▁vigorous	-11.7091
▁Direct	-11.7094
▁Celui-ci	-11.7101
▁introduis	-11.7101
▁desquels	-11.7101
▁remote	-11.7101
▁plaid	-11.7102
▁PESC	-11.7111
▁s’applique	-11.7111
▁constituency	-11.7111
▁comptable	-11.7111
▁nominal	-11.7112
▁appreciation	-11.712
▁volontiers	-11.712
▁divisé	-11.7121
sky	-11.7123
▁impatience	-11.713
▁reconcile	-11.713
insertion	-11.7137
▁Actuellement	-11.714
▁chypriote	-11.714
▁own-initiative	-11.714
▁soi-disant	-11.714
▁Lamy	-11.714
▁systematically	-11.7141
Union	-11.7143
▁est-ce	-11.7151
▁manipulation	-11.7159
▁xénophobie	-11.7159
ambiguïté	-11.7159
▁l'exception	-11.7161
▁décision-cadre	-11.7163
▁d'inclure	-11.7169
▁englobe	-11.7169
▁activist	-11.7169
▁irrespective	-11.7179
▁secrétariat	-11.7179
▁critiqué	-11.7183
Nordic	-11.7184
▁isolation	-11.7189
▁large-scale	-11.7191
▁60%	-11.7192
itarian	-11.7193
▁varié	-11.7194
▁high-quality	-11.7198
▁optique	-11.72
▁jouets	-11.7203
▁stating	-11.7205
▁honor	-11.7205
efficacité	-11.7206
▁Bangemann	-11.7208
▁Cypriot	-11.7208
▁concilier	-11.7208
▁fructueuse	-11.7208
▁génocide	-11.7208
épargne	-11.7208
▁ralenti	-11.7216
▁hazardous	-11.7218
▁prejudice	-11.7228
▁Among	-11.7228
▁deciding	-11.7228
ibilité	-11.7235
▁vieillissement	-11.7238
▁L’Europe	-11.7239
▁PNR	-11.7248
▁kurde	-11.7248
▁automatically	-11.7257
▁tremendous	-11.7257
▁stopped	-11.7259
▁Vienna	-11.7267
▁alert	-11.7271
▁bottom	-11.7277
▁earthquake	-11.7277
▁hinder	-11.7277
▁scénario	-11.7277
▁d'attention	-11.7277
▁qu'aujourd'hui	-11.7287
▁Greens/	-11.7287
face	-11.7294
ppréciation	-11.7297
▁hectare	-11.7297
▁Hague	-11.7299
▁l'ancien	-11.7305
▁chocolat	-11.7307
▁complied	-11.7307
▁ampleur	-11.7309
▁spécul	-11.7311
▁Rehn	-11.7317
▁survival	-11.7317
▁interference	-11.7317
▁owe	-11.7318
▁escape	-11.7327
effet	-11.7329
▁Amérique	-11.7336
▁Erika	-11.7336
▁bénéficié	-11.7336
▁disabilities	-11.7336
▁identifier	-11.7337
productive	-11.7339
▁défavorisées	-11.7346
▁xenophobia	-11.7346
▁échoué	-11.7356
▁diploma	-11.7359
▁Black	-11.7366
▁amener	-11.7368
▁travelling	-11.737
▁consacre	-11.7373
▁Socrates	-11.7376
▁simplifié	-11.7386
▁conversion	-11.7386
▁worried	-11.7396
▁moratoire	-11.7396
▁arbitraire	-11.7396
▁split	-11.7398
▁tuna	-11.7399
Année	-11.74
identifie	-11.7401
▁panel	-11.7414
▁guilty	-11.7416
▁imminent	-11.7416
▁méditerranéenne	-11.7416
▁Resolution	-11.7417
exclusion	-11.7419
▁s'étend	-11.742
▁in-depth	-11.7426
▁inclut	-11.7426
▁decrease	-11.7426
▁writing	-11.7428
▁Sharon	-11.7437
autorité	-11.744
▁relocation	-11.7456
élargissement	-11.7465
▁souffre	-11.7465
▁atmosphere	-11.7466
▁wake	-11.7466
▁elles-mêmes	-11.7466
▁delicate	-11.7467
▁Kurdish	-11.7476
▁coordinating	-11.7476
▁slogan	-11.7476
▁louable	-11.7476
▁soupçon	-11.7476
▁protectionnisme	-11.7476
tribution	-11.7485
▁possession	-11.7494
Accord	-11.7507
▁genocide	-11.7507
▁strange	-11.7509
axe	-11.7516
▁comitology	-11.7517
▁passeport	-11.7521
▁libéré	-11.7527
▁venez	-11.7527
▁zero	-11.7527
▁ressenti	-11.7529
▁neighbour	-11.754
▁engendré	-11.7547
▁victory	-11.7547
▁exigé	-11.7547
▁distingue	-11.7547
▁évoque	-11.7552
▁régulière	-11.7556
▁franchement	-11.7557
▁religieux	-11.7557
▁Afghan	-11.7567
▁philosophie	-11.7567
▁valoir	-11.7567
▁creative	-11.7567
▁donateurs	-11.7567
▁scolaire	-11.7578
▁père	-11.7579
▁leçon	-11.7581
▁l'image	-11.7583
▁jeopardise	-11.7588
▁voulait	-11.7588
▁énergique	-11.7588
▁authorised	-11.7591
onformément	-11.7597
enveloppe	-11.7598
▁d'offrir	-11.7598
▁famine	-11.7598
▁récession	-11.7608
▁éducatif	-11.7608
▁parvenons	-11.7612
▁persécution	-11.7629
▁survey	-11.7629
▁moratorium	-11.7639
▁everyday	-11.7639
▁meurtre	-11.7639
▁confié	-11.7639
▁ridicule	-11.7649
▁résultant	-11.7649
▁unprecedented	-11.7649
▁émanant	-11.7649
▁angle	-11.7652
▁serions	-11.7659
▁illicite	-11.7659
▁combiné	-11.7659
▁fléau	-11.7659
▁hongrois	-11.7666
▁Biélorussie	-11.7669
▁réfère	-11.767
▁Guinea	-11.767
architect	-11.768
▁Crespo	-11.768
▁combination	-11.768
▁équivoque	-11.768
▁Soudan	-11.768
▁litige	-11.768
▁couverture	-11.7682
▁substantiel	-11.7682
▁Democrat	-11.7688
▁audiovisual	-11.769
▁professeur	-11.769
▁prévoient	-11.769
▁zéro	-11.769
▁Lettonie	-11.769
▁d'utilisation	-11.769
▁Herman	-11.77
▁semble-t-il	-11.7705
▁réalise	-11.7706
▁Communication	-11.7711
▁Federation	-11.7711
▁d'où	-11.7711
▁irresponsable	-11.7711
▁libérer	-11.7711
▁empty	-11.7711
▁Robert	-11.7711
▁assassinat	-11.7717
▁legislator	-11.7721
▁millénaire	-11.7721
▁ignoré	-11.7723
Votre	-11.7729
▁remedy	-11.7731
▁Eurojust	-11.7734
▁depth	-11.7735
▁l’initiative	-11.7742
▁multiplie	-11.7752
▁David	-11.7752
▁rentable	-11.7753
▁vérifi	-11.7754
▁cabin	-11.7762
▁établissements	-11.7763
▁affair	-11.7764
▁recouvr	-11.7768
-scale	-11.7771
▁beneficiaries	-11.7773
▁pragmatique	-11.7773
▁Armenia	-11.7773
▁réciproque	-11.7783
▁passport	-11.7787
▁facilitating	-11.7793
▁Barrot	-11.7793
▁s'élève	-11.7793
▁ressource	-11.7794
▁fermeté	-11.7801
▁abandonner	-11.7802
▁IND/DEM	-11.7804
▁d'ouverture	-11.7804
▁consultatif	-11.7805
▁conducteurs	-11.7808
▁heavily	-11.7814
▁pragmatic	-11.7814
Internet	-11.7819
▁d'affaires	-11.7825
▁disrupt	-11.7825
▁illness	-11.7827
▁artificiel	-11.7835
▁serbe	-11.7835
▁Should	-11.7845
▁score	-11.7846
▁disparaître	-11.7848
incidence	-11.7854
▁Perspective	-11.7856
▁carrière	-11.7856
▁father	-11.7857
▁José	-11.7858
▁sympathie	-11.7866
▁biomass	-11.7866
▁d'intégrer	-11.7866
▁souple	-11.7867
▁honorables	-11.7868
invasion	-11.7876
▁Baroness	-11.7877
▁d'opinion	-11.7877
▁genetic	-11.7887
▁m'adresse	-11.7887
▁geste	-11.7891
▁remarkable	-11.7893
▁contrefaçon	-11.7898
▁conversation	-11.7898
▁août	-11.7898
▁renationalis	-11.791
▁bloqué	-11.7919
▁25%	-11.7921
▁wonderful	-11.7923
▁hyp	-11.7925
▁transmet	-11.7933
▁sauvage	-11.794
▁symbolique	-11.794
▁love	-11.7949
▁billets	-11.7961
▁exceptionnel	-11.7964
▁anywhere	-11.7972
▁estimations	-11.7972
▁inquiet	-11.7972
▁Seule	-11.7975
▁paie	-11.7975
établir	-11.7978
▁Beijing	-11.7982
▁revendication	-11.7982
▁instability	-11.7982
▁régissant	-11.7983
▁dispens	-11.7986
▁ultimate	-11.7989
▁immun	-11.799
▁Congress	-11.7992
▁Fontaine	-11.7993
▁telephone	-11.7993
▁domestique	-11.7993
▁tolérer	-11.7993
accompagn	-11.8002
▁voiture	-11.8003
▁renouvelable	-11.8012
▁self-employed	-11.8014
▁endanger	-11.8014
▁rapproch	-11.8021
ñ	-11.8025
class	-11.8034
▁désarmement	-11.8035
▁irresponsible	-11.8035
▁Ukrainian	-11.8046
▁artificial	-11.8046
Israël	-11.8053
▁touristique	-11.8055
▁corporate	-11.8057
▁integral	-11.8057
▁massif	-11.8065
▁drame	-11.8067
▁suspendue	-11.8069
▁l'Afghanistan	-11.8078
▁Round	-11.8083
interdiction	-11.8083
▁entré	-11.8083
▁renforçant	-11.8089
▁Relations	-11.8089
▁âgé	-11.8092
▁McCreevy	-11.8099
▁suicide	-11.8099
▁Annan	-11.8099
▁solving	-11.8099
▁falsifi	-11.8106
▁soutenant	-11.811
▁C'était	-11.8121
▁accelerate	-11.8121
▁j'aurais	-11.8121
▁achevé	-11.8121
▁rallie	-11.8124
fold	-11.8125
8%	-11.8129
▁capitalism	-11.813
▁blessé	-11.8132
▁accompany	-11.8142
▁Florence	-11.8142
▁instauré	-11.8142
▁lendemain	-11.8142
▁jurisprudence	-11.8153
dvisory	-11.8153
▁Delors	-11.8164
▁habituelle	-11.8165
▁mutuel	-11.817
▁monopolies	-11.8175
▁réchauffement	-11.8175
▁Bonino	-11.8185
▁l'annexe	-11.8185
▁(B5-	-11.8185
▁reproche	-11.8186
▁formidable	-11.8196
▁gagne	-11.8204
▁Democracy	-11.8207
▁disparities	-11.8207
▁précoce	-11.8207
▁slovaque	-11.8207
▁Mexique	-11.8207
▁Grand	-11.8207
▁desperate	-11.8207
ologue	-11.8215
indemnité	-11.8218
▁database	-11.8218
▁website	-11.8218
▁"non"	-11.8218
▁slave	-11.8218
▁Caucasus	-11.8229
▁convincing	-11.8229
▁apprécie	-11.824
▁assembly	-11.824
▁robust	-11.824
▁rival	-11.824
▁déclin	-11.824
homme	-11.8241
▁d'hier	-11.8251
▁(SL)	-11.8261
▁livestock	-11.8261
▁recognising	-11.8261
▁smoking	-11.8261
▁(démocrates	-11.8272
épidémie	-11.8272
▁CFSP	-11.8272
▁Göteborg	-11.8272
▁removing	-11.8272
▁Process	-11.8272
▁isolated	-11.8272
▁langage	-11.8273
▁septième	-11.8273
▁privilégi	-11.8277
▁Global	-11.8282
▁Confedera	-11.8283
▁accéder	-11.8283
▁inevitable	-11.8283
▁traçabilité	-11.8283
▁disgrace	-11.8283
▁Haiti	-11.8285
excuse	-11.8292
▁précédé	-11.8294
▁restitution	-11.8294
misunderstanding	-11.8305
▁motivé	-11.8305
▁institute	-11.8306
Alzheimer	-11.8316
▁fréquemment	-11.8316
atténuer	-11.8316
-General	-11.8322
▁Guantánamo	-11.8327
▁Malmström	-11.8327
▁availability	-11.8327
▁excellence	-11.8327
▁l'échelon	-11.8327
▁pétrolier	-11.8327
administr	-11.8332
▁Là	-11.8332
▁democracies	-11.8338
▁enthusiasm	-11.8338
▁proximité	-11.8338
▁attiré	-11.8338
▁respectueuse	-11.8338
▁talent	-11.8338
▁professionnel	-11.8339
▁rétablissement	-11.8339
▁fortunate	-11.8349
▁unequivocal	-11.8349
▁dépôt	-11.8349
▁tarifs	-11.836
▁Caucase	-11.8371
▁totalitarian	-11.8372
▁Montenegro	-11.8382
▁sphère	-11.8382
▁problematic	-11.8382
▁delete	-11.8388
▁l’absence	-11.8393
▁réexamen	-11.8393
▁suivants:	-11.8394
▁Peace	-11.8404
▁préparatifs	-11.8404
▁Berg	-11.8404
▁Haye	-11.8404
▁Cancún	-11.8415
▁Rwanda	-11.8415
▁Against	-11.8416
Com	-11.8417
▁inequality	-11.8426
▁chasse	-11.8428
▁Colombie	-11.8437
▁d'objectifs	-11.8437
▁interconnect	-11.8437
▁l’argent	-11.8437
▁Medina	-11.8448
▁Velzen	-11.8448
▁céréales	-11.8448
ographie	-11.8452
▁Wogau	-11.8459
▁d'instruments	-11.8459
▁Prestige	-11.847
▁d’aujourd’hui	-11.847
▁étudié	-11.847
▁fuite	-11.8471
▁pénurie	-11.8481
▁rejoins	-11.8481
▁Neighbourhood	-11.8504
▁ukrainien	-11.8504
▁mainstreaming	-11.8504
ingérence	-11.8504
▁caught	-11.8505
▁Yougoslavie	-11.8515
▁prématuré	-11.8515
▁securing	-11.8515
▁Secretary	-11.8521
▁González	-11.8526
▁energies	-11.8526
▁essayons	-11.8526
▁l'Autorité	-11.8526
▁renseignement	-11.8526
▁trilogue	-11.8526
▁underestimate	-11.8526
▁Slovak	-11.8536
explosion	-11.8537
▁Belgrade	-11.8537
▁détruire	-11.8537
▁cells	-11.8543
▁accompagne	-11.8548
▁(BG)	-11.8548
▁d'envisager	-11.8548
▁philosophy	-11.8548
▁vigilance	-11.856
▁ultra	-11.856
cycle	-11.8563
humain	-11.8567
▁diffuse	-11.8571
▁dioxide	-11.8571
embarras	-11.8571
▁l'intégrité	-11.8571
▁clandestin	-11.8573
▁clôture	-11.8582
▁Lulling	-11.8582
▁l'usage	-11.8582
▁steel	-11.8582
▁reconnaissons	-11.8584
▁Directorate	-11.8593
▁réparation	-11.8593
▁corridor	-11.8605
Applaudissements	-11.8611
▁Arctic	-11.8616
▁Guerre	-11.8616
▁Kazakhstan	-11.8627
▁modéré	-11.8627
▁prospère	-11.8627
▁téléphone	-11.8627
▁Chacun	-11.8627
public	-11.8634
▁fièvre	-11.8639
▁modulation	-11.8639
▁Small	-11.8639
▁abstention	-11.8639
▁occupied	-11.8639
▁doigt	-11.8639
▁Bangladesh	-11.865
▁disappointment	-11.865
▁earmarked	-11.865
▁yougoslave	-11.865
▁Byrne	-11.865
▁yield	-11.865
observateur	-11.866
▁dairy	-11.8661
▁journaux	-11.8661
▁store	-11.8663
pproval	-11.8665
▁manufacturing	-11.8672
▁cattle	-11.8673
▁travailliste	-11.8673
▁tourné	-11.8674
▁Oostlander	-11.8684
▁découvr	-11.8693
▁parviennent	-11.8695
▁premium	-11.8695
▁expire	-11.8695
▁exhort	-11.8696
▁70%	-11.8698
▁Business	-11.8707
▁irrégularités	-11.8707
▁rejoint	-11.8707
▁république	-11.8707
▁hormone	-11.8707
▁conceal	-11.8707
▁Prize	-11.8708
▁diagnos	-11.8717
▁remett	-11.8717
▁empêché	-11.8718
▁extremist	-11.8718
▁l'OLAF	-11.8718
▁Côte	-11.8718
▁repair	-11.872
▁pollute	-11.8725
▁habitude	-11.873
▁aboli	-11.8731
▁tarifaire	-11.8741
▁2014	-11.8741
▁senior	-11.8741
▁redistribution	-11.8741
▁symbolic	-11.8744
▁empreint	-11.8752
▁requiring	-11.8752
interprète	-11.8752
▁concluding	-11.8756
▁Cologne	-11.8764
▁redevance	-11.8764
▁d'étendre	-11.8777
▁Mulder	-11.8787
▁judicieuse	-11.8787
ternal	-11.8789
▁Mandelson	-11.8798
▁luxembourgeois	-11.8798
tabilisation	-11.8805
▁disproportionné	-11.881
▁outbreak	-11.881
▁surcroît	-11.881
▁Neither	-11.8821
▁concevoir	-11.8821
▁ecosystem	-11.8833
▁échappe	-11.8833
▁penalise	-11.8833
▁qualification	-11.8834
▁résidence	-11.8835
▁d'avancer	-11.8844
▁Access	-11.8844
▁Merkel	-11.8856
▁d’adopter	-11.8856
▁exemplaire	-11.8856
▁restaurer	-11.8856
▁voulions	-11.8856
▁displaced	-11.8856
▁primaire	-11.8856
▁preferred	-11.8856
allocation	-11.8864
▁cooperative	-11.8867
▁Fédération	-11.8879
▁Yesterday	-11.8879
▁electorate	-11.8879
▁impulsion	-11.8879
▁maternité	-11.889
▁électoral	-11.8897
▁Conciliation	-11.8902
▁l'autorisation	-11.8902
▁sous-tend	-11.8912
▁rhetoric	-11.8914
▁durement	-11.892
▁mi-parcours	-11.8925
▁Rothley	-11.8937
▁elimination	-11.8937
▁désignation	-11.8937
▁demonstrating	-11.8949
▁incroyable	-11.8949
▁inefficace	-11.8949
▁biological	-11.8949
▁frontalier	-11.896
▁imparti	-11.8967
▁D'abord	-11.8972
▁copyright	-11.8972
▁obstruct	-11.8972
▁d'énormes	-11.8972
▁Burundi	-11.8984
▁Nielson	-11.8984
▁assurant	-11.8984
▁Lorsqu'	-11.8995
▁contiennent	-11.8995
▁copie	-11.8999
▁Obama	-11.9007
▁compenser	-11.9007
▁conjunction	-11.9019
▁mid-term	-11.9019
▁switch	-11.903
▁149)	-11.9031
▁Quartet	-11.9042
▁dedicated	-11.9042
▁indiquant	-11.9042
▁regulating	-11.9042
▁organized	-11.9043
▁Arafat	-11.9054
▁determining	-11.9054
▁confère	-11.9054
▁procède	-11.9054
▁l'orateur)	-11.9066
▁skill	-11.9077
▁judiciary	-11.9078
▁denounce	-11.9078
assistance	-11.9078
exploite	-11.9085
▁imposition	-11.9092
▁éleveurs	-11.9101
▁appoint	-11.9103
▁reconsider	-11.9113
▁dioxin	-11.9125
▁l'abolition	-11.9125
▁stupid	-11.9125
▁Angola	-11.9125
▁Evans	-11.9125
▁transféré	-11.9137
▁l'influence	-11.9137
▁pavillon	-11.9137
▁Rather	-11.9138
▁cercle	-11.9149
social	-11.9159
▁Balkan	-11.9159
▁d'insister	-11.9161
▁Adjustment	-11.9173
▁Cardiff	-11.9173
▁d'actualité	-11.9173
▁holiday	-11.9173
▁desquelles	-11.9173
▁diplomatie	-11.9174
▁refrain	-11.9185
▁resolute	-11.9185
▁végéta	-11.9185
▁90%	-11.9187
▁interfere	-11.9196
inconvénient	-11.9196
▁d'ajouter	-11.9196
▁Ceux-ci	-11.9196
▁occidental	-11.9198
▁porc	-11.9202
▁Chancellor	-11.9208
▁Personnellement	-11.9208
▁facilitation	-11.922
▁d'exemple	-11.9232
▁feasible	-11.9232
▁l'honneur	-11.9232
▁deplore	-11.9232
▁focal	-11.9233
▁Kyi	-11.9233
▁venture	-11.9244
▁roll	-11.9245
▁OECD	-11.9256
▁harmonization	-11.9256
▁CIA	-11.9256
▁exergue	-11.9256
▁s'était	-11.9256
▁obscur	-11.9256
▁camion	-11.9257
▁l'évidence	-11.9268
▁dégradation	-11.9268
▁medicine	-11.9275
▁thématique	-11.9281
▁delegate	-11.9281
▁scrap	-11.9281
▁véhicule	-11.929
achèvement	-11.9293
▁celebrate	-11.9293
▁incertitude	-11.9293
Indonésie	-11.9293
▁Nombre	-11.9293
▁d'appel	-11.9304
▁Jordan	-11.9305
▁afghan	-11.9305
▁mercure	-11.9305
▁l'OSCE	-11.9317
▁sharp	-11.9317
▁récolte	-11.9317
▁d'aboutir	-11.9329
▁divorce	-11.9329
▁contingent	-11.9329
▁souplesse	-11.9329
▁inverse	-11.9329
▁coordinator	-11.9341
▁transférer	-11.9341
▁comprenons	-11.9341
l'infrastructure	-11.9353
▁integrating	-11.9353
▁l’Ukraine	-11.9353
▁spectrum	-11.9353
▁separation	-11.9353
▁malades	-11.9353
▁diagnostic	-11.9354
intensification	-11.9355
▁participant	-11.9359
▁collège	-11.9365
▁renewal	-11.9365
Ouest	-11.9373
▁pétition	-11.9374
▁Bourlanges	-11.9377
▁débarrass	-11.9377
▁IMF	-11.9377
▁traceability	-11.9378
▁preservation	-11.939
▁implies	-11.939
▁excess	-11.9392
assure	-11.9398
▁Cambodia	-11.9402
▁l'assurance	-11.9402
▁malentendu	-11.9402
▁specified	-11.9402
▁style	-11.9402
▁navire	-11.9412
viendrait	-11.9413
▁évité	-11.9414
▁l'asile	-11.9414
▁s'ajoute	-11.9414
▁white	-11.9415
▁autrichien	-11.9422
▁médicaux	-11.9426
▁variable	-11.9426
Italie	-11.943
▁ample	-11.9431
▁précipit	-11.9438
▁catastrophique	-11.9438
▁l'exigence	-11.9438
▁d'approuver	-11.9439
▁discriminate	-11.9451
▁selection	-11.9451
▁dogma	-11.9456
entretien	-11.9457
▁réduisant	-11.9463
▁sous-jacent	-11.9463
▁confond	-11.9463
▁non-respect	-11.9463
▁Goals	-11.9465
effondrement	-11.9475
▁Coelho	-11.9475
▁Randzio-Plath	-11.9475
▁Roth-Behrendt	-11.9475
▁spectre	-11.95
▁suppliers	-11.95
▁cornerstone	-11.9512
▁quiconque	-11.9512
▁Où	-11.9513
▁envoie	-11.9521
iversité	-11.9524
▁frontalière	-11.9525
▁enhancing	-11.9525
▁militant	-11.9525
▁clonage	-11.9526
▁Communities	-11.9537
▁d'infraction	-11.9537
▁asiatique	-11.9537
▁conduis	-11.9538
▁diminué	-11.9549
▁rebuild	-11.9549
▁substantive	-11.9549
▁l’Iran	-11.9549
▁l’accent	-11.9549
▁précaire	-11.9549
▁burn	-11.9552
▁Bösch	-11.9562
▁simultaneous	-11.9562
▁spare	-11.9571
š	-11.9587
▁university	-11.9587
▁Iceland	-11.9587
worth	-11.9598
attitude	-11.9599
▁Juncker	-11.9599
▁eligible	-11.9599
▁d'importantes	-11.9599
▁Industrial	-11.9611
▁d'harmonisation	-11.9611
▁spéciaux	-11.9611
▁l'adaptation	-11.9624
▁convenable	-11.9624
▁boycott	-11.9636
▁conscious	-11.9636
▁d'arriver	-11.9636
▁sheep	-11.9637
▁s'accompagne	-11.9637
▁Darfur	-11.9649
▁excédent	-11.9649
▁guidance	-11.9649
▁l’histoire	-11.9649
▁specify	-11.9649
▁n'avez	-11.9651
▁renouvellement	-11.9661
▁substitution	-11.9661
▁famous	-11.9661
▁protein	-11.9661
▁alternatif	-11.9674
▁l'alcool	-11.9674
▁wide-ranging	-11.9674
▁intolerable	-11.9674
▁Dieu	-11.9683
▁favorisant	-11.9686
▁proviennent	-11.9686
▁Darfour	-11.9699
▁girls	-11.9699
▁s'adapter	-11.9699
▁Climate	-11.9712
▁macroeconomic	-11.9712
▁manœuvre	-11.9712
▁Political	-11.9712
▁practise	-11.9712
▁facilite	-11.9718
▁fluctuation	-11.9724
▁odd	-11.9725
énorme	-11.9736
▁approving	-11.9737
▁cautious	-11.9737
▁gagné	-11.9737
▁Moscow	-11.9749
▁dioxyde	-11.9749
▁intolérable	-11.9749
▁olympique	-11.9749
▁ressemble	-11.9749
▁acheter	-11.975
▁diplomacy	-11.975
▁Millénaire	-11.9762
▁Moscou	-11.9762
▁Schreyer	-11.9762
▁préjudiciable	-11.9762
▁unsatisfactory	-11.9762
▁l'importation	-11.9762
▁Anyone	-11.9763
▁Paragraph	-11.9775
▁favorisé	-11.9775
▁l’ouverture	-11.9775
▁négligé	-11.9775
▁recommandé	-11.9775
▁salaries	-11.9775
▁earth	-11.9775
▁absolu	-11.9787
▁eliminating	-11.9787
▁générer	-11.9787
▁invitons	-11.9788
socio-économique	-11.9796
▁Organization	-11.98
▁éclat	-11.98
▁supervise	-11.9803
▁LIFE	-11.9813
▁détérioration	-11.9813
▁tabling	-11.9813
▁tsunami	-11.9813
▁catégorique	-11.9813
▁(A4-01	-11.9826
▁réalisable	-11.9826
▁théorie	-11.9826
▁colonies	-11.9826
▁rescue	-11.9827
▁assumption	-11.9838
▁consolidé	-11.9838
▁located	-11.9838
▁mélange	-11.9838
▁packaging	-11.9851
▁soigneusement	-11.9851
▁retail	-11.9851
▁informatique	-11.9851
▁concurrents	-11.9864
▁provocation	-11.9877
▁residents	-11.9877
▁Sierra	-11.9877
▁parental	-11.9877
interopérabilité	-11.9889
▁(A4-00	-11.9889
▁bétail	-11.9889
▁réviser	-11.989
▁Karas	-11.9891
-of-	-11.9893
▁horizon	-11.9902
▁Nabucco	-11.9902
▁Pékin	-11.9902
▁preserving	-11.9902
▁olive	-11.9902
▁honneur	-11.9915
▁mutilation	-11.9915
▁salué	-11.9917
▁defeat	-11.9925
▁débouché	-11.9928
▁cubain	-11.9928
▁harsh	-11.9928
▁reproduction	-11.9941
▁sensitivity	-11.9941
▁rationnelle	-11.9941
▁undermining	-11.9941
▁familial	-11.9941
▁Chirac	-11.9954
▁diminue	-11.9966
▁Proche-Orient	-11.9967
▁explanatory	-11.9967
▁tribune	-11.9967
compréhensible	-11.9979
▁Noël	-11.9979
▁software	-11.9979
▁congestion	-11.9992
▁fidèle	-11.9992
power	-11.9995
▁cinquante	-12.0005
▁propagande	-12.0005
▁universitaire	-12.0005
▁Député	-12.0006
▁knew	-12.0006
▁Tuesday	-12.0018
▁ticket	-12.0018
▁wild	-12.0018
Observatoire	-12.0031
▁blanchiment	-12.0031
▁réclamé	-12.0031
▁subsidy	-12.0031
▁fishery	-12.0031
▁definite	-12.0035
▁efforcer	-12.0044
▁j'insiste	-12.0044
▁scene	-12.0044
▁(A6-	-12.0045
▁insecurity	-12.0057
▁main-d'œuvre	-12.0057
▁worthwhile	-12.0057
▁rassurer	-12.0057
infrastructures	-12.0064
▁Taliban	-12.007
▁albanais	-12.007
▁d'entamer	-12.007
▁hypocrisy	-12.007
▁quelques-uns	-12.007
▁summary	-12.007
▁College	-12.007
▁Christmas	-12.007
▁"l'	-12.0078
▁craindre	-12.0083
▁reçoit	-12.0083
▁typical	-12.0083
▁concours	-12.0084
▁traîne	-12.0097
▁Peu	-12.0103
▁music	-12.0104
▁scrupule	-12.011
▁l'agence	-12.011
▁sombre	-12.011
▁disappointing	-12.0123
▁misleading	-12.0123
-making	-12.0134
▁smoke	-12.0136
▁contradict	-12.014
▁domain	-12.0144
▁pursuit	-12.0149
▁dismiss	-12.0149
▁issuing	-12.0151
▁Concerning	-12.0162
▁Islands	-12.0163
▁descend	-12.0165
▁prosecution	-12.0175
▁d'accélérer	-12.0175
▁breed	-12.0176
ttribuer	-12.0177
▁Congrès	-12.0189
▁Encore	-12.0189
▁carriers	-12.0189
▁interprété	-12.0202
▁Ortega	-12.0202
▁recipient	-12.0202
▁l'identité	-12.0202
accommod	-12.0215
▁efforcé	-12.0215
▁figurant	-12.0215
▁l’opinion	-12.0215
▁arrange	-12.0216
▁N'oublions	-12.0228
▁apologise	-12.0228
▁arbitrary	-12.0228
▁d’urgence	-12.0228
▁n’existe	-12.0228
▁parvient	-12.0229
▁dérive	-12.023
▁weapon	-12.0241
▁bulgare	-12.0241
▁capacities	-12.0241
▁l'école	-12.0241
inclusion	-12.0244
▁Monténégro	-12.0255
▁mercury	-12.0255
esumption	-12.0255
▁saura	-12.0272
▁halieutiques	-12.0281
▁n’était	-12.0281
▁premature	-12.0281
▁génère	-12.0281
▁radiation	-12.0281
▁timid	-12.0282
▁Vice-président	-12.0295
▁controverse	-12.0295
▁tremblement	-12.0295
▁chief	-12.0295
▁meurent	-12.0295
▁bankrupt	-12.0308
[...]
