<s>	0
</s>	0
<unk>	0
<pad>	0
,	-3.27729
▁the	-3.45201
▁de	-3.6562
▁of	-4.12892
▁la	-4.15197
▁to	-4.20273
.	-4.25599
▁and	-4.36452
▁et	-4.43971
▁le	-4.58118
▁a	-4.59808
▁in	-4.60949
▁à	-4.65656
▁les	-4.66018
▁des	-4.69089
▁que	-4.85243
▁that	-4.85632
▁is	-4.89414
▁en	-5.0702
▁for	-5.28801
▁I	-5.29624
▁du	-5.32091
s	-5.34288
▁on	-5.35002
▁dans	-5.45677
▁nous	-5.47055
▁pour	-5.47586
▁qui	-5.49341
▁be	-5.51468
▁this	-5.54317
▁we	-5.5617
▁une	-5.61013
▁un	-5.64289
▁ce	-5.68462
▁est	-5.69768
▁are	-5.7092
▁have	-5.75524
▁pas	-5.76007
▁-	-5.76226
▁sur	-5.78349
▁au	-5.8016
▁not	-5.8018
▁it	-5.80212
▁as	-5.86947
▁with	-5.87071
▁which	-5.90447
▁par	-5.9134
▁ne	-5.94324
▁European	-5.94531
▁Commission	-5.99376
▁The	-6.03928
▁will	-6.06079
▁by	-6.07301
▁plus	-6.14696
▁has	-6.18784
▁je	-6.19971
▁Mr	-6.34531
▁Je	-6.40392
▁cette	-6.41427
▁aux	-6.41882
▁an	-6.4504
▁il	-6.47487
▁at	-6.49585
▁would	-6.5082
▁sont	-6.50916
▁also	-6.52165
▁should	-6.5664
▁from	-6.61444
▁avec	-6.62186
▁We	-6.62805
▁our	-6.63895
▁but	-6.63912
▁all	-6.63932
▁must	-6.64902
▁Nous	-6.67831
▁Il	-6.68626
▁se	-6.69267
▁	-6.69875
▁mais	-6.7325
▁been	-6.73281
▁Monsieur	-6.74237
▁être	-6.77088
▁ces	-6.79338
▁pays	-6.8011
▁été	-6.82969
▁ont	-6.83635
▁It	-6.8377
▁can	-6.8476
▁La	-6.84915
▁européenne	-6.87085
▁President,	-6.87346
:	-6.88909
▁Le	-6.89003
▁fait	-6.89683
▁was	-6.90143
▁Member	-6.90797
▁you	-6.91232
▁more	-6.91766
▁or	-6.92269
▁vous	-6.92918
▁important	-6.92952
▁qu'il	-6.95698
▁comme	-6.95787
▁its	-6.96227
▁politique	-6.96847
▁Parlement	-6.97394
▁rapport	-6.97733
▁their	-6.98021
▁tout	-6.98301
▁do	-6.9905
▁like	-7.00422
▁question	-7.01754
▁there	-7.02259
?	-7.02469
▁Président,	-7.03113
▁États	-7.03671
▁l'Union	-7.03969
▁very	-7.04128
▁également	-7.04824
▁ou	-7.05084
▁In	-7.07203
▁This	-7.08029
▁these	-7.10247
▁Union	-7.11078
▁aussi	-7.1175
▁they	-7.12617
▁d'une	-7.16282
e	-7.17016
▁notre	-7.17958
▁Conseil	-7.18243
▁Parliament	-7.18985
▁one	-7.19035
▁report	-7.19995
▁si	-7.20429
▁who	-7.20754
▁faire	-7.21116
▁me	-7.21512
▁point	-7.22461
▁about	-7.23031
▁leur	-7.24246
▁avons	-7.24578
▁Council	-7.24682
▁what	-7.24856
▁other	-7.25224
▁doit	-7.25399
▁so	-7.25462
▁Europe	-7.25946
▁need	-7.26067
▁membres	-7.26092
▁l'	-7.26281
▁M.	-7.26422
▁tous	-7.28375
;	-7.28678
▁très	-7.28888
▁Les	-7.29609
▁son	-7.29881
▁situation	-7.30754
▁même	-7.31067
▁EU	-7.31254
▁y	-7.31434
▁bien	-7.31681
▁my	-7.32031
▁d'un	-7.32153
▁En	-7.33216
▁States	-7.33274
▁only	-7.33379
▁new	-7.33924
▁no	-7.34377
▁européen	-7.34851
s.	-7.35133
▁us	-7.37131
▁entre	-7.37194
▁because	-7.3842
▁if	-7.3881
▁part	-7.39768
▁Ce	-7.40182
▁devons	-7.41471
▁droits	-7.45296
▁am	-7.45802
▁time	-7.4608
▁nos	-7.4643
▁people	-7.4793
▁up	-7.5024
▁such	-7.50551
▁countries	-7.52104
▁out	-7.52472
ing	-7.52548
▁support	-7.52812
▁make	-7.53293
▁take	-7.53496
▁contre	-7.54712
▁into	-7.55207
▁between	-7.56063
▁voudrais	-7.56346
▁those	-7.5669
▁directive	-7.57868
▁d'	-7.5812
▁possible	-7.60236
▁now	-7.60456
▁vote	-7.60776
▁donc	-7.60946
▁protection	-7.60962
▁peut	-7.61503
▁social	-7.61818
▁non	-7.62872
▁dont	-7.63663
▁when	-7.63669
▁therefore	-7.6375
▁some	-7.64748
▁C'est	-7.65142
▁being	-7.6557
▁any	-7.65744
▁soit	-7.66066
s,	-7.6667
▁sans	-7.66926
▁proposition	-7.66942
▁political	-7.68537
▁policy	-7.69615
▁encore	-7.69657
▁cela	-7.70027
▁deux	-7.70078
▁were	-7.70286
▁rapporteur	-7.70906
▁than	-7.72431
▁economic	-7.72573
▁made	-7.72637
▁ainsi	-7.72655
▁believe	-7.73418
▁commission	-7.73979
▁c'est	-7.74072
▁work	-7.74286
▁place	-7.74306
▁ses	-7.74555
▁sa	-7.76933
▁suis	-7.77499
▁faut	-7.78027
▁position	-7.78384
▁say	-7.7841
's	-7.79423
▁many	-7.79819
▁against	-7.79832
▁fact	-7.79844
▁développement	-7.80054
▁public	-7.80162
▁n'est	-7.81217
▁mesures	-7.81305
▁cas	-7.81501
▁programme	-7.81519
▁first	-7.83027
▁budget	-7.83227
▁car	-7.83696
'	-7.84126
▁pense	-7.84506
▁matière	-7.8511
▁leurs	-7.85553
▁travail	-7.8599
▁marché	-7.86225
▁sécurité	-7.87091
▁That	-7.87128
▁cet	-7.8717
▁doivent	-7.87262
▁think	-7.87606
▁afin	-7.8776
▁national	-7.87776
▁groupe	-7.88016
▁way	-7.88894
▁proposal	-7.88968
▁questions	-7.89042
▁just	-7.89395
▁déjà	-7.8984
▁rights	-7.89891
▁international	-7.89933
▁respect	-7.90453
▁sommes	-7.90756
▁Committee	-7.91003
▁où	-7.91456
▁manière	-7.91874
▁human	-7.92265
▁elle	-7.92406
▁cadre	-7.92456
▁mon	-7.9281
▁dire	-7.93583
▁services	-7.93852
▁citoyens	-7.94556
▁concerne	-7.95043
▁Madame	-7.95175
▁debate	-7.95616
▁order	-7.95951
▁cannot	-7.96496
r	-7.97253
▁droit	-7.97259
▁want	-7.97467
▁As	-7.98095
▁two	-7.98203
▁conditions	-7.9821
▁same	-7.98277
▁does	-7.98288
▁had	-7.98396
▁politiques	-7.98546
▁even	-7.98664
▁them	-7.99672
▁débat	-7.99943
▁niveau	-8.00112
▁right	-8.00141
▁tant	-8.00447
▁could	-8.01117
▁sera	-8.02411
▁most	-8.02826
nt	-8.02975
)	-8.0414
▁already	-8.05791
▁where	-8.05819
▁certain	-8.0651
▁measures	-8.07224
▁much	-8.07484
▁–	-8.07648
▁financial	-8.07888
▁good	-8.07957
▁lors	-8.08241
ed	-8.08281
▁within	-8.0847
▁development	-8.08775
-	-8.08994
▁said	-8.09099
▁personnes	-8.09508
▁still	-8.09993
▁issue	-8.10236
▁how	-8.10273
▁toute	-8.11047
es	-8.11441
▁Mrs	-8.1145
▁There	-8.11492
▁President	-8.11514
▁both	-8.1218
▁under	-8.12415
▁common	-8.1242
▁dit	-8.12673
▁see	-8.12694
▁long	-8.12833
▁your	-8.12924
▁over	-8.13012
▁clear	-8.13231
▁use	-8.13477
▁Dans	-8.13652
▁parce	-8.13792
▁concernant	-8.13842
▁here	-8.13949
▁problème	-8.14248
▁toutes	-8.14332
▁fois	-8.14386
▁However,	-8.14497
▁particular	-8.14541
▁sein	-8.14617
▁agreement	-8.14688
▁certains	-8.1493
▁A	-8.15478
▁well	-8.15806
▁hope	-8.16247
▁On	-8.16432
▁Mme	-8.16545
▁d'autres	-8.17506
▁action	-8.17758
▁moins	-8.18063
▁vue	-8.18441
▁institutions	-8.18526
▁too	-8.1856
▁ensure	-8.18592
▁européenne.	-8.19047
▁coopération	-8.19165
▁efforts	-8.19822
▁market	-8.19949
▁économique	-8.19957
▁view	-8.20062
▁able	-8.20221
▁système	-8.20279
▁his	-8.20467
▁taken	-8.21236
▁future	-8.21362
▁seulement	-8.21486
er	-8.21507
d	-8.21821
tte	-8.2207
▁mettre	-8.23109
▁base	-8.23623
▁why	-8.23881
▁plan	-8.24176
▁own	-8.24206
▁pourquoi	-8.24387
▁put	-8.24649
▁mise	-8.25258
▁Community	-8.25476
▁number	-8.2608
▁nom	-8.26535
▁may	-8.26621
▁compte	-8.27236
▁last	-8.27689
▁nombre	-8.279
▁Pour	-8.28567
▁means	-8.28622
▁know	-8.29029
▁problèmes	-8.29044
▁avoir	-8.29068
▁autres	-8.29313
▁%	-8.29355
▁case	-8.29555
▁without	-8.29665
▁savoir	-8.29736
▁through	-8.30086
▁.	-8.30184
▁information	-8.30374
▁temps	-8.30533
▁Si	-8.30584
▁toujours	-8.30658
a	-8.30862
▁energy	-8.30872
▁Mais	-8.30943
▁grande	-8.31063
▁raison	-8.31097
▁he	-8.31306
▁lieu	-8.31327
▁points	-8.31356
▁avant	-8.31721
▁s'agit	-8.31775
▁aujourd'hui	-8.31782
▁If	-8.31872
▁cooperation	-8.31878
y	-8.32248
ment	-8.32261
▁gentlemen,	-8.32332
▁devrait	-8.32856
▁secteur	-8.32885
▁particulier	-8.33365
▁l'UE	-8.33455
▁processus	-8.33674
▁relations	-8.3405
▁however	-8.34258
▁beaucoup	-8.34557
▁notamment	-8.34594
▁laquelle	-8.34761
▁À	-8.34881
▁Madam	-8.34968
▁today	-8.34982
▁regard	-8.35074
▁particularly	-8.35118
▁demande	-8.35607
▁solution	-8.35936
▁rôle	-8.3603
▁prendre	-8.36053
▁give	-8.36465
▁great	-8.36478
▁citizens	-8.36828
▁transport	-8.36896
▁importance	-8.37062
▁Cela	-8.37208
▁ceux	-8.37458
▁years	-8.37471
▁cours	-8.37647
▁j'ai	-8.37791
▁faveur	-8.37951
▁domaine	-8.38096
▁country	-8.38106
▁gouvernement	-8.38333
▁l'Europe	-8.3837
▁continue	-8.38562
▁partie	-8.38628
▁Commissioner	-8.38824
▁then	-8.38845
ons	-8.39033
▁mesure	-8.39168
▁given	-8.39173
▁before	-8.3924
▁legal	-8.39613
▁end	-8.40045
▁effet	-8.40149
▁Commission,	-8.40505
▁s	-8.40695
ly	-8.40839
▁votre	-8.41582
▁soient	-8.41609
▁propositions	-8.42356
▁necessary	-8.42559
▁qu'elle	-8.42638
▁moment	-8.42772
▁(	-8.43116
▁président	-8.4359
▁dialogue	-8.43747
▁n'a	-8.44369
▁whether	-8.44684
▁thank	-8.45033
▁Commission.	-8.45274
▁accord	-8.45373
▁nouvelle	-8.45378
▁problems	-8.45387
▁besoin	-8.4539
▁ladies	-8.45491
▁pouvons	-8.45901
▁résolution	-8.46133
▁far	-8.46139
▁qu’il	-8.46192
▁United	-8.46426
▁attention	-8.46617
▁pouvoir	-8.46865
▁system	-8.4691
▁soutien	-8.47147
▁large	-8.47418
▁programmes	-8.47934
▁security	-8.47972
▁set	-8.47978
▁behalf	-8.48188
▁since	-8.48227
▁traité	-8.48638
▁production	-8.48763
▁nouveau	-8.48814
▁world	-8.48937
▁santé	-8.49113
t	-8.49202
▁serait	-8.49382
▁était	-8.49386
▁peu	-8.49823
▁peuvent	-8.5037
▁next	-8.50444
▁Europe.	-8.50499
▁amendements	-8.50931
▁issues	-8.51009
▁sujet	-8.51011
▁role	-8.51669
▁further	-8.5193
▁objectifs	-8.52065
▁l’Union	-8.52074
▁problem	-8.52199
▁favour	-8.52538
que	-8.52556
▁autre	-8.52602
▁De	-8.52696
!	-8.53186
▁millions	-8.53206
▁face	-8.53331
▁femmes	-8.53717
▁depuis	-8.54205
▁area	-8.54436
▁commissaire	-8.54589
▁règlement	-8.54605
▁ils	-8.54683
▁amendments	-8.54797
▁terms	-8.5497
▁monde	-8.55035
▁alors	-8.5533
▁l'on	-8.55334
▁agree	-8.55425
▁:	-8.55692
▁décision	-8.55692
▁come	-8.55892
▁Members	-8.56031
▁again	-8.56335
▁ici	-8.56721
▁produits	-8.56896
▁help	-8.56926
▁process	-8.57036
▁façon	-8.57124
▁présent	-8.57279
▁crois	-8.57368
▁stratégie	-8.57499
▁different	-8.57655
▁better	-8.57744
▁jour	-8.57868
▁areas	-8.5794
▁nécessaire	-8.58346
▁matter	-8.58355
▁trade	-8.5842
▁Commissioner,	-8.59206
▁What	-8.59358
▁proposals	-8.59406
▁contrôle	-8.59721
▁aid	-8.59794
▁principe	-8.59801
▁entreprises	-8.59816
▁première	-8.59851
▁commune	-8.59875
▁For	-8.60186
▁But	-8.60343
▁Commissaire,	-8.60356
▁level	-8.60372
▁européenne,	-8.60762
▁adopted	-8.60879
▁House	-8.60901
"	-8.61043
▁Par	-8.61217
▁"	-8.61259
▁ask	-8.617
▁present	-8.61957
▁needs	-8.62092
▁framework	-8.62194
▁présidence	-8.62198
▁Mesdames	-8.6237
▁L'	-8.62541
▁wish	-8.62546
▁after	-8.62731
▁second	-8.62737
▁Union.	-8.62747
▁change	-8.62791
▁d’une	-8.6294
▁eu	-8.6295
▁bonne	-8.63111
▁députés	-8.6319
▁règles	-8.63478
▁ni	-8.63784
▁mes	-8.64306
▁women	-8.64591
▁done	-8.64686
▁resolution	-8.64727
▁crise	-8.64774
▁quelques	-8.64786
▁vie	-8.64816
▁going	-8.65067
ant	-8.65184
▁nouveaux	-8.65221
▁working	-8.65513
▁l'homme	-8.65782
▁year	-8.65795
▁basis	-8.65967
▁après	-8.66125
▁fonds	-8.6654
▁towards	-8.66551
▁européens	-8.66603
▁régions	-8.66662
▁projet	-8.66774
▁few	-8.668
ticulièrement	-8.66874
▁'	-8.66891
▁actions	-8.67028
▁fin	-8.67191
▁lutte	-8.67464
▁trois	-8.67736
▁bon	-8.67826
▁three	-8.6797
▁lui	-8.67992
▁something	-8.67997
▁voted	-8.68134
▁grand	-8.68241
▁Treaty	-8.68254
▁sous	-8.68287
▁positive	-8.68318
▁garantir	-8.68427
▁communication	-8.68676
▁recherche	-8.68692
▁sector	-8.68813
▁parties	-8.68828
▁selon	-8.69109
▁progress	-8.69232
▁clairement	-8.69331
▁result	-8.69373
▁aspects	-8.69409
▁welcome	-8.69513
▁go	-8.69608
▁Présidente,	-8.69614
▁rules	-8.70103
▁ma	-8.70157
é	-8.70432
▁remercier	-8.70528
▁cha	-8.7068
▁nouvelles	-8.70803
▁current	-8.70843
▁J'ai	-8.71167
▁vers	-8.7123
▁health	-8.71413
▁va	-8.71569
▁nombreux	-8.72106
ait	-8.72175
▁population	-8.72233
▁législation	-8.72396
▁group	-8.72556
▁including	-8.7268
▁million	-8.73167
▁specific	-8.73311
▁provide	-8.73567
▁nécessité	-8.73605
▁really	-8.74173
▁voté	-8.74212
▁s'est	-8.74238
▁shall	-8.74257
▁seront	-8.74314
▁did	-8.74354
▁increase	-8.74792
dès	-8.74812
▁qualité	-8.75067
▁là	-8.75072
▁voir	-8.75722
▁proposed	-8.7596
▁justice	-8.75988
▁decision	-8.75994
▁initiative	-8.76298
▁principle	-8.7669
▁d’un	-8.76948
▁l'a	-8.76954
▁opportunity	-8.77047
▁especially	-8.77155
▁during	-8.77307
▁State	-8.77404
▁every	-8.77408
▁négociations	-8.77424
▁whole	-8.77472
▁pourrait	-8.778
▁plusieurs	-8.78203
▁qu'	-8.7823
▁trop	-8.78301
▁find	-8.78408
▁œuvre	-8.78645
▁forward	-8.78762
▁procédure	-8.78889
▁000	-8.79209
▁clearly	-8.79233
▁environmental	-8.79265
▁become	-8.79468
▁autorités	-8.79517
▁subject	-8.79985
▁premier	-8.80095
▁force	-8.80648
▁Group	-8.80655
▁greater	-8.80659
▁used	-8.80864
▁visant	-8.80973
▁serious	-8.81141
▁effective	-8.81161
▁quite	-8.81297
▁reste	-8.81491
▁concerned	-8.81633
▁cause	-8.82013
▁global	-8.82042
▁maintenant	-8.82104
▁aucun	-8.82205
▁surtout	-8.82352
▁contribution	-8.82363
▁least	-8.82426
▁rather	-8.82528
▁Une	-8.82572
▁No	-8.8268
▁certaines	-8.82959
▁law	-8.8316
▁Nations	-8.83202
▁Europe,	-8.83487
▁chose	-8.83509
▁discussion	-8.83642
▁Ces	-8.83811
▁They	-8.8386
▁down	-8.84002
▁States.	-8.84047
▁Messieurs,	-8.84141
▁reason	-8.84346
▁service	-8.84375
▁l'environnement	-8.84439
▁account	-8.84704
▁?	-8.84932
c	-8.85158
▁course,	-8.85169
▁always	-8.85562
▁real	-8.85563
▁call	-8.85591
▁tiens	-8.85773
▁mois	-8.85883
▁legislation	-8.8601
▁making	-8.86298
▁Elle	-8.86351
▁fundamental	-8.86375
▁access	-8.86383
▁opinion	-8.86851
▁1	-8.86888
▁These	-8.86957
▁ressources	-8.86964
▁conséquent	-8.86992
▁course	-8.87052
▁state	-8.87053
▁voulons	-8.87103
▁once	-8.87188
▁achieve	-8.87218
▁membre	-8.87255
▁Presidency	-8.8755
▁excellent	-8.87735
▁together	-8.87828
▁avez	-8.87898
▁third	-8.87978
▁general	-8.88068
▁Commission's	-8.88302
▁another	-8.88303
▁major	-8.88313
▁prix	-8.88403
▁d’	-8.88709
▁At	-8.88866
▁donner	-8.8887
▁approach	-8.8907
▁employment	-8.89169
▁donné	-8.89175
▁research	-8.89179
▁comment	-8.8922
▁small	-8.89398
▁Et	-8.89497
▁main	-8.89507
▁based	-8.8955
▁regulation	-8.89638
▁taking	-8.89657
▁deal	-8.89875
▁difficult	-8.90076
▁democratic	-8.90094
▁mis	-8.90127
▁internal	-8.90579
▁essential	-8.90707
ra	-8.90811
▁l’	-8.90842
▁get	-8.90971
▁Comme	-8.91087
▁various	-8.91525
▁davantage	-8.91616
▁lorsque	-8.92231
▁elles	-8.92402
▁soutenir	-8.92419
▁responsibility	-8.92434
▁responsabilité	-8.92567
▁safety	-8.92597
▁strategy	-8.92857
▁création	-8.92903
▁juridique	-8.9305
▁each	-8.93492
▁policies	-8.93649
▁instruments	-8.93715
▁So	-8.93793
▁impact	-8.93815
se	-8.93835
▁constitue	-8.93933
▁negotiations	-8.9407
▁société	-8.94096
▁État	-8.94217
▁sorte	-8.94293
▁crisis	-8.94311
▁violence	-8.94325
▁back	-8.94598
▁semble	-8.94654
▁Au	-8.9478
▁report.	-8.94864
▁example,	-8.95088
▁implementation	-8.95137
▁souligner	-8.95236
▁free	-8.95438
▁yet	-8.95468
▁réponse	-8.95475
n	-8.95562
▁hand	-8.95631
▁allow	-8.95718
▁organisations	-8.95779
▁participation	-8.95875
▁while	-8.95944
▁Un	-8.96505
▁industry	-8.96583
▁s'	-8.96779
▁économiques	-8.96822
▁région	-8.96982
▁souvent	-8.9705
▁membres.	-8.97179
▁propose	-8.97301
▁termes	-8.97626
▁toutefois	-8.97706
▁look	-8.9774
▁consider	-8.97765
▁avait	-8.97898
▁itself	-8.98232
▁démocratie	-8.98235
▁EUR	-8.98478
▁affaires	-8.98573
▁initiatives	-8.98634
▁qu'une	-8.98687
▁type	-8.98712
▁actuellement	-8.9876
▁single	-8.9891
▁liberté	-8.99035
▁aura	-8.99093
▁Convention	-8.99125
▁travailleurs	-8.99358
▁having	-8.99436
▁progrès	-8.99519
▁années	-8.99647
▁authorities	-8.99747
▁différents	-8.99866
▁resources	-8.99906
▁full	-9.00036
▁gestion	-9.0008
▁importante	-9.0108
▁propos	-9.01132
▁aucune	-9.01148
▁sociale	-9.01149
/	-9.01197
al	-9.0123
▁coordination	-9.01254
▁dernier	-9.01369
▁existe	-9.01457
▁européen.	-9.01515
▁compris	-9.01774
▁ait	-9.01818
▁possibilité	-9.01923
▁nature	-9.02037
▁croissance	-9.02053
▁telle	-9.02119
▁best	-9.02186
▁lequel	-9.02201
▁souhaite	-9.02201
▁high	-9.02267
▁government	-9.02632
▁sûr	-9.02661
▁euro	-9.02698
▁final	-9.02771
▁instrument	-9.02846
▁mieux	-9.02964
▁demander	-9.03068
▁étant	-9.03079
▁Toutefois	-9.03142
▁concerns	-9.03222
▁moyens	-9.03253
▁pris	-9.03347
▁money	-9.0388
▁peut-être	-9.03928
z	-9.03949
▁it.	-9.04284
▁dernière	-9.04353
▁her	-9.04381
▁pêche	-9.04507
▁democracy	-9.04699
▁d'abord	-9.04745
▁exemple	-9.04784
▁culture	-9.04792
▁période	-9.04835
▁20	-9.04886
▁recent	-9.05024
▁fully	-9.05097
▁regions	-9.05112
▁rien	-9.05178
▁countries.	-9.05181
▁celui	-9.05276
▁renforcer	-9.05285
▁avis	-9.05313
▁collègues	-9.05459
▁communautaire	-9.05461
▁often	-9.05474
▁commerce	-9.05482
ent	-9.05523
▁To	-9.05539
▁terme	-9.05756
▁simply	-9.058
▁créer	-9.05809
▁décisions	-9.06033
▁certainly	-9.06053
▁permettre	-9.06072
▁nombreuses	-9.06082
▁accept	-9.06116
▁européen,	-9.0636
▁tel	-9.06487
▁domaines	-9.06515
▁step	-9.06602
▁données	-9.06874
▁relation	-9.07008
▁normes	-9.07082
▁pu	-9.07085
▁freedom	-9.07103
▁interests	-9.07137
▁States,	-9.07229
▁bring	-9.0727
▁agricultural	-9.0733
▁devraient	-9.07353
▁food	-9.07368
▁local	-9.07636
▁discussions	-9.07754
▁quelque	-9.07795
▁extremely	-9.07905
▁unique	-9.08015
▁accords	-9.08042
▁aware	-9.08319
▁deuxième	-9.08736
▁reform	-9.0875
▁(DE)	-9.08906
▁quality	-9.09032
▁create	-9.09083
▁d'être	-9.09144
▁texte	-9.09282
▁things	-9.09419
▁trouver	-9.09637
▁Enfin	-9.09667
▁majorité	-9.09931
▁majority	-9.10127
▁power	-9.10384
▁France	-9.10422
▁following	-9.10435
▁growth	-9.10496
▁résultats	-9.10569
▁juste	-9.10615
▁internationale	-9.10694
▁Government	-9.10766
▁groupes	-9.10994
▁10	-9.11283
▁financement	-9.11505
▁relative	-9.11506
▁simplement	-9.11611
▁(EN)	-9.11636
▁involved	-9.11701
▁voie	-9.11765
▁might	-9.11894
▁exemple,	-9.11909
▁sens	-9.12098
▁Parliament,	-9.12299
▁qu'un	-9.12358
▁actually	-9.12443
▁européennes	-9.12447
▁2	-9.12453
▁developing	-9.12465
▁fight	-9.12508
▁form	-9.12513
▁celle	-9.12588
▁amendment	-9.12959
▁products	-9.13004
▁document	-9.13048
▁Union,	-9.13173
▁d'accord	-9.13297
▁application	-9.13459
▁projets	-9.13499
▁committee	-9.13606
▁concurrence	-9.13674
▁improve	-9.13837
▁consommateurs	-9.13913
▁entendu	-9.13966
▁devrions	-9.14053
▁objectif	-9.1419
▁Président	-9.14228
▁policy.	-9.14261
▁solutions	-9.14384
▁écrit.	-9.1448
▁And	-9.14714
▁regional	-9.14774
▁Let	-9.14803
▁réforme	-9.14892
▁economy	-9.15098
▁indeed	-9.1514
▁companies	-9.15351
▁Article	-9.15459
▁society	-9.15506
▁intérêts	-9.15519
▁climate	-9.16006
▁procedure	-9.16047
▁report,	-9.16058
▁Finally	-9.16204
▁Court	-9.16449
▁collègues,	-9.16539
▁currently	-9.16569
▁environment	-9.16628
▁choses	-9.16657
▁decisions	-9.16721
▁concerning	-9.16747
▁15	-9.16821
▁control	-9.16996
▁dispositions	-9.17019
▁understand	-9.17106
▁open	-9.17237
▁l'ensemble	-9.17237
▁objectives	-9.17342
▁Lisbon	-9.1744
▁concern	-9.17483
▁vraiment	-9.17707
▁example	-9.17717
▁essentiel	-9.1793
▁cependant	-9.17945
▁quant	-9.18079
▁l'accord	-9.18146
▁conclusions	-9.18211
▁l'avenir	-9.1827
▁You	-9.18385
▁contexte	-9.18633
’s	-9.1874
▁propre	-9.18809
▁appropriate	-9.18878
▁seule	-9.19123
▁Assemblée	-9.19162
▁marchés	-9.19172
▁key	-9.19259
▁message	-9.19332
▁changement	-9.19346
▁principes	-9.19348
▁six	-9.19472
▁risk	-9.19561
▁standards	-9.19645
▁convient	-9.19647
▁Vous	-9.19735
▁n'y	-9.19835
▁C’est	-9.19944
▁3	-9.20088
▁meeting	-9.20186
i	-9.2036
▁start	-9.20388
▁Conseil,	-9.20502
▁text	-9.20567
▁Cour	-9.20624
▁États-Unis	-9.20656
▁général	-9.20909
l	-9.20913
▁forces	-9.20979
▁«	-9.21163
▁children	-9.21193
▁stabilité	-9.21308
▁funds	-9.21408
▁nécessaires	-9.21415
▁interest	-9.21432
▁risque	-9.21494
▁quand	-9.21495
▁plutôt	-9.21619
▁ailleurs	-9.21849
▁extrêmement	-9.2188
▁S	-9.21996
▁compromis	-9.22076
▁font	-9.22276
▁let	-9.22353
▁n'ont	-9.22399
▁rendre	-9.22583
▁With	-9.2278
▁approche	-9.22818
▁promotion	-9.22845
▁l'article	-9.2285
▁égard	-9.23034
▁responsible	-9.23142
▁suite	-9.23206
▁period	-9.23275
▁due	-9.23318
▁individual	-9.23376
▁crucial	-9.23409
▁volonté	-9.2344
▁jamais	-9.23457
▁objective	-9.23591
▁dernières	-9.23771
▁competition	-9.238
▁5	-9.23857
▁available	-9.239
▁raisons	-9.24115
▁informations	-9.24171
▁mentioned	-9.24175
▁doute	-9.24492
▁parler	-9.24533
▁ans	-9.2476
▁12	-9.24788
▁states	-9.24809
▁l'emploi	-9.25023
▁peace	-9.25145
▁doing	-9.25544
▁joint	-9.25603
▁Parliament's	-9.25662
▁c’est	-9.2597
▁année	-9.26059
▁tels	-9.26278
▁regards	-9.26335
▁members	-9.26346
▁activités	-9.26462
▁Cependant	-9.26529
▁aim	-9.2653
▁réduire	-9.26566
▁puisse	-9.26667
▁déclaration	-9.26827
▁though	-9.26927
▁countries,	-9.27105
".	-9.27163
▁promote	-9.27238
▁civil	-9.27286
▁membres,	-9.27329
▁répondre	-9.27355
▁preuve	-9.27454
▁feel	-9.2751
re	-9.27648
▁n’est	-9.27649
▁clair	-9.27674
▁them.	-9.27681
▁devant	-9.27878
▁Council,	-9.28004
▁education	-9.28145
▁aide	-9.28234
o	-9.28247
▁titre	-9.28302
▁lack	-9.2831
▁collègue	-9.28411
▁paix	-9.28498
▁data	-9.28579
▁among	-9.28604
▁draft	-9.28653
▁simple	-9.28755
▁chers	-9.28952
▁enlargement	-9.28971
▁tax	-9.29163
▁longer	-9.292
▁Fonds	-9.29207
▁conséquences	-9.29222
▁systèmes	-9.2949
▁moyen	-9.29499
▁l'aide	-9.29579
▁special	-9.29612
▁peux	-9.29637
▁significant	-9.29746
▁meilleure	-9.29776
▁discrimination	-9.29812
▁remercie	-9.29946
▁n'	-9.30221
▁possible.	-9.30538
▁writing.	-9.30547
▁inter	-9.30569
▁efficace	-9.30574
▁direction	-9.30605
▁although	-9.30646
▁kind	-9.30865
▁réalité	-9.30874
▁Parliament.	-9.30884
▁congratulate	-9.30902
▁appelle	-9.31019
▁little	-9.31036
▁cases	-9.31147
▁agreements	-9.31246
▁field	-9.31334
▁vu	-9.31351
▁note	-9.31379
▁thing	-9.31547
▁savons	-9.316
▁principles	-9.31637
▁mean	-9.31681
▁total	-9.31698
ation	-9.31745
▁life	-9.31767
▁difficile	-9.31781
▁commitment	-9.31821
▁legislative	-9.3188
▁Tout	-9.31895
▁ago	-9.31913
▁results	-9.31985
▁zone	-9.31986
▁pendant	-9.32008
▁pay	-9.32078
▁grâce	-9.32254
▁strong	-9.32263
▁My	-9.32291
▁provided	-9.32368
▁C	-9.32996
▁prevent	-9.33107
▁sustainable	-9.3323
▁forme	-9.33275
▁féliciter	-9.33319
▁régime	-9.33349
▁re	-9.33356
▁25	-9.33427
▁idea	-9.3353
▁perhaps	-9.33598
▁adopté	-9.33662
▁représente	-9.33715
▁effort	-9.3383
▁compromise	-9.33978
▁Amendment	-9.33996
▁include	-9.34029
▁seul	-9.34062
▁différentes	-9.3418
▁labour	-9.34238
▁gouvernements	-9.34321
▁lead	-9.34376
▁rapidement	-9.34435
▁date	-9.34446
▁guarantee	-9.34474
▁nuclear	-9.34607
▁all,	-9.34615
▁Turkey	-9.34825
▁sure	-9.34905
▁critères	-9.34922
▁pays.	-9.34962
▁;	-9.35214
▁taux	-9.35225
▁rapport.	-9.35375
▁réduction	-9.35423
▁transparence	-9.35435
▁intérieur	-9.35556
▁young	-9.35696
▁regarding	-9.35708
▁telles	-9.35971
▁aurait	-9.36007
▁sommet	-9.36039
▁line	-9.36107
▁assurer	-9.36115
▁workers	-9.36185
▁addition	-9.36244
▁ministre	-9.36433
▁agreed	-9.36481
▁ensemble	-9.36512
▁30	-9.36587
▁véritable	-9.3662
▁act	-9.36634
-in-Office	-9.36992
▁management	-9.37008
▁remain	-9.37032
▁exercice	-9.37033
aient	-9.37194
▁nothing	-9.37321
▁trouve	-9.37379
▁foreign	-9.37449
▁procédures	-9.37558
▁assistance	-9.37607
▁needed	-9.37652
ions	-9.37661
in	-9.37778
▁above	-9.37826
▁qu'à	-9.37845
▁seen	-9.38044
▁rapports	-9.38209
▁construction	-9.38235
▁publique	-9.38342
▁funding	-9.38437
▁qu'en	-9.38479
▁themselves	-9.3858
▁signifie	-9.38646
▁Constitution	-9.38651
▁aspect	-9.38678
▁several	-9.38687
▁dimension	-9.38983
▁conclusion	-9.39001
▁relatives	-9.39014
▁solidarité	-9.39185
▁makes	-9.39231
▁jeunes	-9.39266
▁others	-9.39288
▁enfants	-9.39305
▁personne	-9.39335
▁intervention	-9.39373
▁Our	-9.39422
▁libre	-9.39426
▁formation	-9.39433
▁Affairs	-9.39613
▁4	-9.39737
▁comes	-9.39875
▁benefit	-9.39879
▁apply	-9.40258
▁play	-9.4028
▁question.	-9.40287
▁costs	-9.40702
▁upon	-9.40758
▁projects	-9.40802
▁governments	-9.40822
▁11	-9.40972
▁tiers	-9.41012
▁réellement	-9.41066
▁confiance	-9.41096
▁mention	-9.41141
▁uniquement	-9.4147
▁présente	-9.41526
▁share	-9.4177
▁rappeler	-9.4186
▁groups	-9.41895
▁reasons	-9.41996
▁technical	-9.42091
▁prise	-9.42119
▁months	-9.42193
▁certainement	-9.4227
▁Ils	-9.42441
▁move	-9.42631
▁résultat	-9.42786
▁priority	-9.42821
▁D	-9.42861
▁promouvoir	-9.43038
▁context	-9.43045
▁démocratique	-9.43146
▁valeurs	-9.4335
▁l'amendement	-9.43426
▁consumers	-9.4347
▁vital	-9.43591
▁veut	-9.43624
▁enough	-9.43678
▁consumer	-9.43825
▁active	-9.43845
▁mondiale	-9.43877
▁seems	-9.43951
▁frontières	-9.44047
▁sanctions	-9.4406
▁prises	-9.44112
▁outre,	-9.44194
▁J'espère	-9.44213
▁améliorer	-9.44336
▁true	-9.44348
»	-9.44454
▁Des	-9.44529
▁tenir	-9.44539
▁début	-9.44582
▁pleased	-9.44589
▁words	-9.44591
▁activities	-9.44737
▁plans	-9.44882
▁voting	-9.44887
▁existing	-9.44898
▁parti	-9.44912
▁propres	-9.44913
▁concept	-9.45102
▁s'il	-9.4511
▁Bien	-9.45132
it	-9.45224
▁One	-9.4532
▁express	-9.45363
▁effect	-9.45423
▁autant	-9.4558
▁protéger	-9.45694
▁less	-9.45897
▁police	-9.46056
▁l'importance	-9.46308
▁direct	-9.46347
▁motion	-9.46357
▁agricole	-9.46456
▁Minister	-9.4646
▁adopt	-9.46555
▁Secondly,	-9.4656
▁perspective	-9.46597
▁durable	-9.4667
▁Union's	-9.46839
▁l'industrie	-9.46848
▁financière	-9.46894
▁Kosovo	-9.46963
▁Turquie	-9.47109
▁speak	-9.47138
▁évidemment	-9.47176
▁manque	-9.4719
▁grandes	-9.47345
▁documents	-9.47353
▁Communauté	-9.47875
▁consensus	-9.48022
▁until	-9.48036
▁creation	-9.48121
▁respecter	-9.48126
▁technologies	-9.48196
▁Parlement,	-9.4824
▁develop	-9.484
▁basic	-9.48434
▁region	-9.48458
▁achieved	-9.48538
▁dois	-9.48546
▁response	-9.48553
▁agenda	-9.48962
▁Directive	-9.49148
▁All	-9.4935
▁saying	-9.49375
▁future.	-9.49424
▁vigueur	-9.49536
▁carried	-9.49757
▁petites	-9.49763
▁rapporteurs	-9.49924
▁éléments	-9.4998
▁solidarity	-9.50073
▁contraire	-9.50103
▁nationaux	-9.50108
▁l'économie	-9.50279
▁never	-9.50283
▁commun	-9.50318
▁chance	-9.50341
▁close	-9.50395
▁provisions	-9.50429
▁transparency	-9.5046
▁zones	-9.50461
▁protect	-9.50589
▁l'année	-9.50651
▁military	-9.50727
▁asked	-9.50786
▁cultural	-9.50882
▁tabled	-9.50915
▁cohésion	-9.5096
▁directives	-9.51036
▁minimum	-9.51042
▁demandé	-9.51085
▁absolument	-9.51111
▁encourage	-9.51159
▁show	-9.51238
▁equal	-9.51365
le	-9.51392
▁held	-9.51601
▁relating	-9.51659
▁increasing	-9.51672
▁étaient	-9.51683
▁qu'elles	-9.51698
▁met	-9.5175
▁accession	-9.51815
▁reduce	-9.51885
▁item	-9.51928
▁victimes	-9.51976
▁veiller	-9.52097
▁rural	-9.5216
▁matters	-9.52177
▁capital	-9.52185
▁business	-9.52187
e.	-9.52267
▁présenter	-9.52363
▁UN	-9.52418
▁changes	-9.52449
▁namely	-9.5247
▁vrai	-9.52547
▁balance	-9.52582
▁parvenir	-9.52706
▁investment	-9.52774
▁sources	-9.5283
▁mission	-9.52935
▁soon	-9.53141
▁meet	-9.53332
▁totalement	-9.53653
▁réunion	-9.53691
▁d'avoir	-9.53709
▁continuer	-9.53714
▁moi	-9.53755
▁draw	-9.53756
▁everything	-9.5388
▁paragraphe	-9.53937
▁presented	-9.53972
▁d’autres	-9.53998
▁Parlement.	-9.54079
▁celles	-9.54149
▁integration	-9.5417
▁coûts	-9.54227
▁tenu	-9.54332
’	-9.5448
▁l’Europe	-9.54485
▁urgent	-9.54492
▁développer	-9.54516
▁project	-9.54533
▁centrale	-9.54672
▁parmi	-9.54701
▁thus	-9.54731
▁l'utilisation	-9.54733
▁him	-9.5475
▁obligations	-9.54849
▁travailler	-9.549
▁When	-9.5499
▁Thank	-9.55013
▁policy,	-9.55051
▁référence	-9.55051
▁combat	-9.55131
▁traitement	-9.55209
▁ourselves	-9.55231
▁guerre	-9.55355
▁reports	-9.55387
▁jusqu'à	-9.55415
▁relevant	-9.55489
▁accepter	-9.55492
▁jobs	-9.55503
▁Russie	-9.55537
▁increased	-9.55557
▁occasion	-9.556
▁défense	-9.55632
▁everyone	-9.55639
▁condition	-9.55721
▁proposé	-9.5574
▁throughout	-9.55806
▁collaboration	-9.55812
▁voter	-9.55964
▁financières	-9.5617
▁quel	-9.56633
▁off	-9.56697
▁priorité	-9.56697
▁élections	-9.56763
▁administrative	-9.56933
▁rule	-9.56963
▁stability	-9.56997
ront	-9.57066
▁answer	-9.57083
▁budgetary	-9.57095
▁mind	-9.57126
▁6	-9.57321
▁pratique	-9.57341
▁called	-9.57534
▁market.	-9.57609
▁l'objet	-9.57697
en	-9.57767
▁2000	-9.57841
▁l'heure	-9.5789
▁keep	-9.57916
▁central	-9.57951
▁capacité	-9.58046
▁valeur	-9.58245
▁address	-9.58375
▁sense	-9.58379
▁around	-9.58483
▁présenté	-9.58652
▁systems	-9.58674
▁grands	-9.58718
▁pleinement	-9.58731
▁external	-9.58733
▁request	-9.58845
▁values	-9.58848
▁dépenses	-9.58876
▁fishing	-9.58879
▁précisément	-9.58883
▁statement	-9.58883
▁impossible	-9.58904
▁tell	-9.59172
▁decided	-9.59233
▁road	-9.59301
▁transports	-9.59346
▁she	-9.59453
▁qu'on	-9.59567
▁consultation	-9.59641
▁lesquels	-9.60044
▁côté	-9.60423
▁priorités	-9.60434
▁four	-9.60563
▁gens	-9.60586
▁adoption	-9.60784
▁budgétaire	-9.60798
▁fondamentaux	-9.60829
▁réformes	-9.60846
▁eux	-9.60865
▁(PL)	-9.60883
▁Council.	-9.60894
▁félicite	-9.60913
▁quatre	-9.61041
▁amendement	-9.61095
m	-9.61157
▁peuple	-9.61163
▁commercial	-9.6118
▁générale	-9.61208
▁financiers	-9.61218
▁partenariat	-9.6124
▁previous	-9.61376
▁statut	-9.6148
▁permettant	-9.61505
▁prepared	-9.61586
▁partenaires	-9.61687
▁markets	-9.61779
▁using	-9.61816
▁Conseil.	-9.61844
▁monitoring	-9.61913
▁demand	-9.61935
▁puissent	-9.61944
▁secteurs	-9.6197
▁expressed	-9.62023
▁nationales	-9.62151
▁consequences	-9.62252
▁résoudre	-9.62262
▁vos	-9.62303
▁financier	-9.62343
▁establish	-9.62381
ont	-9.6261
▁considère	-9.62611
▁Notre	-9.62724
▁value	-9.6274
▁50	-9.62741
▁review	-9.62815
h	-9.62875
▁Russia	-9.62967
▁talking	-9.63036
▁communauté	-9.6313
▁across	-9.63192
▁colleagues	-9.6325
▁hommes	-9.63251
▁produit	-9.63277
▁substances	-9.63314
▁pourra	-9.63327
▁importants	-9.63343
▁temps,	-9.634
▁Therefore,	-9.63446
▁potential	-9.63512
▁personnel	-9.63517
▁train	-9.63535
▁exigences	-9.63574
▁doubt	-9.63592
▁d'action	-9.63754
▁renforcement	-9.638
▁fort	-9.63925
▁illegal	-9.63943
▁implement	-9.63983
▁moi,	-9.64005
▁structure	-9.64048
▁commencer	-9.64129
▁opportunities	-9.64212
▁Lisbonne	-9.64239
▁partage	-9.64244
▁regulations	-9.64348
▁session	-9.64376
▁vient	-9.6451
▁quoi	-9.64621
▁poursuivre	-9.64638
▁private	-9.64654
▁agriculture	-9.64817
▁besoins	-9.64823
▁try	-9.64865
▁contribuer	-9.6491
▁attitude	-9.64965
▁conférence	-9.64998
▁focus	-9.65034
▁l'occasion	-9.65093
▁fisheries	-9.652
▁years.	-9.6534
▁travers	-9.6535
▁difficultés	-9.65388
▁short	-9.65481
▁pratiques	-9.65508
▁jouer	-9.65576
▁2004	-9.65596
▁influence	-9.65611
▁sociaux	-9.65617
▁M	-9.65621
▁fair	-9.65782
▁pressure	-9.65783
▁Chine	-9.65807
▁movement	-9.65828
▁perspectives	-9.6584
▁pourraient	-9.65876
▁French	-9.65891
▁série	-9.65915
▁18	-9.65921
▁required	-9.65993
▁cinq	-9.66028
▁absolutely	-9.66091
▁reduction	-9.6614
▁job	-9.66151
▁l'UE.	-9.66183
▁semaine	-9.66414
▁dû	-9.66435
▁enable	-9.66505
▁l'élargissement	-9.66529
▁loin	-9.66543
▁fellow	-9.6664
▁rapport,	-9.66659
▁time.	-9.66697
▁poverty	-9.66699
▁permis	-9.66701
▁1999	-9.6672
▁reached	-9.66796
▁requirements	-9.66989
▁light	-9.66993
▁recently	-9.66997
▁practice	-9.67047
▁l'objectif	-9.67089
▁éviter	-9.67127
▁actuelle	-9.6718
▁rights.	-9.67196
▁engagement	-9.67202
▁outside	-9.67249
▁possibilités	-9.67255
▁permet	-9.6735
).	-9.67384
▁ensuite	-9.67396
▁malheureusement	-9.67496
▁coming	-9.67527
▁farmers	-9.67558
▁talk	-9.6766
▁peine	-9.67736
▁Deuxièmement	-9.67746
▁7	-9.67748
▁China	-9.67799
▁constituent	-9.67839
▁27	-9.67955
▁Or	-9.68163
▁passer	-9.68202
▁five	-9.68215
▁quelle	-9.68222
▁8	-9.68225
▁révision	-9.68313
▁pauvreté	-9.68314
▁séance	-9.68413
▁ministres	-9.68486
▁travail.	-9.68565
▁stress	-9.68566
▁décidé	-9.68693
▁modèle	-9.68701
▁past	-9.68746
▁war	-9.68994
▁task	-9.69012
▁assez	-9.6902
▁L’	-9.69087
▁permettra	-9.69141
▁sais	-9.69272
▁vis-à-vis	-9.69368
▁convention	-9.69376
▁l'État	-9.69414
▁completely	-9.69475
▁raised	-9.69489
▁live	-9.69534
▁situation.	-9.69564
▁compétences	-9.69655
▁structural	-9.69684
▁d'euros	-9.69709
▁lot	-9.69724
▁source	-9.69744
▁term	-9.69767
▁charge	-9.6985
▁pression	-9.69898
▁circulation	-9.69921
▁day	-9.70055
▁brought	-9.70304
▁included	-9.70335
▁Party	-9.70361
▁aides	-9.70388
▁apporter	-9.70393
▁derniers	-9.70479
▁lutter	-9.7048
▁thanks	-9.70482
▁prochaine	-9.70564
▁positions	-9.70648
▁enfin	-9.70654
▁experience	-9.70751
▁air	-9.70809
▁giving	-9.70913
▁year.	-9.70944
▁water	-9.70992
▁cohesion	-9.71008
▁‘	-9.7101
▁effets	-9.71071
u	-9.71079
▁reach	-9.711
▁publics	-9.71131
▁times	-9.71243
▁organisation	-9.71271
▁considération	-9.71318
▁phase	-9.71345
▁fonctionnement	-9.71393
▁énergétique	-9.71395
▁comprendre	-9.71476
▁porte	-9.71517
▁travaux	-9.71565
▁risques	-9.71587
▁l'un	-9.71679
▁près	-9.71745
▁déclaré	-9.71781
▁réglementation	-9.71788
▁additional	-9.718
▁l’UE	-9.71892
▁l'agriculture	-9.71954
▁per	-9.71983
▁cost	-9.72051
▁structures	-9.72065
▁représentants	-9.72235
▁He	-9.72318
▁amount	-9.72481
▁d'ailleurs	-9.72497
▁Republic	-9.72497
▁milliards	-9.72533
▁chacun	-9.72621
▁ayant	-9.72635
▁crime	-9.72687
▁criteria	-9.72774
▁took	-9.72811
▁representatives	-9.72967
▁possibility	-9.72972
▁signal	-9.72981
▁heard	-9.73105
▁along	-9.73238
▁conflict	-9.73276
▁institution	-9.73423
▁supported	-9.73446
▁ensuring	-9.73491
▁priorities	-9.73512
▁puisque	-9.73555
▁powers	-9.73583
▁almost	-9.73627
▁devoir	-9.73638
▁EU's	-9.73687
▁US	-9.73705
▁situations	-9.73749
▁plupart	-9.73777
▁Firstly	-9.7379
▁réjouis	-9.73818
ur	-9.73976
▁ever	-9.74009
▁natural	-9.74063
▁challenges	-9.74123
▁stage	-9.74182
▁vont	-9.742
▁established	-9.74286
▁years,	-9.74341
▁Development	-9.74349
▁aider	-9.74374
▁L'Union	-9.745
▁package	-9.7462
▁British	-9.74621
▁International	-9.74667
▁procedures	-9.74719
▁lesquelles	-9.74725
▁level.	-9.74802
▁price	-9.74934
▁importantes	-9.74939
▁investissements	-9.74991
▁behind	-9.75119
▁either	-9.75144
▁Furthermore	-9.75164
▁creating	-9.75271
▁living	-9.75347
▁2009	-9.75513
▁practical	-9.75536
▁found	-9.75547
▁danger	-9.75572
▁waste	-9.75627
▁strengthen	-9.75668
▁effects	-9.7567
▁l'application	-9.75714
▁avoid	-9.7573
▁offer	-9.75731
▁compétitivité	-9.75745
▁liste	-9.76049
▁troisième	-9.76064
▁competitiveness	-9.76071
▁aujourd’hui	-9.76168
▁important.	-9.76208
▁2005	-9.76216
▁choix	-9.76238
▁received	-9.76264
▁add	-9.76323
▁conclure	-9.76348
▁dis	-9.76454
▁adopter	-9.76461
▁Rights	-9.76468
▁défis	-9.76499
▁parole	-9.76603
▁world.	-9.76706
▁training	-9.76731
▁responsables	-9.76762
▁Europe's	-9.769
▁begin	-9.76958
▁you,	-9.77006
▁turn	-9.77026
▁left	-9.77092
th	-9.77186
▁constater	-9.77218
▁Of	-9.77255
▁mal	-9.77339
▁mandat	-9.77386
▁conformément	-9.77391
▁l'ordre	-9.77395
▁stop	-9.77484
▁vision	-9.77499
▁loi	-9.77539
▁success	-9.77639
▁devra	-9.77647
▁grave	-9.77662
▁victims	-9.77848
▁parlementaire	-9.77884
▁parliamentary	-9.77913
▁billion	-9.77947
▁9	-9.77961
▁expect	-9.77995
▁émissions	-9.78018
▁l'adoption	-9.78092
▁unies	-9.78113
on	-9.78144
▁vise	-9.78171
▁proper	-9.78219
ez	-9.78232
▁l'énergie	-9.78241
▁remains	-9.78289
▁sort	-9.78394
▁nor	-9.78455
▁discuss	-9.78508
▁c'est-à-dire	-9.78546
▁directive.	-9.7856
'.	-9.78565
▁presidency	-9.78602
▁extent	-9.78653
▁men	-9.78683
▁year,	-9.78727
▁opposition	-9.78748
▁fournir	-9.78765
▁changements	-9.78826
▁succès	-9.78935
▁surveillance	-9.78948
▁intention	-9.79059
▁19	-9.79208
▁pensons	-9.79288
▁court	-9.79296
▁scope	-9.79446
▁violations	-9.79453
▁week	-9.79506
ne	-9.79535
▁mêmes	-9.79704
▁this.	-9.79787
▁acceptable	-9.79874
▁takes	-9.79913
▁certaine	-9.79926
▁spécifiques	-9.79931
▁soutiens	-9.7999
▁Permettez-moi	-9.8005
▁contribute	-9.80109
able	-9.8012
▁introduction	-9.80229
▁d'entre	-9.80239
▁responsabilités	-9.80352
▁budgets	-9.80477
▁considered	-9.80494
",	-9.80648
▁content	-9.80731
▁République	-9.8074
▁2003	-9.8078
▁n’a	-9.80781
▁mener	-9.80864
▁récemment	-9.80882
▁montre	-9.80892
▁maritime	-9.80902
▁17	-9.80937
▁today.	-9.80945
▁work.	-9.80956
▁chômage	-9.80989
▁Schengen	-9.81001
▁capable	-9.81097
▁13	-9.8114
▁elections	-9.81181
▁s’agit	-9.81253
▁effectivement	-9.81259
▁despite	-9.81301
▁aimed	-9.81323
▁suivi	-9.81413
▁treatment	-9.8144
▁alternative	-9.81473
▁Central	-9.81479
▁humanitarian	-9.81482
te	-9.81574
▁quickly	-9.81687
és	-9.81791
▁discussed	-9.81791
5	-9.81915
▁list	-9.82026
▁élément	-9.82045
▁assessment	-9.82164
ordre	-9.82215
▁veux	-9.82226
▁caractère	-9.82291
▁pose	-9.8231
▁donne	-9.82411
▁World	-9.82454
▁souligné	-9.82487
▁precisely	-9.82497
▁désormais	-9.82536
▁l'égard	-9.82553
▁constructive	-9.82599
▁trying	-9.82633
▁décembre	-9.82646
e,	-9.82649
▁citizens.	-9.82673
▁approved	-9.828
▁First	-9.82816
▁criminal	-9.82854
▁supplémentaires	-9.82869
▁defence	-9.82907
▁connection	-9.82949
▁2002	-9.82969
▁internationales	-9.83009
▁candidats	-9.83031
▁remind	-9.83047
▁souhaiterais	-9.8312
▁Economic	-9.83143
▁(PT)	-9.83225
▁away	-9.83241
▁old	-9.83288
▁votes	-9.8333
▁implemented	-9.83341
▁techniques	-9.83462
▁shown	-9.83539
▁rights,	-9.8358
▁carry	-9.83598
▁December	-9.83686
▁pollution	-9.83696
▁instead	-9.83819
▁fonction	-9.83884
▁obstacles	-9.8395
▁model	-9.84128
▁civile	-9.84169
▁dé	-9.84214
▁reference	-9.84223
▁consiste	-9.84287
4	-9.84331
▁honourable	-9.84403
▁alimentaire	-9.84415
▁applied	-9.84587
▁partners	-9.84605
▁années,	-9.84747
▁accordance	-9.84762
▁beginning	-9.84772
▁care	-9.84855
▁providing	-9.84868
▁huge	-9.84979
▁causes	-9.85041
▁centre	-9.85154
▁indispensable	-9.85191
p	-9.85196
▁confidence	-9.852
▁regret	-9.85204
▁Ireland	-9.85237
▁libéralisation	-9.85289
▁libertés	-9.85299
▁quotas	-9.85356
3	-9.85408
▁reforms	-9.85426
▁atteindre	-9.85474
▁hard	-9.855
▁yeux	-9.85501
),	-9.85505
▁personal	-9.85537
es.	-9.85541
▁j’ai	-9.85558
▁events	-9.85673
▁jours	-9.85707
▁rate	-9.85708
▁Nos	-9.85717
▁improving	-9.85725
▁asylum	-9.85843
▁parfois	-9.85877
▁passé	-9.85933
▁animal	-9.85973
▁maintenir	-9.85978
▁qu’elle	-9.8607
à	-9.86105
▁committed	-9.86131
▁according	-9.86242
▁biais	-9.86352
▁Voilà	-9.8647
▁reading	-9.86487
▁via	-9.8651
▁suffisamment	-9.86538
▁présence	-9.86555
▁allowed	-9.86676
▁demain	-9.86692
ée	-9.86711
▁immigration	-9.8676
▁j'espère	-9.86948
▁dix	-9.86965
▁goes	-9.86968
6	-9.86999
▁réaliser	-9.87009
▁longtemps	-9.87031
▁institutional	-9.87045
▁stand	-9.87128
▁passe	-9.87154
▁capacity	-9.872
▁return	-9.87242
▁favorable	-9.87254
▁partir	-9.87254
▁area.	-9.87284
▁d'autre	-9.87298
▁guidelines	-9.87369
▁l’a	-9.87437
▁mondial	-9.87507
▁issue.	-9.87541
▁malgré	-9.87583
▁independent	-9.87593
▁(FR)	-9.87668
▁Social	-9.87737
▁maximum	-9.87874
▁(IT)	-9.87909
▁producteurs	-9.8793
▁oil	-9.87969
▁puis	-9.88146
▁opinion,	-9.8821
▁importe	-9.88216
▁relatif	-9.88216
▁community	-9.88236
▁considerable	-9.88237
▁l'Europe.	-9.8828
▁profit	-9.88304
▁provides	-9.8831
▁déclarations	-9.88328
▁mer	-9.88444
▁rightly	-9.88447
▁businesses	-9.88454
▁family	-9.88494
▁sectors	-9.88554
▁B	-9.88593
▁terrorisme	-9.88621
▁emissions	-9.88672
▁Now	-9.88697
▁rapide	-9.88735
▁agriculteurs	-9.88736
▁monde.	-9.88763
▁prices	-9.88847
▁communautaires	-9.88931
or	-9.88938
▁événements	-9.89151
▁européens.	-9.89156
▁provision	-9.89224
g	-9.89274
▁allons	-9.89307
▁implementing	-9.89315
▁l'accès	-9.89496
▁Group.	-9.89586
▁40	-9.89747
▁meilleur	-9.89749
▁former	-9.89831
▁obtenir	-9.89842
▁territoire	-9.89854
▁calls	-9.89923
▁stated	-9.89924
▁receive	-9.89926
▁Présidence	-9.9
▁prévoit	-9.90018
▁Conference	-9.90035
▁forte	-9.90038
▁unfortunately	-9.9012
▁P	-9.90139
▁conflit	-9.9016
▁n'avons	-9.90179
▁process.	-9.90439
▁promoting	-9.90459
▁levels	-9.90483
▁2020	-9.90497
▁colleague	-9.90551
▁here.	-9.90579
▁Fund	-9.90706
▁liés	-9.90777
▁referred	-9.90815
▁dealing	-9.90909
▁adoptée	-9.90922
▁actuel	-9.90999
▁forms	-9.91027
▁specifically	-9.91033
▁overall	-9.91142
▁ligne	-9.91157
▁l'égalité	-9.91298
▁ban	-9.91305
▁sociales	-9.91417
▁prévention	-9.91443
▁directement	-9.91473
▁developed	-9.91522
▁paquet	-9.91591
▁veulent	-9.91616
▁outre	-9.9166
▁conscience	-9.91671
▁Banque	-9.91708
▁clause	-9.91709
▁Human	-9.9176
rait	-9.92052
▁rester	-9.92088
▁engagements	-9.92109
▁Sur	-9.92175
▁benefits	-9.92323
▁évident	-9.92353
▁beyond	-9.92515
▁long-term	-9.92569
▁affected	-9.92679
▁decide	-9.92686
▁reality	-9.92733
▁responsable	-9.92735
▁lignes	-9.92766
▁accès	-9.92813
▁half	-9.92822
▁table	-9.92823
▁2001	-9.92889
▁death	-9.92969
▁May	-9.93062
▁side	-9.93161
▁know,	-9.93176
▁gaz	-9.93179
▁Ma	-9.93199
▁industrial	-9.93233
▁complete	-9.93293
▁nations	-9.93308
▁restrictions	-9.93375
▁ans,	-9.93408
▁country,	-9.93434
▁faisant	-9.93503
▁scientific	-9.93586
▁auquel	-9.93623
▁courage	-9.93637
▁définition	-9.9375
▁wanted	-9.93753
▁l’homme	-9.93754
▁comptes	-9.93791
▁niveaux	-9.93797
▁directly	-9.93961
▁disposition	-9.93967
▁innovation	-9.94022
▁emplois	-9.94109
▁requires	-9.94141
▁vote.	-9.94183
▁strategic	-9.94227
▁partnership	-9.94252
▁finally	-9.94255
▁Regulation	-9.94317
▁principal	-9.94382
▁Today	-9.94449
▁days	-9.9448
▁exchange	-9.94531
▁monétaire	-9.94545
▁difficulties	-9.94545
▁16	-9.94572
▁parle	-9.94606
▁100	-9.94726
an	-9.94741
▁bonnes	-9.94806
2	-9.94806
▁populations	-9.94874
▁Justice	-9.94889
▁maintain	-9.94943
▁steps	-9.95052
▁Irish	-9.95079
▁people.	-9.95143
▁sociétés	-9.95168
▁crimes	-9.95186
▁June	-9.95198
▁reconnaissance	-9.95243
▁mort	-9.95295
▁produce	-9.9531
▁goods	-9.95312
▁juin	-9.95351
▁pourrons	-9.95392
▁utiliser	-9.9544
▁created	-9.95492
▁reçu	-9.95625
▁juridiques	-9.95641
▁poser	-9.95817
▁leave	-9.95879
▁n'en	-9.95949
▁menace	-9.95963
▁intérêt	-9.95979
▁ACP	-9.95994
▁déchets	-9.95999
▁country.	-9.96083
▁experts	-9.96098
▁l'efficacité	-9.96123
▁suivre	-9.96199
▁Premièrement	-9.96199
▁EU.	-9.96229
▁envers	-9.9626
▁devenir	-9.96311
▁économique,	-9.96321
▁successful	-9.9636
▁participer	-9.96388
▁claire	-9.96414
▁14	-9.96451
▁correct	-9.96494
▁Agreement	-9.96595
▁haut	-9.96717
▁sait	-9.96739
▁étrangères	-9.96783
▁développement.	-9.96876
▁permanent	-9.96939
▁myself	-9.96985
us	-9.96998
▁similar	-9.97029
▁efficiency	-9.97037
▁gas	-9.97044
▁Merci	-9.9705
▁réseaux	-9.97082
▁ten	-9.97099
▁ratification	-9.97124
▁Balkans	-9.97135
▁intended	-9.97162
ity	-9.97165
▁défendre	-9.97275
▁German	-9.97288
▁How	-9.97297
▁status	-9.97431
▁event	-9.97507
▁knowledge	-9.97534
▁obligation	-9.97535
▁Germany	-9.97586
▁garantie	-9.97608
▁trafic	-9.97667
▁effectively	-9.97703
▁closed.	-9.97733
▁challenge	-9.97791
▁entire	-9.97811
▁néanmoins	-9.97838
▁sitting	-9.97858
▁double	-9.97897
▁principaux	-9.97991
▁naturellement	-9.98113
▁crédits	-9.98138
▁join	-9.98174
▁janvier	-9.98182
▁tâche	-9.98207
▁reconnaître	-9.98234
▁paid	-9.98239
▁words,	-9.98362
▁agir	-9.98362
▁étrangère	-9.98409
▁conciliation	-9.98447
▁closely	-9.98495
▁distribution	-9.98546
▁aller	-9.98638
▁respond	-9.98677
▁exprimer	-9.98705
▁poor	-9.98716
▁voix	-9.98721
▁augmentation	-9.98738
▁limit	-9.98741
▁l'intérêt	-9.98759
▁dossier	-9.98806
▁refer	-9.98843
▁speaking	-9.98866
▁rapporteur.	-9.98932
ées	-9.98973
▁délégation	-9.9898
▁paragraph	-9.99236
▁nucléaire	-9.99342
▁graves	-9.99372
▁tirer	-9.99395
▁anything	-9.99432
▁media	-9.99444
▁supporting	-9.99445
▁represent	-9.99466
».	-9.99479
▁figure	-9.99491
▁contact	-9.99491
▁terrorism	-9.99501
▁supply	-9.99548
▁genre	-9.99567
▁lorsqu'il	-9.99588
▁Internet	-9.99604
▁contenu	-9.99661
▁highly	-9.99667
▁conclude	-9.99671
age	-9.99841
▁animaux	-9.99883
▁comité	-9.99891
▁modification	-9.99957
▁trust	-9.99995
▁duty	-10.0001
▁continent	-10.0001
▁us.	-10.0001
▁code	-10.0004
▁21	-10.0011
▁transition	-10.0018
▁publiques	-10.0021
▁ambitious	-10.0035
▁particulière	-10.0038
▁permettez-moi	-10.0038
▁speech	-10.0042
▁higher	-10.0046
▁montrer	-10.0047
▁citoyens.	-10.0053
▁genuine	-10.0054
▁shows	-10.0054
▁medium-sized	-10.0056
▁soumis	-10.0059
▁border	-10.0074
▁tomorrow	-10.0075
▁WTO	-10.0077
ar	-10.008
▁débats	-10.008
▁parlé	-10.0082
ir	-10.0088
is	-10.009
▁discussing	-10.009
▁financing	-10.0094
▁setting	-10.0107
▁known	-10.0108
▁rest	-10.0118
▁candidate	-10.0119
▁Although	-10.0119
▁Elles	-10.013
▁oral	-10.013
▁accepted	-10.0133
▁E	-10.0139
▁positif	-10.014
▁Rules	-10.0142
▁l'Union.	-10.0144
▁calling	-10.015
▁efficient	-10.015
▁union	-10.0153
▁establishing	-10.0162
▁increasingly	-10.0164
▁l'idée	-10.0164
▁etc.	-10.0165
▁caused	-10.0174
▁purpose	-10.0178
▁whom	-10.0179
▁pacte	-10.0181
▁technique	-10.0184
▁1998	-10.0196
▁Selon	-10.0196
1	-10.0201
f	-10.0201
▁politique.	-10.0205
▁Mon	-10.0205
▁Unfortunately	-10.0208
▁l'information	-10.021
▁harmonisation	-10.0212
▁contrôles	-10.0214
▁procéder	-10.0216
▁institutions.	-10.0219
▁regime	-10.022
▁press	-10.0229
▁défi	-10.0241
▁views	-10.0244
▁clos.	-10.0254
▁II	-10.0255
▁hear	-10.0259
▁debate.	-10.0261
▁Royaume-Uni	-10.027
▁By	-10.0273
▁sérieux	-10.0274
▁sector.	-10.0275
▁achieving	-10.0276
▁salue	-10.0279
▁study	-10.0284
▁point.	-10.0285
▁follow	-10.0295
ci	-10.0302
▁represents	-10.0303
▁traiter	-10.0305
▁types	-10.0316
▁partis	-10.0328
▁réseau	-10.0338
▁l'attention	-10.034
▁budget.	-10.0342
▁pouvoirs	-10.0342
▁law.	-10.0348
▁arguments	-10.0359
▁early	-10.0368
▁emphasise	-10.0368
▁urge	-10.0369
▁Ceci	-10.037
▁fondamental	-10.0373
▁corruption	-10.0373
▁l'autre	-10.0384
▁préoccupations	-10.0384
isation	-10.0384
▁route	-10.0385
▁strengthening	-10.0388
▁annual	-10.039
▁compétence	-10.039
▁l'intégration	-10.0397
▁Security	-10.0401
▁market,	-10.0403
▁violation	-10.0412
▁uvre	-10.0416
▁reducing	-10.0423
▁produced	-10.0431
▁gives	-10.0432
▁obviously	-10.0443
▁pourtant	-10.0447
▁peuples	-10.0447
▁laisser	-10.0448
▁sufficient	-10.0448
▁infrastructure	-10.0454
▁Since	-10.0464
▁January	-10.0469
▁moyennes	-10.0478
▁product	-10.0494
▁spirit	-10.0496
▁demands	-10.0496
▁lecture	-10.0501
▁professionnelle	-10.0503
▁24	-10.0511
▁aims	-10.0531
▁infrastructures	-10.054
▁l'adhésion	-10.0543
▁aient	-10.0545
▁Prodi	-10.0546
▁celle-ci	-10.0547
▁Néanmoins	-10.0548
▁useful	-10.0552
▁administration	-10.0553
▁convinced	-10.0557
▁opinions	-10.056
▁require	-10.0561
▁consommation	-10.0561
▁statements	-10.0562
▁non-	-10.0563
7	-10.0564
▁summit	-10.0573
▁largement	-10.0579
▁Cet	-10.0581
▁looking	-10.0588
▁convergence	-10.0591
▁measure	-10.0598
▁led	-10.0599
▁Foreign	-10.0616
▁consideration	-10.0618
▁député	-10.0619
▁heureux	-10.062
▁Moreover	-10.063
▁dispose	-10.0631
▁building	-10.0633
▁utile	-10.0633
▁connaissance	-10.0637
▁rise	-10.064
▁remember	-10.0656
▁qu'au	-10.0657
▁hold	-10.0657
▁party	-10.066
▁equality	-10.0663
responsibilities	-10.0665
▁nouvel	-10.0676
▁unacceptable	-10.0679
▁l'euro	-10.069
▁transparent	-10.0697
▁chez	-10.0697
▁parfaitement	-10.0716
▁ways	-10.0719
▁cut	-10.0722
▁combating	-10.0731
▁competitive	-10.0735
▁élevé	-10.0735
▁enterprises	-10.0737
▁balanced	-10.0738
▁firstly	-10.0744
▁ceci	-10.0748
▁recognise	-10.0753
▁monetary	-10.0753
▁pourront	-10.0754
es,	-10.0762
▁Mediterranean	-10.0762
▁limited	-10.0766
▁sometimes	-10.0774
▁commitments	-10.0782
▁réalisation	-10.0793
▁member	-10.0795
▁mérite	-10.0797
▁procès-verbal	-10.0802
près	-10.0807
▁Green	-10.0807
▁considérable	-10.081
▁tard	-10.0813
▁recognition	-10.0816
▁so-called	-10.0818
▁comments	-10.0825
▁encourager	-10.0831
▁l'esprit	-10.0831
▁soins	-10.0832
▁concrete	-10.0832
▁d'énergie	-10.0835
▁spécifique	-10.0837
ité	-10.084
▁(NL)	-10.0842
ic	-10.0844
▁discuter	-10.0845
▁proposer	-10.0846
▁européens,	-10.0862
▁constitutionnel	-10.0862
▁réfugiés	-10.0863
▁normal	-10.0866
▁article	-10.0871
▁espérons	-10.088
▁elements	-10.0884
▁services.	-10.0884
▁recours	-10.0889
▁American	-10.0893
▁analyse	-10.0901
▁introduce	-10.0906
▁entirely	-10.0908
▁économie	-10.091
▁thinking	-10.0912
▁Spanish	-10.0914
▁broad	-10.0915
▁avaient	-10.0915
▁comprehensive	-10.0917
ch	-10.0918
▁durant	-10.0918
▁becoming	-10.0918
▁contrary	-10.0931
▁l'UE,	-10.0932
▁ai	-10.0932
▁thought	-10.0935
▁word	-10.0939
▁Ainsi	-10.0946
▁britannique	-10.0947
▁l'ai	-10.0949
▁n’	-10.0953
▁expenditure	-10.0958
▁facing	-10.0963
▁history	-10.0964
▁mécanisme	-10.0964
▁fund	-10.0968
▁traite	-10.0971
▁Minutes	-10.0972
▁Après	-10.0975
▁Brussels	-10.0977
▁définir	-10.0979
▁constitution	-10.0981
▁After	-10.0983
▁delegation	-10.0985
▁home	-10.0999
▁East	-10.1003
▁Strasbourg	-10.1007
▁pointed	-10.1011
▁relationship	-10.1022
▁23	-10.1022
▁sensible	-10.1025
▁seriously	-10.1034
▁mot	-10.104
▁asking	-10.1046
▁unemployment	-10.1046
▁Nevertheless	-10.1047
▁Bank	-10.105
▁Greece	-10.1054
▁au-delà	-10.1065
▁Conférence	-10.1067
▁cross-border	-10.1067
▁1997	-10.1071
▁recommandations	-10.1082
▁monnaie	-10.1093
▁differences	-10.1099
▁contributions	-10.1101
▁discours	-10.1101
▁maintien	-10.1111
▁wrong	-10.1116
▁économies	-10.113
▁parts	-10.1134
▁environnemental	-10.1135
▁liées	-10.1146
▁establishment	-10.1148
▁ré	-10.1154
▁mai	-10.1154
▁souligne	-10.1157
9	-10.1166
▁venir	-10.1168
▁Commissaire	-10.1175
▁liberalisation	-10.1178
▁impose	-10.118
▁budgétaires	-10.1185
▁Iraq	-10.1193
▁l'éducation	-10.1194
▁recommendations	-10.1195
▁CO2	-10.1195
▁wants	-10.1199
▁domaine.	-10.12
▁Malheureusement	-10.12
▁raise	-10.12
▁Messieurs	-10.1202
ter	-10.1206
▁name	-10.1214
il	-10.1215
▁build	-10.1221
▁added	-10.1227
▁d'améliorer	-10.1228
▁devront	-10.1228
▁l'une	-10.123
▁conclusion,	-10.1232
▁development.	-10.124
▁méthode	-10.1242
▁évaluation	-10.1243
▁probably	-10.1246
▁system.	-10.1246
▁d'Europe	-10.1256
▁Israel	-10.1258
▁forget	-10.1265
▁Some	-10.1265
▁closer	-10.1279
▁Luxembourg	-10.1284
▁prochain	-10.1287
ness	-10.1293
▁simplification	-10.1295
▁South	-10.1297
▁souhaitons	-10.1301
▁Indeed	-10.1301
▁pension	-10.1301
▁lives	-10.131
▁avantages	-10.1317
▁appel	-10.1352
▁Nord	-10.137
▁leaders	-10.1372
▁negative	-10.138
▁Italian	-10.1388
▁weeks	-10.1389
▁expression	-10.1393
▁qu’	-10.1397
▁threat	-10.1404
▁avions	-10.1405
▁Belarus	-10.1409
▁populaire	-10.1409
▁risks	-10.1414
▁low	-10.1415
▁mars	-10.1416
▁Environment	-10.1416
▁version	-10.1417
▁understanding	-10.142
▁strongly	-10.142
▁bodies	-10.1422
ers	-10.1427
▁communes	-10.1449
▁applies	-10.1455
▁Aujourd'hui	-10.1457
▁l'initiative	-10.1462
▁exactly	-10.1465
ce	-10.1467
▁semaines	-10.1471
▁estime	-10.1476
▁bear	-10.1479
▁soutenu	-10.1483
▁compensation	-10.1494
▁d'ici	-10.1494
▁visa	-10.1504
▁stocks	-10.1504
▁fond	-10.1505
ès	-10.1509
▁2007	-10.151
▁authority	-10.1513
▁fall	-10.1514
▁activity	-10.1515
▁seraient	-10.1519
▁person	-10.152
▁seek	-10.1521
▁représentent	-10.1524
b	-10.1534
▁presque	-10.1534
▁conflits	-10.1536
▁analysis	-10.1538
▁happened	-10.1544
▁Palestinian	-10.1546
▁actes	-10.1546
▁reconstruction	-10.1547
▁properly	-10.155
▁company	-10.1555
▁drawn	-10.1555
ro	-10.1555
▁original	-10.1555
▁van	-10.1557
▁mécanismes	-10.1559
▁read	-10.1565
▁dangerous	-10.1566
▁j'	-10.157
▁modifier	-10.157
▁parlons	-10.1579
ary	-10.1581
▁outcome	-10.1588
▁l'Assemblée	-10.1597
▁attempt	-10.1601
▁UK	-10.1603
▁faudra	-10.1604
▁milliers	-10.1607
▁faudrait	-10.1608
▁médias	-10.161
me	-10.1614
▁destruction	-10.1618
▁faisons	-10.1621
▁d'en	-10.1629
▁finance	-10.1643
▁sujet.	-10.1645
▁damage	-10.1647
▁demandons	-10.1647
▁implique	-10.1651
▁coût	-10.1656
▁Bruxelles	-10.1663
▁instance	-10.1675
▁programme.	-10.1679
▁dealt	-10.1684
▁Premier	-10.1692
▁improved	-10.1696
▁thème	-10.1704
▁auxquels	-10.1708
▁proposal.	-10.1709
▁décider	-10.1716
▁d'État	-10.1721
▁Iran	-10.173
▁submitted	-10.1738
▁laid	-10.1745
▁MEPs	-10.1746
▁developments	-10.1748
▁protocole	-10.177
▁vais	-10.1782
▁happy	-10.1789
▁s’est	-10.1792
▁pauvres	-10.1802
▁initial	-10.1802
▁enormous	-10.1805
▁big	-10.1811
▁s'en	-10.1817
▁potentiel	-10.1817
▁Amsterdam	-10.1818
▁longue	-10.1822
▁Ladies	-10.1822
▁militaire	-10.1823
▁chances	-10.1827
▁introduced	-10.183
▁export	-10.1834
▁fera	-10.1836
▁borders	-10.1837
▁critical	-10.1857
▁principalement	-10.1862
▁came	-10.1862
▁aborder	-10.1866
▁direction.	-10.1866
▁2006	-10.1867
rai	-10.1867
▁exist	-10.1872
▁entièrement	-10.1873
▁fear	-10.1878
▁patients	-10.1878
▁informed	-10.1882
▁conference	-10.1884
▁l'argent	-10.1895
▁examine	-10.1896
▁cela,	-10.1897
▁industries	-10.1897
▁mutual	-10.19
▁nationale	-10.19
8	-10.1903
▁flexibility	-10.1903
▁integrated	-10.191
▁500	-10.1911
▁prevention	-10.1912
▁d'aide	-10.1917
▁invite	-10.1921
▁1996	-10.1924
▁travail,	-10.1927
▁An	-10.1927
▁taxation	-10.1927
▁putting	-10.1929
▁prévu	-10.1932
▁sport	-10.1935
▁montant	-10.1946
▁coup	-10.195
▁l'action	-10.1965
▁future,	-10.197
▁l'ont	-10.1978
▁complex	-10.1982
▁!	-10.1983
▁send	-10.1984
▁démocratiques	-10.1999
▁Middle	-10.2001
▁question,	-10.2002
▁l'intention	-10.2004
▁growing	-10.2006
▁evidence	-10.2008
▁armes	-10.201
▁managed	-10.2011
▁level,	-10.2011
▁regrettable	-10.2017
▁earlier	-10.2019
▁definition	-10.2022
▁assure	-10.2027
▁délai	-10.2027
▁hier	-10.2044
▁Grèce	-10.2046
▁contains	-10.2049
▁people,	-10.205
▁diversité	-10.2055
▁says	-10.2055
▁Trade	-10.2063
▁humains	-10.2064
▁Even	-10.207
▁d'information	-10.207
▁place.	-10.2071
▁lumière	-10.2073
▁considérer	-10.2075
▁sensitive	-10.2075
▁technology	-10.2075
▁l'homme.	-10.2084
▁maladies	-10.2087
▁organised	-10.2091
▁opening	-10.2095
▁(A	-10.2102
▁acteurs	-10.2102
▁contient	-10.2104
▁prêts	-10.2105
▁unable	-10.2107
▁probablement	-10.2107
▁état	-10.2109
▁satisfaction	-10.2131
ist	-10.2134
▁Prime	-10.2135
▁child	-10.2135
▁sound	-10.2143
▁bénéficier	-10.2145
▁mainly	-10.2156
▁well.	-10.2162
▁collective	-10.2167
k	-10.2169
▁Portugal	-10.217
▁problem.	-10.2181
▁fondamentale	-10.2191
▁mots	-10.2196
▁parlements	-10.2198
▁seem	-10.22
▁reduced	-10.2216
▁gouvernance	-10.222
▁critique	-10.2226
▁yesterday	-10.2229
▁Russian	-10.2248
rons	-10.2253
▁orientations	-10.2255
▁l'encontre	-10.2256
▁animals	-10.2259
▁appliquer	-10.2262
▁burden	-10.2264
▁merely	-10.2267
▁problème.	-10.2268
▁Health	-10.2269
▁climatique	-10.2272
▁reprises	-10.2273
▁atteint	-10.2275
▁easy	-10.2276
▁producers	-10.2277
▁prochaines	-10.2279
▁concentrer	-10.2282
▁(S	-10.2283
▁leading	-10.2287
▁alimentaires	-10.2289
▁structurels	-10.2294
▁resolve	-10.2303
▁équilibre	-10.2313
▁années.	-10.2314
▁substance	-10.2317
▁Charter	-10.2318
▁Que	-10.2318
▁limites	-10.2319
▁alone	-10.2323
▁disposer	-10.2339
▁signed	-10.234
▁serve	-10.2361
▁n'ai	-10.2362
▁septembre	-10.2367
▁agricoles	-10.2369
▁Africa	-10.237
▁continuing	-10.2378
▁22	-10.239
▁immigrants	-10.2392
▁Romania	-10.2395
▁flexible	-10.2396
▁modifications	-10.2396
▁Traité	-10.2399
▁convaincu	-10.2409
▁way.	-10.2412
▁remarque	-10.2414
▁body	-10.2422
▁currency	-10.2424
▁laws	-10.2426
▁stratégique	-10.2428
▁exercise	-10.2432
▁discharge	-10.2433
▁oeuvre	-10.245
▁oublier	-10.2452
▁Programme	-10.2458
▁limiter	-10.2459
▁exprimé	-10.2465
▁fish	-10.2465
▁thousands	-10.2466
▁60	-10.2471
▁renewable	-10.2475
▁1,	-10.2475
▁Même	-10.2478
▁Spain	-10.2482
▁demandes	-10.2492
▁centres	-10.2495
▁Turkish	-10.2501
▁matter.	-10.2501
▁Amendments	-10.2507
▁elected	-10.2511
▁failure	-10.2513
▁strict	-10.2515
▁arrive	-10.2517
▁Ministers	-10.2525
▁rail	-10.253
▁origin	-10.2536
▁worked	-10.2539
▁guarantees	-10.2541
▁représentant	-10.2542
▁Roumanie	-10.2546
▁Comment	-10.2546
▁négociation	-10.2547
▁méthodes	-10.2548
im	-10.2549
▁method	-10.2556
▁européennes.	-10.2557
▁told	-10.2558
▁staff	-10.2567
▁taxes	-10.257
▁desire	-10.2576
▁supplémentaire	-10.2577
▁substantial	-10.2578
ion	-10.2583
▁adequate	-10.2591
▁related	-10.2593
▁Many	-10.2594
st	-10.2595
▁excessive	-10.2597
▁sign	-10.2599
▁includes	-10.2617
▁efficaces	-10.2618
▁recommendation	-10.2623
▁PME	-10.2624
▁soutient	-10.2624
▁cover	-10.2629
▁montré	-10.263
▁presse	-10.2644
▁avenir	-10.2645
▁totale	-10.2657
▁totally	-10.2661
▁véhicules	-10.2662
▁ought	-10.2665
ement	-10.2666
▁disposons	-10.2668
as	-10.2675
▁speakers	-10.2679
▁recommandation	-10.268
▁petits	-10.2681
▁l'Europe,	-10.2681
▁degree	-10.2684
▁standard	-10.2685
▁institutions,	-10.2691
▁Paper	-10.2692
▁September	-10.2697
▁l'absence	-10.2698
▁formes	-10.2704
▁stade	-10.2704
▁accorder	-10.2706
▁methods	-10.272
▁actual	-10.272
▁globale	-10.2721
▁économique.	-10.2724
▁faites	-10.2733
▁defend	-10.2734
▁2,	-10.2736
▁intend	-10.2736
▁improvement	-10.2739
▁logique	-10.2742
▁idée	-10.2745
▁(ES)	-10.2754
▁language	-10.2755
▁garanties	-10.2756
▁(The	-10.2757
▁mechanism	-10.2761
▁conduite	-10.2763
▁conclu	-10.2764
▁tient	-10.2765
▁wishes	-10.2776
▁services,	-10.2783
▁mondialisation	-10.2783
▁T	-10.2787
▁novembre	-10.2788
▁areas.	-10.2795
▁migration	-10.2796
▁médicaments	-10.2804
▁failed	-10.2804
▁ideas	-10.2813
▁confrontés	-10.2814
▁attirer	-10.2818
▁extend	-10.2822
▁législatif	-10.2826
▁crises	-10.2834
▁essentielle	-10.2843
▁range	-10.285
▁celui-ci	-10.2856
▁revenir	-10.2857
▁secure	-10.2861
at	-10.2869
▁sentiment	-10.2872
▁moi-même	-10.2873
▁1er	-10.2889
▁grateful	-10.2891
▁flexibilité	-10.2893
▁ans.	-10.2895
▁sens,	-10.2901
▁Depuis	-10.2912
▁bringing	-10.2914
administration	-10.292
▁approuvé	-10.2921
▁établir	-10.2928
▁voire	-10.293
▁Sud	-10.2935
▁2008	-10.2937
▁J’ai	-10.2946
▁linked	-10.2946
▁them,	-10.2961
▁Monetary	-10.2964
V)	-10.2968
▁test	-10.2973
▁crisis.	-10.2973
▁happen	-10.2977
▁limite	-10.2977
▁décharge	-10.2979
▁rappelle	-10.2985
▁November	-10.2993
▁fiscal	-10.2994
▁way,	-10.2995
▁idées	-10.2995
▁interventions	-10.3002
▁obvious	-10.3003
▁mobilité	-10.3003
▁sociale.	-10.3016
▁31	-10.3018
▁servir	-10.3019
▁enter	-10.3019
▁penser	-10.302
▁mandate	-10.3021
▁conventions	-10.3021
▁sujets	-10.3021
▁réelle	-10.3023
est	-10.3025
▁involvement	-10.303
▁land	-10.3034
▁Alors	-10.3038
▁network	-10.3039
▁involving	-10.304
▁heart	-10.3045
▁occasions	-10.3046
▁highlight	-10.3046
▁opposed	-10.305
▁2010	-10.3052
▁tackle	-10.3052
▁navires	-10.3058
▁official	-10.3059
▁actuelle,	-10.3069
▁G	-10.307
▁issues.	-10.3071
▁Structural	-10.3072
▁d'application	-10.3072
▁l'avis	-10.3078
▁getting	-10.308
▁échanges	-10.3084
▁Why	-10.3084
▁minutes	-10.3085
▁divers	-10.3096
▁addressed	-10.3098
▁accidents	-10.31
▁now,	-10.3104
▁Car	-10.3105
▁consistent	-10.3106
▁quelles	-10.3109
▁(RO)	-10.3112
▁Council's	-10.312
▁étape	-10.3129
▁decision-making	-10.313
▁26	-10.3134
▁départ	-10.3134
▁communautaire.	-10.3136
▁offre	-10.3139
▁Do	-10.3142
▁réalisé	-10.3143
▁truly	-10.3144
▁traités	-10.3147
▁refugees	-10.3153
▁travel	-10.3162
0	-10.3171
▁mechanisms	-10.3172
▁Summit	-10.3172
▁immediate	-10.3173
▁chefs	-10.3173
▁faite	-10.3179
▁futur	-10.3184
▁200	-10.3196
▁faced	-10.3198
▁argument	-10.32
▁évidence	-10.32
▁law,	-10.321
▁Certains	-10.3211
▁Agency	-10.3217
▁ajouter	-10.3221
▁action.	-10.3222
▁moindre	-10.3227
▁extension	-10.3227
▁examiner	-10.3229
ais	-10.3233
▁stable	-10.325
▁morning	-10.3252
▁durée	-10.3253
▁agences	-10.3255
▁prend	-10.3258
▁relever	-10.3259
▁advantage	-10.3262
▁obtenu	-10.3262
▁aujourd'hui.	-10.3264
▁talks	-10.3267
▁else	-10.3269
▁March	-10.327
▁intentions	-10.3271
▁justement	-10.3271
▁Kingdom	-10.3275
▁campagne	-10.3275
▁relatifs	-10.3276
▁protecting	-10.3279
▁préparation	-10.3282
ri	-10.3289
▁massive	-10.3291
▁operation	-10.3291
▁indiqué	-10.3295
▁America	-10.3299
▁humaine	-10.3303
▁sent	-10.3304
▁ready	-10.3305
▁règlements	-10.3306
▁legislation.	-10.3308
▁questions.	-10.3308
▁credit	-10.3309
▁pied	-10.3312
▁accompli	-10.3323
▁minorités	-10.3324
▁election	-10.3327
▁figures	-10.3328
▁forced	-10.3331
▁appeal	-10.3331
▁critiques	-10.3334
▁persons	-10.3336
▁greatest	-10.334
▁faciliter	-10.3344
▁option	-10.3345
▁climat	-10.3349
▁retard	-10.3352
▁remarques	-10.3352
▁véritablement	-10.3352
▁chiffres	-10.3354
▁recognised	-10.3364
▁targets	-10.3369
▁regrette	-10.3369
▁mises	-10.3373
▁networks	-10.3373
▁too.	-10.3374
▁heures	-10.3379
▁October	-10.3379
▁New	-10.3383
▁l'immigration	-10.3397
ive	-10.3402
▁adopting	-10.3405
▁followed	-10.3408
▁choice	-10.3413
▁estimons	-10.3414
▁practices	-10.3419
▁bad	-10.3427
▁fins	-10.3429
▁produire	-10.343
▁interesting	-10.3439
▁African	-10.3443
▁us,	-10.3448
▁commerciales	-10.3455
▁scientifiques	-10.3457
▁champ	-10.346
▁seeking	-10.3462
▁Barroso	-10.3465
▁granted	-10.3469
▁empêcher	-10.3473
▁faible	-10.3476
▁vertu	-10.3481
▁femme	-10.3484
▁insister	-10.3484
li	-10.3487
▁humanitaire	-10.3499
▁society.	-10.3502
▁matin	-10.3503
▁inform	-10.3504
▁l'amélioration	-10.3511
▁ability	-10.3512
▁criminalité	-10.3512
▁conduct	-10.3513
▁run	-10.3514
▁lost	-10.3516
▁House.	-10.3524
▁absence	-10.3527
▁dirigeants	-10.3531
▁progresser	-10.3533
▁points.	-10.3538
▁supports	-10.3539
▁appear	-10.3549
▁element	-10.3552
▁Pourquoi	-10.3557
▁reply	-10.3561
▁Lorsque	-10.3567
▁petit	-10.3568
▁réponses	-10.3568
▁governance	-10.3569
▁plénière	-10.3569
x	-10.3575
▁shared	-10.3576
▁Budget	-10.3578
▁devait	-10.3579
▁distinction	-10.3579
▁exploitation	-10.3585
▁attendre	-10.3587
▁bilateral	-10.3591
▁agreement.	-10.3605
▁man	-10.3613
▁concrètes	-10.3615
▁covered	-10.3617
▁Ukraine	-10.362
▁involve	-10.3627
▁judiciaire	-10.3628
▁soir	-10.3628
▁starting	-10.3633
▁Kyoto	-10.3634
▁Euro	-10.3634
▁ground	-10.3642
▁réserve	-10.3648
▁contrôler	-10.365
▁contacts	-10.3656
▁Public	-10.3669
▁mentionné	-10.3679
▁l'état	-10.368
▁Afghanistan	-10.3685
▁efficacement	-10.3685
▁applicable	-10.3688
▁North	-10.3689
▁locales	-10.3692
▁suffering	-10.3692
▁finances	-10.3693
▁fondamentales	-10.3694
▁28	-10.3694
▁utilisation	-10.3698
▁immediately	-10.37
▁explain	-10.3701
▁finalement	-10.3708
▁reject	-10.371
▁Avec	-10.3714
▁comply	-10.3715
▁affaire	-10.3719
▁profiter	-10.3719
▁avancer	-10.3723
▁l'introduction	-10.3723
▁Affairs,	-10.3738
▁1995	-10.3746
▁scientifique	-10.3748
▁puissions	-10.3748
▁cent	-10.3754
▁age	-10.3756
▁Thirdly,	-10.3756
▁gender	-10.3756
▁evaluation	-10.376
▁différences	-10.3765
▁d'éviter	-10.3765
▁monitor	-10.3768
▁d	-10.3769
▁traffic	-10.3769
▁designed	-10.3769
▁emploi	-10.3769
▁detailed	-10.3773
ex	-10.3787
▁(EL)	-10.3793
▁presence	-10.3796
▁catastrophe	-10.3797
▁Bureau	-10.3805
▁auront	-10.3807
▁compagnies	-10.3807
▁proposing	-10.3823
▁lois	-10.3824
▁subventions	-10.3825
▁é	-10.3833
▁devrons	-10.3837
▁ahead	-10.3838
▁soutenons	-10.3839
▁j'aimerais	-10.3842
▁diverses	-10.3847
▁l’on	-10.3849
▁F	-10.385
▁thereby	-10.385
▁affect	-10.3853
▁utilisés	-10.3854
▁eaux	-10.3866
▁continues	-10.3866
▁While	-10.3873
▁Democrats	-10.3875
▁repeat	-10.3881
▁Greek	-10.3885
▁citizens,	-10.3895
▁target	-10.3898
▁favoriser	-10.3901
▁Van	-10.3902
▁inacceptable	-10.3904
▁Nice	-10.3904
▁viande	-10.3905
▁monde,	-10.3907
▁suppression	-10.3908
▁Question	-10.3909
▁réflexion	-10.3912
ise	-10.3914
▁safe	-10.3915
▁statistiques	-10.3917
▁payments	-10.3936
▁income	-10.3939
▁Swedish	-10.3939
▁déterminer	-10.394
▁Troisièmement	-10.3941
▁impression	-10.3944
▁judicial	-10.3946
▁nation	-10.3951
▁États-Unis,	-10.3956
▁seuls	-10.3961
▁economy.	-10.3963
▁portant	-10.397
▁faits	-10.3972
▁accepté	-10.3973
▁rejected	-10.3975
▁Ne	-10.3976
▁retour	-10.3977
▁naturally	-10.398
▁chemin	-10.3984
▁l'avenir.	-10.3986
▁qu’une	-10.399
▁planning	-10.399
▁circumstances	-10.3993
▁lancer	-10.3997
▁revenus	-10.3999
▁l'évolution	-10.4
▁soi	-10.4004
▁arms	-10.4007
▁spent	-10.4012
▁independence	-10.4016
▁series	-10.402
▁parlementaires	-10.4024
ta	-10.4033
▁socialiste	-10.4037
▁bas	-10.4039
▁consommateurs.	-10.404
▁binding	-10.4041
▁développement,	-10.4052
▁sociale,	-10.4054
▁aurons	-10.4054
▁modern	-10.4057
▁participate	-10.4058
▁region.	-10.4061
▁poids	-10.4067
▁suffit	-10.4067
▁citoyen	-10.4069
▁charges	-10.407
▁haute	-10.4073
▁emphasis	-10.4074
▁bases	-10.4079
▁d'informations	-10.4085
▁premières	-10.4089
▁anyone	-10.4092
▁utilisé	-10.4098
▁banques	-10.41
▁problems.	-10.4104
▁euros	-10.4105
▁tests	-10.4108
ré	-10.411
▁combien	-10.4111
▁minority	-10.4111
▁rates	-10.4118
▁exactement	-10.4121
▁l'opinion	-10.4132
pplaudissements)	-10.4139
▁fasse	-10.4152
▁trafficking	-10.4154
▁essentiellement	-10.4159
▁expected	-10.4161
▁Eastern	-10.417
▁environment.	-10.4181
▁Treaty.	-10.4182
▁representative	-10.4183
▁débat.	-10.4185
▁Tous	-10.419
▁Pakistan	-10.4194
▁professional	-10.4194
▁cycle	-10.4198
▁improvements	-10.4199
▁vert	-10.4201
di	-10.4203
▁environnement	-10.4203
▁acts	-10.421
▁d’être	-10.4215
▁langue	-10.4217
▁80	-10.4225
▁transfer	-10.4229
▁reasonable	-10.4231
▁réalisés	-10.4244
▁debates	-10.4245
▁crisis,	-10.4247
▁worth	-10.4247
▁2000,	-10.4248
▁m'a	-10.4264
ai	-10.4267
▁implications	-10.4272
▁changer	-10.4273
▁préparer	-10.4282
▁otherwise	-10.4283
▁n'était	-10.4283
tandis	-10.4284
▁règle	-10.4289
▁Rule	-10.429
▁trouvent	-10.4294
▁arrangements	-10.4294
▁financer	-10.4298
v	-10.4301
▁sea	-10.431
▁Chamber	-10.4313
▁tourisme	-10.4313
▁House,	-10.4321
▁extérieure	-10.4322
▁inclusion	-10.4329
▁adoptées	-10.4331
▁cultures	-10.4335
▁manner	-10.4339
▁existence	-10.4341
▁obtain	-10.4342
▁parlement	-10.4347
▁gave	-10.4349
▁l’environnement	-10.4349
▁porter	-10.4352
▁supervision	-10.4352
▁faire.	-10.4353
▁declaration	-10.4355
▁campaign	-10.4356
▁préserver	-10.4358
▁resolutions	-10.4361
pprovisionnement	-10.4363
▁later	-10.4363
▁frais	-10.4364
▁parvenus	-10.4365
▁environ	-10.4378
▁attend	-10.4378
▁concerned.	-10.4396
▁29	-10.4398
▁calendrier	-10.4411
ate	-10.4413
la	-10.4414
▁passagers	-10.4415
▁then,	-10.4417
▁happening	-10.4423
▁rendu	-10.4424
▁Strategy	-10.4425
▁amongst	-10.4428
▁ceux-ci	-10.4435
▁factor	-10.4436
▁d'emplois	-10.4437
▁équitable	-10.4439
tra	-10.4442
▁fermement	-10.4442
▁fortement	-10.4445
▁Only	-10.4446
▁ports	-10.4447
▁meilleures	-10.4448
▁lower	-10.4455
▁Such	-10.4455
▁weapons	-10.4456
▁Roma	-10.4461
▁pourrions	-10.4464
▁controls	-10.4467
▁d'assurer	-10.447
▁immédiatement	-10.4471
▁technologie	-10.4474
▁conviction	-10.4475
▁rapid	-10.4486
▁réaction	-10.4487
▁payer	-10.4489
▁support.	-10.449
ance	-10.4493
▁entry	-10.4495
▁General	-10.4497
▁cooperation.	-10.4504
▁commune.	-10.4509
▁religious	-10.451
▁Assemblée,	-10.451
▁Agriculture	-10.4519
▁lies	-10.4521
▁certes	-10.4525
▁Pact	-10.4528
▁transit	-10.453
▁started	-10.4533
▁j'estime	-10.454
▁neither	-10.4543
▁regulatory	-10.4544
▁juillet	-10.4546
▁politiques.	-10.4547
▁tourism	-10.455
▁moral	-10.4555
▁restent	-10.4557
▁destinés	-10.4565
▁easier	-10.4565
▁disaster	-10.4566
▁domestic	-10.4568
▁région.	-10.457
▁manage	-10.4571
▁terrorist	-10.4574
▁étude	-10.4585
▁People'	-10.4589
▁options	-10.459
▁comprends	-10.4594
▁réussi	-10.4606
▁Sweden	-10.4609
▁tonnes	-10.4611
▁Those	-10.4614
▁States'	-10.4616
▁terme,	-10.4616
▁politicians	-10.4622
▁goal	-10.4623
▁commerciaux	-10.4626
▁d'adopter	-10.4626
▁concernés	-10.463
▁voisins	-10.463
▁generally	-10.4634
▁encouraging	-10.4636
▁annuel	-10.4636
▁viens	-10.465
▁français	-10.4656
▁membership	-10.4658
▁whilst	-10.466
▁Agenda	-10.4664
▁cœur	-10.467
▁proportion	-10.4671
▁facilitate	-10.4676
▁so.	-10.4677
▁mauvaise	-10.4684
▁Socialist	-10.4685
▁exige	-10.4692
▁treaty	-10.4697
▁association	-10.471
▁langues	-10.4717
▁SMEs	-10.4717
▁savez,	-10.4719
▁Re	-10.4725
▁réfléchir	-10.473
▁Cyprus	-10.4731
▁families	-10.4734
▁Poland	-10.4734
▁Commission’s	-10.4735
isme	-10.4735
▁d'origine	-10.4736
▁fail	-10.4742
▁grounds	-10.4743
▁combattre	-10.4745
▁economies	-10.4747
▁sécurité.	-10.4748
▁entreprises.	-10.4749
▁criticism	-10.4749
▁L	-10.4757
▁pensions	-10.4762
▁Lisbonne.	-10.4765
▁Czech	-10.4767
▁solve	-10.4768
▁attacks	-10.477
▁From	-10.4773
▁plenary	-10.4779
▁firm	-10.4781
▁précise	-10.4782
▁autres,	-10.4784
▁signaler	-10.4786
▁W	-10.479
▁Yet	-10.4792
▁Maastricht	-10.4798
▁octobre	-10.4801
▁Research	-10.4807
de	-10.4812
aux	-10.4819
▁carefully	-10.4819
▁moving	-10.482
▁bien-être	-10.4826
▁ouverte	-10.4838
▁relève	-10.4839
▁d'urgence	-10.4839
▁revêt	-10.4846
ie	-10.4849
▁solution.	-10.4854
▁meetings	-10.4857
▁appears	-10.4859
▁l'élaboration	-10.4867
▁Legal	-10.4873
▁Western	-10.4874
▁missions	-10.4879
▁lui-même	-10.488
▁delighted	-10.488
▁dehors	-10.488
▁associations	-10.4881
▁nucléaires	-10.4885
▁évoqué	-10.4889
▁cohérence	-10.4893
▁précédent	-10.4897
▁proposée	-10.4898
▁lettre	-10.4911
▁n'existe	-10.4912
▁principales	-10.4916
▁PPE	-10.492
▁voice	-10.4922
▁constitutional	-10.4925
▁terroristes	-10.4931
▁imposed	-10.4936
▁communications	-10.4942
▁secret	-10.4953
▁Quelle	-10.4955
▁system,	-10.4956
▁(Applause)	-10.4957
▁attendons	-10.4964
▁l'espace	-10.4973
▁vaste	-10.4977
▁portée	-10.4979
▁equally	-10.498
▁Auditors	-10.4981
▁ordre	-10.4987
▁dire,	-10.4991
▁(Le	-10.4991
▁connu	-10.4993
▁compliance	-10.4995
▁visas	-10.5009
▁Livre	-10.5011
▁modernisation	-10.5011
▁l'OMC	-10.5017
▁endorse	-10.5023
▁mobility	-10.5027
▁réserves	-10.5033
▁communautés	-10.5034
▁reprise	-10.5034
▁revient	-10.504
▁contribué	-10.504
▁acquis	-10.5041
▁préoccupation	-10.5041
▁appropriations	-10.5044
▁internationaux	-10.5044
▁souhaitent	-10.5046
▁cesse	-10.505
▁J'estime	-10.5056
▁Lisbonne,	-10.5057
▁O	-10.5058
▁elle-même	-10.506
▁lines	-10.506
▁augmenter	-10.5075
▁Suède	-10.5076
▁round	-10.5077
▁fonctionnaires	-10.5078
▁essentiels	-10.5081
▁Berlin	-10.5083
▁vite	-10.5083
▁competence	-10.5084
▁ouvert	-10.5088
▁délais	-10.509
▁requirement	-10.5094
▁reflect	-10.5098
▁constate	-10.51
▁tour	-10.51
▁K	-10.51
▁credibility	-10.5102
▁familles	-10.5109
▁religion	-10.511
▁parents	-10.5111
▁conservation	-10.5118
▁fiscale	-10.512
▁trouvé	-10.5122
▁approval	-10.5123
▁permettent	-10.5129
▁matières	-10.513
▁link	-10.5141
▁constituer	-10.5143
▁vaut	-10.5145
▁terminer	-10.5147
▁forthcoming	-10.5147
▁subsidies	-10.5149
▁Action	-10.5152
▁demonstrate	-10.5153
▁position.	-10.5156
▁diversity	-10.5161
▁militaires	-10.5162
▁paraît	-10.5167
▁likely	-10.5167
▁Europol	-10.5169
▁interested	-10.5169
▁L'Europe	-10.5171
▁étroite	-10.5172
▁auxquelles	-10.5173
▁speed	-10.5175
▁separate	-10.5181
▁subsidiarity	-10.5181
▁entendre	-10.5184
▁helping	-10.5184
▁office	-10.519
▁negotiating	-10.5192
▁marchandises	-10.5195
au	-10.5208
▁learn	-10.5208
▁Stability	-10.5209
▁gain	-10.5211
▁déposé	-10.5213
▁fraud	-10.522
▁conséquence	-10.5222
▁c'	-10.5224
▁qu’un	-10.5226
▁placed	-10.523
▁today's	-10.5234
▁minute	-10.5236
▁acte	-10.524
▁Funds	-10.5245
▁rend	-10.5246
▁port	-10.5247
▁Charte	-10.5251
▁territory	-10.5251
▁garder	-10.5259
▁articles	-10.5262
▁poursuite	-10.5266
▁allowing	-10.5267
▁tobacco	-10.5268
▁payment	-10.527
▁Sea	-10.5271
▁accrue	-10.5271
▁voulu	-10.5273
▁personally	-10.5275
▁fighting	-10.5277
▁lose	-10.5278
▁établi	-10.5279
...	-10.5281
▁Bulgarie	-10.5283
▁opérations	-10.5286
▁moitié	-10.5294
▁offrir	-10.5295
▁numerous	-10.5298
▁committees	-10.5298
▁notion	-10.5299
▁s’	-10.5302
▁area,	-10.5303
▁Israël	-10.5309
▁Policy	-10.5311
▁J'	-10.5324
▁vivre	-10.5326
▁supprimer	-10.5327
▁disponibles	-10.5331
▁êtes	-10.5331
▁sides	-10.5337
▁Éta	-10.534
▁Pologne	-10.534
▁board	-10.5347
▁proposes	-10.5347
▁fixer	-10.535
to	-10.5358
▁transactions	-10.5359
▁safeguard	-10.536
▁labelling	-10.5361
▁disease	-10.5365
ns	-10.5366
▁tendance	-10.5367
▁affairs	-10.5371
»,	-10.5371
▁trading	-10.5374
▁Aussi	-10.5377
▁régional	-10.5378
▁facile	-10.5379
▁refuse	-10.5391
▁espace	-10.5392
▁hausse	-10.5397
▁plein	-10.5399
▁customs	-10.541
▁catastrophes	-10.5412
▁glad	-10.5413
▁l'innovation	-10.5416
▁justice.	-10.542
▁dépend	-10.542
▁issue,	-10.5421
▁limits	-10.5426
▁Bulgaria	-10.5429
▁traditional	-10.543
▁famille	-10.5432
▁change.	-10.5434
▁tenter	-10.5441
▁continued	-10.5446
▁record	-10.5452
▁d'intérêt	-10.5453
▁realise	-10.5454
▁l'impact	-10.5455
▁régionale	-10.5458
▁defined	-10.5464
▁vouloir	-10.5468
▁peaceful	-10.5471
▁Baltic	-10.5478
▁pêcheurs	-10.5479
▁blanc	-10.5484
▁April	-10.5488
▁crédibilité	-10.5491
▁hours	-10.5491
▁voluntary	-10.5492
▁correctement	-10.5495
▁policies.	-10.55
▁maladie	-10.5501
▁Not	-10.5502
▁vivent	-10.5507
▁ECU	-10.5511
ling	-10.5513
▁expérience	-10.5521
▁résolutions	-10.5523
▁industry.	-10.5523
▁entreprises,	-10.5525
▁J'aimerais	-10.5528
▁ultimately	-10.5529
▁sérieusement	-10.553
▁études	-10.5538
▁ambitieux	-10.5546
▁front	-10.5546
▁demonstrated	-10.5549
▁agencies	-10.555
▁débattre	-10.5551
▁situation,	-10.5556
▁letter	-10.5558
▁fruit	-10.5559
I	-10.5563
▁l'accent	-10.5565
▁complète	-10.5571
▁consommateurs,	-10.5578
▁entreprise	-10.5588
▁Plus	-10.5589
man	-10.5589
▁PPE-DE	-10.5594
▁attack	-10.5596
▁imposer	-10.5599
▁functioning	-10.5601
▁associated	-10.5609
▁l'échelle	-10.561
▁personnellement	-10.5612
▁d'asile	-10.5616
▁Assemblée.	-10.5616
▁Another	-10.5617
▁recevoir	-10.5627
▁d'aujourd'hui	-10.5628
▁written	-10.5645
▁material	-10.5647
▁population.	-10.5647
▁activité	-10.5652
ism	-10.5655
▁Vice-President	-10.5658
▁énorme	-10.5659
▁Commissioners	-10.5661
ma	-10.5664
▁peoples	-10.5665
▁terrain	-10.5665
▁subsidiarité	-10.567
▁consommateur	-10.5673
▁amélioration	-10.5673
▁operate	-10.5675
▁différence	-10.5675
▁d'obtenir	-10.5678
▁overcome	-10.5678
▁recovery	-10.5682
▁égard.	-10.5685
▁process,	-10.5686
▁visit	-10.5688
ul	-10.5688
▁space	-10.5689
▁According	-10.5689
▁Quant	-10.5689
▁connaître	-10.5695
▁lien	-10.5696
▁concernent	-10.5699
▁capacités	-10.5708
▁work,	-10.571
▁factors	-10.5719
▁m'	-10.572
▁entend	-10.5721
▁Italy	-10.5721
▁average	-10.5723
▁démocrates	-10.5726
▁now.	-10.5732
▁qu'a	-10.5733
▁Framework	-10.5734
▁l'histoire	-10.5737
▁l'augmentation	-10.5737
▁measures.	-10.5738
▁Lastly	-10.574
▁aliments	-10.5744
▁destinées	-10.5746
▁tried	-10.5749
▁facteurs	-10.5756
▁suggest	-10.5757
▁stock	-10.5762
ous	-10.5766
▁phénomène	-10.5769
▁assume	-10.577
▁minorities	-10.577
▁sexual	-10.5776
▁late	-10.5778
▁précis	-10.5782
▁revision	-10.5782
▁Austria	-10.5792
00	-10.5797
▁joue	-10.5797
lo	-10.5801
▁esprit	-10.5802
▁legitimate	-10.5807
▁partout	-10.5808
▁contained	-10.5809
▁connaît	-10.581
▁d'emploi	-10.581
▁communities	-10.5811
▁forum	-10.5815
▁changed	-10.5815
ia	-10.5819
▁ethnic	-10.5821
▁involves	-10.5823
▁nécessaire.	-10.5824
▁fondée	-10.5824
▁fut	-10.5827
▁sens.	-10.5829
▁...	-10.5836
▁historique	-10.5838
▁constant	-10.5839
▁préciser	-10.5841
▁entitled	-10.5841
▁cooperate	-10.5842
▁Avant	-10.5844
▁Portuguese	-10.5845
▁cancer	-10.5854
▁Européens	-10.5857
▁appreciate	-10.5858
▁présentée	-10.586
na	-10.5861
▁terrible	-10.5866
▁garde	-10.5873
▁transfert	-10.5874
▁consumption	-10.5874
▁Financial	-10.5876
id	-10.5877
▁concluded	-10.5879
▁primarily	-10.588
▁confirm	-10.5883
▁awareness	-10.5889
▁avril	-10.589
▁réunions	-10.5896
vo	-10.5896
▁top	-10.5902
▁commissions	-10.5903
▁fonctionne	-10.591
▁réussite	-10.592
▁approve	-10.5922
▁public.	-10.5922
-il	-10.5924
▁commentaires	-10.5929
▁2000.	-10.5932
▁parliaments	-10.5934
▁terme.	-10.5936
▁officials	-10.5936
▁democracy.	-10.5936
▁banks	-10.5939
▁paiements	-10.5941
▁fer	-10.5941
▁quels	-10.5942
▁Energy	-10.5946
▁difference	-10.5946
▁citizen	-10.5949
▁decisive	-10.5954
▁dignité	-10.5964
▁favorables	-10.5974
▁celles-ci	-10.5975
▁floor	-10.5977
▁Market	-10.5978
▁renouvelables	-10.5986
▁réel	-10.5986
▁exception	-10.5992
▁path	-10.5995
▁l'évaluation	-10.5996
▁tradition	-10.5999
▁itself.	-10.6
▁?uvre	-10.6003
▁centrales	-10.6021
▁%.	-10.6023
▁l'engagement	-10.6025
▁C'	-10.6031
▁dépit	-10.6032
▁heures.	-10.6033
▁marché.	-10.6042
▁technological	-10.6042
▁welfare	-10.6043
▁suggestions	-10.6043
s'	-10.6044
▁législative	-10.6046
▁complètement	-10.6049
▁clé	-10.6051
▁relativement	-10.6056
▁statistics	-10.6056
▁leadership	-10.6061
▁arriver	-10.6063
co	-10.6065
▁savez	-10.6068
▁division	-10.6069
▁serons	-10.6069
▁prévue	-10.6071
▁debt	-10.6072
▁capables	-10.6074
▁l'exercice	-10.6074
el	-10.6076
▁apporté	-10.6082
▁detail	-10.6084
▁obstacle	-10.6086
▁passed	-10.6087
▁Despite	-10.6089
▁conscients	-10.6098
▁amounts	-10.61
▁ajoutée	-10.6101
▁Europeans	-10.6101
▁played	-10.6103
▁petite	-10.6106
▁prepare	-10.6107
▁mass	-10.6112
▁concentration	-10.6115
▁Chinese	-10.6121
▁permettrait	-10.6123
▁extended	-10.6124
▁delay	-10.6124
▁Dutch	-10.6124
▁traditions	-10.6131
▁paiement	-10.6131
▁d'autant	-10.6132
▁allocated	-10.6132
▁Transport	-10.6143
▁intervenir	-10.6146
▁vois	-10.6155
▁pursue	-10.6168
ad	-10.6173
▁Lors	-10.6173
▁firmly	-10.6181
▁Sa	-10.6192
▁temporary	-10.6193
▁Treaty,	-10.6194
ner	-10.6201
▁inquiétudes	-10.6202
▁loss	-10.6208
▁nevertheless	-10.6215
▁pouvait	-10.6215
▁européennes,	-10.6215
▁pro	-10.6215
un	-10.6217
▁organes	-10.6217
▁partner	-10.6218
▁proposées	-10.622
▁autour	-10.6225
té	-10.6227
▁context,	-10.6228
▁administratives	-10.6237
ated	-10.6239
▁emergency	-10.624
▁spending	-10.6241
▁whatever	-10.6242
▁détermination	-10.6244
▁High	-10.6244
▁goals	-10.6248
▁principale	-10.625
▁development,	-10.6254
▁tôt	-10.6256
▁consolidation	-10.6258
▁passage	-10.6261
▁existent	-10.6263
▁treated	-10.6264
▁formuler	-10.6264
les	-10.6267
▁closed	-10.6269
▁baisse	-10.6273
▁réglementations	-10.6277
▁proposés	-10.6279
▁Given	-10.628
▁R	-10.6285
▁got	-10.6288
▁évolution	-10.6291
▁l'eau	-10.6301
▁février	-10.6302
▁d’abord	-10.6303
▁fraude	-10.6303
▁orateurs	-10.6307
▁compter	-10.6314
raient	-10.6316
▁wonder	-10.6319
▁vulnerable	-10.6328
▁ministers	-10.6331
▁July	-10.6332
▁Perhaps	-10.6342
▁envisager	-10.6344
▁l'organisation	-10.6347
▁planned	-10.635
▁unless	-10.635
▁interne	-10.6354
▁perdre	-10.6358
▁législatives	-10.636
▁please	-10.6362
▁jeu	-10.6368
▁publicité	-10.6369
▁proceed	-10.6369
▁NATO	-10.6374
▁resources.	-10.6374
▁d'établir	-10.6376
▁electronic	-10.6383
▁homme	-10.6384
▁mode	-10.6389
▁l’ensemble	-10.639
▁requested	-10.6391
▁(HU	-10.6394
▁concernées	-10.6394
▁accident	-10.6397
▁textes	-10.6397
▁s’il	-10.6398
um	-10.6399
▁Ensuite	-10.6401
▁prison	-10.6407
▁d’accord	-10.6409
▁prévenir	-10.6412
▁employees	-10.6413
▁taxe	-10.6414
▁installations	-10.6414
▁internationale.	-10.6417
▁Sans	-10.6418
▁plaisir	-10.642
▁mauvais	-10.6427
▁investments	-10.6432
▁Head	-10.6433
▁70	-10.6437
▁secondly	-10.644
▁moment.	-10.6444
▁offers	-10.6448
▁latter	-10.6449
▁sites	-10.6449
▁actuelles	-10.6451
▁Here	-10.6452
▁progressive	-10.6453
▁co	-10.6455
▁l'intérieur	-10.646
▁somewhat	-10.6461
▁l'approche	-10.6461
▁resolution.	-10.6466
▁Copenhagen	-10.6469
▁allows	-10.6472
▁citizens'	-10.6473
▁2009.	-10.6473
▁régimes	-10.6477
▁commerciale	-10.6489
▁90	-10.6496
▁culturelle	-10.6498
▁l'avons	-10.6501
▁effectiveness	-10.6504
▁auraient	-10.6505
▁knows	-10.6507
▁textile	-10.6515
▁conflicts	-10.6516
▁considérables	-10.6516
▁croire	-10.6516
▁positifs	-10.6524
▁gone	-10.6528
▁preparing	-10.6535
▁territorial	-10.6535
▁répartition	-10.6535
▁prove	-10.6537
▁directrices	-10.6539
▁fulfil	-10.6543
▁jour.	-10.6543
▁agency	-10.6546
▁ONG	-10.6546
▁35	-10.6548
▁drugs	-10.6551
▁happens	-10.6557
▁ferme	-10.6558
▁compared	-10.6563
▁noted	-10.6566
▁soumettre	-10.6569
▁facteur	-10.657
▁spoke	-10.659
▁programmes.	-10.6591
▁régionales	-10.6594
▁preventing	-10.66
▁jour,	-10.6601
▁remarquer	-10.6603
▁considering	-10.6605
▁réagir	-10.661
▁property	-10.6614
▁f	-10.6615
ment,	-10.6616
▁transport.	-10.6616
▁one.	-10.6617
▁Concernant	-10.6622
▁highest	-10.6623
▁créé	-10.6626
▁ressort	-10.6628
▁case.	-10.6636
▁undoubtedly	-10.6644
▁profits	-10.6648
▁Gaza	-10.6649
▁tool	-10.6657
▁circonstances	-10.6658
▁tentative	-10.6659
▁Report	-10.6659
▁référendum	-10.6661
▁suppose	-10.6666
▁constantly	-10.6669
▁Fundamental	-10.6671
▁spoken	-10.6672
▁insurance	-10.6679
▁products.	-10.6681
▁referendum	-10.6684
▁l'emploi.	-10.6685
▁drawing	-10.6687
▁Barroso,	-10.669
▁commencé	-10.6693
▁operational	-10.6697
▁sortir	-10.6697
ly,	-10.6699
▁fuel	-10.6702
▁alternatives	-10.6703
▁l'obligation	-10.6705
▁anti-	-10.6705
▁touche	-10.6705
▁H	-10.6709
▁mentionner	-10.671
vi	-10.671
▁Protection	-10.6713
▁tasks	-10.6713
▁tabac	-10.6718
▁aérien	-10.6728
▁urgently	-10.6729
▁Canada	-10.6746
▁NGOs	-10.6747
▁concitoyens	-10.6748
▁commissaires	-10.6748
▁insist	-10.6748
▁programme-cadre	-10.6752
▁propriété	-10.6753
▁lancé	-10.6759
▁performance	-10.6762
▁fishermen	-10.6766
▁freedoms	-10.6768
▁montrent	-10.677
▁details	-10.6774
▁applying	-10.6784
▁Because	-10.6785
▁visite	-10.6786
▁importations	-10.6792
▁travaillé	-10.6795
▁revanche	-10.6797
▁s'ils	-10.6798
mo	-10.6809
▁seconde	-10.6815
▁reconnu	-10.6816
▁stronger	-10.6817
▁relates	-10.6822
▁améliorations	-10.6827
▁prêt	-10.6828
▁procedure.	-10.6828
▁contribue	-10.6831
▁souveraineté	-10.6831
▁codecision	-10.6839
▁l'entrée	-10.6839
▁latest	-10.6839
▁respecte	-10.6841
▁autrement	-10.6851
▁keeping	-10.6852
▁tâches	-10.6855
▁construire	-10.6858
▁Then	-10.6863
▁Pourtant	-10.6864
▁operations	-10.6869
▁torture	-10.6869
▁introducing	-10.687
▁présidents	-10.6871
▁h	-10.6876
▁volume	-10.6878
urs	-10.688
▁perdu	-10.6882
▁determined	-10.6884
▁prennent	-10.6885
▁eux-mêmes	-10.6889
algré	-10.6889
▁exclusion	-10.689
am	-10.6891
▁qualifications	-10.6893
▁claires	-10.6896
▁l'Irlande	-10.6897
▁meilleurs	-10.6901
▁2.	-10.6901
▁Ombudsman	-10.6902
▁studies	-10.6905
▁announced	-10.6913
▁described	-10.6915
▁l'origine	-10.6916
▁Croatia	-10.6927
▁reconnaît	-10.6933
▁bout	-10.6936
▁extra	-10.6938
▁precise	-10.6941
▁gérer	-10.6951
▁300	-10.6957
▁choose	-10.6959
▁hors	-10.696
▁joué	-10.696
▁citer	-10.6961
▁biens	-10.6969
▁historic	-10.697
▁Budgets	-10.6973
▁transposition	-10.6975
▁guaranteed	-10.6975
▁l'ouverture	-10.6979
▁Chypre	-10.6981
▁contradiction	-10.6981
▁Organisation	-10.6982
▁complexe	-10.6988
▁conduit	-10.6989
▁2010.	-10.6994
▁scale	-10.7005
▁actuels	-10.7009
▁bientôt	-10.701
▁l'époque	-10.701
▁month	-10.7011
▁signé	-10.7015
▁protection.	-10.7015
▁femmes.	-10.7023
▁resolution,	-10.7025
▁diminution	-10.7026
▁operating	-10.7034
▁3,	-10.7035
▁expliquer	-10.704
▁raisonnable	-10.704
▁conseil	-10.7041
▁done.	-10.7045
▁confirmed	-10.7056
ine	-10.7056
▁India	-10.7057
▁chef	-10.7057
▁suggestion	-10.7059
▁prévoir	-10.7061
▁dangers	-10.7065
▁d'a	-10.7066
▁clarify	-10.7068
▁continuent	-10.7069
▁scheme	-10.7071
▁vehicles	-10.7076
▁organismes	-10.708
▁viennent	-10.7086
▁fais	-10.7091
▁represented	-10.7093
▁operators	-10.7094
▁exists	-10.7095
▁pétrole	-10.7097
▁préalable	-10.7099
▁2006,	-10.71
▁barriers	-10.7101
▁individuals	-10.712
▁Fisheries	-10.7121
▁incombe	-10.7121
▁régler	-10.7122
▁coordinated	-10.7123
▁Non	-10.7127
▁politics	-10.7127
▁n’ont	-10.7129
▁languages	-10.7136
▁crédit	-10.7138
▁difficiles	-10.7138
▁États-Unis.	-10.7138
em	-10.7139
▁majeure	-10.7142
▁Consumer	-10.7143
▁entrer	-10.7144
▁l'an	-10.7146
▁submit	-10.7152
▁remarks	-10.7158
transfrontalière	-10.7164
▁kept	-10.7164
▁abuse	-10.7167
▁Israeli	-10.7169
▁ayons	-10.7174
▁UE	-10.718
▁maintaining	-10.7188
▁intends	-10.7191
▁uniform	-10.7194
▁Rome	-10.7194
▁sept	-10.7198
▁menées	-10.7206
▁again.	-10.7208
go	-10.7211
▁briefly	-10.7212
▁répéter	-10.7215
▁semblent	-10.7216
▁introduit	-10.7219
▁invest	-10.7219
terinstitutional	-10.7228
▁paper	-10.723
▁travaillent	-10.7232
▁1.	-10.7234
▁considéré	-10.7238
▁seven	-10.7239
▁debating	-10.724
▁laisse	-10.7241
▁largest	-10.7244
▁tête	-10.7245
▁regions.	-10.7251
▁largely	-10.7254
▁engage	-10.7254
▁élevés	-10.7257
▁présents	-10.7261
▁finding	-10.7262
che	-10.7262
▁sincèrement	-10.7265
iez	-10.7268
▁activement	-10.7287
▁spécial	-10.7291
▁Pays-Bas	-10.7298
▁d'Amsterdam	-10.7298
▁published	-10.7306
▁signature	-10.7313
▁livre	-10.7321
▁realistic	-10.7321
▁coherent	-10.7322
▁image	-10.7323
▁marge	-10.7331
▁adhésion	-10.7335
▁diseases	-10.734
▁consultations	-10.7341
▁examples	-10.7342
▁willing	-10.7344
▁mouvement	-10.7344
▁d'y	-10.7345
▁d'avis	-10.7345
▁industrielle	-10.7348
▁February	-10.7349
▁menée	-10.7354
do	-10.7356
▁Patten	-10.7362
▁énergies	-10.7367
▁CE	-10.7368
▁places	-10.7369
ed.	-10.7371
▁réduit	-10.7372
▁conserver	-10.7376
▁electricity	-10.7378
▁2007,	-10.738
▁l’aide	-10.7382
▁assess	-10.7384
B	-10.7387
ct	-10.7387
▁fine	-10.739
▁Alliance	-10.739
▁CAP	-10.7391
▁politically	-10.7392
eurs	-10.7395
▁trait	-10.7399
▁industrie	-10.7405
▁evening	-10.7409
▁oppose	-10.7409
▁considérons	-10.741
▁innovative	-10.741
▁universal	-10.7411
▁imports	-10.7413
▁clauses	-10.7414
ating	-10.7414
▁Group,	-10.7417
▁leader	-10.7417
▁démocratie.	-10.7419
▁irlandais	-10.7421
▁condemn	-10.7424
▁j'en	-10.7424
▁Instead	-10.7427
▁globalisation	-10.7428
▁déficit	-10.7431
▁accounts	-10.7443
▁Employment	-10.7443
▁dependent	-10.7444
▁PAC	-10.7451
▁undertaken	-10.7452
A	-10.7455
▁confusion	-10.7457
▁liée	-10.7457
▁ressortissants	-10.7459
▁compatible	-10.7462
▁observations	-10.7463
▁aurions	-10.7465
▁d'adhésion	-10.7473
▁prête	-10.7476
▁paroles	-10.7476
▁science	-10.7477
ign	-10.7479
▁USA	-10.748
▁room	-10.7482
▁usage	-10.7484
▁offered	-10.749
▁ex	-10.749
▁proposition.	-10.7491
▁Solana	-10.7492
▁perfectly	-10.7494
▁D'un	-10.7496
▁significantly	-10.7501
▁united	-10.7503
▁deliver	-10.7505
▁comprend	-10.7505
▁advance	-10.7506
▁farming	-10.751
▁Constitutional	-10.7514
▁dumping	-10.7515
▁near	-10.7515
▁suffer	-10.7515
▁shadow	-10.7517
▁restructuration	-10.7517
▁honour	-10.7519
▁unfair	-10.752
▁vivement	-10.7526
▁repose	-10.7527
▁fixé	-10.7537
▁ongoing	-10.7538
▁enjoy	-10.7544
▁villes	-10.7549
▁restructuring	-10.755
▁agit	-10.7553
▁comportement	-10.7556
▁amending	-10.7558
▁felt	-10.7559
▁passengers	-10.756
▁con	-10.7562
▁conditions.	-10.7565
▁répète	-10.7567
▁abordé	-10.7569
▁stratégies	-10.757
▁moyenne	-10.7571
▁hands	-10.7572
▁L'UE	-10.7576
▁regular	-10.758
▁resolved	-10.758
▁careful	-10.7581
▁démarche	-10.7581
▁erreur	-10.7591
',	-10.7592
▁tiers.	-10.7596
▁ville	-10.7598
▁employment.	-10.7599
▁communautaire,	-10.76
▁avancées	-10.761
▁premiers	-10.7619
▁school	-10.7625
▁exportations	-10.763
ck	-10.7631
et	-10.7632
▁formulation	-10.7633
▁Dur	-10.7633
▁l’accord	-10.7634
▁define	-10.7636
lé	-10.7636
▁brings	-10.764
▁ago.	-10.7643
▁ambition	-10.7646
▁Can	-10.7648
ique	-10.7649
▁jobs.	-10.7652
▁adéquate	-10.7655
▁concentrate	-10.7655
▁determination	-10.7658
▁valuable	-10.7659
▁généralement	-10.7662
▁understood	-10.7663
▁More	-10.7667
▁d'utiliser	-10.7667
▁denrées	-10.7669
▁communs	-10.7674
▁codécision	-10.7675
▁socialistes	-10.7675
▁visent	-10.7676
▁wait	-10.7676
▁l'Organisation	-10.768
▁saluer	-10.7681
▁formal	-10.7684
▁observe	-10.7685
▁waiting	-10.7685
▁acknowledge	-10.7689
▁2008,	-10.769
▁assumer	-10.7692
▁l'existence	-10.7693
▁genuinely	-10.7697
▁définitive	-10.7697
▁récente	-10.7699
▁Irlande	-10.7705
▁intégrée	-10.7706
▁learning	-10.7712
▁conséquence,	-10.7713
▁centaines	-10.7713
▁opportun	-10.7717
vironnementales	-10.772
▁viable	-10.7725
▁cohérente	-10.7727
▁transport,	-10.7728
▁V	-10.7728
▁comporte	-10.773
▁Serbia	-10.7732
▁Zimbabwe	-10.7743
▁envisage	-10.7745
▁enfin,	-10.7746
▁changing	-10.7751
▁perte	-10.7755
▁proved	-10.7758
per	-10.7761
▁holding	-10.7764
▁partenaire	-10.7769
▁commune,	-10.7771
▁nécessite	-10.7771
▁migrants	-10.7774
ba	-10.7779
▁qualified	-10.7781
▁Commission'	-10.7781
▁naturelles	-10.7784
▁conforme	-10.7788
▁participants	-10.7789
▁solide	-10.7796
▁enquête	-10.7798
▁actively	-10.7798
▁taille	-10.7803
▁prévues	-10.7803
▁medical	-10.7806
▁d'association	-10.7806
▁d'argent	-10.7808
ol	-10.781
▁out.	-10.781
▁difficulty	-10.7814
▁listen	-10.7815
▁contain	-10.7817
▁organisé	-10.7817
▁negotiations.	-10.7817
▁tchèque	-10.7817
▁protected	-10.7821
▁apporte	-10.7822
▁brief	-10.7825
▁Assembly	-10.7834
▁est-il	-10.7834
▁détails	-10.7837
▁présentation	-10.7839
ut	-10.7839
▁accroître	-10.7843
▁accessible	-10.7844
▁provenance	-10.7845
▁d'atteindre	-10.7866
▁adapt	-10.7867
▁release	-10.787
▁stabilisation	-10.7871
▁l'établissement	-10.7875
▁extérieures	-10.7876
▁répercussions	-10.7877
▁radical	-10.788
▁highlighted	-10.7881
▁2007.	-10.7881
▁transformation	-10.7884
▁britanniques	-10.7884
▁observation	-10.7885
▁counter	-10.7892
▁frontière	-10.7894
▁postes	-10.7899
▁claim	-10.79
▁exceptions	-10.7904
▁amended	-10.7908
▁obligatoire	-10.7909
con	-10.7909
▁distance	-10.7911
▁disposent	-10.7914
▁siècle	-10.7921
▁directe	-10.7923
▁security.	-10.7929
▁utilisées	-10.793
▁ambitions	-10.7931
gouvernementale	-10.7932
▁détail	-10.7935
▁international.	-10.7941
▁Hungarian	-10.7942
▁Doha	-10.7948
▁succeed	-10.7951
▁adopte	-10.7951
▁Ashton	-10.7952
▁pouvez	-10.7956
rs	-10.7958
▁legally	-10.7964
▁brièvement	-10.7965
▁vessels	-10.7966
iste	-10.7968
▁West	-10.7971
▁VAT	-10.7978
▁transfrontalier	-10.7982
▁composition	-10.7982
▁dignity	-10.7986
▁speaker	-10.799
▁attention.	-10.7993
▁bénéfices	-10.7994
▁works	-10.8003
▁e	-10.8004
▁agenda.	-10.8008
▁Last	-10.8012
▁pilier	-10.8013
▁provenant	-10.8013
▁connaissons	-10.8017
▁2010,	-10.802
▁pêche.	-10.8021
▁negotiation	-10.8023
ised	-10.8024
▁choisi	-10.8025
ca	-10.8026
▁degré	-10.8027
▁apart	-10.8027
▁tellement	-10.8029
▁applications	-10.8029
▁justified	-10.8031
▁Cuba	-10.8041
▁dynamique	-10.8042
▁seeing	-10.8043
▁majeur	-10.8047
▁referring	-10.8047
▁Latin	-10.8049
▁règlement.	-10.8049
▁objections	-10.8051
os	-10.8052
▁Cooperation	-10.8056
▁significative	-10.8056
▁Plan	-10.8063
▁Parliament’s	-10.8068
▁driving	-10.8069
▁basée	-10.8069
▁approach.	-10.807
▁habitants	-10.8073
▁urban	-10.8079
▁Fischler	-10.8095
▁Austrian	-10.8096
▁resulting	-10.8096
▁parties.	-10.8099
▁post	-10.8105
▁soyons	-10.8106
▁dangereux	-10.811
▁Dublin	-10.811
▁penalty	-10.8112
▁strategies	-10.8112
▁plant	-10.8114
▁White	-10.8117
▁reprendre	-10.8122
▁Portugal,	-10.8126
▁française	-10.8127
ence	-10.8127
ts	-10.8132
▁primary	-10.8134
▁médiateur	-10.8138
▁Thursday	-10.8143
▁télévision	-10.8143
▁clarification	-10.8154
▁essayer	-10.8156
▁Internal	-10.8157
▁Food	-10.8161
▁accordée	-10.8161
▁remove	-10.8162
▁correspond	-10.8163
▁conception	-10.8169
▁discipline	-10.817
▁Finland	-10.8173
▁Verheugen	-10.8174
▁function	-10.8182
▁l'impression	-10.8183
ntergovernmental	-10.8185
ser	-10.8185
▁exercer	-10.8185
▁Schulz	-10.8187
▁Quand	-10.8187
▁devient	-10.8187
▁choisir	-10.8188
▁Rapport	-10.8189
▁preparation	-10.8194
▁durable.	-10.8195
▁résolution,	-10.8197
▁absolute	-10.8198
▁milk	-10.82
▁étroitement	-10.8209
▁Centre	-10.8209
▁ones	-10.8212
▁assist	-10.8213
▁(vote)	-10.8214
▁Comité	-10.8214
▁pleine	-10.8216
▁Once	-10.8219
▁importance.	-10.8224
▁informer	-10.8225
▁capitaux	-10.8226
▁National	-10.8227
▁l'Agence	-10.8227
▁daily	-10.8231
▁life.	-10.8242
▁ferroviaire	-10.8246
▁attentes	-10.8248
▁introduire	-10.825
▁truth	-10.8252
▁Before	-10.8254
▁organisée	-10.8254
▁orientale	-10.826
-t-il	-10.826
ations	-10.8261
▁PSE	-10.8262
▁playing	-10.8263
▁forward.	-10.8266
▁donnée	-10.8267
▁quota	-10.8267
▁n°	-10.8271
▁investigation	-10.8279
▁leads	-10.8279
▁refus	-10.8279
▁suggested	-10.8281
▁region,	-10.8282
▁identify	-10.8284
▁remettre	-10.8285
▁reflète	-10.8287
▁Northern	-10.8289
▁levée	-10.8292
▁prospérité	-10.8293
▁pratiquement	-10.8294
▁drug	-10.8297
▁temps.	-10.8298
▁sécurité,	-10.83
▁television	-10.8307
▁n'ait	-10.8309
▁Brok	-10.8312
▁saw	-10.8318
▁someone	-10.8319
▁behaviour	-10.8321
▁privé	-10.8324
▁grant	-10.8326
▁dossiers	-10.8327
▁neighbouring	-10.8332
qui	-10.8337
▁qu’en	-10.8339
▁bons	-10.8344
▁4,	-10.8345
▁ensemble.	-10.8345
▁sud	-10.8348
▁amis	-10.8354
▁américain	-10.8357
op	-10.8357
▁constitute	-10.8358
▁built	-10.8365
▁duquel	-10.8365
ry	-10.8369
-0	-10.8374
▁2008.	-10.8376
▁nationaux.	-10.8378
▁Are	-10.8378
▁avancée	-10.838
▁terre	-10.8384
▁connaissances	-10.8384
▁d'agir	-10.8385
▁determine	-10.8385
▁replace	-10.8385
▁2004.	-10.8395
▁derrière	-10.8397
▁satisfied	-10.8397
▁tenue	-10.8401
▁mutuelle	-10.841
▁entier	-10.8413
ti	-10.8413
if	-10.8414
▁bit	-10.842
▁l'interdiction	-10.842
▁century	-10.8425
▁souhait	-10.8428
▁women.	-10.8429
▁20%	-10.8429
▁l'ONU	-10.8433
▁Rights,	-10.8436
▁vague	-10.8437
▁Britain	-10.8437
▁Common	-10.8438
▁Palestine	-10.8446
▁inclure	-10.8447
▁duties	-10.8447
▁déposés	-10.8452
▁rules.	-10.8458
▁quantité	-10.8461
▁wider	-10.8464
▁believes	-10.8465
▁adoptés	-10.8468
▁réside	-10.847
iser	-10.8473
▁Méditerranée	-10.8476
▁catégorie	-10.8481
▁su	-10.8482
▁Safety	-10.8483
▁élaborer	-10.8488
▁chiffre	-10.8493
▁feed	-10.8493
honorable	-10.8498
▁possibles	-10.8501
▁coopérer	-10.8501
▁libéraux	-10.8502
▁p.m.	-10.8502
▁depend	-10.8505
▁spread	-10.8505
environnementaux	-10.8508
▁red	-10.8509
▁multilateral	-10.8509
▁voit	-10.8511
▁liens	-10.8513
▁football	-10.8515
▁aviation	-10.8519
▁Santer	-10.852
▁greatly	-10.8521
ge	-10.8523
▁addressing	-10.8525
▁santé.	-10.8525
▁speeches	-10.8527
▁friends	-10.8532
▁signe	-10.8535
▁apparaît	-10.8537
03	-10.854
▁strategy.	-10.8542
▁wine	-10.8544
▁section	-10.8546
▁écrit	-10.8547
▁cas.	-10.8549
▁lié	-10.8549
▁publication	-10.8549
▁check	-10.8551
▁Quel	-10.8552
▁becomes	-10.8559
▁proceedings	-10.8561
▁confirmer	-10.8562
▁expectations	-10.8563
▁indicated	-10.8567
▁vente	-10.857
▁revenu	-10.8571
▁exemples	-10.8571
▁l'Allemagne	-10.8575
▁opérateurs	-10.8579
▁mondiale.	-10.858
▁Regional	-10.858
▁previously	-10.8582
▁commence	-10.8583
▁sufficiently	-10.8584
▁Qui	-10.8587
▁participé	-10.8588
▁S'il	-10.8588
▁augmenté	-10.8595
▁legislation,	-10.8595
▁d’euros	-10.8599
▁année.	-10.8599
▁oui	-10.8603
▁approprié	-10.8604
▁Is	-10.8605
▁contrats	-10.8605
▁possibly	-10.8611
▁civiles	-10.8615
▁ignore	-10.8615
▁obliged	-10.8617
▁requests	-10.8619
▁External	-10.862
▁Without	-10.8621
▁Donc	-10.8622
▁Moyen-Orient	-10.8622
▁appropriée	-10.8622
▁mois.	-10.8625
▁caractéristique	-10.8625
▁considers	-10.8626
▁élargissement	-10.8627
▁head	-10.8628
▁permettront	-10.8629
▁routes	-10.8635
▁enfants.	-10.8635
▁pillar	-10.8641
▁gagner	-10.8644
▁thanking	-10.865
▁meat	-10.865
▁transitional	-10.8652
▁tragic	-10.8652
▁satisfaire	-10.8652
▁background	-10.8653
▁thèmes	-10.8653
▁extensive	-10.8654
▁essentielles	-10.8655
▁meant	-10.8655
▁pêche,	-10.8655
▁anciens	-10.8658
▁demeure	-10.8658
▁enhance	-10.8659
▁intéressant	-10.866
▁flux	-10.8662
▁Tel	-10.8663
▁justification	-10.8665
▁excellente	-10.8672
▁internes	-10.8673
▁proche	-10.8674
▁sum	-10.8677
▁retirer	-10.8679
▁susceptibles	-10.868
▁Consequently,	-10.868
▁résolution.	-10.8685
▁culturel	-10.8685
▁identified	-10.8685
▁euro.	-10.8687
▁proposals.	-10.8687
▁moreover	-10.8688
▁matière.	-10.8688
▁l'examen	-10.869
▁chercher	-10.8698
▁aériennes	-10.87
▁privée	-10.87
▁basis.	-10.87
▁profondément	-10.8703
▁mené	-10.8704
▁examen	-10.8707
▁efficace.	-10.8712
▁salaires	-10.8715
eur	-10.8722
▁clarté	-10.8722
▁rejet	-10.873
▁problem,	-10.8731
▁l'opposition	-10.8731
▁mobilisation	-10.8731
▁importante.	-10.8733
▁links	-10.874
▁stands	-10.8741
▁actuelle.	-10.8742
▁dynamic	-10.8745
▁Finlande	-10.8746
▁générales	-10.8748
▁Croatie	-10.875
▁compulsory	-10.8755
▁running	-10.8755
▁competent	-10.8757
▁annoncé	-10.8759
▁processes	-10.8766
▁aid.	-10.8767
▁ravi	-10.8767
▁topic	-10.8768
▁Thus	-10.8769
▁dispute	-10.8771
tic	-10.8772
▁intérieur.	-10.8776
▁déclare	-10.8777
▁prisoners	-10.8778
▁interpretation	-10.878
▁voitures	-10.8782
ni	-10.8786
▁Russie.	-10.8786
▁destiné	-10.8786
▁partly	-10.8788
▁l’industrie	-10.8788
▁chapitre	-10.8789
▁Treaties	-10.8794
▁prime	-10.8795
▁nécessaires.	-10.8796
▁Afrique	-10.8798
▁gros	-10.8799
▁enforcement	-10.8804
▁suffered	-10.881
▁hearing	-10.8812
▁imagine	-10.8817
▁humain	-10.8818
▁Bosnia	-10.8819
▁BSE	-10.882
▁échange	-10.8823
▁himself	-10.8825
▁courant	-10.8826
▁affects	-10.8827
C	-10.8828
▁répond	-10.883
▁rappelé	-10.8834
▁trouvons	-10.8834
▁convenu	-10.8835
▁l'exploitation	-10.8835
▁markets.	-10.8837
ally	-10.8838
▁authorities.	-10.8841
▁prononcer	-10.8842
▁launched	-10.8843
▁fruits	-10.8847
▁sovereignty	-10.8847
▁Kosovo.	-10.8851
▁equipment	-10.8852
▁riches	-10.8853
▁Belgian	-10.8853
▁information.	-10.8854
▁chosen	-10.8858
▁saisir	-10.8862
▁spend	-10.8862
▁attempts	-10.8867
▁contribuera	-10.887
▁domaine,	-10.8882
▁deserves	-10.8882
▁recall	-10.8882
▁(SK)	-10.8886
▁tenant	-10.8891
▁possibilities	-10.8891
▁(CS)	-10.8891
▁helped	-10.8899
▁somme	-10.89
▁debated	-10.8901
▁l'Afrique	-10.8903
▁carrying	-10.8907
▁disant	-10.8911
▁production.	-10.8911
▁successfully	-10.8914
▁conducted	-10.8917
▁demain,	-10.8917
▁diplomatic	-10.892
▁Having	-10.892
▁objectives.	-10.8928
▁whole.	-10.8929
ou	-10.8933
▁remplacer	-10.8937
▁l'unanimité	-10.8938
▁proof	-10.8939
▁g	-10.8941
▁technologique	-10.8942
▁Russie,	-10.8946
▁mettent	-10.8951
▁compréhension	-10.8953
▁silence	-10.8953
▁bilan	-10.8958
▁initiative.	-10.8959
▁fields	-10.897
▁libre-échange	-10.8974
▁size	-10.8974
▁contract	-10.8978
▁inflation	-10.8978
▁gap	-10.8979
▁prosperity	-10.8981
▁conduire	-10.8982
▁l'indépendance	-10.8982
▁guaranteeing	-10.8983
▁qu’elles	-10.8985
▁issued	-10.8991
▁poste	-10.8992
▁Grande-Bretagne	-10.8996
▁sets	-10.9001
▁entière	-10.9002
▁Will	-10.9015
▁qu'aucun	-10.9015
▁existantes	-10.9016
▁vérifier	-10.9016
▁complicated	-10.902
▁Nor	-10.9022
▁effectué	-10.9023
▁d'accès	-10.9026
▁complet	-10.9029
-based	-10.9033
▁futures	-10.9033
pp	-10.9043
▁détriment	-10.9044
▁transatlantique	-10.9044
ver	-10.905
▁materials	-10.905
▁eight	-10.9052
▁déclarer	-10.9054
▁accomplis	-10.9057
▁Galileo	-10.9058
▁spite	-10.9058
▁amendments.	-10.906
▁J’espère	-10.9063
▁époque	-10.9064
▁skills	-10.9068
▁jusqu’	-10.9069
▁sorry	-10.9069
▁extreme	-10.9071
▁poorest	-10.9074
▁évaluer	-10.9076
▁2006.	-10.908
▁l'OTAN	-10.9082
▁PIB	-10.9082
▁wide	-10.9083
▁discuté	-10.9087
▁crains	-10.9087
▁mains	-10.9087
▁surely	-10.909
▁problèmes.	-10.9091
▁seeks	-10.9094
▁intellectual	-10.9097
▁exclusivement	-10.9099
▁Danish	-10.9102
▁abus	-10.9108
▁territoires	-10.9108
▁rejeter	-10.911
ve	-10.9111
▁l'in	-10.9116
▁ratified	-10.9117
▁Just	-10.9118
▁Hungary	-10.9121
▁Bosnie	-10.9121
▁definitely	-10.9122
▁erreurs	-10.9125
▁d'intégration	-10.9131
▁Corée	-10.9131
▁structurelles	-10.9133
▁énergétiques	-10.9134
▁intensive	-10.9139
▁l’avenir	-10.9143
’.	-10.9144
▁together.	-10.9148
▁locaux	-10.9153
▁gouvernementale	-10.9164
▁intégration	-10.9165
▁automobile	-10.9166
▁N	-10.9166
▁standards.	-10.9168
▁l’article	-10.917
▁whereby	-10.9171
▁professionnels	-10.9171
▁civils	-10.9172
▁approuver	-10.9173
▁green	-10.9175
▁southern	-10.9179
▁Union’s	-10.9182
▁respected	-10.9183
▁J'en	-10.9184
tre	-10.9184
ising	-10.9185
▁constaté	-10.9185
pa	-10.9194
▁terrorism.	-10.9194
▁contracts	-10.9195
▁l'exécution	-10.9195
▁négocier	-10.9196
▁openness	-10.9198
▁démocratique.	-10.9201
▁relance	-10.9201
▁d'apporter	-10.9214
▁strengthened	-10.9217
▁Sommet	-10.9224
▁prospects	-10.9231
▁parliament	-10.9237
▁efficacité	-10.9238
▁quinze	-10.9243
▁sugar	-10.9243
▁d’action	-10.9244
▁deficit	-10.9244
▁soulevé	-10.9245
ty	-10.9245
▁corps	-10.9248
institutionnelle	-10.925
▁premièrement	-10.9256
▁Subject	-10.9258
▁respectent	-10.926
▁Democrats)	-10.9263
▁faute	-10.9263
▁interdiction	-10.9263
no	-10.9266
▁generation	-10.9269
▁answers	-10.9274
▁(Christian	-10.9282
▁venu	-10.9283
▁attendent	-10.9284
▁pénale	-10.9285
▁tensions	-10.9286
nd	-10.9287
▁représentation	-10.9288
▁forêts	-10.929
▁scène	-10.9292
▁pressions	-10.9293
▁Belgium	-10.9297
▁Home	-10.9298
▁purely	-10.9299
▁advertising	-10.9302
▁suit	-10.9303
▁répondu	-10.9303
▁concrète	-10.9306
▁significance	-10.9307
▁capitale	-10.9307
▁paix.	-10.931
▁mines	-10.9312
▁Culture	-10.9313
▁régulièrement	-10.9313
▁Barcelona	-10.9317
▁Act	-10.9326
▁prisonniers	-10.9329
▁wealth	-10.9329
▁surmonter	-10.9337
▁L'objectif	-10.9337
considérablement	-10.9339
▁Partnership	-10.9342
▁suivant	-10.9343
▁concessions	-10.9344
▁reiterate	-10.9348
▁passé,	-10.9352
▁t	-10.9353
▁procès	-10.9356
▁rédigé	-10.9358
▁lacunes	-10.9359
▁futurs	-10.9359
▁solely	-10.9368
▁Liberal	-10.9368
▁Bush	-10.9371
▁modes	-10.9374
▁agents	-10.9374
▁paix,	-10.9374
▁import	-10.9381
▁chargé	-10.9386
▁motifs	-10.939
▁harmful	-10.9396
▁J	-10.9401
gu	-10.9402
▁convaincre	-10.9411
▁1999.	-10.9414
▁unanimously	-10.9414
▁Polish	-10.9416
▁remplir	-10.942
▁Asia	-10.942
▁worst	-10.9421
▁force.	-10.9422
▁hauteur	-10.943
▁EC	-10.9431
▁all.	-10.9434
▁freedom,	-10.9435
▁demanding	-10.9436
▁Commissioner.	-10.9437
▁milieu	-10.9446
▁Saddam	-10.9446
▁patrimoine	-10.9446
▁allemande	-10.9447
▁faibles	-10.9447
▁opened	-10.9449
▁bénéficient	-10.9454
▁prie	-10.9454
▁players	-10.9456
▁Hamas	-10.9456
▁l’importance	-10.9456
M	-10.9463
▁existants	-10.9466
▁Where	-10.9466
▁intégrer	-10.9466
▁People	-10.9468
▁institutionnel	-10.9471
▁Peut-être	-10.9471
▁discutons	-10.9471
▁foremost	-10.9471
▁retrait	-10.9472
▁producing	-10.9473
▁huit	-10.9473
▁marketing	-10.9475
▁a-t-il	-10.9476
▁easily	-10.9476
▁posé	-10.9477
▁suivante:	-10.948
▁competition.	-10.9484
▁others.	-10.9484
▁visible	-10.9486
▁Arab	-10.9487
▁gauche	-10.9488
▁ad	-10.9494
▁carbon	-10.9496
▁formulées	-10.9497
▁day,	-10.9498
▁dommages	-10.95
w	-10.9501
▁State.	-10.9504
▁stressed	-10.9504
▁essentially	-10.9506
▁acting	-10.9508
▁TVA	-10.9509
S	-10.9512
▁welcomed	-10.9514
▁3.	-10.9516
▁heavy	-10.9517
▁renforcée	-10.9517
▁vice-président	-10.9517
▁administrations	-10.9517
▁peur	-10.9518
▁2005.	-10.9519
▁governing	-10.9524
▁hundreds	-10.9524
▁Policy,	-10.9527
▁extending	-10.9527
D	-10.9528
-t-elle	-10.9531
▁Does	-10.9532
▁pertes	-10.9534
▁Serbie	-10.9535
▁l'équilibre	-10.9537
▁marque	-10.9537
▁healthy	-10.9539
▁cher	-10.9543
▁continuera	-10.9544
▁prétexte	-10.9547
▁débattons	-10.9549
▁humaines	-10.9553
▁affirmé	-10.9554
▁enfants,	-10.9555
▁tools	-10.9561
▁pire	-10.9563
▁démontré	-10.9563
▁véritables	-10.9564
▁menaces	-10.9569
▁racisme	-10.957
▁règlement,	-10.957
ère	-10.9571
▁Georgia	-10.9574
▁Both	-10.9578
▁suspension	-10.958
▁(LT	-10.9583
▁commis	-10.9583
▁identity	-10.9586
-nous	-10.959
▁équilibré	-10.959
▁sustainability	-10.9591
▁example.	-10.9594
▁souci	-10.9597
▁méritent	-10.9602
▁légitime	-10.9605
▁necessary.	-10.9605
tergovernmental	-10.961
▁numbers	-10.9611
▁site	-10.9614
▁achievement	-10.9616
▁fonctionner	-10.9616
▁went	-10.9618
▁depends	-10.9621
▁prior	-10.9624
▁terrorisme.	-10.9627
▁Under	-10.9629
▁proud	-10.9634
▁violence.	-10.9634
▁justifier	-10.9637
▁volontaire	-10.9638
▁légitimité	-10.9638
▁électeurs	-10.9642
▁Growth	-10.9643
▁utilisée	-10.9645
▁satisfait	-10.9645
▁enabling	-10.9648
▁rapidly	-10.965
▁thorough	-10.965
▁rencontre	-10.9651
▁deals	-10.9652
▁Hongrie	-10.9654
▁problématique	-10.9654
▁rejeté	-10.9655
▁indique	-10.9656
▁intérieures	-10.9659
▁remerciements	-10.966
▁Stockholm	-10.9661
▁revoir	-10.9664
▁venir.	-10.9665
▁facilement	-10.9669
▁(FI	-10.9671
▁pré	-10.9671
▁feeling	-10.9674
▁cooperation,	-10.9675
▁sales	-10.9677
▁health.	-10.9678
▁advice	-10.9679
▁climatique.	-10.9681
▁êtres	-10.9683
▁tenté	-10.9684
▁claims	-10.9685
▁différente	-10.9686
▁consacré	-10.9688
▁considerably	-10.969
▁législations	-10.9694
▁télécommun	-10.9697
▁regulation.	-10.9699
▁enlargement.	-10.9704
▁engagés	-10.9707
▁advantages	-10.9708
P	-10.9719
▁savings	-10.9719
▁practice.	-10.9726
▁Se	-10.9729
▁unique.	-10.973
▁s'assurer	-10.9731
▁disposal	-10.9731
▁clarity	-10.9736
▁sert	-10.9742
▁rich	-10.9744
lu	-10.9745
▁tomorrow.	-10.9747
▁5,	-10.9752
▁remaining	-10.9752
▁months.	-10.9752
▁launch	-10.9758
▁powerful	-10.9763
▁reliable	-10.9767
▁chairman	-10.9767
▁lire	-10.9768
▁systems.	-10.9771
▁l’État	-10.9772
▁crée	-10.9772
▁l'activité	-10.9773
▁connaissent	-10.9773
▁enough.	-10.9783
▁Belgique	-10.9787
▁exclusive	-10.9788
▁willingness	-10.9788
▁1992	-10.9789
▁promised	-10.9794
O	-10.9797
▁threats	-10.9797
▁l’adhésion	-10.9798
▁core	-10.9798
▁strength	-10.9798
▁experienced	-10.9803
▁minorité	-10.9805
▁timetable	-10.9806
▁m	-10.981
▁geographical	-10.981
d'investissement	-10.9813
▁extraordinaire	-10.9814
▁clarifier	-10.9817
▁resources,	-10.9817
▁recommande	-10.9819
▁Christian	-10.9821
▁focused	-10.9821
▁tangible	-10.9823
▁clés	-10.9823
▁satisfactory	-10.9825
▁dépendance	-10.9825
▁Tampere	-10.9826
▁initiale	-10.9826
▁Toutes	-10.9829
▁merci	-10.983
▁patent	-10.9831
▁themselves.	-10.9834
om	-10.9838
▁l’année	-10.984
▁granting	-10.984
▁paying	-10.9847
▁Protocol	-10.9847
▁élus	-10.9848
▁texts	-10.9853
▁tribunal	-10.9855
▁génération	-10.9856
s:	-10.9862
▁énergie	-10.9862
▁vingt	-10.9863
▁exports	-10.9864
▁demain.	-10.9868
▁manufacturers	-10.9869
▁pacifique	-10.9869
▁l'instant	-10.9871
▁existant	-10.9873
▁refers	-10.9877
▁reaction	-10.9878
▁camps	-10.988
▁refuser	-10.9883
▁favourable	-10.9884
▁save	-10.9889
▁doubts	-10.9891
▁heading	-10.9891
▁encouraged	-10.9897
▁d'égalité	-10.9897
▁cela.	-10.9901
▁savent	-10.9904
▁présentent	-10.9906
▁retire	-10.9907
▁hui	-10.991
▁strictes	-10.9911
▁suitable	-10.9913
▁concurrence.	-10.9922
▁c	-10.9922
▁transmission	-10.9923
land	-10.9936
▁destinée	-10.994
▁ECB	-10.9944
▁cuts	-10.9947
▁présentés	-10.9954
▁Convention.	-10.9958
▁appartient	-10.996
▁adresser	-10.9961
▁declared	-10.9962
▁increases	-10.9963
▁Roms	-10.997
▁emphasised	-10.9971
▁affirmer	-10.9971
ient	-10.9974
▁intervene	-10.9977
▁disasters	-10.9982
▁protocol	-10.9984
▁postal	-10.9985
▁contributed	-10.9985
ities	-10.9987
▁indépendants	-10.9995
▁worse	-10.9996
▁passenger	-10.9997
▁entered	-10.9998
▁marine	-11
▁admit	-11.0002
▁engagée	-11.0005
▁eye	-11.0006
▁navigation	-11.0007
▁wording	-11.001
▁45	-11.0012
▁reflected	-11.0013
▁violent	-11.0013
▁nettement	-11.0014
▁allemand	-11.0015
sh	-11.0019
▁l’énergie	-11.0023
▁pénal	-11.0024
▁prenne	-11.0025
▁deep	-11.0028
▁stratégiques	-11.0028
▁tous.	-11.0029
▁modified	-11.003
▁simplifier	-11.0031
▁island	-11.0031
-related	-11.0034
▁Certes	-11.0039
▁mobile	-11.004
▁Turquie,	-11.004
▁souhaité	-11.0043
▁écoles	-11.0048
nes	-11.0055
▁dites	-11.0056
▁jeudi	-11.0056
ler	-11.006
▁lie	-11.0065
▁d'amendements	-11.0068
▁demandent	-11.0071
▁finale	-11.0074
▁croissante	-11.0074
▁succeeded	-11.0076
▁espagnole	-11.0085
ille	-11.0085
▁Géorgie	-11.0085
▁protest	-11.0085
▁d'évaluation	-11.0093
▁products,	-11.0093
▁organise	-11.0094
▁historical	-11.0096
▁biggest	-11.0098
▁unnecessary	-11.0098
▁c'était	-11.0098
▁BCE	-11.0098
▁fonctions	-11.0106
▁affecting	-11.0108
▁cite	-11.0109
▁l'est	-11.011
▁supposed	-11.011
▁recettes	-11.0116
H	-11.0118
▁Du	-11.0119
▁1990	-11.012
▁presenting	-11.0124
▁écologique	-11.0125
▁i.e.	-11.013
▁l’économie	-11.013
▁anti	-11.0134
ants	-11.0136
ier	-11.0139
▁l'intervention	-11.0141
▁undertakings	-11.0143
▁prospect	-11.0148
▁retraite	-11.0149
▁instances	-11.0152
▁Procedure	-11.0155
▁net	-11.0157
▁fiscales	-11.016
▁plants	-11.0161
▁nationales.	-11.0162
▁s'agissait	-11.0162
▁eastern	-11.0162
▁illégale	-11.0163
▁population,	-11.0172
▁MM.	-11.0173
▁publique.	-11.0174
▁disent	-11.0177
▁précédente	-11.0178
▁Kinnock	-11.0178
▁hit	-11.018
▁électronique	-11.0183
▁recourir	-11.0184
▁children.	-11.0186
▁beef	-11.02
▁dirais	-11.0201
▁Allemagne	-11.0202
▁rapporteur's	-11.0205
▁fil	-11.0207
▁Turquie.	-11.0209
▁Rural	-11.0211
▁mondial.	-11.0211
▁preuves	-11.0213
▁jeunesse	-11.0213
▁users	-11.0216
▁Denmark	-11.0216
▁Madrid	-11.0216
▁400	-11.0216
▁atteinte	-11.0216
▁crise.	-11.0218
▁outil	-11.0221
▁possède	-11.0223
▁responsibility.	-11.0224
▁2013	-11.0228
▁negotiated	-11.023
▁privés	-11.0231
▁whereas	-11.0234
▁commit	-11.0234
▁constitutes	-11.0237
▁régionaux	-11.0237
▁l'autorité	-11.0239
res	-11.024
▁interests.	-11.0243
▁espérer	-11.0243
▁bureaucratie	-11.0246
▁lu	-11.0247
▁vast	-11.025
▁tente	-11.0251
▁Russia,	-11.0253
▁consumers.	-11.0258
▁applicables	-11.026
▁difficulté	-11.0261
▁regarded	-11.0262
▁confirmé	-11.0265
▁opposite	-11.0267
▁(La	-11.027
▁restore	-11.0271
▁reaching	-11.0274
▁l'expérience	-11.0276
▁quelconque	-11.0287
▁d'appliquer	-11.0287
istes	-11.0287
▁competences	-11.0287
▁Son	-11.0292
▁liberté,	-11.0293
▁offering	-11.0295
▁temporaire	-11.0298
▁l’élargissement	-11.0303
▁Parliamentary	-11.0304
▁considérée	-11.0305
▁entraîne	-11.0308
▁drogues	-11.0309
▁sûre	-11.0311
▁appliquée	-11.0311
▁Monti	-11.0318
▁bénéficiaires	-11.0319
▁Civil	-11.0319
▁devenu	-11.0321
▁abolition	-11.0325
▁2003.	-11.0329
▁reservations	-11.0329
▁Authority	-11.033
▁chaîne	-11.0331
▁retain	-11.0335
▁exact	-11.0337
▁surprise	-11.0339
▁tenus	-11.034
▁ouvrir	-11.0346
▁utmost	-11.0347
ff	-11.0347
▁chimiques	-11.0353
▁Association	-11.0354
▁vie.	-11.0355
▁russe	-11.0356
▁bank	-11.0362
▁consequence	-11.0365
▁terrorism,	-11.0368
▁l'union	-11.0376
▁deeply	-11.0377
▁inquiétude	-11.0378
▁Slovakia	-11.0379
▁exemple.	-11.0379
▁involved.	-11.0379
▁healthcare	-11.038
▁greenhouse	-11.038
▁things,	-11.0381
men	-11.0383
▁expansion	-11.0387
ho	-11.0388
▁sake	-11.0389
emp	-11.039
▁privatisation	-11.0391
▁medicines	-11.0394
▁mark	-11.0395
02	-11.0395
▁sought	-11.0397
▁concrètement	-11.0401
▁pencher	-11.0401
ill	-11.0402
▁ships	-11.0402
ac	-11.0404
▁Danemark	-11.0407
▁there.	-11.0413
▁leçons	-11.0413
▁voudrions	-11.0418
▁supplementary	-11.0418
▁incorporated	-11.042
▁soumise	-11.0421
▁afraid	-11.0424
▁news	-11.0426
ting	-11.0426
▁explanation	-11.0426
▁repris	-11.0428
▁break	-11.0429
▁l’heure	-11.0429
▁fixés	-11.0433
ag	-11.0433
▁country's	-11.0434
be	-11.0434
▁d'augmenter	-11.044
▁d'examiner	-11.044
▁l'Espagne	-11.0446
▁présentées	-11.0446
▁mettant	-11.0446
▁label	-11.0447
▁aboutir	-11.0448
▁élaboré	-11.0449
▁GDP	-11.0451
▁histoire	-11.0455
▁allocation	-11.0456
▁élu	-11.0456
▁boost	-11.0457
▁Netherlands	-11.0461
▁Joint	-11.0462
▁exprimées	-11.0464
N	-11.0464
▁aspirations	-11.0465
▁prochains	-11.0467
▁siège	-11.0469
▁amend	-11.0473
▁convaincue	-11.0475
▁exiger	-11.0478
▁instamment	-11.0479
ques	-11.0485
▁applicant	-11.0486
▁stimuler	-11.0495
▁l'Ukraine	-11.0496
ven	-11.05
▁tend	-11.0502
▁limitation	-11.0503
▁pétitions	-11.0503
▁negotiate	-11.0503
F	-11.0504
▁airlines	-11.0506
▁restrictive	-11.0511
▁everybody	-11.0512
▁Congo	-11.0513
▁titre,	-11.0514
▁quote	-11.0517
▁jusqu'	-11.0518
▁d'immigration	-11.0518
▁garantissant	-11.0524
fer	-11.0527
▁completed	-11.053
▁Blair	-11.0535
▁d’avoir	-11.0535
▁fairly	-11.0536
▁concrets	-11.0539
▁weak	-11.054
▁phrase	-11.054
▁Timor	-11.0551
▁Quoi	-11.0551
▁battle	-11.0557
▁satellite	-11.0558
▁progress.	-11.0558
▁aside	-11.0559
▁messages	-11.0559
▁32	-11.056
▁Over	-11.0563
▁s'applique	-11.0564
▁women's	-11.0565
▁agreements.	-11.057
ten	-11.0572
▁cherche	-11.0573
▁chaleureusement	-11.0585
▁appris	-11.0585
▁sûreté	-11.0585
▁deserve	-11.0587
▁tragedy	-11.0587
▁obtained	-11.0587
▁consacrer	-11.0587
▁clairs	-11.0589
fi	-11.0589
▁terrorisme,	-11.0589
▁firms	-11.059
▁inspections	-11.0591
si	-11.0591
▁supérieur	-11.0596
▁profonde	-11.0597
▁durabilité	-11.0602
▁piece	-11.0602
▁targeted	-11.0604
▁juge	-11.0604
▁âgées	-11.0605
▁carte	-11.0608
▁facts	-11.061
▁considérations	-11.0611
▁l’Europe.	-11.0611
▁Presidency.	-11.0612
▁racism	-11.0616
▁autres.	-11.0618
▁pouvant	-11.0619
▁camp	-11.0622
▁négatif	-11.0622
va	-11.0623
▁G20	-11.0625
▁rurales	-11.0628
▁neighbours	-11.0629
▁eliminate	-11.063
▁l'exclusion	-11.0631
▁accordé	-11.0631
▁l'avez	-11.0631
▁smaller	-11.0633
▁promise	-11.0636
▁engager	-11.0638
▁indiquer	-11.0638
▁slow	-11.0645
▁EU’s	-11.0651
▁démontre	-11.0652
▁i	-11.0654
▁expériences	-11.0655
▁rapporteure	-11.0655
▁espèces	-11.0657
▁nord	-11.0658
▁raising	-11.0658
▁maintained	-11.0659
▁species	-11.0661
▁groups,	-11.0661
▁pact	-11.0663
▁budgétaire,	-11.0663
▁sauvegarde	-11.0665
▁funds.	-11.0665
▁cars	-11.0666
▁Follow	-11.0669
▁équilibrée	-11.0671
▁purposes	-11.0673
▁fermeture	-11.0675
▁contribuent	-11.0677
▁Ra	-11.0679
▁(Parliament	-11.0681
▁leaving	-11.0684
▁schemes	-11.0688
▁excluded	-11.0689
▁clean	-11.0691
▁observer	-11.0692
▁catégories	-11.0695
▁hopes	-11.0698
▁citoyenneté	-11.0698
▁l'excellent	-11.0699
▁occupation	-11.0702
▁voisinage	-11.0703
▁preserve	-11.0704
▁l'harmonisation	-11.0709
▁analyses	-11.0711
du	-11.0711
▁manifestement	-11.0712
▁incentives	-11.0713
▁approfondie	-11.0713
ian	-11.0714
▁heureuse	-11.0716
rais	-11.0718
▁seuil	-11.0721
▁motions	-11.0727
▁minimales	-11.0729
▁appliqué	-11.0731
▁renforcé	-11.0731
▁struggle	-11.0732
com	-11.0735
▁contribuables	-11.0738
▁actif	-11.0739
▁candidat	-11.0744
▁permanente	-11.0751
▁évoquer	-11.0753
▁authorities,	-11.0754
▁She	-11.0755
▁argent	-11.0759
▁assurance	-11.0763
-là	-11.0763
▁meaning	-11.0765
▁voulais	-11.0766
▁Con	-11.0766
▁extérieur	-11.0768
▁guère	-11.0772
▁ordinary	-11.0772
▁pensent	-11.0772
▁Control	-11.0773
▁l’un	-11.0774
▁d'amendement	-11.0781
▁lay	-11.0782
▁apparent	-11.0785
▁limité	-11.0786
▁drogue	-11.0786
less	-11.0796
▁you.	-11.0799
▁fallait	-11.0799
01	-11.0809
▁showing	-11.0809
purement	-11.0809
▁settlement	-11.081
▁fleet	-11.0811
ies	-11.0812
▁Europe’s	-11.0813
▁vin	-11.0814
▁2011	-11.0814
▁voyons	-11.0818
▁2002.	-11.0821
▁désir	-11.0821
▁librement	-11.0822
▁electoral	-11.0823
G	-11.0824
▁bound	-11.0826
▁destination	-11.0827
▁Russia.	-11.0827
▁Industry	-11.0829
he	-11.0831
▁stay	-11.0832
▁portent	-11.0834
▁pesticides	-11.0835
▁Chaque	-11.0835
▁programmes,	-11.0839
▁facilities	-11.084
▁résistance	-11.0841
▁dette	-11.0841
▁l’UE.	-11.0842
▁criminels	-11.0842
▁souhaitable	-11.085
▁familiar	-11.0856
institutionnel	-11.0858
▁credible	-11.0858
▁disabled	-11.0858
▁l’égalité	-11.0858
▁passé.	-11.0859
▁Moldova	-11.0859
▁général.	-11.0862
▁l'enseignement	-11.0864
▁jointly	-11.0865
▁Constitution.	-11.0865
▁von	-11.0868
▁employers	-11.0869
▁réglementaire	-11.0873
▁qu'avec	-11.0875
▁l’égard	-11.0875
▁couvrir	-11.0876
ful	-11.0877
▁armed	-11.0877
▁inadequate	-11.088
▁necessarily	-11.0881
▁revised	-11.0882
▁worrying	-11.0889
iv	-11.0891
▁d'écus	-11.0899
▁tiendra	-11.0899
▁term.	-11.0899
▁aéroports	-11.0901
▁declarations	-11.0904
▁bureaucratic	-11.0906
▁combined	-11.0906
▁organiser	-11.0908
▁Frontex	-11.091
ative	-11.0911
▁judiciaires	-11.0911
s"	-11.0914
▁committee.	-11.0915
▁Milosevic	-11.0916
▁répression	-11.0916
ll	-11.0919
▁Well	-11.092
▁Paris	-11.0921
▁voies	-11.0923
▁bord	-11.0925
▁Telle	-11.0926
▁autorité	-11.0931
▁d’entre	-11.0933
▁success.	-11.0937
▁outstanding	-11.0939
▁flotte	-11.0947
▁surprised	-11.095
▁Grâce	-11.0951
▁pleasure	-11.0951
▁investir	-11.0952
aire	-11.0955
ted	-11.0956
▁Députés	-11.0958
▁d'aider	-11.0965
▁eyes	-11.0969
▁aujourd'	-11.0974
▁shortcomings	-11.0974
▁reconnaissant	-11.0975
▁radio	-11.0977
▁d'initiative	-11.0983
▁safety.	-11.0986
▁fourni	-11.0988
▁buy	-11.099
▁puisqu'il	-11.0992
▁couple	-11.0995
▁prefer	-11.0996
▁Time	-11.0996
▁representation	-11.1001
ure	-11.1002
▁Office	-11.1004
▁forest	-11.1009
▁matters.	-11.101
▁orientation	-11.101
▁justify	-11.1011
▁société.	-11.1014
▁Déclaration	-11.1015
▁world's	-11.1015
▁reflects	-11.1015
▁candidates	-11.1016
▁declare	-11.1018
▁défini	-11.1019
▁1993	-11.1019
▁examined	-11.1024
▁réels	-11.1029
▁unies,	-11.1029
▁shape	-11.1029
▁nationaux,	-11.1029
▁drafting	-11.103
▁l'affaire	-11.1032
▁promesses	-11.1037
▁d'encourager	-11.1038
▁signalé	-11.104
▁repeatedly	-11.1041
▁relate	-11.1043
▁exceptional	-11.1044
▁étions	-11.1044
▁valid	-11.1046
▁phenomenon	-11.1047
▁complaints	-11.1048
▁creates	-11.1049
▁séjour	-11.1056
▁affirme	-11.1056
▁appelé	-11.1056
▁correctly	-11.1059
▁trend	-11.1064
▁défaut	-11.1065
▁said.	-11.107
▁américaine	-11.1071
▁rapprocher	-11.1072
▁informé	-11.1076
mi	-11.1076
▁générations	-11.1078
▁prenons	-11.108
ig	-11.108
▁prendra	-11.1082
▁expressing	-11.1084
▁weight	-11.1086
▁afford	-11.1087
▁2020.	-11.1088
▁nearly	-11.1094
▁undertake	-11.1097
▁groups.	-11.1097
▁grow	-11.1098
▁cities	-11.11
▁schools	-11.1103
▁Parti	-11.1104
▁restriction	-11.1105
▁Palestiniens	-11.1112
▁raison,	-11.1116
▁dollars	-11.1118
▁l’objet	-11.1121
▁ici.	-11.1125
▁moteur	-11.1127
▁75	-11.1132
▁accorde	-11.1133
▁belief	-11.1135
▁mistake	-11.1138
▁Free	-11.1139
▁posée	-11.1139
▁libres	-11.1141
▁engagé	-11.1141
▁underline	-11.1142
▁borders.	-11.1145
▁comparable	-11.1146
▁crime.	-11.1147
▁réductions	-11.1148
▁partageons	-11.1149
▁48	-11.115
ins	-11.1154
▁Martin	-11.1156
▁Helsinki	-11.1156
▁stance	-11.1157
▁puissance	-11.1157
▁coordonner	-11.1158
▁arrest	-11.1159
▁d'intervention	-11.1163
▁feront	-11.1164
▁concepts	-11.1165
▁Presidents	-11.1167
▁bienvenue	-11.1167
▁campagnes	-11.1168
▁sexuelle	-11.1169
-up	-11.1171
▁charte	-11.1172
▁appliquées	-11.1173
▁constamment	-11.1174
▁suédoise	-11.1175
▁broader	-11.1176
▁impliqués	-11.1179
▁Hussein	-11.118
▁publié	-11.1183
▁indication	-11.1185
▁chose.	-11.1186
▁DG	-11.1188
▁incidents	-11.1188
▁bearing	-11.1189
▁suivante	-11.119
▁agence	-11.1191
ap	-11.1192
▁continent.	-11.1194
▁voyage	-11.1197
▁côtés	-11.1198
▁turned	-11.1198
▁retrouver	-11.1198
▁électorale	-11.1199
mp	-11.1202
▁environmentally	-11.1206
▁censure	-11.1207
▁honest	-11.121
▁unemployed	-11.121
▁L’Union	-11.121
▁brevets	-11.1211
▁di	-11.1212
▁suspended	-11.1212
▁presentation	-11.1213
▁Therefore	-11.1215
▁educational	-11.1217
▁Al	-11.122
▁critère	-11.122
▁Korea	-11.1221
▁Américains	-11.1222
▁picture	-11.1225
▁s'avère	-11.1226
▁nuit	-11.1229
▁foundations	-11.123
▁d’a	-11.1231
▁productive	-11.1237
der	-11.124
▁susceptible	-11.124
▁d'ordre	-11.1241
▁attentivement	-11.1242
ecommunications	-11.1243
▁Slovaquie	-11.1246
▁50%	-11.1246
▁belong	-11.1247
▁conscient	-11.1247
▁intégré	-11.1249
▁considérant	-11.125
▁collaborer	-11.1251
▁systématique	-11.1256
▁progressivement	-11.1257
U	-11.1264
▁GUE/NGL	-11.1264
▁patient	-11.1265
▁hardly	-11.1266
▁planification	-11.1266
▁journalistes	-11.1267
▁deadline	-11.1269
▁indépendante	-11.1269
▁resulted	-11.127
▁voient	-11.1272
▁widespread	-11.1276
▁pure	-11.1276
▁posent	-11.1277
▁coalition	-11.1282
▁embargo	-11.1283
▁diminuer	-11.1284
▁waters	-11.1284
pe	-11.1287
▁dirai	-11.1288
▁alcohol	-11.1294
▁economically	-11.1294
▁veto	-11.1294
▁salariés	-11.1299
ized	-11.13
▁importantly	-11.1303
▁fresh	-11.1306
▁belge	-11.1307
▁production,	-11.1308
▁vérité	-11.1308
▁écrites	-11.1309
▁preparations	-11.1309
▁promises	-11.131
▁printemps	-11.1318
▁formule	-11.1321
▁vulnérables	-11.1323
ys	-11.1326
▁students	-11.1326
▁géographique	-11.133
▁l'énergie,	-11.1331
▁undermine	-11.1332
▁digital	-11.1333
▁below	-11.1333
▁fewer	-11.1333
▁partager	-11.1333
▁concret	-11.1334
▁stations	-11.1336
▁d'expression	-11.1337
pi	-11.1337
▁welcomes	-11.1339
▁information,	-11.1342
▁précédemment	-11.1343
▁Mes	-11.1343
▁Barcelone	-11.1349
▁subject.	-11.1357
▁d'introduire	-11.1361
ha	-11.1366
▁150	-11.1366
▁juridique.	-11.1369
▁count	-11.137
▁checks	-11.1377
▁Japan	-11.1377
▁fiscalité	-11.1381
▁liability	-11.1385
▁l’occasion	-11.1385
▁expense	-11.1386
▁warmly	-11.1387
▁entrepreneurs	-11.1392
▁Representative	-11.1396
▁2012	-11.1397
▁penalties	-11.1397
▁simples	-11.1401
▁fondamentaux.	-11.1403
▁collecte	-11.1403
▁spécifiquement	-11.1412
▁transmettre	-11.1421
▁Compte	-11.1422
▁afternoon	-11.1423
▁disagree	-11.1423
▁physical	-11.1424
▁subjects	-11.1428
▁repeated	-11.1429
▁needed.	-11.1432
▁results.	-11.1432
▁politiquement	-11.1433
▁modalités	-11.1433
hi	-11.1434
▁yes	-11.1435
▁vivant	-11.144
▁night	-11.1441
▁worldwide	-11.1441
▁licences	-11.1441
▁tackling	-11.1446
▁italien	-11.1447
▁heure	-11.1457
▁d'États	-11.1458
▁inclus	-11.1462
▁past.	-11.1467
▁jouent	-11.1468
▁President.	-11.1468
▁fassent	-11.1471
▁coordinate	-11.1478
▁Yes	-11.1484
▁qu'aux	-11.1487
▁made.	-11.1488
▁l'exemple	-11.1489
▁libération	-11.1489
▁sub	-11.1493
▁instaurer	-11.1494
▁droite	-11.1501
▁money.	-11.1504
▁unfortunate	-11.1508
▁attaques	-11.1509
▁harm	-11.1511
▁Washington	-11.1513
▁category	-11.1513
▁transatlantic	-11.1513
▁civilian	-11.1514
▁losses	-11.1525
▁York	-11.1525
▁opposés	-11.1526
▁expertise	-11.1527
▁immense	-11.1529
▁delays	-11.153
(	-11.1532
▁sucre	-11.1532
ton	-11.1534
▁part.	-11.1536
▁nationals	-11.1538
▁enhanced	-11.1545
▁avantage	-11.1546
▁positives	-11.1547
▁restricted	-11.1548
▁nomination	-11.1549
▁withdraw	-11.155
▁Laeken	-11.155
▁field.	-11.1551
▁négociations.	-11.1552
tant	-11.1561
▁entraîné	-11.1563
▁falls	-11.1563
▁respect.	-11.1564
▁Parmi	-11.1564
▁Service	-11.1566
▁revenue	-11.1567
▁demonstrates	-11.157
▁climatique,	-11.1571
▁lasting	-11.1573
▁unacceptable.	-11.1575
▁city	-11.1576
▁rétablir	-11.1576
▁tragédie	-11.1578
▁incident	-11.158
▁became	-11.1581
▁uncertainty	-11.1581
▁Islamic	-11.1582
▁soulever	-11.1587
▁dialogue.	-11.1589
▁certainty	-11.1595
▁jobs,	-11.1595
▁youth	-11.1596
▁widely	-11.1597
▁immédiate	-11.1598
▁Clearly	-11.16
▁garantit	-11.1601
▁processing	-11.1603
▁intérieure	-11.1605
▁montants	-11.1606
▁gratitude	-11.1618
▁team	-11.1623
▁faith	-11.1624
▁Geneva	-11.1625
▁condemned	-11.1626
▁naturel	-11.1628
▁unity	-11.163
▁unies.	-11.1635
▁échelle	-11.1637
▁activities.	-11.1638
▁regulate	-11.1639
▁manifeste	-11.1641
▁Albania	-11.1642
▁retards	-11.1643
▁EMU	-11.1643
▁English	-11.1643
elle	-11.1647
▁stake	-11.1648
▁lessons	-11.165
▁occurred	-11.165
▁flow	-11.165
▁(article	-11.1651
▁societies	-11.1654
▁freely	-11.1658
▁drafted	-11.1658
▁explained	-11.1658
▁OLAF	-11.1662
▁door	-11.1662
▁considerations	-11.1663
▁informés	-11.1663
▁gradually	-11.1664
▁budgétaire.	-11.1664
▁kinds	-11.1666
▁33	-11.1667
▁aircraft	-11.1668
▁informal	-11.1669
▁army	-11.1669
▁regulated	-11.1673
▁expensive	-11.1674
▁contrairement	-11.1675
▁manner.	-11.1676
▁demandeurs	-11.1677
▁ALDE	-11.1679
▁legitimacy	-11.168
▁D'autre	-11.168
▁workers,	-11.1682
▁l	-11.1686
▁indicate	-11.1688
▁courts	-11.1691
▁devienne	-11.1692
▁cesser	-11.1694
▁assisté	-11.1699
▁plaintes	-11.1706
par	-11.1708
▁quatrième	-11.171
▁adaptation	-11.1711
▁consent	-11.1721
▁collection	-11.1722
▁suédois	-11.1724
▁opinion.	-11.1728
▁railway	-11.1732
▁légale	-11.1734
▁Lithuania	-11.1735
▁sensibles	-11.174
▁reserve	-11.1742
▁communautaires.	-11.1743
▁receiving	-11.1744
▁conseils	-11.1744
▁l'octroi	-11.1744
▁Swoboda	-11.175
▁modifié	-11.175
▁recommend	-11.1756
▁préjudice	-11.1756
▁arise	-11.1758
▁excuse	-11.1759
ue	-11.176
▁milliard	-11.176
ru	-11.1762
▁heritage	-11.1762
▁Convention,	-11.1762
▁demographic	-11.1762
er.	-11.1766
▁secteur.	-11.1767
▁bureau	-11.1767
▁d’État	-11.1767
▁écouté	-11.1769
▁espère	-11.1771
▁36	-11.1772
▁doter	-11.1774
▁noise	-11.1775
▁larger	-11.1778
▁none	-11.1779
▁Japon	-11.1781
▁nonetheless	-11.1781
▁doutes	-11.1783
▁unanimous	-11.1784
▁reinforce	-11.1788
▁Afin	-11.179
up	-11.1791
▁causing	-11.1794
▁SIS	-11.1794
▁Italie	-11.1796
▁turning	-11.1797
▁discussion.	-11.1797
▁représenter	-11.18
▁Frattini	-11.18
▁cur	-11.1803
tent	-11.1803
▁reality.	-11.1806
▁permit	-11.1807
▁proposons	-11.1808
▁regardless	-11.1809
▁condamner	-11.1812
▁sovereign	-11.1819
▁suffisante	-11.182
▁prévus	-11.1821
▁consolider	-11.1821
▁indications	-11.1822
▁warning	-11.1829
▁civilisation	-11.183
ible	-11.183
pro	-11.183
▁récents	-11.1831
▁Commissaire.	-11.1832
▁ethical	-11.1836
▁sérieuse	-11.1836
▁inutile	-11.184
▁elections.	-11.1843
▁procurement	-11.1846
▁promis	-11.1846
▁indicators	-11.1851
▁latine	-11.1856
▁Y	-11.1859
▁outils	-11.1861
▁donnent	-11.1862
▁summer	-11.1866
▁health,	-11.1866
▁opportunités	-11.1873
▁covers	-11.1875
▁italienne	-11.1877
▁Investment	-11.1877
▁n'importe	-11.1877
▁raw	-11.1877
▁34	-11.188
30	-11.188
▁opportunité	-11.1883
▁Obviously	-11.1883
▁Union'	-11.1885
▁undertaking	-11.1887
ab	-11.1888
▁den	-11.1889
▁îles	-11.1889
▁développements	-11.1892
▁récentes	-11.1894
▁listened	-11.1895
▁tort	-11.1895
▁Copenhague	-11.1896
▁Danube	-11.1896
▁l’amendement	-11.1896
gi	-11.1899
▁Palestinians	-11.1901
▁reflection	-11.1904
ors	-11.1909
▁hence	-11.1911
▁renforce	-11.1912
▁ecological	-11.1912
▁différent	-11.1915
▁permette	-11.1916
▁bâtiments	-11.1918
▁dégâts	-11.1921
▁euro,	-11.1925
▁workers.	-11.1925
▁voilà	-11.1928
▁diffusion	-11.1928
▁minister	-11.1929
▁respects	-11.1932
▁confirme	-11.1933
▁6,	-11.1935
▁reading.	-11.1937
▁borne	-11.1937
▁Oui	-11.1937
-elle	-11.1937
▁register	-11.1937
▁programmation	-11.1941
▁extraordinary	-11.1941
▁insiste	-11.1944
▁engaged	-11.1945
▁elderly	-11.1947
▁précédents	-11.1948
▁transformer	-11.1951
▁justifie	-11.1951
▁rapprochement	-11.1954
▁certification	-11.1956
▁financed	-11.1957
▁periods	-11.196
▁shares	-11.1961
▁began	-11.1961
dé	-11.1961
▁San	-11.1964
▁blame	-11.197
▁liberal	-11.1972
▁l'instar	-11.1973
▁absolue	-11.1973
ment.	-11.1973
▁lecture.	-11.1974
▁souffrent	-11.1975
▁strike	-11.1977
▁industriels	-11.1977
▁push	-11.1979
▁lorsqu'elle	-11.1979
▁deuxièmement	-11.1981
▁discrimination.	-11.1981
20	-11.1989
▁up.	-11.1992
▁Lituanie	-11.1992
▁l’objectif	-11.1992
▁croissant	-11.1997
▁porté	-11.1997
▁Parliament'	-11.2
▁culturels	-11.2001
▁Barnier	-11.2005
▁occupe	-11.2006
▁beings	-11.2006
▁appropriées	-11.2017
▁text.	-11.2024
▁basically	-11.2026
▁accord.	-11.2029
▁severe	-11.2029
▁finir	-11.2033
▁d'accorder	-11.2033
▁imposées	-11.2037
▁journalists	-11.204
▁morts	-11.204
▁culturelles	-11.2049
▁decision.	-11.2049
▁right.	-11.205
▁l'exportation	-11.2051
▁tribute	-11.2053
▁travailleurs.	-11.2053
▁libéral	-11.2059
all	-11.2063
▁trade.	-11.2064
pr	-11.2065
▁devenue	-11.2068
▁growth.	-11.2068
▁serre	-11.2069
▁killed	-11.2073
▁4.	-11.2074
▁handicapées	-11.2076
▁Bolkestein	-11.2077
▁secrétaire	-11.2081
▁incapable	-11.2081
▁beneficial	-11.2083
▁bilatéraux	-11.2083
▁tribunaux	-11.2083
▁pourcentage	-11.2086
ante	-11.2086
▁solid	-11.2087
▁REACH	-11.209
▁deaths	-11.2094
▁rejette	-11.2095
▁III	-11.2098
▁allusion	-11.2103
▁profession	-11.2103
▁necessity	-11.2109
▁congratulations	-11.2109
▁présidente	-11.211
▁lever	-11.2111
▁primordial	-11.2111
▁Second	-11.2114
vers	-11.2115
▁hommage	-11.2116
▁officielle	-11.2119
▁Poettering	-11.2122
▁spring	-11.2122
▁accepte	-11.2126
▁énergétique.	-11.2132
▁Nonetheless	-11.2135
▁project.	-11.2138
▁tomorrow,	-11.2139
▁génétiquement	-11.2143
▁périodes	-11.2147
▁manifestations	-11.2149
L	-11.2152
▁sociales,	-11.2163
▁veille	-11.2165
▁prevented	-11.2166
▁discriminations	-11.2166
▁dernier.	-11.2168
▁l'Inde	-11.2168
▁question:	-11.2169
▁p	-11.217
▁lecture,	-11.2171
▁London	-11.2175
▁venons	-11.2175
▁42	-11.2177
▁urgence	-11.2178
ments	-11.218
out	-11.2181
▁mouvements	-11.2184
▁abstained	-11.2184
▁éventuellement	-11.2184
▁législatifs	-11.2185
▁conclus	-11.2188
▁contamination	-11.2189
▁précises	-11.2189
▁spécialement	-11.2191
▁choses.	-11.2193
▁remédier	-11.2194
▁fiscaux	-11.2194
▁limitée	-11.2199
▁humanitaires	-11.22
▁removed	-11.2205
▁d'enfants	-11.2208
▁s'agisse	-11.2208
▁félicitations	-11.2208
▁day.	-11.2208
▁moderne	-11.221
▁carbone	-11.221
▁circonscription	-11.2214
▁impliquant	-11.2214
▁circumstances,	-11.2215
▁structurelle	-11.2216
▁qualifiée	-11.2216
▁stage.	-11.2216
▁démocratisation	-11.2221
▁promoted	-11.2222
▁sports	-11.2222
▁auteurs	-11.2226
▁Verts/ALE	-11.2227
▁l'Iran	-11.2228
▁companies.	-11.2234
▁Soviet	-11.2234
▁mine	-11.2236
▁motor	-11.2237
▁parallel	-11.2241
▁supplies	-11.2242
▁privées	-11.2246
▁l’adoption	-11.2247
mé	-11.2252
▁l'internet	-11.2253
▁frequently	-11.2262
min	-11.2262
▁sending	-11.2265
▁prudence	-11.2267
▁expliqué	-11.227
▁approach,	-11.227
ef	-11.2272
▁auparavant	-11.2274
▁past,	-11.2275
▁remarquable	-11.228
▁économiques.	-11.2281
▁looked	-11.2283
▁race	-11.2283
▁d'aborder	-11.2286
▁Palacio	-11.2287
▁ferons	-11.2288
▁l'échange	-11.2288
▁Declaration	-11.2294
▁d'armes	-11.2294
▁tentatives	-11.2294
▁b	-11.2295
▁établissant	-11.2301
▁travaille	-11.2301
▁Nigeria	-11.2303
tu	-11.2306
V	-11.2306
▁ça	-11.2307
▁chute	-11.2307
▁Labour	-11.2309
▁d'élaborer	-11.2314
▁troops	-11.2314
▁bureaucracy	-11.2315
▁decades	-11.2319
▁nobody	-11.232
▁»	-11.2324
▁drivers	-11.2324
▁energy.	-11.2325
▁soutenue	-11.2326
▁Year	-11.2327
▁pursued	-11.2327
▁détention	-11.2327
▁respective	-11.2328
▁l'instrument	-11.2328
▁réalité.	-11.2329
▁bénéficie	-11.2331
▁étudiants	-11.2331
▁Egypt	-11.234
▁pauvreté.	-11.234
▁IGC	-11.2341
▁rejection	-11.2341
▁l'entreprise	-11.2341
▁foi	-11.2342
▁bénéfice	-11.2342
▁react	-11.2342
▁sincerely	-11.2343
▁compétentes	-11.2343
▁dangereuses	-11.2347
▁Communauté.	-11.2348
▁interest.	-11.2348
sa	-11.2351
▁wage	-11.2351
▁notice	-11.2352
▁admettre	-11.2354
▁modèles	-11.2359
▁l'extérieur	-11.2361
▁arising	-11.2361
▁accomplir	-11.2361
▁noon.	-11.2362
▁Any	-11.2362
▁brevet	-11.2366
▁cinquième	-11.2368
▁rendent	-11.2371
▁neuf	-11.2373
▁clearer	-11.2374
aires	-11.2377
▁importants.	-11.2377
▁rare	-11.2378
▁d'éducation	-11.2381
▁fast	-11.2385
▁entraîner	-11.2386
▁medium	-11.2386
▁profondeur	-11.2391
▁éliminer	-11.2398
▁espoir	-11.2398
▁moved	-11.2398
▁soutiennent	-11.2401
▁10%	-11.2402
pos	-11.2403
▁Verts	-11.2405
▁domaines.	-11.2405
▁mène	-11.2406
▁view.	-11.2413
▁marche	-11.2414
▁envoyer	-11.2423
▁bref	-11.2424
▁utilisateurs	-11.2427
▁Be	-11.2429
▁allant	-11.2429
▁sinon	-11.2431
pé	-11.2433
▁Every	-11.2435
ring	-11.2435
▁employés	-11.2435
▁laissé	-11.2436
▁turc	-11.2436
ke	-11.2441
▁résolu	-11.2441
▁Eurostat	-11.2441
▁personnes.	-11.2445
▁a.m.	-11.2452
▁déployés	-11.2453
ach	-11.2454
▁Americans	-11.2454
▁Parallèlement	-11.2455
▁accompanied	-11.2455
▁territoriale	-11.2455
▁entamer	-11.2457
bi	-11.2459
▁devaient	-11.2461
▁emerging	-11.2462
▁achieved.	-11.2464
▁convaincus	-11.2466
▁Toute	-11.2467
▁fragile	-11.247
▁jusqu'ici	-11.2472
ning	-11.2473
▁congratulating	-11.2475
▁banking	-11.2475
▁couvre	-11.2479
▁nécessairement	-11.248
▁dégager	-11.2482
▁Socialists	-11.2484
▁po	-11.2485
▁puts	-11.2488
▁host	-11.2488
▁irlandaise	-11.2489
▁refusé	-11.249
▁suffisant	-11.2492
▁2007-2013	-11.2492
▁exploit	-11.2496
▁touchés	-11.2496
lic	-11.2496
▁pilot	-11.2502
▁lait	-11.2502
▁talked	-11.2504
▁insisté	-11.2505
▁communiste	-11.2506
▁Leur	-11.2508
▁Turkey.	-11.2508
▁reçoivent	-11.2509
▁généraux	-11.2509
▁partant	-11.2514
▁examiné	-11.2515
▁positive.	-11.2516
▁divided	-11.2519
▁compétitive	-11.2521
▁urgency	-11.2521
▁compléter	-11.2523
▁contraintes	-11.2527
▁approximately	-11.253
▁commun.	-11.2531
▁prenant	-11.2532
▁développés	-11.2532
▁s'engager	-11.2533
▁friend	-11.2535
▁l'attitude	-11.2538
▁exclusively	-11.254
▁alongside	-11.254
▁l’utilisation	-11.2543
▁enlarged	-11.2544
▁textiles	-11.2546
▁constatons	-11.2548
▁ratifié	-11.2548
▁parvenu	-11.255
▁mainte	-11.2557
▁étrangers	-11.2558
▁réponse.	-11.2559
▁l'essentiel	-11.2564
▁exploitations	-11.2567
▁self-	-11.2568
▁period.	-11.2569
▁Great	-11.2571
▁percentage	-11.2573
▁vehicle	-11.2573
▁organe	-11.2573
▁réaliste	-11.2576
d.	-11.2577
▁récent	-11.2577
▁Mugabe	-11.2584
▁lancement	-11.2586
▁salaire	-11.2587
▁l'Est	-11.259
▁recherches	-11.2595
▁utiles	-11.2595
ot	-11.2596
▁disponible	-11.2597
▁directeur	-11.2597
▁concrétiser	-11.2599
▁Traités	-11.2601
▁d'enquête	-11.2601
▁Etats	-11.2606
▁élevées	-11.2608
▁rejoindre	-11.2612
▁l'Italie	-11.2612
▁elsewhere	-11.2617
▁simplify	-11.262
▁surveiller	-11.2621
▁seules	-11.2624
▁deviennent	-11.2627
▁divergences	-11.2628
▁Their	-11.2632
▁defending	-11.2633
▁harmonised	-11.2635
▁judgment	-11.2645
s?	-11.2648
rcialisation	-11.2651
▁fondement	-11.2652
▁rencontré	-11.2657
▁pièces	-11.2658
rie	-11.2658
▁inégalités	-11.2658
▁Like	-11.266
▁forests	-11.2661
▁cap	-11.2665
▁soumises	-11.2666
▁rythme	-11.2667
▁yourself	-11.2674
▁Most	-11.2674
▁strictly	-11.2674
▁listening	-11.2683
s;	-11.2685
▁Objective	-11.2688
▁northern	-11.2694
▁d'après	-11.2695
▁expert	-11.2696
▁enquêtes	-11.2696
▁well,	-11.2699
▁Education	-11.2701
▁d'entreprises	-11.2703
▁Statute	-11.2706
▁s'agissant	-11.2708
▁droit.	-11.2711
▁friendly	-11.2712
▁integration.	-11.2712
mon	-11.2714
▁guide	-11.2716
▁usual	-11.2729
▁cruciale	-11.2732
▁sûrs	-11.2734
▁tenons	-11.2735
▁débattu	-11.2738
da	-11.274
▁sale	-11.2747
▁culture.	-11.275
▁Michel	-11.2751
▁inacceptable.	-11.2754
▁force,	-11.2755
▁evident	-11.2761
▁Cotonou	-11.2764
▁95	-11.2766
▁respecting	-11.2767
▁exemption	-11.2769
▁S'agissant	-11.2771
▁Est-ce	-11.2771
▁syndicats	-11.2771
▁l'approbation	-11.2771
▁disappointed	-11.2771
▁indépendant	-11.2777
▁rational	-11.2777
▁sharing	-11.2778
▁trans-European	-11.2778
▁experiencing	-11.2785
▁profite	-11.2786
▁journée	-11.2788
▁Petitions	-11.2792
▁rising	-11.2792
▁coherence	-11.2799
▁begun	-11.2799
▁accélérer	-11.28
▁Irak	-11.28
▁victim	-11.2802
▁touch	-11.2805
▁Otherwise	-11.2806
▁troupes	-11.2806
▁figurent	-11.2807
▁définis	-11.2808
▁combler	-11.281
▁prisons	-11.2811
▁unanimity	-11.2813
▁processus.	-11.2814
▁poverty.	-11.2818
▁polonais	-11.2819
▁timely	-11.2826
▁membre.	-11.2828
▁ultrapériphéri	-11.2831
▁requiert	-11.2834
▁loans	-11.2835
▁contrast	-11.2838
▁procédure.	-11.284
▁difficile.	-11.284
▁Baltique	-11.284
▁surrounding	-11.2841
▁l'Agenda	-11.2842
j	-11.2845
▁7,	-11.285
▁fourth	-11.2851
▁reasons.	-11.2851
▁buildings	-11.2854
▁underlying	-11.2855
▁chemical	-11.2858
▁dés	-11.2861
▁1994	-11.2862
nant	-11.2868
▁8,	-11.2869
▁Cohesion	-11.2869
▁jurisdiction	-11.2869
▁néerlandais	-11.2872
▁sentence	-11.2874
▁treat	-11.2876
▁actions.	-11.2876
▁ruling	-11.2882
▁utilisant	-11.2883
▁banque	-11.2885
▁Atlantic	-11.2891
▁sanction	-11.2896
▁neighbourhood	-11.2897
▁Communist	-11.2898
▁consulted	-11.2901
po	-11.2906
▁compete	-11.2908
▁clear.	-11.2909
▁universel	-11.2914
▁passant	-11.2915
▁licence	-11.2917
▁Information	-11.292
▁citizenship	-11.2922
▁directed	-11.2923
▁défend	-11.2923
▁suggère	-11.2925
▁Finnish	-11.2926
▁Strasbourg.	-11.2929
▁re-	-11.2932
▁Macedonia	-11.2933
▁essence	-11.2934
▁demandant	-11.2935
▁risquent	-11.2935
▁terres	-11.2936
▁mere	-11.2938
▁desirable	-11.294
lusieurs	-11.2941
▁standing	-11.2941
▁l’emploi	-11.2942
▁énormes	-11.2942
▁éventuelle	-11.2942
▁intense	-11.2944
▁utilise	-11.295
▁parallèlement	-11.295
▁2001.	-11.2951
▁relèvent	-11.2953
▁43	-11.2954
▁vitesse	-11.2954
▁sauf	-11.2956
▁déplore	-11.2958
▁br	-11.2958
▁threatened	-11.2964
▁nature.	-11.2967
▁restrict	-11.2968
▁quelqu'un	-11.2968
▁die	-11.297
▁drive	-11.297
ables	-11.2972
▁campaigns	-11.2972
▁minimal	-11.2975
▁projects.	-11.2977
▁disons	-11.2977
▁investisseurs	-11.2983
▁systems,	-11.2985
▁compétente	-11.2987
▁threshold	-11.299
▁efficace,	-11.299
▁house	-11.2996
▁j’espère	-11.2997
▁follow-up	-11.2997
▁acceptable.	-11.2999
▁intelligent	-11.3
▁indépendance	-11.3004
ons-nous	-11.3006
▁multiples	-11.3008
▁après-midi	-11.3008
▁hoc	-11.3009
▁longues	-11.301
▁multinationales	-11.3011
qua	-11.3012
▁million.	-11.3016
mer	-11.3017
▁compromis.	-11.3018
▁abandon	-11.3018
▁Sakharov	-11.3018
▁dizaines	-11.3018
▁l’esprit	-11.3018
▁Cher	-11.3021
▁jugement	-11.3021
▁unions	-11.3022
▁control.	-11.3022
▁pursuan	-11.3026
▁solutions.	-11.3028
▁authorisation	-11.3029
ka	-11.303
▁permitted	-11.3033
▁entrepris	-11.3034
▁replaced	-11.3038
▁adéquat	-11.3038
bo	-11.3039
▁Single	-11.304
▁genetically	-11.304
▁nine	-11.3041
▁connected	-11.3041
stitutionnelles	-11.3043
▁changé	-11.3044
▁sections	-11.3045
▁l’ordre	-11.3046
▁estimé	-11.3046
▁diversification	-11.3047
▁indispensables	-11.3048
▁financière.	-11.3052
▁competition,	-11.3053
our	-11.3054
▁conformité	-11.3054
▁climatiques	-11.3059
▁emission	-11.3063
▁sight	-11.3063
▁forgotten	-11.3069
▁préoccupe	-11.3071
▁acceptance	-11.3071
▁fourniture	-11.3074
▁spéciale	-11.3076
▁encourageant	-11.3077
▁d'accroître	-11.3083
▁fondé	-11.3084
▁lacking	-11.3087
ster	-11.3089
▁refused	-11.3089
▁renoncer	-11.309
▁d'élargissement	-11.309
▁basé	-11.3092
▁nationales,	-11.3092
▁financières.	-11.3092
▁aborde	-11.3093
▁consistant	-11.3093
▁warm	-11.3094
▁d'entreprise	-11.3096
▁procedural	-11.3097
▁Your	-11.31
▁blood	-11.3102
▁intellectuelle	-11.3108
▁l’application	-11.3112
▁poisson	-11.3113
▁orale	-11.3115
▁Services	-11.3116
▁treaties	-11.3117
▁n'avait	-11.312
▁majeurs	-11.3123
▁Mercosur	-11.3133
▁examination	-11.3133
cul	-11.3138
▁costs.	-11.3139
▁ideal	-11.314
▁residence	-11.3141
▁événement	-11.3145
▁soutien.	-11.3153
▁sang	-11.3155
▁assemblée	-11.3158
▁feu	-11.316
▁joined	-11.316
▁jeune	-11.3162
▁defining	-11.3163
▁matériel	-11.3165
▁réjouir	-11.3166
▁Allow	-11.317
▁hongroise	-11.3175
▁stipule	-11.3177
ateur	-11.3179
▁assurances	-11.3181
▁Africa.	-11.3182
▁im	-11.3183
▁integrity	-11.3184
▁Two	-11.3184
▁classification	-11.3184
▁Ministre	-11.3192
▁impetus	-11.3192
▁prostitution	-11.3192
▁participent	-11.3198
▁l'acquis	-11.32
▁correcte	-11.32
▁raises	-11.3202
val	-11.3206
▁categories	-11.3206
▁régulation	-11.3206
▁pratique.	-11.3209
▁similaires	-11.3211
▁Defence	-11.3213
▁controversial	-11.3213
▁1989	-11.3214
▁consequently	-11.3214
▁investigations	-11.3216
▁restera	-11.3218
▁qualité.	-11.3218
▁confident	-11.322
▁solidarity.	-11.3222
▁statute	-11.3223
▁opposé	-11.3226
▁rigueur	-11.3228
▁portugaise	-11.3232
▁élargie	-11.3234
▁chapter	-11.3235
▁feuille	-11.3235
▁planète	-11.3236
▁soil	-11.3236
▁l'inclusion	-11.3251
▁equivalent	-11.3257
▁ethniques	-11.3261
▁resource	-11.3262
▁négatifs	-11.3268
▁instant	-11.3271
▁produisent	-11.3272
▁l’agriculture	-11.3272
▁serais	-11.3273
▁ship	-11.3278
▁worthy	-11.3278
▁dramatic	-11.3279
▁contributing	-11.3279
▁o	-11.3281
▁objection	-11.3288
▁tension	-11.329
▁m'ont	-11.3292
▁mo	-11.3293
▁Malta	-11.3294
▁helpful	-11.3297
▁obligatoires	-11.3298
▁agreements,	-11.3298
▁showed	-11.3299
▁fortes	-11.33
▁Regarding	-11.3301
▁Natura	-11.3301
▁reported	-11.3303
▁démocratique,	-11.3303
▁logical	-11.3306
▁insufficient	-11.3307
▁exprimée	-11.3307
▁comprennent	-11.3308
▁norme	-11.3309
▁souhaiter	-11.3309
▁essayé	-11.3309
▁agrees	-11.331
▁nous-mêmes	-11.331
K	-11.3311
05	-11.3312
▁pain	-11.3314
▁américaines	-11.3315
▁professions	-11.3316
▁gross	-11.3316
▁bateaux	-11.3316
▁imposing	-11.3317
▁observers	-11.3317
▁offices	-11.3319
▁brut	-11.332
▁Traité.	-11.3324
▁tiennent	-11.3328
use	-11.3328
▁substantielle	-11.333
▁employeurs	-11.3331
▁resumed	-11.3332
▁augmente	-11.3332
▁similaire	-11.3337
▁reconciliation	-11.3338
▁démontrer	-11.3338
▁publique,	-11.3339
ng	-11.3339
▁fire	-11.3339
▁finally,	-11.334
E	-11.3341
▁Forum	-11.3342
á	-11.3342
ification	-11.3343
▁1998.	-11.3345
▁Criminal	-11.3346
▁l'Amérique	-11.3346
ability	-11.3348
▁d’autre	-11.3349
tes	-11.3349
-Mediterranean	-11.335
▁constructif	-11.3351
▁Maroc	-11.3352
▁d'impact	-11.3354
▁Yugoslavia	-11.3355
▁complémentaires	-11.3355
▁length	-11.3358
▁américains	-11.3359
▁slightly	-11.3361
▁fournit	-11.3363
▁accusations	-11.3363
▁characteristics	-11.3364
▁espagnol	-11.3365
▁War	-11.3371
ale	-11.3374
▁(debate)	-11.3375
▁System	-11.3375
▁coexistence	-11.3375
▁tolérance	-11.3383
▁décisif	-11.3384
▁utilisent	-11.3385
▁fournisseurs	-11.3388
▁transparente	-11.339
▁subi	-11.3391
▁highlights	-11.3392
▁interdit	-11.3392
▁palestinien	-11.3393
▁audit	-11.3395
▁Italy,	-11.3396
▁mépris	-11.3398
▁devions	-11.3398
▁missing	-11.34
▁object	-11.3404
▁(débat)	-11.3405
▁obtenus	-11.3406
né	-11.3408
▁uniforme	-11.341
▁l'A	-11.3412
▁hautement	-11.3412
▁estimated	-11.3413
▁décennies	-11.3414
▁sauver	-11.3415
▁l'Irak	-11.3415
▁supporter	-11.3416
▁communiquer	-11.3419
▁short-term	-11.342
▁housing	-11.342
▁sold	-11.3421
▁items	-11.3421
▁détaillée	-11.3423
▁customer	-11.3425
▁.-	-11.3431
▁Hong	-11.3435
▁funded	-11.3435
▁comparison	-11.3436
▁interim	-11.3437
▁Morocco	-11.3438
▁rencontrer	-11.344
▁maritimes	-11.3443
▁signing	-11.3443
▁mille	-11.3444
▁El	-11.3445
▁poissons	-11.3448
▁destroy	-11.3448
▁search	-11.3451
▁preventive	-11.3452
▁account.	-11.3457
▁d'in	-11.3457
▁devez	-11.346
▁plays	-11.346
▁(C	-11.3466
▁légitimes	-11.3466
▁valable	-11.3467
▁dimensions	-11.3468
▁significatif	-11.3468
mb	-11.347
▁Ceux	-11.347
▁contenter	-11.3471
▁victime	-11.3473
▁farms	-11.3477
▁inspection	-11.348
▁Posselt	-11.348
▁énormément	-11.348
▁concurrence,	-11.3481
▁withdrawal	-11.3481
▁biodiversity	-11.3483
▁masse	-11.3483
▁block	-11.3484
▁38	-11.3489
▁bois	-11.3494
▁rédaction	-11.3495
▁juger	-11.3495
▁craintes	-11.3495
▁envoyé	-11.3497
▁Espagne	-11.3498
▁convince	-11.3499
▁keen	-11.3499
▁joining	-11.3501
▁prouve	-11.3502
▁August	-11.3502
▁Solidarity	-11.3502
▁l'alimentation	-11.3502
▁inside	-11.3505
▁grec	-11.351
su	-11.351
▁absent	-11.351
▁d'euros.	-11.3513
▁fixe	-11.3515
▁MEDA	-11.3517
▁Kong	-11.3517
▁coastal	-11.3518
▁Co	-11.3518
▁perfect	-11.3522
▁track	-11.3523
▁another.	-11.3524
▁indépendamment	-11.3525
▁hoped	-11.353
▁systematic	-11.3532
▁Friday	-11.3532
▁preliminary	-11.3532
▁perception	-11.3532
and	-11.3533
▁notably	-11.3536
▁criteria.	-11.3536
▁prioritaire	-11.3536
▁d'aller	-11.354
▁disputes	-11.3544
▁concert	-11.3545
▁maintenance	-11.3547
hé	-11.3548
▁adopted.	-11.3548
▁démographique	-11.355
▁cru	-11.3555
▁virus	-11.3555
▁dossier.	-11.3556
▁subsequently	-11.3558
▁subsequent	-11.3559
▁coordonnée	-11.356
ritten	-11.3564
▁55	-11.3566
▁managing	-11.357
▁chinois	-11.3571
▁breach	-11.3574
▁définies	-11.3575
▁nationale.	-11.3575
▁d'é	-11.3575
▁Who	-11.3581
▁Please	-11.3585
▁Monday	-11.3585
▁organizations	-11.3585
▁vaccination	-11.3587
▁arrivé	-11.3587
▁advocate	-11.3591
▁croyons	-11.3593
▁judge	-11.3593
ries	-11.36
▁l’Assemblée	-11.36
▁controlled	-11.3601
▁proches	-11.3604
▁confrontée	-11.3604
▁rules,	-11.3606
▁Londres	-11.3608
▁l'occurrence	-11.3608
▁respectant	-11.361
▁sad	-11.361
▁sphere	-11.361
cre	-11.361
▁except	-11.3614
▁railways	-11.3614
▁thousand	-11.3616
▁l'instauration	-11.3617
▁5.	-11.3622
▁[	-11.3624
▁Deux	-11.3625
▁fit	-11.3628
▁lieux	-11.363
▁resistance	-11.3631
▁aérienne	-11.3631
▁80%	-11.3631
ens	-11.3631
▁horizontal	-11.3631
▁peace,	-11.3632
▁achievements	-11.3637
▁ra	-11.3637
▁airports	-11.364
▁integrate	-11.3643
▁approaches	-11.3645
▁faim	-11.3646
▁ouverture	-11.3648
▁proven	-11.3649
▁advanced	-11.3652
▁biodiversité	-11.3652
▁either.	-11.3656
▁values.	-11.3658
▁l’intégration	-11.3661
ateurs	-11.3661
▁l’intérêt	-11.3661
outermost	-11.3661
▁m'en	-11.3662
▁Watson	-11.3669
▁condamnation	-11.367
ud	-11.367
▁ferai	-11.3672
▁voterons	-11.3672
▁representing	-11.3675
▁énergétique,	-11.3676
▁l’éducation	-11.3676
▁investors	-11.3677
▁murder	-11.3679
▁Burma	-11.3683
▁states.	-11.3685
▁règne	-11.3688
▁contraignant	-11.3691
▁dépendent	-11.3694
▁réussir	-11.3695
▁failing	-11.3697
▁j'avais	-11.3699
▁Iraqi	-11.37
▁d'émission	-11.3704
▁envisaged	-11.3706
▁rares	-11.3706
▁ferait	-11.3707
▁Affaire	-11.3707
▁invitation	-11.3708
▁travaillons	-11.3708
▁ratify	-11.3709
▁priority.	-11.3714
▁losing	-11.3715
▁exchanges	-11.3718
▁effectuer	-11.3719
▁individus	-11.372
▁30%	-11.3723
▁woman	-11.3723
▁anniversaire	-11.3724
▁oblige	-11.3729
▁Africa,	-11.373
▁crédible	-11.3733
▁aériens	-11.3734
▁decisions.	-11.3737
▁ethnique	-11.3742
▁imported	-11.3742
▁adhérer	-11.3745
▁birth	-11.3753
▁d'entendre	-11.3753
▁trial	-11.376
▁Personne	-11.3761
▁objectif.	-11.3762
▁commend	-11.3765
▁regularly	-11.3766
▁russes	-11.3773
▁appointment	-11.3774
▁décision.	-11.3779
▁fermer	-11.3779
led	-11.3782
▁Tribunal	-11.3784
▁participating	-11.3784
▁universities	-11.3784
▁d'Amérique	-11.3784
▁37	-11.3785
▁entrée	-11.3787
▁réformer	-11.3788
▁observed	-11.3791
▁Tunisie	-11.3793
▁outset	-11.3794
r.	-11.3798
▁occidentaux	-11.3801
▁étudier	-11.3803
▁solved	-11.3803
fe	-11.3804
ard	-11.3806
▁banned	-11.3807
▁Sudan	-11.3808
▁assessments	-11.381
▁bovine	-11.3812
▁terrorists	-11.3817
▁digne	-11.3819
▁inhabitants	-11.3823
▁Outre	-11.3823
▁Women	-11.3823
▁founded	-11.3832
▁recherche.	-11.3835
▁révolution	-11.3837
▁chemicals	-11.3843
▁Tunisia	-11.3845
▁Wednesday	-11.3846
▁soulève	-11.3846
▁émis	-11.3853
▁relations.	-11.3854
spir	-11.3855
▁65	-11.3858
▁safeguarding	-11.3858
▁gained	-11.3862
▁error	-11.3865
▁foundation	-11.3866
▁basis,	-11.387
▁assurément	-11.3872
▁absurd	-11.3872
▁south	-11.3878
▁eventually	-11.3878
▁d'efficacité	-11.3878
▁favorablement	-11.3878
▁infringement	-11.388
▁implemented.	-11.388
▁probable	-11.3882
▁design	-11.3884
▁l'étiquetage	-11.3885
▁résulte	-11.3885
▁violences	-11.3886
▁exposé	-11.389
ob	-11.389
▁covering	-11.3894
▁négatives	-11.3895
dit	-11.3895
▁considérés	-11.3897
▁Democratic	-11.3898
▁principle.	-11.3899
▁marqué	-11.39
▁d'eau	-11.39
▁flows	-11.3908
▁commentaire	-11.3911
gé	-11.3914
▁stages	-11.3916
▁tough	-11.3921
▁d'imposer	-11.3924
▁inondations	-11.3924
ak	-11.3924
▁s'exprimer	-11.3924
▁définitif	-11.3925
▁Ar	-11.3925
▁providers	-11.3928
▁Community.	-11.3928
▁prioritaires	-11.3935
▁hundred	-11.3935
▁prochainement	-11.3936
▁plafond	-11.3938
▁40%	-11.394
▁Lebanon	-11.3947
ical	-11.3949
▁succès.	-11.395
▁nucléaire.	-11.3951
▁pouvons-nous	-11.3951
▁mistakes	-11.3951
▁pretext	-11.3955
▁eux.	-11.3956
▁Certaines	-11.3956
dis	-11.3956
▁Brazil	-11.3963
fin	-11.3964
▁autrichienne	-11.3964
▁alimentaire.	-11.3968
▁partisans	-11.397
ly.	-11.3975
▁arrêter	-11.3977
▁touchées	-11.3977
▁barrières	-11.3978
▁reductions	-11.3979
▁hélas	-11.3979
▁tolerance	-11.3979
▁shift	-11.3986
▁publics.	-11.3986
gue	-11.399
▁courte	-11.3993
▁Malte	-11.3994
▁certitude	-11.3995
▁immigrés	-11.3995
▁établies	-11.3997
▁surface	-11.3998
▁popular	-11.4001
▁mineurs	-11.4001
▁prends	-11.4002
▁Similarly	-11.4003
▁posées	-11.4009
▁passée	-11.4011
▁part-session	-11.4016
▁incorporate	-11.4016
▁J'appelle	-11.4018
▁l'espère	-11.4019
▁G8	-11.4019
▁Balkans.	-11.4021
▁chrétiens	-11.4023
▁Brésil	-11.4026
▁mandatory	-11.4026
▁approfondi	-11.4028
▁Women's	-11.4028
▁crime,	-11.4032
▁executive	-11.4034
▁continuation	-11.4035
▁600	-11.4036
▁marked	-11.4036
▁n’avons	-11.4037
▁concertation	-11.4037
▁action,	-11.4039
▁Tant	-11.4042
▁ECHO	-11.4043
▁communication.	-11.4043
▁d'actions	-11.4044
▁approuvée	-11.4045
▁constitué	-11.4045
R	-11.4046
▁considèrent	-11.4049
▁d'importance	-11.4051
▁suffisantes	-11.4051
▁Citizens'	-11.4052
▁transparence.	-11.4053
▁d’en	-11.4054
▁vigueur.	-11.4056
▁funds,	-11.4057
▁constante	-11.4058
▁comparaison	-11.4058
▁l’idée	-11.4058
▁ch	-11.406
▁incendies	-11.4062
▁decline	-11.4062
▁physique	-11.4064
▁rely	-11.4064
▁particuliers	-11.4064
▁stringent	-11.4066
▁stockage	-11.4067
▁fires	-11.4068
▁conjointement	-11.4069
European	-11.4072
/EC	-11.4072
▁judicieux	-11.4074
▁bel	-11.4075
▁procedures.	-11.4077
▁approuve	-11.408
▁fails	-11.408
▁volet	-11.4082
▁eau	-11.4088
ization	-11.4088
▁l'espoir	-11.409
▁Ro	-11.4091
▁sex	-11.4092
▁prouver	-11.4095
wi	-11.4096
▁Sarkozy	-11.4098
▁peace.	-11.4098
▁modifiant	-11.4098
▁d'évaluer	-11.4098
▁Président.	-11.41
▁suscité	-11.41
▁d'accepter	-11.4106
▁freight	-11.4106
▁dépasse	-11.4109
▁effect.	-11.411
▁mentionne	-11.4111
▁jusqu'au	-11.4113
▁Ka	-11.4113
▁délégations	-11.4117
▁chargée	-11.4117
▁organisations.	-11.412
▁négative	-11.4123
▁vol	-11.4129
▁charbon	-11.413
▁supervisory	-11.413
▁préférable	-11.413
▁attach	-11.4134
▁préservation	-11.4138
▁longtemps.	-11.4139
▁exprimés	-11.4141
▁indicateurs	-11.4146
▁notification	-11.4146
▁follows	-11.4147
▁sit	-11.4147
▁poursuit	-11.4148
▁ami	-11.4148
▁appeler	-11.4149
▁richesse	-11.4149
▁voulez	-11.4154
▁explicitement	-11.4156
▁Genève	-11.4156
▁Penda	-11.4159
▁établit	-11.4159
▁hour	-11.416
▁Hence	-11.4163
T	-11.4165
▁financiers.	-11.4166
▁acknowledged	-11.4169
▁innocent	-11.4169
▁l'issue	-11.4171
▁containing	-11.418
▁anniversary	-11.4186
▁resolving	-11.4186
▁Reform	-11.4191
▁chemins	-11.4192
▁BEI	-11.4194
▁fallu	-11.4195
▁inviter	-11.4197
▁older	-11.42
▁victoire	-11.4202
ction	-11.4204
▁abuses	-11.4206
▁president	-11.4206
▁complexité	-11.4206
▁respecté	-11.4207
▁rechercher	-11.4207
▁échéant	-11.421
▁accepting	-11.4211
▁péril	-11.4211
▁fears	-11.4212
▁bancaire	-11.4213
▁actifs	-11.4215
▁U	-11.4216
▁stakeholders	-11.4216
▁étapes	-11.4217
▁PHARE	-11.4218
/CE	-11.422
▁OSCE	-11.4226
▁registration	-11.4226
▁consistency	-11.4226
▁pursuing	-11.4226
▁soin	-11.4226
▁Code	-11.4227
▁Community's	-11.4229
▁intervenants	-11.423
▁contenues	-11.4233
▁concern.	-11.4235
▁entreprendre	-11.4236
▁agi	-11.424
▁taxpayers	-11.4241
▁universités	-11.4242
▁objectifs.	-11.4242
▁réconciliation	-11.4242
▁prétend	-11.4242
▁l’accès	-11.4243
▁l'élimination	-11.4243
▁experiences	-11.4243
▁Ms	-11.4245
▁liked	-11.425
▁objet	-11.425
▁Chine.	-11.4251
▁Rien	-11.4251
▁sincere	-11.4254
▁demi	-11.4254
▁d’adhésion	-11.4259
▁Présidente	-11.4264
▁Liban	-11.4267
▁assets	-11.4271
▁rubrique	-11.4274
▁wages	-11.4275
▁signer	-11.4278
▁avancé	-11.428
ize	-11.4281
▁albeit	-11.4283
▁exigence	-11.4285
bil	-11.4287
▁signs	-11.4288
▁totalité	-11.4289
▁Tibet	-11.4289
▁piliers	-11.429
▁suggests	-11.4291
▁présent.	-11.4292
▁clients	-11.4293
▁égalité	-11.4294
▁ca	-11.4294
▁personnelle	-11.4296
▁qu'est	-11.4296
▁do.	-11.4297
form	-11.4298
▁movements	-11.4298
ite	-11.4298
▁EIB	-11.4299
▁Sahara	-11.4299
▁black	-11.4299
▁page	-11.4301
▁organic	-11.4303
▁Mo	-11.4303
▁appelons	-11.4303
▁chain	-11.4308
▁evaluate	-11.4311
ga	-11.432
▁handicap	-11.4321
▁l'être	-11.4327
▁chômeurs	-11.4328
▁grandement	-11.433
▁gravité	-11.434
▁l'ampleur	-11.434
▁Chairman	-11.434
▁l'assistance	-11.4341
▁visited	-11.4345
▁accounting	-11.4346
▁lorsqu’il	-11.4348
▁L'accord	-11.4349
▁compromise.	-11.435
▁n’en	-11.4351
▁invited	-11.4358
lle	-11.436
▁stricte	-11.4365
▁Syria	-11.4367
▁reporting	-11.4367
▁week.	-11.4367
▁danois	-11.4368
▁arrangement	-11.4373
▁globalement	-11.4373
▁religieuses	-11.4374
▁l'Autriche	-11.4374
▁outlined	-11.4374
▁Romanian	-11.4379
▁entamé	-11.4381
▁complémentaire	-11.4384
▁innovations	-11.4385
/02	-11.4389
▁ignorer	-11.4391
▁s'attaquer	-11.4394
▁imperative	-11.4397
▁d'experts	-11.4397
▁card	-11.4397
▁vendredi	-11.4398
▁appels	-11.4399
▁priorities.	-11.4403
▁Syrie	-11.4405
▁apportée	-11.4407
▁farm	-11.4408
▁sectors.	-11.4408
▁particulier.	-11.4409
▁Liberals	-11.4409
▁functions	-11.441
▁Could	-11.4414
▁expressément	-11.4414
▁naissance	-11.4414
▁nourriture	-11.4414
▁looks	-11.4414
▁answered	-11.4414
▁actors	-11.4415
▁décisionnel	-11.4416
▁donnera	-11.4419
▁survie	-11.442
▁morale	-11.442
cé	-11.4421
▁encouragement	-11.4422
▁furthermore	-11.4422
▁d'exécution	-11.4423
▁point:	-11.4429
▁delegations	-11.443
▁fifteen	-11.443
▁variety	-11.443
▁explications	-11.443
▁territories	-11.4431
▁juridiquement	-11.4432
▁collapse	-11.4433
▁employed	-11.4433
▁this:	-11.4435
▁Left	-11.4437
▁réjouissons	-11.4441
▁extrême	-11.4442
▁regimes	-11.4443
▁Wallström	-11.4447
▁female	-11.4447
▁meantime	-11.4447
▁impliquées	-11.4448
▁Decision	-11.4449
▁(Rule	-11.4455
▁l'extension	-11.4456
▁Libya	-11.4457
▁class	-11.4457
▁amendements.	-11.4462
▁proactive	-11.4463
▁denied	-11.4463
▁législature	-11.4465
▁choices	-11.4466
▁fictifs	-11.4468
▁decent	-11.4471
▁saluons	-11.4471
▁exhaustive	-11.4471
▁L'un	-11.4475
▁invité	-11.4479
▁finish	-11.4479
▁douze	-11.448
▁win	-11.4484
▁classe	-11.4485
▁présentant	-11.4486
▁criterion	-11.4488
▁features	-11.4492
▁incentive	-11.4499
▁issus	-11.4502
▁immunity	-11.4505
▁Reding	-11.4507
ze	-11.4509
▁décisive	-11.451
▁concludes	-11.4513
▁dictature	-11.4513
▁D'autres	-11.4513
▁alliance	-11.4515
▁d'assurance	-11.4515
▁falling	-11.4516
▁convictions	-11.4517
▁argue	-11.4519
▁Li	-11.452
▁importantes.	-11.4521
▁disparition	-11.4521
▁efforts.	-11.4521
▁s'a	-11.4522
▁cope	-11.4523
▁44	-11.4528
a,	-11.4531
lt	-11.4536
▁pharmaceutical	-11.4538
▁ambitieuse	-11.4546
▁Celle-ci	-11.4546
▁third-country	-11.4546
▁voudrait	-11.4546
▁directs	-11.455
▁provoqué	-11.4551
▁mercredi	-11.4554
▁étendre	-11.4555
▁profitable	-11.4555
▁compagnie	-11.4556
▁unilateral	-11.4558
▁traduire	-11.4563
ang	-11.4566
▁occur	-11.4566
▁particulières	-11.4567
▁blind	-11.4568
tal	-11.457
▁sympathy	-11.4571
▁oublié	-11.4571
▁consciente	-11.4571
▁saurait	-11.4571
▁(CE)	-11.4572
▁Ni	-11.4572
▁l'en	-11.4572
▁fifth	-11.4572
▁partners.	-11.4575
▁compromises	-11.4575
ire	-11.4577
▁borders,	-11.4577
▁Belarus.	-11.4579
▁usually	-11.4582
▁faux	-11.4584
▁sentir	-11.4586
▁group.	-11.4589
vent	-11.4589
▁directive-cadre	-11.459
▁ceiling	-11.4591
▁explanations	-11.4593
▁gradual	-11.4593
▁tragique	-11.4594
▁Greens	-11.4594
▁1997.	-11.4594
▁endeavour	-11.4596
▁refugee	-11.4596
▁biologique	-11.4598
▁partiellement	-11.4598
line	-11.4599
▁désire	-11.46
non-governmental	-11.4605
▁Suisse	-11.4605
▁registre	-11.4605
▁complexes	-11.4607
▁moments	-11.4609
▁Vi	-11.461
rou	-11.4613
▁autonomy	-11.4613
▁unit	-11.4614
▁coopération.	-11.4617
▁backing	-11.4621
▁c’est-à-dire	-11.4621
▁concernés.	-11.4621
▁learned	-11.4622
▁mondiaux	-11.4623
▁mentioned.	-11.4626
▁crops	-11.4627
▁regarder	-11.4627
ish	-11.4627
▁adoptant	-11.4633
bre	-11.4636
▁Millennium	-11.4638
▁vivons	-11.4638
▁dead	-11.464
▁closing	-11.464
one	-11.4641
▁n'aurait	-11.4647
isant	-11.4649
▁limitations	-11.4649
▁désaccord	-11.465
▁conservateurs	-11.4653
▁Objet:	-11.4653
▁1%	-11.4654
▁l'urgence	-11.4655
▁l'analyse	-11.4656
▁detention	-11.4656
▁rémunération	-11.4658
▁dérogation	-11.4658
▁fixed	-11.466
15	-11.4661
▁apportées	-11.4662
▁Lomé	-11.4664
▁familiale	-11.4669
▁terroriste	-11.467
▁prouvé	-11.4674
▁fate	-11.4675
▁39	-11.4678
▁objective.	-11.468
ial	-11.4682
▁monétaire,	-11.4686
▁Bruxelles.	-11.4687
▁notes	-11.4687
▁biocarburants	-11.4689
▁routier	-11.4694
▁régionale,	-11.4694
▁dur	-11.4696
▁saine	-11.4698
▁appui	-11.4701
▁Other	-11.4702
▁match	-11.4703
▁attractive	-11.4705
▁réglementer	-11.4706
▁mémoire	-11.4706
▁d'échange	-11.4706
▁prompt	-11.4707
▁procédé	-11.471
▁quantités	-11.471
▁placer	-11.4711
▁l’une	-11.4718
▁suscite	-11.472
▁endorsed	-11.4723
▁dates	-11.4725
▁recognises	-11.4726
▁servent	-11.4726
▁elections,	-11.4727
▁Maintenant	-11.4731
▁recyclage	-11.4731
▁Pack	-11.4731
▁Pro	-11.4732
▁badly	-11.4733
▁corresponding	-11.4733
port	-11.4735
▁character	-11.4735
▁Jarzembowski	-11.474
▁d'exprimer	-11.474
▁satisfaits	-11.4741
▁coal	-11.4741
▁consistently	-11.4742
▁wind	-11.4742
▁faisait	-11.4743
▁released	-11.4748
▁Scotland	-11.4748
▁false	-11.4748
▁déficits	-11.4752
wa	-11.4753
▁financière,	-11.4754
▁disastrous	-11.4757
▁fossé	-11.4757
▁bruit	-11.4757
▁substantially	-11.4758
▁développé	-11.4759
▁disposé	-11.4762
▁enceinte	-11.4766
▁hopefully	-11.4767
▁died	-11.4769
▁harmonise	-11.4771
▁rang	-11.4773
▁d’énergie	-11.4774
▁s'impose	-11.4774
▁virtually	-11.4775
▁renewed	-11.4775
▁adequately	-11.4776
▁appointed	-11.4776
rions	-11.4776
▁l'aspect	-11.4777
▁indirect	-11.4777
▁corriger	-11.4778
▁besoin.	-11.4779
▁l’homme.	-11.4781
▁helps	-11.4782
▁disait	-11.4783
▁St	-11.4787
▁traduit	-11.4787
▁entering	-11.4789
▁storage	-11.4791
▁amélioré	-11.4792
▁models	-11.4793
▁diplomatique	-11.4794
▁power.	-11.4797
▁reform.	-11.4801
tor	-11.4801
▁potentiels	-11.4801
▁fabricants	-11.4801
▁animale	-11.4805
▁historiques	-11.4809
▁Iranian	-11.4811
▁China.	-11.4812
▁250	-11.4812
ow	-11.4813
▁témoigne	-11.4814
▁Above	-11.4816
▁productivité	-11.4817
▁l'effet	-11.4818
▁acted	-11.4818
▁contrat	-11.4819
▁ageing	-11.4824
▁d'accords	-11.4825
▁game	-11.4829
▁Corbett	-11.4834
▁équipe	-11.4835
▁Naturally	-11.4842
▁chercheurs	-11.4843
▁fondamentaux,	-11.4843
▁vies	-11.4844
▁vide	-11.4856
▁born	-11.4856
▁productivity	-11.486
▁nommé	-11.486
▁answer.	-11.4867
▁examining	-11.4868
▁technologiques	-11.487
▁arrêt	-11.4871
ide	-11.4872
▁Pa	-11.4873
▁vous-même	-11.4873
▁focusing	-11.4876
▁l'agenda	-11.4877
▁âge	-11.4878
tri	-11.4879
-on	-11.4881
▁avance	-11.4885
▁noter	-11.4893
n-discrimination	-11.4894
▁revolution	-11.4894
▁continuerons	-11.4896
▁comités	-11.4897
ub	-11.4897
▁sérieuses	-11.4902
▁l’immigration	-11.4903
▁end.	-11.4908
▁élevée	-11.4909
▁précision	-11.491
▁Moldavie	-11.4911
▁l’UE,	-11.4911
▁sole	-11.4912
▁(EC)	-11.4912
▁effectively.	-11.4913
▁national.	-11.4913
▁heads	-11.4916
▁manoeuvre	-11.492
▁privacy	-11.492
▁scientists	-11.4924
▁lundi	-11.4928
▁souvenir	-11.4928
▁interprétation	-11.4929
▁lives.	-11.4933
▁apparently	-11.4933
ably	-11.4937
▁Beaucoup	-11.4937
▁contenant	-11.4937
▁accru	-11.4938
▁statistical	-11.4942
▁mental	-11.4943
▁plan.	-11.4945
▁Vu	-11.4946
▁modifiée	-11.4949
Votre	-11.4951
▁airport	-11.4952
▁names	-11.4953
▁disposée	-11.4954
▁damaging	-11.4955
'après	-11.4955
▁shortly	-11.4955
▁associés	-11.4957
▁logement	-11.4958
▁électroniques	-11.4962
▁Jusqu'	-11.4963
▁échec	-11.4966
▁révélé	-11.497
▁mobiliser	-11.497
▁empêche	-11.4971
▁l’efficacité	-11.4972
▁supranational	-11.4974
):	-11.4975
▁closure	-11.4975
▁votes.	-11.4978
04	-11.4978
▁terms.	-11.4978
▁minor	-11.4979
▁initially	-11.4983
▁L'amendement	-11.4983
▁emerged	-11.4983
▁catch	-11.4984
▁Tourism	-11.4984
▁inquiry	-11.4989
▁technologies.	-11.4989
▁devoted	-11.4992
▁socio-economic	-11.4998
▁date.	-11.4998
▁d'assistance	-11.4999
▁safeguards	-11.5
▁strictement	-11.5002
▁attentats	-11.5002
▁bloc	-11.5002
▁stimulate	-11.5003
▁résolus	-11.5003
▁0,	-11.5004
emb	-11.5004
▁Slovenia	-11.5005
▁vues	-11.5009
▁stick	-11.5011
▁intégrante	-11.5012
▁colleagues,	-11.5014
▁l’Europe,	-11.5014
▁examinons	-11.5015
▁completion	-11.5016
▁disposés	-11.5022
▁guise	-11.5024
▁d'intervenir	-11.5024
▁suspect	-11.5025
▁criminals	-11.5026
▁Euratom	-11.5027
▁Ko	-11.5037
▁locale	-11.5046
▁ratifier	-11.5054
▁transparency.	-11.5055
▁disparités	-11.5056
▁verte	-11.5056
▁explication	-11.5059
▁France.	-11.5059
▁résumé	-11.5059
ications	-11.506
▁roads	-11.506
▁explique	-11.5062
▁handling	-11.5063
▁l'énergie.	-11.5064
car	-11.5066
▁remis	-11.5067
▁programming	-11.5068
▁far-reaching	-11.5068
▁l'âge	-11.5069
▁dollar	-11.5071
▁signatures	-11.5076
nce	-11.5076
▁Procedure.	-11.5076
▁d'accueil	-11.5077
ran	-11.5081
▁other.	-11.5081
▁Face	-11.5083
▁leaves	-11.5083
▁(A5-	-11.5083
▁subir	-11.5085
▁l'effort	-11.5086
▁framework.	-11.5086
ux	-11.5087
▁soldats	-11.5088
▁écouter	-11.509
▁government.	-11.5092
▁décrit	-11.5092
▁parole.	-11.5094
▁d’origine	-11.5094
▁unie	-11.5095
▁numérique	-11.5095
▁classes	-11.5096
▁Chechnya	-11.5096
▁l'air	-11.5096
▁dream	-11.5097
nu	-11.5099
▁exprime	-11.5102
▁Taiwan	-11.5103
▁identité	-11.5104
▁impératif	-11.5106
▁unanime	-11.511
▁l’é	-11.5112
▁Rights.	-11.5115
▁available.	-11.5115
▁fiables	-11.5116
▁contradictions	-11.5117
▁civile.	-11.5118
▁exploiter	-11.5118
▁Libye	-11.5121
▁straight	-11.5121
▁donnant	-11.5121
▁réalisées	-11.5122
▁palestinienne	-11.5123
▁serai	-11.5123
▁l'autre.	-11.5124
▁dramatique	-11.5129
▁personnelles	-11.513
▁pertinentes	-11.513
▁Vitorino	-11.5139
▁n'étaient	-11.5139
▁TACIS	-11.5139
▁community.	-11.514
▁joindre	-11.514
▁inadmissible	-11.5141
▁légal	-11.5144
▁formula	-11.5145
▁externes	-11.5146
▁further.	-11.5146
▁120	-11.5147
▁aspects.	-11.5147
▁inscrit	-11.5148
▁prévisions	-11.5148
▁Erasmus	-11.5149
▁tackled	-11.5151
▁l’Union.	-11.5152
▁consolidate	-11.5152
▁rigorous	-11.5153
▁MEP	-11.5155
▁portugais	-11.5155
▁title	-11.5156
▁sell	-11.5165
▁sévères	-11.5165
▁relief	-11.5165
▁l’intention	-11.5165
▁Europe'	-11.5169
▁suspens	-11.517
▁social.	-11.5171
▁turque	-11.5171
▁humaine.	-11.5172
od	-11.5172
▁Switzerland	-11.5174
tan	-11.5176
▁l’autre	-11.5177
▁équipements	-11.5178
▁d’Europe	-11.5178
▁régions.	-11.518
▁agriculture.	-11.5184
▁impôts	-11.5186
▁frontières.	-11.5186
▁Whilst	-11.5192
ég	-11.5192
▁USD	-11.5193
▁paragraphs	-11.5194
▁d'A	-11.5199
pt	-11.5203
▁modernes	-11.5209
▁Directive.	-11.521
▁Aujourd’hui	-11.521
▁Liikanen	-11.521
▁démantèlement	-11.521
▁testing	-11.521
▁142)	-11.521
▁'the	-11.5212
▁document.	-11.5213
▁l'é	-11.5215
▁clandestine	-11.5216
▁incompatible	-11.5219
uff	-11.522
▁responses	-11.5222
▁recommended	-11.5224
▁arrived	-11.5225
▁sous-	-11.5227
▁d'ajustement	-11.5228
▁tourisme,	-11.523
▁décide	-11.5231
▁transnational	-11.5232
▁précieux	-11.5236
▁partenariats	-11.5237
▁repression	-11.5237
▁présentera	-11.5239
▁réelles	-11.5241
▁traditionnelle	-11.5241
▁deficits	-11.5242
▁d'empêcher	-11.5245
▁d'Israël	-11.5246
▁cutting	-11.5246
▁workers'	-11.5246
▁mur	-11.5248
▁détenus	-11.525
▁present.	-11.525
▁routière	-11.5251
fa	-11.5251
▁Aucun	-11.5253
▁alone.	-11.5253
▁struck	-11.5254
▁grecque	-11.5255
▁est-elle	-11.5256
▁condamné	-11.5257
▁évaluations	-11.5258
▁emphasize	-11.526
▁entier.	-11.5261
▁reserves	-11.5262
▁qu'après	-11.5264
▁punishment	-11.5267
▁divide	-11.5267
▁illégal	-11.5271
▁évidente	-11.5273
ecretary-General	-11.5273
▁fabrication	-11.5273
▁regard.	-11.5274
▁inappropriate	-11.5276
▁enables	-11.528
▁autorisés	-11.528
▁l’attention	-11.5281
▁sums	-11.5283
str	-11.5284
▁precautionary	-11.529
▁annuelle	-11.5292
▁promesse	-11.5293
▁accused	-11.5293
▁réunir	-11.5295
▁quitter	-11.5295
▁rapidement.	-11.5296
▁adapter	-11.5299
▁quantitative	-11.5299
▁viabilité	-11.5299
▁équitables	-11.53
▁compare	-11.5301
▁réclame	-11.5303
▁soviétique	-11.5305
▁qualitative	-11.5308
▁Ecofin	-11.5309
▁précaution	-11.5311
ciaux-démocrates	-11.5313
▁adéquates	-11.5315
▁rédiger	-11.5317
▁Oomen-Ruijten	-11.5317
▁présentes	-11.5317
▁cheap	-11.5317
▁requirements.	-11.5318
▁46	-11.5319
oc	-11.5321
ez-vous	-11.5323
▁financements	-11.5324
▁9,	-11.5324
▁organisations,	-11.5325
▁interdire	-11.5326
▁formulé	-11.5328
▁Traité,	-11.533
▁linguistique	-11.533
▁découle	-11.533
▁amendment.	-11.533
▁pluriannuel	-11.5331
▁l'appel	-11.5333
▁vols	-11.5334
▁Liberties	-11.5335
▁desired	-11.5336
▁sanitaires	-11.5339
▁investigate	-11.5339
▁trans	-11.5341
▁liaison	-11.5341
▁établis	-11.5342
▁ouvre	-11.5343
▁servi	-11.5346
▁facto	-11.5347
▁Affairs.	-11.5351
▁l'électricité	-11.5353
▁suivie	-11.5354
▁explicitly	-11.5355
▁state.	-11.5359
▁écrite	-11.5359
mar	-11.5359
▁partnerships	-11.5359
▁individuelle	-11.536
▁décès	-11.5363
’,	-11.5364
▁CIG	-11.5368
▁Annex	-11.537
▁semestre	-11.5371
▁brutal	-11.5374
▁fusion	-11.538
▁Costa	-11.538
▁qua	-11.5381
▁ensured	-11.5388
▁d'animaux	-11.5389
▁fought	-11.5389
▁traitées	-11.539
▁enabled	-11.5398
▁Iraq.	-11.5401
▁Institute	-11.5402
▁m’a	-11.5402
▁d'intérêts	-11.5402
▁touchent	-11.5405
▁prochaine.	-11.5405
lin	-11.5406
▁Mexico	-11.5407
▁vocational	-11.5408
issement	-11.541
▁fundamentally	-11.5411
ave	-11.5414
▁congé	-11.5415
▁cohérent	-11.5416
▁abord	-11.5417
ight	-11.5418
▁fault	-11.5426
▁irregularities	-11.5426
▁exigent	-11.5426
▁recul	-11.5427
▁attitudes	-11.5428
▁dépasser	-11.5435
▁voici	-11.5435
▁middle	-11.5435
▁dommage	-11.5435
▁7.	-11.5435
▁l'ancienne	-11.5435
▁l’ai	-11.5439
▁meets	-11.544
▁voters	-11.5441
â	-11.5443
▁simplified	-11.5445
▁era	-11.545
▁identification	-11.5453
▁observateurs	-11.5457
▁soldiers	-11.5457
▁exempt	-11.5458
▁commission.	-11.5458
▁tape	-11.5461
▁écologiques	-11.5462
▁Special	-11.5462
dre	-11.5464
▁document,	-11.5465
▁paragraphes	-11.5465
▁l’encontre	-11.5471
▁cofinancement	-11.5472
▁agricole.	-11.5473
▁book	-11.5473
▁Sri	-11.5475
▁s’en	-11.5475
▁lourds	-11.5479
▁Naturellement	-11.548
▁sélection	-11.548
▁d'environnement	-11.5481
▁participe	-11.5481
▁service.	-11.5486
▁conflict.	-11.5488
▁prononcé	-11.5489
▁Médiateur	-11.549
▁enshrined	-11.549
-f	-11.5491
▁livres	-11.5492
▁adverse	-11.5496
▁component	-11.5497
▁déterminée	-11.5497
▁Olympic	-11.5499
▁repercussions	-11.5499
▁shipping	-11.5499
▁constat	-11.5506
▁illégaux	-11.5508
▁sensibilisation	-11.5508
▁traitements	-11.5509
tion	-11.5509
▁l'ESB	-11.551
▁Ex	-11.551
▁disadvantaged	-11.5511
/EEC	-11.5511
▁foster	-11.5515
▁croissance,	-11.5518
W	-11.5519
▁industriel	-11.552
▁maximale	-11.5521
▁respected.	-11.5524
▁tomber	-11.5525
▁effective.	-11.5526
▁Berlusconi	-11.5526
▁Slovénie	-11.5526
▁attaque	-11.5529
▁education.	-11.5529
▁things.	-11.553
▁approbation	-11.553
▁Birmanie	-11.5534
▁post-	-11.5535
▁Would	-11.5536
▁Globalisation	-11.5536
▁levels.	-11.5538
ja	-11.5538
/CEE	-11.5539
▁mentionnés	-11.5541
▁wherever	-11.5542
▁soulevées	-11.5552
▁Ba	-11.5553
▁préparé	-11.5556
▁2011.	-11.5556
▁évolutions	-11.5557
▁ventes	-11.5557
▁transeuropéens	-11.556
▁satisfaisante	-11.5562
▁pace	-11.5564
▁delivered	-11.5564
▁créant	-11.5564
▁assuré	-11.5565
▁œuvre.	-11.5567
▁deny	-11.5569
▁sol	-11.5572
▁bataille	-11.5572
▁reports.	-11.5576
▁animaux.	-11.5579
▁actives	-11.5583
▁adapted	-11.559
▁séparation	-11.5591
▁lifelong	-11.5591
▁intelligence	-11.5592
▁devise	-11.5597
▁6.	-11.5599
▁inequalities	-11.56
▁democratisation	-11.56
▁surpris	-11.5604
▁seekers	-11.5605
▁traduction	-11.5608
▁fixation	-11.561
▁résultats.	-11.5612
▁relancer	-11.5614
▁gravement	-11.5616
▁sérieux.	-11.5616
▁w	-11.5617
▁individuels	-11.562
▁représentante	-11.562
▁scrutiny	-11.5621
ice	-11.5621
▁sensiblement	-11.5622
▁49	-11.5622
▁business.	-11.5623
▁considération.	-11.5624
▁efficiently	-11.5625
▁d'organiser	-11.5628
▁prix.	-11.5629
we	-11.5629
▁réalisée	-11.563
▁exposed	-11.5631
▁speculation	-11.5637
▁J'invite	-11.5637
▁persecution	-11.5638
▁order.	-11.5639
▁Mann	-11.5642
▁pensée	-11.5645
▁hémicycle	-11.5647
▁seat	-11.5648
▁research.	-11.5651
▁structurels,	-11.5653
▁unemployment,	-11.5654
▁removal	-11.5656
▁pertinent	-11.5656
▁d’ici	-11.5657
▁É	-11.5659
▁laying	-11.566
▁consult	-11.5662
▁criticise	-11.5662
▁d'efforts	-11.5665
medicinal	-11.5666
▁l'armée	-11.5666
▁l'échec	-11.5666
▁établie	-11.5667
▁detriment	-11.567
▁requête	-11.5675
▁monétaire.	-11.5677
▁infractions	-11.568
▁700	-11.5682
▁Böge	-11.5684
▁communautaires,	-11.5685
▁reprend	-11.569
▁pair	-11.569
▁description	-11.5691
▁strive	-11.5693
▁d'innovation	-11.5694
▁opération	-11.5694
iers	-11.5698
▁d'ore	-11.5698
▁opt	-11.5698
▁remise	-11.5699
▁flights	-11.5699
▁néerlandaise	-11.5699
▁conformer	-11.5702
▁enjeux	-11.5703
▁openly	-11.5703
▁initiated	-11.5705
▁rapides	-11.5706
▁intérieures,	-11.5706
▁s'appliquer	-11.5706
▁assistants	-11.5708
▁attached	-11.5709
▁socially	-11.571
▁d'instaurer	-11.5712
▁pourparlers	-11.5712
▁prévoyant	-11.5712
▁d'exercer	-11.5712
▁l’information	-11.5712
▁ownership	-11.5712
▁profile	-11.5717
▁presidential	-11.5721
▁commises	-11.5722
▁Day	-11.5724
▁lobby	-11.5725
▁tunnel	-11.5726
act	-11.5728
▁permanence	-11.5731
▁regulations.	-11.5734
▁accurate	-11.5736
van	-11.5739
▁Ferrero-Waldner	-11.574
▁preparatory	-11.574
▁won	-11.5741
▁positif.	-11.5742
▁transitoire	-11.5743
▁tourner	-11.5743
▁formulée	-11.5746
▁structurels.	-11.5749
▁Na	-11.5749
▁ideological	-11.575
▁l'OMC.	-11.5752
▁dernière.	-11.5752
▁codes	-11.5753
▁trouble	-11.5753
ger	-11.5758
▁narrow	-11.5759
▁sociaux.	-11.5761
▁generations	-11.5761
▁dangereuse	-11.5762
▁officiellement	-11.5764
son	-11.5764
▁destroyed	-11.5765
▁exceptionnelle	-11.5767
▁Autrement	-11.577
▁transferred	-11.577
▁résolument	-11.5772
▁garanti	-11.5772
▁East.	-11.5773
▁notation	-11.5776
▁tri	-11.5777
▁Federal	-11.5778
▁Vienne	-11.5778
▁inclusive	-11.5778
▁réduite	-11.5782
▁papier	-11.5782
tique	-11.5785
▁dispositif	-11.5786
▁twice	-11.5787
▁Communautés	-11.5789
▁constituera	-11.5789
▁cast	-11.5789
▁définitivement	-11.5794
▁bananes	-11.5795
▁Pas	-11.5797
▁His	-11.5798
▁conviendrait	-11.5806
▁exemptions	-11.581
▁rid	-11.581
▁convey	-11.5812
acc	-11.5813
systématiquement	-11.5813
ding	-11.5814
▁'no'	-11.5818
▁assured	-11.5819
▁Ireland.	-11.582
▁saving	-11.5821
▁logic	-11.5824
▁Jacques	-11.5825
▁multiannual	-11.5825
▁bureaux	-11.5825
▁parviendrons	-11.5826
▁dependence	-11.5826
▁Européens,	-11.5827
▁bureaucratique	-11.5829
▁africains	-11.5829
DA)	-11.583
des	-11.583
▁Youth	-11.5831
▁pressing	-11.5832
▁3%	-11.5834
▁Johannesburg	-11.5834
▁déposer	-11.5836
▁inevitably	-11.5844
▁linguistic	-11.5844
▁pouvaient	-11.5844
▁facility	-11.5844
▁Quatrièmement	-11.5845
▁publier	-11.5848
▁dénoncer	-11.5849
▁autorisé	-11.5849
▁1996.	-11.5852
▁disponibilité	-11.5853
▁l'expression	-11.5853
▁Everyone	-11.5854
▁manifestation	-11.5854
cent	-11.5854
▁democratically	-11.5856
▁préférence	-11.5857
investissement	-11.5857
▁jeux	-11.5858
▁immigration.	-11.586
placing	-11.5862
▁d’ailleurs	-11.5863
▁patience	-11.5863
▁Procedure,	-11.5865
▁cellules	-11.5867
▁alarming	-11.5867
▁divisions	-11.5868
▁surplus	-11.5871
▁role.	-11.5873
▁forestry	-11.5873
▁quick	-11.5873
▁reproductive	-11.5873
▁affronter	-11.5876
▁maison	-11.5878
▁enterprise	-11.5879
▁solidarité.	-11.588
▁potentially	-11.588
▁d’améliorer	-11.5882
▁modest	-11.5885
▁explicite	-11.5887
▁ferroviaires	-11.5887
▁constraints	-11.5888
▁sexe	-11.589
▁enterprises.	-11.5891
▁apparemment	-11.5892
▁feature	-11.5894
▁differ	-11.5895
▁démarches	-11.5897
▁stricter	-11.5898
▁precedent	-11.5901
▁year's	-11.5902
▁tu	-11.5903
▁législation.	-11.5905
▁ministère	-11.5905
▁opérationnel	-11.5906
▁pénales	-11.5907
▁mette	-11.5907
▁avancés	-11.591
▁fallen	-11.5914
▁41	-11.5914
▁matters,	-11.5915
▁signes	-11.5916
▁effectués	-11.5916
▁internet	-11.5918
▁j'étais	-11.592
▁customers	-11.5921
▁unemployment.	-11.5922
▁terror	-11.5923
▁investissement	-11.5924
▁cod	-11.5925
▁training,	-11.593
▁l'opportunité	-11.593
iques	-11.5933
▁ended	-11.5933
▁l’ont	-11.5937
▁wished	-11.5939
▁hunger	-11.5939
▁Barón	-11.5939
z-vous	-11.594
▁sociales.	-11.5942
▁directes	-11.5948
▁abortion	-11.5949
%	-11.595
▁Deuxième	-11.595
▁pourrais	-11.5956
▁enfant	-11.5956
▁vraie	-11.5957
▁coins	-11.5963
▁subsidiarité.	-11.5963
▁emissions.	-11.5965
▁appalling	-11.5968
▁parliamentarian	-11.597
▁station	-11.5972
▁foodstuffs	-11.5973
gen	-11.5973
▁praise	-11.5974
▁Brussels.	-11.5974
▁légiférer	-11.5978
▁calcul	-11.5981
▁quickly.	-11.5982
▁prices.	-11.5984
▁l'aviation	-11.5987
▁remboursement	-11.5987
▁originally	-11.5989
▁éducation	-11.5989
▁marks	-11.5996
abilité	-11.5997
▁tableau	-11.5998
▁remplacement	-11.5999
▁reposer	-11.5999
▁confirmation	-11.6001
▁déc	-11.6005
▁monopoly	-11.6007
▁Harbour	-11.6007
▁draftsman	-11.6007
▁conjointe	-11.6011
▁immigration,	-11.6012
▁posts	-11.6015
▁intéressante	-11.6015
▁chair	-11.6016
▁s'inscrit	-11.6016
▁puissances	-11.6017
▁western	-11.6017
▁AIDS	-11.6017
▁apprendre	-11.6018
▁qu’on	-11.6019
▁découlant	-11.6026
▁définit	-11.6026
▁wholeheartedly	-11.6027
▁faillite	-11.6027
▁félicitons	-11.6029
▁location	-11.6029
▁Su	-11.6031
▁north	-11.6036
▁characterised	-11.6037
▁arabe	-11.6037
▁Fourthly	-11.6039
euse	-11.6039
io	-11.604
▁loin.	-11.6043
▁na	-11.6044
▁absurde	-11.6045
▁XXIe	-11.6045
▁discriminatoire	-11.6046
▁pages	-11.6047
▁warrant	-11.605
▁47	-11.605
▁generate	-11.6051
▁film	-11.6052
▁Tchétchénie	-11.6052
▁Me	-11.6053
▁Celui-ci	-11.6055
▁desquels	-11.6055
cour	-11.6055
▁rendue	-11.6062
▁capital.	-11.6064
▁constituency	-11.6065
▁PESC	-11.6065
▁cohesion.	-11.6065
▁internationally	-11.6067
▁rating	-11.6068
▁responsabilité.	-11.6071
▁appreciation	-11.6074
▁volontiers	-11.6074
▁circumstances.	-11.6077
▁incidence	-11.6078
▁errors	-11.6079
▁réduits	-11.608
▁serves	-11.6081
▁impatience	-11.6084
▁solides	-11.6084
▁countries'	-11.6085
▁combine	-11.6091
▁whatsoever	-11.6091
ious	-11.6094
▁Actuellement	-11.6094
▁own-initiative	-11.6094
▁soi-disant	-11.6094
▁systematically	-11.6094
int	-11.6097
▁Lamy	-11.6097
▁assessing	-11.6097
▁naturelle	-11.6102
ward	-11.6104
▁chaos	-11.6108
▁transferts	-11.6109
▁perspective.	-11.6113
▁John	-11.6113
▁alloués	-11.6113
▁xénophobie	-11.6113
▁l'exception	-11.6114
▁décision-cadre	-11.6114
▁est-ce	-11.6115
▁ravie	-11.6117
▁reconnais	-11.6118
by	-11.6122
▁d'inclure	-11.6123
▁Latvia	-11.6125
▁durables	-11.6129
▁consulter	-11.6129
▁quo	-11.6132
▁irrespective	-11.6133
▁secrétariat	-11.6133
▁remained	-11.6135
▁findings	-11.6135
▁négocié	-11.6135
▁OGM	-11.6137
ren	-11.6138
▁practically	-11.6139
▁stating	-11.6143
▁60%	-11.6143
▁large-scale	-11.6143
▁égal	-11.6144
▁optique	-11.6144
▁isolation	-11.6144
▁appuyer	-11.6146
▁motif	-11.6147
▁dérogations	-11.6149
J	-11.6149
▁africaine	-11.615
▁l'arrêt	-11.6151
▁vit	-11.6151
▁high-quality	-11.6153
tin	-11.6153
▁jouets	-11.6153
▁vieux	-11.6154
▁broadly	-11.6155
▁Algeria	-11.6156
▁researchers	-11.6157
▁islands	-11.6159
▁Bangemann	-11.6162
▁génocide	-11.6162
ped	-11.6163
s)	-11.6164
▁biofuels	-11.6164
▁concilier	-11.6165
▁Di	-11.6167
▁telling	-11.6167
▁réactions	-11.6171
▁hazardous	-11.6172
▁tendances	-11.6173
▁espoirs	-11.6176
▁crainte	-11.6177
▁deviendra	-11.6178
▁nul	-11.618
▁presents	-11.6181
▁deciding	-11.6182
▁déterminant	-11.6183
▁verts	-11.6186
bu	-11.6187
▁donors	-11.6188
▁adjustment	-11.6189
▁r	-11.619
▁lists	-11.6191
▁vieillissement	-11.6192
▁L’Europe	-11.6192
▁partagent	-11.6193
▁recorded	-11.6195
▁triste	-11.6199
▁symbol	-11.62
▁PNR	-11.6201
▁réflexions	-11.6205
▁thoroughly	-11.6208
▁bénéfique	-11.621
▁automatically	-11.6211
▁stopped	-11.6212
▁bus	-11.6212
▁sentiments	-11.6214
▁voie.	-11.6217
▁toxic	-11.6221
▁Vienna	-11.6221
▁professionals	-11.6226
▁estiment	-11.623
▁tard.	-11.6231
▁d'attention	-11.6232
za	-11.6233
▁majeures	-11.6233
▁criticised	-11.6234
▁800	-11.6235
ssant	-11.6235
issant	-11.6237
▁mother	-11.6238
▁heureusement	-11.6239
▁qu'aujourd'hui	-11.6241
▁refusal	-11.6244
▁contenus	-11.6244
▁IV	-11.6245
▁st	-11.6249
▁Hague	-11.6251
▁n’ai	-11.6256
▁images	-11.6257
▁Also,	-11.6258
▁inciter	-11.626
▁l'ancien	-11.626
▁requis	-11.626
▁inférieur	-11.626
▁complied	-11.6261
▁ampleur	-11.6261
▁vote:	-11.6262
▁trente	-11.6263
▁impliquer	-11.6266
▁concitoyens.	-11.627
▁d’intérêt	-11.627
▁Rehn	-11.6271
▁survival	-11.6271
▁interference	-11.6271
▁diverse	-11.6272
▁croissance.	-11.6272
▁chômage.	-11.6274
▁attendant	-11.6276
▁administratifs	-11.6282
▁persuade	-11.6286
▁root	-11.6289
ration	-11.629
▁bénéficié	-11.629
▁Erika	-11.6292
▁Amérique	-11.6292
ls	-11.6294
▁demanded	-11.6295
▁douanière	-11.6295
▁requises	-11.6296
▁homes	-11.6298
▁offrent	-11.6298
end	-11.6299
▁xenophobia	-11.63
▁défavorisées	-11.6302
nelle	-11.6306
▁2013.	-11.6309
▁decade	-11.631
▁Internet.	-11.6313
▁computer	-11.6314
▁pillars	-11.6314
▁Black	-11.632
▁pierre	-11.6321
▁travelling	-11.6321
▁monitored	-11.6321
▁amener	-11.6325
▁identifier	-11.6329
▁taken.	-11.6329
▁Socrates	-11.633
▁producer	-11.6332
▁Fund,	-11.6337
▁possèdent	-11.6338
▁organization	-11.634
▁conversion	-11.634
▁Estonia	-11.634
▁caution	-11.6344
lor	-11.6345
▁Third	-11.6348
▁retirement	-11.6348
▁worried	-11.635
▁moratoire	-11.635
▁tuna	-11.635
▁fixées	-11.6356
▁war.	-11.6356
▁happen.	-11.6359
▁channels	-11.6361
▁panel	-11.6362
▁Macédoine	-11.6363
▁persistent	-11.6363
▁vérification	-11.6363
▁Portugal.	-11.6364
▁plénière.	-11.6368
▁Resolution	-11.637
▁guilty	-11.6371
mor	-11.6372
▁méditerranéenne	-11.6376
▁Pen	-11.6377
▁in-depth	-11.638
▁inclut	-11.6381
▁intérimaire	-11.639
▁Sharon	-11.639
▁initiatives.	-11.639
▁d'Afrique	-11.6391
▁recycling	-11.6391
▁(A5-01	-11.6392
40	-11.6394
▁jeter	-11.6402
▁assessed	-11.6404
▁l'euro.	-11.6409
▁remit	-11.6411
▁aujourd’hui.	-11.6413
▁l'offre	-11.6413
▁subjected	-11.6414
▁sanitaire	-11.6416
▁atmosphere	-11.642
▁wake	-11.642
▁delicate	-11.642
▁elles-mêmes	-11.642
▁travaillant	-11.6424
▁l’in	-11.6425
ists	-11.6426
▁management.	-11.6427
▁souffre	-11.6427
▁pre	-11.643
▁Kurdish	-11.643
▁coordinating	-11.643
▁protectionnisme	-11.6432
▁li	-11.6435
▁carburants	-11.6436
▁genres	-11.644
▁humains.	-11.6443
▁dépassé	-11.6443
▁candidats.	-11.6446
▁possession	-11.6446
/2000	-11.6448
ev	-11.6448
▁confrontation	-11.6449
▁obligés	-11.6452
fo	-11.6453
▁Greens/	-11.6455
▁offences	-11.6455
▁hasard	-11.6459
▁genocide	-11.6461
▁strange	-11.6461
-free	-11.6462
▁actuellement.	-11.6464
▁comitology	-11.6471
▁deadlines	-11.6472
▁nullement	-11.6473
▁topical	-11.6476
▁formally	-11.6479
▁d’information	-11.6481
▁venez	-11.6481
▁thing.	-11.6484
▁writing	-11.6484
▁rendus	-11.6485
▁remark	-11.6486
ée.	-11.6487
▁monétaires	-11.6493
▁a-t-elle	-11.6493
▁préconise	-11.6493
▁correction	-11.6493
▁uphold	-11.6493
▁context.	-11.6494
▁suggéré	-11.6494
▁Mar	-11.6496
▁mort.	-11.6498
a.	-11.65
▁victory	-11.6502
ov	-11.6507
▁religieux	-11.6511
▁franchement	-11.6513
investissements	-11.6515
▁immédiat	-11.6515
▁connais	-11.6516
▁Venezuela	-11.6517
▁financier.	-11.652
▁creative	-11.6521
▁valoir	-11.6521
▁philosophie	-11.6521
▁civilians	-11.6522
▁regime.	-11.6522
▁origine	-11.6524
▁fédérale	-11.6526
▁soutiendra	-11.6526
▁parallèle	-11.6527
lant	-11.6528
▁survive	-11.6528
▁texte.	-11.6528
▁précédentes	-11.653
▁reminded	-11.6531
▁l'image	-11.6532
▁funding.	-11.6533
▁accessibles	-11.6534
▁businesses.	-11.6535
▁flag	-11.6536
▁voulait	-11.6542
side	-11.6543
▁authorised	-11.6543
▁scheduled	-11.6544
▁transporteurs	-11.6544
▁lesson	-11.6545
▁Afghanistan.	-11.6545
▁développe	-11.6551
onformément	-11.6552
▁d'offrir	-11.6552
▁famine	-11.6552
▁massacre	-11.6554
▁évoluer	-11.6557
▁urgente	-11.6558
▁accountability	-11.6558
▁donateurs	-11.6561
▁criticisms	-11.6561
▁await	-11.6561
▁récession	-11.6562
▁parvenons	-11.6562
▁needs.	-11.6567
▁traditionnelles	-11.6568
▁required.	-11.6571
▁demonstration	-11.6573
▁arrivés	-11.6575
▁seriously.	-11.6577
-t-on	-11.6582
▁normalisation	-11.6585
▁D'	-11.6588
▁moratorium	-11.6593
▁everyday	-11.6593
▁affectés	-11.6595
▁obtaining	-11.6601
▁thirdly	-11.6603
▁unprecedented	-11.6603
▁émanant	-11.6603
▁ridicule	-11.6603
▁résultant	-11.6603
▁concentre	-11.6605
▁personnel.	-11.6605
▁qu’au	-11.6606
▁provoquer	-11.6608
▁avoiding	-11.6608
▁fi	-11.6609
▁documents.	-11.6609
era	-11.6612
▁figurer	-11.6612
▁exist.	-11.6614
▁injuste	-11.6617
▁onto	-11.6618
▁j’	-11.6623
▁Biélorussie	-11.6623
▁réfère	-11.6623
▁douane	-11.663
▁references	-11.6631
▁créée	-11.6632
▁Crespo	-11.6634
▁Soudan	-11.6634
▁combination	-11.6634
▁équivoque	-11.6634
▁couverture	-11.6634
▁cigarettes	-11.6634
▁commerce.	-11.6635
▁l'unité	-11.6639
▁sanctions.	-11.6639
▁generous	-11.664
▁chacune	-11.6641
▁town	-11.6642
▁audiovisual	-11.6644
▁zéro	-11.6644
▁Lettonie	-11.6644
▁occuper	-11.6645
▁d'utilisation	-11.6645
▁addresses	-11.6646
▁scandal	-11.6647
▁d’in	-11.6647
mm	-11.665
▁prévoient	-11.6651
▁fuels	-11.6654
▁semble-t-il	-11.6657
▁avéré	-11.6657
-in	-11.666
▁ba	-11.6661
▁israélien	-11.6661
▁teneur	-11.6662
▁estimates	-11.6662
▁honte	-11.6664
▁condemnation	-11.6664
▁emplois.	-11.6664
▁Federation	-11.6665
▁empty	-11.6665
▁Robert	-11.6665
▁Communication	-11.6665
▁d'où	-11.6666
▁libérer	-11.6666
▁répondent	-11.6668
▁reverse	-11.6669
▁compréhensible	-11.6671
ip	-11.6671
▁millénaire	-11.6675
▁Lisbon.	-11.6678
▁realised	-11.668
▁Asie	-11.668
▁remedy	-11.6685
▁depth	-11.6685
▁Eurojust	-11.6685
▁leçon	-11.6685
▁topics	-11.6687
▁hongrois	-11.6688
▁prêter	-11.6688
▁l’initiative	-11.6696
▁protectionism	-11.6701
▁tienne	-11.6703
▁d’aide	-11.6704
▁David	-11.6706
▁troubles	-11.6709
▁pi	-11.671
▁consacrée	-11.6712
izing	-11.6712
és.	-11.6715
▁consulté	-11.6716
▁reporter	-11.6718
▁beneficiaries	-11.6727
▁Turkey's	-11.6727
▁connue	-11.673
▁démocratiques.	-11.6732
▁(L	-11.6733
▁bi	-11.6734
▁favorise	-11.6735
▁grants	-11.6737
▁lance	-11.6739
▁établissements	-11.6739
▁coûte	-11.6741
▁assister	-11.6741
▁radioactive	-11.6743
▁vigilant	-11.6743
▁apprécié	-11.6743
▁contributes	-11.6744
▁multi	-11.6746
▁facilitating	-11.6747
▁Barrot	-11.6747
▁fermeté	-11.6748
▁dépens	-11.6748
▁input	-11.6751
▁attaquer	-11.6756
▁zero	-11.6758
▁industrielles	-11.6758
▁d'ouverture	-11.6758
▁couverts	-11.6759
▁21st	-11.676
▁ouvertement	-11.676
▁retraités	-11.6761
▁federal	-11.6763
ping	-11.6765
▁passing	-11.6767
▁down.	-11.6767
▁heavily	-11.6768
▁entendons	-11.6771
▁faille	-11.6773
▁dûment	-11.6776
▁consideration.	-11.6779
▁Government.	-11.678
▁workforce	-11.6781
▁returned	-11.6781
▁Christians	-11.6784
▁d'affaires	-11.6785
▁province	-11.6786
▁faiblesse	-11.6787
▁d'emplois.	-11.6787
▁conducteurs	-11.6789
▁Law	-11.6789
▁concernées.	-11.6795
▁Ho	-11.6796
▁venir,	-11.6796
▁applaud	-11.6796
▁over-	-11.6796
lar	-11.6799
▁Should	-11.6799
▁disparaître	-11.68
▁Aucune	-11.6801
▁prestations	-11.6801
▁Asian	-11.6807
▁causés	-11.6809
inter	-11.6809
▁Perspective	-11.681
▁carrière	-11.681
▁José	-11.681
▁stem	-11.6814
▁85	-11.6814
▁électriques	-11.6818
▁arrested	-11.6818
▁da	-11.682
année	-11.682
▁d'intégrer	-11.682
▁sympathie	-11.682
▁cour	-11.6821
▁map	-11.6822
▁cherchent	-11.6824
▁minds	-11.6829
▁abandonner	-11.683
▁arises	-11.683
▁purchase	-11.6831
▁Through	-11.6831
▁Baroness	-11.6831
▁table.	-11.6835
▁result.	-11.6835
▁him.	-11.6836
▁parvenue	-11.6837
▁genetic	-11.6841
▁Fund.	-11.6841
▁remarkable	-11.6842
▁floods	-11.6844
▁Democrat	-11.6845
▁honorables	-11.6846
▁attendu	-11.6847
▁reviewed	-11.6847
-de	-11.685
▁imposé	-11.6852
▁août	-11.6852
▁contrefaçon	-11.6852
▁l'humanité	-11.6854
▁technology.	-11.6855
▁p.m.)	-11.686
▁renationalis	-11.6863
▁légales	-11.6863
▁cross	-11.6864
▁25%	-11.6864
▁fournies	-11.6867
▁difficilement	-11.687
▁traité.	-11.6872
▁finlandaise	-11.6872
▁wonderful	-11.6873
▁abolish	-11.6875
▁retrouve	-11.6877
▁carburant	-11.6878
▁capture	-11.688
▁tentent	-11.6882
▁Congress	-11.6883
▁symbolique	-11.6885
ris	-11.6887
▁corruption.	-11.6888
▁fonde	-11.6889
▁enforce	-11.6891
▁acceptée	-11.6896
▁fondées	-11.6897
▁coupables	-11.6899
▁instruments.	-11.6901
chi	-11.6902
▁intervention.	-11.6902
▁consacrés	-11.6903
▁monopole	-11.6903
▁Secretary	-11.6904
▁riche	-11.6904
▁d'aides	-11.6905
▁abordés	-11.6905
▁concerné	-11.6906
▁cohésion.	-11.6908
▁Ukraine.	-11.6908
▁Basque	-11.691
▁Ukraine,	-11.6916
▁ressource	-11.6918
▁précisé	-11.6921
▁disadvantage	-11.6924
▁sexes	-11.6925
▁Bar	-11.6926
▁l’avis	-11.6926
▁anywhere	-11.6926
▁d'ouvrir	-11.6926
▁raisonnables	-11.6929
tons	-11.6932
▁drop	-11.6936
▁Beijing	-11.6936
▁instability	-11.6936
▁régissant	-11.6936
▁clarified	-11.6937
▁référendums	-11.6938
▁billets	-11.6941
▁plainte	-11.6942
▁religieuse	-11.6946
▁telephone	-11.6947
▁tolérer	-11.6947
▁Dis	-11.6948
▁voisin	-11.6949
▁serions	-11.6949
▁Lanka	-11.6952
▁résolue	-11.6952
▁ultimate	-11.6955
▁dictatorship	-11.6957
▁estimations	-11.6958
▁l'appui	-11.6958
▁multinational	-11.696
▁souffrance	-11.6961
▁frappé	-11.6962
▁Moyen-Orient.	-11.6964
▁responding	-11.6966
▁self-employed	-11.6968
▁2015	-11.6968
▁m'est	-11.6971
▁consists	-11.6974
▁réservé	-11.6974
▁exclude	-11.6977
▁élan	-11.6979
11	-11.698
▁wise	-11.6981
▁indicates	-11.6981
▁1991	-11.6983
ages	-11.6985
▁défenseurs	-11.6986
▁situe	-11.6988
▁désarmement	-11.6989
▁irresponsible	-11.6989
▁fragmentation	-11.699
▁mé	-11.6996
▁modifiés	-11.6997
▁UEN	-11.6997
▁intéressés	-11.6999
▁times.	-11.7
gr	-11.7001
▁perform	-11.7001
▁transfers	-11.7003
sé	-11.7003
mat	-11.7004
▁vitale	-11.7004
cho	-11.7008
▁integral	-11.7011
▁corporate	-11.7011
▁employ	-11.7013
mis	-11.7015
▁atteints	-11.7017
▁devote	-11.7019
▁phénomènes	-11.7019
▁supérieure	-11.7021
▁shame	-11.7024
▁qualifiés	-11.7027
▁prerequisite	-11.7028
▁continuons	-11.703
▁l'Afghanistan	-11.7032
▁Round	-11.7032
-A	-11.7034
▁synergies	-11.7038
▁innovation.	-11.7042
▁renforçant	-11.7043
▁Relations	-11.7043
able.	-11.7043
rent	-11.7049
▁posed	-11.7052
▁McCreevy	-11.7053
▁solving	-11.7053
▁towns	-11.7054
▁Annan	-11.7054
▁suspendue	-11.7056
▁placé	-11.7057
▁Lisbon,	-11.7058
og	-11.7061
▁stresses	-11.7062
▁soutenant	-11.7064
▁investing	-11.7068
▁reinforced	-11.7071
▁brève	-11.7073
▁imaginer	-11.7074
▁C'était	-11.7075
▁exert	-11.7077
▁ouverts	-11.7078
▁attempting	-11.7079
▁occidentale	-11.7082
▁j'aurais	-11.7083
▁criteria,	-11.7084
▁justifié	-11.7085
▁quantity	-11.7086
▁exister	-11.709
▁Fa	-11.7091
▁fur	-11.7094
▁Florence	-11.7096
▁lendemain	-11.7096
▁emerge	-11.7097
▁Apart	-11.7099
▁governed	-11.7099
▁religions	-11.7105
▁fonctionnent	-11.7105
▁jurisprudence	-11.7107
▁anglais	-11.7108
▁Dr	-11.7111
▁réalités	-11.7111
▁package.	-11.7113
▁Delors	-11.7118
▁côtes	-11.7119
isé	-11.7119
ria	-11.7125
▁terminé	-11.7125
▁initiate	-11.7127
▁explicit	-11.7127
▁monopolies	-11.7129
▁réchauffement	-11.7129
▁identique	-11.7131
▁voiture	-11.7132
▁abouti	-11.7133
▁registered	-11.7137
▁52	-11.7137
▁Bonino	-11.7139
▁l'annexe	-11.714
▁course.	-11.7144
▁propositions.	-11.7146
▁risk.	-11.7146
▁distorsions	-11.7149
▁formidable	-11.715
▁particular.	-11.715
▁d'exploitation	-11.7151
▁souhaits	-11.7152
▁normally	-11.7153
▁déclin	-11.7156
▁GMOs	-11.7161
▁Democracy	-11.7161
▁Mexique	-11.7161
▁disparities	-11.7161
▁précoce	-11.7161
▁passive	-11.7162
▁noir	-11.7163
▁describe	-11.7164
▁délicat	-11.7165
▁Jean	-11.7165
▁l'UEM	-11.717
▁PPE-DE.	-11.717
iens	-11.7171
▁assistance.	-11.7173
▁"non"	-11.7174
▁etc.,	-11.7175
▁mauvaises	-11.7177
▁contraignante	-11.7181
mes	-11.7181
▁ill	-11.7181
▁Caucasus	-11.7183
▁convincing	-11.7183
▁witnessed	-11.7186
▁gases	-11.7186
▁internationaux.	-11.7187
▁soulevée	-11.7191
▁assembly	-11.7194
▁transmis	-11.7197
▁migratoires	-11.7198
▁détaillées	-11.7199
▁Ca	-11.7199
▁islamique	-11.72
▁ob	-11.7204
▁d'hier	-11.7204
▁partial	-11.7205
▁ELDR	-11.7207
▁l'enfant	-11.7207
▁reforms.	-11.7207
▁sustained	-11.7207
▁unité	-11.7208
▁(SL)	-11.7215
▁recognising	-11.7215
▁smoking	-11.7215
▁livestock	-11.7215
▁billion.	-11.7221
▁proposant	-11.7221
▁rappel	-11.7226
▁(démocrates	-11.7226
▁CFSP	-11.7226
▁Göteborg	-11.7226
▁removing	-11.7226
▁langage	-11.7226
▁septième	-11.7226
▁isolated	-11.7227
▁Process	-11.7228
▁served	-11.7231
▁tonight	-11.7231
▁resort	-11.7232
▁translation	-11.7233
▁Questions	-11.7234
▁thon	-11.7234
▁mobilise	-11.7236
▁accéder	-11.7237
▁inevitable	-11.7237
▁traçabilité	-11.7237
▁d'activité	-11.7239
▁bill	-11.724
▁spéculation	-11.7242
▁aidera	-11.7245
▁general,	-11.7246
▁autonome	-11.725
▁villages	-11.7253
▁Nord.	-11.7254
▁quotidienne	-11.7255
▁donor	-11.7255
▁hospital	-11.726
▁provisoire	-11.7263
▁traitée	-11.7268
▁ignored	-11.7269
▁manifester	-11.7269
▁préféré	-11.7269
▁fréquemment	-11.727
▁progression	-11.7271
▁tire	-11.7272
▁consequences.	-11.7273
▁adding	-11.7273
▁réglementaires	-11.7275
▁trends	-11.7277
▁C6-	-11.7279
▁incomes	-11.7279
▁remote	-11.728
▁Guantánamo	-11.7281
▁Malmström	-11.7281
▁excellence	-11.7281
▁availability	-11.7281
▁géographiques	-11.7281
▁l'échelon	-11.7281
▁recession	-11.7281
▁Là	-11.7283
▁annuels	-11.7284
(1)	-11.7284
▁mettra	-11.7286
▁considérées	-11.7287
▁emphasises	-11.7287
▁complement	-11.7291
▁Vietnam	-11.7292
▁democracies	-11.7292
▁enthusiasm	-11.7292
▁proximité	-11.7292
▁attiré	-11.7292
▁rétablissement	-11.7292
▁machine	-11.7292
▁apparaître	-11.7294
▁bo	-11.7294
▁mix	-11.7294
▁Autriche	-11.7295
▁wall	-11.7296
▁procedures,	-11.7296
è	-11.7296
▁ones.	-11.7298
▁opérationnelle	-11.7299
▁Nordic	-11.7299
▁twenty	-11.7303
▁Iran.	-11.7303
▁listes	-11.7303
▁forts	-11.7304
▁exposés	-11.7306
▁s'avérer	-11.7307
▁fournis	-11.7308
▁renouvelable	-11.7311
▁11,	-11.7311
▁révèle	-11.7311
▁believed	-11.7317
▁prépare	-11.7321
▁trains	-11.7322
▁unitaire	-11.7323
▁délits	-11.7324
▁repos	-11.7324
▁Caucase	-11.7325
▁Rio	-11.7327
▁tarifs	-11.733
han	-11.7331
▁doive	-11.7333
▁exclus	-11.7334
cher	-11.7334
▁Montenegro	-11.7336
▁problematic	-11.7336
▁sixième	-11.7337
▁cases.	-11.7337
▁lowest	-11.7337
▁strikes	-11.7339
▁unlike	-11.7341
▁refuge	-11.7344
▁réexamen	-11.7347
lement	-11.7347
▁l’absence	-11.7347
▁renouvelables.	-11.7349
▁apportera	-11.7351
▁whenever	-11.7351
▁suivants:	-11.7356
í	-11.7356
▁Peace	-11.7358
▁préparatifs	-11.7358
▁Haye	-11.7358
▁Each	-11.7359
▁expand	-11.7359
▁satisfy	-11.7363
▁étrange	-11.7365
▁merit	-11.7368
▁réagi	-11.7368
▁Cancún	-11.7369
▁Rwanda	-11.7369
▁Against	-11.7369
▁facilité	-11.737
▁Lu	-11.7376
▁identiques	-11.7378
▁continu	-11.7378
▁vendre	-11.738
▁inequality	-11.738
▁illegally	-11.7381
ition	-11.7387
▁honnête	-11.7388
▁autoriser	-11.739
▁Colombie	-11.7391
▁l’argent	-11.7391
▁continuité	-11.7392
▁follows:	-11.7395
▁institution.	-11.7397
▁demanderai	-11.7398
▁poorer	-11.7399
▁Medina	-11.7402
▁Velzen	-11.7402
▁céréales	-11.7402
▁d'objectifs	-11.7403
red	-11.7404
▁conformes	-11.7406
▁misère	-11.7407
▁frustration	-11.7409
▁profound	-11.7411
▁policière	-11.7412
▁Wogau	-11.7413
ans	-11.7414
▁sachant	-11.7415
▁sols	-11.7416
cer	-11.7418
▁économiquement	-11.742
▁d'instruments	-11.7422
▁enjoyed	-11.7423
▁symbolic	-11.7423
▁charter	-11.7424
▁Prestige	-11.7424
▁d’aujourd’hui	-11.7424
▁consentis	-11.7425
▁ouvertes	-11.7426
ces	-11.7426
▁sida	-11.7426
▁bar	-11.7431
▁51	-11.7434
▁implication	-11.7437
▁guerres	-11.7439
▁rejoins	-11.7439
▁assurée	-11.7439
▁patents	-11.7445
▁l'étude	-11.7448
▁Bank,	-11.7454
(2)	-11.7456
▁Neighbourhood	-11.7458
▁caught	-11.7458
▁spécifiques.	-11.746
▁mainstreaming	-11.746
▁enregistré	-11.7462
▁contraints	-11.7464
▁Bo	-11.7467
▁Yougoslavie	-11.7469
▁securing	-11.7469
▁Slovak	-11.747
▁banana	-11.7473
▁n'aura	-11.7474
▁Eh	-11.7474
▁arrière	-11.7475
▁d’emplois	-11.7477
tage	-11.7477
▁expenses	-11.7478
▁professionnel	-11.7478
▁relationships	-11.748
▁Fontaine	-11.748
▁González	-11.748
▁energies	-11.748
▁trilogue	-11.748
▁l'Autorité	-11.748
▁stability.	-11.748
▁humanity	-11.7482
▁motivation	-11.7484
ral	-11.7488
▁essayons	-11.7488
▁nationalité	-11.7491
▁Belgrade	-11.7491
▁détruire	-11.7494
ging	-11.7496
nom	-11.7497
▁diplomatiques	-11.7499
▁produits.	-11.75
▁claimed	-11.7501
▁Ja	-11.7502
▁(BG)	-11.7502
▁d'envisager	-11.7502
▁philosophy	-11.7503
-B	-11.7507
▁données.	-11.7512
▁vigilance	-11.7514
▁hide	-11.7515
▁budgets.	-11.7516
▁unilatérale	-11.7516
▁dépensé	-11.7517
▁blocage	-11.7517
▁resolution)	-11.7518
▁défendu	-11.7518
▁imp	-11.7523
▁dioxide	-11.7525
▁l'intégrité	-11.7525
▁Quite	-11.7526
▁monopoles	-11.7526
ade	-11.7527
so	-11.7529
▁signale	-11.7532
▁publiques.	-11.7533
▁contraire.	-11.7533
▁limiting	-11.7534
▁bilatérales	-11.7535
▁l'usage	-11.7536
▁steel	-11.7536
▁Lulling	-11.7536
▁l’innovation	-11.7536
▁owe	-11.7544
▁condamne	-11.7545
▁cruel	-11.7546
▁parlent	-11.7546
▁advances	-11.7546
▁préoccupés	-11.7546
▁nationale,	-11.7547
▁reports,	-11.7547
▁réparation	-11.7547
▁Directorate	-11.7549
▁dépenser	-11.7549
▁endroits	-11.755
▁appeared	-11.7551
▁interpreted	-11.7551
▁mondiales	-11.7552
▁Pi	-11.7554
▁5%	-11.7555
▁cells	-11.7559
▁Aid	-11.7563
▁Arctic	-11.757
▁victimes.	-11.7571
▁progressé	-11.7576
▁indiquent	-11.7577
▁Chacun	-11.7581
▁Kazakhstan	-11.7581
▁pluralisme	-11.7582
▁adressée	-11.7582
ssent	-11.7584
▁affecte	-11.7584
▁d'émissions	-11.7586
▁modulation	-11.7592
▁fièvre	-11.7592
▁occupied	-11.7592
▁doigt	-11.7593
▁brefs	-11.7594
▁Small	-11.7594
▁l'institution	-11.7595
▁maybe	-11.7598
▁Ou	-11.7598
▁suspend	-11.7599
▁proportions	-11.7601
▁don	-11.7601
▁neutral	-11.7602
▁k	-11.7603
▁Bangladesh	-11.7604
▁Byrne	-11.7604
▁yougoslave	-11.7604
▁earmarked	-11.7604
▁l'orientation	-11.7605
▁disappointment	-11.7605
▁publicly	-11.7606
▁rassembler	-11.7607
▁frankly	-11.7608
▁sessions	-11.761
▁preference	-11.7613
▁dairy	-11.7615
▁journaux	-11.7615
▁irakien	-11.7619
▁threatening	-11.762
▁rien.	-11.7624
▁manufacturing	-11.7626
▁cattle	-11.7626
▁(I	-11.7627
▁confirms	-11.7629
▁reflètent	-11.7631
ain	-11.7633
▁renvoi	-11.7635
▁forêt	-11.7636
▁Oostlander	-11.7638
▁definitive	-11.7646
▁lourde	-11.7648
vis	-11.7648
▁split	-11.7649
▁70%	-11.765
▁pointing	-11.7651
▁burdens	-11.7651
▁allait	-11.7652
▁définie	-11.7652
▁concerns.	-11.7653
▁siècle.	-11.7653
▁governments.	-11.7653
▁distances	-11.7654
dy	-11.7654
▁parviennent	-11.7654
▁clair.	-11.7655
▁vain	-11.7655
▁portes	-11.7656
▁century.	-11.7658
▁administratif	-11.7659
▁nette	-11.766
▁Prize	-11.7661
▁rural,	-11.7662
▁rejoint	-11.7663
▁obligations.	-11.7667
▁focuses	-11.7668
▁proprement	-11.767
▁irrégularités	-11.7671
▁contrôle.	-11.7671
▁empêché	-11.7672
▁l'OLAF	-11.7672
▁repair	-11.7672
ifs	-11.7673
▁mettons	-11.7673
▁cité	-11.7674
▁bras	-11.7675
▁handled	-11.7677
▁poursuivi	-11.7678
▁doors	-11.7679
▁fondements	-11.7679
▁dure	-11.768
▁10,	-11.768
▁n'aient	-11.7681
AS	-11.7683
ile	-11.7684
▁opportune	-11.7685
▁partiel	-11.7686
▁however.	-11.7688
-General	-11.7692
▁étendue	-11.7692
▁oriental	-11.7693
▁author	-11.7693
▁pipeline	-11.7695
▁senior	-11.7695
▁redistribution	-11.7695
▁Until	-11.7696
▁Netherlands,	-11.7696
eux	-11.7698
▁susciter	-11.77
▁lancée	-11.7702
▁préférences	-11.7702
▁multilatéral	-11.7702
▁Ta	-11.7703
vant	-11.7703
▁story	-11.7704
▁requiring	-11.7706
▁concluding	-11.7707
▁prudent	-11.7713
▁aiming	-11.7715
▁délicate	-11.7716
▁jours.	-11.7717
▁Cologne	-11.7718
▁broken	-11.7718
▁reconnaissons	-11.7719
cy	-11.7719
▁Per	-11.7724
▁d'étendre	-11.7729
ène	-11.7731
▁Noire	-11.7731
▁incapables	-11.7732
▁distinct	-11.7734
▁limitées	-11.7734
▁tremendous	-11.7738
▁Mulder	-11.7741
▁intent	-11.7747
▁Colombia	-11.7748
▁warming	-11.7749
rn	-11.7751
▁accueillir	-11.7751
istic	-11.7752
▁pragmatic	-11.7752
▁Mandelson	-11.7752
ers,	-11.7752
▁officiel	-11.7753
▁abroad	-11.7762
▁surcroît	-11.7764
▁neighbour	-11.7768
▁améliorée	-11.7768
way	-11.7769
▁swift	-11.7771
▁disproportionné	-11.7772
▁Aux	-11.7773
▁uses	-11.7774
▁Neither	-11.7775
▁concevoir	-11.7775
▁journal	-11.7777
50	-11.7777
▁faut-il	-11.7777
▁safer	-11.7779
▁partagée	-11.778
10	-11.7782
▁communicate	-11.7784
▁130	-11.7786
▁résidence	-11.7787
▁ancien	-11.7788
gar	-11.7791
▁history.	-11.7794
▁armées	-11.7794
▁députée	-11.7795
▁parlementaires,	-11.7796
▁positively	-11.7797
▁bottom	-11.7798
▁déloyale	-11.7799
▁d'avancer	-11.78
ros	-11.7801
▁delayed	-11.7805
-M	-11.7806
▁profond	-11.7806
▁abandoned	-11.7807
▁overwhelming	-11.7808
▁impossible.	-11.7809
▁Merkel	-11.781
▁displaced	-11.781
▁d’adopter	-11.781
▁exemplaire	-11.781
▁restaurer	-11.781
▁voulions	-11.781
▁preferred	-11.781
▁coeur	-11.7811
▁web	-11.7812
ves	-11.7813
▁dominant	-11.7813
▁quotidien	-11.7814
▁fier	-11.7816
▁commenter	-11.7816
▁d'approvisionne	-11.7817
▁Indonesia	-11.7817
rit	-11.7821
▁ta	-11.7822
▁tariff	-11.7826
▁indirectly	-11.7827
▁fiable	-11.783
▁éthique	-11.783
▁biologiques	-11.783
▁efficaces.	-11.7831
▁clear:	-11.7831
▁Fédération	-11.7833
▁Yesterday	-11.7833
▁electorate	-11.7833
▁impulsion	-11.7833
▁postaux	-11.7833
▁prolonger	-11.7836
▁nominal	-11.784
▁write	-11.7842
▁palestiniens	-11.7842
▁pauvres.	-11.7844
▁maternité	-11.7844
spe	-11.7846
▁compte.	-11.7848
▁Among	-11.7848
▁Pr	-11.785
▁danoise	-11.785
▁Agreement.	-11.7851
▁abordée	-11.7851
▁Conciliation	-11.7856
▁l'autorisation	-11.7856
▁adressées	-11.7858
▁plaide	-11.7861
▁gains	-11.7862
▁autumn	-11.7868
▁pousser	-11.7869
▁quantities	-11.787
▁durement	-11.7871
▁fleets	-11.7872
▁médecins	-11.7872
▁13,	-11.7874
▁mi-parcours	-11.7879
-chrétiens)	-11.788
▁passent	-11.7881
▁player	-11.7883
▁déposée	-11.7884
▁transform	-11.7886
▁maintenant.	-11.7887
▁clubs	-11.7888
Applaudissements	-11.7889
▁activity.	-11.789
▁désignation	-11.7891
▁elimination	-11.7891
▁Rothley	-11.7891
▁l’amélioration	-11.7891
▁touché	-11.7893
▁route.	-11.7894
▁pe	-11.7895
▁respectés	-11.7898
▁bio	-11.7899
▁soir.	-11.7899
▁adaptée	-11.79
▁persuadé	-11.7901
▁scandale	-11.7902
▁demonstrating	-11.7902
▁biological	-11.7903
▁Party,	-11.7909
▁used.	-11.7911
▁critiquer	-11.7911
▁exploited	-11.7913
▁prétendre	-11.7916
▁impliqué	-11.7916
▁multinationals	-11.7917
▁East,	-11.7918
▁postponed	-11.7918
▁54	-11.7919
▁loyale	-11.792
▁protégés	-11.792
▁bâtiment	-11.7922
cu	-11.7922
▁suffisants	-11.7923
▁D'abord	-11.7926
▁d'énormes	-11.7926
▁copyright	-11.7926
▁partisan	-11.7929
-C	-11.7934
▁Burundi	-11.7938
▁assurant	-11.7938
▁Nielson	-11.7938
▁recognize	-11.7938
▁automatiquement	-11.794
▁roots	-11.7947
▁contiennent	-11.7953
▁alarm	-11.7956
▁adressé	-11.7959
▁speaker)	-11.7959
▁Obama	-11.7961
▁FMI	-11.7961
▁expressly	-11.7961
ological	-11.7962
▁alert	-11.7963
▁compenser	-11.7964
▁analyser	-11.7966
▁annonce	-11.7969
the	-11.7969
▁nécessitent	-11.797
▁assistons	-11.7971
▁cease	-11.7972
▁mid-term	-11.7973
▁conjunction	-11.7973
▁sectoral	-11.7973
oli	-11.7977
▁ha	-11.7978
▁permission	-11.7985
▁émettre	-11.7985
▁prohibition	-11.7985
▁haine	-11.7985
▁149)	-11.7986
ki	-11.7987
▁beau	-11.7987
article	-11.799
▁Jo	-11.7991
▁children's	-11.7993
▁secondary	-11.7994
▁indiquant	-11.7996
▁dedicated	-11.7997
▁organized	-11.7997
▁regulating	-11.7998
▁officielles	-11.7998
▁violated	-11.7999
▁war,	-11.8003
▁nordique	-11.8004
▁qualification	-11.8005
▁Sud.	-11.8006
[...]
