<s>	0
</s>	0
<unk>	0
<pad>	0
,	-3.30997
▁the	-3.49846
▁de	-3.69222
.	-3.86216
▁of	-4.17695
▁la	-4.19418
▁to	-4.24793
▁and	-4.41286
▁et	-4.48778
s	-4.55815
▁a	-4.60796
▁le	-4.61863
▁in	-4.63364
▁à	-4.7048
▁les	-4.70547
▁des	-4.75114
▁que	-4.89931
▁that	-4.90456
▁is	-4.94117
▁en	-5.10501
▁for	-5.32332
▁I	-5.33004
▁du	-5.3601
▁on	-5.39359
▁dans	-5.50501
▁nous	-5.51879
▁pour	-5.51909
▁qui	-5.53953
▁be	-5.55494
▁this	-5.57309
▁we	-5.60607
▁une	-5.65781
▁un	-5.66097
▁ce	-5.71985
▁est	-5.7433
▁are	-5.75643
▁have	-5.80205
▁pas	-5.8049
▁-	-5.81023
▁sur	-5.81978
▁not	-5.83131
▁it	-5.83676
▁au	-5.84332
▁with	-5.91824
▁as	-5.9278
▁par	-5.94834
▁which	-5.9527
▁European	-5.98276
▁ne	-5.9854
▁Commission	-6.03377
▁The	-6.08562
▁will	-6.10832
▁by	-6.11928
▁plus	-6.19519
▁has	-6.23386
▁je	-6.24238
e	-6.29585
▁	-6.30114
▁Mr	-6.38824
▁Je	-6.44856
▁cette	-6.46268
▁aux	-6.46635
▁an	-6.46965
▁il	-6.51591
▁at	-6.53364
▁sont	-6.55527
▁would	-6.55644
▁also	-6.56988
▁should	-6.60927
▁all	-6.64759
▁from	-6.66267
▁We	-6.66848
▁avec	-6.67009
▁but	-6.68384
▁our	-6.68711
▁se	-6.69507
▁must	-6.69726
s.	-6.71783
▁Nous	-6.72655
▁Il	-6.72903
ing	-6.76496
▁mais	-6.77767
▁been	-6.78134
▁Monsieur	-6.79061
▁être	-6.8042
▁pays	-6.83552
r	-6.83945
▁ces	-6.85793
▁La	-6.86127
:	-6.86807
▁été	-6.87795
▁ont	-6.88065
▁It	-6.88623
▁can	-6.88808
▁européenne	-6.89077
▁Le	-6.91433
▁President,	-6.92196
▁fait	-6.93221
▁you	-6.94436
▁was	-6.9446
▁Member	-6.94546
▁or	-6.96068
▁important	-6.96072
▁more	-6.9659
s,	-6.97426
▁vous	-6.97741
▁do	-6.97944
?	-6.9798
▁politique	-7.00236
▁comme	-7.00317
▁rapport	-7.00414
▁qu'il	-7.00525
▁Parlement	-7.01211
▁l'	-7.01809
▁its	-7.02817
▁tout	-7.03018
▁their	-7.03238
▁question	-7.03571
es	-7.03989
▁like	-7.05163
▁there	-7.05471
▁Président,	-7.07969
▁l'Union	-7.08136
▁États	-7.08508
▁ou	-7.08757
▁very	-7.08953
▁également	-7.09649
▁In	-7.10019
ed	-7.10051
▁This	-7.12853
d	-7.13333
▁Union	-7.14255
▁these	-7.15451
▁aussi	-7.16574
▁they	-7.18332
▁d'une	-7.21198
▁si	-7.21623
▁one	-7.21695
▁report	-7.21962
▁me	-7.22486
▁Conseil	-7.22489
▁notre	-7.22854
▁Parliament	-7.23208
▁point	-7.23302
▁faire	-7.24142
▁d'	-7.24998
▁so	-7.25079
▁who	-7.25201
nt	-7.26166
▁about	-7.26878
er	-7.27528
▁other	-7.27717
▁Council	-7.27926
▁Europe	-7.28208
▁leur	-7.28643
▁avons	-7.29404
▁what	-7.29677
▁doit	-7.29756
▁need	-7.29986
▁membres	-7.30452
▁tous	-7.30948
▁M.	-7.31486
▁son	-7.33049
▁EU	-7.3335
▁situation	-7.33449
▁très	-7.33712
;	-7.33786
▁my	-7.35181
▁Les	-7.35211
▁même	-7.35342
▁no	-7.35421
▁bien	-7.35731
▁d'un	-7.35788
▁y	-7.3582
▁States	-7.36492
▁En	-7.37092
▁new	-7.37161
-	-7.38373
▁européen	-7.38399
▁only	-7.38422
▁entre	-7.39191
▁us	-7.4017
▁part	-7.40963
▁because	-7.43244
▁if	-7.43647
▁Ce	-7.43993
▁devons	-7.46302
▁am	-7.47578
ment	-7.47687
▁time	-7.48786
▁people	-7.5006
▁droits	-7.50496
▁up	-7.50586
▁nos	-7.51567
▁out	-7.53603
▁support	-7.55115
▁countries	-7.55125
▁such	-7.55375
▁contre	-7.56739
ly	-7.56746
▁take	-7.56907
▁make	-7.5701
a	-7.58643
▁into	-7.59665
▁between	-7.60887
▁directive	-7.60983
▁voudrais	-7.61169
▁those	-7.61514
▁vote	-7.62529
▁possible	-7.63215
▁social	-7.63648
▁now	-7.6472
▁protection	-7.65169
y	-7.65467
▁donc	-7.65771
▁peut	-7.66335
)	-7.66711
▁sa	-7.67716
▁non	-7.67749
▁when	-7.68491
'	-7.68559
▁dont	-7.68569
▁therefore	-7.68573
t	-7.68782
▁some	-7.6958
▁being	-7.69714
▁C'est	-7.69966
▁proposition	-7.70304
▁any	-7.70657
▁soit	-7.70912
▁cela	-7.71256
▁sans	-7.71393
é	-7.71629
▁rapporteur	-7.72956
▁encore	-7.73104
▁policy	-7.73108
▁political	-7.73322
▁made	-7.7425
▁work	-7.74294
▁commission	-7.74439
's	-7.74521
▁deux	-7.74985
▁were	-7.75254
▁place	-7.76056
▁than	-7.77248
▁economic	-7.77395
▁ainsi	-7.77478
▁believe	-7.77663
▁c'est	-7.78709
ons	-7.79421
n	-7.80624
▁say	-7.81104
▁ses	-7.81126
▁fact	-7.81308
ant	-7.81475
▁suis	-7.81578
▁position	-7.81609
▁car	-7.81626
▁public	-7.817
▁faut	-7.82708
▁cas	-7.82773
▁développement	-7.83734
▁many	-7.84647
▁against	-7.84659
▁programme	-7.84893
▁mesures	-7.85182
▁n'est	-7.8535
▁budget	-7.8541
c	-7.86094
▁national	-7.8657
▁first	-7.87224
▁pense	-7.87577
▁respect	-7.87778
▁matière	-7.88704
▁marché	-7.89471
▁travail	-7.89496
▁groupe	-7.9006
▁think	-7.90705
▁sécurité	-7.91339
▁leurs	-7.9147
▁That	-7.91511
▁doivent	-7.92083
▁mon	-7.92111
▁way	-7.92173
▁cet	-7.92237
▁proposal	-7.92384
▁just	-7.92424
▁afin	-7.92628
▁international	-7.93767
▁Committee	-7.94597
▁rights	-7.94664
▁déjà	-7.94664
▁questions	-7.94721
▁human	-7.94937
▁manière	-7.95379
▁sommes	-7.95611
▁cadre	-7.95808
▁dire	-7.96252
▁où	-7.96282
▁elle	-7.9663
▁order	-7.97313
▁droit	-7.97699
▁services	-7.98338
▁debate	-7.98613
▁citoyens	-7.9877
tte	-7.98817
▁concerne	-7.99159
▁s	-7.99572
▁right	-7.99634
▁want	-7.99784
▁Madame	-8.0007
▁A	-8.00317
▁As	-8.0058
ra	-8.00752
▁two	-8.01075
▁cannot	-8.01321
▁same	-8.02022
▁débat	-8.02123
▁them	-8.02803
▁conditions	-8.02833
▁had	-8.03225
▁does	-8.033
▁even	-8.034
▁politiques	-8.04593
▁tant	-8.0478
▁niveau	-8.04931
▁could	-8.05941
▁most	-8.0598
▁sera	-8.06543
▁said	-8.07284
▁good	-8.09199
▁where	-8.10333
▁personnes	-8.10384
▁certain	-8.10565
▁already	-8.10615
▁President	-8.10631
▁much	-8.10638
ent	-8.1066
▁clear	-8.10739
al	-8.10832
▁over	-8.10835
▁under	-8.10851
▁dit	-8.11101
▁measures	-8.11499
▁development	-8.11867
▁–	-8.12474
▁lors	-8.12564
▁financial	-8.1267
▁d’	-8.13162
▁within	-8.13422
▁use	-8.13422
▁issue	-8.13577
▁long	-8.14103
▁still	-8.14817
▁how	-8.15095
▁well	-8.15327
▁particular	-8.15529
▁toute	-8.15682
▁common	-8.159
▁see	-8.1596
▁There	-8.1645
▁both	-8.17006
▁action	-8.17028
▁here	-8.1712
▁view	-8.17133
▁problème	-8.17705
▁fois	-8.17847
▁agreement	-8.17935
▁your	-8.17993
▁vue	-8.18119
▁parce	-8.18132
▁Dans	-8.185
▁concernant	-8.18676
▁However,	-8.19318
▁hope	-8.1938
▁Mrs	-8.19483
▁sein	-8.19506
ation	-8.19629
▁toutes	-8.19934
▁plan	-8.1996
▁coopération	-8.20257
▁certains	-8.20374
▁l’	-8.20705
▁(	-8.20875
▁ensure	-8.20879
▁d'autres	-8.2106
▁efforts	-8.21138
▁On	-8.21148
▁Mme	-8.21372
▁market	-8.21644
▁"	-8.21988
re	-8.22313
▁système	-8.22505
▁base	-8.22609
▁he	-8.22847
▁moins	-8.22888
▁taken	-8.22892
▁institutions	-8.22902
▁économique	-8.23312
▁too	-8.23312
▁future	-8.23341
▁his	-8.24177
▁Community	-8.24847
▁able	-8.25163
▁own	-8.25731
l	-8.25938
▁Si	-8.26176
▁seulement	-8.26324
▁compte	-8.26406
▁raison	-8.26469
▁européenne.	-8.26648
▁nom	-8.27282
▁mise	-8.27369
▁mettre	-8.27937
▁information	-8.28044
▁re	-8.28603
▁why	-8.28706
▁put	-8.29106
▁pourquoi	-8.29211
▁energy	-8.29795
▁last	-8.30049
ait	-8.30091
▁number	-8.30286
▁know	-8.30347
▁L'	-8.30513
▁secteur	-8.31087
▁may	-8.31466
▁regard	-8.318
▁means	-8.3199
▁end	-8.32525
▁particulier	-8.3259
▁case	-8.32689
▁nombre	-8.32725
▁%	-8.328
▁processus	-8.33373
▁Pour	-8.3339
▁lieu	-8.33596
▁transport	-8.33872
▁problèmes	-8.33923
▁avoir	-8.3395
▁autres	-8.34025
▁accord	-8.34246
▁without	-8.34526
▁savoir	-8.34563
▁relations	-8.34628
▁temps	-8.34785
▁demande	-8.34801
▁grande	-8.34826
▁through	-8.34906
▁avant	-8.35156
▁Mais	-8.35201
que	-8.3547
▁toujours	-8.35482
▁s'agit	-8.35621
▁points	-8.35811
▁however	-8.35883
▁aujourd'hui	-8.35923
▁cooperation	-8.36115
▁'	-8.36422
▁devrait	-8.36491
▁l'UE	-8.368
▁If	-8.36893
▁gentlemen,	-8.37208
i	-8.37417
▁beaucoup	-8.37777
▁today	-8.37828
▁gouvernement	-8.38527
▁country	-8.3885
▁continue	-8.38859
▁dialogue	-8.39101
▁citizens	-8.39312
▁solution	-8.39381
▁notamment	-8.39417
▁laquelle	-8.39585
▁Madam	-8.39685
▁À	-8.39704
▁cours	-8.39731
▁particularly	-8.39981
in	-8.40178
▁n'a	-8.40407
▁give	-8.40723
▁rôle	-8.40853
▁prendre	-8.40884
▁partie	-8.41111
▁importance	-8.41213
▁great	-8.4122
▁years	-8.41263
▁ceux	-8.41321
▁domaine	-8.41537
▁before	-8.41782
/	-8.41958
▁moment	-8.41963
▁Cela	-8.42051
▁legal	-8.42487
▁l'Europe	-8.42605
▁j'ai	-8.42615
▁Commissioner	-8.42627
▁faveur	-8.42775
▁production	-8.42944
▁mesure	-8.43254
▁.	-8.43436
▁given	-8.44024
▁Commission,	-8.44377
▁effet	-8.44396
▁besoin	-8.44806
▁far	-8.44917
▁propositions	-8.4519
▁soutien	-8.45409
se	-8.45473
o	-8.45714
▁président	-8.4582
▁votre	-8.46406
▁soient	-8.46445
▁necessary	-8.4671
▁qu'elle	-8.46922
▁l'a	-8.4716
▁then	-8.47365
▁résolution	-8.47395
▁De	-8.478
▁favour	-8.48005
▁traité	-8.48178
▁thank	-8.48693
"	-8.48804
▁system	-8.48813
▁world	-8.49325
▁whether	-8.49508
▁nouvelle	-8.49627
▁large	-8.49691
▁role	-8.4995
▁problems	-8.50181
▁ladies	-8.50315
▁ma	-8.50356
it	-8.50513
▁face	-8.50605
▁pouvons	-8.50724
▁attention	-8.50773
▁amendements	-8.50927
▁qu’il	-8.51017
▁pouvoir	-8.51064
▁set	-8.51239
▁United	-8.51248
▁nouveau	-8.51541
▁further	-8.51871
▁l’Union	-8.52011
▁objectifs	-8.52105
▁security	-8.52116
▁since	-8.52376
▁présent	-8.52727
▁behalf	-8.53012
▁décision	-8.53032
▁santé	-8.53263
▁autre	-8.53313
▁programmes	-8.53474
▁sujet	-8.53501
▁serait	-8.54014
▁peuvent	-8.54168
z	-8.54209
▁était	-8.54215
▁help	-8.54426
▁peu	-8.54575
▁terms	-8.55011
▁commissaire	-8.55123
▁trade	-8.55236
▁next	-8.55268
▁present	-8.5528
▁problem	-8.5544
!	-8.55552
▁contrôle	-8.55817
▁cha	-8.56142
▁issues	-8.56249
▁agree	-8.5633
▁process	-8.57503
▁come	-8.57526
▁Europe.	-8.57899
▁produits	-8.57983
▁femmes	-8.58005
▁règlement	-8.58091
▁area	-8.58204
▁Commission.	-8.58378
▁millions	-8.58579
▁different	-8.58631
le	-8.58735
▁façon	-8.58775
▁better	-8.58791
u	-8.58905
▁fin	-8.5894
▁Par	-8.59012
▁depuis	-8.59028
▁monde	-8.59279
▁amendments	-8.59409
▁adopted	-8.59521
▁Members	-8.59615
▁framework	-8.59728
▁jour	-8.5976
▁alors	-8.60155
▁l'on	-8.60167
▁again	-8.60474
▁crois	-8.60562
▁présidence	-8.60659
▁qu'	-8.60824
▁ici	-8.60904
▁:	-8.60904
▁aid	-8.60948
▁change	-8.61007
▁level	-8.6154
▁matter	-8.61562
▁areas	-8.61573
▁nécessaire	-8.61705
▁stratégie	-8.61744
▁vie	-8.61827
▁principe	-8.61858
▁For	-8.61939
▁va	-8.62211
▁eu	-8.62429
▁commune	-8.62779
▁S	-8.63001
▁ni	-8.63066
▁ask	-8.63242
▁House	-8.63487
▁basis	-8.63715
▁ils	-8.63855
▁première	-8.63925
▁Commissioner,	-8.63947
▁entreprises	-8.64148
▁What	-8.6418
▁députés	-8.64228
▁positive	-8.64426
▁proposals	-8.64915
▁women	-8.64984
▁second	-8.65071
▁But	-8.65171
▁Commissaire,	-8.65236
▁needs	-8.65308
▁européenne,	-8.65488
▁s'	-8.65535
▁bonne	-8.65558
▁health	-8.65761
▁règles	-8.65781
▁bon	-8.65806
▁communication	-8.66059
▁progress	-8.66085
▁group	-8.66109
▁recherche	-8.66272
▁actions	-8.66458
▁régions	-8.66551
▁vers	-8.66783
▁grand	-8.66897
▁wish	-8.67171
▁Mesdames	-8.67194
▁after	-8.67386
▁projet	-8.67483
▁crise	-8.67525
▁resolution	-8.67549
▁rules	-8.67743
▁year	-8.6783
▁d’une	-8.67857
▁garantir	-8.68241
▁result	-8.68422
▁fonds	-8.68452
▁done	-8.68894
▁aspects	-8.68959
▁go	-8.6935
▁lutte	-8.69779
▁l'homme	-8.6992
▁going	-8.69954
▁quelques	-8.69974
▁million	-8.69993
▁mes	-8.70022
▁nouveaux	-8.7005
▁sector	-8.701
▁welcome	-8.70292
▁qualité	-8.70406
▁working	-8.705
▁Union.	-8.70866
▁après	-8.70979
▁force	-8.71007
▁législation	-8.71052
p	-8.71075
▁towards	-8.71378
▁three	-8.71472
▁few	-8.71583
h	-8.7231
▁sous	-8.72452
▁Treaty	-8.72488
▁trois	-8.72559
▁lui	-8.72818
▁something	-8.7282
▁européens	-8.72864
able	-8.72953
▁voted	-8.73116
m	-8.7331
▁principle	-8.73391
▁C	-8.73649
▁dé	-8.73886
ir	-8.73904
▁selon	-8.73938
▁parties	-8.73977
▁decision	-8.74074
▁clairement	-8.74171
▁Présidente,	-8.74489
▁œuvre	-8.74636
▁procédure	-8.75096
▁population	-8.75288
▁remercier	-8.75396
▁là	-8.756
▁current	-8.75637
▁specific	-8.75803
▁provide	-8.75941
▁J'ai	-8.75991
▁voté	-8.76227
▁1	-8.76307
▁nouvelles	-8.76377
▁State	-8.76705
ticulièrement	-8.76862
▁nombreux	-8.76932
▁including	-8.77504
▁cause	-8.77668
▁approach	-8.77827
▁mis	-8.78028
▁seront	-8.78225
▁proposed	-8.78234
▁global	-8.78336
▁state	-8.7838
▁opportunity	-8.78414
▁nécessité	-8.78429
▁increase	-8.78927
▁really	-8.79033
▁shall	-8.7908
▁s'est	-8.79087
▁down	-8.7919
▁did	-8.792
▁account	-8.79371
▁initiative	-8.79411
▁find	-8.79436
dès	-8.79611
▁effective	-8.79648
en	-8.79743
▁justice	-8.80135
ne	-8.80187
▁whole	-8.80337
▁voir	-8.80459
▁forward	-8.80553
e.	-8.80686
ions	-8.80812
▁No	-8.81041
▁Group	-8.81121
▁used	-8.81128
▁pourrait	-8.81387
g	-8.81463
▁general	-8.8149
▁contribution	-8.81511
▁d’un	-8.81559
▁négociations	-8.81757
▁maintenant	-8.8191
▁real	-8.81937
▁especially	-8.81978
▁subject	-8.82032
▁service	-8.82038
▁during	-8.82187
▁every	-8.8224
▁trop	-8.82569
▁membre	-8.82778
▁plusieurs	-8.83027
▁law	-8.83455
▁course	-8.83496
▁become	-8.83739
ci	-8.83973
▁So	-8.84025
▁000	-8.84042
▁clearly	-8.84131
or	-8.84227
▁premier	-8.84344
▁autorités	-8.844
▁another	-8.84998
▁Nations	-8.85052
▁environmental	-8.85308
▁greater	-8.85548
▁reason	-8.8567
▁visant	-8.85813
▁serious	-8.85906
▁concerned	-8.85935
▁reste	-8.85993
▁ré	-8.86052
ro	-8.86143
▁organisations	-8.86169
▁quite	-8.86317
▁prix	-8.86585
▁least	-8.86765
▁chose	-8.86824
▁discussion	-8.86844
▁aucun	-8.86915
ur	-8.8707
▁surtout	-8.87171
f	-8.87233
▁research	-8.87321
▁rather	-8.87352
▁access	-8.87358
▁Une	-8.8746
▁ressources	-8.87471
▁?	-8.87747
és	-8.87908
▁Presidency	-8.87949
▁certaines	-8.88119
▁Europe,	-8.88198
ri	-8.88257
▁main	-8.88286
▁donner	-8.88382
▁Messieurs,	-8.8893
ée	-8.89042
▁They	-8.89056
▁back	-8.89065
▁mois	-8.89181
▁l'environnement	-8.8926
▁«	-8.89342
▁At	-8.89452
il	-8.89597
▁call	-8.89735
▁conséquent	-8.89767
▁responsabilité	-8.8986
▁small	-8.89955
▁opinion	-8.89991
▁course,	-8.90217
▁legislation	-8.90241
▁essential	-8.90276
▁voulons	-8.90367
▁always	-8.90385
▁euro	-8.90396
▁internal	-8.90582
▁Elle	-8.90587
▁tiens	-8.90597
▁get	-8.90649
ion	-8.90714
▁difficult	-8.90877
▁Ces	-8.91032
▁making	-8.91123
▁fundamental	-8.91127
▁comment	-8.91221
▁impact	-8.91398
▁10	-8.91644
▁major	-8.91706
▁sorte	-8.91778
▁excellent	-8.91839
▁Et	-8.91891
▁Au	-8.91939
▁achieve	-8.91948
▁These	-8.91948
▁together	-8.91969
▁States.	-8.92222
▁once	-8.92285
▁regulation	-8.92396
▁société	-8.9243
▁avez	-8.92448
▁third	-8.92476
▁Convention	-8.92496
▁croissance	-8.92604
▁hand	-8.92683
▁Comme	-8.92998
▁Commission's	-8.93257
▁employment	-8.93315
▁instruments	-8.9332
th	-8.93336
▁davantage	-8.93758
▁donné	-8.93758
▁final	-8.9395
▁soutenir	-8.94272
▁government	-8.94326
▁implementation	-8.94423
▁é	-8.94467
ar	-8.94473
▁taking	-8.94488
▁based	-8.94507
▁democratic	-8.94918
ront	-8.95001
▁Un	-8.95302
▁deal	-8.95495
▁12	-8.95951
▁juridique	-8.95958
▁dis	-8.96239
▁various	-8.96349
▁compris	-8.96478
▁responsibility	-8.96582
▁constitue	-8.96605
▁démocratie	-8.96644
▁safety	-8.96741
▁semble	-8.96749
at	-8.96766
▁inter	-8.96791
▁actuellement	-8.96834
▁strategy	-8.96997
▁propos	-8.97021
▁lorsque	-8.97064
ter	-8.97201
an	-8.97427
▁free	-8.97465
▁accept	-8.97529
▁création	-8.97731
▁propose	-8.97745
▁policies	-8.97784
▁20	-8.97806
▁violence	-8.97817
▁initiatives	-8.97847
▁EUR	-8.98038
▁document	-8.9807
▁each	-8.98318
▁negotiations	-8.9832
▁État	-8.98414
▁crisis	-8.98545
▁dernière	-8.98655
es.	-8.98706
▁souligner	-8.98755
▁liberté	-8.98806
▁elles	-8.98914
▁instrument	-8.98921
▁réponse	-8.98945
▁type	-8.99107
▁To	-8.99281
▁progrès	-8.99612
▁région	-8.99701
▁allow	-8.99873
▁con	-8.99878
▁example,	-8.99956
▁pêche	-9.00152
▁reform	-9.00259
▁yet	-9.00317
te	-9.00382
▁différents	-9.00628
▁participation	-9.00699
▁industry	-9.0072
▁souhaite	-9.00749
▁while	-9.00768
▁coordination	-9.0134
▁Government	-9.01365
▁texte	-9.01449
▁food	-9.01749
▁sociale	-9.01754
▁consider	-9.01868
▁souvent	-9.01874
▁look	-9.01913
▁power	-9.02274
▁full	-9.02357
▁itself	-9.02366
▁avis	-9.02374
’s	-9.02472
▁toutefois	-9.0253
▁économiques	-9.02611
ce	-9.02677
▁concerns	-9.02754
▁avait	-9.02801
ity	-9.02821
▁high	-9.02945
is	-9.03103
▁single	-9.03133
▁commerce	-9.03197
▁termes	-9.03289
▁her	-9.03401
▁travailleurs	-9.03529
▁rien	-9.03565
▁qu'une	-9.03604
▁affaires	-9.03664
▁n'	-9.03901
▁authorities	-9.03965
▁report.	-9.03967
▁M	-9.04002
▁gestion	-9.04029
▁années	-9.04107
▁form	-9.04131
▁mieux	-9.04154
▁resources	-9.04194
▁having	-9.04259
▁aura	-9.04261
▁freedom	-9.04457
▁sûr	-9.04794
▁dernier	-9.04874
▁concern	-9.049
5	-9.05021
▁objective	-9.05131
age	-9.05164
▁exemple	-9.0524
▁données	-9.05367
▁importante	-9.05437
▁concurrence	-9.0559
▁créer	-9.05717
▁collègues	-9.0573
▁interests	-9.0573
▁membres.	-9.05957
▁15	-9.06044
▁aucune	-9.0607
▁possibilité	-9.0612
▁nature	-9.06134
▁pu	-9.06151
▁step	-9.06156
▁existe	-9.06163
▁local	-9.06169
▁telle	-9.06426
▁trouver	-9.06458
▁France	-9.06572
on	-9.06753
▁things	-9.06779
st	-9.06797
li	-9.06952
▁lequel	-9.07025
▁demander	-9.07032
▁Lisbon	-9.07218
▁terme	-9.07243
▁best	-9.07305
▁décisions	-9.07508
us	-9.07551
▁renforcer	-9.07659
▁peace	-9.07678
▁culture	-9.07688
▁2	-9.0771
▁objectif	-9.07872
▁étant	-9.07916
▁résultats	-9.07947
▁ait	-9.07952
▁Toutefois	-9.07966
▁pris	-9.07979
e,	-9.08019
▁money	-9.08021
▁discussions	-9.08055
▁voie	-9.08061
aient	-9.08112
▁amendment	-9.08317
▁quality	-9.08447
▁moyens	-9.08573
▁celui	-9.0861
▁communautaire	-9.08638
▁Président	-9.08707
▁peut-être	-9.08752
▁tel	-9.08785
▁democracy	-9.08833
▁majority	-9.09042
▁période	-9.091
▁financement	-9.09268
▁permettre	-9.09511
▁d'abord	-9.09528
▁regions	-9.0977
▁recent	-9.09799
▁fully	-9.0996
▁11	-9.10005
▁européen.	-9.10089
▁sens	-9.10166
▁d'être	-9.10208
▁following	-9.10595
▁simply	-9.10624
▁majorité	-9.1074
▁often	-9.10754
▁européen,	-9.10774
▁quelque	-9.10817
▁nombreuses	-9.10905
▁relation	-9.10953
▁certainly	-9.10961
▁devraient	-9.11289
ité	-9.11371
▁bring	-9.11513
ance	-9.11702
▁States,	-9.11819
▁normes	-9.1198
▁application	-9.11985
▁domaines	-9.12069
▁agricultural	-9.12153
▁committee	-9.12199
▁unique	-9.12294
▁d'accord	-9.1257
▁extremely	-9.12734
▁juste	-9.12829
▁decisions	-9.12862
▁control	-9.13012
▁risk	-9.13085
▁aware	-9.13107
isation	-9.13282
▁create	-9.13289
▁countries.	-9.13367
▁And	-9.13443
▁deuxième	-9.1346
▁entendu	-9.13558
▁(DE)	-9.1373
▁Article	-9.14083
▁réforme	-9.14094
▁internationale	-9.14338
▁Enfin	-9.145
▁accords	-9.14505
ive	-9.14627
▁growth	-9.14645
▁5	-9.14758
▁improve	-9.14999
▁funds	-9.152
▁start	-9.15326
▁groupes	-9.15514
▁projets	-9.15674
▁celle	-9.15691
▁relative	-9.15738
▁essentiel	-9.15753
▁fight	-9.15826
▁involved	-9.15854
▁competition	-9.15892
▁understand	-9.16123
im	-9.16189
▁3	-9.16322
▁E	-9.16427
▁(EN)	-9.1646
▁Parliament,	-9.16468
▁simplement	-9.16468
▁might	-9.16718
▁exemple,	-9.16772
▁open	-9.16826
’	-9.16932
▁conclusions	-9.17049
▁qu'un	-9.17059
▁égard	-9.17238
▁actually	-9.17279
▁developing	-9.17331
▁companies	-9.17347
▁doute	-9.1744
▁products	-9.17517
▁approche	-9.17565
▁Union,	-9.17572
▁Court	-9.17581
▁example	-9.17638
▁interest	-9.17732
▁crucial	-9.17814
▁D	-9.18123
▁consommateurs	-9.18383
▁regional	-9.1839
la	-9.18609
▁général	-9.18701
▁mentioned	-9.18761
▁devrions	-9.18876
▁available	-9.18911
▁meeting	-9.19018
di	-9.19181
▁economy	-9.1923
▁procedure	-9.19238
es,	-9.19288
▁écrit.	-9.19431
▁quant	-9.19612
▁society	-9.19637
▁message	-9.1967
▁appropriate	-9.19716
▁suite	-9.19872
▁You	-9.199
▁solutions	-9.19931
▁indeed	-9.19964
▁Let	-9.2
▁efficace	-9.20014
▁risque	-9.20121
ch	-9.20146
▁contexte	-9.20191
ez	-9.20303
▁stabilité	-9.2034
▁states	-9.20342
▁l'accord	-9.20408
▁climate	-9.20451
▁objectives	-9.20456
▁intérêts	-9.20668
▁report,	-9.20729
▁environment	-9.20755
▁Finally	-9.21028
v	-9.21376
▁currently	-9.2144
▁collègues,	-9.21489
▁clair	-9.21538
▁marchés	-9.21558
▁concerning	-9.21651
▁ailleurs	-9.21746
▁choses	-9.21833
▁européennes	-9.21974
▁individual	-9.22052
▁l'ensemble	-9.22065
▁six	-9.22068
▁policy.	-9.2213
▁forces	-9.22191
▁dispositions	-9.22208
▁l'avenir	-9.22406
▁vraiment	-9.22558
▁propre	-9.22742
▁cependant	-9.22769
▁text	-9.23007
▁education	-9.23127
▁promote	-9.2322
▁Assemblée	-9.23395
▁data	-9.23428
▁seule	-9.2344
▁changement	-9.23606
▁B	-9.23754
ées	-9.23775
▁period	-9.2385
rait	-9.24043
▁key	-9.2408
▁standards	-9.24113
▁responsible	-9.24149
▁jamais	-9.24166
▁convient	-9.24471
▁Vous	-9.24563
▁aide	-9.24592
▁Conseil,	-9.24606
▁feel	-9.2462
▁formation	-9.24665
▁compromis	-9.24682
▁n'y	-9.24695
▁C’est	-9.24768
b	-9.24876
▁États-Unis	-9.24893
▁7	-9.25042
▁aim	-9.25069
▁tax	-9.25202
▁agreements	-9.2523
ic	-9.25319
▁children	-9.25327
▁civil	-9.25395
▁principes	-9.25409
▁Cour	-9.25431
▁compromise	-9.25447
ers	-9.25475
▁simple	-9.25708
▁thing	-9.26
▁date	-9.26041
▁raisons	-9.26062
▁réalité	-9.26257
▁management	-9.2629
▁quand	-9.26319
lo	-9.26353
▁plutôt	-9.26443
▁let	-9.26473
▁doing	-9.26551
▁activités	-9.26593
▁extrêmement	-9.2671
▁kind	-9.26817
▁nécessaires	-9.26842
▁19	-9.26987
▁font	-9.27093
▁members	-9.27114
▁n'ont	-9.27133
▁direction	-9.2724
▁publique	-9.27369
▁rendre	-9.27429
▁parler	-9.27514
▁it.	-9.27516
▁With	-9.276
▁P	-9.2765
▁promotion	-9.27668
▁l'article	-9.27678
▁titre	-9.2775
▁lack	-9.28072
▁transparence	-9.28155
▁volonté	-9.28264
me	-9.2843
▁répondre	-9.28588
▁rapidement	-9.2863
▁remercie	-9.28712
▁l'emploi	-9.29158
▁prevent	-9.29349
▁e	-9.29362
1	-9.29378
▁dernières	-9.29424
▁année	-9.29552
▁met	-9.29636
au	-9.29721
ement	-9.29789
est	-9.2987
ont	-9.30026
▁conséquences	-9.30056
▁joint	-9.30403
▁appelle	-9.30465
▁Parliament's	-9.30585
▁principles	-9.30613
▁zone	-9.30789
▁c’est	-9.30794
".	-9.30861
▁informations	-9.30901
▁sommet	-9.30931
▁déclaration	-9.31005
▁act	-9.3107
▁commitment	-9.31134
▁capital	-9.31156
▁draft	-9.31185
▁cases	-9.31257
▁signifie	-9.31343
▁Cependant	-9.31353
▁démocratique	-9.31361
▁réduire	-9.3139
▁puisse	-9.31474
▁membres,	-9.31527
▁congratulate	-9.3154
▁preuve	-9.31579
▁countries,	-9.31634
▁though	-9.31654
▁pay	-9.31706
▁benefit	-9.31746
▁tels	-9.31821
ul	-9.31942
▁effort	-9.32023
▁vu	-9.32176
▁Council,	-9.32314
▁collègue	-9.32349
7	-9.32351
▁différentes	-9.32385
▁n’est	-9.32407
▁l'aide	-9.32409
▁idea	-9.32531
▁regards	-9.32736
▁special	-9.32737
▁paix	-9.32741
▁due	-9.3277
▁life	-9.33041
▁Affairs	-9.33052
▁intervention	-9.33056
▁rural	-9.33072
▁enlargement	-9.33107
▁discrimination	-9.33175
▁devant	-9.33205
▁Turkey	-9.33209
▁assistance	-9.33256
▁moyen	-9.33271
▁line	-9.33367
▁among	-9.33425
▁funding	-9.33446
▁solidarité	-9.33457
▁représente	-9.33521
▁8	-9.3383
▁chers	-9.33922
▁Fonds	-9.34031
▁difficile	-9.34054
▁effect	-9.34054
6	-9.34065
▁meilleure	-9.34089
▁field	-9.34094
ate	-9.34144
▁longer	-9.34169
▁My	-9.34363
▁peux	-9.34473
▁significant	-9.34534
aux	-9.3456
▁conclusion	-9.34636
▁young	-9.34687
▁them.	-9.35205
▁total	-9.35266
▁encourage	-9.35338
▁note	-9.35367
▁qu'en	-9.35434
▁writing.	-9.35438
▁although	-9.3547
▁true	-9.35479
▁adopté	-9.3559
▁mean	-9.35774
▁little	-9.3586
tra	-9.35972
▁jeunes	-9.35991
»	-9.36103
▁systèmes	-9.3612
▁dimension	-9.3615
▁mention	-9.36286
▁ago	-9.36303
▁savons	-9.36382
▁Tout	-9.36566
▁cohésion	-9.36674
▁legislative	-9.36716
▁25	-9.36811
▁pendant	-9.36831
▁commun	-9.36931
▁adopt	-9.36944
▁strong	-9.37007
▁nothing	-9.3702
▁grâce	-9.37078
▁context	-9.37086
▁aspect	-9.37091
▁provided	-9.37292
▁financière	-9.37345
▁frontières	-9.37371
▁results	-9.37476
▁gouvernements	-9.37609
▁régime	-9.37614
id	-9.37656
ge	-9.37666
▁forme	-9.37683
▁war	-9.37812
▁agricole	-9.3784
▁G	-9.38036
▁sustainable	-9.38053
▁30	-9.38078
▁trouve	-9.38098
▁personne	-9.38099
▁seul	-9.38134
▁féliciter	-9.38192
▁include	-9.38206
▁Amendment	-9.3827
▁confiance	-9.38272
3	-9.38276
▁Directive	-9.38312
▁manque	-9.38324
ta	-9.38373
▁foreign	-9.38392
▁contraire	-9.38416
▁perhaps	-9.38422
▁ans	-9.38424
▁guarantee	-9.38448
▁governments	-9.38473
de	-9.38475
▁move	-9.38559
4	-9.38753
▁début	-9.38847
▁remain	-9.38856
▁sanctions	-9.38865
▁assurer	-9.3891
▁lead	-9.39043
▁mondiale	-9.39106
▁labour	-9.39126
▁intérieur	-9.39222
▁possible.	-9.3934
▁documents	-9.39375
▁perspective	-9.3943
▁nuclear	-9.39433
▁résultat	-9.39444
▁réduction	-9.39663
▁speak	-9.39667
▁occasion	-9.39804
▁critères	-9.39854
▁all,	-9.39964
▁addition	-9.40033
▁taux	-9.40056
▁above	-9.40334
ré	-9.40345
▁workers	-9.40394
▁play	-9.40435
▁;	-9.40508
▁ministre	-9.40543
▁aurait	-9.40606
▁guerre	-9.40631
▁ensemble	-9.40662
▁regarding	-9.40724
▁véritable	-9.40852
▁off	-9.41042
▁technologies	-9.41077
▁agreed	-9.41434
▁Parliament.	-9.41539
▁consumer	-9.41575
▁telles	-9.41637
-in-Office	-9.41816
▁close	-9.41821
▁exercice	-9.41857
▁needed	-9.4222
▁Ma	-9.42293
▁business	-9.42534
▁transparency	-9.42596
▁qu'à	-9.42673
▁themselves	-9.42716
▁Constitution	-9.42774
▁words	-9.42937
▁4	-9.43042
▁construction	-9.43061
▁libre	-9.43083
▁seen	-9.43096
▁consumers	-9.4313
▁enfants	-9.43171
▁response	-9.43201
▁answer	-9.43384
▁améliorer	-9.43481
▁several	-9.43512
▁présente	-9.43579
▁vital	-9.43581
▁direct	-9.43605
▁sure	-9.43695
▁procédures	-9.43733
▁travers	-9.43773
▁valeurs	-9.44007
▁d'a	-9.44009
co	-9.44068
▁parti	-9.44068
▁months	-9.44082
▁consensus	-9.44112
k	-9.44135
vo	-9.44191
▁Our	-9.44269
▁balance	-9.44451
▁6	-9.4452
▁relatives	-9.44582
▁reasons	-9.4461
▁police	-9.44633
▁share	-9.44842
as	-9.44869
▁protect	-9.44899
ating	-9.44937
▁apply	-9.45022
▁prises	-9.45145
▁tiers	-9.45147
▁l’Europe	-9.45256
▁durable	-9.45294
▁l’a	-9.45439
▁costs	-9.45489
▁upon	-9.45624
▁projects	-9.45636
▁motion	-9.45667
x	-9.45815
▁référence	-9.45856
▁réellement	-9.45907
▁achieved	-9.46114
▁comes	-9.46149
▁prise	-9.46241
▁matters	-9.46273
▁propres	-9.46289
▁uniquement	-9.4634
▁per	-9.46494
▁F	-9.4656
▁rapports	-9.46569
▁combat	-9.4659
▁élections	-9.46601
▁Minister	-9.46615
▁mer	-9.46622
▁rappeler	-9.46695
▁victimes	-9.46851
I	-9.46861
▁plans	-9.46869
▁reports	-9.46876
▁technical	-9.46879
▁priority	-9.46961
ise	-9.47124
▁demand	-9.4713
▁certainement	-9.47141
ais	-9.47281
▁content	-9.47314
2	-9.47323
▁investment	-9.47336
▁13	-9.47432
▁groups	-9.47458
▁l'industrie	-9.47483
▁makes	-9.4764
▁9	-9.47647
▁f	-9.47755
▁concept	-9.47791
ex	-9.47842
▁enough	-9.47857
▁promouvoir	-9.47862
▁condition	-9.47887
▁chance	-9.47895
▁rapport.	-9.481
▁active	-9.48105
▁l'amendement	-9.48248
▁l'économie	-9.48322
▁him	-9.48409
▁T	-9.48442
▁veut	-9.48448
▁systems	-9.48568
▁mind	-9.48615
▁One	-9.48648
▁demandé	-9.48753
▁Bien	-9.48799
▁activities	-9.48874
▁outre,	-9.49003
▁veiller	-9.49007
vi	-9.49026
▁J'espère	-9.49036
▁seems	-9.49055
▁pays.	-9.49055
▁pratique	-9.491
▁All	-9.49112
▁s'il	-9.49149
▁L’	-9.49192
▁accession	-9.49194
▁draw	-9.49207
▁personnel	-9.49241
▁moi	-9.49362
▁tenir	-9.49375
▁provisions	-9.49402
▁pleased	-9.49429
▁session	-9.4966
▁voting	-9.49709
▁colleagues	-9.4975
▁existing	-9.49769
▁express	-9.49811
▁l'année	-9.49868
▁Des	-9.50021
▁Thank	-9.50022
▁obligations	-9.50051
che	-9.50156
▁nationales	-9.50292
▁mission	-9.50293
▁train	-9.50391
▁sources	-9.50395
ence	-9.50399
▁protéger	-9.50518
▁autant	-9.50541
▁fondamentaux	-9.50558
▁défense	-9.50645
▁vrai	-9.50754
▁short	-9.50987
▁urgent	-9.51071
▁stability	-9.51087
▁Kosovo	-9.51098
).	-9.51126
▁l'importance	-9.51131
▁others	-9.51157
▁influence	-9.51233
▁Secondly,	-9.51258
▁UN	-9.51264
▁Turquie	-9.51344
▁ourselves	-9.5137
▁parvenir	-9.51375
▁minimum	-9.51416
▁respecter	-9.51428
▁Communauté	-9.51435
▁priorité	-9.51569
▁central	-9.51569
▁porte	-9.51575
▁region	-9.51621
▁reduce	-9.51786
▁Union's	-9.51793
▁mal	-9.51799
▁commercial	-9.51939
▁changes	-9.51988
▁évidemment	-9.51999
▁Parlement,	-9.52057
ated	-9.52073
▁soon	-9.52135
▁centrale	-9.52162
▁China	-9.52575
▁dois	-9.52659
con	-9.52736
▁until	-9.52888
▁cohesion	-9.52945
▁creation	-9.52945
▁présenter	-9.5297
ou	-9.52977
▁develop	-9.53055
▁agenda	-9.53091
▁coûts	-9.53103
▁impossible	-9.5313
▁question.	-9.53222
▁basic	-9.5326
▁ex	-9.53324
▁cultural	-9.53379
▁everyone	-9.53472
▁directives	-9.53496
▁value	-9.53625
▁vigueur	-9.53674
ner	-9.53698
▁project	-9.53707
ism	-9.53729
té	-9.53792
▁never	-9.53888
▁financier	-9.5391
▁voter	-9.53921
to	-9.54107
go	-9.54157
▁grandes	-9.54169
▁14	-9.54202
▁sense	-9.54202
▁solidarity	-9.5421
▁she	-9.54287
▁nationaux	-9.54343
▁saying	-9.54544
▁carried	-9.5458
va	-9.54591
▁rule	-9.546
▁18	-9.54702
▁petites	-9.54802
▁conflict	-9.54977
▁statement	-9.55023
et	-9.55177
▁rapporteurs	-9.55238
▁show	-9.55312
▁agriculture	-9.55317
▁éléments	-9.5542
▁collaboration	-9.5545
▁military	-9.55551
▁Ils	-9.5574
▁increased	-9.5574
▁asked	-9.55773
▁tabled	-9.5579
op	-9.55844
▁consequences	-9.55845
▁absolument	-9.55937
aire	-9.55952
▁zones	-9.56118
▁equal	-9.56149
▁item	-9.56164
▁priorités	-9.5617
▁ten	-9.56215
▁énergétique	-9.56306
O	-9.56348
ma	-9.56406
▁held	-9.5643
▁increasing	-9.56465
▁relating	-9.56483
▁étaient	-9.56507
▁amendement	-9.5658
▁sociaux	-9.56664
A	-9.56686
▁farmers	-9.567
▁précisément	-9.56791
nd	-9.568
▁request	-9.56836
▁tenu	-9.56862
▁future.	-9.56927
▁consultation	-9.56955
▁produit	-9.57113
▁générale	-9.57259
▁permet	-9.57271
▁namely	-9.57319
▁Re	-9.57363
▁keep	-9.57373
ca	-9.57419
▁travailler	-9.57469
▁training	-9.57498
▁meet	-9.57589
▁When	-9.57836
▁réunion	-9.57865
▁requirements	-9.57907
▁parole	-9.5791
▁‘	-9.5791
▁loin	-9.57943
▁required	-9.58127
▁pressure	-9.58136
▁qu'elles	-9.58151
ie	-9.58158
▁l'un	-9.58175
▁regulations	-9.58203
▁paragraphe	-9.58206
▁accepter	-9.58279
▁integration	-9.58304
▁crime	-9.58314
▁transports	-9.58342
▁ban	-9.58406
▁continuer	-9.58453
▁fishing	-9.58493
▁totalement	-9.585
▁d'avoir	-9.58535
ad	-9.58559
▁dépenses	-9.58578
▁job	-9.58635
▁everything	-9.58704
▁d’autres	-9.58926
▁presented	-9.58962
isme	-9.59156
▁peuple	-9.59172
▁organisation	-9.59218
▁proposé	-9.59234
▁success	-9.5926
▁traitement	-9.59401
▁hommes	-9.59429
▁développer	-9.59474
▁policy,	-9.59501
ique	-9.59513
▁l'utilisation	-9.59554
▁thus	-9.59558
▁doubt	-9.5957
▁water	-9.59674
▁parmi	-9.59708
▁Russie	-9.59769
▁celles	-9.59869
▁opportunities	-9.59878
▁adoption	-9.59911
▁four	-9.60002
▁prochaine	-9.60077
▁jobs	-9.60128
▁He	-9.60151
▁l’UE	-9.60155
▁billion	-9.60201
▁jusqu'à	-9.60239
rons	-9.6024
▁statut	-9.60264
▁relevant	-9.60312
w	-9.60569
▁external	-9.60575
▁throughout	-9.60641
▁package	-9.6065
▁conférence	-9.60687
▁potential	-9.60706
▁gens	-9.60731
▁considération	-9.60783
▁signal	-9.60808
▁substances	-9.60836
lé	-9.60871
▁partenaires	-9.60883
▁administrative	-9.60925
▁2000	-9.61012
▁review	-9.61082
▁task	-9.61102
▁immigration	-9.61115
ist	-9.61213
▁convention	-9.61273
▁O	-9.6128
▁réformes	-9.61289
▁n’a	-9.61301
▁financières	-9.61342
8	-9.61364
▁quel	-9.6146
▁17	-9.61515
pp	-9.61668
▁d'action	-9.61678
▁g	-9.61888
▁rest	-9.61902
▁budgetary	-9.61935
▁phase	-9.6196
mp	-9.62093
▁résoudre	-9.62138
▁valeur	-9.62161
les	-9.62195
▁capacité	-9.6222
▁non-	-9.62277
na	-9.62301
▁semaine	-9.62317
▁called	-9.62464
▁structure	-9.62503
▁l'objet	-9.62519
▁road	-9.6255
▁présenté	-9.62646
lu	-9.6265
▁l'heure	-9.62719
▁peine	-9.6287
mi	-9.62886
▁pratiques	-9.62982
▁address	-9.62987
ary	-9.63043
▁Or	-9.63057
▁waste	-9.63216
▁charge	-9.63236
▁monétaire	-9.63237
▁t	-9.63255
▁quoi	-9.63278
▁around	-9.63347
▁movement	-9.63408
▁difficultés	-9.63469
▁Party	-9.63501
▁secteurs	-9.63538
▁pleinement	-9.63566
▁budgétaire	-9.63597
▁men	-9.63632
▁community	-9.6365
▁jouer	-9.63664
▁po	-9.63719
▁tell	-9.6379
▁criteria	-9.63809
▁institution	-9.63819
▁Fund	-9.63879
▁constituent	-9.63881
▁prepared	-9.63897
▁values	-9.6392
ness	-9.64041
▁decided	-9.641
▁Schengen	-9.64217
qui	-9.64217
un	-9.64229
▁pro	-9.64326
▁grands	-9.64326
ck	-9.64349
▁attitude	-9.64383
▁qu'on	-9.64386
▁côté	-9.64471
▁fort	-9.6464
▁mort	-9.64729
▁50	-9.64757
▁lesquels	-9.64867
▁Rights	-9.64926
▁Russia	-9.64939
▁contribuer	-9.65073
▁cost	-9.65083
▁eux	-9.65099
▁sort	-9.65193
▁séance	-9.6529
▁market.	-9.65406
▁partenariat	-9.65452
▁passer	-9.65587
▁félicite	-9.65666
▁(PL)	-9.65706
▁quatre	-9.65866
▁term	-9.6604
▁l'agriculture	-9.66097
▁previous	-9.66158
pe	-9.66178
▁stress	-9.66269
▁l'énergie	-9.66271
▁financiers	-9.66288
▁focus	-9.66303
▁permettant	-9.66332
▁reached	-9.66343
▁16	-9.66374
▁constructive	-9.66395
▁commencer	-9.66756
▁monitoring	-9.66766
▁aujourd’hui	-9.66778
▁puissent	-9.66808
▁partage	-9.6682
▁raised	-9.66837
▁expressed	-9.66911
▁establish	-9.66967
),	-9.66984
▁2004	-9.67035
▁perspectives	-9.67164
▁procedures	-9.67175
▁using	-9.67227
▁communauté	-9.67295
ia	-9.67416
▁considère	-9.67429
▁vos	-9.67461
▁Notre	-9.67563
▁déclaré	-9.6758
▁K	-9.67598
▁danger	-9.678
▁temps,	-9.67857
▁circulation	-9.67889
▁amount	-9.67895
▁experience	-9.67916
▁talking	-9.67918
▁across	-9.67997
▁Parlement.	-9.68152
▁elections	-9.68225
▁Therefore,	-9.68242
00	-9.68328
▁challenges	-9.68477
▁Lisbonne	-9.68489
▁exigences	-9.68505
▁renforcement	-9.6863
▁implement	-9.68669
▁light	-9.68672
▁live	-9.68687
▁illegal	-9.68721
▁pourra	-9.68758
▁cinq	-9.68781
▁liste	-9.68783
ill	-9.68866
▁réglementation	-9.68923
▁fair	-9.68943
▁parlementaire	-9.68963
▁moi,	-9.69086
▁expect	-9.69157
▁pourraient	-9.69223
um	-9.69342
à	-9.69403
▁markets	-9.69413
▁poursuivre	-9.69462
▁vient	-9.69463
▁private	-9.69477
▁practice	-9.69544
9	-9.6956
▁Ireland	-9.69599
▁try	-9.69653
▁travaux	-9.69736
▁actuelle	-9.69747
▁mandat	-9.69829
▁compétences	-9.69904
▁l'occasion	-9.69917
ts	-9.6993
▁Chine	-9.6994
▁reach	-9.69947
▁fellow	-9.7001
▁fisheries	-9.70024
▁included	-9.70049
ign	-9.70052
▁devoir	-9.70107
▁1999	-9.70122
▁structures	-9.70173
▁risques	-9.7019
▁permis	-9.70209
iser	-9.70278
▁reduction	-9.7029
▁compétitivité	-9.70313
▁comprendre	-9.70405
▁permettra	-9.70589
▁French	-9.70713
▁turn	-9.70722
▁série	-9.70737
▁chômage	-9.70755
▁civile	-9.70812
▁sais	-9.70821
▁poverty	-9.70836
▁powers	-9.70855
▁hard	-9.70873
▁27	-9.70874
▁absolutely	-9.70924
▁found	-9.7093
▁quickly	-9.70952
▁rapport,	-9.71017
▁grave	-9.71031
▁apporter	-9.71044
▁décidé	-9.71055
▁engagement	-9.71114
ting	-9.71145
▁dû	-9.71228
▁l'élargissement	-9.71358
▁add	-9.71418
▁established	-9.71489
▁price	-9.71519
▁talk	-9.7165
▁presidency	-9.71687
▁enable	-9.71779
▁recently	-9.71899
▁W	-9.71909
▁l'objectif	-9.71918
▁besoins	-9.71967
▁éviter	-9.72022
▁strengthen	-9.72026
▁outside	-9.72077
▁acceptable	-9.72184
▁vision	-9.72186
▁ensuite	-9.72219
▁victims	-9.7227
▁malheureusement	-9.72318
▁coming	-9.72377
▁loi	-9.72421
▁pauvreté	-9.72456
▁spécifiques	-9.72497
▁Deuxièmement	-9.72585
▁correct	-9.72618
▁Conference	-9.7267
▁day	-9.72725
▁times	-9.72748
▁quelle	-9.72759
▁adopter	-9.72878
▁profit	-9.72884
▁modèle	-9.72896
▁years.	-9.72922
▁court	-9.72933
▁élément	-9.72995
▁choix	-9.73038
▁five	-9.73052
▁candidats	-9.73129
▁révision	-9.73139
ct	-9.73143
▁week	-9.73218
▁possibilités	-9.73294
F	-9.73295
▁Council.	-9.73363
▁criminal	-9.73388
▁Development	-9.73478
▁source	-9.73486
▁additional	-9.73525
▁supported	-9.73605
▁d'euros	-9.73661
▁l'UE.	-9.73716
▁lot	-9.73724
▁levels	-9.73766
▁list	-9.73829
▁assez	-9.73879
▁table	-9.7396
ns	-9.74018
▁positions	-9.74077
▁May	-9.74123
▁pression	-9.7414
▁l'État	-9.74185
▁vis-à-vis	-9.74192
▁consiste	-9.74286
▁ministres	-9.743
▁particulière	-9.74301
▁completely	-9.74324
▁begin	-9.74347
▁past	-9.74385
▁structural	-9.74507
S	-9.74579
am	-9.74599
▁remind	-9.74669
▁Conseil.	-9.74688
▁effects	-9.74846
▁model	-9.74929
▁pose	-9.74954
▁brought	-9.75128
▁ever	-9.75507
▁lutter	-9.75546
▁pollution	-9.75591
▁giving	-9.75737
▁enfin	-9.75763
▁treatment	-9.75831
▁aider	-9.75925
▁fournir	-9.76076
▁fonctionnement	-9.76238
▁rights.	-9.76516
▁aides	-9.76526
▁derniers	-9.76579
▁près	-9.76628
▁maritime	-9.76646
▁air	-9.76653
▁réjouis	-9.76724
▁US	-9.76755
▁défis	-9.76775
▁donne	-9.76843
▁summit	-9.7688
▁opposition	-9.77041
▁extent	-9.77046
▁responsables	-9.77155
▁regret	-9.7717
▁emissions	-9.77184
▁2009	-9.77261
▁December	-9.77321
▁avoid	-9.77321
▁d'ailleurs	-9.77321
▁Republic	-9.77322
▁chacun	-9.77334
▁représentants	-9.77407
mo	-9.77418
▁ayant	-9.77458
▁milliards	-9.77497
▁stage	-9.77507
▁thanks	-9.77525
▁unemployment	-9.77558
▁communautaires	-9.77633
▁indispensable	-9.77638
ni	-9.77644
▁priorities	-9.77648
▁took	-9.77656
▁vont	-9.77696
▁received	-9.77711
▁passe	-9.77767
▁businesses	-9.77788
▁possibility	-9.77795
▁travail.	-9.77836
▁importants	-9.77856
▁applied	-9.77884
▁décembre	-9.77884
▁surveillance	-9.77884
▁year.	-9.77898
▁stop	-9.77944
▁heard	-9.77984
rai	-9.78032
▁effets	-9.78083
▁representatives	-9.78142
▁time.	-9.78158
▁along	-9.78193
▁jours	-9.7824
▁pré	-9.78253
▁ensuring	-9.78288
▁passé	-9.78347
▁puisque	-9.78383
▁centre	-9.78397
▁Of	-9.78403
ll	-9.78413
▁almost	-9.78451
▁EU's	-9.78496
▁devra	-9.78589
▁Agreement	-9.78601
▁plupart	-9.78601
▁approved	-9.78642
▁c	-9.78682
▁Firstly	-9.78714
▁prices	-9.78739
ut	-9.78827
▁natural	-9.78843
ordre	-9.7891
▁situations	-9.7896
▁reforms	-9.79024
ine	-9.7905
▁years,	-9.7906
▁either	-9.79279
▁L'Union	-9.79326
▁2005	-9.79391
▁assessment	-9.79411
▁British	-9.79443
▁proper	-9.79464
▁International	-9.79488
▁lesquelles	-9.79549
▁co	-9.79643
▁discussed	-9.79696
▁Bank	-9.79812
▁side	-9.7984
▁away	-9.79927
▁investissements	-9.79941
▁behind	-9.79943
▁confidence	-9.79976
▁Furthermore	-9.79988
▁offer	-9.80054
▁creating	-9.80094
▁discuss	-9.80107
▁living	-9.80171
▁contribute	-9.80213
▁constater	-9.80245
▁constitution	-9.80269
▁East	-9.80292
▁techniques	-9.80294
▁practical	-9.80329
▁connection	-9.80349
▁care	-9.80407
▁double	-9.80414
▁budgets	-9.80466
▁j'	-9.80469
",	-9.80532
▁l'application	-9.80544
▁sitting	-9.80646
▁publics	-9.8069
▁Justice	-9.80782
▁troisième	-9.80787
▁left	-9.8081
▁competitiveness	-9.80893
▁conflit	-9.80956
▁quotas	-9.80958
▁you,	-9.8096
▁actuel	-9.81008
▁2003	-9.8118
▁conclure	-9.81187
man	-9.81324
ly,	-9.81349
▁yeux	-9.81509
▁intention	-9.81512
▁souligné	-9.81843
▁Europe's	-9.81863
▁importantes	-9.81956
▁level.	-9.82036
ver	-9.82118
▁innovation	-9.8213
▁conformément	-9.82215
▁l'ordre	-9.82245
▁territoire	-9.82281
ve	-9.82318
ous	-9.82373
▁situation.	-9.82379
▁guidelines	-9.82607
▁unies	-9.82632
▁fonction	-9.82709
▁parliamentary	-9.82741
▁environnemental	-9.8279
▁émissions	-9.82806
▁vise	-9.82813
▁events	-9.82912
▁l'adoption	-9.82916
▁sociales	-9.82942
▁rate	-9.82959
▁2002	-9.82974
▁succès	-9.83072
aires	-9.8322
▁reçu	-9.83276
▁c'est-à-dire	-9.8337
▁capacity	-9.83379
▁rapide	-9.83394
▁montre	-9.8343
▁year,	-9.83498
ations	-9.83597
▁agriculteurs	-9.83638
▁Regulation	-9.83842
▁emplois	-9.83871
▁receive	-9.83917
ag	-9.83917
▁etc.	-9.8392
▁suivi	-9.83974
▁nor	-9.84055
▁mondial	-9.84091
▁remains	-9.8411
▁pensons	-9.84114
▁Mon	-9.84122
▁scope	-9.84269
▁favorable	-9.84281
▁world.	-9.84328
▁technique	-9.84331
▁old	-9.84382
▁challenge	-9.84419
▁gaz	-9.84429
em	-9.84472
▁home	-9.84646
▁huge	-9.84669
▁d'entre	-9.84744
▁alternative	-9.84772
▁certaine	-9.84779
▁violations	-9.84786
tre	-9.84799
▁changements	-9.8481
▁defence	-9.84826
▁Permettez-moi	-9.84874
▁introduction	-9.85079
▁nations	-9.85241
min	-9.85284
▁capable	-9.85326
▁positif	-9.85375
▁considered	-9.8545
▁family	-9.85562
▁République	-9.85564
▁s’	-9.85589
▁animaux	-9.8561
▁récemment	-9.85706
▁mener	-9.85816
▁days	-9.85821
if	-9.85867
▁responsable	-9.85886
▁2001	-9.85922
▁affected	-9.85979
▁considérable	-9.8604
▁s’agit	-9.86077
▁despite	-9.86126
ed.	-9.86186
▁effectivement	-9.86205
▁aimed	-9.86247
▁origin	-9.86278
▁Central	-9.86303
▁humanitarian	-9.86306
▁claire	-9.86351
▁coup	-9.86417
▁transparent	-9.86546
▁puis	-9.86583
▁return	-9.86596
▁producteurs	-9.86604
▁Internet	-9.86624
ty	-9.86685
▁alimentaire	-9.86935
T	-9.87002
ai	-9.87025
▁veux	-9.87051
▁contenu	-9.87062
▁définition	-9.87102
▁caractère	-9.87115
D	-9.87122
ling	-9.87219
▁forte	-9.87278
▁World	-9.87278
▁soutiens	-9.87284
▁precisely	-9.87334
▁désormais	-9.8736
▁hold	-9.87362
▁l'égard	-9.87377
▁o	-9.87405
▁difficulties	-9.87421
▁asylum	-9.87523
▁trying	-9.87529
▁First	-9.87531
▁implemented	-9.87537
▁responsabilités	-9.87551
ti	-9.87561
less	-9.87645
end	-9.87729
▁personal	-9.87783
cé	-9.87803
▁sport	-9.87825
▁d'en	-9.87881
▁souhaiterais	-9.87893
▁haut	-9.87947
▁media	-9.87949
▁Economic	-9.87966
▁An	-9.87996
▁supply	-9.87999
▁j’ai	-9.88018
▁sérieux	-9.88035
▁(PT)	-9.88049
▁rights,	-9.88074
▁regime	-9.88135
▁efficiency	-9.88164
▁partnership	-9.88174
▁decide	-9.88238
om	-9.88246
▁carry	-9.88385
▁shown	-9.88399
mé	-9.88449
▁reference	-9.88463
▁supplémentaires	-9.88464
▁fond	-9.88474
▁June	-9.88515
▁limit	-9.8853
▁instead	-9.88643
▁continent	-9.88689
▁conscience	-9.88825
▁today.	-9.88909
▁dealing	-9.88922
▁export	-9.88939
▁animal	-9.88946
▁developed	-9.88974
▁déchets	-9.89008
▁union	-9.89053
▁adoptée	-9.8909
▁obstacles	-9.89103
▁produce	-9.8916
▁ACP	-9.89162
▁partners	-9.89214
▁suivre	-9.89224
▁honourable	-9.89232
▁évident	-9.89349
N	-9.89377
▁conciliation	-9.89441
▁années,	-9.8945
▁ligne	-9.89536
▁dix	-9.89548
ten	-9.89548
ants	-9.89581
▁beginning	-9.89595
'.	-9.89607
▁half	-9.89609
▁accordance	-9.89626
do	-9.89683
▁providing	-9.89692
▁maintain	-9.89779
ment,	-9.89858
no	-9.89888
C	-9.89893
eur	-9.89899
▁directive.	-9.89952
▁technology	-9.90077
▁libéralisation	-9.90114
▁juin	-9.90123
▁takes	-9.90156
▁oil	-9.90178
▁Nord	-9.90213
▁atteindre	-9.90296
▁qu’elle	-9.90355
▁purpose	-9.90361
res	-9.90366
▁utile	-9.9039
▁prévention	-9.90431
▁parle	-9.90524
▁improving	-9.90549
▁2020	-9.90633
▁tard	-9.90643
▁reading	-9.90678
▁citizens.	-9.90701
▁parfois	-9.90701
▁former	-9.9073
per	-9.90767
▁internationales	-9.90773
▁maintenir	-9.90802
▁demain	-9.9093
▁committed	-9.90956
▁corruption	-9.91007
urs	-9.91018
▁stand	-9.91063
▁route	-9.91139
▁death	-9.91141
▁paquet	-9.91141
▁longtemps	-9.91164
▁biais	-9.9118
tant	-9.91204
▁consideration	-9.91209
▁benefits	-9.91241
▁l'euro	-9.91254
▁speech	-9.91283
▁Voilà	-9.91294
▁according	-9.913
▁permanent	-9.91335
▁étrangère	-9.9134
▁suffisamment	-9.91362
▁via	-9.91364
▁mêmes	-9.91365
tic	-9.91366
eurs	-9.91371
▁présence	-9.91379
▁disposition	-9.91395
▁wrong	-9.91396
ry	-9.91418
▁d'autre	-9.91432
▁n'en	-9.91477
▁menace	-9.91569
▁allowed	-9.91634
▁Germany	-9.91679
▁niveaux	-9.91719
ère	-9.91741
▁libertés	-9.91751
▁principal	-9.91756
▁institutional	-9.91768
▁j'espère	-9.91771
▁fondamental	-9.91795
▁agir	-9.91856
▁Royaume-Uni	-9.91874
▁work.	-9.91938
▁engagements	-9.91953
▁publiques	-9.91993
▁provision	-9.92005
▁goes	-9.92023
▁réaliser	-9.92045
B	-9.92076
▁created	-9.92078
ler	-9.92093
▁causes	-9.92133
▁Sur	-9.92189
▁restrictions	-9.92275
▁Nos	-9.92279
▁scientific	-9.92302
▁Social	-9.92317
▁successful	-9.92338
▁voix	-9.92354
▁independent	-9.92373
▁partir	-9.92388
▁malgré	-9.92407
▁relatif	-9.92475
▁(FR)	-9.92491
▁status	-9.92591
▁enterprises	-9.92654
▁maximum	-9.92698
▁(IT)	-9.92732
▁opinion,	-9.92862
▁ra	-9.92916
▁genre	-9.92927
▁terrorisme	-9.92927
▁populations	-9.92956
ba	-9.93013
gu	-9.93056
▁II	-9.93069
▁visa	-9.93086
▁considerable	-9.93088
▁d'énergie	-9.93153
▁importe	-9.93167
▁Euro	-9.93208
▁21	-9.93286
▁40	-9.93289
▁important.	-9.93328
▁crimes	-9.93367
▁défi	-9.93368
▁join	-9.93396
▁measure	-9.93396
▁accepted	-9.93409
▁Do	-9.93484
▁rightly	-9.93525
▁Now	-9.93529
▁intérêt	-9.93587
▁votes	-9.93743
▁meilleur	-9.93802
▁juridiques	-9.93863
▁Israel	-9.93925
▁participer	-9.93943
▁WTO	-9.93982
▁exist	-9.94023
▁comptes	-9.94049
▁poor	-9.94073
▁événements	-9.94144
▁exchange	-9.94214
▁implementing	-9.94217
▁strategic	-9.94227
▁colleague	-9.9423
▁sociétés	-9.94232
▁outre	-9.9424
▁l'accès	-9.94321
▁déclarations	-9.94354
▁Brussels	-9.94437
▁allons	-9.94438
▁étrangères	-9.94442
▁l'information	-9.94517
▁obtenir	-9.94666
▁100	-9.94717
▁area.	-9.94768
▁port	-9.94785
▁augmentation	-9.94816
▁Présidence	-9.94824
▁prévoit	-9.94842
▁n'avons	-9.94846
▁stated	-9.94935
▁unfortunately	-9.94962
▁ratification	-9.94965
▁provides	-9.9499
▁industrial	-9.95057
▁collective	-9.9511
▁n’	-9.9513
▁similar	-9.95265
▁tâche	-9.95283
▁promoting	-9.95283
▁thought	-9.95332
▁press	-9.95421
▁sectors	-9.95467
▁rester	-9.95498
▁knowledge	-9.95529
▁referred	-9.95639
▁Merci	-9.95729
▁goods	-9.95755
▁closely	-9.95791
▁liés	-9.9585
▁élevé	-9.9585
▁specifically	-9.95864
▁clause	-9.95876
▁respond	-9.95896
▁infrastructure	-9.95938
▁administration	-9.95974
▁overall	-9.95979
▁product	-9.96026
▁German	-9.96071
▁l'égalité	-9.9614
▁seriously	-9.96155
▁spirit	-9.96172
▁l'Europe.	-9.96241
▁monde.	-9.96246
ru	-9.96255
▁directement	-9.96322
U	-9.96385
▁calls	-9.96386
▁veulent	-9.9644
▁Banque	-9.96532
▁issue.	-9.96577
▁Human	-9.96585
▁venir	-9.96599
el	-9.96659
▁Group.	-9.96713
▁comments	-9.96883
▁reality	-9.96888
▁remember	-9.96996
R	-9.97058
▁V	-9.9707
▁H	-9.97101
▁mot	-9.97104
▁européens.	-9.97162
▁urge	-9.97294
▁transition	-9.97325
▁happen	-9.97331
▁beyond	-9.97339
▁mai	-9.97391
▁long-term	-9.97393
▁history	-9.97411
pos	-9.97503
▁forms	-9.97587
out	-9.97619
▁dispose	-9.97638
▁accès	-9.97642
▁graves	-9.97712
▁l’homme	-9.9789
▁know,	-9.97935
▁complete	-9.98076
▁réfugiés	-9.98164
▁process.	-9.98195
▁lignes	-9.9829
M	-9.98327
▁faisant	-9.98344
▁country,	-9.98378
▁celle-ci	-9.9843
▁auquel	-9.98447
▁courage	-9.98457
▁Ukraine	-9.9852
▁aller	-9.98591
▁borders	-9.987
▁border	-9.98721
ff	-9.98756
▁poser	-9.98757
▁directly	-9.98849
▁sign	-9.98904
▁wanted	-9.98982
▁expenditure	-9.99125
▁accompli	-9.99135
▁l'adhésion	-9.99198
▁Today	-9.99272
▁finally	-9.99302
▁expression	-9.99327
▁follow	-9.99431
▁financing	-9.99435
▁requires	-9.99498
▁prochain	-9.99506
▁study	-9.99549
▁annual	-9.99549
▁réalisation	-9.9959
▁Mediterranean	-9.99659
▁here.	-9.99667
▁conference	-9.99752
▁ans,	-9.99768
val	-9.99782
▁efficient	-9.99853
▁agricoles	-9.99886
▁Irish	-9.99901
près	-10
▁man	-10.0002
▁reconnaissance	-10.0007
▁leave	-10.0024
▁d’a	-10.0029
ot	-10.0032
▁peuples	-10.0033
▁useful	-10.004
▁contact	-10.0046
▁harmonisation	-10.0051
▁pourrons	-10.0052
nce	-10.0059
▁utiliser	-10.0067
▁économique,	-10.0073
▁compensation	-10.0073
▁préoccupations	-10.0076
tent	-10.0079
▁d'Europe	-10.0088
▁l'efficacité	-10.0096
▁britannique	-10.0096
▁spécifique	-10.0099
▁Premièrement	-10.0103
du	-10.0103
▁qu’	-10.0104
▁experts	-10.0114
▁obligation	-10.0117
▁Iran	-10.0118
▁soutenu	-10.0118
▁procès-verbal	-10.0119
▁equality	-10.0128
▁event	-10.0135
▁Balkans	-10.0141
▁envers	-10.0142
▁Traité	-10.0153
▁coût	-10.0153
▁name	-10.0158
▁devenir	-10.0162
▁1996	-10.0163
▁steps	-10.0163
▁refer	-10.0167
▁ceci	-10.017
▁gas	-10.017
com	-10.0171
▁nucléaire	-10.0173
▁setting	-10.0176
ante	-10.0177
▁garantie	-10.018
▁myself	-10.0181
▁di	-10.0181
▁tomorrow	-10.0181
▁sait	-10.0182
▁maintien	-10.0189
▁bonnes	-10.019
▁réseaux	-10.0191
▁effectively	-10.0197
P	-10.02
▁intended	-10.0203
▁January	-10.0205
▁Summit	-10.0205
▁consommation	-10.0207
▁défendre	-10.0211
▁dossier	-10.0214
▁introduce	-10.0217
▁connaissance	-10.0217
▁activity	-10.0219
▁montrer	-10.0222
▁outcome	-10.0223
▁How	-10.0225
▁mérite	-10.0229
▁Green	-10.0231
▁analyse	-10.0241
▁trafic	-10.0249
▁sufficient	-10.025
▁tirer	-10.0253
▁entire	-10.026
▁état	-10.0261
▁néanmoins	-10.0266
▁principaux	-10.0281
▁figure	-10.0281
».	-10.0286
▁damage	-10.0292
▁closed.	-10.0293
▁naturellement	-10.0295
▁délégation	-10.0296
ser	-10.03
▁janvier	-10.0301
▁trust	-10.0301
▁paid	-10.0307
▁reconnaître	-10.0307
▁convergence	-10.0308
▁militaire	-10.0316
▁paragraph	-10.0322
▁crédits	-10.0329
▁1998	-10.0334
▁distribution	-10.0337
▁party	-10.0339
▁represent	-10.0347
▁words,	-10.0348
dé	-10.0352
▁R	-10.0353
▁commitments	-10.0354
▁l'intérêt	-10.0359
ac	-10.0359
▁code	-10.0361
▁terrorism	-10.0363
▁structurels	-10.0365
▁débats	-10.0366
▁exprimer	-10.0367
▁l'é	-10.0375
▁Luxembourg	-10.0375
▁Prodi	-10.0378
▁speaking	-10.0382
▁duty	-10.0382
▁oral	-10.0383
▁conclude	-10.0389
▁demands	-10.0394
▁normal	-10.0394
▁version	-10.0394
▁highly	-10.0398
▁Ro	-10.0408
▁comité	-10.041
▁nationale	-10.0411
▁traite	-10.0412
▁bodies	-10.0412
▁modification	-10.0412
▁bear	-10.0417
▁souligne	-10.0419
▁anything	-10.0426
ol	-10.0426
▁Portugal	-10.0429
▁Greece	-10.0433
▁competitive	-10.0435
▁lorsqu'il	-10.0441
▁Cet	-10.0462
▁country.	-10.0465
▁CO2	-10.0468
▁views	-10.047
▁pauvres	-10.0473
▁fund	-10.0479
▁sensible	-10.0482
▁properly	-10.0495
▁supporting	-10.0501
▁b	-10.0503
▁économie	-10.0503
▁Se	-10.0509
▁ambitious	-10.0517
▁permettez-moi	-10.0521
▁opinions	-10.0522
▁rise	-10.0522
▁humains	-10.0523
▁soumis	-10.0523
▁candidate	-10.0527
▁genuine	-10.0533
▁patients	-10.0537
▁medium-sized	-10.0538
▁higher	-10.0541
▁budgétaires	-10.0543
ies	-10.0548
▁appel	-10.0556
▁limited	-10.0566
▁discussing	-10.0581
▁broad	-10.0596
▁parlé	-10.0597
▁Although	-10.0601
▁known	-10.0606
▁traiter	-10.0615
▁shows	-10.0637
▁l'idée	-10.0647
▁authority	-10.0649
▁increasingly	-10.0652
▁calling	-10.0652
▁establishing	-10.0654
▁bas	-10.0654
▁23	-10.0658
▁Rules	-10.0664
▁pacte	-10.0669
▁vote.	-10.0672
▁caused	-10.0676
▁Ceci	-10.0677
▁Car	-10.0678
land	-10.0678
▁whom	-10.0678
▁Selon	-10.0679
▁language	-10.068
▁l'in	-10.0687
▁flexible	-10.0688
▁Unfortunately	-10.069
▁Commissaire	-10.0694
▁procéder	-10.0703
▁humanitaire	-10.0715
▁improved	-10.072
▁imp	-10.072
▁tourisme	-10.072
▁semaines	-10.0722
▁laisser	-10.0727
▁Ne	-10.0727
▁clos.	-10.0728
▁early	-10.074
▁médias	-10.074
▁stocks	-10.0743
▁March	-10.0745
▁word	-10.0748
▁monnaie	-10.0748
▁24	-10.0749
▁salue	-10.0754
▁achieving	-10.0756
▁By	-10.0763
▁qu'au	-10.0771
▁emploi	-10.0775
▁discuter	-10.0778
▁compétence	-10.078
▁démocratiques	-10.0789
qua	-10.0791
▁emphasise	-10.0791
▁développement.	-10.0792
▁hear	-10.0796
▁l'autre	-10.0798
▁threat	-10.0798
▁Elles	-10.0801
▁weeks	-10.0806
pr	-10.0812
▁impose	-10.0817
▁l'éducation	-10.082
▁réseau	-10.082
▁l'attention	-10.0822
▁violation	-10.0831
▁comprehensive	-10.0832
ard	-10.0834
▁happened	-10.0839
▁s'en	-10.0841
▁rend	-10.0844
▁represents	-10.0848
▁definition	-10.0867
cu	-10.0869
▁l'intégration	-10.0879
▁strengthening	-10.0879
▁people.	-10.088
▁market,	-10.0882
▁Security	-10.0883
▁contributions	-10.0889
▁l'Assemblée	-10.0895
▁Minutes	-10.0897
▁arguments	-10.0902
▁uvre	-10.0903
▁reducing	-10.0905
▁affaire	-10.0918
▁produced	-10.092
▁taxes	-10.0921
G	-10.0922
▁lecture	-10.0922
▁Sud	-10.0926
▁obviously	-10.0929
▁st	-10.0931
▁partis	-10.0945
▁populaire	-10.0946
▁Since	-10.0949
▁pourtant	-10.0963
▁building	-10.0969
▁require	-10.0973
▁types	-10.0976
▁député	-10.0981
▁professionnelle	-10.0985
▁moyennes	-10.0989
▁pre	-10.1
▁low	-10.1006
▁mars	-10.1008
▁contrôles	-10.1018
▁failure	-10.1019
emp	-10.1024
hi	-10.1025
▁Néanmoins	-10.103
▁encourager	-10.1033
▁excessive	-10.1035
▁proposer	-10.1036
▁économies	-10.1039
▁convinced	-10.104
▁sector.	-10.1046
os	-10.1049
▁régionale	-10.1053
▁establishment	-10.1054
▁Sa	-10.1059
▁currency	-10.1059
▁h	-10.1067
▁communes	-10.1072
H	-10.1077
▁largement	-10.1079
▁d	-10.108
▁cut	-10.1082
▁send	-10.1084
▁risks	-10.1086
▁cent	-10.1087
▁looking	-10.1089
▁unacceptable	-10.1091
▁citoyens.	-10.1092
▁Amsterdam	-10.1093
▁law.	-10.1096
▁Foreign	-10.1098
▁rapporteur.	-10.1102
▁heureux	-10.1102
ier	-10.1105
▁reconstruction	-10.1106
▁Moreover	-10.1113
▁producers	-10.1114
▁aient	-10.1114
▁pouvoirs	-10.1129
▁migration	-10.1135
▁infrastructures	-10.1136
▁ways	-10.1144
▁su	-10.1145
▁conflits	-10.1147
responsibilities	-10.1148
▁critique	-10.1153
▁institutions.	-10.1153
▁nouvel	-10.1156
▁actes	-10.1158
▁EU.	-10.1161
ful	-10.1164
▁br	-10.1167
▁retard	-10.1168
▁recognise	-10.1171
▁industries	-10.1172
▁read	-10.1176
▁statements	-10.1178
▁chez	-10.118
▁divers	-10.1182
▁aims	-10.1186
▁member	-10.1192
▁approuvé	-10.1192
▁parfaitement	-10.1199
▁22	-10.1205
▁gives	-10.1211
ès	-10.1218
▁PME	-10.1221
▁alimentaires	-10.1226
▁combating	-10.1226
▁balanced	-10.1232
▁monetary	-10.1236
▁substance	-10.1251
ud	-10.1257
▁sometimes	-10.1257
▁analysis	-10.1276
▁Grèce	-10.128
▁appeal	-10.1284
▁person	-10.1288
▁staff	-10.129
▁article	-10.1291
▁earlier	-10.1292
▁firstly	-10.1294
▁pourront	-10.1294
▁test	-10.1295
▁d'État	-10.1296
ification	-10.1296
▁destruction	-10.1297
▁recognition	-10.1299
▁American	-10.13
▁so-called	-10.1301
▁1997	-10.1311
▁l'esprit	-10.1314
▁debate.	-10.1316
▁concrete	-10.1319
ens	-10.1323
▁(NL)	-10.1324
▁soins	-10.1336
ative	-10.1337
▁dangerous	-10.1338
ssent	-10.1345
▁implique	-10.1349
ted	-10.135
▁mondialisation	-10.1351
▁animals	-10.1356
▁recours	-10.1357
▁taxation	-10.1361
▁espérons	-10.1362
▁internationaux	-10.1369
ire	-10.1371
▁delegation	-10.1372
▁estime	-10.1373
▁avenir	-10.1376
▁instance	-10.1376
▁l'UE,	-10.1378
▁Some	-10.1378
▁européens,	-10.138
▁assure	-10.1383
ction	-10.1384
▁prévu	-10.1384
▁ai	-10.1387
▁mécanisme	-10.1389
▁entirely	-10.1394
▁Spanish	-10.1396
▁becoming	-10.1401
▁décider	-10.1402
▁visit	-10.1405
▁ground	-10.1408
▁pension	-10.1409
▁protocole	-10.1412
▁soir	-10.1413
▁contrary	-10.1414
▁dés	-10.1414
▁avaient	-10.1415
use	-10.1419
▁Strasbourg	-10.142
▁standard	-10.142
▁durant	-10.1421
▁relationship	-10.1427
▁Ainsi	-10.1428
▁elements	-10.1433
ient	-10.1435
▁parlementaires	-10.1437
▁facing	-10.1446
▁d'in	-10.1448
▁Romania	-10.1451
▁thinking	-10.1452
▁montré	-10.1452
▁voice	-10.1454
▁prevention	-10.1455
▁Après	-10.1458
▁Russian	-10.1459
ally	-10.1459
▁globale	-10.1465
▁After	-10.1465
▁introduced	-10.1467
ile	-10.147
▁Programme	-10.1478
▁disposer	-10.1483
▁définir	-10.1483
▁na	-10.1487
▁us.	-10.1495
▁later	-10.1495
▁budget.	-10.1497
▁negative	-10.1497
ible	-10.1503
▁Belarus	-10.1506
E	-10.1513
▁option	-10.1514
ger	-10.1516
▁(A	-10.1517
▁regrettable	-10.1523
▁conclu	-10.1528
▁Nevertheless	-10.153
▁fall	-10.1532
▁l'ai	-10.1536
▁fer	-10.1538
▁reduced	-10.1542
▁au-delà	-10.1547
▁Conférence	-10.1549
▁cross-border	-10.1549
▁efficaces	-10.1552
▁fraud	-10.1559
▁UK	-10.156
▁strict	-10.1561
iste	-10.1567
▁faudrait	-10.157
▁asking	-10.1571
men	-10.1574
▁discours	-10.1584
▁sea	-10.1584
par	-10.1587
▁pointed	-10.159
▁1,	-10.1592
▁finance	-10.1593
▁Iraq	-10.1594
▁actual	-10.1594
be	-10.1594
▁plénière	-10.1597
▁South	-10.1599
▁fear	-10.1606
▁flexibility	-10.1608
iv	-10.161
gi	-10.1612
▁raise	-10.1618
▁recommandations	-10.1623
▁septembre	-10.1623
▁differences	-10.1626
▁network	-10.1631
s:	-10.1645
▁liberalisation	-10.1661
▁climat	-10.1662
▁méthode	-10.1664
▁liées	-10.1665
▁évaluation	-10.1666
▁décharge	-10.1667
▁repeat	-10.1671
▁fondamentale	-10.1675
ven	-10.1676
▁2007	-10.1676
▁Malheureusement	-10.1682
▁van	-10.1684
▁Européens	-10.1689
▁supplémentaire	-10.169
▁négociation	-10.1694
▁Messieurs	-10.1696
▁build	-10.1697
▁attend	-10.1698
▁September	-10.1704
▁législatif	-10.1704
▁immigrants	-10.1706
▁d'améliorer	-10.1711
▁devront	-10.1711
▁soi	-10.1713
▁added	-10.1718
▁atteint	-10.172
▁Afghanistan	-10.1726
▁probably	-10.1728
▁Spain	-10.173
emb	-10.1731
▁morning	-10.1733
▁équilibre	-10.1733
▁l'une	-10.1736
▁critical	-10.174
▁d'information	-10.1741
▁stable	-10.1742
▁forget	-10.1743
▁recommendations	-10.1744
▁matin	-10.1744
▁bo	-10.1753
▁conclusion,	-10.1762
▁faudra	-10.1764
▁armes	-10.1768
▁examine	-10.1769
der	-10.1771
▁yesterday	-10.1776
▁simplification	-10.1777
▁(S	-10.1777
▁closer	-10.1777
▁Indeed	-10.1785
▁explain	-10.1787
ins	-10.1788
▁America	-10.1791
▁J'	-10.1795
▁massive	-10.1797
▁chances	-10.1809
▁obtenu	-10.1811
▁souhaitons	-10.1812
▁else	-10.1817
ite	-10.182
▁child	-10.183
▁avantages	-10.1832
▁body	-10.1835
▁minutes	-10.184
▁p	-10.1841
▁sound	-10.1841
▁mandate	-10.1844
▁developments	-10.1845
▁bénéficier	-10.1845
▁lives	-10.1846
▁method	-10.1846
▁office	-10.1847
▁m'	-10.185
▁Roumanie	-10.185
ig	-10.1867
▁Italian	-10.187
V	-10.1871
▁essentielle	-10.1879
▁faisons	-10.1879
tion	-10.1879
▁avions	-10.1895
▁leaders	-10.1895
▁Environment	-10.1896
act	-10.1902
pro	-10.1907
▁strongly	-10.191
▁seraient	-10.1916
▁understanding	-10.192
▁réserve	-10.1929
▁applies	-10.1938
▁aborder	-10.1939
▁Aujourd'hui	-10.194
▁seek	-10.1941
isé	-10.1942
▁affect	-10.1942
▁l'initiative	-10.1944
▁Palestinian	-10.1946
▁exactly	-10.1949
ward	-10.1953
▁2006	-10.1954
▁Pact	-10.1959
▁celui-ci	-10.1965
▁run	-10.1974
▁futur	-10.1977
▁fraude	-10.1977
▁d'ici	-10.198
▁presse	-10.1984
▁stratégique	-10.1985
▁services.	-10.1995
ille	-10.1996
nes	-10.2003
▁l'Union.	-10.201
▁original	-10.2013
▁représentent	-10.2014
▁attempt	-10.2015
pa	-10.2016
▁presque	-10.2017
▁renewable	-10.202
vers	-10.2028
▁point.	-10.2032
▁November	-10.2037
▁company	-10.2037
▁reprises	-10.204
▁drawn	-10.2043
▁methods	-10.206
▁r	-10.2061
▁faciliter	-10.2066
▁modifier	-10.2068
▁parlons	-10.2069
▁Bruxelles	-10.2076
▁discharge	-10.208
▁milliers	-10.2087
▁domaine.	-10.2089
▁networks	-10.209
▁idée	-10.2091
▁Pakistan	-10.2096
▁novembre	-10.2099
▁équitable	-10.21
▁mécanismes	-10.2103
▁!	-10.2108
▁credit	-10.211
ian	-10.2113
▁mechanism	-10.2113
▁thème	-10.2118
▁system.	-10.2121
▁initial	-10.2128
▁sub	-10.2131
▁examiner	-10.2139
▁opening	-10.214
▁demandons	-10.2153
▁improvement	-10.2154
▁reply	-10.2163
▁réussi	-10.2166
L	-10.2169
▁extend	-10.2171
▁Premier	-10.2175
▁dealt	-10.2176
ton	-10.219
▁age	-10.2191
▁auxquels	-10.2191
▁Africa	-10.2192
▁potentiel	-10.2192
▁heart	-10.2195
ial	-10.2203
▁wants	-10.2204
▁politique.	-10.2206
▁famille	-10.2207
▁regrette	-10.2216
▁ad	-10.2216
▁submitted	-10.2221
▁limite	-10.2235
▁land	-10.2235
▁Paper	-10.2235
▁refugees	-10.2236
▁longue	-10.2236
▁pl	-10.2237
▁inform	-10.2238
▁faible	-10.224
▁départ	-10.2243
▁constitutionnel	-10.2245
▁agencies	-10.2246
▁médicaments	-10.2248
▁MEPs	-10.2248
▁exercise	-10.2254
▁PPE-DE	-10.2256
▁choice	-10.2267
▁anti-	-10.2268
▁happy	-10.2272
▁consommateur	-10.2277
▁development.	-10.2277
▁s’est	-10.2278
ap	-10.2281
▁enormous	-10.2283
▁seem	-10.2288
▁laws	-10.2296
▁vais	-10.2297
▁addressed	-10.23
▁big	-10.23
▁Ladies	-10.2305
elle	-10.2309
▁Ministers	-10.2314
▁fera	-10.2319
▁burden	-10.2325
▁led	-10.2329
ities	-10.233
▁d'aide	-10.233
▁degree	-10.233
▁m'a	-10.2334
▁governance	-10.2335
▁crises	-10.2336
▁travail,	-10.2339
▁came	-10.2345
▁principalement	-10.2347
▁practices	-10.2349
▁réelle	-10.2355
▁entièrement	-10.2358
▁délai	-10.2364
▁cela,	-10.2365
▁1995	-10.2366
▁champ	-10.2367
▁rail	-10.2367
▁informed	-10.2371
▁montant	-10.2372
▁defend	-10.2377
▁l'argent	-10.2377
▁mutual	-10.2379
▁Why	-10.238
▁hier	-10.238
▁Kyoto	-10.2389
▁invite	-10.2394
▁integrated	-10.2394
▁occasions	-10.2397
▁flexibilité	-10.2398
fi	-10.2401
led	-10.241
▁targets	-10.2414
▁putting	-10.2415
▁offre	-10.2416
▁500	-10.2417
▁complex	-10.2418
▁concentrer	-10.2422
▁question,	-10.2426
▁stade	-10.2429
▁Even	-10.2435
▁future,	-10.2441
▁minorités	-10.2442
▁l'action	-10.2451
cul	-10.2457
▁pied	-10.2459
▁2008	-10.2468
▁laid	-10.2468
▁l'ont	-10.2472
▁operation	-10.2478
▁ports	-10.2481
▁n'ai	-10.2481
▁Middle	-10.2484
▁oeuvre	-10.2486
▁l'intention	-10.2486
▁accidents	-10.2487
▁immediately	-10.2489
▁growing	-10.2491
▁evidence	-10.2491
▁people,	-10.2495
▁managed	-10.2498
▁level,	-10.2503
pé	-10.2504
▁Kingdom	-10.2505
▁climatique	-10.2507
▁concrètes	-10.251
fe	-10.2511
▁sujet.	-10.2511
▁servir	-10.2514
▁confrontés	-10.2516
▁logique	-10.2529
▁desire	-10.2531
▁réalisé	-10.2532
bi	-10.2532
ga	-10.2534
▁diversité	-10.2538
sh	-10.254
▁d'emplois	-10.2541
ables	-10.2544
▁Trade	-10.2546
▁New	-10.2547
▁arrive	-10.2549
po	-10.2552
▁fish	-10.2555
▁lumière	-10.2555
▁direction.	-10.2556
▁ideas	-10.2557
▁considérer	-10.2558
▁sensitive	-10.2558
▁October	-10.2567
▁contains	-10.2571
▁organised	-10.2576
▁moindre	-10.2579
▁Nice	-10.2582
▁contient	-10.2586
▁probablement	-10.2591
▁ahead	-10.2596
si	-10.2596
▁acteurs	-10.2597
▁contract	-10.2599
ak	-10.2614
▁satisfaction	-10.2615
▁Prime	-10.2618
▁d'asile	-10.262
▁2,	-10.2625
▁parts	-10.2632
▁déc	-10.2635
▁prêts	-10.2639
▁maladies	-10.2641
gé	-10.2643
▁mainly	-10.2651
▁Strategy	-10.2656
▁remarques	-10.2658
▁judiciaire	-10.2661
▁limiter	-10.2662
▁rejected	-10.2666
▁catastrophe	-10.267
▁Barroso	-10.2671
▁parliaments	-10.2675
▁concitoyens	-10.268
▁Democrats	-10.2684
▁unable	-10.2693
▁indiqué	-10.2702
▁gouvernance	-10.2703
▁fondamentales	-10.2713
vis	-10.272
▁locales	-10.2723
▁parlements	-10.2734
▁alone	-10.2737
▁l'encontre	-10.2739
▁finalement	-10.2739
▁counter	-10.2746
▁Pourquoi	-10.2746
▁remarque	-10.2747
20	-10.2748
▁dépend	-10.275
▁merely	-10.275
▁Health	-10.2751
▁easy	-10.2758
▁Agency	-10.2761
▁appliquer	-10.2764
▁resolve	-10.2776
▁mechanisms	-10.2777
▁orientations	-10.2778
▁leading	-10.2784
▁serve	-10.2785
▁évoqué	-10.2789
▁Que	-10.2796
▁rappelle	-10.2803
▁Charter	-10.2805
▁mots	-10.2806
▁convaincu	-10.2811
▁disaster	-10.2828
▁reject	-10.2831
▁signed	-10.2835
▁safe	-10.2837
▁Chamber	-10.2837
▁exprimé	-10.2857
▁intentions	-10.2858
▁travel	-10.2859
▁continuing	-10.2865
▁advantage	-10.2871
ale	-10.2875
▁Turkish	-10.2879
▁femme	-10.2881
▁mé	-10.2882
tin	-10.2887
▁prochaines	-10.2889
▁proposal.	-10.2893
▁accorder	-10.2896
▁l'homme.	-10.2897
▁proportion	-10.2897
▁sent	-10.2899
▁limites	-10.2899
▁préparation	-10.2911
▁programme.	-10.2915
▁operate	-10.2919
▁oublier	-10.2937
▁représentant	-10.2946
▁60	-10.2954
▁efficacement	-10.2957
▁Même	-10.2961
▁modifications	-10.2963
▁thousands	-10.2967
▁scientifiques	-10.2973
▁l'immigration	-10.2976
▁says	-10.2976
▁interventions	-10.2981
▁Al	-10.2993
▁elected	-10.2995
ka	-10.2997
▁range	-10.3005
▁commerciales	-10.3005
▁speed	-10.3009
ure	-10.3012
▁extérieure	-10.3013
▁Co	-10.3014
0	-10.3015
▁criminalité	-10.3025
▁persons	-10.303
▁debt	-10.3031
▁recommendation	-10.3031
-il	-10.3042
▁profiter	-10.3046
▁Comment	-10.3046
▁lost	-10.3049
ay	-10.3052
▁J’ai	-10.3054
▁cover	-10.3055
▁problem.	-10.3055
▁années.	-10.3056
▁substantial	-10.3057
▁figures	-10.3062
▁adequate	-10.307
▁related	-10.3077
▁Many	-10.3078
▁conduct	-10.3085
▁worked	-10.3094
▁independence	-10.3094
▁recommandation	-10.3094
▁méthodes	-10.3099
▁told	-10.31
▁l'Europe,	-10.3101
ob	-10.3107
tal	-10.3107
▁critiques	-10.311
su	-10.3112
▁centres	-10.3113
▁institutions,	-10.3113
▁campaign	-10.3114
▁secret	-10.3117
acc	-10.3117
▁appear	-10.3118
▁soutient	-10.3123
▁Amendments	-10.3127
▁record	-10.3132
mon	-10.3134
▁traffic	-10.3137
▁Ra	-10.3144
▁retour	-10.3145
▁scientifique	-10.3145
▁disposons	-10.3147
▁ought	-10.3147
▁totally	-10.3151
ments	-10.3156
▁intend	-10.3156
▁voisins	-10.3159
▁véhicules	-10.316
dit	-10.3162
▁établir	-10.3165
d.	-10.3168
▁prend	-10.3169
he	-10.3174
▁income	-10.3178
sa	-10.318
▁argument	-10.318
▁l'absence	-10.318
ho	-10.3183
▁euros	-10.3185
▁services,	-10.319
▁globalisation	-10.319
▁totale	-10.3194
▁qu'a	-10.3197
s'	-10.3198
▁guarantees	-10.3202
▁terrain	-10.3203
▁environnement	-10.3206
▁finances	-10.3207
▁speakers	-10.3211
▁petits	-10.322
all	-10.3222
▁facile	-10.3224
▁31	-10.3229
▁Mo	-10.3231
▁target	-10.3234
▁(ES)	-10.3236
01	-10.3237
▁(The	-10.3239
▁tient	-10.3248
▁includes	-10.3249
▁complète	-10.3258
▁conduite	-10.3259
V)	-10.3262
▁lui-même	-10.3263
▁well.	-10.3264
▁connu	-10.327
▁enter	-10.3275
▁26	-10.3276
▁sentiment	-10.3284
▁subsidiarity	-10.3285
▁African	-10.3291
▁failed	-10.3292
▁economies	-10.3296
ising	-10.3296
▁traités	-10.33
▁wishes	-10.3301
▁payments	-10.3302
▁elle-même	-10.3304
ke	-10.3306
▁endorse	-10.3308
▁attirer	-10.3309
lic	-10.3323
▁problème.	-10.3324
▁lois	-10.3326
▁garanties	-10.3331
▁secure	-10.3338
▁path	-10.3339
▁revenir	-10.334
raient	-10.3341
▁siècle	-10.3342
▁favoriser	-10.3345
▁transfer	-10.3346
▁d'é	-10.3348
▁2010	-10.335
▁moi-même	-10.3355
▁delay	-10.3358
▁matter.	-10.3364
▁Cuba	-10.3364
▁evaluation	-10.3371
▁grateful	-10.3373
up	-10.3379
▁formes	-10.3385
▁nation	-10.339
▁passagers	-10.3392
▁1er	-10.3394
▁Depuis	-10.3394
ue	-10.3394
▁territory	-10.3397
administration	-10.3397
▁vaste	-10.3404
▁régional	-10.3405
▁way,	-10.3408
▁lower	-10.3414
▁SMEs	-10.3415
▁membership	-10.3415
▁bringing	-10.3417
▁attack	-10.3417
▁element	-10.3418
▁sens,	-10.3422
▁cycle	-10.3422
▁d'origine	-10.3423
ised	-10.3424
▁them,	-10.3428
ability	-10.3431
▁place.	-10.3432
▁linked	-10.3433
▁citoyen	-10.3435
▁treaty	-10.3435
▁demandes	-10.344
▁fiscal	-10.3443
▁Monetary	-10.3446
▁now,	-10.345
▁européennes.	-10.3451
od	-10.3454
▁firm	-10.3456
▁highlight	-10.3457
▁official	-10.3457
rit	-10.3462
▁précis	-10.3462
▁voire	-10.3463
▁goal	-10.3465
▁Be	-10.3468
03	-10.3474
▁intérieures	-10.3477
▁envisage	-10.3479
▁obvious	-10.3482
▁facilitate	-10.3483
▁families	-10.3483
▁navires	-10.3485
▁mobilité	-10.3486
▁trafficking	-10.3486
▁modern	-10.3486
▁affairs	-10.3489
▁Policy	-10.3511
▁terrible	-10.3512
▁faites	-10.3513
▁involvement	-10.3516
▁involving	-10.352
▁Alors	-10.352
▁précédent	-10.3522
eux	-10.3523
▁tackle	-10.3529
▁opposed	-10.3537
▁28	-10.3537
▁étape	-10.3538
▁actuelle,	-10.3543
▁moral	-10.355
▁lettre	-10.3551
▁Cyprus	-10.3552
▁Structural	-10.3554
▁d'application	-10.3555
▁pi	-10.3555
▁humaine	-10.3557
▁l'avis	-10.3562
▁getting	-10.3565
▁idées	-10.3574
▁nucléaires	-10.3576
▁réussite	-10.3579
▁29	-10.3582
▁extra	-10.3583
▁empêcher	-10.3584
▁poursuite	-10.3589
▁penser	-10.3589
▁consistent	-10.3592
▁(RO)	-10.3594
▁Council's	-10.3599
▁rates	-10.3607
▁changer	-10.3612
▁resolutions	-10.3612
▁decision-making	-10.3613
▁échanges	-10.3617
▁disease	-10.3619
▁round	-10.3625
▁truly	-10.3626
lle	-10.3629
▁perdu	-10.3632
▁referendum	-10.3634
▁terroristes	-10.3639
▁impression	-10.3644
▁immediate	-10.3649
▁way.	-10.3652
▁accrue	-10.3656
▁ajouter	-10.3664
da	-10.3667
▁ready	-10.3669
▁évidence	-10.3682
▁conventions	-10.3688
▁correspond	-10.3688
▁weapons	-10.3689
▁campagne	-10.3691
gouvernementale	-10.3692
▁chefs	-10.3693
▁Certains	-10.3703
▁election	-10.3706
▁plenary	-10.3706
▁vertu	-10.3711
▁proceed	-10.3711
▁supervision	-10.3712
▁extension	-10.3712
▁areas.	-10.3713
▁happening	-10.3715
▁faced	-10.3716
▁quelles	-10.3717
ques	-10.3717
▁North	-10.3723
▁law,	-10.3724
▁crisis.	-10.3726
▁Mar	-10.3729
▁circonstances	-10.3732
▁durée	-10.3732
▁renouvelables	-10.3736
▁relever	-10.3741
▁existence	-10.3754
▁tourism	-10.3761
▁augmenter	-10.3761
▁technologie	-10.3764
▁d'urgence	-10.3766
▁agences	-10.3771
av	-10.3773
▁insist	-10.3774
▁économique.	-10.3775
▁justement	-10.3775
▁protecting	-10.3778
hé	-10.3779
▁sociale.	-10.3793
ring	-10.3801
▁commerciaux	-10.3806
▁législative	-10.381
▁religion	-10.3814
▁haute	-10.3818
▁drugs	-10.3821
▁Con	-10.3821
▁historique	-10.3825
▁greatest	-10.3826
▁heures	-10.3827
▁comp	-10.3828
né	-10.383
▁forced	-10.3843
▁véritablement	-10.3843
▁relatifs	-10.3847
▁us,	-10.3848
▁arrangements	-10.385
▁recognised	-10.3853
▁charges	-10.3856
▁gender	-10.3861
▁Poland	-10.3861
iez	-10.3861
▁ch	-10.3871
▁communautaire.	-10.3872
▁starting	-10.3873
▁Van	-10.3875
▁confirm	-10.3879
▁chiffres	-10.3881
▁prison	-10.3884
▁ans.	-10.3889
▁talks	-10.389
▁pensions	-10.3891
▁raisonnable	-10.3894
▁estimons	-10.3897
▁porter	-10.3899
▁extérieures	-10.3899
▁followed	-10.39
▁adopting	-10.3906
▁souhait	-10.3909
▁produire	-10.3913
▁Budget	-10.3913
▁professional	-10.3917
▁bad	-10.3923
▁concernées	-10.3928
▁sujets	-10.3929
▁disponibles	-10.3929
▁factor	-10.3942
▁interesting	-10.3943
▁Roma	-10.3949
mer	-10.395
▁seeking	-10.3954
▁granted	-10.3955
▁forum	-10.3963
▁ceux-ci	-10.3965
(	-10.3966
▁board	-10.3966
▁déterminer	-10.3967
▁faite	-10.397
▁petit	-10.3972
▁préalable	-10.3973
▁immédiatement	-10.3981
▁entend	-10.3983
▁diversity	-10.3991
▁l'amélioration	-10.3994
▁d'aujourd'hui	-10.3995
▁insister	-10.3996
ning	-10.3997
▁exploitation	-10.4002
▁progresser	-10.4007
▁absence	-10.4009
▁ability	-10.4009
▁July	-10.4015
▁répond	-10.4024
▁dirigeants	-10.4029
▁issues.	-10.4034
▁acts	-10.4035
ach	-10.4037
▁tonnes	-10.404
▁cancer	-10.404
▁involve	-10.4041
▁délais	-10.4042
▁Lorsque	-10.405
▁français	-10.405
▁mentionné	-10.4052
▁conséquence	-10.4055
▁Maastricht	-10.4056
▁fiscale	-10.406
▁accepté	-10.4062
▁distinction	-10.4063
▁shared	-10.4072
▁juillet	-10.4073
▁bilateral	-10.4073
▁attendre	-10.4076
▁chemin	-10.408
▁inacceptable	-10.4088
▁spécial	-10.4091
▁reflect	-10.4091
▁calendrier	-10.4092
▁legislation.	-10.4095
▁applicable	-10.4105
▁covered	-10.4106
▁controls	-10.4106
ious	-10.4108
-t-il	-10.4119
▁PSE	-10.4121
▁carefully	-10.4123
▁letter	-10.4128
▁mobility	-10.4129
▁minorities	-10.4129
ster	-10.4134
▁Sweden	-10.4137
fer	-10.4138
▁devait	-10.4141
▁minute	-10.4142
▁ferme	-10.4149
▁assume	-10.415
▁réaction	-10.415
▁Public	-10.4151
▁vite	-10.4156
▁competence	-10.4163
▁l'état	-10.4163
▁bi	-10.4169
▁cultures	-10.4171
pprovisionnement	-10.4174
▁sides	-10.4176
▁utilisation	-10.4179
▁lines	-10.418
▁suffering	-10.4181
▁General	-10.4191
▁contrôler	-10.4193
▁comply	-10.4196
▁Avec	-10.4196
▁USA	-10.4201
▁acquis	-10.4201
▁règlements	-10.4204
▁l'introduction	-10.4207
▁Po	-10.4208
rs	-10.4212
▁Thirdly,	-10.4214
istes	-10.4214
▁criticism	-10.4216
▁society.	-10.4217
▁Funds	-10.4217
▁L	-10.422
▁d'emploi	-10.4221
▁militaires	-10.4224
▁avancer	-10.4227
▁puissions	-10.423
▁monitor	-10.4233
▁ouverte	-10.4237
▁contacts	-10.4238
▁vehicles	-10.4238
▁ressort	-10.4244
▁d'éviter	-10.4247
▁credibility	-10.4253
▁designed	-10.4254
▁front	-10.4258
▁detailed	-10.4261
▁manage	-10.4267
▁aujourd'hui.	-10.427
▁Berlin	-10.427
▁(EL)	-10.4276
▁Socialist	-10.4277
▁presence	-10.4279
▁l'innovation	-10.4283
▁Bureau	-10.4284
▁tend	-10.4288
▁Affairs,	-10.4294
▁établi	-10.4295
▁science	-10.4298
▁différences	-10.4301
▁compagnies	-10.431
▁ordre	-10.4315
▁Greek	-10.4316
▁Pologne	-10.4316
▁visas	-10.432
▁subsidies	-10.432
▁octobre	-10.4321
▁soutenons	-10.4321
▁réflexion	-10.4322
▁devrons	-10.4323
▁fins	-10.4323
▁j'aimerais	-10.4324
▁réponses	-10.4328
▁monde,	-10.4329
▁N	-10.4332
▁detail	-10.4333
▁proposing	-10.4333
▁thereby	-10.4334
▁langues	-10.4334
▁200	-10.4336
▁Question	-10.4336
▁communities	-10.4337
▁l’on	-10.4337
▁changed	-10.434
▁options	-10.4341
▁subventions	-10.4341
lar	-10.4342
▁mises	-10.4344
▁l’avenir	-10.4345
port	-10.4345
▁auront	-10.4347
▁citizens,	-10.4349
▁eaux	-10.435
▁While	-10.4356
▁diverses	-10.436
▁ambitieux	-10.4361
▁vert	-10.4363
▁fail	-10.4373
▁worth	-10.4378
▁Bulgaria	-10.4386
▁viande	-10.4387
▁torture	-10.4388
▁concentration	-10.439
▁PPE	-10.4391
▁suppression	-10.4391
▁action.	-10.4395
▁États-Unis,	-10.4407
▁floor	-10.4407
▁maladie	-10.4408
▁utilisés	-10.441
▁statistiques	-10.4415
▁circumstances	-10.4418
▁Israël	-10.4419
▁Swedish	-10.4422
▁Troisièmement	-10.4424
▁Italy	-10.4426
▁House.	-10.4428
▁judicial	-10.4429
▁développement,	-10.443
▁head	-10.4432
▁paraît	-10.4434
▁espace	-10.4439
▁socialiste	-10.4446
▁fi	-10.4447
▁jeu	-10.4454
▁portant	-10.4458
▁month	-10.4458
▁(A5-	-10.4459
▁essentiels	-10.4467
onne	-10.4468
▁too.	-10.4469
▁naturally	-10.4471
pt	-10.4471
▁planning	-10.4474
▁qu’une	-10.4481
▁l'évolution	-10.4483
▁refuse	-10.4483
▁utilisé	-10.4485
▁marchandises	-10.449
▁Sea	-10.4495
▁spent	-10.4497
▁prove	-10.4497
ha	-10.4497
▁lancer	-10.4497
-f	-10.4503
▁series	-10.4508
▁fonctionne	-10.4517
▁parlement	-10.4521
▁binding	-10.4524
▁arms	-10.4525
▁emphasis	-10.4526
mit	-10.4529
▁Auditors	-10.4532
▁revenus	-10.4532
▁participate	-10.4535
▁separate	-10.4536
▁fulfil	-10.4537
▁relève	-10.4538
▁assist	-10.4546
uff	-10.4549
▁poids	-10.455
▁accident	-10.455
▁suffit	-10.4552
▁Suède	-10.4553
ab	-10.4555
▁correctement	-10.4557
▁sociale,	-10.4559
▁portée	-10.4561
▁approval	-10.4569
▁aurons	-10.4571
▁passage	-10.4572
car	-10.4575
▁anyone	-10.4577
ade	-10.4577
▁langue	-10.458
▁traditional	-10.4587
▁étroite	-10.4587
▁combien	-10.4594
▁minority	-10.4594
▁representative	-10.4596
▁exception	-10.4599
▁Pro	-10.46
▁consumption	-10.4602
è	-10.4603
▁exactement	-10.4604
▁banques	-10.4614
▁l'opinion	-10.4614
▁hours	-10.4618
▁rendu	-10.4622
ably	-10.4623
-0	-10.4625
pplaudissements)	-10.4625
▁debates	-10.4626
▁fasse	-10.4631
▁seuls	-10.4635
▁red	-10.4643
▁parents	-10.4646
▁essentiellement	-10.4647
▁offrir	-10.4649
▁Eastern	-10.4653
▁expected	-10.4657
▁Europol	-10.4668
02	-10.467
▁exige	-10.4672
▁d'informations	-10.4672
▁Tous	-10.4677
▁meetings	-10.4677
▁règle	-10.4683
▁crisis,	-10.4687
▁economy.	-10.4689
▁environ	-10.469
ual	-10.4691
▁d’être	-10.4698
▁l'avenir.	-10.4705
▁Energy	-10.4712
▁Rule	-10.4714
▁2000,	-10.4718
▁reasonable	-10.4719
▁familles	-10.472
▁region.	-10.4723
▁tests	-10.4723
▁80	-10.4724
▁April	-10.473
▁tour	-10.4735
▁points.	-10.4741
▁agreement.	-10.4747
▁reconnu	-10.4747
▁d’accord	-10.4749
▁amend	-10.4751
▁manner	-10.4753
▁declaration	-10.4757
uel	-10.4763
▁apporté	-10.4763
▁otherwise	-10.4765
▁n'était	-10.4766
▁1.	-10.4767
issant	-10.4767
str	-10.477
▁peaceful	-10.4771
▁implications	-10.4774
▁trouvent	-10.4775
▁questions.	-10.4779
▁House,	-10.4781
▁transactions	-10.4781
▁consommateurs.	-10.4782
ub	-10.4784
▁Li	-10.4785
▁improvements	-10.4789
tandis	-10.4795
▁préparer	-10.4797
▁paper	-10.4802
▁Bulgarie	-10.4804
▁financer	-10.4806
▁garde	-10.4808
io	-10.481
ain	-10.4811
▁obtain	-10.4813
▁inclusion	-10.4814
▁People'	-10.4817
▁organisée	-10.482
▁choisi	-10.4826
▁réalisés	-10.4828
▁employees	-10.483
▁préserver	-10.4831
▁gave	-10.4832
▁l’environnement	-10.4832
▁then,	-10.484
▁frais	-10.4847
gr	-10.4854
▁worse	-10.4861
▁continues	-10.4863
▁conviction	-10.4865
▁terrorist	-10.4867
▁parvenus	-10.4879
▁committees	-10.4879
▁entreprise	-10.4889
▁lose	-10.4892
▁mo	-10.4904
▁amongst	-10.4908
▁environment.	-10.4909
ical	-10.4911
▁souci	-10.4911
ish	-10.4915
▁solve	-10.4925
▁pourrions	-10.4928
▁fermement	-10.4929
▁joue	-10.4934
▁rapid	-10.4935
▁wonder	-10.4935
▁fortement	-10.4936
fin	-10.4937
▁Such	-10.4938
▁citizen	-10.494
▁d'assurer	-10.4952
▁glad	-10.4955
ide	-10.4957
▁Only	-10.4958
▁Procedure	-10.4958
▁Assemblée,	-10.4958
lin	-10.496
▁late	-10.4961
▁hausse	-10.4965
▁adéquate	-10.4969
king	-10.497
▁recovery	-10.4972
▁payer	-10.4973
▁invest	-10.4974
▁premières	-10.498
▁adoptées	-10.4986
▁eux-mêmes	-10.4986
▁annuel	-10.4988
▁entry	-10.499
▁religious	-10.4992
our	-10.4992
rie	-10.4998
▁Agriculture	-10.5001
ris	-10.5003
▁étude	-10.5004
▁crédibilité	-10.5004
▁decisive	-10.5004
▁certes	-10.5007
▁voulu	-10.501
▁supports	-10.5016
▁transit	-10.5018
ice	-10.502
▁j'estime	-10.5023
▁limits	-10.5024
▁neither	-10.5026
▁regulatory	-10.5027
▁started	-10.5039
▁fais	-10.504
▁goals	-10.5044
▁abuse	-10.5044
▁easier	-10.5047
sé	-10.5047
ons-nous	-10.5048
▁domestic	-10.505
▁restent	-10.5052
▁organisé	-10.5052
▁lies	-10.5054
▁Treaty.	-10.5063
▁cesse	-10.5076
▁acknowledge	-10.5081
▁destinés	-10.5084
▁êtes	-10.5084
▁concernés	-10.5091
▁Those	-10.5096
▁terme,	-10.51
▁States'	-10.5103
ages	-10.5107
▁d'adopter	-10.5109
ys	-10.5109
ng	-10.5111
▁association	-10.5112
investissement	-10.5113
▁mauvaise	-10.5114
▁catastrophes	-10.5116
▁encouraging	-10.5118
▁politicians	-10.512
▁esprit	-10.5121
▁meilleures	-10.5124
▁problems.	-10.5125
▁comprends	-10.5129
▁link	-10.5134
▁complexe	-10.5134
▁viens	-10.5135
▁generally	-10.5143
▁whilst	-10.5143
▁Agenda	-10.5148
%	-10.515
▁cœur	-10.5152
▁visite	-10.5154
way	-10.5157
▁tabac	-10.5167
▁anti	-10.5168
▁communications	-10.5173
▁vi	-10.5173
ran	-10.5176
▁bases	-10.5189
▁savez,	-10.5191
issent	-10.5207
▁autres,	-10.5218
▁combattre	-10.5228
▁précise	-10.5231
▁Commission’s	-10.5235
▁factors	-10.5239
▁concerned.	-10.524
▁culturelle	-10.5241
▁notion	-10.5247
▁connaît	-10.5247
▁Czech	-10.5249
nant	-10.5254
▁sp	-10.5255
▁From	-10.5255
▁réfléchir	-10.5266
▁sexual	-10.5266
▁Yet	-10.5275
▁politics	-10.5275
▁arriver	-10.5278
▁l'eau	-10.528
▁Research	-10.529
▁viable	-10.529
▁Gaza	-10.5296
▁revêt	-10.5298
▁rejet	-10.5298
▁signaler	-10.5302
▁moving	-10.5303
▁scale	-10.5306
▁bien-être	-10.5309
ors	-10.531
▁hors	-10.5313
▁fil	-10.5318
▁cohérente	-10.532
▁material	-10.5329
▁legitimate	-10.5334
we	-10.5335
▁proposée	-10.5343
isée	-10.5348
▁nu	-10.5349
▁Zimbabwe	-10.535
▁l'élaboration	-10.535
▁fruit	-10.535
▁Western	-10.5356
▁Legal	-10.5358
tri	-10.5362
▁delighted	-10.5362
▁dehors	-10.5365
»,	-10.5367
▁commentaires	-10.5367
▁ju	-10.5367
▁grounds	-10.5368
▁attacks	-10.5372
▁région.	-10.5374
▁lancé	-10.5375
▁cohérence	-10.5375
▁Rome	-10.5386
▁n'existe	-10.5388
▁welfare	-10.5391
▁laisse	-10.5393
▁d’abord	-10.5394
▁reprise	-10.5397
▁banks	-10.5401
▁Lisbonne.	-10.5408
▁pacifique	-10.5413
▁préoccupation	-10.5416
▁constitutional	-10.5418
and	-10.542
▁appears	-10.5421
▁system,	-10.5427
▁imposed	-10.5427
▁commerciale	-10.5427
▁volume	-10.5429
▁l'OMC	-10.543
pi	-10.5435
▁enjoy	-10.5436
▁l'an	-10.5438
▁Pa	-10.5438
▁dire,	-10.5439
▁requirement	-10.5439
▁(Applause)	-10.5439
▁partner	-10.5442
▁Chypre	-10.5445
▁fut	-10.5446
▁associations	-10.5446
▁attendons	-10.5447
▁Quelle	-10.5447
▁trouvé	-10.5448
▁positifs	-10.545
▁Market	-10.5452
rais	-10.5452
▁commune.	-10.5454
▁l'espace	-10.5456
▁interne	-10.5462
▁ouvert	-10.5463
▁principales	-10.5467
▁stock	-10.5472
▁equally	-10.5472
▁compliance	-10.5477
ight	-10.5478
▁(Le	-10.5479
▁rec	-10.5485
▁suppose	-10.5485
▁tôt	-10.5487
▁paiement	-10.5488
▁Livre	-10.5493
▁modernisation	-10.5495
▁Moyen-Orient	-10.5496
▁française	-10.5497
ux	-10.5499
▁débat.	-10.5499
▁introduit	-10.55
▁post	-10.5501
▁constituer	-10.5503
▁leadership	-10.5506
fa	-10.551
chi	-10.5512
▁approve	-10.5513
▁appropriations	-10.5516
▁Lisbonne,	-10.5516
▁revient	-10.5522
▁contribué	-10.5523
▁aérien	-10.5524
tor	-10.5525
▁souhaitent	-10.5537
ène	-10.5537
▁cooperate	-10.5538
▁J'estime	-10.5538
▁entière	-10.5539
▁constate	-10.5546
▁Israeli	-10.5549
isse	-10.556
▁century	-10.5561
gen	-10.5563
▁compatible	-10.5564
▁convenu	-10.5565
ries	-10.5565
▁Not	-10.5567
▁demonstrate	-10.5571
▁fonctionnaires	-10.5571
▁exclusion	-10.5573
▁seven	-10.5577
▁cooperation.	-10.5577
▁missions	-10.5583
▁evening	-10.5584
▁uniform	-10.5584
▁évolution	-10.5594
▁déposé	-10.5596
▁conservation	-10.5601
▁comportement	-10.5602
▁permettent	-10.561
/2001	-10.5614
ateur	-10.5615
▁actuelles	-10.5616
▁suggestions	-10.562
▁U	-10.5629
▁forthcoming	-10.5629
▁vaut	-10.563
▁gain	-10.5631
tique	-10.5632
▁payment	-10.5632
▁Action	-10.5639
oc	-10.5645
▁terminer	-10.5645
▁import	-10.5646
▁réserves	-10.5647
▁acte	-10.5648
▁L'Europe	-10.5654
▁auxquelles	-10.5655
▁marge	-10.5655
▁spending	-10.5657
▁clarify	-10.5665
-t-elle	-10.5666
▁count	-10.5667
▁Copenhagen	-10.5668
▁interested	-10.5673
▁negotiating	-10.5675
▁communautés	-10.5676
▁learn	-10.5676
▁wide	-10.5677
▁alternatives	-10.5683
▁guaranteed	-10.569
▁Copenhague	-10.5691
▁Stability	-10.5691
▁entendre	-10.5692
▁qu’un	-10.5696
▁entreprises.	-10.5697
▁d'Amsterdam	-10.5698
▁languages	-10.5702
▁protest	-10.5707
▁considérables	-10.5708
▁observations	-10.5711
▁Fa	-10.5711
▁c'	-10.5713
▁erreur	-10.5714
▁today's	-10.5714
▁helping	-10.5715
▁i	-10.5721
▁NATO	-10.5721
▁Netherlands	-10.5721
▁mi	-10.5722
▁area,	-10.5724
▁Charte	-10.5727
▁ca	-10.573
▁mode	-10.5738
▁juge	-10.5746
▁tobacco	-10.575
▁progressive	-10.5754
▁safeguard	-10.5754
▁likely	-10.5756
▁référendum	-10.5758
▁personally	-10.5767
bre	-10.5769
cour	-10.5769
▁moitié	-10.5777
▁allowing	-10.5779
▁numerous	-10.578
mar	-10.5781
▁formal	-10.5784
▁fighting	-10.5784
▁garder	-10.5786
▁tendance	-10.579
▁opérations	-10.5791
ly.	-10.5792
▁placed	-10.5799
▁Consumer	-10.5803
▁l'A	-10.5806
▁vivre	-10.5807
▁supprimer	-10.5813
▁resolved	-10.5819
ber	-10.582
▁truth	-10.5823
lant	-10.5823
▁issue,	-10.5824
vant	-10.5829
▁labelling	-10.5844
▁articles	-10.5847
▁trading	-10.5856
▁d'intérêt	-10.5858
▁Aussi	-10.586
▁plein	-10.5862
▁codécision	-10.5866
▁intéressant	-10.5874
▁fixer	-10.5875
▁renforcée	-10.5878
▁capitale	-10.588
▁difficiles	-10.5884
▁signé	-10.5888
▁faits	-10.5891
▁touche	-10.5897
▁w	-10.5907
▁customs	-10.591
▁Canada	-10.5923
▁operations	-10.5929
▁législatives	-10.5929
▁realise	-10.5931
▁situation,	-10.5934
▁solution.	-10.5934
▁mass	-10.5937
▁scheme	-10.5937
▁l'impact	-10.5937
▁expérience	-10.5938
▁conseil	-10.5941
▁Organisation	-10.5941
▁freedoms	-10.5941
▁l'accent	-10.5941
rou	-10.5942
▁entreprises,	-10.5947
▁obligatoire	-10.5947
▁vouloir	-10.595
▁defined	-10.5953
▁suffer	-10.5953
▁Baltic	-10.596
▁tenter	-10.5962
▁pêcheurs	-10.5963
▁effectiveness	-10.5964
▁blanc	-10.5967
s;	-10.5973
▁voluntary	-10.5974
▁continued	-10.5984
iques	-10.5986
▁vivent	-10.5991
▁ECU	-10.5993
▁conflicts	-10.5995
ang	-10.5999
▁J'aimerais	-10.6011
▁ultimately	-10.6013
▁sérieusement	-10.6015
▁d'adhésion	-10.6018
▁prêt	-10.6019
▁Croatia	-10.6021
30	-10.6026
▁consommateurs,	-10.603
▁régionales	-10.6032
▁universal	-10.6035
▁demonstrated	-10.6036
▁débattre	-10.6038
▁proposés	-10.605
▁activité	-10.6053
▁actuels	-10.6054
▁diseases	-10.6057
▁Head	-10.606
▁Non	-10.6062
▁profits	-10.6065
▁politiques.	-10.6065
▁énorme	-10.6066
▁Plus	-10.6071
▁subsidiarité	-10.6083
▁amélioration	-10.6089
▁functioning	-10.6089
▁associated	-10.6091
duc	-10.6092
▁l'échelle	-10.6092
▁différence	-10.6093
▁High	-10.6096
▁études	-10.6097
▁personnellement	-10.6098
▁Another	-10.6099
▁Ha	-10.6103
▁recevoir	-10.6109
▁élevés	-10.611
▁incombe	-10.6112
tu	-10.6112
▁pétrole	-10.6113
▁carte	-10.6113
▁Ex	-10.6119
▁written	-10.6127
▁imposer	-10.6134
▁Éta	-10.6138
▁CE	-10.6139
▁remarks	-10.614
▁Vice-President	-10.614
▁tchèque	-10.614
des	-10.614
▁lien	-10.6143
▁engage	-10.6147
▁Méditerranée	-10.6147
▁suggest	-10.615
▁d'obtenir	-10.6161
▁overcome	-10.6161
▁détail	-10.6161
▁According	-10.6162
▁fuel	-10.6168
▁ho	-10.6171
▁Quant	-10.6171
▁space	-10.6171
▁investments	-10.618
▁connaître	-10.618
▁process,	-10.618
▁sécurité.	-10.6182
▁majeure	-10.6182
▁m	-10.6183
▁phénomène	-10.6187
▁oppose	-10.6194
▁proposes	-10.6196
▁constant	-10.6199
▁ba	-10.6199
-up	-10.6202
▁average	-10.6206
▁2.	-10.621
▁honour	-10.6211
▁démocrates	-10.6215
▁Framework	-10.6216
▁work,	-10.6219
▁spoke	-10.6219
▁l'histoire	-10.6219
ateurs	-10.6219
▁accordée	-10.6221
▁l'augmentation	-10.6222
▁respective	-10.6222
▁qualifications	-10.6222
▁Lastly	-10.6231
er.	-10.6234
▁concernent	-10.6235
▁tried	-10.6236
▁clé	-10.6236
▁claim	-10.624
ition	-10.624
▁fondée	-10.6246
▁tasks	-10.6257
▁operators	-10.6261
▁fine	-10.6264
▁revision	-10.6265
▁bar	-10.6266
▁confusion	-10.6268
▁India	-10.6268
uer	-10.6269
▁destinées	-10.627
▁Ombudsman	-10.6271
▁Austria	-10.6272
rant	-10.6273
▁protected	-10.6273
▁claires	-10.6276
▁condemn	-10.6281
▁propriété	-10.6282
▁appropriée	-10.6284
▁aliments	-10.6287
▁brief	-10.6295
ever	-10.6295
▁contained	-10.6296
▁transfert	-10.6296
▁partout	-10.6297
▁feed	-10.6297
▁tradition	-10.63
▁comporte	-10.6303
▁ethnic	-10.6305
▁facteurs	-10.6307
▁Pays-Bas	-10.631
▁chapitre	-10.631
▁présentée	-10.6316
▁justice.	-10.6319
▁entitled	-10.6324
▁Alliance	-10.6325
▁Portuguese	-10.6327
▁Avant	-10.6328
ping	-10.6329
▁wine	-10.6333
▁appreciate	-10.6334
▁policies.	-10.6335
nn	-10.6338
mb	-10.6339
▁préciser	-10.6342
▁support.	-10.6342
▁...	-10.6346
▁industry.	-10.6348
▁lu	-10.6348
▁dangereux	-10.6349
▁discuté	-10.6352
▁plant	-10.6353
non	-10.6354
▁difference	-10.6357
▁Financial	-10.6359
▁privé	-10.6361
▁primarily	-10.6362
▁industrielle	-10.6364
▁ob	-10.6367
▁capacités	-10.6367
▁concluded	-10.6372
▁awareness	-10.6372
▁avril	-10.6373
▁Assemblée.	-10.6373
▁succeed	-10.6377
und	-10.6379
▁involves	-10.638
▁disasters	-10.6385
▁réel	-10.6386
line	-10.6395
▁élargissement	-10.6397
▁pilier	-10.6397
▁prête	-10.6399
▁irlandais	-10.6399
▁seconde	-10.6406
▁purposes	-10.6408
▁gap	-10.6409
▁justified	-10.6411
▁im	-10.6412
▁significative	-10.6415
▁visible	-10.6418
tes	-10.6422
▁problématique	-10.6422
ités	-10.6424
▁define	-10.6428
▁vo	-10.6439
ef	-10.6446
▁dignité	-10.6447
▁exists	-10.6449
▁adhésion	-10.645
▁PAC	-10.6451
▁Budgets	-10.6453
▁celles-ci	-10.6457
▁electronic	-10.6461
ization	-10.6461
▁matières	-10.6467
▁dignity	-10.6468
▁ha	-10.6471
▁nécessite	-10.6475
▁change.	-10.6475
▁division	-10.6476
▁naturelles	-10.6476
▁l'évaluation	-10.6482
▁voyage	-10.6483
▁Bo	-10.6486
▁?uvre	-10.6486
▁orientale	-10.6489
▁obstacle	-10.6499
▁taxe	-10.6501
▁Lors	-10.6501
▁l'engagement	-10.6509
▁prévue	-10.651
▁paiements	-10.6515
▁dépit	-10.6515
▁égard.	-10.6517
▁technological	-10.6525
▁officials	-10.6528
▁C'	-10.653
▁statistics	-10.6532
▁UE	-10.6534
▁complètement	-10.6537
int	-10.6539
▁petite	-10.6546
dis	-10.6547
lement	-10.6552
▁relativement	-10.6553
▁l'exercice	-10.6557
▁super	-10.6559
▁marque	-10.6567
▁audit	-10.6568
▁réunions	-10.657
▁serons	-10.6571
▁Despite	-10.6571
▁savez	-10.6572
▁résolutions	-10.6574
▁hearing	-10.6577
▁Treaties	-10.6578
bil	-10.6581
ment.	-10.6584
▁prepare	-10.6584
▁population.	-10.6584
▁sortir	-10.6587
▁vois	-10.6594
▁passed	-10.6594
▁ajoutée	-10.6595
▁penalty	-10.66
▁played	-10.6604
▁Chinese	-10.6606
▁Dutch	-10.6607
▁permettrait	-10.6609
▁heures.	-10.661
▁Treaty,	-10.6611
▁quels	-10.6613
▁d'autant	-10.6614
▁2000.	-10.6614
▁allocated	-10.6616
▁extended	-10.6616
▁mentionner	-10.6619
▁1990	-10.6621
▁favorables	-10.6623
▁Irlande	-10.6625
▁Transport	-10.6625
▁intervenir	-10.6629
▁organ	-10.663
▁conscients	-10.6631
▁opt	-10.6642
▁pursue	-10.6644
▁livre	-10.6658
▁development,	-10.6664
▁prime	-10.6664
▁ignore	-10.6666
▁sens.	-10.6667
▁firmly	-10.6668
isant	-10.6673
▁temporary	-10.6675
▁faire.	-10.6679
▁loss	-10.6679
▁35	-10.6689
▁capables	-10.669
▁principale	-10.6692
▁nevertheless	-10.6697
▁pouvait	-10.6697
▁closed	-10.67
▁traditions	-10.6701
nu	-10.671
antes	-10.6711
▁holding	-10.6715
▁dumping	-10.6719
▁autour	-10.6719
tons	-10.6722
▁emergency	-10.6722
▁February	-10.6726
▁détermination	-10.6726
▁whatever	-10.673
▁inquiétudes	-10.6732
▁abus	-10.6736
▁peoples	-10.6738
▁consolidation	-10.6741
▁humain	-10.6741
▁organes	-10.6745
▁democracy.	-10.6749
▁baisse	-10.6749
▁treated	-10.675
▁position.	-10.675
▁désir	-10.6751
▁centrales	-10.6752
▁suit	-10.6752
▁créé	-10.6754
▁homme	-10.6755
▁Georgia	-10.6755
▁CAP	-10.6756
▁existent	-10.6757
▁amounts	-10.6757
▁Given	-10.6762
▁formulation	-10.6765
hor	-10.6766
▁terme.	-10.6771
one	-10.6776
br	-10.6778
▁février	-10.6784
▁formuler	-10.6786
▁context,	-10.6791
▁territorial	-10.6791
▁got	-10.6794
sur	-10.6795
▁ambition	-10.6807
lor	-10.681
▁vulnerable	-10.681
▁mutuelle	-10.681
▁Can	-10.6811
▁Vi	-10.6811
▁orateurs	-10.6813
▁migrants	-10.6815
ici	-10.682
▁proposées	-10.6821
ture	-10.6824
▁Perhaps	-10.6825
▁farming	-10.6831
▁l'organisation	-10.6831
▁d'argent	-10.6832
▁nécessaire.	-10.6833
▁vague	-10.6834
▁planned	-10.6834
▁répéter	-10.6836
▁communs	-10.6837
▁itself.	-10.6837
▁please	-10.684
▁perdre	-10.6843
cre	-10.6847
▁Palestine	-10.6847
▁3,	-10.6855
▁ministers	-10.6857
▁d'établir	-10.6859
ifs	-10.6859
▁ver	-10.686
ière	-10.6865
▁publicité	-10.6867
▁pe	-10.6868
▁européennes,	-10.687
▁l’ensemble	-10.6873
▁(HU	-10.6876
▁refus	-10.6878
▁s’il	-10.6883
▁Ensuite	-10.6884
▁Commissioners	-10.6886
▁individuals	-10.6887
▁unless	-10.6889
▁patent	-10.689
▁vérité	-10.6891
▁mauvais	-10.6891
form	-10.6892
▁requested	-10.6892
▁prévenir	-10.6895
ding	-10.69
▁américain	-10.6901
▁compter	-10.6901
▁plaisir	-10.6902
▁passengers	-10.6905
▁imports	-10.6906
▁recall	-10.6906
▁More	-10.6909
▁envisager	-10.6911
▁installations	-10.6911
▁Assembly	-10.6913
▁70	-10.6916
▁textile	-10.6918
▁radical	-10.6921
▁auraient	-10.6934
iers	-10.6936
▁clarification	-10.6939
▁harm	-10.694
▁l'intérieur	-10.6943
▁somewhat	-10.6943
▁mené	-10.6945
▁l'approche	-10.6946
▁Here	-10.695
▁l'avons	-10.6951
▁J	-10.6953
▁Sans	-10.6957
▁réglementations	-10.6958
▁citizens'	-10.6962
▁administratives	-10.6962
▁conception	-10.6967
▁ravi	-10.6969
▁sum	-10.6974
▁realistic	-10.6981
▁90	-10.6983
▁facteur	-10.699
▁1994	-10.6992
▁sites	-10.6997
▁tenue	-10.6997
▁secondly	-10.6999
▁croire	-10.6999
iel	-10.7002
▁siège	-10.7002
▁latter	-10.7003
▁check	-10.7003
ev	-10.7006
▁comprend	-10.7006
▁ambitions	-10.701
▁directrices	-10.7014
▁venu	-10.7014
cent	-10.7016
▁villes	-10.7016
▁preparing	-10.7017
▁répartition	-10.7018
▁gone	-10.7018
▁constaté	-10.7026
▁examples	-10.7026
▁ONG	-10.7029
▁agency	-10.7029
05	-10.7032
▁top	-10.7036
▁silence	-10.7036
▁terre	-10.7045
▁pa	-10.7045
▁Du	-10.7049
▁compared	-10.7051
▁soumettre	-10.7051
▁trans	-10.7053
mu	-10.7056
ans	-10.7059
▁capitaux	-10.7066
▁commissaires	-10.707
▁jour,	-10.7072
bs	-10.7072
▁temporaire	-10.7081
▁d'A	-10.7083
▁tentative	-10.7083
▁offers	-10.7085
ja	-10.7091
▁majeur	-10.7091
▁measures.	-10.7092
▁adapt	-10.7094
▁property	-10.7098
▁Concernant	-10.7104
▁highest	-10.7109
▁preventing	-10.7109
▁feeling	-10.7112
▁remarquer	-10.7115
▁recommend	-10.7117
▁rédigé	-10.7119
▁considering	-10.712
▁hui	-10.7126
▁undoubtedly	-10.7126
▁Ta	-10.7127
▁so.	-10.7131
▁advance	-10.7139
▁2009.	-10.714
▁wait	-10.7141
▁Report	-10.7143
▁contribue	-10.7143
▁réagir	-10.7144
honorable	-10.7145
▁l'ONU	-10.7151
▁Fundamental	-10.7153
▁constantly	-10.7155
▁spoken	-10.7157
▁pillar	-10.7159
▁2011	-10.7159
▁insurance	-10.7161
▁vol	-10.7163
▁unfair	-10.7164
▁commencé	-10.7172
▁régimes	-10.7173
▁performance	-10.7176
▁behaviour	-10.7176
▁demeure	-10.7178
▁operational	-10.7182
▁détails	-10.7186
▁s'a	-10.7187
▁l'obligation	-10.7189
▁sé	-10.7189
▁exploit	-10.7189
▁voisinage	-10.7192
▁drawing	-10.7192
▁Protection	-10.7195
▁adopte	-10.7201
▁déficit	-10.7204
▁Hungarian	-10.721
▁approprié	-10.7214
▁proche	-10.7216
▁resources.	-10.7221
▁enquête	-10.7222
▁urgently	-10.7224
▁Barroso,	-10.7226
▁Ga	-10.7226
▁%.	-10.7229
▁Doha	-10.723
▁programme-cadre	-10.7235
▁tool	-10.7237
▁opportun	-10.7239
▁NGOs	-10.7242
▁allemand	-10.7242
▁internationale.	-10.7243
▁degré	-10.7246
▁fishermen	-10.7248
tage	-10.725
▁montrent	-10.7255
▁Ba	-10.7256
▁Z	-10.7258
/2000	-10.726
▁existantes	-10.726
▁différente	-10.726
▁allows	-10.7262
▁dynamique	-10.7264
▁importations	-10.7264
▁Because	-10.7267
▁expectations	-10.7277
▁revanche	-10.7279
▁applying	-10.7285
▁happens	-10.7286
▁travaillé	-10.7287
▁privée	-10.7294
▁self-	-10.7294
ze	-10.7295
▁strategies	-10.7298
▁ferroviaire	-10.7302
over	-10.7304
▁cite	-10.7309
▁function	-10.7309
▁ren	-10.7311
▁souveraineté	-10.7314
▁stronger	-10.7316
▁textes	-10.7318
▁l'entrée	-10.7321
▁répète	-10.7321
▁codecision	-10.7321
▁Asia	-10.7322
▁posé	-10.7328
▁civilisation	-10.733
▁discipline	-10.7337
▁construire	-10.7341
▁duties	-10.7341
▁relates	-10.7343
▁d’euros	-10.7344
▁respecte	-10.7347
▁Pourtant	-10.735
▁historic	-10.7352
▁introducing	-10.7352
▁devenu	-10.7354
▁keeping	-10.7357
▁prennent	-10.7357
era	-10.7359
▁latest	-10.736
▁couple	-10.7362
ized	-10.7366
▁determined	-10.7371
▁prospérité	-10.7372
▁autrement	-10.7372
▁contradiction	-10.7378
▁l'Irlande	-10.7379
▁améliorations	-10.7387
▁studies	-10.7387
▁details	-10.7387
▁described	-10.7388
▁Dublin	-10.7391
▁announced	-10.7397
▁l'origine	-10.7399
▁regular	-10.74
▁prosperity	-10.7407
▁300	-10.7409
▁hands	-10.7411
▁reconnaît	-10.7412
▁precise	-10.742
▁bout	-10.742
▁culturel	-10.7423
▁suggestion	-10.7424
▁j'en	-10.7426
▁défaut	-10.7434
▁contain	-10.7434
▁gérer	-10.7434
▁générales	-10.7435
▁proceedings	-10.7438
▁choose	-10.7442
▁engagée	-10.7442
ration	-10.7442
▁transformation	-10.7444
▁reconnaissant	-10.7446
▁joué	-10.7447
▁conduit	-10.745
▁transposition	-10.7457
▁citer	-10.7458
▁l'emploi.	-10.7458
▁l'ouverture	-10.7461
▁li	-10.7467
▁resolution,	-10.7467
▁Ka	-10.7469
▁s'ils	-10.7469
naire	-10.7477
▁réduit	-10.7482
▁chef	-10.7484
▁resolution.	-10.7486
▁trait	-10.749
▁calcul	-10.749
▁processes	-10.7492
▁bientôt	-10.7492
▁l'époque	-10.7492
▁tâches	-10.7493
▁welcomed	-10.7496
▁d'agir	-10.75
▁products.	-10.7503
▁mobile	-10.7504
▁commence	-10.7506
▁diminution	-10.7508
▁l'unanimité	-10.7515
▁operating	-10.7516
▁multilateral	-10.7516
▁meilleurs	-10.7517
▁res	-10.7519
▁élu	-10.7523
ip	-10.7524
algré	-10.7525
▁l'OTAN	-10.7528
▁sept	-10.753
▁agit	-10.7541
▁prévoir	-10.7544
▁strengthened	-10.755
▁confirmed	-10.7552
▁crédit	-10.7553
▁inclus	-10.7553
▁oblige	-10.7558
▁expliquer	-10.7558
▁pire	-10.756
▁deliver	-10.7561
▁viennent	-10.7566
▁Croatie	-10.7575
ieux	-10.7577
▁organismes	-10.7581
▁2010.	-10.7584
euse	-10.7587
▁represented	-10.7587
▁2006,	-10.7588
▁now.	-10.7589
▁continuent	-10.7591
the	-10.7593
mor	-10.7593
▁n’ont	-10.7597
▁abordé	-10.7601
▁barriers	-10.7603
▁Fisheries	-10.7603
▁régler	-10.7603
▁écologique	-10.7608
▁coordinated	-10.7609
▁naturel	-10.7612
af	-10.7613
▁Then	-10.7617
▁prie	-10.762
-là	-10.7621
▁m’	-10.7622
▁jour.	-10.7623
▁urgency	-10.7627
rog	-10.7632
▁submit	-10.7634
▁public.	-10.7635
▁chaîne	-10.7639
▁procedure.	-10.7639
▁conforme	-10.7643
▁commissions	-10.7644
▁marché.	-10.7645
transfrontalière	-10.7647
▁intensive	-10.7647
▁kept	-10.7647
▁considéré	-10.7647
▁near	-10.7654
▁label	-10.7655
▁entier	-10.7655
▁moment.	-10.7659
▁Y	-10.766
▁légitime	-10.7662
▁L'UE	-10.7663
▁efficacité	-10.7666
▁ayons	-10.7671
▁West	-10.7674
▁médiateur	-10.7675
▁timetable	-10.7679
▁l’in	-10.7685
▁rencontre	-10.7685
▁maintaining	-10.7686
spir	-10.7699
▁briefly	-10.77
apport	-10.7705
▁vin	-10.7708
terinstitutional	-10.7711
▁semblent	-10.7712
▁travaillent	-10.7713
▁existants	-10.7714
▁finding	-10.7714
son	-10.7714
▁signature	-10.7715
lli	-10.7718
▁constitute	-10.7719
▁debating	-10.7723
▁fa	-10.7725
▁tête	-10.7727
▁entrer	-10.7731
▁largest	-10.7734
▁sous-	-10.7735
▁rejeté	-10.7736
▁image	-10.7742
ç	-10.7743
▁react	-10.7747
▁sincèrement	-10.7748
▁industrie	-10.775
▁sexuelle	-10.7751
▁Protocol	-10.7755
▁publication	-10.7757
▁menées	-10.7762
▁vingt	-10.7763
▁intends	-10.7764
▁EC	-10.7764
wa	-10.7765
▁largely	-10.7766
...	-10.7767
▁interpretation	-10.7767
▁sovereignty	-10.7767
▁Afrique	-10.7768
▁mouvement	-10.7768
▁dangers	-10.7774
lt	-10.7777
dre	-10.7782
▁activement	-10.7782
bri	-10.7783
▁eight	-10.7792
▁published	-10.7792
▁equipment	-10.7793
bo	-10.7794
▁noted	-10.7796
▁menée	-10.7797
▁knows	-10.7802
▁programmes.	-10.7802
▁prospect	-10.7803
▁coherent	-10.7803
▁échange	-10.781
▁willing	-10.7811
▁l’un	-10.7818
able.	-10.7825
▁déclare	-10.7825
▁d'avis	-10.7829
▁courant	-10.7839
jo	-10.7839
▁Time	-10.7842
▁leader	-10.7842
▁Patten	-10.7844
▁vivant	-10.7844
▁assess	-10.7849
ving	-10.785
▁fixé	-10.7855
▁2012	-10.7859
▁perform	-10.786
▁electricity	-10.786
▁2007,	-10.7863
▁Ar	-10.7865
▁l’aide	-10.7866
▁extensive	-10.7868
▁apporte	-10.787
▁clean	-10.7876
cal	-10.7878
ates	-10.7878
▁fonctionner	-10.7887
▁liée	-10.789
▁pénal	-10.7891
▁considérons	-10.7893
▁innovative	-10.7893
▁conserver	-10.79
▁l'Afrique	-10.7907
▁Group,	-10.7909
▁Instead	-10.7909
▁case.	-10.7911
o-	-10.7913
▁énergies	-10.7913
▁author	-10.7918
▁Per	-10.792
▁l’é	-10.7923
▁essentielles	-10.7924
▁quota	-10.7925
▁Employment	-10.7925
gent	-10.7926
▁cr	-10.7927
▁dependent	-10.7928
▁abord	-10.7929
▁d'y	-10.7931
▁ressortissants	-10.7934
▁États-Unis.	-10.7935
▁undertaken	-10.7936
▁technologique	-10.7937
▁transport.	-10.7942
▁ville	-10.7948
▁school	-10.7953
▁interdiction	-10.7954
▁aurions	-10.7955
▁politically	-10.796
▁room	-10.7962
ore	-10.797
▁tangible	-10.7971
▁repose	-10.7972
▁Solana	-10.7975
▁perfectly	-10.7979
▁D'un	-10.7982
▁offered	-10.7987
▁united	-10.7992
▁routes	-10.7996
▁significantly	-10.7998
▁restructuration	-10.8
▁shadow	-10.8
▁démarche	-10.8001
▁Constitutional	-10.8003
▁moyenne	-10.8004
▁usage	-10.8007
ez-vous	-10.8009
▁automobile	-10.801
▁vivement	-10.8011
ship	-10.8012
mination	-10.8016
ust	-10.8018
▁ongoing	-10.802
▁works	-10.8021
▁restructuring	-10.8033
▁locaux	-10.8037
▁identity	-10.8041
▁felt	-10.8041
▁retraite	-10.8043
▁communautaire,	-10.8047
▁clauses	-10.8048
▁Finland	-10.8049
▁amending	-10.8053
▁l	-10.8056
▁materials	-10.8056
▁ALDE	-10.8057
▁careful	-10.8059
▁Serbia	-10.8061
nel	-10.8064
voir	-10.8064
▁volontaire	-10.8066
▁fruits	-10.8074
▁ta	-10.8075
▁consultations	-10.8076
-elle	-10.8079
lan	-10.8081
▁done.	-10.8081
▁pr	-10.8081
rent	-10.8091
▁dispute	-10.8096
▁présidents	-10.8098
▁gross	-10.8098
▁parliament	-10.8103
▁exportations	-10.8105
▁enhance	-10.8107
▁Di	-10.8107
▁sud	-10.8111
▁él	-10.8112
▁l’accord	-10.8117
▁récente	-10.8119
▁intégrée	-10.8125
▁équilibré	-10.8126
▁regions.	-10.8128
▁femmes.	-10.8129
▁équilibrée	-10.813
▁Quel	-10.8133
▁concentrate	-10.8133
vé	-10.8138
▁mu	-10.8138
▁valuable	-10.8141
▁determination	-10.8141
▁observe	-10.8143
▁understood	-10.8145
▁seuil	-10.8148
▁d'utiliser	-10.8149
▁denrées	-10.8149
▁institutionnel	-10.8153
▁limité	-10.8154
▁partenaire	-10.8155
▁réside	-10.816
▁justification	-10.8161
▁rational	-10.8161
▁endeavour	-10.8162
▁visent	-10.8162
▁avancées	-10.8162
▁l'Organisation	-10.8162
▁généralement	-10.8163
fo	-10.8164
▁libre-échange	-10.817
▁belong	-10.8174
▁waiting	-10.8175
▁définitive	-10.8177
▁l'existence	-10.8178
▁perte	-10.8178
▁humaines	-10.8179
▁piece	-10.8179
▁saluer	-10.818
▁violent	-10.8183
▁genuinely	-10.8186
nement	-10.8188
ow	-10.8188
▁rep	-10.819
▁concrète	-10.8191
▁centaines	-10.8191
▁enfin,	-10.8194
▁learning	-10.8202
▁réuni	-10.8203
▁wealth	-10.8208
▁2008,	-10.8209
▁solide	-10.8211
▁commune,	-10.8211
▁moteur	-10.8222
▁St	-10.8228
▁observation	-10.8229
▁examen	-10.8229
▁changing	-10.8233
K	-10.8244
▁frontière	-10.8249
▁proved	-10.825
▁accessible	-10.8251
▁Na	-10.8257
▁4,	-10.8258
▁jusqu’	-10.8259
▁conséquence,	-10.8264
▁abandon	-10.8264
▁assumer	-10.8264
▁qualified	-10.8265
▁Plan	-10.8271
▁riches	-10.8276
cing	-10.8278
hy	-10.8279
érer	-10.8279
▁contracts	-10.8279
▁Commission'	-10.8281
▁paroles	-10.8282
▁legally	-10.8283
▁taille	-10.8286
▁heading	-10.8288
▁d'association	-10.8288
▁medical	-10.8289
▁socialistes	-10.8289
▁actively	-10.8293
▁again.	-10.8295
▁participants	-10.8299
-based	-10.8301
vent	-10.8302
▁commis	-10.8305
▁listen	-10.8307
▁distance	-10.831
▁difficulty	-10.8312
▁deficit	-10.8312
met	-10.8314
▁électronique	-10.8316
▁Dur	-10.8317
▁systématique	-10.8324
▁accroître	-10.8327
▁provenance	-10.8327
▁reinforce	-10.833
▁est-il	-10.833
▁espagnol	-10.8339
▁underline	-10.8343
▁présentation	-10.8344
ée.	-10.8344
▁résulte	-10.8344
▁rurales	-10.8346
▁release	-10.8346
▁d'atteindre	-10.8348
▁tiers.	-10.8349
▁imagine	-10.8351
▁Tel	-10.8351
▁stabilisation	-10.8354
▁illégale	-10.8355
je	-10.8357
▁l'établissement	-10.8359
rez	-10.8363
▁répercussions	-10.8363
▁directe	-10.8368
▁exemples	-10.8372
▁highlighted	-10.8373
▁énergie	-10.8373
▁démocratie.	-10.8375
gue	-10.8377
▁laissé	-10.8378
▁transport,	-10.8379
▁prévues	-10.8381
▁persist	-10.8386
▁disposent	-10.8392
▁jobs.	-10.8395
▁cher	-10.8395
▁tragic	-10.8395
▁amended	-10.8402
▁significance	-10.8404
▁speaker	-10.8408
ging	-10.8408
issement	-10.841
▁break	-10.8418
rn	-10.8419
▁Bosnia	-10.8425
▁negotiation	-10.8428
▁ago.	-10.8429
▁brings	-10.843
▁supérieur	-10.8432
▁Ashton	-10.8434
▁disposal	-10.8434
▁pouvez	-10.8438
▁Control	-10.8438
European	-10.8442
▁brièvement	-10.8447
▁postes	-10.8459
▁VAT	-10.846
▁Pr	-10.8464
▁transfrontalier	-10.8464
▁composition	-10.8464
▁d’action	-10.8467
▁présents	-10.8469
▁vessels	-10.847
▁accordé	-10.8479
▁remarquable	-10.8482
abilité	-10.8485
▁Latin	-10.8486
▁utilisées	-10.8487
▁1992	-10.849
▁inadequate	-10.8495
▁2010,	-10.8495
▁rich	-10.8495
▁provenant	-10.8498
▁applicant	-10.8499
▁connaissons	-10.8499
▁Food	-10.8499
▁indépendants	-10.8504
▁2007.	-10.8506
â	-10.8508
▁basée	-10.8509
▁drogue	-10.851
▁satisfactory	-10.8516
nding	-10.8518
▁Ca	-10.8518
▁premiers	-10.8519
▁bénéfices	-10.8523
▁accounts	-10.8527
▁destination	-10.8529
▁fields	-10.8529
▁referring	-10.853
▁tellement	-10.8533
▁employment.	-10.8537
▁Cooperation	-10.8538
▁énergétiques	-10.8539
▁Last	-10.854
▁exceptions	-10.8543
▁excellente	-10.8547
▁driving	-10.8551
▁bit	-10.8554
stitut	-10.8554
▁Representative	-10.8555
▁Parliament’s	-10.8557
vie	-10.8558
▁satellite	-10.856
▁Roms	-10.856
tar	-10.856
▁renforcé	-10.8562
▁neighbours	-10.8562
▁apart	-10.8563
▁Jo	-10.8563
▁urban	-10.8565
▁complet	-10.8567
vel	-10.8573
▁Fischler	-10.8577
▁électeurs	-10.8577
▁accomplis	-10.8579
▁objections	-10.8579
▁allemande	-10.858
▁habitants	-10.858
▁stratégies	-10.8581
ib	-10.8581
▁Austrian	-10.8581
▁extraordinaire	-10.8582
▁britanniques	-10.8585
▁soyons	-10.859
art	-10.8595
▁défend	-10.8598
▁White	-10.8599
▁settlement	-10.8599
▁GUE/NGL	-10.8604
ira	-10.8606
▁drug	-10.8606
▁reprendre	-10.8606
▁sécurité,	-10.8608
▁preparation	-10.8608
mat	-10.8609
▁cap	-10.8611
▁valid	-10.8615
▁concrets	-10.8615
▁primary	-10.8617
▁seeing	-10.8617
position	-10.8619
▁essayer	-10.8621
▁slow	-10.8622
▁espagnole	-10.8622
▁Act	-10.8625
▁Nor	-10.8625
▁Thursday	-10.8626
▁télévision	-10.8626
▁Me	-10.8626
▁resulting	-10.8634
▁remove	-10.8637
▁boost	-10.8639
▁Internal	-10.8642
▁Serbie	-10.8643
▁sustainability	-10.8643
▁TVA	-10.8643
ES	-10.8644
og	-10.8645
ntergovernmental	-10.8648
▁Verheugen	-10.8656
▁protocol	-10.8658
▁Géorgie	-10.8661
▁résolution,	-10.8662
▁l'impression	-10.8665
▁arrest	-10.8667
▁initiale	-10.8667
▁Quand	-10.867
▁Schulz	-10.867
▁devient	-10.867
▁Rapport	-10.8672
▁qu’en	-10.8673
▁strictes	-10.8676
▁absolute	-10.8678
▁investigation	-10.8679
ces	-10.868
▁size	-10.868
▁Will	-10.8681
▁milk	-10.8683
▁élaboré	-10.8686
▁exercer	-10.8691
▁Centre	-10.8692
és.	-10.8692
arch	-10.8694
▁(vote)	-10.8696
▁étroitement	-10.8697
▁Comité	-10.8697
▁informer	-10.8698
mis	-10.8701
▁appelé	-10.8706
▁Second	-10.8709
▁National	-10.8709
▁l'Agence	-10.8709
',	-10.8713
▁daily	-10.8714
▁Once	-10.8715
▁prononcer	-10.8716
▁pleine	-10.8721
▁motor	-10.8723
▁faibles	-10.8723
ize	-10.8725
▁confirmé	-10.8726
▁grant	-10.873
▁gra	-10.8731
▁introduire	-10.8732
ron	-10.8733
▁Before	-10.8736
▁Portugal,	-10.8737
ld	-10.8738
▁donnée	-10.8738
▁somme	-10.8738
▁region,	-10.8739
ifié	-10.874
▁levée	-10.8742
▁territoriale	-10.8745
▁negotiations.	-10.8748
▁attentes	-10.8749
▁agenda.	-10.8751
▁n°	-10.8754
▁answers	-10.8754
▁précédente	-10.8758
▁identify	-10.876
▁Stockholm	-10.8763
▁choisir	-10.8763
▁sûre	-10.8764
dy	-10.8766
▁représentation	-10.8767
▁remettre	-10.8769
▁suggested	-10.8771
▁Northern	-10.8772
▁playing	-10.8772
▁Fi	-10.8774
▁reflète	-10.8776
▁Congo	-10.8777
cra	-10.8778
▁stay	-10.8781
▁stake	-10.8782
▁revenu	-10.8782
▁Where	-10.8785
▁prudent	-10.8785
▁television	-10.8789
▁pratiquement	-10.879
▁huit	-10.8792
▁Brok	-10.8794
▁fl	-10.8798
▁avancée	-10.8801
ified	-10.8803
▁someone	-10.8804
▁Verts/ALE	-10.8807
rice	-10.881
▁l’emploi	-10.8813
▁saw	-10.8814
▁souhaité	-10.8816
▁neighbouring	-10.8817
▁n'ait	-10.882
▁restrictive	-10.8822
▁italien	-10.8827
▁urgence	-10.884
▁Under	-10.8842
▁remplacer	-10.8843
▁gr	-10.8845
▁built	-10.8848
▁duquel	-10.8848
▁replace	-10.886
▁determine	-10.8862
▁cru	-10.8869
▁honnête	-10.8871
tions	-10.8876
▁derrière	-10.8879
▁satisfied	-10.8879
▁quantité	-10.8884
▁retain	-10.8892
▁catégorie	-10.8893
▁chiffre	-10.8894
cur	-10.8895
▁sales	-10.8899
▁meat	-10.8903
▁l'interdiction	-10.8904
bat	-10.8906
▁20%	-10.8913
▁depend	-10.8914
▁Are	-10.8914
▁annoncé	-10.8918
▁medicines	-10.8919
iens	-10.8919
▁Britain	-10.892
▁Common	-10.892
▁écrit	-10.8927
▁inclure	-10.8929
▁Lu	-10.8932
▁Tampere	-10.8933
▁clo	-10.8934
▁inflation	-10.8936
▁multi	-10.8941
▁évaluer	-10.8942
▁transmis	-10.8943
▁cons	-10.8945
ix	-10.8953
▁lié	-10.8955
▁wider	-10.8958
▁applications	-10.8965
▁Safety	-10.8965
▁elsewhere	-10.8965
▁contribuera	-10.8968
▁amis	-10.8968
▁team	-10.897
▁users	-10.897
▁élaborer	-10.8981
▁spread	-10.8981
▁p.m.	-10.8983
▁coopérer	-10.8983
▁libéraux	-10.8983
▁approuver	-10.8985
▁section	-10.8987
▁GDP	-10.8988
▁poste	-10.8989
▁durable.	-10.8994
▁voit	-10.8995
▁dossiers	-10.8995
▁football	-10.8997
▁historical	-10.8997
▁vente	-10.8998
5%	-10.9
▁aviation	-10.9002
▁Santer	-10.9003
▁turc	-10.9006
▁legislation,	-10.9007
esse	-10.9008
ule	-10.901
▁2008.	-10.9011
▁leads	-10.9013
ph	-10.9015
▁pêche.	-10.9015
pol	-10.9015
▁apparaît	-10.9017
▁russe	-10.9022
▁addressing	-10.9029
▁opposite	-10.9029
▁Tibet	-10.9031
▁speeches	-10.9041
▁perd	-10.9042
▁greatly	-10.9044
▁déposés	-10.9045
▁undermine	-10.9047
▁signe	-10.9049
▁J'en	-10.905
▁Qui	-10.9051
bu	-10.9053
▁Rights,	-10.9053
▁protection.	-10.9053
j	-10.9054
▁indicated	-10.9054
▁opérateurs	-10.9057
▁reaction	-10.9058
▁l'Allemagne	-10.9059
▁connaissances	-10.906
▁radio	-10.9061
-nous	-10.9062
▁Regional	-10.9063
▁Pre	-10.9068
▁life.	-10.9069
▁maintained	-10.907
▁augmenté	-10.907
▁participé	-10.907
▁S'il	-10.907
nent	-10.9072
▁friends	-10.9073
▁liens	-10.9074
▁sufficiently	-10.9075
▁Ho	-10.9075
▁previously	-10.9078
rate	-10.9082
▁bank	-10.9086
za	-10.9087
▁possibly	-10.9093
nés	-10.9096
ois	-10.9097
▁futures	-10.91
▁Donc	-10.9103
▁External	-10.9103
▁Allemagne	-10.9103
▁gros	-10.9105
▁Without	-10.9105
▁obliged	-10.9107
▁caractéristique	-10.9107
▁camps	-10.9107
▁Christian	-10.9108
▁régionaux	-10.9108
van	-10.9111
▁permettront	-10.9112
ssons	-10.9112
▁exports	-10.9119
▁security.	-10.9125
cha	-10.9126
▁nationaux.	-10.9127
▁2004.	-10.9127
▁rencontré	-10.913
▁ensemble.	-10.9131
▁contrats	-10.9135
▁background	-10.9135
▁satisfaire	-10.9135
▁trial	-10.9138
▁transitional	-10.9139
▁confirmer	-10.9139
ident	-10.914
▁geographical	-10.914
EC	-10.9141
▁strength	-10.9144
▁phrase	-10.9144
lit	-10.9144
▁flux	-10.9145
▁plants	-10.9145
▁oui	-10.9146
▁forest	-10.9149
▁électorale	-10.9151
▁problem,	-10.916
▁Consequently,	-10.9162
▁terres	-10.9164
▁jeudi	-10.9165
▁identified	-10.9167
▁San	-10.917
▁l'examen	-10.9172
ég	-10.9177
▁moreover	-10.9178
▁profondément	-10.9186
SA	-10.9187
for	-10.9188
▁conditions.	-10.9192
▁destiné	-10.9194
▁anciens	-10.9196
▁attention.	-10.9202
s"	-10.9203
▁0	-10.9204
▁clarté	-10.9204
▁3.	-10.9205
▁susceptibles	-10.9205
▁places	-10.9205
▁thanking	-10.9206
▁l'opposition	-10.9214
▁mobilisation	-10.9214
▁chercher	-10.9215
▁pesticides	-10.9216
▁publié	-10.9216
▁retirer	-10.9217
▁démontré	-10.9218
▁re-	-10.922
▁règlement.	-10.922
▁topic	-10.9222
▁Ni	-10.9225
▁dynamic	-10.9228
▁qualifiée	-10.923
ation.	-10.9232
▁aériennes	-10.9235
▁compulsory	-10.9237
▁approach.	-10.9238
▁running	-10.9238
▁difficulté	-10.9239
▁croissante	-10.9241
▁meant	-10.9242
▁competent	-10.9242
▁parties.	-10.9245
▁prisoners	-10.9245
▁37	-10.9246
▁hu	-10.9247
▁bureaucratie	-10.9247
▁Finlande	-10.9251
▁Thus	-10.9252
▁marine	-10.9254
▁salaires	-10.9256
part	-10.9258
▁Liberal	-10.9262
▁gauche	-10.9265
▁pêche,	-10.927
isés	-10.927
▁l’industrie	-10.9271
▁thèmes	-10.9272
▁histoire	-10.9275
▁intervene	-10.9275
▁domaine,	-10.9276
▁biens	-10.9277
▁privés	-10.9281
▁enforcement	-10.9288
▁auto	-10.9289
▁gagner	-10.9291
▁voitures	-10.9299
▁suffered	-10.9301
▁BSE	-10.9303
▁internes	-10.9306
▁himself	-10.9307
07	-10.9313
▁privatisation	-10.9317
▁trouvons	-10.9317
▁l'exploitation	-10.9321
▁afternoon	-10.9326
▁adoptés	-10.9327
▁links	-10.9327
▁launched	-10.933
▁forward.	-10.9331
▁rappelé	-10.9335
▁Belgian	-10.9336
▁spend	-10.9339
▁rare	-10.9343
▁mène	-10.9343
▁É	-10.9352
vert	-10.9355
bli	-10.936
▁chosen	-10.9361
▁(SK)	-10.9369
▁possibles	-10.9369
▁demain,	-10.9373
▁l'Ukraine	-10.9374
▁possibilities	-10.9374
▁(CS)	-10.9374
▁partly	-10.9376
-de	-10.938
▁requests	-10.9387
▁Russie,	-10.9391
▁tenant	-10.9392
▁societies	-10.9392
ications	-10.9397
▁diplomatic	-10.9402
▁Having	-10.9402
▁chairman	-10.9402
▁approfondie	-10.9403
▁carrying	-10.9406
J	-10.9408
▁successfully	-10.9408
▁conducted	-10.9411
▁completed	-10.9414
▁effectué	-10.9416
▁suffisant	-10.9416
▁disant	-10.9417
▁th	-10.9421
▁proof	-10.9421
▁âgées	-10.9424
vol	-10.9425
▁enfants.	-10.9429
▁mondiale.	-10.9429
▁bio	-10.9429
▁afford	-10.9433
▁mettent	-10.9434
▁année.	-10.9435
▁compréhension	-10.9435
▁saisir	-10.9436
▁deserves	-10.9436
environnementaux	-10.9439
▁bilan	-10.944
▁helped	-10.9443
▁Irak	-10.9445
▁affects	-10.9446
▁vulnérables	-10.9446
▁d’in	-10.945
▁bons	-10.945
▁chimiques	-10.945
▁stands	-10.9453
▁manifeste	-10.9456
▁fixés	-10.9459
ory	-10.9462
▁conduire	-10.9464
▁species	-10.9464
▁l'indépendance	-10.9464
▁generation	-10.9466
▁vérifier	-10.9466
▁actuelle.	-10.9467
▁attempts	-10.9469
▁défini	-10.9478
▁Grande-Bretagne	-10.9478
▁lourde	-10.9479
▁considers	-10.948
▁physique	-10.9483
▁becomes	-10.9486
▁j’	-10.9491
▁adaptation	-10.9492
▁debated	-10.9492
▁guaranteeing	-10.9494
▁qu'aucun	-10.9497
▁suivante	-10.95
▁complicated	-10.9503
▁strategy.	-10.9506
▁d'accès	-10.9508
50	-10.9509
▁bomb	-10.951
▁retire	-10.9516
▁chargé	-10.9519
ifier	-10.952
▁importance.	-10.9522
▁détriment	-10.9526
▁transatlantique	-10.9526
▁clairs	-10.9527
euses	-10.9528
▁formule	-10.953
▁Russie.	-10.9531
gg	-10.9537
ord	-10.9539
▁sou	-10.954
▁Galileo	-10.9541
▁spite	-10.9541
▁contribuables	-10.9541
▁proposition.	-10.9542
ros	-10.9542
▁Italie	-10.9545
▁mistake	-10.9545
▁J’espère	-10.9545
▁époque	-10.9545
▁extreme	-10.955
▁belief	-10.955
▁nord	-10.9553
▁sorry	-10.9553
▁d’entre	-10.9553
▁déclarer	-10.9553
med	-10.9554
▁She	-10.9557
▁poorest	-10.9558
▁organise	-10.9558
éré	-10.9561
▁issued	-10.9564
▁PIB	-10.9565
▁crains	-10.957
▁facilities	-10.957
▁cour	-10.9571
▁meaning	-10.9574
▁intellectual	-10.9579
lla	-10.958
▁intérieur.	-10.9584
▁Danish	-10.9584
▁exclusivement	-10.9585
▁suivant	-10.9588
▁surely	-10.9589
▁tragedy	-10.9599
▁ratified	-10.96
▁rejeter	-10.9601
▁Bosnie	-10.9603
▁Hungary	-10.9603
▁Just	-10.9604
▁definitely	-10.9605
▁skills	-10.961
▁women.	-10.9611
atrice	-10.9613
▁d'intégration	-10.9613
▁Corée	-10.9615
tention	-10.9618
▁civiles	-10.9621
▁qu’elles	-10.9621
▁Kosovo.	-10.9622
▁1993	-10.9623
ori	-10.9623
▁soulevé	-10.9625
▁considérant	-10.9628
▁quote	-10.963
▁pétitions	-10.9631
▁occur	-10.9637
org	-10.964
institutionnel	-10.964
▁worldwide	-10.9647
▁intégration	-10.9647
▁admit	-10.9648
inter	-10.9651
▁belge	-10.9653
▁l’article	-10.9654
▁whereby	-10.9655
▁temps.	-10.9656
▁green	-10.9657
▁representation	-10.9657
▁gouvernementale	-10.966
▁markets.	-10.966
▁southern	-10.9662
intégr	-10.9662
▁négocier	-10.9668
▁efficace.	-10.9673
▁rules.	-10.9673
▁relance	-10.9673
▁Union’s	-10.9674
▁mois.	-10.9675
▁heavy	-10.9676
▁l'exécution	-10.9679
▁openness	-10.968
mission	-10.9681
▁structurelles	-10.9684
▁d'écus	-10.9687
ren	-10.969
▁professionnels	-10.9691
las	-10.9694
▁d'apporter	-10.9696
▁one.	-10.9696
▁seeks	-10.97
▁ouvrir	-10.9703
▁Sommet	-10.9706
▁s'avère	-10.9706
▁prior	-10.9708
ped	-10.9708
▁digital	-10.9711
▁international.	-10.9711
▁pénale	-10.9711
▁nécessaires.	-10.9711
▁respected	-10.9717
▁Japon	-10.972
▁2006.	-10.9721
lier	-10.9723
▁importante.	-10.9723
▁quinze	-10.9725
▁argent	-10.9726
▁sugar	-10.9726
▁modes	-10.973
▁L'a	-10.973
▁corps	-10.9731
▁Subject	-10.974
tiques	-10.9741
W	-10.9743
▁immense	-10.9745
▁erreurs	-10.9746
▁Democrats)	-10.975
▁santé.	-10.9751
):	-10.9752
▁communiste	-10.9754
▁schemes	-10.976
▁surprise	-10.9762
▁(Christian	-10.9765
-c	-10.9767
▁withdraw	-10.9768
▁innocent	-10.977
▁d’en	-10.9771
▁attendent	-10.9771
▁Barcelone	-10.9775
▁scène	-10.9775
▁liberal	-10.9775
▁l'en	-10.9779
▁Belgium	-10.9779
▁Home	-10.9782
▁purely	-10.9784
▁advertising	-10.9784
▁respectent	-10.9785
▁cities	-10.9786
▁warning	-10.9787
▁répondu	-10.9788
▁authorities.	-10.9789
▁Martin	-10.979
▁Culture	-10.9794
▁régulièrement	-10.9798
qué	-10.9799
▁exact	-10.9799
▁Barcelona	-10.9799
▁object	-10.98
▁consacré	-10.9804
▁prisonniers	-10.9804
▁paix,	-10.9806
▁fit	-10.9808
▁forêts	-10.981
▁mains	-10.9811
▁part-session	-10.9814
▁planète	-10.9816
▁tensions	-10.9819
▁surmonter	-10.9819
▁L'objectif	-10.982
▁murder	-10.9822
▁Partnership	-10.9824
▁revenue	-10.9824
▁euro.	-10.9825
▁intelligent	-10.9825
▁différent	-10.9825
▁reiterate	-10.9825
▁retrait	-10.9827
so	-10.9829
▁souhaitable	-10.9832
▁immédiate	-10.9834
▁prospects	-10.9834
▁correcte	-10.9835
▁jusqu'	-10.9836
▁ri	-10.9837
▁territoires	-10.9837
▁premièrement	-10.9838
▁procès	-10.9839
▁deserve	-10.984
▁agents	-10.9841
▁bloc	-10.9845
▁serre	-10.9845
-ils	-10.9845
▁continuera	-10.9851
▁solely	-10.9853
▁terrorism.	-10.9853
▁Bush	-10.9854
▁suffisante	-10.9861
▁lacunes	-10.9862
▁finale	-10.9863
▁concessions	-10.9864
oire	-10.9871
▁satisfait	-10.9873
cer	-10.9875
▁objectives.	-10.9875
vit	-10.9876
▁Lo	-10.9878
▁harmful	-10.9879
▁mines	-10.9883
▁directeur	-10.9885
▁permanente	-10.9891
▁orientation	-10.9891
▁convaincre	-10.9894
▁hit	-10.9895
▁prefer	-10.9896
▁register	-10.9898
▁Polish	-10.9899
▁unanimously	-10.99
▁worst	-10.9904
▁sphere	-10.9904
▁latine	-10.9905
put	-10.9907
utili	-10.9908
▁chapter	-10.9909
▁cruciale	-10.9913
▁Gu	-10.9913
▁motifs	-10.9915
▁hauteur	-10.9915
don	-10.9916
▁familiar	-10.9919
▁passé,	-10.9924
▁irlandaise	-10.9926
alité	-10.9926
▁worrying	-10.9927
▁milieu	-10.9928
▁Saddam	-10.9929
▁patrimoine	-10.9929
▁basis.	-10.9933
▁blood	-10.9934
▁2007-2013	-10.9934
▁bénéficient	-10.9934
▁l’importance	-10.9939
▁Hamas	-10.9939
▁El	-10.9944
▁dirais	-10.9948
▁intégrer	-10.9949
den	-10.9949
▁demanding	-10.9951
▁carbon	-10.9952
▁Peut-être	-10.9954
▁discutons	-10.9954
▁foremost	-10.9954
spe	-10.9957
▁producing	-10.9957
▁easily	-10.9959
▁indépendante	-10.9961
tat	-10.9963
▁day,	-10.9964
▁suivante:	-10.9965
▁tri	-10.9966
▁opened	-10.9967
▁(La	-10.9968
▁prendra	-10.9969
▁Timor	-10.9969
▁waters	-10.9969
▁dollars	-10.9972
▁island	-10.9972
▁américaine	-10.9974
▁examiné	-10.9975
▁players	-10.9975
▁proposals.	-10.9978
▁handicapées	-10.9981
▁phenomenon	-10.9984
▁Japan	-10.9984
▁vice-président	-10.9986
▁italienne	-10.9987
▁pressions	-10.9992
red	-10.9993
▁Korea	-10.9993
▁règlement,	-10.9995
▁ideal	-10.9999
▁enfants,	-11
▁résolution.	-11.0001
▁mark	-11.0005
▁aid.	-11.0005
▁Da	-11.0008
▁stressed	-11.0009
▁valable	-11.0009
▁governing	-11.0009
▁Parti	-11.0012
▁Arab	-11.0014
▁whole.	-11.0017
▁essentially	-11.0017
▁crée	-11.0018
▁dommages	-11.0018
▁varie	-11.0018
▁l'équilibre	-11.0019
▁a-t-il	-11.0023
▁core	-11.0023
▁freedom,	-11.0023
▁formulées	-11.0024
▁extending	-11.0024
▁acting	-11.0026
▁cooperation,	-11.0026
tie	-11.0028
▁prétexte	-11.0029
cho	-11.003
▁futurs	-11.0031
▁débattons	-11.0034
▁Does	-11.0035
▁hundreds	-11.0044
▁vide	-11.0046
▁achievement	-11.0047
▁healthy	-11.0048
▁(C	-11.0051
▁initiative.	-11.0051
▁affirmé	-11.0052
▁rapporteure	-11.0055
▁continu	-11.0056
▁marketing	-11.0057
▁censure	-11.006
▁peur	-11.006
▁standards.	-11.006
▁Both	-11.0061
▁l'Italie	-11.0061
▁bienvenue	-11.0061
▁suspension	-11.0062
▁site	-11.0064
▁tragédie	-11.0065
▁(LT	-11.0065
▁racisme	-11.0066
▁compétitive	-11.007
▁heritage	-11.007
dict	-11.0072
▁remplir	-11.0072
▁net	-11.0074
▁utilisée	-11.0076
▁faute	-11.008
▁correctly	-11.0083
▁handicap	-11.0084
’.	-11.0087
▁méritent	-11.0088
▁pertes	-11.0093
▁sang	-11.0096
▁indique	-11.0102
▁précédemment	-11.011
▁télécommun	-11.011
tergovernmental	-11.0115
▁proud	-11.0117
▁attach	-11.0119
▁existant	-11.012
▁légitimité	-11.0121
▁house	-11.0122
▁Policy,	-11.0122
ste	-11.0124
ned	-11.0125
▁Growth	-11.0126
▁thorough	-11.0129
▁45	-11.013
▁civils	-11.013
▁enabling	-11.0131
ole	-11.0131
▁bound	-11.0132
▁Hongrie	-11.0136
▁démocratique.	-11.0138
▁rapidly	-11.0139
▁minorité	-11.0139
▁employ	-11.014
▁remerciements	-11.0143
▁tools	-11.0145
▁Socialists	-11.0149
▁revoir	-11.0149
▁paix.	-11.0151
▁1999.	-11.0153
▁sets	-11.0154
▁nomination	-11.0154
▁tenté	-11.0155
▁justifie	-11.0156
▁d’État	-11.0157
▁facilement	-11.016
▁advice	-11.0162
▁together.	-11.0169
institutionnelle	-11.017
▁considerably	-11.0174
▁depends	-11.0177
▁justifier	-11.0179
▁excuse	-11.0179
▁card	-11.018
/2003	-11.0182
▁arrêt	-11.0186
▁appropriées	-11.0188
▁Left	-11.0191
▁Mes	-11.0193
▁devenue	-11.0197
▁auparavant	-11.0203
▁B5-	-11.0203
ute	-11.0206
▁believes	-11.0211
ria	-11.0212
▁s'assurer	-11.0214
▁appliquées	-11.0217
▁clarity	-11.0218
▁entraîne	-11.0225
▁sert	-11.0227
▁launch	-11.0228
▁fast	-11.023
▁génération	-11.0231
▁picture	-11.0234
mm	-11.0234
▁resources,	-11.0234
▁cur	-11.0239
▁2005.	-11.0239
▁pencher	-11.0241
▁savings	-11.0247
▁reliable	-11.0249
▁administrations	-11.025
ug	-11.0253
▁powerful	-11.0253
▁engagés	-11.0254
▁Moldova	-11.0254
▁connaissent	-11.0254
▁l’État	-11.0255
▁environmentally	-11.0257
▁lire	-11.0257
▁Pas	-11.0258
▁l'activité	-11.026
▁exclusive	-11.0264
▁remaining	-11.0266
▁menaces	-11.0268
▁Belgique	-11.027
▁willingness	-11.0271
▁inutile	-11.0274
▁(FI	-11.0276
▁l’adhésion	-11.028
▁out.	-11.028
▁mou	-11.0283
▁shape	-11.0285
▁promised	-11.0286
▁décrit	-11.0291
▁fourni	-11.0291
▁équipe	-11.0292
wi	-11.0299
▁claims	-11.03
nelle	-11.0303
▁intérieure	-11.0305
▁experienced	-11.0307
▁schools	-11.0307
▁dépendance	-11.0311
▁démographique	-11.0311
▁tiendra	-11.0311
▁d'expression	-11.0311
cteur	-11.0315
▁climatique.	-11.0316
▁terrorisme.	-11.0317
▁merci	-11.0318
tur	-11.0319
-on	-11.0322
▁manufacturers	-11.0322
▁l’année	-11.0324
▁focused	-11.0325
▁véritables	-11.0326
▁amendments.	-11.033
▁granting	-11.033
▁faith	-11.033
▁file	-11.0331
▁recommande	-11.0334
▁clarifier	-11.0335
▁alcohol	-11.0337
▁l'internet	-11.0337
▁tribunal	-11.0337
▁X	-11.0339
▁brevet	-11.0352
▁l'instant	-11.0353
▁arise	-11.0353
dio	-11.0355
▁advantages	-11.0359
▁passenger	-11.0359
▁exiger	-11.0363
▁paying	-11.0365
▁repris	-11.0373
▁savent	-11.0374
▁avantage	-11.0375
▁moderne	-11.0376
isées	-11.0377
▁apparent	-11.0378
▁destinée	-11.0378
▁carbone	-11.0378
▁decades	-11.0379
▁bureaucracy	-11.0379
▁s'applique	-11.0379
▁favourable	-11.0383
▁Toutes	-11.0384
▁d'égalité	-11.0384
▁soutenue	-11.0385
▁production.	-11.0392
▁save	-11.0394
▁suitable	-11.0397
▁transmission	-11.0406
▁venir.	-11.0409
▁eye	-11.0412
▁encouraged	-11.0415
▁information.	-11.0416
mes	-11.0417
▁J’	-11.0417
▁présentent	-11.0421
▁5,	-11.0426
▁ECB	-11.0427
▁clés	-11.043
▁tomorrow.	-11.0431
▁refuser	-11.0442
▁appartient	-11.0442
▁basé	-11.0444
▁weight	-11.0444
▁simplifier	-11.0448
▁couvrir	-11.0448
▁alarm	-11.0448
▁declared	-11.0449
▁sold	-11.0452
▁adresser	-11.0457
▁grec	-11.0459
old	-11.0462
ya	-11.0465
tter	-11.047
▁affirmer	-11.0474
▁postal	-11.0475
igne	-11.0477
▁Turquie,	-11.0478
▁élus	-11.0478
▁emphasised	-11.0479
▁practice.	-11.0479
▁cité	-11.0481
ju	-11.0483
▁Bi	-11.0485
▁constructif	-11.0486
▁contributed	-11.0487
▁competition.	-11.0489
▁navigation	-11.049
▁entered	-11.0491
▁People	-11.0493
▁fragile	-11.0495
▁absent	-11.0495
▁nettement	-11.0495
▁l'est	-11.0505
▁certainty	-11.0505
▁reflected	-11.0506
▁physical	-11.0506
▁l’énergie	-11.0506
▁matériel	-11.0507
▁wording	-11.0509
▁threats	-11.0509
▁ratifié	-11.0511
▁écoles	-11.0511
▁modified	-11.0514
-related	-11.0516
▁rang	-11.0517
▁sanction	-11.052
▁prenne	-11.052
▁Certes	-11.0522
▁products,	-11.0529
▁refers	-11.053
▁conscient	-11.0531
▁co-	-11.0532
▁legitimacy	-11.0537
▁courts	-11.054
▁satisfaisante	-11.0542
▁others.	-11.0542
▁example.	-11.0546
▁Macedonia	-11.0548
habi	-11.0556
▁encourageant	-11.056
▁demain.	-11.0562
▁enlargement.	-11.0564
▁vast	-11.0566
▁succeeded	-11.0568
▁deep	-11.0575
▁d'évaluation	-11.0579
▁biggest	-11.058
▁unnecessary	-11.058
▁c'était	-11.058
▁BCE	-11.0581
▁recettes	-11.0591
▁enough.	-11.0594
▁transform	-11.0594
▁population,	-11.0596
tan	-11.0598
▁supposed	-11.0598
▁légale	-11.0606
▁libéral	-11.0606
▁months.	-11.0606
▁après-midi	-11.0607
▁affecting	-11.0607
tis	-11.0609
▁demandent	-11.0609
▁justify	-11.061
▁i.e.	-11.0612
▁Baltique	-11.0612
▁l’économie	-11.0613
▁aboutir	-11.0617
▁cuts	-11.0617
▁espère	-11.0618
04	-11.0623
▁l'intervention	-11.0623
▁suédoise	-11.0624
AS	-11.0626
á	-11.0627
▁d'amendements	-11.0627
▁restrict	-11.0629
▁lie	-11.0629
▁matière.	-11.0632
▁deals	-11.0637
▁problèmes.	-11.0638
▁tente	-11.064
▁2013	-11.0641
▁eastern	-11.0644
▁s'agissait	-11.0644
▁d'échange	-11.0645
▁cas.	-11.0645
▁violence.	-11.0651
ert	-11.0651
▁cré	-11.0652
▁bus	-11.0653
▁MM.	-11.0655
▁Ja	-11.0655
▁Son	-11.0658
▁instant	-11.0659
▁Kinnock	-11.0661
▁crédible	-11.0661
▁appliquée	-11.0662
▁themselves.	-11.0663
▁disent	-11.0663
▁adéquat	-11.0663
vironnementales	-11.0665
▁préjudice	-11.0666
▁recourir	-11.0666
dra	-11.0667
▁dites	-11.067
▁atteinte	-11.067
▁considerations	-11.0671
mand	-11.0671
▁dangereuses	-11.0673
19	-11.0678
▁unique.	-11.0684
▁State.	-11.0684
▁400	-11.0684
▁financé	-11.0686
▁outil	-11.0686
▁evident	-11.0688
▁presenting	-11.0688
▁doubts	-11.0692
éli	-11.0692
▁Rural	-11.0693
dition	-11.0697
▁rapporteur's	-11.0697
▁Denmark	-11.0698
▁Madrid	-11.0698
▁undertakings	-11.07
▁Over	-11.0701
▁jeunesse	-11.0702
▁orale	-11.0703
▁possède	-11.0703
▁permit	-11.0707
▁pure	-11.0709
▁commit	-11.0712
▁beef	-11.0713
téri	-11.0715
cher	-11.0717
▁negotiated	-11.0718
▁summer	-11.0721
▁stratégiques	-11.0721
▁consequence	-11.0721
▁l'autorité	-11.0723
▁espérer	-11.0725
▁whereas	-11.0726
▁Paris	-11.0728
▁Russia,	-11.073
▁Ri	-11.0735
▁force.	-11.0736
espér	-11.0737
▁absolue	-11.0741
▁présentés	-11.0742
▁systems.	-11.0744
ls	-11.0745
▁considérée	-11.0745
▁restore	-11.0747
▁Bar	-11.0748
▁Ko	-11.0759
lam	-11.0759
▁l'expérience	-11.0759
X	-11.0761
▁réaliste	-11.0762
▁regulation.	-11.0763
ray	-11.0765
▁cor	-11.0767
▁d'appliquer	-11.0769
▁quelconque	-11.0769
▁dirai	-11.0769
▁jugement	-11.0771
▁reaching	-11.0782
▁removed	-11.0782
▁l’élargissement	-11.0786
▁inquiétude	-11.0787
▁com	-11.079
▁passion	-11.0792
▁vit	-11.0792
▁limitée	-11.0795
ov	-11.0795
▁Monti	-11.0795
▁Parliamentary	-11.08
▁offering	-11.08
▁uniforme	-11.0801
▁Civil	-11.0802
▁constitutes	-11.0802
▁l'ex	-11.0803
ps	-11.0806
▁abolition	-11.0807
▁buy	-11.0812
▁Authority	-11.0813
▁bénéficiaires	-11.0816
▁collect	-11.0817
▁instances	-11.0821
ari	-11.0821
▁terrorism,	-11.0823
ché	-11.0825
▁block	-11.0827
▁regarded	-11.0828
▁utmost	-11.0829
▁législations	-11.0829
▁liberté,	-11.083
▁texts	-11.0831
▁reservations	-11.0831
▁Association	-11.0838
▁explanation	-11.084
▁threshold	-11.0845
▁(P	-11.0847
▁32	-11.085
▁quatrième	-11.0851
▁Slovakia	-11.0853
▁k	-11.0855
▁fiscales	-11.086
▁réduite	-11.086
▁healthcare	-11.0862
▁greenhouse	-11.0862
▁deeply	-11.0862
▁l'union	-11.0862
cus	-11.0863
▁Commissioner.	-11.0866
▁substantielle	-11.0868
▁fonctions	-11.0869
▁applicables	-11.087
▁expansion	-11.0873
▁allocation	-11.0874
▁soumise	-11.0875
▁sake	-11.0877
▁séjour	-11.0878
▁sought	-11.0881
▁l'Est	-11.0885
ists	-11.0886
pu	-11.0887
▁Danemark	-11.0889
▁concrètement	-11.089
▁anticip	-11.0894
▁ruling	-11.0895
▁insufficient	-11.0896
plique	-11.0898
▁collecte	-11.0898
▁veille	-11.0899
▁voudrions	-11.09
▁supplementary	-11.0901
▁chargée	-11.0902
▁regulate	-11.0902
▁afraid	-11.0906
ivité	-11.0907
▁incorporated	-11.0908
ê	-11.0911
▁l’heure	-11.0913
nie	-11.0914
▁fondé	-11.0914
▁limitation	-11.0916
▁country's	-11.0916
née	-11.0917
uelle	-11.0917
▁d'augmenter	-11.0923
▁d'examiner	-11.0924
▁l'Espagne	-11.0928
▁drogues	-11.0931
▁mettant	-11.0931
▁prouve	-11.0933
▁went	-11.0937
▁ecological	-11.0939
▁Joint	-11.0945
▁Any	-11.0952
ccident	-11.0954
▁sensibles	-11.0958
▁confirme	-11.096
▁instamment	-11.0961
▁competences	-11.0961
▁camp	-11.0962
▁aspirations	-11.0965
▁mondial.	-11.0966
▁mother	-11.0968
▁ships	-11.0973
▁necessary.	-11.0977
▁negotiate	-11.098
▁citizenship	-11.0984
▁retrouver	-11.0987
▁viol	-11.0989
▁leçons	-11.099
▁convaincue	-11.0993
▁things,	-11.0994
▁everybody	-11.0995
▁pilot	-11.0996
nic	-11.0996
▁stimuler	-11.0997
▁remédier	-11.1
▁d'immigration	-11.1
ko	-11.1004
▁fixe	-11.1006
▁garantissant	-11.1006
▁concurrence.	-11.1008
▁health.	-11.1012
▁exprimées	-11.1015
▁profonde	-11.1016
▁Blair	-11.1017
▁négatif	-11.1017
▁d’avoir	-11.1018
10	-11.102
▁Turquie.	-11.102
▁cherche	-11.102
▁airlines	-11.1026
▁watch	-11.1028
▁command	-11.1028
▁fairly	-11.1034
trait	-11.1034
▁Quoi	-11.1034
tch	-11.1036
▁battle	-11.1039
▁flag	-11.1041
▁devise	-11.1041
▁terrorisme,	-11.1042
▁promise	-11.1042
▁mine	-11.1045
▁women's	-11.1046
TA	-11.1047
▁rejette	-11.1048
▁candidat	-11.1051
▁chain	-11.1053
▁lever	-11.1058
▁numbers	-11.1061
▁titre,	-11.1061
▁increases	-11.1061
▁75	-11.1061
▁wage	-11.1063
▁étrangers	-11.1064
▁weak	-11.1065
▁chaleureusement	-11.1067
▁changé	-11.1067
▁appris	-11.1067
▁sûreté	-11.1068
▁accorde	-11.107
▁Nigeria	-11.1073
▁Com	-11.1076
▁brutal	-11.1076
▁2003.	-11.1077
▁extrême	-11.1079
▁obtained	-11.108
▁racism	-11.1082
▁pourcentage	-11.1084
▁durabilité	-11.1084
▁présentées	-11.1086
▁démontre	-11.1087
ral	-11.1091
▁fire	-11.1096
▁children.	-11.1097
▁croissant	-11.1098
▁targeted	-11.1099
▁plafond	-11.1101
▁pouvant	-11.1101
fic	-11.1102
▁aside	-11.1102
▁eliminate	-11.1105
▁preuves	-11.1106
▁appliqué	-11.1107
▁turque	-11.1107
▁jusqu'ici	-11.1107
▁nationales.	-11.1107
▁G20	-11.1109
▁tenus	-11.1111
▁observer	-11.1114
▁affirme	-11.1114
▁l'avez	-11.1114
▁rappel	-11.1115
▁extérieur	-11.1115
▁l'exclusion	-11.1115
▁Convention.	-11.1118
cy	-11.1121
ssant	-11.1122
▁budgétaire,	-11.1123
ose	-11.1126
AC	-11.1126
▁échec	-11.1128
▁pact	-11.1128
▁blame	-11.1135
▁inspections	-11.1136
▁sauvegarde	-11.1136
▁assurance	-11.1137
ki	-11.1139
▁condamnation	-11.1141
▁leaving	-11.1141
▁raising	-11.1142
▁EU’s	-11.1143
▁contribuent	-11.1148
▁actif	-11.1151
▁Follow	-11.1152
▁consacrer	-11.1154
▁smaller	-11.1155
▁groups,	-11.1156
▁indiquer	-11.1157
▁Traités	-11.1158
▁fermeture	-11.1158
▁prompt	-11.116
▁prochains	-11.1163
▁(Parliament	-11.1163
▁situé	-11.1164
lev	-11.1167
▁espèces	-11.1169
▁consumers.	-11.1169
▁publique.	-11.1172
▁authorities,	-11.1172
sol	-11.1174
▁shift	-11.1175
▁excluded	-11.1176
▁preserve	-11.1179
▁citoyenneté	-11.1181
▁d'amendement	-11.1181
▁l'excellent	-11.1182
▁Tourism	-11.1186
▁engager	-11.119
ham	-11.119
▁l'harmonisation	-11.1192
▁heureuse	-11.1192
▁interdit	-11.1193
▁occupation	-11.1196
▁subi	-11.1197
▁manifestement	-11.12
▁bref	-11.1205
▁connais	-11.1206
▁fleet	-11.1207
▁poll	-11.1209
▁insiste	-11.121
▁match	-11.1211
▁col	-11.1211
▁struggle	-11.1214
ik	-11.1215
▁vitesse	-11.122
quer	-11.1224
▁soulève	-11.1226
pass	-11.1237
Euro	-11.1238
▁indépendant	-11.1238
▁élargie	-11.1238
▁incentives	-11.1248
▁voulais	-11.1248
▁expériences	-11.125
▁minimales	-11.1253
▁guère	-11.1254
▁ordinary	-11.1254
▁informé	-11.1256
▁envoyé	-11.1258
▁finir	-11.1259
▁ill	-11.126
▁représenter	-11.1263
▁investi	-11.1264
▁catégories	-11.1265
atif	-11.1266
▁treaties	-11.1272
▁évoquer	-11.1272
▁suspect	-11.1274
▁chair	-11.1276
▁responsibility.	-11.1277
▁réglementaire	-11.1278
▁coordonnée	-11.1283
▁fallait	-11.1284
▁palestinienne	-11.1284
▁habit	-11.1286
▁firms	-11.1289
isent	-11.1291
Europe	-11.1294
by	-11.1299
▁développés	-11.1299
▁York	-11.13
▁engagé	-11.13
▁voyons	-11.13
▁intellectuelle	-11.1304
▁programmes,	-11.1305
▁Europe’s	-11.1305
▁electoral	-11.1306
▁dramatique	-11.1307
lée	-11.1308
▁pensent	-11.1309
▁Industry	-11.1312
▁chinois	-11.1312
onie	-11.1313
▁né	-11.1313
▁débattu	-11.1315
▁Chaque	-11.1319
▁showing	-11.1321
▁résistance	-11.1323
▁librement	-11.1327
▁traduit	-11.1329
▁occidentaux	-11.1335
▁pertinent	-11.1335
-elles	-11.1336
▁portent	-11.1339
▁credible	-11.134
▁disabled	-11.134
rer	-11.1341
▁l’égalité	-11.1342
▁involved.	-11.1343
▁l'enseignement	-11.1346
ienne	-11.1348
▁criminels	-11.1351
▁von	-11.1355
▁Yugoslavia	-11.1357
▁ambitieuse	-11.1358
▁qu'avec	-11.1358
▁l’égard	-11.1358
▁digne	-11.1358
▁interests.	-11.1359
▁autorité	-11.1359
▁flotte	-11.1361
titu	-11.1362
▁necessarily	-11.1363
▁contrast	-11.1364
▁armed	-11.1366
▁revised	-11.1367
▁jointly	-11.137
▁ones	-11.1375
▁employers	-11.1384
▁solid	-11.1392
▁combined	-11.1393
▁Frontex	-11.1393
▁bureaucratic	-11.1393
▁Milosevic	-11.1398
▁unanime	-11.1398
▁répression	-11.1399
▁d'initiative	-11.1401
ged	-11.1402
▁bord	-11.1408
▁approuvée	-11.1408
▁medium	-11.141
ctor	-11.1412
▁Telle	-11.1417
▁outstanding	-11.1421
▁analyses	-11.1422
▁universel	-11.1423
▁Well	-11.1424
▁considérations	-11.1429
▁exemple.	-11.143
▁bu	-11.1431
▁Grâce	-11.1433
▁pleasure	-11.1433
▁rempli	-11.1437
ves	-11.1438
▁entamé	-11.1439
▁invité	-11.1439
▁aéroports	-11.1442
▁surprised	-11.1442
▁shortcomings	-11.1445
2006	-11.1448
▁aujourd'	-11.1456
▁numérique	-11.1456
▁neuf	-11.1459
▁trend	-11.1462
▁relate	-11.1463
▁nationaux,	-11.1464
ane	-11.1465
▁d'aider	-11.1465
▁organiser	-11.1469
bor	-11.1469
▁puisqu'il	-11.1474
▁unies,	-11.1479
▁crise.	-11.1485
▁restriction	-11.1486
▁36	-11.1487
▁Office	-11.1489
▁investir	-11.149
atory	-11.1495
▁declare	-11.1495
▁world's	-11.1495
▁Déclaration	-11.1497
15	-11.1503
▁conclus	-11.1503
agin	-11.1512
▁l'affaire	-11.1515
▁mainte	-11.1517
▁Députés	-11.1519
▁d'encourager	-11.1521
▁examined	-11.1522
▁ethical	-11.1522
▁messages	-11.1522
▁exempt	-11.1524
▁transparente	-11.1524
▁repeatedly	-11.1526
▁exceptional	-11.1527
▁étions	-11.1528
▁motions	-11.153
lf	-11.1536
▁eyes	-11.1537
▁48	-11.1537
▁l’Europe.	-11.1538
▁signalé	-11.1541
▁declarations	-11.1543
▁Macédoine	-11.1544
▁comparable	-11.1545
▁facts	-11.1548
▁déterminant	-11.155
▁cruel	-11.1552
▁drafting	-11.1552
▁tire	-11.1554
▁a.m.	-11.1556
▁[	-11.1559
▁modifiée	-11.1562
▁posée	-11.1562
▁prenons	-11.1562
▁complaints	-11.1569
▁promesses	-11.1572
▁grow	-11.1573
▁undertake	-11.1577
▁puissance	-11.1577
▁patient	-11.1578
▁2002.	-11.1581
▁nearly	-11.1581
▁stations	-11.1586
ann	-11.1587
▁élevées	-11.1587
▁Palestiniens	-11.1591
▁expressing	-11.1598
offre	-11.1598
▁agence	-11.1599
pla	-11.16
▁l’objet	-11.1603
▁Hu	-11.1604
▁indication	-11.1605
▁formula	-11.1606
▁concret	-11.1608
▁Free	-11.1609
▁War	-11.1619
▁opérationnel	-11.1624
▁Inter	-11.1626
▁reflects	-11.1627
▁rapprocher	-11.1628
▁judiciaires	-11.1628
▁authorisation	-11.1628
▁Russia.	-11.1629
▁Ch	-11.1631
▁intégré	-11.1635
chant	-11.1635
▁Helsinki	-11.1639
▁frappé	-11.1639
▁critère	-11.164
ft	-11.164
ements	-11.164
▁feront	-11.164
▁charte	-11.1641
▁réservé	-11.1641
oli	-11.1641
▁stance	-11.1642
▁partageons	-11.1642
▁coordonner	-11.1644
▁d'intervention	-11.1645
ana	-11.165
▁réels	-11.1652
▁générations	-11.1653
ien	-11.1654
▁constamment	-11.1657
▁passé.	-11.1662
▁Hussein	-11.1663
▁deadline	-11.1664
▁susceptible	-11.1667
▁perfect	-11.1669
ili	-11.1671
▁DG	-11.1672
▁broader	-11.1672
▁bureau	-11.1674
attaque	-11.1674
▁transitoire	-11.1675
▁indicate	-11.1679
-je	-11.1681
▁honest	-11.1685
▁l'Irak	-11.1686
▁morale	-11.169
▁décennies	-11.1691
▁bearing	-11.1692
▁unemployed	-11.1692
▁L’Union	-11.1693
issons	-11.1698
hu	-11.1699
▁don	-11.17
▁suspended	-11.1702
▁palestinien	-11.1704
▁agreements.	-11.1704
▁Américains	-11.1704
▁turned	-11.1705
▁Therefore	-11.1709
▁foster	-11.171
▁educational	-11.1712
▁l'acquis	-11.1712
▁nuit	-11.1714
▁climatiques	-11.1715
▁collaborer	-11.1715
▁modifié	-11.1716
ecommunications	-11.1716
ches	-11.1719
▁productive	-11.1719
▁géographique	-11.172
▁Ad	-11.172
▁attentivement	-11.1727
▁l’UE.	-11.1727
ième	-11.1728
▁Slovaquie	-11.1728
nk	-11.1729
▁50%	-11.1729
▁refusé	-11.1729
▁utiles	-11.1731
▁Constitution.	-11.1731
▁term.	-11.1731
▁notice	-11.1731
stitutionnelles	-11.1732
▁d'ordre	-11.1733
▁presentation	-11.1733
▁host	-11.1735
▁door	-11.1736
▁fusion	-11.1739
▁constitué	-11.174
▁incidents	-11.1744
▁funds.	-11.1746
▁candidates	-11.1747
▁progressivement	-11.1748
▁impliqués	-11.1751
▁positives	-11.1752
▁planification	-11.1754
▁vie.	-11.1758
▁widespread	-11.1758
▁utilise	-11.1759
▁hardly	-11.1763
▁embargo	-11.1764
▁percentage	-11.1764
▁coalition	-11.1764
▁150	-11.1769
▁posent	-11.1771
▁foundations	-11.1771
SE	-11.1774
▁33	-11.1774
▁veto	-11.1776
bé	-11.1777
▁voient	-11.178
▁expense	-11.178
▁Presidency.	-11.1782
▁economically	-11.1782
▁journalistes	-11.1784
▁similaires	-11.1785
▁fresh	-11.1788
▁salariés	-11.1792
▁campagnes	-11.1799
▁biodiversity	-11.18
▁biodiversité	-11.18
▁printemps	-11.18
tim	-11.1802
▁négocié	-11.1813
rable	-11.1816
▁resulted	-11.1817
▁Burma	-11.1819
▁ratify	-11.1819
nder	-11.1825
▁brevets	-11.1825
▁below	-11.1826
▁students	-11.1832
▁2020.	-11.1834
-in	-11.1835
▁volet	-11.1838
tour	-11.1841
▁d'introduire	-11.1843
gar	-11.1847
▁accepte	-11.1848
▁fourth	-11.1855
vait	-11.1856
▁Michel	-11.1861
▁arabe	-11.1861
▁assuré	-11.1863
▁heure	-11.1864
▁écrites	-11.1864
▁fiscalité	-11.1864
▁fewer	-11.1865
rm	-11.1866
▁désastre	-11.1867
shed	-11.1867
▁l’occasion	-11.1868
▁liability	-11.1868
▁success.	-11.1868
▁warmly	-11.1872
▁entrepreneurs	-11.1873
▁penalties	-11.1879
▁partager	-11.1881
▁contest	-11.1884
▁preparations	-11.1885
▁promises	-11.189
▁général.	-11.1891
-A	-11.1892
▁v	-11.1893
▁diminuer	-11.1894
▁disagree	-11.1895
▁d'ex	-11.1896
▁intense	-11.1898
▁nous-mêmes	-11.1898
▁civilian	-11.1899
▁définis	-11.19
▁transmettre	-11.1904
▁Compte	-11.1905
▁spécifiquement	-11.1908
▁track	-11.191
▁unilatérale	-11.191
▁cesser	-11.191
rk	-11.1911
▁tough	-11.1911
▁voies	-11.1915
œ	-11.1916
▁modalités	-11.1916
▁journée	-11.1916
▁Most	-11.1917
▁annuelle	-11.1918
▁suscite	-11.192
▁night	-11.1922
▁précision	-11.1926
▁repeated	-11.1928
▁précaution	-11.1928
▁tackling	-11.1928
d'investissement	-11.1931
▁coordinate	-11.1937
ble	-11.1938
▁treat	-11.1948
col	-11.1952
▁jouent	-11.1952
▁alter	-11.1953
2004	-11.1953
▁creates	-11.1956
uve	-11.1958
▁fassent	-11.1962
▁post-	-11.1962
▁borders.	-11.1963
▁Maroc	-11.1965
▁committee.	-11.1967
▁progress.	-11.1967
iller	-11.1967
▁douanière	-11.1971
▁l'exemple	-11.1971
▁libération	-11.1971
▁législature	-11.1971
▁réductions	-11.1977
▁qu'aux	-11.1979
▁instaurer	-11.1982
teur	-11.1982
▁unfortunate	-11.1984
▁Service	-11.1984
▁l'énergie,	-11.1987
▁incident	-11.199
▁continent.	-11.1993
▁Washington	-11.1996
▁category	-11.1996
▁transatlantic	-11.1996
▁licences	-11.1997
▁4.	-11.1998
▁Yes	-11.2007
ées.	-11.2009
▁expertise	-11.2009
▁checks	-11.2012
]	-11.2014
▁pluriannuel	-11.2014
▁sucre	-11.2015
▁matters.	-11.2021
▁airports	-11.2023
▁losses	-11.2026
▁d'enquête	-11.2027
▁cars	-11.2028
▁rely	-11.2029
▁consult	-11.2031
▁Laeken	-11.2033
▁enhanced	-11.2033
▁attaques	-11.2034
▁suggère	-11.2039
▁restricted	-11.2039
▁concepts	-11.204
▁côtés	-11.2042
▁groups.	-11.2042
-20	-11.2043
▁climatique,	-11.2044
▁entraîné	-11.2045
▁prononcé	-11.2046
▁pan	-11.2046
▁flow	-11.2046
page	-11.2052
▁décisionnel	-11.2052
▁Parmi	-11.2053
▁libres	-11.2057
▁alliance	-11.2057
▁jobs,	-11.206
▁crime.	-11.2062
▁city	-11.2062
▁became	-11.2063
▁uncertainty	-11.2064
▁Islamic	-11.2065
work	-11.2066
▁soulever	-11.207
bl	-11.2071
▁opposés	-11.2072
▁correspondant	-11.2077
▁rétablir	-11.2079
▁Clearly	-11.2082
▁sad	-11.2086
▁garantit	-11.2086
▁safety.	-11.2086
tig	-11.2086
▁widely	-11.2088
▁SIS	-11.209
▁dépasse	-11.2095
▁ship	-11.2096
culture	-11.2097
▁correction	-11.2098
▁suédois	-11.21
▁gratitude	-11.2101
▁workers,	-11.2102
▁D'autre	-11.2104
▁Albania	-11.2106
▁Geneva	-11.2107
▁apparu	-11.2107
▁bat	-11.211
▁dictatorship	-11.2113
cle	-11.2118
▁railway	-11.2118
▁buildings	-11.2118
▁échelle	-11.2119
▁condemned	-11.212
▁respecté	-11.2122
▁exposé	-11.2123
▁attache	-11.2124
EA	-11.2125
▁EMU	-11.2126
▁English	-11.2126
▁exceptionnelle	-11.2129
▁révélé	-11.2131
▁d'États	-11.2131
▁occurred	-11.2132
▁youth	-11.2132
▁marche	-11.2133
▁(article	-11.2134
▁reserve	-11.2135
▁dictature	-11.2138
▁Genève	-11.2144
▁Morocco	-11.2144
▁OLAF	-11.2144
▁gradually	-11.2149
▁applaud	-11.215
▁aircraft	-11.2151
▁earn	-11.2151
▁game	-11.2151
▁army	-11.2154
just	-11.2156
▁demandeurs	-11.2156
▁Espagne	-11.2157
▁expensive	-11.2157
▁explained	-11.2159
▁informal	-11.2162
▁fourniture	-11.2165
▁demonstrates	-11.2166
▁regulated	-11.2167
▁politiquement	-11.2171
▁processing	-11.2172
▁devienne	-11.2173
▁unity	-11.2175
▁lasting	-11.2176
une	-11.2178
▁freely	-11.2179
▁contrairement	-11.218
▁Cor	-11.218
▁drafted	-11.218
▁renforce	-11.2181
▁milliard	-11.2183
▁urgente	-11.2186
▁rid	-11.2186
▁émis	-11.2192
▁assemblée	-11.2197
▁coast	-11.2198
▁grecque	-11.22
▁consent	-11.2204
▁collection	-11.2209
▁assisté	-11.2214
▁Lithuania	-11.2214
▁2015	-11.2215
▁société.	-11.2215
▁enceinte	-11.222
▁falls	-11.2225
▁logical	-11.2226
▁receiving	-11.2226
▁l'octroi	-11.2232
▁Swoboda	-11.2232
▁plaintes	-11.2232
ome	-11.2233
▁préparé	-11.2233
▁estimé	-11.2236
▁informés	-11.2238
▁sérieuse	-11.2242
▁américains	-11.2242
▁demographic	-11.2245
▁montants	-11.2246
▁absurd	-11.225
▁écouté	-11.2251
▁past.	-11.2258
▁unanimous	-11.2262
▁masse	-11.2263
▁nonetheless	-11.2264
▁design	-11.2264
▁ceiling	-11.2264
▁unacceptable.	-11.2265
▁unit	-11.2266
PA	-11.2268
▁lessons	-11.2268
▁noise	-11.2269
▁0,	-11.2272
(1)	-11.2273
tta	-11.2273
ett	-11.2273
▁delays	-11.2273
▁défendu	-11.2273
ó	-11.2276
▁causing	-11.2276
▁vigilant	-11.2276
▁Afin	-11.2277
pul	-11.228
▁undertaking	-11.2282
▁Frattini	-11.2283
▁consolider	-11.2283
▁cod	-11.2287
▁outset	-11.2289
▁promis	-11.2295
▁regardless	-11.2299
▁doter	-11.23
▁sovereign	-11.2301
▁opportunité	-11.2302
▁autres.	-11.2305
▁manner.	-11.2305
▁consist	-11.2306
▁hopes	-11.2307
▁douane	-11.2308
▁turning	-11.231
▁profite	-11.2311
▁class	-11.2312
her	-11.2313
▁bénéficie	-11.2315
▁proposons	-11.2319
▁failing	-11.2321
▁appointment	-11.2321
▁abstenu	-11.2321
▁distinct	-11.2321
▁Union'	-11.2324
ers.	-11.2326
▁condamner	-11.2327
▁entrave	-11.2329
▁procurement	-11.2331
▁minister	-11.2335
▁needed.	-11.2342
▁fondamentaux.	-11.2343
ina	-11.2343
▁34	-11.2343
▁sports	-11.2345
çant	-11.2345
▁character	-11.2346
▁dépensé	-11.2347
lus	-11.2349
▁95	-11.2353
▁da	-11.2353
▁indicators	-11.2354
▁donnent	-11.2358
▁indispensables	-11.2359
▁Investment	-11.2359
▁n'importe	-11.2359
▁raw	-11.2361
▁locale	-11.2365
▁Obviously	-11.2365
▁rom	-11.2366
▁larger	-11.2368
▁transformer	-11.2368
▁droite	-11.2369
▁chose.	-11.237
▁aborde	-11.2371
▁conseils	-11.2371
-S	-11.2375
▁indications	-11.2376
lais	-11.2376
▁récents	-11.2378
▁Danube	-11.2378
▁l’amendement	-11.2378
▁procédé	-11.2379
▁listened	-11.2385
▁reflection	-11.2387
ong	-11.2389
▁mondiaux	-11.2391
▁tiré	-11.2392
▁îles	-11.2392
let	-11.2393
▁strike	-11.2395
▁incorporate	-11.2395
▁retards	-11.2397
own	-11.2402
▁unies.	-11.2402
▁hence	-11.2403
▁dégâts	-11.2404
▁diffusion	-11.241
▁voilà	-11.241
▁décisif	-11.241
▁exert	-11.2412
▁permette	-11.2414
▁objet	-11.2417
▁outils	-11.2417
▁Oui	-11.2423
▁tu	-11.2423
▁extraordinary	-11.2423
▁programmation	-11.2423
uit	-11.2423
▁opportunités	-11.2426
▁importantly	-11.2429
▁results.	-11.243
▁elderly	-11.243
▁logement	-11.2431
-year	-11.2431
▁certification	-11.2436
▁porté	-11.2437
▁engaged	-11.2438
▁rapprochement	-11.2439
ui	-11.2442
▁fur	-11.2443
▁désire	-11.2443
▁borne	-11.2445
▁manufacture	-11.2448
lia	-11.2449
▁bâtiments	-11.245
▁formulé	-11.2451
▁push	-11.2452
▁l'instar	-11.2455
▁began	-11.2456
▁financed	-11.2457
▁Parliament'	-11.2457
itaire	-11.2457
▁souffrent	-11.246
▁Syria	-11.2462
▁lorsqu'elle	-11.2462
▁invitation	-11.2462
merge	-11.2468
▁supranational	-11.2468
▁Other	-11.2469
▁comparison	-11.2469
▁observed	-11.2472
▁invent	-11.2472
▁Lituanie	-11.2475
▁l’objectif	-11.2476
▁prioritaire	-11.2476
▁entraîner	-11.2476
▁symbol	-11.2479
▁portugaise	-11.2481
▁tort	-11.2485
▁Barnier	-11.2488
q	-11.249
alisation	-11.249
▁récentes	-11.2491
▁budgétaire.	-11.2492
▁field.	-11.2494
▁règne	-11.2494
istic	-11.2495
▁Pen	-11.2496
▁situe	-11.2498
PE	-11.25
/1999	-11.2501
▁ici.	-11.2503
▁covers	-11.2505
▁disadvantage	-11.2505
▁incapable	-11.2505
▁occupe	-11.2507
▁profession	-11.2508
firm	-11.2508
▁severe	-11.2509
▁basically	-11.2509
▁welcomes	-11.251
▁activities.	-11.2511
▁juridique.	-11.2511
▁officielle	-11.2512
I)	-11.2517
▁résolu	-11.2518
▁interprétation	-11.252
▁intervenu	-11.2528
▁industriels	-11.2528
▁l'exportation	-11.2533
▁tribute	-11.2533
▁adhere	-11.2533
▁simples	-11.2534
▁reality.	-11.2534
▁predict	-11.254
rier	-11.2541
▁recul	-11.2544
gal	-11.2547
▁prévus	-11.2548
▁deuxièmement	-11.2548
▁breach	-11.2548
▁d'accorder	-11.2551
rés	-11.2555
▁primordial	-11.2555
▁imposées	-11.2558
▁killed	-11.2559
▁Bolkestein	-11.2559
▁journalists	-11.2559
▁placé	-11.2559
guer	-11.2561
▁poursuivi	-11.2565
▁win	-11.2565
▁beneficial	-11.2565
▁bilatéraux	-11.2565
▁secrétaire	-11.2565
▁tribunaux	-11.2565
ales	-11.2566
▁suffi	-11.2568
▁personnelle	-11.2569
▁money.	-11.2569
▁REACH	-11.2572
▁qua	-11.2572
▁fill	-11.2572
▁Commissaire.	-11.2575
nom	-11.2578
▁III	-11.2582
▁brut	-11.2583
▁allusion	-11.2585
▁42	-11.2585
▁congratulations	-11.2592
▁necessity	-11.2592
▁s'efforce	-11.2592
ologie	-11.2596
▁augmente	-11.2597
▁hommage	-11.2598
▁animale	-11.2601
▁Poettering	-11.2605
▁spring	-11.2605
▁occidentale	-11.2607
▁subject.	-11.261
enne	-11.261
▁structurelle	-11.261
side	-11.2612
▁Face	-11.2616
▁inférieur	-11.2617
▁Nonetheless	-11.2618
▁Palestinians	-11.2619
ame	-11.262
opt	-11.2621
▁lecture,	-11.2623
▁kinds	-11.2624
▁emphasize	-11.2624
▁territories	-11.2624
▁tomorrow,	-11.2628
▁génétiquement	-11.2628
▁l'Inde	-11.2631
▁rubrique	-11.2631
▁réussir	-11.2635
▁d'enfants	-11.2637
▁attract	-11.264
▁l'E	-11.2645
▁minimal	-11.2645
▁6,	-11.2648
▁yes	-11.2649
▁communautaires.	-11.2657
▁London	-11.2657
▁venons	-11.2657
(2)	-11.2658
▁cohérent	-11.2666
▁contamination	-11.267
▁éventuellement	-11.2671
▁abstained	-11.2672
▁culturels	-11.2673
▁circumstances,	-11.2676
▁lecture.	-11.2677
▁fiscaux	-11.2677
▁spécialement	-11.2678
▁provoqué	-11.2678
▁manifestations	-11.2679
▁reading.	-11.2683
aine	-11.2685
▁question:	-11.2686
▁félicitations	-11.269
▁s'agisse	-11.269
ulation	-11.2692
lie	-11.2693
▁registre	-11.2694
ear	-11.2694
▁prevented	-11.2695
▁supplement	-11.2696
▁circonscription	-11.2697
▁impliquant	-11.2697
▁complémentaire	-11.2699
▁saine	-11.27
▁démocratisation	-11.2703
▁classe	-11.2703
▁none	-11.2704
▁Iraqi	-11.2705
▁prioritaires	-11.2709
▁popular	-11.271
▁l'Iran	-11.271
▁travaille	-11.271
▁Malte	-11.2711
én	-11.2713
▁past,	-11.2716
▁Soviet	-11.2716
▁subjects	-11.2721
▁parallel	-11.2723
▁supplies	-11.2723
▁améliorée	-11.273
▁l’adoption	-11.273
▁précédents	-11.2732
▁justifiée	-11.2737
▁frequently	-11.2746
▁sole	-11.2746
▁faux	-11.2749
▁prudence	-11.275
▁terrorists	-11.275
▁promoted	-11.2753
▁bénéfice	-11.2753
▁search	-11.2755
▁liaison	-11.2756
▁culturelles	-11.2757
▁surface	-11.2757
▁elections.	-11.2758
▁mouvements	-11.2761
purement	-11.2761
/02	-11.2762
▁suspend	-11.2767
▁Palacio	-11.277
▁l'échange	-11.277
40	-11.277
ues	-11.2771
▁expliqué	-11.2772
▁race	-11.2773
▁Brazil	-11.2776
▁Declaration	-11.2776
▁d'armes	-11.2776
▁établissant	-11.2783
▁s’a	-11.2783
▁sending	-11.2786
▁ça	-11.279
▁chute	-11.279
▁foi	-11.2791
▁parvenu	-11.2792
▁Labour	-11.2795
▁Chechnya	-11.2796
▁d'élaborer	-11.2796
▁troops	-11.2796
▁étudiants	-11.2796
▁cible	-11.2798
▁présidente	-11.28
▁nobody	-11.2803
▁d'aborder	-11.2805
▁d'après	-11.2806
▁espoir	-11.2807
▁Year	-11.281
▁détention	-11.2812
▁auteurs	-11.2812
▁insuffisant	-11.2812
▁D'	-11.2812
▁shares	-11.2813
▁l'instrument	-11.2814
▁looked	-11.2815
▁négociations.	-11.2816
▁noon.	-11.2817
▁pursued	-11.2821
▁Egypt	-11.2823
uvre	-11.2823
▁IGC	-11.2823
-t	-11.2825
▁l'entreprise	-11.2826
▁rejection	-11.2827
▁sincerely	-11.2828
▁puni	-11.2831
▁doutes	-11.2832
▁drivers	-11.2834
▁éliminer	-11.2836
▁admettre	-11.2837
▁favorise	-11.2838
▁Présidente	-11.2839
▁generations	-11.2841
▁accru	-11.2842
▁l'extérieur	-11.2843
▁Libya	-11.2843
▁arising	-11.2844
-m	-11.2844
▁workers.	-11.2846
▁accurate	-11.285
▁cinquième	-11.285
▁décisive	-11.285
▁entamer	-11.285
▁rendent	-11.2853
▁sociales,	-11.2855
action	-11.2865
▁d'éducation	-11.2866
▁Ge	-11.2869
▁ferons	-11.2872
▁»	-11.2872
tting	-11.2873
▁profondeur	-11.2875
▁shortly	-11.2878
▁vehicle	-11.2878
▁tentatives	-11.288
▁soutiennent	-11.2884
▁10%	-11.2886
▁pain	-11.2888
▁Verts	-11.2888
▁approuve	-11.2888
tive	-11.2889
▁deaths	-11.2891
▁précises	-11.2891
▁n’en	-11.2893
▁éco	-11.2893
▁déf	-11.2893
▁38	-11.2897
être	-11.2898
▁finish	-11.2902
▁utilisateurs	-11.2903
▁certifi	-11.2903
rions	-11.2904
▁vaccin	-11.2906
▁envoyer	-11.2907
ek	-11.2909
lles	-11.2909
IN	-11.2909
▁disponible	-11.2909
97	-11.291
▁compétentes	-11.2914
venant	-11.2915
▁s’en	-11.2917
▁Every	-11.2917
▁rigorous	-11.2917
▁margin	-11.2918
▁moved	-11.2918
▁entrée	-11.292
▁enregistré	-11.2923
▁Eurostat	-11.2924
▁sinon	-11.2925
ritten	-11.2925
▁friend	-11.2926
▁touch	-11.2927
range	-11.2929
▁opinion.	-11.2929
▁provisoire	-11.293
▁souhaiter	-11.2931
▁Parallèlement	-11.2937
▁accompanied	-11.2937
▁discrimination.	-11.294
nov	-11.2941
▁president	-11.2944
▁emerging	-11.2944
▁accomplir	-11.2947
▁tunnel	-11.2951
▁privées	-11.2953
exige	-11.2957
▁législatifs	-11.2957
▁congratulating	-11.2958
▁collabor	-11.2961
▁couvre	-11.2965
▁d'im	-11.2965
▁Decision	-11.2966
▁clearer	-11.2967
▁Toute	-11.2968
▁banking	-11.2969
▁contenter	-11.2969
▁amélioré	-11.2971
▁récent	-11.2972
▁m'en	-11.2973
▁déployés	-11.2973
IC	-11.298
▁dégager	-11.2982
▁pen	-11.2982
▁salaire	-11.2984
▁collapse	-11.2985
▁employés	-11.2987
▁évidente	-11.2988
▁reçoivent	-11.2989
▁généraux	-11.2991
ats	-11.2994
▁insisté	-11.2996
▁bénéfique	-11.2998
▁prenant	-11.3003
▁proven	-11.3003
▁compléter	-11.3005
▁divided	-11.3005
▁alongside	-11.3006
▁Ré	-11.3006
▁stage.	-11.301
▁Su	-11.3011
▁nécessairement	-11.3011
▁talked	-11.3011
ved	-11.3012
▁decline	-11.3012
▁approximately	-11.3013
▁opérationnelle	-11.3019
nage	-11.3023
▁officiel	-11.3023
▁l'attitude	-11.3024
▁day.	-11.3024
▁l’utilisation	-11.3026
▁harmonisé	-11.3026
▁exclusively	-11.3026
▁enlarged	-11.3027
▁organe	-11.3028
▁discussion.	-11.3029
▁quotidienne	-11.303
ôt	-11.3038
▁contraintes	-11.304
ô	-11.3042
▁chrétiens	-11.3043
-C	-11.3044
▁visé	-11.3046
▁birth	-11.3046
▁l'essentiel	-11.3046
▁keen	-11.3046
▁judgment	-11.3047
▁project.	-11.3048
▁text.	-11.3049
ators	-11.3051
▁Great	-11.3053
▁periods	-11.3053
▁constatons	-11.3056
▁efficiently	-11.3057
▁polonais	-11.3057
▁commend	-11.306
▁persuadé	-11.306
▁rémunération	-11.306
▁black	-11.306
tron	-11.3062
▁cheap	-11.3065
▁Mugabe	-11.3067
ties	-11.3068
▁touchés	-11.3069
▁lancement	-11.3072
pou	-11.3072
▁compete	-11.3073
▁devaient	-11.308
▁threaten	-11.3081
▁fondement	-11.3081
▁Etats	-11.3082
vin	-11.3085
▁morts	-11.3085
í	-11.3087
▁exprime	-11.3092
▁rejoindre	-11.3094
▁déçu	-11.3094
▁indirect	-11.3094
▁simplify	-11.3096
-b	-11.3096
▁déterminé	-11.3097
▁routier	-11.3098
▁prolong	-11.31
▁expert	-11.3103
▁humanitaires	-11.3103
▁énergétique.	-11.3105
▁absurde	-11.3109
▁Leur	-11.3109
▁attribu	-11.311
▁deviennent	-11.311
▁Ju	-11.3114
▁surveiller	-11.3115
ologique	-11.3119
▁growth.	-11.3121
▁dépassé	-11.3122
▁harmonised	-11.3122
▁s'engager	-11.3124
cin	-11.3127
▁convaincus	-11.3127
▁inégalités	-11.313
▁périodes	-11.3131
▁concrétiser	-11.3132
load	-11.3134
▁defending	-11.3134
▁victim	-11.3135
▁mental	-11.3137
▁divergences	-11.3138
▁modèles	-11.3142
▁purchase	-11.3142
▁Like	-11.3143
▁rythme	-11.3149
▁capture	-11.315
▁pauvreté.	-11.315
▁amené	-11.3153
25	-11.3154
▁allant	-11.3155
▁yourself	-11.3156
▁pur	-11.3156
▁guide	-11.3162
▁pièces	-11.3163
▁prevail	-11.3165
gression	-11.3166
▁insuffisante	-11.3167
▁strictly	-11.3168
▁Objective	-11.317
▁argue	-11.317
▁sol	-11.3172
▁exemption	-11.3174
▁coûte	-11.3176
▁listening	-11.3177
▁northern	-11.3177
▁textiles	-11.3177
▁travailleurs.	-11.3178
▁requête	-11.3178
▁Education	-11.3184
▁partant	-11.3185
▁follows	-11.319
▁s'agissant	-11.3191
▁Statute	-11.3192
▁Americans	-11.3192
▁discriminations	-11.3194
▁suivie	-11.3195
▁friendly	-11.3198
ric	-11.32
▁sale	-11.3206
▁bill	-11.3215
▁usual	-11.322
▁minor	-11.3223
année	-11.3228
▁exploitations	-11.3228
▁légal	-11.3234
▁Women	-11.3235
▁Communauté.	-11.3238
▁identifié	-11.3239
▁routière	-11.3239
▁catch	-11.3241
▁Presidents	-11.3244
▁micro	-11.3246
▁Cotonou	-11.3246
▁soumises	-11.3251
ath	-11.3251
▁Est-ce	-11.3253
▁S'agissant	-11.3253
▁disappointed	-11.3255
▁chemical	-11.3255
▁l'approbation	-11.3255
▁tenons	-11.326
▁sharing	-11.326
▁trans-European	-11.326
ering	-11.3262
▁d'entreprises	-11.3265
▁experiencing	-11.3267
▁satisfaisant	-11.3268
▁sentence	-11.327
▁syndicats	-11.3271
▁crops	-11.3271
▁consacrée	-11.3272
▁Birmanie	-11.3274
▁Petitions	-11.3274
▁rising	-11.3276
▁demanderai	-11.328
▁coherence	-11.3281
▁Jusqu'	-11.3281
▁begun	-11.3281
▁accélérer	-11.3282
▁quarter	-11.3284
▁constante	-11.3284
▁Go	-11.3284
▁isolé	-11.3286
▁Otherwise	-11.3288
▁ultrapériphéri	-11.3288
▁troupes	-11.3288
▁choses.	-11.3292
▁unanimity	-11.3295
▁dernier.	-11.3297
▁banque	-11.3298
▁combler	-11.33
▁figurent	-11.33
▁computer	-11.3302
▁beings	-11.3303
point	-11.3303
▁désaccord	-11.3303
▁stick	-11.3309
▁adult	-11.331
▁companies.	-11.331
▁revolution	-11.3311
▁néerlandais	-11.3314
▁licence	-11.3315
▁Ab	-11.3315
▁requiert	-11.3316
▁enquêtes	-11.3318
▁incompatible	-11.3323
▁surrounding	-11.3323
▁43	-11.3324
▁Reform	-11.3325
▁l'Agenda	-11.3325
▁marked	-11.3328
▁Their	-11.3329
▁clandestine	-11.3329
han	-11.333
flu	-11.3331
▁forests	-11.3332
▁l’autre	-11.3337
▁underlying	-11.3338
▁nôtre	-11.3344
▁Man	-11.3345
▁Ou	-11.3347
▁loans	-11.3348
▁Cohesion	-11.3352
▁jurisdiction	-11.3352
can	-11.3354
▁éventuelle	-11.3356
▁utilisant	-11.3366
▁stem	-11.3367
▁écart	-11.3371
▁Atlantic	-11.3373
▁voulez	-11.3373
▁bois	-11.3377
▁Communist	-11.338
▁neighbourhood	-11.338
▁Dé	-11.3381
▁disons	-11.3382
ö	-11.3387
▁l'ESB	-11.3387
▁avance	-11.3388
▁emission	-11.339
▁compétente	-11.3391
▁consulted	-11.3393
▁suscité	-11.3394
▁Information	-11.3401
▁soviétique	-11.3401
▁opposé	-11.3401
▁passant	-11.3408
▁Finnish	-11.3408
▁resource	-11.3409
▁Vo	-11.341
▁réalité.	-11.341
▁courte	-11.341
▁essence	-11.3415
▁inacceptable.	-11.3416
▁desirable	-11.3423
lusieurs	-11.3425
▁maximale	-11.3428
▁surplus	-11.3429
ological	-11.343
▁relèvent	-11.3432
▁déplore	-11.3433
▁demandant	-11.3434
erai	-11.3437
▁risquent	-11.3439
▁parallèlement	-11.3439
▁sauf	-11.3441
▁prétend	-11.3441
▁drive	-11.3443
▁d'assurance	-11.3444
▁55	-11.3444
▁achieved.	-11.3445
iz	-11.3446
▁standing	-11.3449
▁respecting	-11.345
▁communiqué	-11.3451
▁quelqu'un	-11.3451
▁directed	-11.3451
-M	-11.3452
registre	-11.3453
▁threatened	-11.3455
▁dream	-11.3458
▁retiré	-11.3458
▁mur	-11.3458
▁news	-11.3459
▁d’Europe	-11.3461
çons	-11.3462
▁investisseurs	-11.3465
▁encouragement	-11.3473
▁multinationales	-11.3478
▁j’espère	-11.3479
of	-11.348
▁follow-up	-11.348
+	-11.3482
▁1991	-11.3486
▁entrepris	-11.3488
▁interest.	-11.3489
▁timely	-11.3492
▁indépendance	-11.3492
▁Two	-11.3494
lon	-11.3497
▁decision.	-11.3498
▁d'entreprise	-11.3499
▁Han	-11.35
▁Sakharov	-11.3501
▁l’esprit	-11.3501
▁pursuan	-11.3508
▁poisson	-11.3508
▁dizaines	-11.3509
▁franc	-11.351
▁négative	-11.3512
til	-11.3515
▁closure	-11.3515
▁permitted	-11.3516
bon	-11.3519
▁Single	-11.3522
accord	-11.3522
▁genetically	-11.3522
▁UEN	-11.3523
▁spéciale	-11.3524
▁connected	-11.3526
ï	-11.3527
▁multiples	-11.3527
▁replaced	-11.3529
anci	-11.3529
▁Tchétchénie	-11.3529
cor	-11.353
▁diversification	-11.3531
▁choices	-11.3531
rich	-11.3532
▁arrêté	-11.3533
▁l’ordre	-11.3535
▁l’en	-11.3536
▁quotidien	-11.3536
▁impératif	-11.3537
▁conformité	-11.3537
▁nine	-11.3538
▁préoccupe	-11.3539
▁Turkey.	-11.3539
▁jeune	-11.3542
▁differ	-11.3543
ati	-11.3544
venu	-11.3545
ctive	-11.3546
▁persuade	-11.3551
▁forgotten	-11.3551
▁sight	-11.3552
ming	-11.3552
place	-11.3554
gram	-11.3556
▁abordée	-11.3557
▁réjouir	-11.3558
▁conjointe	-11.3558
▁écrite	-11.3559
▁événement	-11.356
▁économiques.	-11.356
▁acceptance	-11.3563
▁root	-11.3563
▁gather	-11.3565
▁inadmissible	-11.3565
▁d'accroître	-11.3565
▁fou	-11.3566
pac	-11.3567
izing	-11.3568
▁imposé	-11.357
-out	-11.357
ception	-11.3574
▁d'élargissement	-11.3575
▁explique	-11.3576
-B	-11.3578
▁hospital	-11.358
▁procedural	-11.358
▁sélection	-11.3581
▁rigoureuse	-11.3582
▁Cher	-11.3585
▁consistant	-11.3586
▁lacking	-11.3586
▁well-	-11.3588
▁énormes	-11.3588
▁hoc	-11.3589
▁agi	-11.3591
▁integration.	-11.3591
▁renoncer	-11.3592
▁israélien	-11.3593
▁complexes	-11.3595
▁l’application	-11.3595
▁refused	-11.3598
▁protégé	-11.3598
▁municipal	-11.3601
▁province	-11.3601
▁n'avait	-11.3604
rage	-11.3605
▁Sch	-11.3608
▁mere	-11.361
nou	-11.3611
right	-11.3612
▁survie	-11.3614
▁Mercosur	-11.3616
▁examination	-11.3616
▁65	-11.3617
▁domaines.	-11.3617
bb	-11.362
▁déterminée	-11.362
▁sections	-11.3622
▁residence	-11.3623
▁prisons	-11.3624
▁CIG	-11.363
▁praise	-11.3631
▁commun.	-11.3632
▁seules	-11.3632
▁warm	-11.3638
▁adverse	-11.3638
été	-11.3638
▁period.	-11.3641
▁injuste	-11.3642
▁Strasbourg.	-11.3644
vier	-11.3645
▁defining	-11.3645
▁Your	-11.3647
▁similaire	-11.3649
▁poverty.	-11.3653
▁Allow	-11.3654
uf	-11.3655
▁stipule	-11.3659
▁acceptée	-11.3664
▁joined	-11.3666
▁integrity	-11.3667
▁classification	-11.3667
▁feu	-11.3671
▁Services	-11.3672
▁importants.	-11.3673
▁Ministre	-11.3674
▁impetus	-11.3674
▁prostitution	-11.3674
impl	-11.3677
▁participent	-11.3677
▁wise	-11.3681
▁restera	-11.3683
▁hongroise	-11.3684
▁électroniques	-11.3686
▁categories	-11.3688
▁régulation	-11.3688
▁longues	-11.3694
ED	-11.3696
▁Defence	-11.3696
▁controversial	-11.3696
▁cri	-11.3696
▁individuels	-11.3696
▁tension	-11.3696
▁1989	-11.3696
▁objection	-11.3697
▁ouvre	-11.3697
êt	-11.3697
fully	-11.3697
▁consequently	-11.3698
▁confident	-11.3702
▁s'impose	-11.3704
▁Val	-11.3706
▁établis	-11.3708
▁cont	-11.3708
▁rigueur	-11.371
▁frappe	-11.371
▁feuille	-11.3718
▁north	-11.3718
ines	-11.3722
▁facilité	-11.3725
▁Ben	-11.3727
▁personnelles	-11.3732
▁l'inclusion	-11.3735
▁consulté	-11.3737
▁campaigns	-11.3739
▁equivalent	-11.374
▁uphold	-11.3742
▁Pi	-11.3743
▁south	-11.3743
▁rendue	-11.3744
▁customer	-11.3744
▁quick	-11.3746
ook	-11.3748
▁norme	-11.3751
▁produisent	-11.3753
▁serais	-11.3755
▁l’agriculture	-11.3756
▁réponse.	-11.3756
▁exprimée	-11.3756
▁fe	-11.3759
In	-11.3761
▁dramatic	-11.3761
▁contributing	-11.3762
▁hoped	-11.3765
▁assurances	-11.3766
▁worthy	-11.3766
▁d’autre	-11.3768
▁m'ont	-11.3772
▁die	-11.3775
▁Malta	-11.3777
▁finally,	-11.3777
▁puts	-11.3783
▁Regarding	-11.3784
▁Natura	-11.3784
▁comprennent	-11.3784
▁helpful	-11.3788
▁soil	-11.3789
▁essayé	-11.3791
▁communiquer	-11.3791
▁majeurs	-11.3793
▁remark	-11.3798
-Mediterranean	-11.3798
▁imposing	-11.3798
▁tiennent	-11.3799
▁bateaux	-11.3799
▁employeurs	-11.3799
▁l’ex	-11.3799
▁ruin	-11.38
▁2001.	-11.3803
▁concerné	-11.3805
▁Conservative	-11.3806
▁illustrate	-11.3806
▁découle	-11.3806
uni	-11.3809
▁showed	-11.3814
▁créée	-11.3815
▁resumed	-11.3817
▁particulières	-11.3818
▁reconciliation	-11.3821
tif	-11.3821
▁développe	-11.3825
▁Criminal	-11.3828
▁l'Amérique	-11.3828
▁anglais	-11.3828
▁Forum	-11.383
▁résolue	-11.3832
▁investigations	-11.3834
▁d'impact	-11.3837
nger	-11.3838
▁length	-11.3838
▁ethniques	-11.3839
venir	-11.3844
▁détaillée	-11.3844
▁slightly	-11.3845
▁fournit	-11.3847
▁victime	-11.3848
▁sauver	-11.385
▁difficile.	-11.3852
▁d’aide	-11.3853
▁art	-11.3856
▁jugé	-11.3857
▁(debate)	-11.3858
▁System	-11.3858
▁coexistence	-11.3858
▁rating	-11.3863
▁significatif	-11.3864
▁accordingly	-11.3864
▁négatifs	-11.3865
▁tolérance	-11.3865
▁Pack	-11.3866
▁utilisent	-11.3868
▁observé	-11.3872
▁identité	-11.3872
▁pierre	-11.3872
▁characteristics	-11.3872
▁désigné	-11.3872
▁fausse	-11.3872
▁accusations	-11.3873
▁démontrer	-11.3874
▁mépris	-11.388
▁inspection	-11.388
▁missing	-11.3881
▁exceed	-11.3882
▁raises	-11.3882
▁devions	-11.3882
ency	-11.3883
▁(débat)	-11.3887
▁hémicycle	-11.3887
▁(E	-11.389
égalité	-11.3891
rel	-11.3891
60	-11.3894
▁statute	-11.3894
back	-11.3894
▁fournisseurs	-11.3895
▁l'humanité	-11.3895
▁répété	-11.3895
▁professions	-11.3896
▁horizontal	-11.3896
▁estimated	-11.3898
▁devez	-11.3899
▁adéquates	-11.3899
▁short-term	-11.3902
▁housing	-11.3902
▁reasons.	-11.3904
▁divergent	-11.3904
bel	-11.3904
▁évoquée	-11.3905
▁culture.	-11.3905
▁hautement	-11.3907
▁acceptable.	-11.3907
▁Africa.	-11.3908
▁scrutiny	-11.3913
▁destroy	-11.3915
▁observers	-11.3915
▁Mu	-11.3917
▁Hong	-11.3918
▁supporter	-11.3921
ignor	-11.3923
▁scandal	-11.3923
▁n'é	-11.3923
pha	-11.3923
▁nationals	-11.3928
▁interim	-11.3929
ny	-11.3937
▁generate	-11.3938
gli	-11.3939
▁preventive	-11.3941
▁funded	-11.3942
▁unilateral	-11.3954
▁disregard	-11.3954
▁lit	-11.3955
▁signing	-11.3956
▁mille	-11.3958
▁Posselt	-11.3962
▁énormément	-11.3962
▁projects.	-11.3964
▁ancien	-11.3964
▁Ceux	-11.3964
▁arrivé	-11.3965
▁withdrawal	-11.3966
▁embryo	-11.3969
▁ministère	-11.3969
amin	-11.3971
▁convince	-11.3977
▁préventive	-11.3977
▁rédaction	-11.3977
▁plain	-11.3981
▁sûrs	-11.3982
▁complémentaires	-11.3982
▁judge	-11.3983
▁August	-11.3984
▁Solidarity	-11.3984
▁l'alimentation	-11.3984
▁whatsoever	-11.3984
▁américaines	-11.3989
▁concentre	-11.399
ther	-11.3995
▁.-	-11.3997
▁MEDA	-11.3999
▁execution	-11.3999
▁Kong	-11.4001
▁transeuropéens	-11.4002
▁advocate	-11.4002
▁coastal	-11.4003
▁indépendamment	-11.4007
▁autonome	-11.4007
▁mix	-11.4008
▁joining	-11.4011
▁Italy,	-11.4013
▁systematic	-11.4014
▁Friday	-11.4015
▁preliminary	-11.4015
▁perception	-11.4015
▁recherches	-11.4018
▁concert	-11.4018
▁d'aller	-11.4022
▁poissons	-11.4022
▁mentionne	-11.4022
▁voisin	-11.4024
▁financières.	-11.4025
/EC	-11.4026
▁confrontée	-11.4029
▁maintenance	-11.403
▁distributed	-11.403
▁aérienne	-11.403
▁cro	-11.4031
▁Air	-11.4031
▁craintes	-11.4033
▁location	-11.4037
▁virus	-11.4037
▁subsequent	-11.4038
▁pair	-11.4038
▁inside	-11.4039
▁immédiat	-11.404
▁thousand	-11.404
EU	-11.4042
▁highlights	-11.4043
▁obligatoires	-11.4044
▁subsequently	-11.4044
▁tourist	-11.4046
▁farms	-11.4049
▁contraignant	-11.4049
▁individuelle	-11.4052
▁managing	-11.4053
▁exclu	-11.4057
▁notably	-11.4067
▁Monday	-11.4067
▁Please	-11.4067
▁blind	-11.4075
▁croyons	-11.4075
▁attractive	-11.4076
▁vaccination	-11.4077
▁Who	-11.4078
▁nommé	-11.4079
▁l’Assemblée	-11.4083
▁prouvé	-11.4083
nds	-11.4083
▁jou	-11.4083
▁describe	-11.4084
▁controlled	-11.4086
▁l'occurrence	-11.409
▁Londres	-11.409
▁compromis.	-11.4093
▁d'eau	-11.4094
▁except	-11.4095
▁l'instauration	-11.4102
▁examinée	-11.4104
▁d'émission	-11.4104
bal	-11.4111
▁1998.	-11.4112
▁Deux	-11.4113
▁OGM	-11.4113
▁80%	-11.4114
▁resistance	-11.4114
ût	-11.4115
▁reprend	-11.4118
▁roads	-11.4118
▁integrate	-11.412
▁investors	-11.4121
▁développements	-11.4122
▁lieux	-11.4124
▁ethnique	-11.4124
▁définies	-11.4126
▁faim	-11.413
▁ouverture	-11.413
▁costs.	-11.4131
▁intermédiaire	-11.4133
▁publish	-11.4133
▁iron	-11.4134
▁nature.	-11.4134
▁organizations	-11.4137
▁solidarity.	-11.414
▁financière.	-11.414
▁l’intégration	-11.4143
outermost	-11.4143
▁l’intérêt	-11.4144
▁reported	-11.4144
▁advanced	-11.4146
▁rencontrer	-11.4149
▁écologiques	-11.415
▁Watson	-11.4151
▁légitimes	-11.4153
▁destroyed	-11.4157
▁Muslim	-11.4159
▁illustre	-11.4159
▁plaide	-11.4159
▁l’éducation	-11.416
▁ferai	-11.4166
▁convey	-11.4166
▁individus	-11.4167
mie	-11.4167
▁marqué	-11.4167
▁unions	-11.4169
▁respectant	-11.4173
▁offices	-11.4175
▁representing	-11.4181
▁j'avais	-11.4182
tendre	-11.4183
▁dépendent	-11.4183
▁voterons	-11.4183
ER	-11.4186
Européen	-11.4187
mal	-11.4188
▁Traité.	-11.4189
▁Affaire	-11.4189
▁travaillons	-11.4193
▁congé	-11.4193
▁cross	-11.4197
▁losing	-11.4197
▁obtenus	-11.42
▁ferait	-11.4201
▁disputes	-11.4203
▁woman	-11.4205
▁anniversaire	-11.4207
▁30%	-11.4207
▁envisaged	-11.4209
/CE	-11.421
eu	-11.4211
NA	-11.4213
▁railways	-11.4215
▁verte	-11.4215
▁respectés	-11.422
▁Latvia	-11.422
▁préconise	-11.422
-cadre	-11.4227
▁adhérer	-11.4228
▁Tunisie	-11.4228
▁compliment	-11.4228
ave	-11.4232
char	-11.4232
▁éventuel	-11.4233
ks	-11.4234
▁impliqué	-11.4234
▁d'entendre	-11.4236
▁solutions.	-11.4238
▁vain	-11.424
▁pratique.	-11.4241
▁Personne	-11.4243
▁approfondi	-11.4245
▁achievements	-11.4246
▁fortes	-11.4248
▁control.	-11.4249
▁Africa,	-11.4253
06	-11.4255
▁regularly	-11.4256
▁emerge	-11.4258
▁parallèle	-11.4264
▁imported	-11.4264
wo	-11.4265
▁Tribunal	-11.4266
▁d'Amérique	-11.4266
▁participating	-11.4266
▁universities	-11.4266
▁error	-11.4268
▁proches	-11.4268
▁stimulate	-11.4274
▁trace	-11.4274
considérablement	-11.4275
tag	-11.4275
▁commentaire	-11.4279
▁effectuer	-11.4285
▁foundation	-11.4287
▁infringement	-11.4289
▁bovine	-11.4289
▁banned	-11.4291
▁fermé	-11.4291
▁Sudan	-11.4294
▁approaches	-11.4294
berg	-11.4296
ken	-11.4298
▁solved	-11.4302
▁Annex	-11.4305
▁inhabitants	-11.4305
▁Outre	-11.4306
8/9	-11.431
▁(I	-11.4312
RE	-11.4315
▁dossier.	-11.4319
▁péril	-11.4321
▁révolution	-11.4322
▁Tunisia	-11.4325
▁arriv	-11.4327
ium	-11.4328
▁Wednesday	-11.4328
▁subsidi	-11.4332
▁fermer	-11.4334
▁juger	-11.4335
▁mobilise	-11.4337
▁fixed	-11.4338
▁réformer	-11.4342
▁profound	-11.4344
▁founded	-11.4352
are	-11.4355
▁compréhensible	-11.4355
▁safeguarding	-11.4355
▁donnera	-11.4356
▁items	-11.4358
▁gained	-11.4358
▁gel	-11.4358
-free	-11.4359
▁hundred	-11.436
▁assurément	-11.436
ifiant	-11.436
▁probable	-11.4361
▁écho	-11.4361
▁eventually	-11.4362
▁quo	-11.4363
▁plays	-11.4364
▁étudier	-11.4365
▁d'efficacité	-11.4365
▁d'euros.	-11.4365
ures	-11.4365
▁complement	-11.4367
▁l'étiquetage	-11.4367
▁motivation	-11.4367
▁pensée	-11.4375
▁providers	-11.4376
▁favorablement	-11.438
opération	-11.438
▁Democratic	-11.4381
▁rares	-11.4386
bord	-11.4387
▁autorisée	-11.4387
▁covering	-11.4395
▁inondations	-11.4406
▁d'imposer	-11.4406
▁définitif	-11.4408
▁supérieure	-11.441
▁customers	-11.4414
▁détruit	-11.4414
▁chemicals	-11.442
▁maritimes	-11.4421
▁40%	-11.4423
▁arrêter	-11.4427
▁impartial	-11.4428
▁Lebanon	-11.443
▁pouvons-nous	-11.4433
grad	-11.4435
▁touchées	-11.4436
▁pretext	-11.4438
▁traduction	-11.4438
test	-11.4439
dge	-11.444
▁Certaines	-11.4442
▁mère	-11.4442
▁russes	-11.4442
▁description	-11.4446
▁frein	-11.4446
▁poursuit	-11.4446
▁autrichienne	-11.4448
▁prochainement	-11.4453
▁L'un	-11.4455
tric	-11.4457
▁hélas	-11.4461
▁tolerance	-11.4461
▁bel	-11.4467
▁nationale.	-11.4467
▁perturb	-11.4469
▁s'exprimer	-11.4473
▁négatives	-11.4473
▁barrières	-11.4475
▁aériens	-11.4477
▁certitude	-11.4477
▁immigrés	-11.4478
▁tir	-11.4484
▁Similarly	-11.4485
tér	-11.4488
▁auteur	-11.4489
▁considérés	-11.4489
▁réfléchi	-11.4489
▁either.	-11.4492
▁l'espère	-11.4501
▁abroad	-11.4501
(COD))	-11.4501
▁J'appelle	-11.4501
▁adjust	-11.4501
▁payé	-11.4503
▁dead	-11.4503
▁hour	-11.4503
▁Women's	-11.4506
▁G8	-11.4506
▁Brésil	-11.4509
▁mandatory	-11.451
▁flows	-11.451
▁reconnais	-11.4511
▁passée	-11.4512
ères	-11.4515
▁executive	-11.4517
▁intérimaire	-11.4517
pression	-11.4521
▁continuation	-11.4521
▁concertation	-11.4523
▁modeste	-11.4523
▁monitored	-11.4523
▁ECHO	-11.4524
▁Indonesia	-11.4524
EM	-11.4527
▁coal	-11.4527
asso	-11.4528
▁criteria.	-11.4529
viv	-11.453
▁d'importance	-11.4532
▁incendies	-11.4532
▁unité	-11.4532
▁Citizens'	-11.4534
▁considèrent	-11.4534
▁n’avons	-11.4537
▁trouble	-11.4538
▁comparaison	-11.454
▁l’idée	-11.454
▁600	-11.4543
OP	-11.4545
IS	-11.4545
▁Dis	-11.4547
▁stringent	-11.4548
▁Penda	-11.4549
11	-11.455
▁partisans	-11.4551
▁richesse	-11.4551
▁stockage	-11.4552
▁ELDR	-11.4556
▁judicieux	-11.4556
▁conjointement	-11.4557
▁Tant	-11.4559
▁exchanges	-11.4563
▁islamique	-11.4564
▁établies	-11.4568
▁mineurs	-11.457
▁eau	-11.4571
▁l'espoir	-11.4572
▁papier	-11.4572
▁réunir	-11.4576
gl	-11.4577
▁remise	-11.4579
▁Sarkozy	-11.458
▁modifiant	-11.458
pprobation	-11.4583
▁d'évaluer	-11.4584
▁Pol	-11.4586
▁Code	-11.4587
▁dimensions	-11.4588
▁d'accepter	-11.4588
▁freight	-11.4588
▁gratuit	-11.4588
▁over-	-11.459
▁nordique	-11.459
▁adapté	-11.4593
▁warrant	-11.4598
tien	-11.46
▁values.	-11.4601
▁bancaire	-11.4603
▁disparu	-11.4604
▁indicateurs	-11.4605
▁mistakes	-11.4607
▁compar	-11.4608
▁monétaires	-11.4611
▁Taiwan	-11.4612
▁charbon	-11.4612
▁supervisory	-11.4613
active	-11.4613
▁préférable	-11.4613
▁délicat	-11.4616
▁symbole	-11.4616
▁sex	-11.4617
▁préservation	-11.4622
▁déloyale	-11.4628
▁humanity	-11.4628
▁sell	-11.4634
▁posées	-11.4634
▁liquid	-11.4635
▁explicitement	-11.4642
▁jusqu'au	-11.4648
▁appeler	-11.4648
▁établit	-11.4649
▁avancé	-11.465
▁Hence	-11.465
▁l'issue	-11.4652
▁honte	-11.4654
▁menacée	-11.4655
▁stricte	-11.4655
▁ignored	-11.4656
ify	-11.4657
▁dépens	-11.4657
▁multinational	-11.4662
igh	-11.4663
▁prends	-11.4665
▁sit	-11.4668
▁anniversary	-11.4668
▁display	-11.4668
▁resolving	-11.4668
▁acknowledged	-11.4669
▁insult	-11.4669
▁respects	-11.4674
▁containing	-11.4676
▁BEI	-11.4676
▁fallu	-11.4683
▁l'étranger	-11.4684
▁stakeholders	-11.4684
▁victoire	-11.4684
▁déroulé	-11.4684
▁intervenants	-11.4684
▁requis	-11.4685
▁priority.	-11.4688
▁lé	-11.4689
▁résident	-11.469
▁complexité	-11.4691
▁échéant	-11.4692
▁prouver	-11.4694
▁combine	-11.4696
▁implemented.	-11.4698
▁envisagée	-11.47
▁OSCE	-11.47
▁PHARE	-11.47
▁exigence	-11.4705
▁older	-11.4705
▁inviter	-11.4707
▁notification	-11.4707
▁avéré	-11.4707
▁pursuing	-11.4708
▁registration	-11.4708
▁consistency	-11.4709
▁universités	-11.4709
99	-11.471
▁Community's	-11.4714
▁dangereuse	-11.4716
▁suggéré	-11.4717
ières	-11.4719
▁reaffirm	-11.4719
▁entreprendre	-11.4721
▁l'im	-11.4723
▁l'élimination	-11.4725
▁réconciliation	-11.4725
▁vérification	-11.4725
érant	-11.4725
▁infect	-11.4726
▁l’accès	-11.4726
long	-11.4727
▁page	-11.4728
▁contenues	-11.4729
▁taxpayers	-11.473
▁nucléaire.	-11.4731
▁fires	-11.4734
ell	-11.4735
▁Rien	-11.4736
▁injustice	-11.4737
▁arrangement	-11.4737
▁suffisantes	-11.4739
▁d’adhésion	-11.4741
▁assessments	-11.4741
▁exécution	-11.4743
▁fails	-11.4746
employ	-11.4747
▁Liban	-11.4749
▁soin	-11.4754
▁align	-11.4757
▁straight	-11.4757
▁Bas	-11.4759
▁qu’a	-11.4761
▁complain	-11.4763
▁albeit	-11.4765
▁arrière	-11.4765
▁partagée	-11.4769
▁sincere	-11.4771
▁mountain	-11.4773
▁accepting	-11.4774
▁totalité	-11.4775
▁succès.	-11.4781
▁EIB	-11.4781
▁déplacement	-11.4781
▁Sahara	-11.4781
▁Finance	-11.4782
▁evaluate	-11.4787
▁précédentes	-11.4789
▁qu'est	-11.4792
▁particuliers	-11.4794
▁égalité	-11.4795
ccept	-11.4795
▁alimentaire.	-11.4797
▁Third	-11.4797
▁Balkans.	-11.48
▁assets	-11.48
▁prop	-11.4802
▁Pat	-11.4803
▁chômeurs	-11.4806
▁actifs	-11.4808
▁faille	-11.4808
▁agrees	-11.4808
▁danois	-11.481
▁appelons	-11.4814
▁rechercher	-11.4815
group	-11.4815
▁l'être	-11.4817
▁gravité	-11.4822
▁l'ampleur	-11.4822
▁Chairman	-11.4823
▁d’intérêt	-11.4823
▁farm	-11.4824
▁s'attaquer	-11.4825
▁pharmaceutique	-11.4826
▁l'assistance	-11.4828
▁signer	-11.483
▁lorsqu’il	-11.483
▁L'accord	-11.4833
▁stages	-11.4842
▁accountability	-11.4843
exprim	-11.4849
▁clients	-11.485
▁exprimés	-11.4853
mou	-11.4854
▁organic	-11.4854
▁reductions	-11.4854
▁Th	-11.4854
▁virtue	-11.4855
▁vraie	-11.4856
▁eux.	-11.4856
▁apportée	-11.4857
▁chemins	-11.4858
▁m’a	-11.4858
▁l'Autriche	-11.4859
▁invited	-11.486
▁norm	-11.4861
cut	-11.4862
▁outlined	-11.4863
emprunt	-11.4863
▁convert	-11.4866
▁visited	-11.4867
ski	-11.487
ica	-11.487
▁sentir	-11.4871
▁engine	-11.4872
mbi	-11.4872
▁Romanian	-11.4876
▁actors	-11.4877
atoire	-11.4879
▁imperative	-11.488
▁d'experts	-11.488
▁vendredi	-11.4881
▁beau	-11.4882
▁(L	-11.4882
▁globalement	-11.4886
▁Syrie	-11.4888
▁Could	-11.4896
▁naissance	-11.4896
▁experiment	-11.4896
▁expressément	-11.4896
▁nourriture	-11.4896
row	-11.4897
▁grandement	-11.4899
▁impliquées	-11.4901
▁touché	-11.4902
▁furthermore	-11.4904
▁origine	-11.4905
▁incentive	-11.4905
-P	-11.4905
z-vous	-11.4907
▁ignorer	-11.4907
▁d'exécution	-11.4908
08	-11.4909
▁fifteen	-11.4912
▁fears	-11.4913
▁variety	-11.4913
▁ge	-11.4914
écu	-11.4916
▁wages	-11.4923
▁essaie	-11.4924
▁accounting	-11.4925
llo	-11.4926
▁employed	-11.4928
▁Wallström	-11.4929
▁female	-11.4929
▁étapes	-11.4929
▁logic	-11.4929
▁wall	-11.493
▁meantime	-11.493
▁réjouissons	-11.493
▁religieuses	-11.4936
▁décide	-11.4936
▁servi	-11.4937
▁Estonia	-11.4937
▁(Rule	-11.4937
▁lancée	-11.4938
▁refugee	-11.4938
▁l'extension	-11.4942
▁d'actions	-11.4943
▁ami	-11.4945
▁maintenu	-11.4946
▁proactive	-11.4946
gra	-11.4946
▁denied	-11.4947
CC	-11.4947
▁attribué	-11.4949
▁wind	-11.4949
▁fier	-11.495
▁longtemps.	-11.4951
▁terror	-11.4952
▁point:	-11.4953
▁answered	-11.4953
▁prerequisite	-11.4954
▁saluons	-11.4954
▁exhaustive	-11.4954
▁délégations	-11.4955
▁suggests	-11.4956
▁l’ai	-11.4957
▁égal	-11.4957
▁juridiquement	-11.4959
inte	-11.496
▁douze	-11.4962
▁44	-11.4964
mine	-11.4965
▁criterion	-11.497
article	-11.4971
▁issus	-11.4973
▁l'I	-11.4973
É	-11.4976
▁explications	-11.4979
▁compagnie	-11.4979
▁abuses	-11.4979
▁prépare	-11.4981
▁biologique	-11.4986
▁immunity	-11.4987
▁durables	-11.4988
▁Reding	-11.4989
▁audition	-11.4989
▁shortage	-11.4991
▁recover	-11.4999
▁tragique	-11.5
ime	-11.5001
▁fictifs	-11.5002
▁impliquer	-11.5002
éné	-11.5003
▁disparition	-11.5003
▁brève	-11.5012
▁piliers	-11.5012
▁s'engage	-11.5013
▁vigueur.	-11.5014
har	-11.5014
▁présentant	-11.5015
▁Liberals	-11.5017
matic	-11.5017
▁pharmaceutical	-11.502
6%	-11.5022
▁terroriste	-11.5022
▁falling	-11.5022
▁director	-11.5026
▁Celle-ci	-11.5028
▁recital	-11.5028
▁third-country	-11.5029
▁voudrait	-11.5029
activité	-11.5032
▁justifié	-11.5034
▁sexes	-11.5036
▁l'enfant	-11.5037
▁législateur	-11.5037
▁mercredi	-11.5037
cket	-11.5037
▁tonight	-11.5037
▁étendre	-11.5039
▁traduire	-11.5045
▁développé	-11.5047
▁africaine	-11.5048
▁cope	-11.5048
▁effectif	-11.5048
▁profitable	-11.5052
▁familiale	-11.5053
▁fifth	-11.5054
▁sympathy	-11.5054
▁(CE)	-11.5054
▁oublié	-11.5054
▁saurait	-11.5055
▁features	-11.5062
▁policière	-11.5062
▁dérogation	-11.5066
2010	-11.5067
▁usually	-11.5068
▁antérieur	-11.507
▁gradual	-11.5072
▁confrontation	-11.5073
▁D'autres	-11.5074
▁parvenue	-11.5075
▁directive-cadre	-11.5076
▁publics.	-11.5078
▁slaughter	-11.5079
▁perpétré	-11.5079
▁éloigné	-11.5079
▁communicate	-11.5079
▁partiellement	-11.5082
▁puissant	-11.5083
▁voici	-11.5087
non-governmental	-11.5087
▁Suisse	-11.5087
▁fournis	-11.5092
▁autonomy	-11.5095
▁apprécié	-11.5095
4%	-11.5095
▁functions	-11.5097
▁sache	-11.5098
18	-11.5102
▁c’est-à-dire	-11.5104
▁station	-11.5109
▁privilégié	-11.5112
▁consciente	-11.5116
▁Vu	-11.5117
▁distort	-11.5118
▁learned	-11.5119
▁conjoint	-11.512
▁Millennium	-11.5121
▁radioactive	-11.5121
▁closing	-11.5121
▁vivons	-11.5121
▁financiers.	-11.5121
-même	-11.5122
▁rêve	-11.5122
pit	-11.5125
lève	-11.5125
▁maison	-11.5126
▁protège	-11.5129
▁socialist	-11.513
▁n'aurait	-11.5131
▁signs	-11.5131
▁attentats	-11.5135
▁Objet:	-11.5135
gne	-11.5137
▁l'urgence	-11.5137
▁adoptant	-11.5138
▁prohibit	-11.5141
pin	-11.5142
▁Chine.	-11.5142
▁empêche	-11.5142
▁procedures.	-11.5142
▁l'analyse	-11.5143
▁1%	-11.5144
ü	-11.5146
▁prescription	-11.5146
▁feature	-11.5146
▁wave	-11.5146
▁Lomé	-11.5147
▁violences	-11.515
▁disposé	-11.515
▁étendue	-11.5151
▁l'UEM	-11.5153
uring	-11.5154
▁appels	-11.5154
▁cutting	-11.5157
▁fuels	-11.5158
▁équivalent	-11.5158
▁appui	-11.5161
▁biocarburants	-11.5163
▁regarder	-11.5163
▁conservateurs	-11.5165
▁saisi	-11.5167
oud	-11.517
▁explanations	-11.5179
▁39	-11.5179
pic	-11.5179
▁liked	-11.5181
▁mette	-11.5182
▁inscrit	-11.5187
▁mémoire	-11.5188
▁réglementer	-11.5192
▁backing	-11.5194
▁diplomatique	-11.5194
▁fate	-11.5195
▁caution	-11.5197
▁triste	-11.5197
produ	-11.5199
▁excessif	-11.5201
▁servent	-11.5201
▁Tu	-11.5202
▁experiences	-11.5203
(CNS))	-11.5205
▁remplacé	-11.5205
▁exclude	-11.521
▁trou	-11.521
rég	-11.5211
▁genres	-11.5211
▁Maintenant	-11.5214
▁recyclage	-11.5214
▁occup	-11.5216
▁contrat	-11.5217
▁participe	-11.522
▁Jarzembowski	-11.5222
▁d'exprimer	-11.5222
▁endorsed	-11.5225
▁Ru	-11.5226
▁badly	-11.5227
▁faisait	-11.5229
▁l’une	-11.5231
▁Scotland	-11.5231
▁false	-11.5231
▁attentif	-11.5231
▁halt	-11.5232
▁harmonise	-11.5232
▁250	-11.5235
kin	-11.5235
▁concludes	-11.5235
▁consistently	-11.5236
▁modest	-11.5238
▁corriger	-11.5239
▁disastrous	-11.5239
▁fossé	-11.5239
▁bruit	-11.524
12	-11.5241
▁corresponding	-11.5241
▁released	-11.5243
▁apportées	-11.5245
▁reveal	-11.5247
▁oriental	-11.5249
▁enfant	-11.525
▁limitations	-11.525
▁hopefully	-11.5251
▁substantially	-11.5252
▁airport	-11.5254
▁VI	-11.5255
▁convictions	-11.5256
▁d’énergie	-11.5257
▁virtually	-11.5258
▁renewed	-11.5261
▁l'aspect	-11.5262
▁affaibli	-11.5262
▁témoigne	-11.5262
▁appointed	-11.5263
▁adressé	-11.5264
▁personnalité	-11.5265
▁fabricants	-11.5265
▁s'appliquer	-11.5266
▁decent	-11.5269
▁adequately	-11.527
▁storage	-11.5273
▁garanti	-11.5273
▁priorities.	-11.5273
▁entering	-11.5278
▁federal	-11.5279
▁modifiés	-11.5282
▁condamné	-11.5284
▁reporting	-11.5285
▁delegations	-11.5286
▁disait	-11.5289
▁Iranian	-11.5292
▁GMOs	-11.5295
▁enforce	-11.5297
▁Above	-11.5299
▁productivité	-11.53
▁died	-11.5301
▁concernés.	-11.5304
▁born	-11.5305
▁l'effet	-11.5307
▁pipeline	-11.5307
▁préparatoire	-11.5307
ivity	-11.5311
▁quantités	-11.5311
▁movements	-11.5312
▁Corbett	-11.5316
▁His	-11.5316
▁rue	-11.5317
▁suivantes	-11.5317
ndre	-11.5318
▁scandale	-11.5321
▁sectors.	-11.5323
▁Ver	-11.5324
▁couvert	-11.5324
▁Naturally	-11.5325
▁chercheurs	-11.5325
▁élevée	-11.5329
▁week.	-11.5332
▁autorisation	-11.5333
bro	-11.5334
▁lis	-11.5334
▁ageing	-11.5334
tech	-11.5336
▁admis	-11.5337
▁productivity	-11.5342
RA	-11.5343
▁provoque	-11.5344
▁Belarus.	-11.535
▁examining	-11.535
▁composante	-11.5353
▁innovations	-11.5354
▁flood	-11.5357
▁l'agenda	-11.5359
▁âge	-11.5359
▁vous-même	-11.536
▁1997.	-11.536
▁satisfaits	-11.5362
2008	-11.5364
CO	-11.5365
▁acted	-11.5367
aï	-11.5372
▁roumain	-11.5376
▁transnational	-11.5378
▁nourri	-11.538
nons	-11.538
▁l'avant	-11.5381
▁l’immigration	-11.5385
▁C6-	-11.5385
AR	-11.5386
bus	-11.5387
▁déficits	-11.5391
▁subsiste	-11.5392
▁(EC)	-11.5394
▁Moldavie	-11.5394
▁scientists	-11.5394
▁Colombia	-11.5394
▁réparti	-11.5396
▁dollar	-11.5396
ology	-11.5397
▁collectif	-11.5397
▁focusing	-11.5399
▁continuerons	-11.5401
▁manoeuvre	-11.5402
▁privacy	-11.5402
▁l'appel	-11.5404
▁produite	-11.5408
▁présentera	-11.541
▁incorrect	-11.5411
▁lundi	-11.5411
▁souvenir	-11.5411
▁mini	-11.5417
▁remis	-11.5418
▁doté	-11.5418
▁Beaucoup	-11.542
▁contenant	-11.542
▁statistical	-11.542
▁évalué	-11.542
nées	-11.5421
▁apparently	-11.5422
▁partners.	-11.5425
▁Bruxelles.	-11.5426
▁précieuse	-11.5428
war	-11.5429
-le	-11.5433
▁annex	-11.5434
▁regimes	-11.5435
/2005	-11.5437
▁damaging	-11.5437
'après	-11.5443
ecretary-General	-11.5449
▁recognises	-11.545
▁atteints	-11.5451
▁l’efficacité	-11.5457
gul	-11.546
ep	-11.546
regulation	-11.5462
ider	-11.5463
▁toxic	-11.5465
▁EP	-11.5465
▁L'amendement	-11.5466
▁Greens	-11.5467
▁rigid	-11.5467
▁unie	-11.5468
▁disposée	-11.5471
▁cat	-11.5471
▁explication	-11.5472
▁inquiry	-11.5472
▁emerged	-11.5473
▁avoided	-11.5474
▁devoted	-11.5478
▁survive	-11.5479
▁initially	-11.5479
▁pourrais	-11.548
▁socio-economic	-11.548
▁envisagé	-11.548
▁ménage	-11.5481
▁journey	-11.5482
▁Far	-11.5483
▁Slovenia	-11.5484
▁d'assistance	-11.5486
▁sérieuses	-11.5486
▁await	-11.5487
▁mobiliser	-11.5488
approuve	-11.5489
▁Est	-11.549
▁strictement	-11.5491
▁examinons	-11.5498
▁intégrante	-11.5499
45	-11.5499
n-discrimination	-11.55
▁completion	-11.5501
▁associés	-11.5501
hir	-11.5503
▁placer	-11.5505
▁originaire	-11.5506
▁guise	-11.5507
▁d'intervenir	-11.5507
▁Euratom	-11.5511
▁map	-11.5512
attache	-11.5512
▁portugais	-11.5515
▁platform	-11.5515
▁detention	-11.5516
az	-11.5522
els	-11.5523
▁nul	-11.5523
▁Venezuela	-11.5524
▁comitologie	-11.5524
▁everywhere	-11.5525
▁profond	-11.5525
▁Albanian	-11.5526
▁manifesté	-11.5527
▁importantes.	-11.553
▁cou	-11.5532
▁tolerate	-11.5535
▁arm	-11.5538
▁résumé	-11.5542
human	-11.5546
▁handling	-11.5549
▁far-reaching	-11.555
▁l'âge	-11.555
▁programming	-11.555
▁looks	-11.5552
▁disparités	-11.5552
euro	-11.5558
▁soldats	-11.5559
ator	-11.556
▁MEP	-11.5561
▁d'accueil	-11.5562
▁Europe'	-11.5563
CE	-11.5563
▁disposés	-11.5564
▁provoquer	-11.5566
▁definitive	-11.5568
▁John	-11.5568
▁l'effort	-11.5568
▁Mal	-11.5576
▁délocalisation	-11.5577
▁d’origine	-11.5577
▁technologiques	-11.5578
▁délicate	-11.5582
▁story	-11.5586
▁exploiter	-11.5587
▁120	-11.5589
▁potentiels	-11.5591
▁colonial	-11.5591
▁l’homme.	-11.5592
▁ratifier	-11.5599
▁Libye	-11.5603
▁donnant	-11.5604
▁vive	-11.5608
▁juridiction	-11.5612
▁Ms	-11.5617
▁résolus	-11.5618
▁champion	-11.5619
▁Vitorino	-11.5621
▁n'étaient	-11.5621
▁TACIS	-11.5621
▁joindre	-11.5622
▁accumul	-11.5622
▁serai	-11.5622
▁heads	-11.5624
▁l'O	-11.5624
ciaux-démocrates	-11.5629
▁consolidate	-11.5629
ération	-11.563
▁écouter	-11.5631
▁Erasmus	-11.5632
▁title	-11.5639
▁traditionnelle	-11.564
évaluation	-11.5646
▁l'air	-11.5647
▁l’intention	-11.5648
▁équipements	-11.5648
▁relief	-11.5649
▁democrat	-11.565
▁suspens	-11.5652
▁Islam	-11.5653
urg	-11.5653
▁tackled	-11.5654
▁égale	-11.5655
▁Switzerland	-11.5656
▁numéro	-11.5656
▁comités	-11.5659
▁historiques	-11.5665
ifying	-11.5667
▁fiables	-11.5671
▁assister	-11.5672
▁Whilst	-11.5674
2009	-11.5675
▁sain	-11.5675
▁prévisions	-11.5675
▁directs	-11.5676
▁USD	-11.5677
▁safeguards	-11.5679
▁-B4	-11.5683
▁resort	-11.5683
wing	-11.5687
▁142)	-11.5692
▁Aujourd’hui	-11.5692
▁Liikanen	-11.5692
▁démantèlement	-11.5692
▁régulier	-11.5692
▁translation	-11.5692
▁exigeant	-11.5694
vir	-11.5694
▁promesse	-11.5695
▁externes	-11.5695
▁impôts	-11.5697
▁'the	-11.57
comprehensible	-11.5701
▁precondition	-11.5701
▁réagi	-11.5702
▁pertinentes	-11.5705
▁tissu	-11.571
▁d'ajustement	-11.5714
▁réalisées	-11.5714
▁linguistique	-11.5715
▁universelle	-11.5717
▁effectively.	-11.5718
aménagement	-11.5719
▁précieux	-11.5719
▁qu’on	-11.5719
▁repression	-11.5722
▁testing	-11.5722
▁recommended	-11.5723
▁Aucun	-11.5724
▁Sha	-11.5727
▁classes	-11.5727
▁télé	-11.5727
▁d'empêcher	-11.5728
▁lives.	-11.573
▁d'Israël	-11.5731
▁exercée	-11.5732
▁workers'	-11.5733
Votre	-11.5735
▁qu’au	-11.5735
▁fréquent	-11.5737
▁nutrition	-11.5737
▁struck	-11.5737
▁signatures	-11.5737
▁planet	-11.5739
▁arrived	-11.574
▁constat	-11.5741
▁divide	-11.5743
▁accueilli	-11.5743
▁étendu	-11.5744
▁frustration	-11.5746
▁satisfy	-11.5746
▁(A5-01	-11.5747
▁pre-	-11.5747
▁qu'après	-11.5747
gh	-11.5752
▁spéculation	-11.5753
▁inappropriate	-11.5754
▁generous	-11.5755
▁punishment	-11.5756
▁fabrication	-11.5757
▁est-elle	-11.5761
lock	-11.5762
▁Te	-11.5763
▁l’attention	-11.5763
▁redress	-11.5764
▁sévères	-11.5767
▁accusé	-11.5768
▁illégal	-11.577
▁precautionary	-11.5773
▁réclame	-11.5776
▁affirm	-11.5781
▁quantitative	-11.5781
▁benchmark	-11.5781
▁viabilité	-11.5782
▁accused	-11.5782
▁détenus	-11.5786
individu	-11.579
▁Ecofin	-11.579
▁qualitative	-11.579
▁facto	-11.5791
▁régi	-11.5792
important	-11.5793
▁adapter	-11.5794
▁riche	-11.5795
▁contradictions	-11.5796
▁models	-11.5797
lons	-11.5799
▁Oomen-Ruijten	-11.5799
▁autorisé	-11.5804
▁interdire	-11.5808
▁s'adresse	-11.5808
vaient	-11.5811
▁investigate	-11.5815
93	-11.5815
▁Liberties	-11.5817
▁retenu	-11.5818
fait	-11.5818
ked	-11.5822
▁desired	-11.5825
▁names	-11.5826
▁autumn	-11.5826
▁tué	-11.5827
▁négoci	-11.5827
DC	-11.5829
000	-11.5829
▁subir	-11.5829
▁leaves	-11.5834
▁Lehne	-11.5836
-t-on	-11.5836
/CEE	-11.584
▁explicitly	-11.584
▁l'électricité	-11.5841
▁dommage	-11.5842
▁autorisés	-11.5844
▁46	-11.5846
▁décès	-11.5846
▁quitter	-11.585
del	-11.5852
▁reverse	-11.5853
▁semestre	-11.5854
▁rédiger	-11.5855
▁partisan	-11.5858
ani	-11.5862
▁dégagé	-11.5863
▁Costa	-11.5863
▁servant	-11.5863
▁write	-11.5863
7%	-11.5863
▁reserves	-11.5865
▁scrutin	-11.5867
▁fatal	-11.5872
▁d'animaux	-11.5872
▁fought	-11.5872
▁semblable	-11.5872
▁appren	-11.5872
étude	-11.5876
▁book	-11.5877
▁Institute	-11.5881
assi	-11.5884
▁génétique	-11.5884
ON	-11.5885
▁Mexico	-11.589
▁component	-11.5891
▁vocational	-11.5892
▁tighten	-11.5892
▁confront	-11.5895
▁humaine.	-11.5896
▁dates	-11.5896
▁sanitaires	-11.5897
▁touchent	-11.5899
▁tape	-11.5903
hand	-11.5906
▁fault	-11.5908
▁irregularities	-11.5908
▁industriel	-11.5909
▁étroit	-11.5909
▁l'autre.	-11.591
▁enabled	-11.5915
parti	-11.5915
▁middle	-11.5917
▁Procedure.	-11.5918
▁l'ancienne	-11.592
▁exigent	-11.5921
▁council	-11.5926
▁simplified	-11.5926
▁observateurs	-11.5926
▁soldiers	-11.5927
▁vieille	-11.5927
▁pick	-11.5931
▁Ti	-11.5933
▁absorb	-11.5935
▁identification	-11.5935
▁entier.	-11.5936
▁nationalité	-11.5936
-vous	-11.5939
étique	-11.5939
▁élargi	-11.594
▁fundamentally	-11.5944
/EEC	-11.5944
▁Special	-11.5945
▁sums	-11.5946
▁deficits	-11.5948
▁east	-11.5952
▁sexuel	-11.5953
▁Vietnam	-11.5954
▁l’encontre	-11.5954
rum	-11.5955
▁attaque	-11.5955
▁cofinancement	-11.5957
▁surpris	-11.5961
▁conçu	-11.5962
▁Naturellement	-11.5963
▁subvention	-11.5964
▁d'environnement	-11.5965
uc	-11.5965
▁Law	-11.5966
▁modernes	-11.5967
▁encouragé	-11.597
▁dure	-11.5971
▁Médiateur	-11.5972
▁aliment	-11.5973
▁enshrined	-11.5974
DA)	-11.5977
▁d'ore	-11.598
▁Sri	-11.598
▁Olympic	-11.5981
▁repercussions	-11.5981
▁shipping	-11.5982
▁(F	-11.5984
▁compare	-11.5985
▁era	-11.5986
▁paragraphs	-11.5986
▁illégaux	-11.599
▁sensibilisation	-11.599
▁alone.	-11.599
▁assorti	-11.599
▁soumet	-11.5991
▁construct	-11.5992
▁d’A	-11.5998
▁Cohn-Bendit	-11.6
▁restant	-11.6
▁mettra	-11.6001
▁disadvantaged	-11.6003
pho	-11.6003
▁évaluations	-11.6004
▁Berlusconi	-11.6009
▁Slovénie	-11.6009
ète	-11.6012
▁Would	-11.6018
▁compromises	-11.6019
▁Globalisation	-11.6019
▁fulfilled	-11.6019
▁israélienne	-11.602
▁spécificité	-11.6027
▁suspicion	-11.6027
ink	-11.6033
▁abstain	-11.6034
ication	-11.6035
▁wherever	-11.6036
▁réelles	-11.6045
▁ensured	-11.6047
▁Ste	-11.6048
▁pace	-11.6049
▁créant	-11.6052
▁lourds	-11.6054
▁bataille	-11.6055
▁parviendrons	-11.6055
▁delivered	-11.606
▁laying	-11.6064
▁vécu	-11.6064
▁bande	-11.6072
▁fashion	-11.6073
▁séparation	-11.6073
▁restreint	-11.6073
▁lifelong	-11.6074
▁d'accords	-11.6075
certain	-11.6076
▁rejetée	-11.6076
û	-11.6076
▁vols	-11.6078
▁intelligence	-11.6078
▁priv	-11.608
▁inciter	-11.608
▁dépasser	-11.6081
▁seekers	-11.6082
▁inequalities	-11.6083
▁privilège	-11.6083
annonce	-11.6083
▁democratisation	-11.6084
▁approbation	-11.6086
cons	-11.6087
▁adapted	-11.6088
▁bridge	-11.6092
ra-t-il	-11.6094
▁fixation	-11.6094
▁réalisée	-11.6094
▁d'intérêts	-11.6097
▁intéresse	-11.6101
▁traitées	-11.6106
DE	-11.6107
▁respectées	-11.6108
gard	-11.6109
▁cast	-11.6109
▁d'organiser	-11.611
stream	-11.6115
▁thon	-11.6116
▁relancer	-11.6116
▁exposed	-11.6117
▁persecution	-11.612
▁speculation	-11.612
▁J'invite	-11.612
▁soulevées	-11.6121
▁sensiblement	-11.6121
▁gravement	-11.6122
▁opération	-11.6125
▁49	-11.6125
▁établie	-11.6128
▁cease	-11.6128
▁caractérise	-11.6129
▁scenario	-11.6129
▁Mann	-11.6137
aging	-11.6137
medicinal	-11.6138
▁préfère	-11.6138
▁removal	-11.6138
▁rouge	-11.6138
▁criticise	-11.6139
nait	-11.6141
▁partenariats	-11.6141
▁multilatérale	-11.6143
▁votes.	-11.6143
▁shame	-11.6143
▁85	-11.6143
▁d’ici	-11.6145
▁criminals	-11.6145
▁d'efforts	-11.6148
▁l'armée	-11.6148
▁assistants	-11.615
▁l'échec	-11.6151
▁detriment	-11.6151
ccélér	-11.6151
▁respected.	-11.6155
▁Lanka	-11.6158
▁resist	-11.6158
-T	-11.6163
▁Böge	-11.6166
▁vegetable	-11.6166
ort	-11.6172
▁représentante	-11.6175
▁strive	-11.6176
▁Iraq.	-11.6176
▁1980	-11.6176
▁ventes	-11.6178
▁d'innovation	-11.6179
▁enterprise	-11.6181
▁livres	-11.6182
▁formulée	-11.6183
▁enjeux	-11.6185
MI	-11.6186
▁souverain	-11.6187
CT	-11.6187
lay	-11.6188
▁initiated	-11.6193
▁sexe	-11.6193
▁d'exercer	-11.6194
▁d'instaurer	-11.6194
▁ownership	-11.6194
▁parliamentarian	-11.6194
▁pourparlers	-11.6194
▁prévoyant	-11.6195
▁radicale	-11.6195
▁l’information	-11.6196
▁deny	-11.6197
time	-11.6198
▁commises	-11.6201
▁lobby	-11.6201
▁700	-11.6204
▁idéologique	-11.6204
▁presidential	-11.6204
▁sensibilité	-11.6204
▁prétendu	-11.6205
▁detect	-11.6205
yons	-11.6207
▁normale	-11.6208
▁dispositif	-11.6208
▁bureaucratique	-11.621
▁infractions	-11.6211
▁permanence	-11.6213
▁alleged	-11.6213
▁recognize	-11.6213
▁ciblée	-11.6214
▁déposer	-11.6215
▁attached	-11.6216
oyer	-11.6217
▁Day	-11.6217
▁seat	-11.6218
95	-11.622
▁Ferrero-Waldner	-11.6222
▁preparatory	-11.6222
IT	-11.6225
▁saving	-11.6227
like	-11.6227
▁ideological	-11.6232
▁vétérinaire	-11.6232
▁openly	-11.6233
▁conformer	-11.6235
▁néerlandaise	-11.6235
▁tableau	-11.6237
▁tomber	-11.6238
▁évolutions	-11.624
▁narrow	-11.6241
▁s'avérer	-11.6241
▁drop	-11.6241
▁flights	-11.6251
▁construit	-11.6251
▁transferred	-11.6251
▁officiellement	-11.6252
▁protégés	-11.6254
▁Autrement	-11.6255
▁interpret	-11.6257
▁résolument	-11.626
▁47	-11.626
▁Federal	-11.626
▁sépare	-11.626
▁Vienne	-11.6261
▁"p	-11.6262
-off	-11.6262
▁inclusive	-11.6263
▁Cha	-11.6265
▁équitables	-11.6266
14	-11.6267
▁twice	-11.627
▁manifestation	-11.6271
▁vitale	-11.6271
hum	-11.6274
▁enables	-11.6275
▁d'organisation	-11.6275
▁préférence	-11.6278
▁trente	-11.6279
▁existante	-11.6281
▁lance	-11.6282
▁won	-11.6284
▁définitivement	-11.6285
▁constituera	-11.6285
▁conviendrait	-11.629
▁Trans	-11.629
8%	-11.6296
▁'no'	-11.6298
▁mentionnés	-11.6307
▁aspire	-11.6307
▁Jacques	-11.6307
▁multiannual	-11.6307
▁bureaux	-11.6309
▁dependence	-11.6309
▁compensate	-11.6309
▁statu	-11.6312
▁2011.	-11.6313
▁warn	-11.6315
▁Johannesburg	-11.6317
▁Youth	-11.6322
▁3%	-11.6325
▁facility	-11.6326
▁inevitably	-11.6326
▁linguistic	-11.6326
▁pouvaient	-11.6326
▁détaillé	-11.6327
▁assured	-11.6328
▁reassure	-11.6328
▁Quatrièmement	-11.6329
▁heurt	-11.633
▁41	-11.6331
cier	-11.6332
ncienne	-11.6333
▁bananes	-11.6335
▁overwhelming	-11.6336
▁disponibilité	-11.6336
▁relevé	-11.6336
▁l'expression	-11.6336
▁Everyone	-11.6336
▁investissement	-11.6339
▁n’ai	-11.6339
hr	-11.634
▁democratically	-11.6341
▁solidaire	-11.6344
▁meets	-11.6344
placing	-11.6344
▁d’ailleurs	-11.6345
▁patience	-11.6345
▁fonde	-11.6346
▁dénoncer	-11.6346
▁tourner	-11.6349
▁d'E	-11.6349
▁partnerships	-11.635
▁pressing	-11.635
▁abandonné	-11.6353
octroi	-11.6354
▁constraints	-11.6355
▁forestry	-11.6356
mble	-11.6356
zi	-11.6357
▁reproductive	-11.6357
▁disappear	-11.6358
▁africains	-11.636
▁cellules	-11.6363
▁witness	-11.6363
▁killing	-11.6364
▁d’améliorer	-11.6366
▁minds	-11.6366
▁privilege	-11.6366
▁alarming	-11.6366
▁affronter	-11.6367
▁apparemment	-11.6374
▁jeux	-11.6374
▁publier	-11.6378
harm	-11.6383
▁là-bas	-11.6383
▁precedent	-11.6383
ET	-11.6384
▁socially	-11.6385
▁potentially	-11.6388
appa	-11.6389
▁year's	-11.6392
▁explicite	-11.6392
▁intitulé	-11.6393
▁Progress	-11.6398
▁fallen	-11.64
▁exemptions	-11.6402
▁condamne	-11.6402
▁j'étais	-11.6403
drew	-11.6405
rig	-11.6406
▁internet	-11.6406
▁stricter	-11.6408
▁naturelle	-11.6411
▁trap	-11.6412
▁embark	-11.6412
▁pledge	-11.6412
▁responses	-11.6415
▁l'opportunité	-11.6417
ali	-11.6418
IP	-11.6418
▁gentlemen	-11.642
-friendly	-11.6422
▁Barón	-11.6422
▁hunger	-11.6422
▁Deuxième	-11.6422
ound	-11.6423
▁attitudes	-11.6428
face	-11.6429
▁abortion	-11.6431
▁conseiller	-11.6433
▁profile	-11.6433
▁l'OMC.	-11.644
▁foodstuffs	-11.6441
▁vary	-11.6442
dam	-11.6445
▁l’ont	-11.6447
▁appalling	-11.6451
try	-11.6457
▁formelle	-11.6458
▁citoyenne	-11.6459
▁paragraphes	-11.646
▁légiférer	-11.6461
▁intéressante	-11.6463
▁Fo	-11.6463
▁remboursement	-11.647
▁twenty	-11.647
▁l'aviation	-11.647
▁déli	-11.6471
▁distribué	-11.6473
▁repos	-11.6474
/2	-11.6477
option	-11.648
▁éducation	-11.6482
▁remplacement	-11.6483
▁d'engagement	-11.6484
xi	-11.6485
Q	-11.6485
▁originally	-11.6486
▁monopoly	-11.6489
▁Harbour	-11.6489
▁draftsman	-11.6489
▁attain	-11.6489
▁déroule	-11.649
▁traitements	-11.6492
▁confirmation	-11.6493
▁définit	-11.6498
▁AIDS	-11.6499
▁s'inscrit	-11.6499
▁western	-11.6499
▁apprendre	-11.6499
appui	-11.65
▁appropriés	-11.6501
▁avancés	-11.6501
▁film	-11.6501
▁candidature	-11.6503
▁découlant	-11.6508
▁félicitons	-11.6508
▁faillite	-11.6508
▁wholeheartedly	-11.651
▁attentive	-11.6511
▁coins	-11.6512
▁incidence	-11.6512
▁characterised	-11.6518
▁decade	-11.6519
▁démarches	-11.6525
▁Fourthly	-11.6525
▁inutiles	-11.6526
train	-11.6526
▁circ	-11.6526
▁XXIe	-11.6528
▁discriminatoire	-11.6528
▁l’OMC	-11.6528
▁wished	-11.6532
▁effectués	-11.6537
incitation	-11.6537
▁Celui-ci	-11.6537
▁desquels	-11.6537
▁remote	-11.6537
▁Dr	-11.654
▁N'	-11.6543
▁constituency	-11.6547
▁s’applique	-11.6547
▁comptable	-11.6547
▁PESC	-11.6547
▁nominal	-11.6547
▁voters	-11.6548
▁motif	-11.6549
▁fini	-11.6552
▁présentes	-11.6553
▁divisions	-11.6555
▁appreciation	-11.6557
▁volontiers	-11.6557
▁divisé	-11.6557
▁signes	-11.6562
▁codes	-11.6563
▁impatience	-11.6566
▁reconcile	-11.6566
▁engendre	-11.6571
▁pal	-11.6571
▁Actuellement	-11.6576
▁chypriote	-11.6576
▁own-initiative	-11.6576
▁soi-disant	-11.6576
▁Lamy	-11.6576
▁systematically	-11.6577
▁calm	-11.6579
▁ended	-11.6582
▁sage	-11.6583
▁est-ce	-11.6586
▁reposer	-11.659
▁pénales	-11.6591
▁outline	-11.6592
▁assessing	-11.6594
▁crainte	-11.6595
▁countries'	-11.6595
▁manipulation	-11.6596
▁xénophobie	-11.6596
▁l'exception	-11.6596
▁chaos	-11.6596
▁décision-cadre	-11.6598
▁adjustment	-11.66
▁d'inclure	-11.6605
▁englobe	-11.6605
▁fédéral	-11.6611
▁puissances	-11.6611
▁marks	-11.6612
▁irrespective	-11.6615
▁secrétariat	-11.6615
cide	-11.6616
▁critiqué	-11.6618
productive	-11.662
▁deviendra	-11.6623
▁actives	-11.6623
introduction	-11.6624
▁ferroviaires	-11.6624
▁isolation	-11.6625
▁large-scale	-11.6626
▁60%	-11.6626
▁consulter	-11.6626
▁stating	-11.6628
▁pages	-11.6629
▁l'arrêt	-11.6631
▁optique	-11.6631
▁high-quality	-11.6635
▁Algeria	-11.6635
arbitr	-11.6637
▁jouets	-11.6637
▁conditional	-11.6638
▁financements	-11.6639
▁practically	-11.6641
▁vieux	-11.6641
▁ravie	-11.6642
▁subsidiarité.	-11.6643
▁Bangemann	-11.6645
▁Cypriot	-11.6645
▁concilier	-11.6645
▁fructueuse	-11.6645
▁génocide	-11.6645
épargne	-11.6645
▁researchers	-11.6646
Union	-11.665
insertion	-11.6652
▁broadly	-11.6655
▁hazardous	-11.6655
efficacité	-11.6657
-ci	-11.666
▁appuyer	-11.6661
▁announcement	-11.6662
▁errors	-11.6662
▁alloués	-11.6664
▁prejudice	-11.6664
▁deciding	-11.6664
▁Among	-11.6664
▁biofuels	-11.6667
▁remained	-11.6669
▁vieillissement	-11.6674
▁L’Europe	-11.6675
not	-11.6676
▁directes	-11.6679
light	-11.6679
▁PNR	-11.6684
▁kurde	-11.6684
▁n'aura	-11.6687
▁sévère	-11.669
▁partagent	-11.669
▁alert	-11.6692
▁honor	-11.6693
▁producer	-11.6693
▁tremendous	-11.6694
▁automatically	-11.6694
▁stopped	-11.6695
▁thoroughly	-11.6698
ough	-11.6698
▁structurels.	-11.6699
▁telling	-11.6699
▁Vienna	-11.6704
▁recorded	-11.6706
▁workplace	-11.6709
▁tombe	-11.671
▁bottom	-11.6713
▁d'attention	-11.6713
▁hinder	-11.6713
▁earthquake	-11.6713
▁scénario	-11.6713
arme	-11.6717
gan	-11.6718
▁dérogations	-11.6719
▁criticised	-11.6723
▁qu'aujourd'hui	-11.6723
▁Greens/	-11.6726
▁vent	-11.673
▁refusal	-11.6731
▁heureusement	-11.6732
▁organization	-11.6732
ppréciation	-11.6733
▁plaid	-11.6733
▁Hague	-11.6734
▁Also,	-11.6735
▁internationally	-11.6735
▁800	-11.6737
▁fé	-11.674
▁intelligente	-11.6741
▁l'ancien	-11.6742
▁owe	-11.6742
▁complied	-11.6743
▁blue	-11.6743
▁estiment	-11.6744
▁ampleur	-11.6744
onn	-11.6745
▁massacre	-11.6747
▁donors	-11.6752
▁Rehn	-11.6753
▁survival	-11.6753
▁interference	-11.6753
riez	-11.6756
);	-11.6756
▁Communautés	-11.6757
▁rapides	-11.6761
▁escape	-11.6763
ung	-11.6765
▁espoirs	-11.6767
▁transferts	-11.677
▁bal	-11.6771
▁attendant	-11.6771
▁Amérique	-11.6773
▁Erika	-11.6773
▁bénéficié	-11.6773
▁disabilities	-11.6773
▁identifier	-11.6773
▁vote:	-11.6773
▁diverse	-11.6774
effet	-11.6775
zo	-11.6779
▁réduits	-11.6782
▁défavorisées	-11.6783
▁xenophobia	-11.6783
▁Eh	-11.6787
▁offrent	-11.679
pêche	-11.679
▁affirmation	-11.679
identifie	-11.6792
▁échoué	-11.6793
▁journal	-11.6793
▁serves	-11.6793
▁circumstances.	-11.6794
▁career	-11.6797
▁partagé	-11.6799
▁solides	-11.6799
▁Black	-11.6803
▁travelling	-11.6805
▁findings	-11.6806
▁amener	-11.6811
tel	-11.6811
▁discover	-11.6812
▁Socrates	-11.6813
▁sanitaire	-11.6814
▁sacrifice	-11.6819
▁boat	-11.6819
▁conversion	-11.6823
▁possèdent	-11.6823
▁Za	-11.6825
lot	-11.6829
ä	-11.6833
▁worried	-11.6833
▁arbitraire	-11.6833
▁moratoire	-11.6833
▁split	-11.6833
▁tuna	-11.6834
▁tendances	-11.6836
▁retirement	-11.6839
▁administratifs	-11.684
ically	-11.6846
▁venue	-11.6846
▁panel	-11.6849
▁persistent	-11.6849
ruct	-11.6852
▁imminent	-11.6853
▁posts	-11.6853
▁"c	-11.6853
▁Resolution	-11.6853
▁islands	-11.6853
▁Am	-11.6854
▁guilty	-11.6854
▁s'étend	-11.6854
▁méditerranéenne	-11.6856
mmer	-11.6857
▁neutral	-11.686
▁requises	-11.6862
▁in-depth	-11.6863
▁inclut	-11.6863
▁decrease	-11.6863
▁IV	-11.6865
ât	-11.687
change	-11.687
gging	-11.6872
▁Sharon	-11.6873
▁cal	-11.6875
▁d'Afrique	-11.6877
▁recycling	-11.688
gri	-11.6883
uche	-11.6887
▁Tri	-11.6887
▁réactions	-11.689
▁d’information	-11.6891
▁foot	-11.6891
▁relocation	-11.6893
▁writing	-11.6895
gage	-11.6896
▁images	-11.6898
▁consacre	-11.6899
▁protestation	-11.6901
▁remit	-11.6901
▁atmosphere	-11.6903
▁wake	-11.6903
▁elles-mêmes	-11.6903
▁assessed	-11.6903
▁delicate	-11.6903
▁souffre	-11.6906
▁l'offre	-11.6908
▁opposée	-11.6908
▁Kurdish	-11.6913
▁coordinating	-11.6913
▁slogan	-11.6913
▁soupçon	-11.6913
▁louable	-11.6913
▁protectionnisme	-11.6913
▁fixées	-11.6913
▁travaillant	-11.6914
▁doors	-11.6918
▁2013.	-11.692
gy	-11.6923
▁possession	-11.693
▁channels	-11.6932
▁inévitable	-11.6936
▁réflexions	-11.6939
vocat	-11.6941
▁genocide	-11.6943
▁strange	-11.6944
bol	-11.695
▁comitology	-11.6953
auto	-11.6954
▁passeport	-11.6955
gie	-11.6955
▁nullement	-11.6958
iment	-11.6959
▁associée	-11.6961
▁topical	-11.6962
▁libéré	-11.6963
▁venez	-11.6963
▁zero	-11.6963
▁père	-11.6967
▁sentiments	-11.6967
98	-11.6969
▁specialist	-11.6971
▁demonstration	-11.6975
▁illusion	-11.6975
▁formally	-11.6977
▁advise	-11.6977
▁abouti	-11.6979
▁soutiendra	-11.6981
▁obligés	-11.6982
gro	-11.6983
▁engendré	-11.6983
▁victory	-11.6983
▁exigé	-11.6984
institution	-11.6987
▁légère	-11.6987
▁verts	-11.6989
▁attaché	-11.699
mont	-11.6991
▁demanded	-11.6993
▁religieux	-11.6994
▁subjected	-11.6996
▁régulière	-11.6997
▁franchement	-11.6997
▁carburants	-11.6999
▁creative	-11.7004
▁philosophie	-11.7004
▁valoir	-11.7004
▁donateurs	-11.7004
▁march	-11.7007
▁circle	-11.7007
▁Afghan	-11.7008
▁hasard	-11.7009
▁offences	-11.7009
▁scolaire	-11.7014
▁l'image	-11.7015
▁transporteurs	-11.7018
▁professionals	-11.7024
▁jeopardise	-11.7024
▁voulait	-11.7024
▁énergique	-11.7024
▁eat	-11.7025
▁authorised	-11.7029
▁scheduled	-11.703
▁évoque	-11.7032
onformément	-11.7034
▁majeures	-11.7034
▁d'offrir	-11.7034
▁famine	-11.7035
Y	-11.7036
▁troubles	-11.7037
[...]
