<s>	0
</s>	0
<unk>	0
<pad>	0
,	-3.38811
▁the	-3.61189
.	-3.71261
s	-3.73329
▁de	-3.77624
▁la	-4.29288
▁of	-4.29299
▁to	-4.3474
▁and	-4.52955
▁et	-4.60367
▁a	-4.62317
▁in	-4.67495
▁le	-4.71147
▁à	-4.82148
▁les	-4.83529
▁des	-4.89582
▁que	-5.01537
▁that	-5.02121
▁is	-5.04722
▁en	-5.18072
e	-5.26315
▁for	-5.41369
▁I	-5.42262
▁du	-5.46198
▁on	-5.49826
r	-5.59717
▁	-5.61595
▁dans	-5.62166
▁pour	-5.62431
▁nous	-5.63548
▁be	-5.64712
▁qui	-5.64755
▁un	-5.68438
▁this	-5.68975
▁we	-5.70363
▁une	-5.77769
▁ce	-5.7948
ing	-5.8042
▁est	-5.8441
▁are	-5.8744
▁pas	-5.89647
▁sur	-5.90269
▁au	-5.90748
▁not	-5.91337
▁have	-5.91871
▁-	-5.92729
▁it	-5.93556
d	-5.97733
▁par	-6.02307
▁with	-6.0338
ed	-6.034
▁as	-6.06091
▁ne	-6.06191
er	-6.06347
▁which	-6.06936
es	-6.09908
▁European	-6.09953
▁Commission	-6.1261
▁The	-6.18227
s.	-6.20478
▁will	-6.21568
▁by	-6.23543
▁plus	-6.31069
▁je	-6.32771
s,	-6.34597
▁has	-6.34719
t	-6.40009
-	-6.43502
ment	-6.44932
▁Mr	-6.49269
ly	-6.50277
é	-6.52214
▁an	-6.53281
▁l'	-6.54176
▁Je	-6.54835
▁cette	-6.57957
▁aux	-6.5842
▁il	-6.59039
n	-6.59754
▁at	-6.59831
nt	-6.60242
▁se	-6.65055
y	-6.65686
▁sont	-6.66975
▁would	-6.67309
▁d'	-6.6746
▁also	-6.68654
▁all	-6.71153
▁should	-6.72593
▁We	-6.75326
▁from	-6.77933
▁avec	-6.78675
▁but	-6.80051
▁our	-6.80583
▁must	-6.81394
c	-6.82178
▁Il	-6.83663
▁Nous	-6.84325
:	-6.84983
▁La	-6.8779
▁mais	-6.88666
al	-6.89307
▁do	-6.89503
▁been	-6.89933
ation	-6.90569
▁Monsieur	-6.90726
▁être	-6.92093
▁important	-6.94045
▁fait	-6.94805
▁Le	-6.94905
▁pays	-6.95013
a	-6.9553
l	-6.95904
▁re	-6.96812
▁européenne	-6.97341
▁you	-6.99031
▁été	-6.99472
▁It	-6.99649
▁can	-6.9969
▁ont	-6.99925
▁ces	-7.0038
ant	-7.01681
▁rapport	-7.03652
▁President,	-7.03825
▁or	-7.04113
▁politique	-7.04482
▁Member	-7.04805
▁was	-7.0606
▁Parlement	-7.06242
▁more	-7.06356
▁question	-7.07328
ent	-7.07729
▁vous	-7.08367
?	-7.08632
▁comme	-7.09545
▁so	-7.11725
▁like	-7.11828
▁qu'il	-7.12195
▁In	-7.13232
▁tout	-7.14463
▁l'Union	-7.15477
▁ou	-7.15874
▁their	-7.16092
re	-7.16364
p	-7.18758
▁its	-7.18948
▁there	-7.1899
▁Président,	-7.1965
le	-7.19779
▁me	-7.20043
▁États	-7.20156
▁very	-7.20626
u	-7.20701
▁si	-7.20928
▁également	-7.21313
▁Union	-7.2181
i	-7.21976
ra	-7.22248
ons	-7.23011
▁This	-7.2452
▁situation	-7.26277
▁point	-7.26302
▁Conseil	-7.2646
▁report	-7.27799
▁these	-7.27821
▁aussi	-7.27983
▁Parliament	-7.28025
'	-7.299
▁sa	-7.30244
▁Council	-7.30378
▁one	-7.31637
▁no	-7.31812
▁faire	-7.32674
▁d'une	-7.33157
▁they	-7.3323
▁us	-7.3344
▁notre	-7.34755
▁about	-7.35155
▁Europe	-7.35331
▁EU	-7.35645
▁who	-7.35903
▁other	-7.36866
)	-7.38523
▁même	-7.39562
▁leur	-7.39658
;	-7.40249
▁avons	-7.40411
▁need	-7.40571
▁what	-7.41341
▁doit	-7.41486
ur	-7.41855
▁part	-7.41896
▁membres	-7.42259
▁entre	-7.42306
▁bien	-7.42725
▁s	-7.4279
▁tous	-7.42992
▁l’	-7.43187
in	-7.43596
▁M.	-7.44012
▁son	-7.4422
▁people	-7.44254
▁En	-7.44391
▁y	-7.44616
g	-7.45061
▁très	-7.45377
ri	-7.46203
▁time	-7.4648
▁my	-7.46858
▁new	-7.47058
▁d'un	-7.47165
▁européen	-7.47437
▁States	-7.47494
▁Les	-7.49221
ion	-7.49675
▁out	-7.50537
▁only	-7.50823
▁A	-7.50915
it	-7.50946
en	-7.52042
able	-7.52282
▁am	-7.53548
▁support	-7.53936
▁Ce	-7.54359
o	-7.5465
▁because	-7.5491
v	-7.54964
▁if	-7.55415
▁é	-7.55586
▁devons	-7.57182
ir	-7.57489
▁up	-7.57831
▁take	-7.59209
▁vote	-7.59508
▁directive	-7.59564
f	-7.59612
▁con	-7.59706
's	-7.62095
▁work	-7.62846
▁droits	-7.63111
▁now	-7.64329
▁countries	-7.64921
▁nos	-7.65225
ro	-7.65244
li	-7.65584
▁contre	-7.66084
te	-7.66619
▁such	-7.67046
▁rapporteur	-7.67361
▁make	-7.67367
▁protection	-7.67819
▁into	-7.69232
or	-7.69447
▁place	-7.69495
▁travail	-7.69549
▁social	-7.70379
▁respect	-7.70379
b	-7.70553
▁car	-7.70771
▁possible	-7.70809
▁d’	-7.70838
▁dé	-7.71194
ter	-7.71467
que	-7.71933
at	-7.72453
▁between	-7.72552
▁voudrais	-7.72834
▁those	-7.73179
an	-7.73371
▁peut	-7.73935
h	-7.73979
▁cela	-7.75374
▁(	-7.75495
▁développement	-7.7649
▁ré	-7.76589
▁proposition	-7.76621
▁donc	-7.77435
▁non	-7.78343
▁some	-7.78384
▁public	-7.78462
▁when	-7.7851
▁way	-7.78597
m	-7.7911
▁any	-7.80182
▁therefore	-7.80239
▁being	-7.80366
▁dont	-7.80435
▁political	-7.80464
ci	-7.80563
▁C'est	-7.81339
▁commission	-7.81339
▁S	-7.81891
▁soit	-7.82671
ar	-7.82699
▁sans	-7.83081
▁believe	-7.83809
z	-7.8392
▁policy	-7.84635
ée	-7.84683
▁say	-7.84761
▁encore	-7.84769
th	-7.84838
/	-7.84966
▁fact	-7.85326
▁budget	-7.85656
▁economic	-7.85801
tte	-7.85844
▁made	-7.85936
▁programme	-7.86089
▁position	-7.86206
on	-7.86251
▁national	-7.86696
▁deux	-7.87044
▁were	-7.87382
▁cas	-7.87458
▁pense	-7.8773
▁debate	-7.8777
▁faut	-7.88577
▁than	-7.88748
ive	-7.88865
▁ainsi	-7.89144
és	-7.89249
ce	-7.89543
▁débat	-7.9036
▁c'est	-7.90375
▁matière	-7.90377
e.	-7.90476
lo	-7.91197
ement	-7.91652
ne	-7.91677
▁just	-7.91716
▁sécurité	-7.91733
▁services	-7.92218
▁dis	-7.92504
▁proposal	-7.92851
ité	-7.93158
▁suis	-7.93272
vi	-7.9347
▁rights	-7.9394
▁marché	-7.93987
▁development	-7.95308
▁issue	-7.95675
▁l'a	-7.96041
▁many	-7.96329
▁against	-7.96338
il	-7.96743
ait	-7.96935
▁n'est	-7.96998
▁"	-7.97265
st	-7.9727
▁mon	-7.97344
▁international	-7.9752
▁mesures	-7.97707
▁P	-7.98282
▁ses	-7.98397
▁first	-7.98651
▁dire	-7.99265
▁citoyens	-7.99423
▁groupe	-8.00399
I	-8.00517
la	-8.00951
▁co	-8.01004
▁want	-8.01047
ie	-8.01397
k	-8.01467
di	-8.01938
▁think	-8.02186
▁ma	-8.02494
▁That	-8.03181
▁human	-8.03674
▁doivent	-8.03745
▁questions	-8.03801
▁droit	-8.0417
▁afin	-8.04554
is	-8.04556
▁f	-8.04851
▁cet	-8.05005
▁économique	-8.0503
▁concerne	-8.05154
ol	-8.05631
ance	-8.05702
▁leurs	-8.0584
ions	-8.06107
▁sommes	-8.06151
▁Committee	-8.06263
▁déjà	-8.06329
▁them	-8.06552
▁even	-8.06815
▁elle	-8.07022
w	-8.07028
▁manière	-8.07045
▁over	-8.07097
▁cadre	-8.07476
▁où	-8.07945
▁well	-8.08036
▁right	-8.08107
▁order	-8.08991
▁conditions	-8.09313
▁As	-8.09646
▁market	-8.09927
▁institutions	-8.10735
▁C	-8.10868
▁country	-8.10923
▁M	-8.11
▁under	-8.11031
▁two	-8.11873
▁Madame	-8.11959
e,	-8.12218
▁L'	-8.12514
ic	-8.12528
▁view	-8.12801
▁cannot	-8.12984
age	-8.1321
tra	-8.13574
ity	-8.13636
▁same	-8.13724
▁sera	-8.13984
ate	-8.14001
5	-8.14046
▁citizens	-8.14097
▁here	-8.14133
▁where	-8.14158
▁politiques	-8.14845
▁had	-8.14958
▁certain	-8.15073
au	-8.15108
▁does	-8.1558
ul	-8.15701
▁tant	-8.15849
▁clear	-8.15969
▁future	-8.16
▁action	-8.16147
▁measures	-8.16345
▁problème	-8.16359
▁continue	-8.16549
▁niveau	-8.16579
▁know	-8.16673
▁'	-8.16807
▁agreement	-8.1754
▁s'	-8.17547
▁could	-8.17607
▁most	-8.17653
▁good	-8.17688
ta	-8.17694
ré	-8.17739
im	-8.18055
▁dit	-8.18088
▁President	-8.18484
▁plan	-8.18587
▁said	-8.18994
▁he	-8.18999
▁hope	-8.19256
▁c	-8.2
▁e	-8.20238
▁demande	-8.21236
▁much	-8.21427
▁n'a	-8.2216
▁already	-8.2228
▁financial	-8.22305
▁personnes	-8.22507
A	-8.22765
▁transport	-8.22841
▁see	-8.22958
▁l'Europe	-8.23005
▁lors	-8.23023
ch	-8.23024
se	-8.23109
▁long	-8.23411
▁–	-8.24141
▁use	-8.243
▁process	-8.24708
▁base	-8.24919
us	-8.25055
▁too	-8.25336
▁within	-8.25421
op	-8.25489
de	-8.25526
▁Si	-8.25623
▁compte	-8.26214
x	-8.26316
▁b	-8.26467
▁still	-8.26496
um	-8.26703
▁On	-8.26709
▁how	-8.26776
1	-8.26789
▁inter	-8.27089
▁particular	-8.27092
▁regard	-8.27126
▁toute	-8.27246
▁common	-8.27567
▁T	-8.27888
▁st	-8.28117
▁fois	-8.28219
▁l'UE	-8.28417
▁There	-8.2855
▁both	-8.28684
ou	-8.28707
▁domaine	-8.28714
ence	-8.29166
▁mise	-8.29182
▁fin	-8.29231
▁ensure	-8.29257
▁your	-8.29474
ma	-8.2948
ées	-8.29486
▁parce	-8.29992
▁vue	-8.30011
▁Dans	-8.3014
▁pro	-8.30234
▁concernant	-8.3037
6	-8.30538
té	-8.30717
▁accord	-8.30746
▁system	-8.30767
es.	-8.30883
▁However,	-8.30901
▁cooperation	-8.3102
ers	-8.31209
▁nom	-8.3126
id	-8.31367
▁sein	-8.31381
▁coopération	-8.31925
▁va	-8.31994
▁information	-8.32016
▁autres	-8.32069
▁F	-8.32098
E	-8.32191
▁B	-8.32334
ct	-8.32463
▁Community	-8.32606
▁système	-8.32823
▁d'autres	-8.33
▁Mme	-8.33063
pp	-8.33234
▁g	-8.33285
4	-8.33319
▁efforts	-8.33325
▁case	-8.33411
▁toutes	-8.33514
▁certains	-8.33716
▁résolution	-8.34056
▁area	-8.34263
▁raison	-8.34556
▁moins	-8.3456
▁cha	-8.34596
▁taken	-8.3477
▁own	-8.34923
el	-8.35217
▁G	-8.35457
▁aujourd'hui	-8.35678
▁give	-8.35752
▁his	-8.35781
ve	-8.35931
▁commune	-8.35943
▁présent	-8.35973
▁%	-8.36016
▁number	-8.36065
▁sujet	-8.36213
▁monde	-8.364
▁put	-8.36464
2	-8.37287
▁t	-8.37448
▁problem	-8.37535
▁Commissioner	-8.3755
▁able	-8.37672
▁end	-8.37742
est	-8.37822
▁règlement	-8.37942
▁seulement	-8.38049
▁solution	-8.38267
▁last	-8.3827
▁traité	-8.38643
▁jour	-8.3876
▁soutien	-8.39178
▁Mrs	-8.3935
▁temps	-8.39407
▁moment	-8.39492
▁avant	-8.39511
▁mettre	-8.39656
▁resolution	-8.39939
▁law	-8.40005
▁particulier	-8.40072
isation	-8.40078
▁européenne.	-8.40118
▁may	-8.40287
▁1	-8.40314
▁why	-8.4037
C	-8.40434
▁De	-8.40471
ront	-8.40519
▁energy	-8.40735
co	-8.40867
▁pourquoi	-8.40876
▁président	-8.40927
▁secteur	-8.41273
▁help	-8.41311
ations	-8.41655
▁grande	-8.41694
▁lieu	-8.41756
▁problèmes	-8.41815
es,	-8.41879
8	-8.4194
▁large	-8.42258
ner	-8.42723
▁points	-8.42771
▁Pour	-8.43711
▁savoir	-8.43993
▁pouvoir	-8.44376
▁nombre	-8.44386
▁means	-8.44631
▁great	-8.44754
ise	-8.44799
▁processus	-8.45064
ge	-8.45097
▁importance	-8.45294
me	-8.45404
▁E	-8.45417
▁legal	-8.45464
et	-8.45485
▁avoir	-8.45778
min	-8.45952
▁second	-8.46158
▁without	-8.46235
▁through	-8.46567
▁partie	-8.4664
ist	-8.46658
▁Par	-8.46761
▁d'a	-8.46911
▁Mais	-8.46923
▁gouvernement	-8.46946
▁today	-8.46972
ut	-8.46996
▁relations	-8.47032
pe	-8.47033
▁toujours	-8.47147
▁House	-8.47213
▁s'agit	-8.47287
▁production	-8.47527
▁4	-8.47548
▁however	-8.47551
’s	-8.47635
▁3	-8.47755
▁contrôle	-8.47793
▁ex	-8.4801
▁devrait	-8.48168
"	-8.48194
ad	-8.48281
ni	-8.48285
▁gentlemen,	-8.48863
ll	-8.48932
▁If	-8.49309
▁beaucoup	-8.49443
ure	-8.49777
3	-8.5027
▁autre	-8.50398
▁mesure	-8.50488
P	-8.50579
▁years	-8.50586
▁sector	-8.50666
▁thank	-8.50752
▁dialogue	-8.50766
▁entreprises	-8.50939
▁Madam	-8.51021
▁notamment	-8.51083
▁laquelle	-8.5125
▁cours	-8.513
▁À	-8.5137
▁necessary	-8.51418
▁far	-8.51566
▁particularly	-8.51777
▁before	-8.51939
gi	-8.52129
▁favour	-8.52209
▁D	-8.52287
▁problems	-8.52392
▁present	-8.52476
▁rôle	-8.52518
▁programmes	-8.52557
ck	-8.52596
▁décision	-8.5263
▁level	-8.52644
▁prendre	-8.52695
▁nécessaire	-8.52713
▁ceux	-8.53102
▁première	-8.53132
ique	-8.53202
as	-8.53212
▁crise	-8.53363
▁set	-8.53594
▁world	-8.53682
mi	-8.53779
▁Cela	-8.53779
▁attention	-8.53897
▁matter	-8.53966
▁Commission,	-8.542
▁j'ai	-8.54284
▁faveur	-8.5444
%	-8.54576
▁effet	-8.54713
▁No	-8.54854
▁besoin	-8.5501
▁security	-8.55024
7	-8.55083
▁Group	-8.55427
om	-8.55552
▁given	-8.55815
▁commissaire	-8.55829
S	-8.56305
▁vie	-8.56507
▁santé	-8.5659
▁peu	-8.56859
▁Treaty	-8.56944
▁progress	-8.57152
▁pouvons	-8.57216
▁qu'elle	-8.5729
lé	-8.57712
▁change	-8.58019
▁votre	-8.58079
▁soient	-8.58156
9	-8.58244
▁issues	-8.58288
▁For	-8.58642
▁since	-8.59002
▁then	-8.59018
▁ni	-8.59061
ign	-8.59077
▁result	-8.59619
▁qu'	-8.59662
▁women	-8.59669
ti	-8.59678
▁femmes	-8.59893
▁nouvelle	-8.59923
nd	-8.60124
▁propositions	-8.60349
che	-8.6036
▁aid	-8.60371
▁health	-8.6066
▁whether	-8.61173
▁areas	-8.61402
▁role	-8.61616
▁again	-8.61847
▁positive	-8.61896
▁serait	-8.6196
▁ladies	-8.61987
▁face	-8.62125
▁euro	-8.62136
▁different	-8.62353
▁agree	-8.62437
▁opinion	-8.62577
▁qu’il	-8.62694
▁population	-8.62793
▁United	-8.62914
▁di	-8.63014
aux	-8.63019
▁l'homme	-8.63031
▁welcome	-8.63107
▁amendements	-8.63148
▁nouveau	-8.63186
▁communication	-8.63212
▁stratégie	-8.63296
▁further	-8.63536
vo	-8.63608
▁l’Union	-8.63675
▁amendments	-8.63991
ère	-8.6422
▁account	-8.644
▁objectifs	-8.64656
ag	-8.64673
▁behalf	-8.64677
▁go	-8.64785
▁trade	-8.64968
▁So	-8.65408
ez	-8.65516
▁ici	-8.65833
▁peuvent	-8.65844
▁était	-8.65874
un	-8.66131
▁recherche	-8.66216
▁basis	-8.66332
ated	-8.66668
con	-8.66738
▁ra	-8.66879
▁5	-8.66897
▁next	-8.66934
▁bon	-8.66966
!	-8.67043
ff	-8.67225
▁mis	-8.67274
ating	-8.67699
▁terms	-8.6771
▁r	-8.68004
▁come	-8.68113
mo	-8.68114
0	-8.68201
qui	-8.6833
if	-8.68544
▁per	-8.68931
end	-8.69009
▁pré	-8.69148
▁européens	-8.69257
▁done	-8.69348
ex	-8.69383
▁wish	-8.70076
▁produits	-8.70394
▁better	-8.70428
▁façon	-8.7044
▁sens	-8.70449
ally	-8.70672
▁depuis	-8.70694
▁rules	-8.7076
va	-8.71003
▁crisis	-8.71225
▁adopted	-8.71308
▁Europe.	-8.7136
▁legislation	-8.71366
▁framework	-8.71394
▁millions	-8.71506
▁alors	-8.71828
▁force	-8.71847
▁l'on	-8.71989
▁hand	-8.7206
▁principe	-8.72074
ten	-8.72211
▁crois	-8.72232
▁proposals	-8.7227
▁approach	-8.72296
▁présidence	-8.72324
▁pre	-8.72351
▁year	-8.72412
▁main	-8.7244
▁sociale	-8.72569
mp	-8.72661
tre	-8.72679
lle	-8.72683
▁grand	-8.72757
▁Re	-8.72949
▁subject	-8.73036
▁allow	-8.7305
▁What	-8.73421
nce	-8.73614
aire	-8.73698
▁act	-8.73755
▁comp	-8.73784
▁législation	-8.73799
O	-8.73803
▁2	-8.73831
▁:	-8.73857
▁constitue	-8.73888
D	-8.74206
▁group	-8.74408
▁sous	-8.74511
▁after	-8.74735
▁ask	-8.74919
▁few	-8.75131
▁decision	-8.75175
ca	-8.75195
▁But	-8.75264
▁eu	-8.75283
ia	-8.75765
▁bonne	-8.75886
▁Commission.	-8.75948
tion	-8.75982
▁chose	-8.76008
▁Commissioner,	-8.76169
▁vers	-8.76182
M	-8.76266
▁quelques	-8.76277
▁.	-8.76359
▁européenne,	-8.76361
»	-8.76393
▁députés	-8.76463
▁li	-8.76472
▁K	-8.7686
▁justice	-8.76936
’	-8.77032
▁Commissaire,	-8.77096
▁State	-8.77258
ud	-8.77592
▁projet	-8.7761
▁imp	-8.77628
▁règles	-8.77681
▁O	-8.7789
▁difficult	-8.78028
▁n'	-8.78213
▁parties	-8.78299
▁pu	-8.78329
les	-8.78421
▁Mesdames	-8.78859
▁initiative	-8.78863
▁Members	-8.78944
▁forward	-8.79033
▁accept	-8.79257
▁provide	-8.79386
elle	-8.79573
▁communautaire	-8.79654
na	-8.79734
▁d’une	-8.79824
▁w	-8.79851
▁régions	-8.79916
▁million	-8.80263
▁sûr	-8.8037
▁Au	-8.80436
▁mes	-8.80572
▁terme	-8.80625
▁whole	-8.80653
▁garantir	-8.80704
▁concerned	-8.80866
ais	-8.80919
▁increase	-8.81014
▁control	-8.81124
▁lutte	-8.81186
▁fonds	-8.81302
▁actions	-8.81427
▁aspects	-8.81441
▁nouveaux	-8.81737
▁vi	-8.81738
rait	-8.81848
▁going	-8.81862
▁après	-8.81913
▁qualité	-8.82071
▁réponse	-8.82228
ry	-8.82482
▁three	-8.82692
ly,	-8.8285
▁working	-8.82854
né	-8.82857
▁needs	-8.82867
▁towards	-8.83052
ous	-8.83134
eur	-8.83216
▁principle	-8.83413
▁premier	-8.83415
▁global	-8.83472
ine	-8.83489
▁become	-8.83977
▁trois	-8.84222
▁semble	-8.84314
▁something	-8.84486
▁lui	-8.84536
▁consider	-8.84588
▁real	-8.84592
ng	-8.84617
▁Union.	-8.8481
ens	-8.85032
▁procédure	-8.85277
▁back	-8.8541
▁voted	-8.85431
ed.	-8.85453
▁selon	-8.85647
lu	-8.85727
▁négociations	-8.85788
▁po	-8.85808
▁freedom	-8.85847
▁Présidente,	-8.85888
▁propos	-8.85894
▁clairement	-8.85914
▁pêche	-8.85954
▁play	-8.86
ill	-8.86283
▁œuvre	-8.86301
ction	-8.86361
▁l’a	-8.86571
▁environmental	-8.87084
▁current	-8.87204
▁remercier	-8.87244
▁là	-8.87264
▁ils	-8.87386
▁state	-8.8743
▁specific	-8.87456
pos	-8.87624
▁10	-8.87646
▁cause	-8.87646
▁J'ai	-8.87662
▁small	-8.87854
▁voté	-8.87909
▁resources	-8.88008
T	-8.88166
▁discussion	-8.88378
▁every	-8.88495
▁culture	-8.88556
▁nombreux	-8.88607
▁final	-8.88618
mb	-8.88751
▁6	-8.88782
▁Un	-8.88867
▁juridique	-8.88979
▁comment	-8.8903
▁including	-8.89169
▁consommateurs	-8.89301
▁down	-8.89402
▁pourrait	-8.89502
▁seront	-8.89512
▁reste	-8.8953
par	-8.89732
▁nouvelles	-8.89883
▁Presidency	-8.90045
▁excellent	-8.90081
▁opportunity	-8.90084
▁nécessité	-8.90094
▁fundamental	-8.90249
he	-8.90252
▁propose	-8.90263
▁proposed	-8.90284
▁région	-8.90314
▁mois	-8.9036
▁essential	-8.90375
iv	-8.90441
▁trop	-8.90503
ba	-8.90545
am	-8.90664
▁exemple	-8.90731
▁shall	-8.90746
▁s'est	-8.90756
▁really	-8.90916
▁violence	-8.90985
ns	-8.90997
▁regulation	-8.91014
to	-8.91032
▁effective	-8.91092
▁service	-8.91157
▁did	-8.91187
eurs	-8.91275
mé	-8.913
▁find	-8.913
▁employment	-8.91409
▁reason	-8.9147
▁contribution	-8.9152
▁direct	-8.91546
▁committee	-8.91596
▁form	-8.91717
ts	-8.91794
▁authorities	-8.91801
ative	-8.91832
▁donné	-8.91926
▁voir	-8.91939
▁policies	-8.91971
▁together	-8.92049
ty	-8.92166
▁Assemblée	-8.92601
ary	-8.92605
dès	-8.92614
venu	-8.9263
man	-8.92631
▁société	-8.92719
▁«	-8.92871
▁années	-8.92917
ho	-8.9295
▁d’un	-8.92955
▁membre	-8.92967
▁general	-8.93019
▁research	-8.9303
▁free	-8.93105
tant	-8.93134
▁serious	-8.93301
ful	-8.93494
▁Convention	-8.93518
▁maintenant	-8.93575
▁especially	-8.93644
▁7	-8.93763
▁during	-8.93788
▁démocratie	-8.93986
▁Et	-8.94008
lic	-8.94034
▁used	-8.94071
act	-8.94285
▁industry	-8.9445
▁To	-8.94498
▁20	-8.94599
▁plusieurs	-8.94693
ven	-8.94722
▁h	-8.94825
▁États-Unis	-8.94871
▁access	-8.95304
▁donner	-8.95329
▁000	-8.95696
▁concern	-8.95712
▁strategy	-8.95734
no	-8.95735
ial	-8.95841
▁autorités	-8.95949
▁clearly	-8.96046
▁course	-8.96084
res	-8.96207
▁negotiations	-8.96302
ling	-8.96344
ler	-8.96464
▁look	-8.96541
▁itself	-8.96622
▁another	-8.96663
▁Nations	-8.96731
▁example	-8.9704
▁liberté	-8.97285
▁least	-8.97293
tic	-8.97319
▁responsibility	-8.97347
▁W	-8.97378
▁existe	-8.97396
▁aucun	-8.97413
▁greater	-8.97493
▁visant	-8.97537
em	-8.97567
▁At	-8.97941
▁third	-8.98238
▁prix	-8.9825
▁texte	-8.98293
▁safety	-8.98302
▁voie	-8.98492
▁idea	-8.98588
▁major	-8.98683
▁organisations	-8.98696
▁surtout	-8.98837
▁quite	-8.98899
▁12	-8.99004
▁rather	-8.99017
▁ressources	-8.9923
ted	-8.99282
isme	-8.99304
▁power	-8.99341
▁Europe,	-8.99423
▁Une	-8.99537
ver	-8.99558
F	-8.99614
land	-8.99651
▁responsabilité	-8.99688
▁call	-8.99728
▁commun	-8.99882
▁democratic	-8.99982
ification	-9.00005
ight	-9.00022
▁prevent	-9.00207
▁products	-9.00218
▁reform	-9.00337
▁Messieurs,	-9.00519
vers	-9.00562
▁?	-9.00597
▁ad	-9.00616
▁certaines	-9.0064
▁proposé	-9.00793
ting	-9.00865
▁Elle	-9.00905
ue	-9.00929
▁l'environnement	-9.00937
▁capital	-9.01181
vent	-9.01192
▁high	-9.01274
▁actuelle	-9.01308
▁conséquent	-9.01433
▁course,	-9.01617
ph	-9.0177
▁democracy	-9.01877
rai	-9.01893
▁voulons	-9.02032
▁always	-9.02051
▁They	-9.02094
▁fa	-9.02151
▁internal	-9.02195
▁tiens	-9.02274
ig	-9.02366
▁get	-9.02437
oc	-9.02493
▁avez	-9.02531
▁ho	-9.02668
▁souhaite	-9.02743
▁making	-9.02801
▁essentiel	-9.02812
▁guarantee	-9.02833
▁p	-9.02992
ment,	-9.03058
ces	-9.03066
▁impact	-9.03076
▁ca	-9.03109
▁8	-9.03178
▁achieve	-9.03354
▁limit	-9.03408
▁document	-9.03491
ot	-9.03692
▁telle	-9.03754
com	-9.03755
N	-9.03809
▁offer	-9.03838
▁sorte	-9.03848
▁19	-9.03914
▁These	-9.03933
du	-9.04095
vis	-9.04153
ism	-9.04233
▁croissance	-9.0427
▁government	-9.0428
tes	-9.04506
▁Comme	-9.04628
▁difficile	-9.04669
▁ten	-9.04694
▁once	-9.04847
ga	-9.0489
▁Commission's	-9.04923
emp	-9.04949
▁concurrence	-9.05084
▁open	-9.05109
▁dernier	-9.05221
▁nature	-9.05288
▁travailleurs	-9.0541
▁encourage	-9.05414
▁davantage	-9.05423
▁importante	-9.05456
hi	-9.05463
▁society	-9.05551
▁15	-9.05801
qua	-9.05806
▁d'accord	-9.05821
▁2000	-9.05854
▁fight	-9.05875
▁soutenir	-9.05937
▁States.	-9.05952
non	-9.05972
▁général	-9.06042
▁implementation	-9.0612
▁taking	-9.06148
eux	-9.062
▁meeting	-9.06215
▁economy	-9.06286
▁mi	-9.06369
acc	-9.06493
▁instruments	-9.06553
▁based	-9.06683
ard	-9.06688
▁bring	-9.06855
▁internationale	-9.06858
▁environment	-9.06877
▁local	-9.07002
▁direction	-9.07227
▁mot	-9.07427
▁mean	-9.07504
▁things	-9.0763
▁su	-9.07826
L	-9.07829
▁deal	-9.07879
▁interests	-9.07887
▁text	-9.07892
▁elles	-9.07918
▁various	-9.08014
▁conclusion	-9.08039
rons	-9.08068
▁application	-9.08073
▁compris	-9.08143
▁regions	-9.08173
▁money	-9.08326
▁égard	-9.08386
▁step	-9.084
R	-9.08415
▁met	-9.08432
iser	-9.08509
▁État	-9.08553
▁actuellement	-9.08663
go	-9.08764
▁lorsque	-9.08778
▁l'avenir	-9.08803
▁Ma	-9.08854
▁draft	-9.0894
▁dernière	-9.08956
▁Ces	-9.08982
▁EUR	-9.0903
▁instrument	-9.09031
▁11	-9.09043
less	-9.09043
▁procedure	-9.09179
val	-9.09202
fin	-9.0924
ire	-9.09247
▁H	-9.0938
▁type	-9.09419
▁création	-9.09443
urs	-9.09978
▁each	-9.09995
▁Président	-9.10063
▁active	-9.1012
00	-9.10134
▁region	-9.10202
▁pa	-9.1038
▁l'é	-9.10435
▁période	-9.10472
nn	-9.10475
▁d'abord	-9.10533
▁souligner	-9.10596
▁forme	-9.10905
gr	-9.10971
▁unique	-9.11024
per	-9.11071
è	-9.11191
▁progrès	-9.11277
▁ch	-9.11443
gu	-9.11518
os	-9.11657
aient	-9.11749
ont	-9.119
▁initiatives	-9.11981
tu	-9.11985
▁yet	-9.12066
▁différents	-9.12098
▁économiques	-9.1212
gé	-9.1224
▁her	-9.12255
ier	-9.12313
▁participation	-9.12364
▁while	-9.12433
▁paix	-9.12454
▁example,	-9.12501
▁intervention	-9.12509
emb	-9.12574
tique	-9.12586
▁gestion	-9.12647
▁words	-9.12736
pa	-9.12796
▁create	-9.12814
▁européennes	-9.12875
▁individual	-9.12985
▁coordination	-9.13005
▁Government	-9.13026
▁You	-9.13205
▁And	-9.13321
▁sign	-9.13357
▁food	-9.13414
▁clair	-9.13467
▁competition	-9.13484
▁efficace	-9.13507
▁period	-9.13518
▁souvent	-9.1355
▁lead	-9.13643
▁financement	-9.13664
▁deuxième	-9.13796
▁full	-9.13942
▁single	-9.13952
▁confirm	-9.14108
▁life	-9.14108
▁objective	-9.14166
▁toutefois	-9.14195
▁quant	-9.14213
ical	-9.14279
▁field	-9.14356
▁avait	-9.14359
▁crucial	-9.14363
▁peace	-9.14378
▁réforme	-9.14423
▁aucune	-9.14517
▁aura	-9.14583
▁involved	-9.14625
▁9	-9.14681
▁tax	-9.14823
▁demand	-9.14826
▁commerce	-9.14863
▁avis	-9.14987
aires	-9.15012
iste	-9.15047
▁renforcer	-9.15081
▁pay	-9.15123
▁tel	-9.15137
▁mer	-9.15176
▁rien	-9.1523
ient	-9.15294
▁civil	-9.15299
▁growth	-9.15456
▁feel	-9.15491
▁qu'une	-9.15565
▁occasion	-9.15626
▁publique	-9.1565
▁interest	-9.15741
▁J'	-9.15741
▁funds	-9.15762
▁mieux	-9.15831
▁affaires	-9.15843
▁having	-9.15931
▁d’a	-9.15938
▁Affairs	-9.15953
U	-9.15967
ants	-9.16096
▁adopt	-9.16147
ins	-9.16209
▁children	-9.1621
▁line	-9.16302
▁workers	-9.16331
▁possibilité	-9.16341
▁concerns	-9.16619
▁demander	-9.1662
ille	-9.16649
▁Amendment	-9.16675
▁include	-9.16781
tent	-9.16789
tor	-9.16798
▁créer	-9.16996
▁intérieur	-9.17031
▁données	-9.1706
▁particulière	-9.17257
▁vu	-9.17503
▁doute	-9.17702
▁amendment	-9.17835
ture	-9.17933
▁request	-9.17939
▁profit	-9.17956
▁objectif	-9.17989
▁companies	-9.18069
▁message	-9.18101
▁effect	-9.18225
▁France	-9.18237
▁R	-9.18317
▁termes	-9.18378
▁j'	-9.18407
▁sou	-9.18474
▁pris	-9.18541
▁o	-9.18567
ables	-9.18574
▁aim	-9.18583
▁lequel	-9.18693
▁trouver	-9.18781
▁Constitution	-9.18792
▁collègues	-9.188
▁post	-9.18804
▁Lisbon	-9.18858
▁report.	-9.18906
▁Lisbonne	-9.1891
▁off	-9.18935
▁enfants	-9.1902
ible	-9.19203
▁domaines	-9.19245
▁mé	-9.19268
▁objectives	-9.19271
▁seul	-9.19491
▁risque	-9.19492
▁simple	-9.19552
ha	-9.19575
▁Toutefois	-9.19631
▁étant	-9.19634
▁Tout	-9.19733
▁br	-9.19841
▁l'emploi	-9.19848
▁rec	-9.19924
▁six	-9.19932
▁best	-9.19937
▁membres.	-9.19974
▁bo	-9.20005
nel	-9.20016
▁Minister	-9.20075
▁quality	-9.20113
▁practice	-9.20135
▁V	-9.20136
▁fully	-9.20138
▁celui	-9.20277
▁Ha	-9.20316
▁discrimination	-9.20348
▁année	-9.20379
▁meilleure	-9.20408
▁peut-être	-9.20417
ising	-9.20601
▁majority	-9.2073
▁résultats	-9.20824
▁Ca	-9.20854
iques	-9.20967
▁total	-9.20995
▁relation	-9.21053
▁strong	-9.21085
▁understand	-9.21129
▁standards	-9.21167
▁quelque	-9.21175
▁permettre	-9.21194
▁education	-9.2136
▁d	-9.21453
▁recent	-9.21485
▁européen,	-9.21538
▁moyens	-9.21558
be	-9.21625
G	-9.2174
▁d'é	-9.21815
▁décisions	-9.21892
▁d'être	-9.21898
▁nor	-9.22104
▁discussions	-9.22119
pr	-9.22143
▁res	-9.22179
▁simply	-9.2229
▁following	-9.22422
▁States,	-9.22426
▁majorité	-9.22439
▁ban	-9.22521
▁nombreuses	-9.22571
▁promote	-9.22693
▁affect	-9.2276
▁remain	-9.22826
▁certainly	-9.22936
▁devraient	-9.22958
▁risk	-9.23039
▁m'	-9.23119
▁d'in	-9.23198
ale	-9.23232
use	-9.23316
▁normes	-9.2351
▁libre	-9.23511
ke	-9.2368
▁agricultural	-9.23819
▁démocratique	-9.23843
▁ait	-9.2394
▁answer	-9.24012
▁compromis	-9.24048
▁often	-9.24067
▁prochaine	-9.24073
ticulièrement	-9.24128
▁context	-9.2418
-il	-9.24184
▁européen.	-9.24213
cu	-9.24375
▁extremely	-9.24415
▁sub	-9.24435
and	-9.24448
pi	-9.24482
▁titre	-9.24515
▁Turkey	-9.24639
▁rural	-9.24662
▁Co	-9.24677
▁aware	-9.24769
▁pl	-9.24781
mis	-9.24787
▁convention	-9.24927
▁l'in	-9.25061
▁adopté	-9.25085
▁significant	-9.25208
▁seule	-9.25219
▁entendu	-9.25249
▁(DE)	-9.25395
▁propre	-9.25515
sh	-9.25666
▁kind	-9.25717
▁Article	-9.25748
dé	-9.25785
▁durable	-9.2581
ante	-9.25844
po	-9.25856
▁appropriate	-9.25858
▁commercial	-9.25895
▁relative	-9.25951
▁régime	-9.26032
ness	-9.26047
▁correct	-9.26105
▁juste	-9.26124
▁réalité	-9.26147
▁pratique	-9.26177
▁choses	-9.26194
ord	-9.26208
▁vo	-9.26213
▁Enfin	-9.26218
▁tenu	-9.26352
▁improve	-9.26425
▁celle	-9.26452
▁solutions	-9.26594
▁start	-9.26636
▁devrions	-9.26831
▁countries.	-9.27119
▁joint	-9.27354
▁data	-9.27414
▁nécessaires	-9.2752
ui	-9.27575
▁decisions	-9.27599
▁financière	-9.27687
▁non-	-9.27746
▁Parliament,	-9.27835
▁preuve	-9.27875
▁Turquie	-9.27948
▁ago	-9.28089
▁(EN)	-9.28125
▁simplement	-9.28261
▁Union,	-9.28335
▁enlargement	-9.28375
▁might	-9.28391
ors	-9.28414
▁qu'un	-9.28418
▁nationaux	-9.28461
▁date	-9.28473
ised	-9.28518
▁close	-9.28663
▁générale	-9.28817
▁war	-9.28854
B	-9.28908
ian	-9.28931
▁actually	-9.28982
▁talk	-9.29105
▁developing	-9.29127
▁approche	-9.29268
▁exemple,	-9.29304
▁Court	-9.29357
euse	-9.29369
▁compromise	-9.29439
ide	-9.29532
ru	-9.29542
▁tri	-9.2956
▁Russie	-9.296
▁passé	-9.29657
up	-9.29679
▁express	-9.29679
▁représente	-9.29707
▁projets	-9.29876
all	-9.29885
▁lack	-9.29951
▁regional	-9.30092
▁accords	-9.30114
▁mention	-9.30223
do	-9.30229
ain	-9.30235
▁charge	-9.30446
▁Pa	-9.30512
▁Mo	-9.30548
▁available	-9.30576
▁found	-9.30623
▁mentioned	-9.30632
▁agreements	-9.30672
▁jeunes	-9.30827
▁énergétique	-9.30857
ite	-9.30906
▁cons	-9.30984
tal	-9.31085
cy	-9.31166
▁conclusions	-9.31257
▁special	-9.31437
▁investment	-9.31482
▁indeed	-9.31636
men	-9.31768
▁écrit.	-9.31797
▁L’	-9.31892
▁stabilité	-9.32023
▁aide	-9.32042
▁suite	-9.32072
▁report,	-9.32102
▁apply	-9.32117
▁l'accord	-9.3212
▁mondiale	-9.32163
▁climate	-9.32261
av	-9.32304
▁ensemble	-9.32325
▁mission	-9.32379
▁Let	-9.32478
▁contexte	-9.32551
▁groups	-9.32558
▁Finally	-9.32693
▁tiers	-9.3278
▁success	-9.32781
▁groupes	-9.32816
▁Russia	-9.32862
▁collègues,	-9.32911
son	-9.32959
▁intérêts	-9.33067
▁partage	-9.33187
▁short	-9.33242
▁currently	-9.33264
vant	-9.33285
▁sp	-9.33363
▁ailleurs	-9.33411
ability	-9.33567
▁rest	-9.33589
▁concerning	-9.3361
▁strict	-9.33684
▁l'ensemble	-9.3374
▁principal	-9.3385
▁show	-9.33859
▁changement	-9.34027
▁25	-9.3407
▁jobs	-9.34307
od	-9.3431
▁vraiment	-9.34326
▁véritable	-9.3441
▁cependant	-9.34434
▁fall	-9.34459
▁dispositions	-9.34504
lement	-9.34711
▁states	-9.34853
▁figure	-9.35045
▁draw	-9.35056
▁déc	-9.3516
▁contraire	-9.35251
▁parti	-9.35291
▁fer	-9.35349
▁policy.	-9.35489
ving	-9.35551
▁s’	-9.35676
▁key	-9.35746
▁thing	-9.35783
▁responsible	-9.35814
▁jamais	-9.35832
▁s'il	-9.35833
▁focus	-9.35893
da	-9.3591
ger	-9.35916
▁présente	-9.35933
▁Conseil,	-9.36024
▁réduction	-9.36041
▁convient	-9.36137
▁dimension	-9.36224
▁Vous	-9.36253
gue	-9.36317
▁move	-9.36352
▁C’est	-9.36433
▁formation	-9.365
ai	-9.36511
▁n'y	-9.36532
▁conflict	-9.36626
▁themselves	-9.36634
▁inform	-9.36724
▁élevé	-9.36748
tin	-9.36953
▁share	-9.36962
ifs	-9.37032
▁Cour	-9.37062
▁budgétaire	-9.37182
▁30	-9.37436
▁He	-9.37467
▁pi	-9.37553
▁represent	-9.37558
isé	-9.37655
▁forces	-9.37673
▁sais	-9.37737
▁moyen	-9.37787
▁Fund	-9.37911
port	-9.37921
▁quand	-9.37984
▁management	-9.37999
H	-9.38085
▁vital	-9.38093
▁plutôt	-9.38108
▁fond	-9.38275
▁signifie	-9.38281
▁extrêmement	-9.38391
vé	-9.38463
▁Communauté	-9.38491
▁fourni	-9.38516
▁ta	-9.38523
▁Ba	-9.38562
▁months	-9.38584
ienne	-9.3861
ities	-9.3862
▁utilisé	-9.38652
▁activités	-9.38666
▁centrale	-9.3873
▁font	-9.38793
▁n'ont	-9.38807
ux	-9.38826
rant	-9.38952
▁rendre	-9.39197
▁With	-9.39262
▁promotion	-9.39338
uff	-9.39362
▁l'article	-9.3937
▁manque	-9.39439
▁members	-9.39453
▁loi	-9.3971
▁transparence	-9.3982
▁principes	-9.39869
old	-9.39915
ton	-9.39921
▁volonté	-9.39929
▁marchés	-9.39945
▁consumers	-9.39953
▁parler	-9.40009
".	-9.40014
▁remercie	-9.40067
cé	-9.40165
▁l’Europe	-9.40175
ow	-9.40314
▁répondre	-9.40331
pt	-9.40348
▁rapidement	-9.40389
▁results	-9.40403
▁l'un	-9.40479
▁address	-9.40488
mon	-9.40509
▁needed	-9.40514
▁réunion	-9.4058
▁doing	-9.40689
▁enough	-9.40899
▁term	-9.40906
▁motion	-9.40928
▁zone	-9.41003
▁commitment	-9.41057
▁d'en	-9.41127
out	-9.41153
ière	-9.41168
▁déclaration	-9.41174
met	-9.41247
ding	-9.41252
▁Bo	-9.41262
bo	-9.41266
▁dés	-9.41331
▁14	-9.41408
▁membres,	-9.4157
▁agenda	-9.41581
fi	-9.41623
▁Kosovo	-9.4171
▁benefit	-9.41749
▁keep	-9.41793
▁turn	-9.41796
▁task	-9.41831
ès	-9.41903
▁effort	-9.42125
▁appelle	-9.42178
▁Parliament's	-9.4219
▁day	-9.42198
rent	-9.42199
▁countries,	-9.42244
rit	-9.42378
▁c’est	-9.42459
▁collègue	-9.42478
▁raisons	-9.4251
▁sommet	-9.42622
cre	-9.4265
▁My	-9.42763
ateurs	-9.42795
▁conséquences	-9.4288
▁capacité	-9.42943
▁water	-9.42944
▁dernières	-9.42977
▁concept	-9.43014
▁Cependant	-9.43018
▁réduire	-9.43055
▁puisse	-9.43109
▁though	-9.43201
▁congratulate	-9.43205
▁consultation	-9.43358
▁Se	-9.43453
▁quelle	-9.43499
▁administrative	-9.43523
▁condition	-9.43525
cul	-9.43598
▁maintain	-9.43599
▁centre	-9.43617
▁différentes	-9.43627
nant	-9.43768
side	-9.43851
▁achieved	-9.43874
née	-9.43889
▁13	-9.44005
▁mort	-9.44047
▁n’est	-9.44064
▁l'aide	-9.44069
▁longer	-9.44157
▁Council,	-9.4419
▁All	-9.442
▁mal	-9.44248
just	-9.44274
▁court	-9.44337
▁parole	-9.44339
▁vrai	-9.44359
▁response	-9.44447
▁exception	-9.44555
▁content	-9.44564
pé	-9.44605
ice	-9.4461
▁considérable	-9.44637
▁communauté	-9.44684
▁experience	-9.44684
▁activities	-9.44694
à	-9.4477
▁qu'en	-9.44793
▁quel	-9.44797
▁adapt	-9.44831
line	-9.44871
▁Or	-9.4494
▁signal	-9.45036
▁assistance	-9.45039
▁among	-9.45057
▁exist	-9.45111
▁solidarité	-9.45122
▁Ch	-9.45214
int	-9.45229
▁funding	-9.45245
▁principles	-9.45259
▁porte	-9.45278
▁intention	-9.45335
▁stress	-9.45353
▁tels	-9.45355
▁Fonds	-9.45696
▁pr	-9.45728
▁young	-9.45864
▁fondamentaux	-9.45878
▁priority	-9.45926
titu	-9.46002
▁urgent	-9.46015
bi	-9.46073
▁peux	-9.46204
▁favorable	-9.46254
form	-9.46272
▁chers	-9.4628
▁costs	-9.46359
bu	-9.4638
▁projects	-9.46571
▁addition	-9.46618
▁devant	-9.46646
▁project	-9.46786
▁fi	-9.4683
▁nucléaire	-9.46873
▁writing.	-9.46902
▁although	-9.47135
▁true	-9.47145
▁aspect	-9.47216
▁sure	-9.47344
▁reasons	-9.47389
▁défense	-9.47398
▁nationales	-9.47438
▁four	-9.47438
ries	-9.47438
▁informations	-9.47471
mission	-9.47515
▁little	-9.47525
▁agricole	-9.47528
▁she	-9.47556
▁nu	-9.47725
ust	-9.4781
▁test	-9.47813
▁labour	-9.47849
▁savons	-9.48046
▁personne	-9.48082
▁destiné	-9.48118
▁amount	-9.48143
▁let	-9.4818
▁cohésion	-9.48339
▁legislative	-9.48339
▁stand	-9.4834
der	-9.48407
▁basic	-9.48456
▁pendant	-9.48497
dre	-9.48528
▁voter	-9.48583
▁matters	-9.48622
▁finance	-9.48688
▁nothing	-9.4869
▁grâce	-9.48743
tendre	-9.48813
▁rate	-9.49003
▁trouve	-9.49016
▁rend	-9.49066
▁regards	-9.49152
▁trans	-9.49161
▁établi	-9.49261
▁An	-9.49279
▁mind	-9.49291
▁provided	-9.49308
▁them.	-9.49318
▁réglementation	-9.49428
▁résultat	-9.49473
▁frontières	-9.49477
cour	-9.49487
▁perspective	-9.4954
01	-9.49561
▁side	-9.49613
▁sustainable	-9.49726
▁central	-9.49766
▁manifest	-9.49827
▁week	-9.49853
▁confiance	-9.49937
▁Directive	-9.49982
▁crime	-9.50014
▁ha	-9.50061
▁foreign	-9.50063
▁féliciter	-9.50084
▁perhaps	-9.50087
ici	-9.50118
▁qu’	-9.50303
▁début	-9.5051
▁ministre	-9.50572
▁doubt	-9.506
ssent	-9.50652
▁souhait	-9.50662
▁ba	-9.50676
▁danger	-9.50685
▁cases	-9.50704
▁présenté	-9.50735
▁consumer	-9.50765
▁all,	-9.50846
▁systems	-9.50944
▁port	-9.5098
▁speak	-9.50983
▁demain	-9.50988
ay	-9.51028
▁sanctions	-9.51074
▁nuclear	-9.51094
▁assurer	-9.51152
mer	-9.51258
▁protect	-9.51298
▁Mon	-9.51302
▁chance	-9.51365
▁visa	-9.51372
▁Rights	-9.51419
ki	-9.51432
led	-9.51441
one	-9.51483
▁technical	-9.5151
▁solidarity	-9.51561
ile	-9.51622
▁attend	-9.51625
▁critères	-9.51766
▁taux	-9.51779
▁statut	-9.51867
▁above	-9.51999
ual	-9.52061
▁systèmes	-9.52137
gg	-9.52187
▁employ	-9.522
▁vigueur	-9.52214
▁n’a	-9.52233
▁fair	-9.52267
▁guerre	-9.52296
tention	-9.52315
éré	-9.52402
▁Mar	-9.52456
ies	-9.52489
▁previous	-9.52542
▁aurait	-9.52546
ordre	-9.52576
▁passe	-9.52653
▁invest	-9.52655
▁réalisé	-9.5281
▁combat	-9.52817
jo	-9.52881
▁governments	-9.5292
▁considération	-9.52933
▁l’UE	-9.52933
▁strengthen	-9.53078
▁regarding	-9.53092
▁unies	-9.5319
▁road	-9.53274
▁2004	-9.53377
-in-Office	-9.53481
▁technologies	-9.53497
▁exercice	-9.53522
▁agreed	-9.53529
▁past	-9.53571
ber	-9.53595
▁;	-9.53699
lin	-9.53758
▁gouvernements	-9.53804
▁documents	-9.53806
▁item	-9.53832
▁possible.	-9.5386
▁export	-9.53864
▁join	-9.53868
tat	-9.53895
▁business	-9.5391
▁produit	-9.53972
▁insist	-9.53977
ats	-9.54015
istes	-9.54155
▁transparency	-9.54261
▁integration	-9.54324
▁qu'à	-9.54344
ak	-9.54413
▁air	-9.54467
▁mo	-9.54587
▁construction	-9.54736
▁structure	-9.54747
▁it.	-9.54807
érer	-9.54812
our	-9.54867
▁pose	-9.54937
▁contribuer	-9.5508
▁several	-9.55175
▁relatif	-9.55196
20	-9.552
▁actuel	-9.55255
j	-9.55299
▁travers	-9.55439
su	-9.55449
▁améliorer	-9.55628
her	-9.55641
▁consensus	-9.55777
▁critique	-9.55799
▁seen	-9.5586
▁telles	-9.55865
▁stage	-9.55865
▁vise	-9.5587
▁terrorisme	-9.55907
tons	-9.55936
▁balance	-9.55949
▁2009	-9.5601
iers	-9.5602
▁Our	-9.56037
▁climatique	-9.56038
▁n’	-9.5604
▁soon	-9.56123
▁contribute	-9.56213
▁police	-9.56299
lar	-9.56308
▁rule	-9.564
▁positif	-9.56427
▁fonction	-9.56459
▁UN	-9.56573
cur	-9.56606
▁alternative	-9.56779
ran	-9.56863
ning	-9.56865
▁50	-9.5688
▁prise	-9.56889
▁continuer	-9.56906
▁2007	-9.56941
▁exige	-9.57042
▁côté	-9.57048
▁valeurs	-9.5705
▁tomorrow	-9.57187
▁meet	-9.57216
tien	-9.57218
▁appel	-9.57431
▁upon	-9.57484
▁référence	-9.57521
ivité	-9.57618
▁réellement	-9.57642
▁donne	-9.57691
▁Sa	-9.57834
ap	-9.57874
▁1999	-9.57971
▁cost	-9.58025
▁Parliament.	-9.58026
▁L	-9.58036
▁relatives	-9.58079
).	-9.58084
▁follow	-9.58131
▁élections	-9.58144
▁qualifi	-9.58173
▁uniquement	-9.58184
era	-9.58227
▁men	-9.5825
▁accompli	-9.58278
▁victimes	-9.5834
▁enfin	-9.58403
▁modification	-9.58411
▁procédures	-9.58422
▁l'énergie	-9.58432
▁rappeler	-9.58444
▁N	-9.58473
lit	-9.58605
▁prises	-9.5864
▁paragraphe	-9.58917
▁fort	-9.5893
▁certainement	-9.58998
▁reach	-9.59007
▁na	-9.59051
▁pension	-9.59055
▁traitement	-9.59078
▁terrorism	-9.59097
▁add	-9.59109
pro	-9.59123
▁d'action	-9.59133
▁l'industrie	-9.59159
▁moi	-9.59299
▁veiller	-9.59435
(	-9.5951
▁promouvoir	-9.59527
stitut	-9.59667
abilité	-9.59808
fe	-9.59819
ché	-9.59827
▁ans	-9.59835
▁l'amendement	-9.59914
isse	-9.59981
▁monétaire	-9.60002
ités	-9.60009
▁présenter	-9.60025
▁l'économie	-9.60035
▁potential	-9.60046
▁note	-9.60105
▁veut	-9.60113
fa	-9.60113
▁him	-9.60123
▁Ro	-9.60144
▁propres	-9.60266
▁18	-9.60341
▁criteria	-9.60379
▁com	-9.60442
▁Bien	-9.60456
▁normal	-9.60471
▁capable	-9.60474
▁tell	-9.60494
▁outre,	-9.60511
▁2006	-9.60514
▁personnel	-9.6067
▁J'espère	-9.60702
▁demandé	-9.60818
▁continu	-9.60927
▁accession	-9.60939
lam	-9.60944
▁tenir	-9.61114
▁broad	-9.61115
ident	-9.6114
▁pleased	-9.61147
▁session	-9.61217
▁movement	-9.61234
▁pression	-9.61261
▁value	-9.6128
▁garantie	-9.61304
▁hold	-9.61312
▁voting	-9.61391
▁comes	-9.6144
car	-9.6144
▁civile	-9.61458
▁review	-9.61496
▁financières	-9.61559
▁priorité	-9.61565
▁contact	-9.61586
▁l'année	-9.61588
▁seems	-9.61607
▁Thank	-9.61687
▁One	-9.61689
▁existing	-9.61704
▁avoid	-9.61722
ub	-9.61731
▁hard	-9.61816
▁train	-9.61853
â	-9.61858
▁‘	-9.61936
▁Euro	-9.6203
inter	-9.62067
ob	-9.62148
▁protéger	-9.62183
▁provisions	-9.62379
ute	-9.62385
▁eux	-9.62539
▁autant	-9.62566
▁colleagues	-9.62573
▁elections	-9.6267
▁sport	-9.62715
▁refus	-9.62716
▁stability	-9.62784
▁obligations	-9.62789
▁l'importance	-9.62796
▁financier	-9.62886
▁Parlement,	-9.62888
▁influence	-9.62899
▁purpose	-9.62921
▁2008	-9.62923
▁Secondly,	-9.62926
hé	-9.62964
▁affirm	-9.62967
▁due	-9.63012
▁ourselves	-9.63035
▁adoptée	-9.63036
▁minimum	-9.63081
▁parvenir	-9.63119
▁dossier	-9.63139
▁militaire	-9.63149
ab	-9.63174
raient	-9.63258
▁values	-9.63258
▁reduce	-9.63297
ç	-9.63318
▁attitude	-9.63321
▁enable	-9.63329
▁Union's	-9.63378
▁sources	-9.63446
▁considère	-9.63493
▁reflect	-9.6363
▁pen	-9.63646
▁évidemment	-9.63665
▁respecter	-9.6376
▁origin	-9.63773
▁Da	-9.63853
lée	-9.63916
▁2010	-9.63917
▁partenariat	-9.63929
▁défini	-9.64074
▁assist	-9.64154
▁environnemental	-9.6418
▁develop	-9.64231
▁China	-9.6424
▁Des	-9.64273
uel	-9.64291
bil	-9.64387
près	-9.64402
▁transparent	-9.6446
▁cohesion	-9.6461
▁creation	-9.64611
▁dois	-9.6469
▁until	-9.647
▁impossible	-9.64796
▁mandat	-9.64881
▁loin	-9.64918
▁poverty	-9.6504
▁cultural	-9.651
▁everyone	-9.6515
▁l’in	-9.65181
▁2005	-9.65255
▁claire	-9.65256
▁others	-9.65266
▁product	-9.65273
▁statement	-9.65341
▁plans	-9.65473
ious	-9.65478
V	-9.65564
▁pauvreté	-9.65565
▁never	-9.65839
▁d'ex	-9.65878
▁sort	-9.65891
▁méthode	-9.65905
▁modèle	-9.65916
▁financiers	-9.66035
▁permet	-9.66066
▁meilleur	-9.66109
lli	-9.66167
▁Do	-9.66176
▁carried	-9.66247
▁petites	-9.66313
▁reduction	-9.66399
▁appear	-9.66411
▁Chine	-9.66506
▁17	-9.66538
▁rapport.	-9.66579
▁animal	-9.66618
▁territoire	-9.66694
▁amendement	-9.66696
▁acceptable	-9.66701
issement	-9.66712
▁ren	-9.66726
▁coûts	-9.66772
▁job	-9.668
▁import	-9.66808
▁pays.	-9.66916
▁grave	-9.66928
▁agriculture	-9.66967
ac	-9.6699
▁exprimé	-9.67003
▁permanent	-9.67038
▁menace	-9.67088
▁expect	-9.67096
▁soumis	-9.67142
▁collaboration	-9.6716
▁military	-9.67216
étai	-9.67217
▁list	-9.67231
▁rep	-9.67238
▁saying	-9.67404
▁sense	-9.67527
str	-9.67534
▁Traité	-9.67538
▁atteint	-9.67622
▁tabled	-9.67627
▁absolument	-9.67647
▁equal	-9.67713
▁increased	-9.67817
▁asked	-9.67819
▁éléments	-9.67834
cut	-9.67837
▁establish	-9.67847
▁consequences	-9.67904
▁continent	-9.6798
▁spécial	-9.68016
▁contenu	-9.68017
▁increasing	-9.68029
▁held	-9.68089
▁relating	-9.68149
▁étaient	-9.68173
▁farmers	-9.68234
▁qu'on	-9.68242
▁sociaux	-9.68323
▁envisage	-9.68339
▁route	-9.68342
▁2003	-9.6837
▁indispensable	-9.684
▁d'euros	-9.68413
▁réjouis	-9.68413
iel	-9.6842
part	-9.68431
▁précisément	-9.68449
êt	-9.6852
▁Con	-9.68544
▁ground	-9.6856
▁ob	-9.68606
▁travailler	-9.68618
▁makes	-9.68621
▁man	-9.68816
▁illegal	-9.68859
issant	-9.68887
▁changes	-9.68903
▁peuple	-9.69011
▁l'ex	-9.69057
▁namely	-9.69088
▁procedures	-9.69112
▁mode	-9.69179
égalité	-9.69236
▁organisation	-9.69247
▁coût	-9.69301
▁training	-9.69362
je	-9.69392
▁When	-9.69502
▁priorités	-9.69626
▁policy,	-9.6963
▁live	-9.69649
▁zones	-9.69685
▁accepter	-9.69696
▁tâche	-9.69721
ize	-9.69754
▁mondial	-9.69773
▁pressure	-9.69811
▁required	-9.69886
▁highlight	-9.69892
▁along	-9.69905
▁hommes	-9.6997
▁happen	-9.70018
▁Ne	-9.70063
▁d'avoir	-9.70216
▁dépenses	-9.70242
▁totalement	-9.70263
▁fishing	-9.70282
▁carry	-9.70298
▁requirements	-9.70299
▁16	-9.70324
▁everything	-9.7037
▁dû	-9.70389
▁idée	-9.70402
▁institution	-9.7047
▁cinq	-9.70483
▁bas	-9.70509
▁Be	-9.70519
▁markets	-9.70571
▁m	-9.70574
▁stop	-9.70696
ef	-9.70737
▁décidé	-9.70788
mar	-9.70819
▁criminal	-9.70825
▁d’autres	-9.70843
▁petit	-9.70854
▁développer	-9.70873
▁option	-9.70939
▁amend	-9.71016
▁prend	-9.71048
bor	-9.71063
▁cut	-9.71073
▁grandes	-9.7111
▁attempt	-9.71133
▁language	-9.71133
▁maritime	-9.71146
▁2002	-9.71178
▁presented	-9.71217
▁l'utilisation	-9.7122
▁thus	-9.71243
▁Ra	-9.71344
▁speech	-9.71381
▁table	-9.71526
▁opportunities	-9.71546
▁semaine	-9.71566
ration	-9.71597
▁adoption	-9.71681
▁clause	-9.71828
▁billion	-9.71841
▁model	-9.71855
▁jusqu'à	-9.71906
▁parmi	-9.71927
▁relevant	-9.71978
king	-9.71995
▁sensible	-9.72019
▁future.	-9.72041
esse	-9.72046
▁Al	-9.72051
tim	-9.72166
▁valeur	-9.722
▁external	-9.7224
▁qu’elle	-9.72246
▁refer	-9.72246
▁question.	-9.72256
▁regret	-9.72291
▁organ	-9.72309
▁package	-9.72315
▁throughout	-9.7232
▁conférence	-9.72353
fic	-9.7237
▁gens	-9.72484
fer	-9.72624
▁lecture	-9.72694
▁immigration	-9.72781
▁dispose	-9.7287
▁commencer	-9.72921
▁partenaires	-9.73014
▁US	-9.73107
▁remind	-9.73134
),	-9.73142
▁successful	-9.73152
ward	-9.73214
▁priorities	-9.733
▁d'information	-9.73334
▁either	-9.73473
▁repeat	-9.73479
▁substances	-9.73529
▁celles	-9.73586
▁phase	-9.73626
ug	-9.73632
▁budgetary	-9.73648
▁résoudre	-9.73803
▁qu'elles	-9.73903
▁fil	-9.73942
ory	-9.74026
▁assessment	-9.74058
▁différ	-9.74067
nelle	-9.74075
▁délai	-9.74105
ka	-9.74155
▁répond	-9.74156
▁l'objet	-9.74185
▁permettra	-9.74298
ication	-9.74336
▁apporter	-9.74348
▁l'heure	-9.74376
▁vol	-9.74405
▁called	-9.74465
▁return	-9.74466
▁regulations	-9.74481
▁analyse	-9.74513
ène	-9.74519
▁peine	-9.74559
▁quoi	-9.74713
▁difficultés	-9.74746
▁around	-9.74904
▁multi	-9.74934
qué	-9.75052
▁quatre	-9.75068
▁reports	-9.75082
▁suivi	-9.75121
▁Party	-9.75194
▁pleinement	-9.75235
▁community	-9.75363
▁rejet	-9.75379
▁liste	-9.75529
▁article	-9.7556
▁prepared	-9.75624
▁chacun	-9.7565
▁constituent	-9.75735
une	-9.75841
▁Schengen	-9.75882
▁decided	-9.75901
▁waste	-9.75912
▁Di	-9.75993
▁transition	-9.76047
uit	-9.7606
▁réformes	-9.76062
▁coup	-9.76066
▁consideration	-9.76083
ôt	-9.76148
▁famille	-9.76194
▁conduct	-9.76196
▁Ka	-9.7626
▁puis	-9.763
▁conclu	-9.76312
▁improvement	-9.76339
▁d'entre	-9.7652
▁lesquels	-9.76533
mes	-9.76538
▁old	-9.76933
▁régionale	-9.76951
gen	-9.76974
▁séance	-9.7698
▁britannique	-9.77004
bel	-9.77008
ifié	-9.77026
▁félicite	-9.77035
ang	-9.77077
▁jouer	-9.77114
▁succès	-9.77122
▁courage	-9.77126
▁innovation	-9.77216
▁utile	-9.7728
-t-il	-9.77319
▁(PL)	-9.77372
▁communautaires	-9.77398
▁prochain	-9.77517
▁permis	-9.7752
▁practical	-9.7753
▁seek	-9.77567
▁2001	-9.77598
▁across	-9.77675
▁touch	-9.77696
▁2020	-9.77704
lon	-9.77722
▁divers	-9.77723
▁l'agriculture	-9.77754
tri	-9.77757
▁class	-9.77768
▁permettant	-9.78007
▁alimentaire	-9.78016
cent	-9.78039
▁40	-9.7806
▁constructive	-9.78068
▁réserve	-9.78072
▁administration	-9.78109
▁rapports	-9.78117
▁collect	-9.78135
▁pratiques	-9.78169
▁reached	-9.78247
▁five	-9.78369
lant	-9.78413
▁aujourd’hui	-9.78444
▁passer	-9.78502
over	-9.78532
▁puissent	-9.78563
▁directives	-9.78566
▁monitoring	-9.78569
▁parlementaire	-9.78576
▁raised	-9.78674
tour	-9.78742
ition	-9.7876
spir	-9.78786
▁genuine	-9.7879
▁extérieure	-9.78806
▁Ga	-9.78807
ateur	-9.7883
▁bank	-9.78844
▁expressed	-9.78885
rog	-9.78899
▁im	-9.78933
▁venir	-9.79061
▁évident	-9.79071
▁déclaré	-9.79245
▁connaissance	-9.79259
exprim	-9.79268
▁Notre	-9.79298
har	-9.7936
▁Pro	-9.79382
▁exclu	-9.79403
ping	-9.79441
▁transports	-9.79507
▁temps,	-9.79517
▁sufficient	-9.79527
uelle	-9.79545
▁circulation	-9.79557
▁Green	-9.79595
▁reading	-9.797
ages	-9.79743
▁Portugal	-9.79783
▁pourra	-9.7983
▁Therefore,	-9.79845
▁death	-9.79847
▁implement	-9.79847
▁Po	-9.79868
flu	-9.7992
▁exigences	-9.79946
▁talking	-9.79969
▁grands	-9.79992
▁cré	-9.80025
▁official	-9.80108
ably	-9.80153
▁l’é	-9.80184
▁consult	-9.80188
▁mu	-9.80238
▁head	-9.80274
▁light	-9.80311
▁salue	-9.80321
▁renforcement	-9.80333
▁Fa	-9.80465
▁moi,	-9.80495
rm	-9.80527
▁catastrophe	-9.80528
▁Sud	-9.80578
▁tard	-9.80664
▁respond	-9.80677
▁ge	-9.80828
▁learn	-9.8083
nent	-9.80853
▁troisième	-9.80864
▁perspectives	-9.8092
▁home	-9.80932
object	-9.80937
▁implemented	-9.80972
▁secteurs	-9.81008
ira	-9.81029
▁pourraient	-9.81104
▁convaincu	-9.81114
▁market.	-9.81117
▁poursuivre	-9.81127
▁private	-9.81149
▁try	-9.81165
▁cover	-9.81189
▁price	-9.81194
▁Ireland	-9.81265
▁using	-9.81275
voir	-9.81278
▁fail	-9.81362
▁engagement	-9.81391
▁travaux	-9.81401
-f	-9.81402
rais	-9.81479
isée	-9.8155
ev	-9.81573
▁l'occasion	-9.81579
▁vient	-9.81618
▁27	-9.81651
▁fellow	-9.81675
▁fisheries	-9.81689
▁challenges	-9.8169
▁care	-9.81715
intégr	-9.81781
▁rapide	-9.81834
▁correspond	-9.81896
▁compétitivité	-9.81978
▁II	-9.82059
▁included	-9.82077
▁factor	-9.82184
▁soutenu	-9.82227
▁mérite	-9.82246
▁rapporteurs	-9.82329
▁French	-9.82379
▁série	-9.82397
▁chômage	-9.8242
▁regime	-9.82421
▁Li	-9.82508
▁comprendre	-9.82539
time	-9.82589
▁quickly	-9.82603
tan	-9.82619
▁absolutely	-9.8262
▁St	-9.82629
▁vos	-9.82639
mination	-9.82662
▁compétences	-9.82675
▁ever	-9.82774
▁operation	-9.82785
▁Iraq	-9.83001
▁l'élargissement	-9.83102
▁devoir	-9.83198
▁serve	-9.832
ish	-9.83206
und	-9.83222
▁according	-9.83235
atif	-9.83276
▁May	-9.8333
▁adopter	-9.83334
▁presidency	-9.83352
▁established	-9.83381
▁source	-9.83424
▁humaine	-9.83449
▁éviter	-9.83493
▁spécifique	-9.8355
▁l'objectif	-9.83576
▁word	-9.83646
▁aider	-9.83658
▁sociales	-9.8374
▁recently	-9.83775
▁élément	-9.83776
▁red	-9.83814
▁outside	-9.83817
▁potentiel	-9.83843
▁partnership	-9.83858
▁super	-9.83881
▁ensuite	-9.83885
ja	-9.83962
▁malheureusement	-9.83983
▁vision	-9.83988
▁heures	-9.84077
▁prove	-9.84078
ip	-9.84106
▁longtemps	-9.84152
▁reality	-9.84163
tage	-9.84213
▁Deuxièmement	-9.84294
▁Conference	-9.84335
nov	-9.84365
▁coming	-9.84379
▁structures	-9.84454
▁Of	-9.84482
▁contract	-9.84563
▁partners	-9.84603
▁choix	-9.84703
▁retard	-9.84718
▁révision	-9.8482
▁goal	-9.84825
ib	-9.84933
▁author	-9.84979
ron	-9.84998
▁victims	-9.85005
ade	-9.8506
▁Development	-9.85143
▁industrial	-9.852
ach	-9.85213
▁additional	-9.85334
▁risques	-9.85343
▁produce	-9.85362
▁lot	-9.85377
▁enter	-9.85385
▁l'État	-9.85414
▁assez	-9.85478
▁Car	-9.85509
ines	-9.85517
▁gaz	-9.85571
▁defend	-9.85677
▁suggest	-9.85682
▁reference	-9.85728
",	-9.85782
▁attack	-9.85814
▁vis-à-vis	-9.85857
▁Africa	-9.85866
▁candidats	-9.85953
nes	-9.85955
▁tradition	-9.8599
▁exchange	-9.85997
▁begin	-9.86013
▁genre	-9.86059
▁completely	-9.86094
▁Cha	-9.86137
▁structural	-9.86173
▁déposé	-9.8632
dra	-9.86426
▁21	-9.86494
▁spécifiques	-9.86502
▁years.	-9.86615
▁auto	-9.86736
▁brought	-9.86793
▁disaster	-9.86836
▁n'en	-9.86861
▁langue	-9.86912
▁remarque	-9.86946
▁avancé	-9.86952
▁d'aide	-9.86965
▁borders	-9.86978
▁powers	-9.87064
▁ver	-9.87119
▁supported	-9.87167
▁pollution	-9.87257
▁conserv	-9.87273
▁emphasise	-9.87275
lor	-9.87301
▁left	-9.8733
▁essentielle	-9.8734
▁longue	-9.87374
▁giving	-9.87403
▁threat	-9.87499
▁wide	-9.87508
▁treatment	-9.87534
▁dépend	-9.87557
▁efficient	-9.87562
the	-9.87648
mit	-9.87819
▁possibilités	-9.87848
02	-9.8789
▁consiste	-9.87905
ster	-9.87968
▁lutter	-9.87984
▁fonctionnement	-9.88035
▁sé	-9.88191
▁age	-9.88236
▁ministres	-9.88305
investissement	-9.88375
▁emissions	-9.88384
▁importantes	-9.88436
ify	-9.88535
▁summit	-9.88548
▁haut	-9.8855
▁forte	-9.88591
▁près	-9.88612
▁(A	-9.88693
▁opposition	-9.88706
▁extent	-9.88749
▁l'UE.	-9.88819
▁December	-9.88986
▁Republic	-9.88986
▁d'ailleurs	-9.88986
▁press	-9.89015
▁besoins	-9.89025
▁ayant	-9.89143
▁unemployment	-9.89223
▁finally	-9.89231
▁Barroso	-9.89253
▁proportion	-9.89296
▁vont	-9.89392
▁possibility	-9.89461
▁took	-9.89472
▁milliards	-9.89502
▁received	-9.89536
▁bear	-9.89546
▁applied	-9.8955
▁décembre	-9.8955
▁surveillance	-9.8955
▁heard	-9.8982
▁businesses	-9.89859
▁dix	-9.89908
▁défis	-9.89922
▁ensuring	-9.89953
▁candidate	-9.89961
▁disease	-9.89982
▁puisque	-9.90078
▁almost	-9.90116
▁ACP	-9.90236
▁col	-9.90253
▁Agreement	-9.90266
▁plupart	-9.90266
▁fund	-9.90272
▁Ils	-9.90287
▁EU's	-9.90304
▁effects	-9.90304
▁responsables	-9.90315
▁représentants	-9.90318
▁fonctionne	-9.90365
▁natural	-9.90372
▁approved	-9.90384
▁devra	-9.90418
▁invite	-9.90473
▁législative	-9.90476
▁parle	-9.90496
▁years,	-9.905
▁representatives	-9.90637
bre	-9.90664
▁Firstly	-9.90726
▁conflit	-9.90821
▁l’homme	-9.90822
▁précis	-9.90845
▁mené	-9.90859
▁oral	-9.9093
▁L'Union	-9.90987
▁union	-9.91002
▁proper	-9.91069
▁British	-9.91108
▁complete	-9.91113
▁International	-9.91154
▁importe	-9.91161
▁lesquelles	-9.91214
▁year.	-9.91214
▁poor	-9.91229
▁cor	-9.91281
▁Cet	-9.91297
▁investissements	-9.91332
onne	-9.91341
▁discuss	-9.91346
▁Commissaire	-9.91381
▁assume	-9.91385
▁Bank	-9.9148
lan	-9.91499
▁discussed	-9.91544
▁aides	-9.91562
▁depend	-9.91593
▁détail	-9.91601
▁behind	-9.91608
▁Com	-9.91626
▁confidence	-9.91638
▁Furthermore	-9.91653
▁creating	-9.9176
▁provision	-9.91829
mm	-9.91842
▁living	-9.91863
▁derniers	-9.9192
▁implique	-9.91932
▁East	-9.91958
▁How	-9.91963
-elle	-9.91974
▁away	-9.91997
▁connection	-9.92003
▁faible	-9.92024
▁measure	-9.92042
▁personal	-9.92049
▁double	-9.92081
▁constater	-9.92138
▁l'application	-9.92263
▁complex	-9.92269
▁sitting	-9.92294
▁100	-9.92396
observation	-9.92416
ties	-9.92445
▁Justice	-9.92449
we	-9.92517
▁1998	-9.92521
▁media	-9.92522
▁prévu	-9.92526
▁competitiveness	-9.92561
▁instance	-9.92571
▁prices	-9.926
▁Sur	-9.92623
bon	-9.92628
▁considéré	-9.92691
pression	-9.92694
▁Balkans	-9.92713
▁approuvé	-9.9283
itaire	-9.92859
▁conclure	-9.92933
▁fl	-9.92951
▁rights.	-9.92955
ô	-9.92993
▁fournir	-9.93004
98	-9.93012
▁thème	-9.93029
▁leave	-9.93074
▁building	-9.93116
▁office	-9.93233
▁yeux	-9.93271
▁quotas	-9.93338
▁Budget	-9.93369
▁humanitaire	-9.93386
▁involve	-9.93425
▁Iran	-9.93429
▁futur	-9.93436
▁Europe's	-9.93472
▁levels	-9.93487
▁souligné	-9.93508
▁front	-9.93511
▁bar	-9.93551
issent	-9.93596
▁comprend	-9.93612
▁constitution	-9.93623
▁techniques	-9.938
▁délégation	-9.93849
▁independent	-9.93849
▁conformément	-9.93884
teur	-9.93893
▁différence	-9.93942
▁th	-9.94029
▁l'ordre	-9.94036
▁name	-9.94114
▁technique	-9.94115
nk	-9.94119
▁intend	-9.94123
auto	-9.94128
▁Nord	-9.94138
▁guidelines	-9.94175
▁fondamental	-9.94208
▁unacceptable	-9.94269
▁challenge	-9.94299
▁parliamentary	-9.94399
▁paragraph	-9.94465
▁émissions	-9.94475
▁anti-	-9.94478
ison	-9.94497
▁knowledge	-9.94518
▁montre	-9.9452
▁Certain	-9.94534
▁l'adoption	-9.94581
ception	-9.94682
▁effectively	-9.94755
▁reject	-9.94813
▁Go	-9.94907
position	-9.9492
▁reçu	-9.94942
gne	-9.94972
▁publics	-9.94993
▁urge	-9.94996
▁conclude	-9.95018
▁c'est-à-dire	-9.95035
▁capacity	-9.95035
▁association	-9.95114
▁year,	-9.95133
▁effets	-9.95146
▁d'État	-9.95287
▁agriculteurs	-9.95304
ez-vous	-9.95351
▁thanks	-9.95403
▁receive	-9.95413
▁Regulation	-9.95508
▁Belarus	-9.95539
▁extend	-9.95581
▁send	-9.95637
éné	-9.95687
▁delay	-9.95737
▁examine	-9.95745
ze	-9.95765
▁pensons	-9.95805
▁reforms	-9.9585
wa	-9.95854
▁lu	-9.95913
▁scope	-9.95935
▁haute	-9.95944
▁responsable	-9.95946
▁etc.	-9.95974
▁nationale	-9.96016
▁fruit	-9.9603
▁comité	-9.96186
▁huge	-9.96348
▁events	-9.96454
▁chef	-9.9646
▁defence	-9.96498
▁Permettez-moi	-9.96539
▁stratégique	-9.96619
▁interne	-9.96737
▁code	-9.96752
▁level.	-9.96807
▁introduction	-9.96812
▁cr	-9.9696
▁read	-9.9698
cher	-9.96982
▁engagé	-9.97083
▁certaine	-9.97085
▁emplois	-9.97103
▁République	-9.97227
▁family	-9.97227
▁structurels	-9.9725
▁weak	-9.97273
▁animaux	-9.97275
▁récemment	-9.97371
rie	-9.97397
▁visit	-9.9742
▁vert	-9.97447
▁rapid	-9.97512
uf	-9.97516
▁mentionné	-9.97561
▁positions	-9.97584
▁gas	-9.9759
▁violations	-9.97687
nement	-9.97699
▁considered	-9.97733
▁défi	-9.97739
▁s’agit	-9.97742
▁Su	-9.97777
▁despite	-9.97792
▁condemn	-9.97807
▁Ta	-9.97824
cho	-9.97839
▁étude	-9.9786
▁low	-9.97874
▁times	-9.97885
▁Central	-9.97968
▁humanitarian	-9.97978
▁mener	-9.98011
▁producteurs	-9.98117
▁nations	-9.98147
▁world.	-9.98174
▁affected	-9.98204
▁effectivement	-9.98222
▁American	-9.98234
▁aimed	-9.98301
▁Internet	-9.98332
▁choisi	-9.98424
▁fixé	-9.98604
▁profession	-9.98612
▁veux	-9.98716
▁définition	-9.98753
▁caractère	-9.9878
▁First	-9.98818
▁exploit	-9.98906
▁World	-9.98943
▁juge	-9.9898
▁désormais	-9.99025
▁precisely	-9.99044
▁l'égard	-9.99046
▁qu'a	-9.99063
▁bi	-9.9908
▁clo	-9.99099
▁difficulties	-9.99105
▁asylum	-9.99189
▁explain	-9.99189
téri	-9.99223
▁changements	-9.99249
▁Democrats	-9.99294
▁remains	-9.99328
▁trying	-9.99417
io	-9.99509
▁obtain	-9.99517
▁souhaiterais	-9.99566
▁detail	-9.99588
▁Economic	-9.99632
▁conséquence	-9.9966
▁supply	-9.99665
▁j’ai	-9.99688
▁l'autre	-9.99698
ég	-9.99704
▁sérieux	-9.99708
▁(PT)	-9.99714
▁ligne	-9.99749
▁savez	-9.99815
▁l'A	-9.99823
▁efficiency	-9.99829
▁occup	-9.99836
duc	-9.99863
urg	-9.99878
▁réussi	-9.99921
▁Now	-10.0001
▁Strasbourg	-10.0004
▁rester	-10.0009
▁safeguard	-10.0019
▁June	-10.0019
▁shown	-10.0027
▁cherche	-10.003
▁instead	-10.0031
ccident	-10.0043
▁sectors	-10.0045
▁conscience	-10.0049
▁decide	-10.0051
▁législatif	-10.0059
▁étrangère	-10.0066
▁déchets	-10.0067
▁terrorist	-10.007
▁Vi	-10.0072
▁fera	-10.0072
▁indicate	-10.0078
▁suivre	-10.0089
▁developed	-10.009
▁honourable	-10.0092
▁modern	-10.0107
▁circumstances	-10.0111
▁conciliation	-10.0111
cing	-10.0116
▁Me	-10.012
▁dealing	-10.0123
▁beginning	-10.0127
▁half	-10.0128
▁Ko	-10.013
way	-10.0134
▁providing	-10.0136
▁accordance	-10.0141
alité	-10.0147
▁compar	-10.015
▁obstacles	-10.0152
▁Palestinian	-10.0156
efficacité	-10.0156
▁institutional	-10.0157
▁d'autre	-10.016
▁link	-10.016
▁supplémentaires	-10.0162
▁advantage	-10.0164
▁recognise	-10.0169
▁technology	-10.0174
▁days	-10.0177
▁Na	-10.0179
▁libéralisation	-10.0179
▁juin	-10.0183
▁disposition	-10.0185
▁oil	-10.0191
▁atteindre	-10.0196
▁l'euro	-10.02
97	-10.02
▁raise	-10.0203
▁original	-10.0209
▁prévention	-10.021
▁maintien	-10.021
▁(S	-10.0215
▁entire	-10.0218
▁ju	-10.022
▁improving	-10.0221
▁paiement	-10.0221
▁mine	-10.0232
▁jours	-10.0233
▁parfois	-10.0237
▁maintenir	-10.0247
▁today.	-10.0257
▁committed	-10.0263
▁années,	-10.0263
gent	-10.0263
á	-10.0265
▁corruption	-10.0267
▁agir	-10.0269
▁inacceptable	-10.027
▁1997	-10.0277
▁paquet	-10.0281
▁biais	-10.0286
cal	-10.0292
▁U	-10.0292
▁engage	-10.0294
▁Voilà	-10.0296
▁Romania	-10.0296
dict	-10.0297
▁suffisamment	-10.0303
▁restrict	-10.0304
▁présence	-10.0305
▁wrong	-10.0306
▁chiffre	-10.0311
▁delegation	-10.0316
▁cite	-10.0322
▁réaliser	-10.0327
▁député	-10.0329
▁via	-10.0337
▁facile	-10.0337
cle	-10.0339
▁Germany	-10.0342
▁j'espère	-10.0344
▁restrictions	-10.0349
▁mai	-10.035
▁niveaux	-10.035
▁conscient	-10.0352
▁Royaume-Uni	-10.0354
org	-10.0355
▁By	-10.0361
pul	-10.0366
▁transfer	-10.0366
▁fix	-10.0368
▁intérêt	-10.0374
▁montant	-10.0378
▁status	-10.0392
▁target	-10.0397
▁scientific	-10.0397
▁allowed	-10.0401
▁voix	-10.0402
▁judiciaire	-10.0405
▁Social	-10.0406
▁malgré	-10.0407
▁colleague	-10.0412
▁qu'au	-10.0412
▁(FR)	-10.0416
▁created	-10.0417
vert	-10.0424
▁responsabilités	-10.0426
▁fear	-10.0426
▁initial	-10.0432
▁obtenu	-10.0433
▁former	-10.0434
▁maximum	-10.0438
▁(IT)	-10.044
▁goes	-10.0441
▁event	-10.0443
▁damage	-10.0443
▁gain	-10.0445
▁annuel	-10.0447
▁Gu	-10.0453
ever	-10.0462
▁assure	-10.047
▁enterprises	-10.0474
▁d'énergie	-10.0481
▁considerable	-10.0489
▁rich	-10.0495
03	-10.0495
tch	-10.0499
▁l'en	-10.0513
▁Policy	-10.0514
▁partir	-10.0522
▁socialiste	-10.0526
▁South	-10.053
▁apporté	-10.0535
▁duty	-10.054
▁surpris	-10.054
pac	-10.0544
▁événements	-10.0544
▁éco	-10.0547
▁suivante	-10.0554
▁s'a	-10.0554
▁deep	-10.0556
▁engagements	-10.0563
▁WTO	-10.0565
cha	-10.0567
▁infrastructure	-10.057
▁Sch	-10.0581
▁ferme	-10.0583
▁accepted	-10.0585
▁strategic	-10.0589
utili	-10.0593
rez	-10.0598
▁l'accès	-10.0598
▁claim	-10.0598
▁benefits	-10.0599
rou	-10.0603
▁rightly	-10.0605
▁Brussels	-10.061
▁implementing	-10.0612
▁l'information	-10.0617
▁pe	-10.0618
▁choice	-10.0624
▁sent	-10.0629
▁obtenir	-10.0633
▁Some	-10.0647
▁outre	-10.0647
▁Présidence	-10.0649
place	-10.065
▁prévoit	-10.0651
▁n'avons	-10.0651
▁fiscal	-10.0654
▁augmentation	-10.0654
▁soutiens	-10.0657
▁rise	-10.0661
▁ratification	-10.0663
▁unfortunately	-10.0669
▁rendu	-10.0677
▁land	-10.0681
▁collective	-10.0682
▁border	-10.069
▁similar	-10.0693
▁promoting	-10.0695
▁allons	-10.0705
▁évaluation	-10.0712
▁ship	-10.0715
▁liés	-10.0715
▁ouvert	-10.0716
▁thought	-10.0722
cra	-10.0724
Allemagne	-10.0725
▁stated	-10.0726
▁referred	-10.073
▁Merci	-10.0739
▁budgets	-10.0743
dit	-10.0743
habi	-10.0747
▁estime	-10.0755
▁specifically	-10.0757
▁prefer	-10.0763
▁German	-10.0766
▁overall	-10.0767
▁closely	-10.0771
▁sous-	-10.0781
▁spirit	-10.0784
▁habit	-10.0784
▁gr	-10.0785
▁l'égalité	-10.08
▁suggestion	-10.0802
arch	-10.0803
▁libertés	-10.0804
▁participer	-10.0805
▁San	-10.0805
▁directement	-10.0806
▁veulent	-10.0811
▁conseil	-10.0816
▁seriously	-10.0817
▁Israel	-10.0818
▁Banque	-10.0819
▁Human	-10.0825
▁arrive	-10.0826
▁material	-10.0834
▁déli	-10.0836
▁excessive	-10.0839
▁crimes	-10.0845
-nous	-10.0846
▁étrangères	-10.0859
▁impose	-10.086
▁i	-10.0863
▁firm	-10.0863
▁remember	-10.0866
▁étroite	-10.0868
▁causes	-10.0874
culture	-10.0886
▁déclarations	-10.089
▁beyond	-10.09
▁attach	-10.0902
▁Bruxelles	-10.0906
▁long-term	-10.0906
▁relationship	-10.0906
▁history	-10.0908
for	-10.0923
▁connu	-10.0926
▁accès	-10.0929
▁standard	-10.0936
▁précédent	-10.0938
ule	-10.094
ï	-10.094
▁publiques	-10.0954
▁réfugiés	-10.0962
▁amélioration	-10.0964
▁friend	-10.0967
▁neighbour	-10.0973
ency	-10.1
EC	-10.1006
antes	-10.1007
▁faisant	-10.1008
▁celle-ci	-10.1009
▁auquel	-10.1011
▁Socialist	-10.1014
liber	-10.1016
▁Ukraine	-10.1019
▁terre	-10.102
▁aller	-10.1027
▁accepté	-10.1027
ble	-10.1028
▁exclusive	-10.103
▁moral	-10.1035
▁existant	-10.1037
ète	-10.1049
▁directly	-10.1049
▁mass	-10.1051
mor	-10.1053
▁pourrons	-10.1058
▁plant	-10.1064
▁joue	-10.1065
own	-10.107
▁suppose	-10.1072
▁expenditure	-10.1079
▁sea	-10.1085
▁l'adhésion	-10.1086
▁équitable	-10.1094
▁Today	-10.1094
▁contribue	-10.1099
▁financing	-10.1108
ctor	-10.111
▁évoqué	-10.111
▁Nos	-10.1111
▁obligation	-10.1115
ori	-10.1118
▁expression	-10.1119
▁study	-10.1121
▁annual	-10.1122
▁réalisation	-10.1125
▁entraîne	-10.1129
▁internationales	-10.1132
▁Mediterranean	-10.1132
▁travel	-10.1132
▁60	-10.1137
▁conference	-10.1142
▁ambition	-10.1142
▁facteur	-10.1155
▁lignes	-10.1156
▁sociétés	-10.1157
▁Irish	-10.1157
▁applicable	-10.116
▁Y	-10.1173
▁reconnaissance	-10.1173
▁provides	-10.1174
▁fais	-10.1175
▁recours	-10.1176
▁useful	-10.1176
▁campagne	-10.1179
▁votes	-10.118
▁champ	-10.1183
ught	-10.1183
▁réduit	-10.119
▁cap	-10.119
▁wanted	-10.1208
▁calls	-10.1212
▁harmonisation	-10.1218
isant	-10.1222
▁graves	-10.1224
▁poser	-10.1229
▁competence	-10.123
▁juridiques	-10.1231
▁compensation	-10.1238
▁cur	-10.1243
▁requires	-10.1247
attaque	-10.1247
▁lives	-10.1247
▁tirer	-10.1249
▁fraud	-10.1252
▁tend	-10.1254
▁Premièrement	-10.1268
▁réelle	-10.1274
▁l'efficacité	-10.1277
▁d'Europe	-10.128
▁écrit	-10.1283
▁procès-verbal	-10.1285
iens	-10.1286
gouvernementale	-10.1293
▁européens.	-10.1293
▁gra	-10.1295
▁equality	-10.1297
▁populations	-10.1304
▁campaign	-10.1312
pol	-10.1314
▁1996	-10.1325
br	-10.1332
▁garanti	-10.1333
▁utiliser	-10.1341
▁préoccupations	-10.1341
gul	-10.1342
▁setting	-10.1343
▁fulfil	-10.1344
▁listen	-10.1347
▁myself	-10.1347
▁closed.	-10.1351
▁réseaux	-10.1359
▁globale	-10.136
ons-nous	-10.1364
volution	-10.1366
▁introduce	-10.1367
▁January	-10.1372
▁Summit	-10.1372
▁consommation	-10.1374
▁refuse	-10.1378
▁industrie	-10.1385
▁activity	-10.1385
bli	-10.1386
-de	-10.1387
▁défendre	-10.1388
▁outcome	-10.1389
▁désir	-10.1393
▁intended	-10.1394
plique	-10.1399
▁consist	-10.1401
▁négoci	-10.1409
▁trafic	-10.1416
▁plein	-10.1425
▁envers	-10.1432
▁néanmoins	-10.1433
▁experts	-10.1436
▁état	-10.1438
▁circ	-10.1438
▁voit	-10.1438
▁principaux	-10.1448
▁devenir	-10.1449
▁UE	-10.1449
lt	-10.1453
▁burden	-10.1454
▁Jo	-10.1454
▁soi	-10.1458
▁naturellement	-10.146
▁sait	-10.1461
▁abandon	-10.1463
▁forms	-10.1465
▁montrer	-10.1466
▁janvier	-10.1467
▁trust	-10.1467
▁convergence	-10.1475
▁retire	-10.1475
▁remark	-10.1477
▁reconnaître	-10.1479
▁paid	-10.1479
▁extra	-10.1481
▁peuples	-10.1481
▁exprimer	-10.149
▁ignore	-10.15
▁comments	-10.1503
▁distribution	-10.1506
nu	-10.1509
▁ans,	-10.151
▁23	-10.1513
▁fiscale	-10.1518
▁l'intérêt	-10.1525
▁économie	-10.1527
▁bio	-10.153
▁agricoles	-10.1534
▁souligne	-10.1535
▁ceci	-10.154
▁Luxembourg	-10.1542
▁mark	-10.1547
▁alone	-10.1548
▁Prodi	-10.1549
▁privé	-10.1565
▁crédits	-10.1568
▁version	-10.1572
▁bodies	-10.1579
▁24	-10.1581
▁speaking	-10.1584
▁représentant	-10.1587
▁anything	-10.1592
▁highly	-10.1597
▁Greece	-10.16
▁competitive	-10.1601
▁pauvres	-10.1608
▁lorsqu'il	-10.161
▁mini	-10.1618
▁laisser	-10.162
▁substantial	-10.1635
▁CO2	-10.1635
put	-10.164
ibilité	-10.1643
▁seem	-10.1648
▁adequate	-10.1648
▁espérons	-10.1654
▁Ex	-10.1667
af	-10.1668
▁properly	-10.1673
▁comptes	-10.1679
û	-10.168
▁ambitious	-10.1683
ES	-10.1685
▁permettez-moi	-10.1687
▁party	-10.1688
wi	-10.1689
▁n'ai	-10.1691
rég	-10.1695
▁traite	-10.1696
▁grant	-10.1697
▁suffer	-10.1699
▁yesterday	-10.1699
▁medium-sized	-10.1705
ound	-10.1707
▁J	-10.171
▁ville	-10.1711
50	-10.1715
▁m'a	-10.1745
▁résolu	-10.1747
uve	-10.1749
▁patients	-10.1753
▁emploi	-10.176
▁higher	-10.1761
▁desire	-10.1763
▁erreur	-10.1763
▁Although	-10.1768
▁discussing	-10.1771
▁offre	-10.1772
▁l'ai	-10.1775
▁forget	-10.1776
van	-10.1782
▁compétence	-10.1787
vit	-10.1787
▁steps	-10.179
▁acquis	-10.1793
graph	-10.1795
▁minister	-10.1798
▁method	-10.18
produ	-10.18
▁Environment	-10.1803
og	-10.1806
▁s'en	-10.181
▁l'idée	-10.1813
▁declaration	-10.1819
▁pacte	-10.1819
▁authority	-10.1819
▁limited	-10.1821
▁endorse	-10.1823
▁ouverte	-10.1823
▁humains	-10.1825
rage	-10.1826
▁increasingly	-10.1835
▁traiter	-10.1844
▁Selon	-10.1846
▁known	-10.1851
▁establishing	-10.1853
▁violation	-10.1853
▁flexible	-10.1855
▁Unfortunately	-10.1857
han	-10.1858
▁parlé	-10.1861
▁hear	-10.1861
▁art	-10.1862
▁lien	-10.1871
▁calling	-10.1879
▁Ceci	-10.1881
▁exploitation	-10.1886
▁vehicle	-10.1887
▁whom	-10.1887
▁procéder	-10.1888
▁wait	-10.1891
▁mutual	-10.1893
▁commitments	-10.1895
▁discuter	-10.1897
▁scheme	-10.1901
▁symbol	-10.1903
▁big	-10.1906
til	-10.1906
▁caused	-10.1906
▁médias	-10.1907
▁early	-10.1907
▁80	-10.191
▁bonnes	-10.1911
▁goods	-10.1912
▁citoyen	-10.1914
▁monnaie	-10.1915
▁clos.	-10.192
▁poll	-10.192
▁achieving	-10.1923
▁improved	-10.1925
▁étape	-10.1925
▁Rules	-10.1926
▁March	-10.1927
▁tourisme	-10.1928
-0	-10.1931
▁deliver	-10.1936
ju	-10.194
▁supporting	-10.1944
▁harm	-10.1951
▁affaire	-10.1952
▁territorial	-10.1955
asso	-10.1958
▁gros	-10.1967
▁run	-10.1969
bat	-10.197
▁require	-10.1972
▁départ	-10.1978
▁L'a	-10.1984
▁réseau	-10.1984
▁l'attention	-10.1989
▁complet	-10.1992
▁l'éducation	-10.1998
▁comprehensive	-10.1999
▁subvention	-10.2001
▁tu	-10.2008
▁record	-10.201
▁fish	-10.2011
▁prison	-10.2026
▁sum	-10.203
▁22	-10.2031
▁definition	-10.2033
▁child	-10.2041
istic	-10.2044
▁happened	-10.2044
▁l'intégration	-10.2045
ième	-10.2049
▁Security	-10.205
ified	-10.2056
▁taxes	-10.2057
▁emphasis	-10.2057
▁consistent	-10.2057
approuve	-10.2058
▁l'Assemblée	-10.2062
▁Minutes	-10.2064
▁manner	-10.207
▁défend	-10.2071
▁reducing	-10.2072
▁radical	-10.2076
▁strengthening	-10.2088
▁tackle	-10.209
▁uniform	-10.209
▁uvre	-10.2099
▁suspend	-10.2104
▁obviously	-10.2105
▁produced	-10.2112
▁exercise	-10.2113
▁populaire	-10.2113
▁opt	-10.212
▁stocks	-10.2122
▁allemand	-10.2123
▁Since	-10.2123
des	-10.2131
▁demands	-10.214
▁professionnelle	-10.2148
▁soulevé	-10.216
▁politic	-10.2174
▁sentiment	-10.2182
▁failure	-10.2187
▁mars	-10.2189
apport	-10.2194
▁Néanmoins	-10.2196
▁arguments	-10.2202
▁member	-10.2202
▁convinced	-10.2212
▁pourtant	-10.2213
▁shows	-10.2214
▁pan	-10.2216
▁cro	-10.2219
▁moyennes	-10.2225
▁currency	-10.2225
▁prévue	-10.2229
▁check	-10.2229
▁producers	-10.2232
▁establishment	-10.2237
▁Ri	-10.2238
▁reconnu	-10.224
▁worth	-10.224
▁irlandais	-10.2242
▁substance	-10.2247
ulation	-10.225
-up	-10.2254
▁Amsterdam	-10.2258
▁person	-10.2263
▁Foreign	-10.2265
▁budgétaires	-10.2266
nom	-10.2266
▁relève	-10.2268
▁heureux	-10.2269
▁reconstruction	-10.2273
▁semaines	-10.2279
▁Moreover	-10.2279
▁advance	-10.2289
Afrique	-10.2306
▁migration	-10.231
▁nouvel	-10.2314
responsibilities	-10.2314
▁largement	-10.2315
q	-10.2316
▁chemin	-10.2317
aît	-10.2317
▁historique	-10.2321
▁monitor	-10.2322
▁entend	-10.2325
▁looking	-10.2327
▁enormous	-10.2329
▁bad	-10.234
ê	-10.2342
▁actes	-10.2345
▁income	-10.2345
▁oblige	-10.2346
vel	-10.2346
▁Italy	-10.2348
▁chez	-10.2351
▁clé	-10.2362
▁équilibré	-10.2363
▁parfaitement	-10.2364
X	-10.2366
▁fasse	-10.2372
▁intéressant	-10.2373
▁économies	-10.2381
range	-10.2384
▁PME	-10.2387
▁monetary	-10.2402
exécution	-10.241
équipe	-10.2411
▁mécanisme	-10.2417
▁Th	-10.2421
▁sometimes	-10.2423
▁Elles	-10.2424
▁balanced	-10.2431
▁combating	-10.2432
▁weeks	-10.2432
▁pourront	-10.2438
uvre	-10.244
accueil	-10.244
▁anti	-10.2441
▁analysis	-10.2442
▁Grèce	-10.2446
▁appeal	-10.2451
▁launch	-10.2455
▁staff	-10.2457
▁abordé	-10.2459
▁earlier	-10.2459
▁destruction	-10.2463
▁encourager	-10.2464
▁recognition	-10.2465
▁represents	-10.2466
▁so-called	-10.2467
▁proposer	-10.2473
▁solve	-10.2477
hu	-10.2479
▁l'esprit	-10.248
▁suivant	-10.2483
▁succeed	-10.2489
▁(NL)	-10.2491
▁soins	-10.2492
▁Vo	-10.2495
▁safe	-10.2503
▁dangerous	-10.2507
▁expérience	-10.2507
accord	-10.2514
▁compagnie	-10.2518
▁mondialisation	-10.252
▁concrete	-10.2526
▁infrastructures	-10.2532
▁aient	-10.2533
▁chargé	-10.2533
▁suit	-10.2535
▁internationaux	-10.2535
iez	-10.2541
▁créé	-10.2543
▁demonstrate	-10.2548
▁taxation	-10.255
-t-elle	-10.2557
▁progressive	-10.2559
▁partis	-10.256
tti	-10.2561
▁Spanish	-10.2563
▁conflits	-10.2563
▁types	-10.2563
▁becoming	-10.2568
ko	-10.2569
▁Cuba	-10.257
▁culturelle	-10.2573
▁entirely	-10.2574
▁network	-10.2579
▁introduit	-10.258
▁contrary	-10.258
▁protest	-10.2593
▁démocratiques	-10.2595
▁Ainsi	-10.2595
▁rempli	-10.2595
99	-10.2602
▁protocole	-10.2602
▁avenir	-10.2602
asse	-10.2607
▁facing	-10.2614
▁montré	-10.2619
▁voice	-10.2624
▁statements	-10.263
▁Après	-10.2631
▁After	-10.2631
▁avaient	-10.2632
▁prevention	-10.2638
▁appropriée	-10.2641
▁Programme	-10.2644
▁introduced	-10.2652
▁négociation	-10.2652
▁Russian	-10.2659
▁opinions	-10.266
▁supplémentaire	-10.2662
▁durant	-10.2662
▁negative	-10.2664
▁industries	-10.2664
▁contributions	-10.2674
▁servir	-10.2676
▁rappelle	-10.2686
▁retour	-10.2687
▁regrettable	-10.269
▁firstly	-10.2691
tric	-10.2694
▁Nevertheless	-10.2696
▁soir	-10.2704
▁scandal	-10.2705
▁au-delà	-10.2713
▁espagnol	-10.2713
▁heart	-10.2715
▁Conférence	-10.2716
▁cross-border	-10.2716
▁passenger	-10.2718
▁hier	-10.272
▁risks	-10.2721
▁UK	-10.2727
▁professional	-10.2728
▁indique	-10.2729
▁dépens	-10.2729
▁livre	-10.2731
▁elements	-10.2732
lla	-10.2737
▁reduced	-10.2738
▁faudrait	-10.274
ois	-10.2746
▁décider	-10.2748
▁discours	-10.2751
dition	-10.2751
▁formulé	-10.2753
▁actual	-10.2754
dépendance	-10.2757
▁plénière	-10.2763
▁alimentaires	-10.2768
▁liées	-10.2771
▁flexibility	-10.2774
▁speed	-10.2775
▁effectué	-10.2775
▁climat	-10.2783
▁viol	-10.2789
▁septembre	-10.2789
▁inquiétude	-10.2789
▁thinking	-10.2792
ö	-10.2803
▁hu	-10.2803
▁réuni	-10.2807
▁(A5-	-10.2822
▁religion	-10.2827
▁liberalisation	-10.2828
▁décharge	-10.2833
ffect	-10.2837
▁définir	-10.2843
▁build	-10.2845
▁j’	-10.2848
▁Malheureusement	-10.2849
▁immigrants	-10.2849
▁réaction	-10.2849
▁asking	-10.2849
▁Européens	-10.2856
▁rencontre	-10.2859
▁bénéficier	-10.2863
▁Finland	-10.2866
▁raisonnable	-10.2866
▁September	-10.287
▁ph	-10.287
▁aims	-10.2874
▁devront	-10.2878
▁disposer	-10.288
▁d'améliorer	-10.2881
cin	-10.2883
▁déclare	-10.2888
▁modifié	-10.289
▁Messieurs	-10.289
▁Afghanistan	-10.2892
▁probably	-10.2895
▁Spain	-10.2897
▁differences	-10.2898
▁morning	-10.2899
▁équilibre	-10.29
▁fondamentale	-10.29
▁critical	-10.2906
▁armes	-10.2906
▁matin	-10.2917
uche	-10.2918
mu	-10.2918
▁réel	-10.2919
▁added	-10.2923
éducation	-10.2926
▁faudra	-10.2927
o-	-10.2928
▁recommandations	-10.2929
▁adéquate	-10.293
▁America	-10.2936
▁parlementaires	-10.2937
▁simplification	-10.2943
▁avantages	-10.2943
▁animals	-10.2947
▁Indeed	-10.295
▁aborder	-10.2961
▁massive	-10.2968
▁stable	-10.2971
▁leaders	-10.2979
▁van	-10.2982
▁else	-10.2983
▁réflexion	-10.2994
▁criticism	-10.2999
▁souhaitons	-10.3001
▁acknowledge	-10.3001
▁prospect	-10.3001
▁conviction	-10.3001
▁body	-10.3001
▁assess	-10.3005
▁stock	-10.3011
den	-10.3012
▁conforme	-10.3013
▁américain	-10.3014
▁l'une	-10.3015
▁Roumanie	-10.3017
▁closer	-10.3022
▁win	-10.3027
▁sound	-10.3028
▁réside	-10.3036
▁Italian	-10.3037
▁faisons	-10.3039
▁Que	-10.3044
▁secure	-10.3046
▁avions	-10.3048
▁school	-10.305
▁précise	-10.3051
▁développé	-10.3066
tur	-10.3067
▁recommendations	-10.3067
▁consommateur	-10.3079
▁pointed	-10.3087
▁cesse	-10.3095
▁mechanism	-10.31
▁seraient	-10.3102
▁applies	-10.3104
▁Aujourd'hui	-10.3106
▁strongly	-10.311
▁l'initiative	-10.3111
▁compétent	-10.3111
30	-10.3114
▁promise	-10.3116
▁exactly	-10.3123
▁élu	-10.3126
oyer	-10.3131
▁celui-ci	-10.3131
▁revêt	-10.3136
▁mandate	-10.3137
▁concernés	-10.314
▁understanding	-10.3144
▁Pact	-10.3144
▁minutes	-10.3168
▁d'ici	-10.3171
▁presque	-10.3184
▁renewable	-10.3186
ouvrir	-10.3191
▁représentent	-10.3199
▁November	-10.3204
▁company	-10.3204
▁Question	-10.3215
EP	-10.3216
▁consacré	-10.3224
▁complexe	-10.3226
▁loss	-10.3234
▁drawn	-10.3237
▁parlons	-10.3238
individu	-10.324
▁Procedure	-10.324
▁Can	-10.3241
▁d’in	-10.3243
▁discharge	-10.3247
▁aérien	-10.3248
▁milliers	-10.3254
▁Pakistan	-10.3263
▁novembre	-10.3265
▁fraude	-10.3272
▁credit	-10.3277
▁impression	-10.328
▁lancé	-10.3289
▁faciliter	-10.329
▁presse	-10.3292
anci	-10.3305
▁abuse	-10.3308
▁Fi	-10.3318
ajou	-10.3335
▁demandons	-10.3336
▁traffic	-10.3338
▁Premier	-10.3341
vol	-10.3348
▁modifier	-10.3351
fo	-10.3353
▁constant	-10.3353
orientation	-10.3355
▁auxquels	-10.3357
▁explicit	-10.3357
▁refugees	-10.3358
▁withdraw	-10.336
▁MEPs	-10.3364
▁reply	-10.3365
▁!	-10.3366
▁constitutionnel	-10.3367
▁reprises	-10.337
▁chances	-10.3371
▁constitute	-10.3377
enne	-10.3379
▁énorme	-10.338
▁opening	-10.3382
force	-10.3384
▁concentrer	-10.3384
▁submitted	-10.3388
▁dealt	-10.3395
▁médicaments	-10.3397
▁relate	-10.3404
▁Paper	-10.3405
▁concrète	-10.3405
▁agencies	-10.3413
adapt	-10.3418
/2001	-10.342
▁transform	-10.342
▁mécanismes	-10.342
▁PPE-DE	-10.3422
▁obligatoire	-10.3431
▁regrette	-10.3433
▁happy	-10.3438
▁s’est	-10.3446
▁efficaces	-10.3449
mettre	-10.3459
▁perte	-10.3459
▁methods	-10.3461
venir	-10.3466
▁500	-10.3469
▁Ladies	-10.3471
▁function	-10.3474
tig	-10.3477
▁networks	-10.3491
ération	-10.3492
▁pursue	-10.3497
▁degree	-10.3497
▁accidents	-10.3497
▁justifie	-10.3501
▁governance	-10.3504
▁distribu	-10.3512
▁vais	-10.3515
▁principalement	-10.3519
▁came	-10.352
▁1995	-10.352
▁palestinien	-10.352
▁addressed	-10.3526
▁drive	-10.3527
▁entièrement	-10.3532
parti	-10.3537
▁examiner	-10.3539
▁voyage	-10.3541
▁l'argent	-10.3544
▁Why	-10.3546
ignor	-10.3551
▁rail	-10.3552
▁Kyoto	-10.3555
▁replace	-10.3559
▁flexibilité	-10.3565
▁wonder	-10.3565
▁integrated	-10.3566
naire	-10.357
04	-10.3573
élargissement	-10.3586
▁putting	-10.3586
▁consent	-10.3599
▁stade	-10.36
▁informed	-10.3602
▁Bu	-10.3606
▁sud	-10.3608
chi	-10.3615
▁limite	-10.3619
▁rapproch	-10.3625
▁l'action	-10.3628
impl	-10.3632
▁Even	-10.3634
▁Bulgaria	-10.3643
▁Middle	-10.365
▁confrontés	-10.3652
▁oeuvre	-10.3653
▁l'intention	-10.3655
▁evidence	-10.3657
▁immediately	-10.3665
arrêt	-10.3669
▁Kingdom	-10.3672
▁growing	-10.3673
appui	-10.3679
▁Pre	-10.3681
▁managed	-10.3682
▁pied	-10.3689
Europe	-10.3693
▁logique	-10.3695
▁présentée	-10.3698
▁impliqué	-10.37
▁indépendant	-10.3701
▁minorités	-10.3707
▁diversité	-10.371
▁Trade	-10.3712
▁New	-10.3718
▁acteurs	-10.372
▁lumière	-10.3722
▁considérer	-10.3724
▁l'OMC	-10.3724
▁sensitive	-10.3724
▁l'ont	-10.3725
▁plain	-10.3725
▁October	-10.3734
▁moindre	-10.3746
▁ahead	-10.3746
K	-10.375
▁contient	-10.3753
▁Nice	-10.3753
évaluer	-10.376
▁probablement	-10.3761
▁organised	-10.3762
dam	-10.3766
pla	-10.3772
▁m’	-10.3773
▁Prime	-10.3784
▁satisfaction	-10.3784
▁d'asile	-10.3787
▁blanc	-10.3795
▁femme	-10.3801
▁tentative	-10.3801
▁textile	-10.3802
▁évolution	-10.3803
European	-10.3812
▁Strategy	-10.3823
▁majeur	-10.3829
▁cru	-10.384
▁concitoyens	-10.3847
▁manage	-10.3863
▁deserve	-10.3868
▁collabor	-10.3868
▁indiqué	-10.3869
▁gouvernance	-10.387
▁orientations	-10.3872
▁rejected	-10.3873
▁mainly	-10.3878
▁drogue	-10.3881
▁remove	-10.3886
▁comply	-10.3887
▁formal	-10.3887
▁d'emplois	-10.3898
▁l'encontre	-10.3905
▁contains	-10.3908
▁Pourquoi	-10.3913
▁locales	-10.3914
▁finalement	-10.3915
-on	-10.3915
▁merely	-10.3916
▁Health	-10.3918
▁Roma	-10.3918
▁participate	-10.392
▁counter	-10.3924
▁easy	-10.3925
▁targets	-10.3925
▁Agency	-10.3927
▁resolve	-10.3929
▁fuel	-10.393
année	-10.3932
▁profiter	-10.3934
▁prêts	-10.3943
▁culturel	-10.3946
▁maladies	-10.3952
▁d'intérêt	-10.3954
▁satisfait	-10.3957
▁vois	-10.3961
▁concrètes	-10.3963
prendre	-10.3963
▁parliaments	-10.3968
▁minimal	-10.3969
▁hui	-10.397
▁separate	-10.3974
▁mauvaise	-10.3982
▁topic	-10.3985
▁régional	-10.3991
▁Charter	-10.3992
▁limiter	-10.3994
▁appliquer	-10.3999
▁Chamber	-10.4003
▁31	-10.4018
▁parlements	-10.4026
▁abord	-10.4027
▁leading	-10.403
▁recommendation	-10.4031
▁range	-10.4037
▁pilier	-10.4038
▁jou	-10.4045
▁Turkish	-10.4045
grad	-10.4046
▁trouvé	-10.4056
nic	-10.4057
▁enquête	-10.4077
▁préparation	-10.4078
▁signed	-10.408
▁enjoy	-10.408
▁operate	-10.4085
▁continuing	-10.4091
▁tendance	-10.4097
▁oublier	-10.4098
▁rare	-10.4098
▁accorder	-10.4099
▁26	-10.4101
▁recommandation	-10.4102
▁opposé	-10.4105
▁repose	-10.4106
ized	-10.4106
ocrat	-10.4111
▁enhance	-10.4113
▁lourd	-10.4115
▁commerciales	-10.4116
▁scientifique	-10.4119
▁Même	-10.4127
ccept	-10.4131
▁fondamentales	-10.4134
▁bénéficie	-10.4138
▁mechanisms	-10.414
▁cour	-10.4142
▁l'immigration	-10.4142
5%	-10.4149
registre	-10.4155
▁elected	-10.416
▁efficacement	-10.4163
-cadre	-10.4166
▁thousands	-10.4181
▁concret	-10.4186
▁argument	-10.4189
▁mistake	-10.419
▁mouvement	-10.419
exploitation	-10.4194
▁criminalité	-10.4197
▁28	-10.4199
▁told	-10.4201
▁break	-10.421
▁lost	-10.4215
▁remarques	-10.4219
▁J’ai	-10.4221
▁debt	-10.4222
▁d'A	-10.4225
▁camp	-10.4231
▁voisins	-10.4239
▁catégorie	-10.4243
▁d’en	-10.425
▁Many	-10.4255
▁independence	-10.426
▁subsidiarité	-10.4263
▁ports	-10.4264
▁Comment	-10.4264
▁profonde	-10.4266
▁related	-10.4268
▁permit	-10.4271
onie	-10.4271
ibility	-10.4273
▁observe	-10.4277
▁Lu	-10.4278
▁référendum	-10.4278
▁self-	-10.4281
▁secret	-10.4283
agin	-10.4292
▁disposons	-10.4314
nage	-10.4314
▁ought	-10.4315
▁scientifiques	-10.4332
▁nation	-10.4335
▁Ho	-10.4345
▁l'absence	-10.4347
▁preparation	-10.4347
▁limites	-10.435
V)	-10.4351
▁totally	-10.4357
▁touche	-10.4358
▁véhicules	-10.4362
▁Qui	-10.4363
▁globalisation	-10.4363
▁environnement	-10.4364
▁terrain	-10.437
▁croissant	-10.4374
vocat	-10.4374
▁incident	-10.4378
▁proche	-10.4381
▁soutient	-10.4382
▁l’on	-10.4383
▁rappel	-10.4392
▁(ES)	-10.4403
▁(The	-10.4406
ging	-10.4407
▁complète	-10.4415
▁calcul	-10.4416
▁persons	-10.4418
▁tient	-10.4422
▁lui-même	-10.443
méditerranéen	-10.4431
▁element	-10.4434
▁augmenter	-10.4444
▁contain	-10.4445
▁petits	-10.4449
▁attirer	-10.4449
▁subsidiarity	-10.4452
▁warm	-10.4453
▁approfondi	-10.4456
▁conduite	-10.4456
▁economies	-10.4462
▁govern	-10.4468
▁elle-même	-10.4473
▁vaste	-10.4479
▁African	-10.4481
expérience	-10.4483
▁regular	-10.4485
▁North	-10.4488
▁transfert	-10.4498
▁privée	-10.4501
▁failed	-10.4504
▁siècle	-10.4509
▁démontre	-10.4509
▁0	-10.4511
▁revenir	-10.4516
▁70	-10.4519
▁moi-même	-10.4522
▁path	-10.4525
▁division	-10.4531
▁l’ex	-10.4535
▁evaluation	-10.4537
▁grateful	-10.454
▁SMEs	-10.4542
▁liberal	-10.4545
administration	-10.4548
▁terminer	-10.4552
▁totale	-10.4555
▁contraignant	-10.4558
▁passagers	-10.4559
▁Depuis	-10.4561
▁worked	-10.4561
▁territory	-10.4563
▁conjoint	-10.4568
▁election	-10.4571
▁speakers	-10.4572
▁29	-10.4575
▁visite	-10.4579
▁membership	-10.4582
▁cycle	-10.4584
▁wishes	-10.4586
▁écologique	-10.4587
▁Lo	-10.4588
▁favoriser	-10.4588
▁d'origine	-10.4589
▁approprié	-10.4593
▁lower	-10.4594
▁susceptible	-10.4595
▁90	-10.4595
▁phénomène	-10.4605
▁treaty	-10.4607
atoire	-10.4608
▁Monetary	-10.4613
▁navires	-10.4615
bri	-10.4616
▁payments	-10.4621
▁établir	-10.4623
▁légitime	-10.4623
▁assuré	-10.4626
▁Van	-10.463
▁linked	-10.4632
▁intérieures	-10.4635
▁obvious	-10.4636
lève	-10.464
élection	-10.4641
▁récente	-10.4643
▁bénéfice	-10.465
▁facilitate	-10.465
▁families	-10.465
▁mobilité	-10.4652
▁s'applique	-10.4652
▁trafficking	-10.4653
▁bringing	-10.4666
assure	-10.4668
▁dirai	-10.4678
▁terrible	-10.4679
chant	-10.4682
▁involving	-10.4686
▁poursuite	-10.4689
▁Alors	-10.4689
▁fondée	-10.4691
▁confront	-10.4694
▁realise	-10.4697
05	-10.4701
▁1er	-10.4704
▁involvement	-10.4705
▁industrielle	-10.4707
▁préfér	-10.4711
▁déficit	-10.4716
▁affairs	-10.4716
▁Cyprus	-10.4718
▁Structural	-10.4721
▁lettre	-10.4721
▁opposed	-10.4722
▁d'application	-10.473
▁getting	-10.4734
▁technologie	-10.4735
▁complain	-10.4737
cteur	-10.474
▁l'avis	-10.4742
▁cher	-10.4743
▁recommend	-10.4746
▁Man	-10.4751
▁majeure	-10.4751
pprobation	-10.4753
▁perdu	-10.4753
▁réussite	-10.4757
▁(RO)	-10.4761
▁trait	-10.4764
▁decision-making	-10.4779
▁round	-10.479
▁terroristes	-10.4791
▁Council's	-10.4792
▁truly	-10.4792
▁voire	-10.4793
▁racism	-10.4796
▁compete	-10.4799
▁ajouter	-10.48
▁referendum	-10.48
▁informé	-10.4804
▁immediate	-10.4805
▁weapons	-10.4814
▁worse	-10.4819
▁threaten	-10.482
change	-10.4836
▁accrue	-10.4845
▁évidence	-10.4849
▁ready	-10.4851
▁agences	-10.4862
▁vertu	-10.4865
▁tourism	-10.4872
▁plenary	-10.4873
▁circonstances	-10.4875
▁proceed	-10.4877
▁empêcher	-10.4878
▁électronique	-10.4878
▁supervision	-10.4879
▁ancien	-10.4888
▁échanges	-10.4888
espér	-10.489
▁extension	-10.4893
▁durée	-10.4905
▁relever	-10.4908
▁persist	-10.492
▁oppose	-10.492
▁indirect	-10.4924
▁dispute	-10.4925
▁happening	-10.493
▁d'urgence	-10.4932
nder	-10.4933
▁respecté	-10.4945
inflation	-10.4951
▁organise	-10.4952
▁arrangements	-10.4954
▁existence	-10.4955
▁2011	-10.4956
▁contradiction	-10.4959
COM	-10.4962
▁renouvelables	-10.4966
▁ravi	-10.4967
▁Ja	-10.4972
▁commerciaux	-10.4973
art	-10.4988
▁pertinent	-10.4989
▁marque	-10.4992
▁faced	-10.4994
▁protecting	-10.4996
▁greatest	-10.5005
▁nécessite	-10.5005
▁concernées	-10.501
▁contraint	-10.5019
▁India	-10.502
▁justement	-10.5023
▁déterminer	-10.5027
▁gender	-10.5028
▁Poland	-10.5031
mou	-10.5031
▁changer	-10.5032
▁libéral	-10.5039
▁véritablement	-10.5046
▁recognised	-10.5049
▁imposé	-10.5052
ologie	-10.5054
▁appliquée	-10.5064
▁arise	-10.5064
▁estimons	-10.5064
▁produire	-10.5079
▁negotiate	-10.5082
ization	-10.5082
▁block	-10.5083
▁commence	-10.5086
pprovisionnement	-10.5096
▁starting	-10.5103
▁minute	-10.5109
▁abus	-10.5115
▁drugs	-10.5119
▁concert	-10.512
▁followed	-10.5121
▁éventuelle	-10.5121
▁forced	-10.5124
lf	-10.5129
▁ceux-ci	-10.5131
▁board	-10.5133
▁paper	-10.5133
▁d'amendement	-10.5134
▁arrest	-10.5137
▁préalable	-10.514
▁immédiatement	-10.5146
▁français	-10.5147
▁ferroviaire	-10.5148
▁génération	-10.5148
▁insister	-10.5148
▁adopting	-10.5155
▁granted	-10.5155
honorable	-10.5159
▁d'aujourd'hui	-10.5162
▁investigation	-10.5162
▁diversity	-10.5162
▁venu	-10.5168
▁l'amélioration	-10.5168
instrument	-10.517
▁pillar	-10.517
▁According	-10.517
▁dirigeants	-10.5171
▁d'emploi	-10.5172
▁seeking	-10.5173
▁signature	-10.5176
▁absence	-10.5176
▁l'O	-10.5177
échec	-10.5181
▁salaire	-10.5182
▁disponibles	-10.5184
▁interesting	-10.5186
▁July	-10.5191
▁declare	-10.5193
▁entier	-10.5198
▁illégale	-10.5199
▁eye	-10.52
▁cancer	-10.5202
▁tonnes	-10.5209
évaluation	-10.5212
▁supérieur	-10.5214
▁inclus	-10.5217
▁Lorsque	-10.5218
▁Maastricht	-10.5223
ctive	-10.5224
▁distinction	-10.5233
▁appoint	-10.5237
▁bilateral	-10.5239
▁juillet	-10.5239
▁unanimous	-10.5245
▁generation	-10.5245
▁letter	-10.5257
▁calendrier	-10.5259
▁pourrions	-10.5265
▁structurelle	-10.5272
▁ability	-10.5273
▁technologique	-10.5279
▁patent	-10.5286
▁PSE	-10.5287
▁couvert	-10.529
▁bomb	-10.5292
▁host	-10.5292
▁attendre	-10.5295
▁mobility	-10.5295
▁brevet	-10.5295
▁minorities	-10.5296
▁carefully	-10.5297
▁shared	-10.5298
▁apporte	-10.5303
▁Sweden	-10.5304
▁marin	-10.5305
établissement	-10.5307
▁mutuelle	-10.5309
É	-10.5315
▁count	-10.5315
▁covered	-10.5317
▁Public	-10.5318
appa	-10.5321
▁progresser	-10.5322
▁avancer	-10.5324
▁section	-10.5327
▁vite	-10.5329
▁l'état	-10.5332
▁lit	-10.5343
▁utilisation	-10.5346
▁General	-10.5357
▁Avec	-10.5363
ological	-10.5363
AS	-10.5367
▁month	-10.537
▁USA	-10.5372
▁l'introduction	-10.5378
▁exerce	-10.5378
▁Thirdly,	-10.5381
▁suffering	-10.5381
oire	-10.5387
▁puissions	-10.5397
▁lorsqu'	-10.5402
ED	-10.5403
▁maladie	-10.5405
▁ressort	-10.5411
ssons	-10.5412
▁d'éviter	-10.5414
▁designed	-10.5418
▁credibility	-10.542
▁Berlin	-10.5437
▁(EL)	-10.5442
▁Ni	-10.5443
ifier	-10.5445
▁release	-10.5445
▁presence	-10.5445
▁l'innovation	-10.5448
▁Bureau	-10.5451
▁porter	-10.5451
▁detailed	-10.5462
▁science	-10.5465
▁Greek	-10.5482
▁Pologne	-10.5482
▁devrons	-10.5486
▁octobre	-10.5488
▁soutenons	-10.5488
▁appreciate	-10.5491
▁j'aimerais	-10.5491
▁Tel	-10.5494
▁garde	-10.5495
▁thereby	-10.5497
▁autorisé	-10.55
▁subsidies	-10.5501
ER	-10.5503
▁communities	-10.5506
▁dommage	-10.5511
▁l’avenir	-10.5512
▁combine	-10.5514
▁While	-10.5522
vaient	-10.5523
▁grec	-10.5525
▁multinational	-10.5528
▁ambitieux	-10.5528
▁eaux	-10.5534
▁opportun	-10.5535
▁diverses	-10.5536
▁viande	-10.5554
▁torture	-10.5556
▁suppression	-10.5557
▁PPE	-10.5559
▁image	-10.5562
▁ordre	-10.5565
▁comporte	-10.5568
▁suédois	-10.5568
▁disposé	-10.5572
▁institutionnel	-10.5573
▁floor	-10.5574
▁concentration	-10.558
▁judge	-10.5585
▁Swedish	-10.5588
▁Troisièmement	-10.5588
▁contrôler	-10.5591
▁judicial	-10.5594
▁finding	-10.5596
▁200	-10.5596
aï	-10.5597
▁l'an	-10.5598
▁inutile	-10.56
▁aérienne	-10.5602
▁espace	-10.5603
▁russe	-10.5603
▁Israël	-10.5604
▁representative	-10.5605
▁demeure	-10.5612
▁légale	-10.5614
▁lancer	-10.5614
▁démarche	-10.5614
▁statistiques	-10.5615
▁proposing	-10.5616
économie	-10.5616
▁changed	-10.562
-20	-10.5621
▁élargi	-10.5625
▁parlement	-10.5628
▁paraît	-10.5628
▁criminel	-10.5629
▁J’	-10.5636
▁marchandises	-10.5638
▁clarifie	-10.5638
▁sept	-10.5641
▁portant	-10.5644
▁arms	-10.5645
▁planning	-10.5646
fait	-10.5649
▁l'évolution	-10.5651
▁deficit	-10.5652
▁concentr	-10.5653
▁aurons	-10.5657
▁performance	-10.566
▁baisse	-10.5661
▁naturally	-10.5664
▁définitive	-10.5664
▁harmonise	-10.5667
▁retrouve	-10.567
▁fé	-10.5672
▁qu’une	-10.5679
▁prête	-10.5679
▁rejeté	-10.5686
▁spent	-10.569
▁binding	-10.569
▁undertaking	-10.5693
être	-10.5694
▁règle	-10.5695
▁Auditors	-10.5699
▁portée	-10.5704
▁series	-10.5705
▁hours	-10.5705
ook	-10.5707
▁prétend	-10.571
▁approval	-10.571
▁banques	-10.5711
▁poids	-10.5717
▁Suède	-10.5719
productive	-10.5727
▁commis	-10.5727
▁suffit	-10.5728
▁correctement	-10.573
étude	-10.5732
▁Rule	-10.5739
▁officielle	-10.574
▁logic	-10.5745
▁regulate	-10.5746
▁passage	-10.5748
▁Sea	-10.575
▁anyone	-10.5752
▁combien	-10.576
▁minority	-10.5763
▁intensif	-10.5764
écart	-10.5767
▁consumption	-10.5769
▁exactement	-10.5772
▁É	-10.5776
pplaudissements)	-10.5781
▁l'opinion	-10.5781
▁citizen	-10.5795
▁(C	-10.5797
atrice	-10.5803
▁offrir	-10.5809
▁tension	-10.5813
▁entreprise	-10.5813
▁Eastern	-10.5819
▁pénal	-10.5827
▁signé	-10.5833
atory	-10.5834
▁Europol	-10.5835
▁parents	-10.5838
▁essentiellement	-10.5843
▁environ	-10.5844
▁prolong	-10.5846
▁incorporate	-10.5858
▁prêt	-10.5861
▁peaceful	-10.5863
interdiction	-10.5864
▁Energy	-10.5866
▁Tous	-10.5867
▁d’être	-10.5868
▁expected	-10.5872
▁valid	-10.5876
▁quantité	-10.5877
▁implications	-10.5896
▁April	-10.5896
ship	-10.5902
▁reasonable	-10.5904
▁l’un	-10.5906
▁transactions	-10.5908
tandis	-10.5919
▁People'	-10.5919
▁d’accord	-10.592
▁Va	-10.5921
▁d'im	-10.5927
▁reconnais	-10.5928
▁traditional	-10.593
▁n'était	-10.5932
▁otherwise	-10.5932
-même	-10.5934
▁trouvent	-10.5948
▁immédiat	-10.5952
▁employees	-10.596
▁emerge	-10.5964
▁Liberal	-10.5965
▁Bulgarie	-10.5971
▁préparer	-10.5981
▁parvenus	-10.5984
▁accessible	-10.5994
▁gave	-10.5998
▁l’environnement	-10.6001
▁inclusion	-10.6006
2002	-10.6018
▁préserver	-10.602
▁frais	-10.6021
▁Dur	-10.6028
ü	-10.6028
▁arrêt	-10.604
rich	-10.6042
▁satisfaisant	-10.6046
▁organisée	-10.6055
ât	-10.6061
▁examiné	-10.6061
▁destroy	-10.6061
▁lose	-10.6061
▁prior	-10.6071
▁amongst	-10.6082
▁souci	-10.6087
▁Such	-10.6109
▁glad	-10.6116
▁bureau	-10.6117
▁fermement	-10.6117
▁d'assurer	-10.6119
fort	-10.6124
▁expliqu	-10.6126
▁financer	-10.6127
▁hausse	-10.6131
▁fortement	-10.6136
▁recovery	-10.6137
▁entry	-10.6138
▁organisé	-10.6147
▁reinforce	-10.6152
▁eux-mêmes	-10.6152
▁religious	-10.6159
▁solide	-10.6164
ieux	-10.6167
▁Agriculture	-10.6168
▁Czech	-10.6168
▁crédibilité	-10.6171
▁decisive	-10.6171
▁audit	-10.6171
▁Not	-10.6173
▁certes	-10.6174
▁vente	-10.6176
▁voulu	-10.6177
▁radio	-10.6186
▁s’a	-10.6188
▁jusqu'	-10.6188
▁imagine	-10.6188
▁j'estime	-10.6189
▁neither	-10.6192
▁regulatory	-10.6195
▁vaccin	-10.6198
▁précédente	-10.6199
▁achievement	-10.6204
▁hundred	-10.6204
▁transit	-10.6211
▁easier	-10.6214
▁indication	-10.6214
▁domestic	-10.6217
▁payer	-10.6223
▁Only	-10.6233
▁dépasse	-10.6243
▁politicians	-10.6251
▁êtes	-10.6251
▁Israeli	-10.6253
▁feed	-10.6262
▁Those	-10.6263
▁speaker	-10.6266
▁restent	-10.6272
▁started	-10.6275
▁d'adopter	-10.6275
▁encouraging	-10.6285
▁esprit	-10.6288
assistance	-10.6301
▁States'	-10.6303
arme	-10.6306
▁Z	-10.6308
▁whilst	-10.6309
important	-10.6311
▁Agenda	-10.6312
▁Cor	-10.6313
▁volontaire	-10.6316
▁reserve	-10.6316
▁cœur	-10.6319
▁viens	-10.6321
▁tabac	-10.6338
dio	-10.6341
▁lies	-10.6348
▁péri	-10.635
▁distance	-10.6356
▁partner	-10.636
▁micro	-10.6375
▁belong	-10.6375
quo	-10.6375
▁reprise	-10.6376
▁varie	-10.6379
-là	-10.6381
▁generally	-10.6384
▁react	-10.6387
pass	-10.6391
▁signaler	-10.6398
▁combattre	-10.6399
TA	-10.6401
import	-10.6407
▁connaît	-10.6408
▁occur	-10.6409
▁automobile	-10.6412
▁préoccupation	-10.6418
▁From	-10.6422
▁sexual	-10.6431
▁requirement	-10.6433
▁Yet	-10.6444
▁réfléchir	-10.6447
▁l'eau	-10.6448
▁Research	-10.6456
▁confident	-10.6456
▁Gaza	-10.6463
▁commentaires	-10.6463
AC	-10.647
▁moving	-10.6472
▁scale	-10.6472
▁bien-être	-10.6475
▁promis	-10.6479
▁récent	-10.6487
▁participant	-10.6488
▁hors	-10.649
corp	-10.6495
W	-10.6499
▁legitimate	-10.65
▁EC	-10.6501
▁expert	-10.6508
▁élaboré	-10.6513
▁Serbia	-10.6513
▁viable	-10.6514
▁Zimbabwe	-10.6516
▁l'élaboration	-10.6516
▁cohérente	-10.6518
▁Quel	-10.6518
▁Legal	-10.652
▁Western	-10.6523
quête	-10.6523
▁formula	-10.6527
▁delighted	-10.6529
▁dehors	-10.6529
▁opérationnel	-10.653
▁cohérence	-10.6542
▁concentrate	-10.6546
▁flag	-10.6548
▁p.m.	-10.6548
▁usage	-10.6551
▁n'existe	-10.6554
▁dollar	-10.6554
▁welfare	-10.6557
▁Rome	-10.6558
▁d’abord	-10.6561
▁admit	-10.6564
▁constate	-10.6569
▁intégrée	-10.6569
▁négatif	-10.6573
▁pacifique	-10.658
▁constitutional	-10.6583
▁volume	-10.6596
▁assurance	-10.6599
▁spoke	-10.6605
▁(Applause)	-10.6605
▁Chypre	-10.6612
▁exposé	-10.6615
▁américaine	-10.6617
▁Market	-10.6618
▁relance	-10.6618
▁l'espace	-10.6621
▁reflète	-10.6621
▁Quelle	-10.6623
droit	-10.6623
▁imposed	-10.6625
▁opportunité	-10.6631
▁(Le	-10.6631
▁attendons	-10.6632
offre	-10.6636
▁Non	-10.6637
▁maxim	-10.6638
▁suffisante	-10.6638
▁compliance	-10.6644
▁courant	-10.665
▁underline	-10.6651
▁tôt	-10.6659
-based	-10.666
▁Livre	-10.666
▁optimis	-10.6661
▁Moyen-Orient	-10.6663
▁payment	-10.6663
▁approve	-10.6663
▁modernisation	-10.6664
▁equally	-10.6669
▁fut	-10.6671
▁leadership	-10.6673
▁submit	-10.6673
uni	-10.6675
▁Christian	-10.6679
▁retraite	-10.6682
▁appropriations	-10.6683
▁observer	-10.6687
▁contribué	-10.6689
▁revient	-10.6689
▁inspection	-10.6693
▁Pol	-10.6693
▁entière	-10.6696
firm	-10.67
▁apparaît	-10.6702
▁arriver	-10.6703
▁cooperate	-10.6705
▁J'estime	-10.6705
▁anticip	-10.6711
▁fonctionnaires	-10.6715
▁dangereuse	-10.6727
▁century	-10.6727
▁compatible	-10.6731
▁souhaitent	-10.6736
▁française	-10.6744
▁systématique	-10.675
▁exécut	-10.6757
▁retrait	-10.6758
▁convenu	-10.676
accompagn	-10.6765
▁exclusion	-10.6767
▁Asia	-10.6775
▁comportement	-10.6775
ough	-10.678
▁permettent	-10.6783
▁pilot	-10.6787
▁conservation	-10.6789
▁forthcoming	-10.6796
▁utilise	-10.6804
▁awareness	-10.6813
▁vaut	-10.6815
▁déroule	-10.6815
CO	-10.6817
▁apparent	-10.6818
▁arrivé	-10.6819
▁auxquelles	-10.6822
▁marge	-10.6822
▁L'Europe	-10.6822
▁prioritaire	-10.6826
J	-10.6829
▁Action	-10.683
▁clarify	-10.6832
▁vérifi	-10.6835
▁Copenhagen	-10.6835
▁spending	-10.6836
▁suffisant	-10.6838
07	-10.6838
▁qu’un	-10.684
▁seven	-10.684
▁negotiating	-10.6841
Euro	-10.6853
▁basée	-10.6854
▁Copenhague	-10.6858
▁Stability	-10.686
19	-10.6861
▁requis	-10.6864
▁d'Amsterdam	-10.6864
▁devienne	-10.6865
▁Charte	-10.6867
▁identify	-10.6868
▁licence	-10.6868
▁prouve	-10.6878
ology	-10.6881
▁NATO	-10.6887
▁Netherlands	-10.6887
▁today's	-10.6888
▁absurd	-10.6904
ä	-10.6907
▁similaire	-10.6907
▁opérations	-10.6911
▁tobacco	-10.6917
▁interested	-10.6919
▁medicine	-10.6927
▁fabric	-10.6927
▁intelligent	-10.693
▁moitié	-10.6943
▁c'	-10.6945
▁numerous	-10.6947
▁supprimer	-10.6947
▁35	-10.6949
▁guaranteed	-10.6954
▁électoral	-10.6966
▁personally	-10.6968
▁procure	-10.6969
▁Consumer	-10.697
▁vivre	-10.6973
▁rational	-10.6985
▁fixer	-10.6987
▁truth	-10.699
çant	-10.6992
octroi	-10.6993
▁naturel	-10.6993
▁régulière	-10.6996
▁resolved	-10.7004
▁character	-10.701
▁explanation	-10.701
▁labelling	-10.701
off	-10.7013
▁attribu	-10.7017
▁trading	-10.7023
▁Service	-10.7026
▁Aussi	-10.7026
▁garder	-10.703
▁codécision	-10.7033
▁publié	-10.704
invite	-10.7043
▁violent	-10.7046
▁Are	-10.7051
cide	-10.706
▁activité	-10.7063
vesti	-10.7065
▁slow	-10.7073
▁Du	-10.7073
▁candidat	-10.7079
▁guide	-10.708
▁amélioré	-10.7083
mand	-10.7085
▁fire	-10.7085
organisation	-10.7086
▁Canada	-10.709
▁l'accent	-10.71
▁renforcée	-10.7102
▁l'impact	-10.7103
▁subi	-10.7103
analyse	-10.7104
▁Organisation	-10.7107
▁carte	-10.711
▁wage	-10.7114
▁thorough	-10.7117
▁vouloir	-10.7117
▁Baltic	-10.7127
▁minor	-10.7129
▁effectiveness	-10.7133
EM	-10.7133
vision	-10.7133
▁pêcheurs	-10.7135
▁defined	-10.7137
▁voluntary	-10.714
▁incentive	-10.7144
▁puisqu'	-10.7147
▁divide	-10.7147
▁actif	-10.7148
▁Tibet	-10.7154
▁ECU	-10.7158
▁farm	-10.7158
[	-10.716
▁vivent	-10.7162
▁J'aimerais	-10.7177
▁d'adhésion	-10.7184
▁ultimately	-10.7185
▁Croatia	-10.7188
▁sérieusement	-10.7194
▁universal	-10.7201
▁alarm	-10.7209
▁attract	-10.7217
▁CE	-10.7219
▁decade	-10.7221
▁insuffisant	-10.7221
▁pénale	-10.7222
▁débattre	-10.7227
▁Head	-10.7233
entreprise	-10.7234
▁demonstrated	-10.7235
▁Plus	-10.7235
▁associé	-10.7249
like	-10.7251
▁associated	-10.7255
ó	-10.7259
▁l'échelle	-10.7259
▁High	-10.7262
▁Another	-10.7266
▁vingt	-10.7266
excellent	-10.7267
▁register	-10.7269
▁humain	-10.7274
▁recevoir	-10.7276
▁incombe	-10.7276
▁pétrole	-10.7279
▁reaction	-10.7279
▁personnellement	-10.7284
▁tenter	-10.7285
▁functioning	-10.7289
▁written	-10.7293
▁coast	-10.7295
▁limitation	-10.7298
▁mix	-10.73
▁veil	-10.7301
▁adressé	-10.7303
▁accordée	-10.7306
▁Vice-President	-10.7307
▁tchèque	-10.7307
▁undermine	-10.7308
▁bloc	-10.7312
▁Méditerranée	-10.7314
▁nourri	-10.7326
▁d'obtenir	-10.7327
▁overcome	-10.7327
▁révél	-10.7332
▁Quant	-10.7338
▁space	-10.7338
▁railway	-10.7345
▁Rapport	-10.7346
▁connaître	-10.7353
▁difference	-10.7358
▁j'en	-10.736
▁grow	-10.7361
▁skill	-10.7365
▁démocrates	-10.7369
▁average	-10.7372
▁honour	-10.7374
▁Framework	-10.7382
▁Lastly	-10.7383
▁l'histoire	-10.7386
▁operators	-10.7393
▁l'augmentation	-10.7393
▁retain	-10.7393
▁imposer	-10.7405
group	-10.7409
▁solid	-10.7419
▁Austria	-10.7428
▁confusion	-10.7434
▁Ombudsman	-10.7438
▁revision	-10.7441
▁flow	-10.7443
▁personnelle	-10.7447
▁propriété	-10.7448
▁brief	-10.7449
▁respective	-10.7451
▁annoncé	-10.7452
▁recycl	-10.7455
▁pétition	-10.7469
▁ethnic	-10.7469
▁partout	-10.7476
▁Pays-Bas	-10.7476
▁chapitre	-10.7476
annonce	-10.7486
▁contained	-10.7488
▁entitled	-10.749
▁Portuguese	-10.7494
▁mentionner	-10.7498
▁tried	-10.7501
▁obstacle	-10.7504
▁Alliance	-10.7506
▁1994	-10.7508
▁victim	-10.7508
▁cross	-10.751
í	-10.7511
▁Avant	-10.7512
▁protected	-10.7516
▁...	-10.7517
▁discuté	-10.7518
▁dangereux	-10.7518
mètre	-10.7522
▁Financial	-10.7525
▁2013	-10.7529
▁primarily	-10.7529
▁possède	-10.7536
▁avril	-10.7539
▁naturelles	-10.7549
▁complémentaire	-10.7561
article	-10.7567
▁universel	-10.7574
patri	-10.7577
▁concluded	-10.7578
▁White	-10.7581
▁significative	-10.7581
▁spread	-10.7581
▁gap	-10.7582
▁visible	-10.7585
▁déterminé	-10.7588
▁problématique	-10.7588
▁advocate	-10.7589
occupation	-10.7595
▁define	-10.7603
▁justified	-10.761
▁dignité	-10.7613
▁élargissement	-10.7613
▁adhésion	-10.7617
existence	-10.762
▁PAC	-10.762
▁préciser	-10.7622
▁celles-ci	-10.7624
▁d'entreprise	-10.7626
▁electronic	-10.7627
▁posée	-10.7631
▁dignity	-10.7634
incidence	-10.7637
▁serons	-10.7641
ncienne	-10.7647
▁?uvre	-10.7654
▁promesse	-10.7656
▁l'évaluation	-10.7663
▁estimate	-10.7665
▁quart	-10.767
▁Trans	-10.7677
▁dépit	-10.7681
▁orientale	-10.7683
▁l'engagement	-10.7686
▁appelé	-10.7691
▁technological	-10.7691
▁initiale	-10.7693
▁statistics	-10.7698
▁push	-10.771
▁sentence	-10.7711
▁D'autre	-10.7712
▁complètement	-10.7717
▁l'exercice	-10.7723
▁exact	-10.7727
application	-10.7728
▁prepare	-10.7734
▁feu	-10.7734
▁contribuable	-10.7734
▁Lors	-10.7734
▁Despite	-10.7738
▁gradual	-10.7738
▁homme	-10.7743
▁airport	-10.7744
▁Treaties	-10.7745
▁ajoutée	-10.7745
▁substantiel	-10.7755
▁C'	-10.776
point	-10.7763
▁relativement	-10.7765
▁penalty	-10.7766
▁bout	-10.7767
▁Dutch	-10.7774
▁leçon	-10.7775
▁hearing	-10.7777
▁Chinese	-10.7779
▁allocated	-10.7781
▁d'autant	-10.7781
▁1990	-10.7784
2006	-10.7785
▁permettrait	-10.7785
exclusion	-10.7788
▁wine	-10.7791
▁Irlande	-10.7791
▁Transport	-10.7792
▁sortir	-10.7796
▁intervenir	-10.7799
▁moderne	-10.7808
▁heureuse	-10.7817
▁mauvais	-10.7819
▁inscrit	-10.7831
▁extended	-10.7832
▁temporary	-10.7842
▁clean	-10.7842
▁tourist	-10.7845
▁africain	-10.7845
▁prime	-10.7853
▁consacre	-10.7853
▁mène	-10.7858
▁firmly	-10.7859
▁nevertheless	-10.7864
▁pouvait	-10.7864
▁Éta	-10.7869
▁procéd	-10.7874
▁dumping	-10.7886
▁emergency	-10.7889
▁February	-10.7893
▁détermination	-10.7893
Autriche	-10.7893
mbo	-10.7895
▁handicap	-10.7897
▁lobby	-10.79
▁whatever	-10.7902
▁Albania	-10.7903
▁consolidation	-10.7907
▁organes	-10.7916
œ	-10.7918
▁CAP	-10.7922
▁Georgia	-10.7922
▁migrants	-10.7926
▁Given	-10.7929
pin	-10.793
▁treated	-10.7932
▁formulation	-10.7933
▁février	-10.7951
▁sérieuse	-10.7954
▁orateurs	-10.7965
▁rigour	-10.7966
Qu	-10.797
▁vulnerable	-10.7977
▁adéquat	-10.7977
assi	-10.7984
enseigne	-10.7986
▁please	-10.7988
▁Perhaps	-10.7991
▁formuler	-10.7994
▁d'argent	-10.7999
▁chimique	-10.7999
▁planned	-10.7999
▁punish	-10.8002
▁répéter	-10.8002
▁bit	-10.8002
▁vague	-10.8005
▁pouvez	-10.8006
▁puissance	-10.801
▁l'organisation	-10.8011
▁perdre	-10.8012
▁Palestine	-10.8013
▁poisson	-10.8017
omb	-10.8022
▁born	-10.8022
▁farming	-10.8024
▁appliqué	-10.8027
-je	-10.8028
▁d'établir	-10.8029
▁Every	-10.8029
▁l’ensemble	-10.8042
▁(HU	-10.8043
▁murder	-10.8043
▁installations	-10.8048
▁Ensuite	-10.805
▁chemical	-10.8054
▁posé	-10.8055
▁vérité	-10.8057
▁s’il	-10.8062
▁prévenir	-10.8064
▁extérieur	-10.8068
▁plaisir	-10.8069
central	-10.807
▁vend	-10.8074
▁parallèle	-10.8076
▁recall	-10.8078
▁Assembly	-10.808
assassin	-10.808
▁house	-10.8083
▁Women	-10.8083
▁prohibit	-10.8091
▁More	-10.8094
▁publicité	-10.81
▁clarification	-10.8106
▁l'intérieur	-10.8109
▁somewhat	-10.8109
OM	-10.8111
▁portugais	-10.8117
▁l'avons	-10.8118
▁l'approche	-10.8119
▁rencontré	-10.8124
▁constaté	-10.8124
▁participe	-10.8125
▁n'aura	-10.813
▁jusqu’	-10.8132
▁Here	-10.8134
▁excuse	-10.8139
▁realistic	-10.8149
▁afford	-10.815
▁honest	-10.815
▁pain	-10.8162
▁conception	-10.8168
▁siège	-10.8169
▁croire	-10.8171
▁directrices	-10.818
▁répartition	-10.8184
▁preparing	-10.8184
▁ONG	-10.8195
▁agency	-10.8195
▁silence	-10.8203
▁modifie	-10.821
▁gone	-10.8214
▁ethnique	-10.8214
▁négative	-10.8214
▁soumettre	-10.8219
▁réaliste	-10.8222
petit	-10.823
▁capitaux	-10.8233
▁temporaire	-10.8248
▁deadline	-10.8252
▁compared	-10.8265
▁property	-10.8266
▁Concernant	-10.827
▁mou	-10.8273
▁subsequent	-10.8274
▁highest	-10.8285
▁réglementaire	-10.8285
▁recommande	-10.8285
▁rédigé	-10.8285
▁undoubtedly	-10.8293
▁fast	-10.8301
▁customer	-10.8304
▁financé	-10.8304
▁Report	-10.8315
▁l'ONU	-10.8316
▁Fundamental	-10.832
▁diploma	-10.8321
▁insurance	-10.8327
▁familial	-10.8331
▁unfair	-10.8331
▁absolu	-10.8333
▁disadvantage	-10.8335
▁spoken	-10.8336
▁degré	-10.8337
identifie	-10.8338
▁commencé	-10.8339
▁bound	-10.8339
▁constantly	-10.8341
▁behaviour	-10.8342
▁People	-10.8343
▁bref	-10.8346
▁réagir	-10.8356
▁génétique	-10.8358
▁voisinage	-10.8358
▁l'obligation	-10.8361
▁Protection	-10.8361
▁vice-président	-10.8373
▁Hungarian	-10.8377
▁operational	-10.8379
▁NGOs	-10.838
tron	-10.838
▁milieu	-10.8381
▁condamne	-10.8392
▁Doha	-10.84
▁programme-cadre	-10.8405
▁trend	-10.8411
▁fishermen	-10.8415
algré	-10.8418
▁existantes	-10.8419
stream	-10.8421
/2000	-10.8426
▁civilian	-10.8428
▁Parti	-10.843
▁dynamique	-10.843
▁urgently	-10.8433
▁montrent	-10.8434
▁Because	-10.8434
▁importations	-10.8438
▁abstain	-10.8445
▁revanche	-10.8445
▁fleet	-10.8446
▁expectations	-10.845
▁300	-10.8453
▁latest	-10.8454
▁suffi	-10.8455
▁brutal	-10.8457
▁Korea	-10.8458
▁strategies	-10.8465
▁préserv	-10.8468
▁indépendante	-10.847
▁historic	-10.8473
▁prononcé	-10.8476
▁souveraineté	-10.848
▁codecision	-10.8488
▁l'entrée	-10.8488
▁répète	-10.8488
▁travaillé	-10.849
▁distort	-10.8493
▁néglige	-10.8496
▁s'engage	-10.85
▁discipline	-10.8503
▁d’euros	-10.8503
▁civilisation	-10.8504
▁intégré	-10.8505
▁construire	-10.8507
▁préoccupe	-10.8508
▁taxpayer	-10.8515
érant	-10.8516
▁prennent	-10.8517
▁introducing	-10.8519
▁Any	-10.8519
▁Pourtant	-10.8526
▁couple	-10.8535
▁prospérité	-10.8538
▁l'Irlande	-10.8546
▁allocation	-10.8546
▁charte	-10.8549
▁described	-10.855
▁determined	-10.8552
▁studies	-10.8554
▁contest	-10.8557
▁Dublin	-10.8557
▁l'origine	-10.8565
▁witness	-10.8565
ruct	-10.8566
▁reconnaît	-10.8569
▁conduit	-10.857
▁crédit	-10.8572
▁prosperity	-10.8573
▁precise	-10.8576
▁announced	-10.8577
▁Japan	-10.8581
▁géographique	-10.8585
loqu	-10.859
▁défaut	-10.86
▁proceedings	-10.8606
▁choose	-10.8608
▁interdit	-10.8608
▁gérer	-10.8609
▁reconnaissant	-10.8613
▁sauvegarde	-10.8624
▁quote	-10.8624
▁transposition	-10.8626
▁l'ouverture	-10.8628
▁buy	-10.8628
▁fédéral	-10.8632
▁reiterate	-10.8632
▁transformation	-10.8635
▁joué	-10.864
▁expliquer	-10.8641
▁l'époque	-10.8659
▁bientôt	-10.8659
char	-10.8667
▁d'agir	-10.8667
▁mobile	-10.8671
▁diminution	-10.8675
▁president	-10.8675
▁multilateral	-10.8683
▁operating	-10.8683
▁l'unanimité	-10.8685
▁émis	-10.8689
▁expense	-10.869
▁agit	-10.8693
▁l'OTAN	-10.8694
▁tente	-10.8703
▁organismes	-10.8711
▁prévoir	-10.8715
▁barriers	-10.8726
▁disagree	-10.873
▁viennent	-10.873
▁Croatie	-10.8742
présent	-10.8761
▁n’ont	-10.8766
▁Fisheries	-10.8769
▁régler	-10.877
▁irre	-10.8783
▁condamné	-10.8785
Y	-10.8789
▁urgency	-10.8793
▁flotte	-10.8793
▁coordinated	-10.8794
▁menacé	-10.8797
▁ayons	-10.8798
▁chaîne	-10.8805
▁pire	-10.8809
transfrontalière	-10.8813
▁intensive	-10.8813
▁kept	-10.8813
▁réclame	-10.8813
▁relie	-10.8814
environnementaux	-10.8816
▁Hu	-10.8817
électricité	-10.8825
▁espoir	-10.8825
▁échange	-10.8826
▁L'UE	-10.8829
▁médiateur	-10.8841
▁timetable	-10.8846
issons	-10.8861
▁mental	-10.8867
ologique	-10.8868
ON	-10.8868
▁travaillent	-10.8874
▁equ	-10.8874
terinstitutional	-10.8877
▁briefly	-10.8881
▁suscite	-10.8881
▁debating	-10.8892
ccélér	-10.8893
▁tête	-10.8893
▁prie	-10.89
▁quota	-10.8901
▁néerlandais	-10.8901
▁aurions	-10.8905
▁Protocol	-10.8921
▁d'initiative	-10.8921
▁débattu	-10.8922
▁sincèrement	-10.8922
▁comparable	-10.8923
▁sexuelle	-10.8925
▁expose	-10.8927
▁exemption	-10.8928
▁cult	-10.8931
▁largest	-10.8933
▁sovereignty	-10.8934
▁interpretation	-10.895
▁equipment	-10.8958
▁2012	-10.8958
▁israélien	-10.8966
engagement	-10.8967
▁published	-10.8969
▁coherent	-10.897
▁eight	-10.8977
work	-10.8983
▁décennie	-10.9006
▁Time	-10.9007
▁d'avis	-10.9009
▁Congo	-10.901
▁Patten	-10.901
▁Député	-10.9014
AR	-10.9016
▁vivant	-10.9017
▁strike	-10.9019
▁vin	-10.9019
▁electricity	-10.9027
▁l’aide	-10.903
▁perform	-10.9031
▁extensive	-10.9035
▁Arab	-10.904
▁moyenne	-10.9044
]	-10.9055
▁parliament	-10.9055
▁considérons	-10.9059
▁innovative	-10.9059
▁causé	-10.906
EU	-10.9062
▁protégé	-10.9072
▁Instead	-10.9076
▁scrutin	-10.9076
▁arriv	-10.9079
▁annex	-10.9088
▁Employment	-10.9092
▁produis	-10.9093
EA	-10.9098
▁l'Afrique	-10.91
▁ressortissants	-10.91
▁undertaken	-10.911
▁dependent	-10.9115
▁restore	-10.9115
▁coordinate	-10.9116
▁témoigne	-10.9121
▁D'un	-10.9125
▁mobilise	-10.9129
▁room	-10.9129
▁tangible	-10.9137
▁alter	-10.9141
▁Solana	-10.9141
▁abolish	-10.915
▁united	-10.9153
▁perfectly	-10.9153
▁restructuration	-10.9166
▁shadow	-10.9166
▁partenaire	-10.9168
▁vivement	-10.9174
ù	-10.9177
▁ongoing	-10.9188
▁bâtiment	-10.9191
▁restructuring	-10.9199
▁locaux	-10.9203
▁sanction	-10.9203
▁identity	-10.9207
▁felt	-10.9208
▁Common	-10.9218
▁careful	-10.9218
▁ALDE	-10.9224
▁invité	-10.9224
▁incapable	-10.9228
▁frontière	-10.9231
-year	-10.9249
exige	-10.925
▁chinois	-10.9278
▁prompt	-10.928
▁exportations	-10.928
▁matériel	-10.9282
▁l’accord	-10.9294
▁interpret	-10.9294
▁Under	-10.9302
gard	-10.9306
▁valuable	-10.9307
▁determination	-10.9308
▁understood	-10.9312
▁seuil	-10.9312
▁d'utiliser	-10.9316
▁envisagé	-10.9316
▁denrées	-10.9316
▁délicat	-10.9321
▁negotiation	-10.9327
▁endeavour	-10.9328
▁l'Organisation	-10.9328
▁permette	-10.9334
▁feature	-10.9337
▁libre-échange	-10.9337
▁justification	-10.9345
▁piece	-10.9345
▁centaines	-10.9358
▁l'existence	-10.9358
▁intéressé	-10.9362
▁exhaust	-10.9366
▁wealth	-10.9375
▁légal	-10.9378
▁eliminate	-10.9391
▁examen	-10.9396
▁partisan	-10.9398
▁changing	-10.94
▁occidental	-10.9421
▁Est	-10.9426
merge	-10.9439
▁commit	-10.9447
▁systematic	-10.9447
▁ajout	-10.9454
▁d'association	-10.9455
▁explication	-10.9455
▁medical	-10.9455
▁taille	-10.9456
▁crainte	-10.9459
▁moteur	-10.9469
matic	-10.9469
▁genetic	-10.9476
▁accroître	-10.9485
06	-10.949
▁alloué	-10.9491
▁hongrois	-10.9493
▁provenance	-10.9493
opération	-10.951
▁résulte	-10.951
PE	-10.9512
▁d'atteindre	-10.9515
▁connais	-10.9519
▁stabilisation	-10.9519
▁répercussions	-10.9523
▁s'impose	-10.9529
▁trou	-10.9534
utilisat	-10.9543
▁l'établissement	-10.9545
▁laissé	-10.9546
▁tragic	-10.9562
▁drug	-10.9565
▁significance	-10.957
▁complement	-10.957
▁Za	-10.9578
▁aéroport	-10.9579
▁fondement	-10.9584
▁organization	-10.9584
▁Bosnia	-10.9592
▁plaid	-10.9598
▁Ashton	-10.9601
▁disposal	-10.9601
▁Control	-10.9605
institution	-10.9608
▁Plan	-10.9611
▁brièvement	-10.9613
emploi	-10.9618
▁VAT	-10.9626
▁error	-10.9626
▁transfrontalier	-10.9631
▁composition	-10.9633
▁d’action	-10.9639
▁remarquable	-10.9648
▁clandestin	-10.9652
▁renforcé	-10.9654
▁37	-10.9654
▁1992	-10.9657
▁l'Est	-10.9657
▁inadequate	-10.9661
▁provenant	-10.9664
▁applicant	-10.9665
▁Food	-10.9665
▁approuver	-10.9665
▁teach	-10.9665
▁connaissons	-10.9666
mark	-10.9676
▁satisfactory	-10.9683
▁provoque	-10.9687
▁cri	-10.9687
▁Democrat	-10.9694
▁habitants	-10.9695
▁preserve	-10.9696
▁referring	-10.9696
▁destination	-10.9697
▁Cooperation	-10.9705
▁driving	-10.9718
▁Representative	-10.9722
▁breach	-10.9722
▁satellite	-10.9726
▁urban	-10.9726
▁Roms	-10.9728
▁renforce	-10.9729
▁Fischler	-10.9744
▁électeurs	-10.9744
▁somme	-10.9747
▁extraordinaire	-10.9748
▁suspect	-10.9748
▁décide	-10.9751
▁soyons	-10.9753
▁Austrian	-10.976
▁GUE/NGL	-10.977
▁envoyé	-10.977
▁settlement	-10.9772
▁protocol	-10.9778
▁primary	-10.9783
▁essayer	-10.9788
▁reprendre	-10.9792
▁Thursday	-10.9792
▁télévision	-10.9792
▁adult	-10.9793
▁simplify	-10.9796
▁Over	-10.9805
▁Internal	-10.9805
▁boost	-10.9805
▁sexe	-10.9809
▁TVA	-10.981
▁Serbie	-10.981
▁Will	-10.981
▁sustainability	-10.981
▁B5-	-10.9819
▁Verheugen	-10.9823
▁Géorgie	-10.9827
▁inférieur	-10.9832
▁l'impression	-10.9832
▁Quand	-10.9836
▁Schulz	-10.9836
▁qu’en	-10.9836
▁absolute	-10.984
▁individuelle	-10.9841
▁devient	-10.9841
▁détaillée	-10.9843
▁margin	-10.9844
▁milk	-10.9849
▁Centre	-10.9859
▁(vote)	-10.9863
▁remplacer	-10.9863
▁Second	-10.987
▁attentes	-10.9872
▁Comité	-10.9873
▁l'Agence	-10.9876
▁National	-10.9876
▁size	-10.9878
▁daily	-10.988
amélioration	-10.9883
motion	-10.9893
ntergovernmental	-10.9896
▁introduire	-10.9898
▁obligé	-10.9898
▁Before	-10.9903
▁placé	-10.9903
▁levée	-10.9917
▁n°	-10.992
▁motor	-10.9923
▁Stockholm	-10.9929
▁représentation	-10.9934
▁Northern	-10.9938
▁War	-10.9939
▁primordial	-10.9943
▁trouble	-10.9943
▁enregistré	-10.9947
▁stake	-10.9947
▁remettre	-10.9951
▁prudent	-10.9952
▁Where	-10.9952
▁page	-10.9956
▁television	-10.9956
▁stay	-10.9958
▁Brok	-10.996
▁partagé	-10.9968
▁Verts/ALE	-10.9974
▁someone	-10.9984
▁l’emploi	-10.9984
▁italien	-10.9993
▁restrictive	-10.9997
▁severe	-10.9999
▁disappear	-11.0001
▁root	-11.0001
▁urgence	-11.001
▁determine	-11.0011
▁built	-11.0014
▁duquel	-11.0015
ajustement	-11.0027
initi	-11.0032
▁arrêté	-11.0032
▁télé	-11.0041
▁satisfied	-11.0046
▁derrière	-11.0046
▁urbain	-11.0055
▁Britain	-11.0086
▁l'interdiction	-11.009
▁élaborer	-11.0091
▁dérogation	-11.0091
▁20%	-11.0093
▁inclure	-11.0095
▁democrat	-11.0096
▁occupe	-11.0097
▁Tampere	-11.01
▁prenant	-11.0109
▁transmis	-11.0109
▁journal	-11.0117
▁Safety	-11.0132
▁elsewhere	-11.0132
▁team	-11.0137
▁coopérer	-11.015
▁libéraux	-11.015
▁GDP	-11.0155
▁football	-11.0164
▁Timor	-11.0164
▁aviation	-11.017
▁medium	-11.0173
▁turc	-11.0173
▁d'émission	-11.0177
▁Santer	-11.018
▁procès	-11.0182
▁opposite	-11.0196
▁routier	-11.0196
▁postpone	-11.02
▁machine	-11.0205
pêche	-11.0217
▁historical	-11.0218
effet	-11.0219
▁opérateurs	-11.0223
▁Regional	-11.0228
▁participé	-11.0237
▁augmenté	-11.0237
▁S'il	-11.0237
▁treat	-11.0245
▁distinct	-11.0248
▁judgment	-11.0255
▁possibly	-11.026
▁External	-11.0269
▁Donc	-11.0269
▁Without	-11.0273
▁caractéristique	-11.0274
▁permettront	-11.0278
▁generate	-11.0279
▁quasi	-11.0283
▁régionaux	-11.0284
▁religieuse	-11.0292
▁découle	-11.0292
▁Consequently,	-11.0297
▁geographical	-11.0297
▁background	-11.0301
▁satisfaire	-11.0301
▁strength	-11.0306
▁phrase	-11.0311
▁flux	-11.0314
▁cheap	-11.0315
européen	-11.0327
▁jeudi	-11.033
▁identified	-11.0334
▁finish	-11.0338
▁bilatéral	-11.0338
▁l'examen	-11.0338
éclair	-11.0339
▁bénéficiaire	-11.0343
▁préparé	-11.0343
▁pesticides	-11.0348
▁VI	-11.035
▁profondément	-11.0352
▁Work	-11.0353
▁immun	-11.0366
▁clarté	-11.0371
▁kilo	-11.0376
▁représenté	-11.0376
▁mobilisation	-11.038
▁l'opposition	-11.038
gression	-11.0385
▁démontré	-11.0385
▁dynamic	-11.0394
▁compulsory	-11.0404
▁running	-11.0405
▁qualifiée	-11.0407
▁bureaucratie	-11.0413
▁prisoners	-11.0417
▁Thus	-11.0425
▁gauche	-11.0432
▁Personne	-11.0436
▁l’industrie	-11.0439
▁histoire	-11.0441
▁sévère	-11.045
▁enforcement	-11.0451
▁intervene	-11.0453
▁BSE	-11.0469
▁himself	-11.0474
▁spécul	-11.0474
inclusion	-11.048
▁privatisation	-11.0483
▁psych	-11.0483
▁trouvons	-11.0483
▁afternoon	-11.0493
▁spend	-11.0496
▁argue	-11.05
▁Belgian	-11.0502
▁ultérieur	-11.0521
▁trace	-11.0522
▁(SK)	-11.0535
▁(CS)	-11.054
▁l'Ukraine	-11.054
▁possibilities	-11.054
fou	-11.055
▁societies	-11.0559
▁chairman	-11.0569
EN	-11.0569
▁diplomatic	-11.057
▁Having	-11.0574
▁traditionnelle	-11.0575
▁sanitaire	-11.0578
▁proof	-11.0588
▁fill	-11.0588
▁refuge	-11.0591
▁mettent	-11.06
▁compréhension	-11.0602
▁flood	-11.0602
certain	-11.0604
▁foot	-11.0607
▁bilan	-11.0608
▁Irak	-11.0613
▁differ	-11.0615
▁privilégi	-11.0616
▁conduire	-11.063
▁polonais	-11.063
▁species	-11.063
▁l'indépendance	-11.0633
▁Hong	-11.0637
▁Qu'	-11.0642
▁d’entre	-11.0643
▁Grande-Bretagne	-11.0645
▁autrichien	-11.0645
▁physique	-11.065
▁length	-11.065
▁provoqué	-11.0654
▁formule	-11.0655
▁criticise	-11.0659
▁qu'aucun	-11.0664
prime	-11.0668
▁complicated	-11.0669
▁franchi	-11.067
▁danois	-11.0674
▁d'accès	-11.0674
▁transatlantique	-11.0693
▁détriment	-11.0693
▁extreme	-11.0707
▁Galileo	-11.0707
▁J’espère	-11.0712
▁époque	-11.0712
▁multiple	-11.0712
▁spite	-11.0713
▁Aucun	-11.0713
▁belief	-11.0717
▁sorry	-11.0717
▁entrave	-11.0728
▁poorest	-11.0729
▁PIB	-11.0731
▁facilities	-11.0736
▁crains	-11.0736
▁devote	-11.0744
▁intellectual	-11.0746
▁significatif	-11.0746
équilibr	-11.0748
▁Danish	-11.0751
▁tragedy	-11.0765
▁ratified	-11.0765
▁Bosnie	-11.077
▁Hungary	-11.077
▁diplomatique	-11.0771
▁Just	-11.0771
▁poursuivi	-11.0775
▁d'intégration	-11.078
Israël	-11.0783
▁séparé	-11.0785
institutionnel	-11.0787
▁Corée	-11.0787
▁dirige	-11.0789
▁1993	-11.0789
▁considérant	-11.0794
gram	-11.0797
▁biologique	-11.08
compréhensible	-11.0804
▁worldwide	-11.0814
▁marqué	-11.0814
▁intégration	-11.0814
human	-11.0814
▁whereby	-11.0819
▁belge	-11.0819
▁green	-11.0824
▁l’article	-11.0827
▁southern	-11.0828
▁catch	-11.0832
▁heavy	-11.0843
▁openness	-11.0851
▁d'écus	-11.0853
▁divergence	-11.0858
▁communiste	-11.086
▁d'apporter	-11.0863
▁désastre	-11.0867
▁Sommet	-11.0872
▁s'avère	-11.0872
purement	-11.0873
▁digital	-11.0877
▁entrepreneurs	-11.0881
▁Japon	-11.0887
▁client	-11.0887
▁sugar	-11.0892
▁quinze	-11.0892
▁argent	-11.0893
▁forêts	-11.0894
▁corps	-11.0899
▁Subject	-11.0907
▁liquid	-11.0907
▁immense	-11.0912
▁Lithuania	-11.0916
▁préoccupé	-11.0926
▁(Christian	-11.0931
▁expand	-11.0931
▁innocent	-11.0936
▁confrontée	-11.0938
▁Barcelone	-11.0941
▁scène	-11.0941
▁channel	-11.0941
▁Belgium	-11.0946
▁purely	-11.0946
▁warning	-11.0951
▁advertising	-11.0951
▁Home	-11.0952
▁Culture	-11.0961
▁Verts	-11.0961
▁Martin	-11.0964
▁inspect	-11.0964
▁cities	-11.0966
▁Barcelona	-11.0966
▁prisonniers	-11.0971
viendrait	-11.098
▁part-session	-11.0981
▁lacunes	-11.0981
▁L'objectif	-11.0986
▁surmonter	-11.0986
▁planète	-11.0988
▁multilatéral	-11.0988
▁Partnership	-11.099
▁horizontal	-11.0996
ET	-11.0998
▁serre	-11.1016
▁solely	-11.1016
▁agents	-11.1017
▁Bush	-11.1023
occupe	-11.1038
▁fragment	-11.1045
▁harmful	-11.1048
▁incite	-11.1055
▁convaincre	-11.106
▁Global	-11.1065
▁Polish	-11.1066
▁worst	-11.107
▁sphere	-11.107
▁chapter	-11.1075
▁latine	-11.1081
▁familiar	-11.1085
▁retenu	-11.1086
▁patrimoine	-11.1095
▁Saddam	-11.1095
▁2007-2013	-11.11
▁blood	-11.11
▁minorité	-11.1103
▁l’importance	-11.1105
▁neutral	-11.1105
▁Hamas	-11.1106
▁initiate	-11.1108
▁intégrer	-11.1116
▁développ	-11.1117
▁Peut-être	-11.112
▁foremost	-11.112
▁producing	-11.112
▁discutons	-11.112
▁pencher	-11.1123
+	-11.1125
▁easily	-11.1125
▁(La	-11.1125
▁bancaire	-11.113
▁accueilli	-11.114
-scale	-11.1145
▁handicapées	-11.1149
▁phenomenon	-11.115
▁devenue	-11.1151
▁italienne	-11.1155
▁valable	-11.1176
▁Ju	-11.1179
observateur	-11.1186
▁l'équilibre	-11.1186
▁bienvenue	-11.1187
tergovernmental	-11.1188
▁prétexte	-11.1196
▁maintenu	-11.1206
▁richesse	-11.1208
▁censure	-11.1226
▁suspension	-11.1231
▁(LT	-11.1231
▁tragédie	-11.1231
▁compétitive	-11.1236
▁heritage	-11.1236
▁déplore	-11.1251
▁couvre	-11.1265
instauration	-11.1267
▁prevail	-11.1272
▁précédemment	-11.1277
▁télécommun	-11.1277
▁légitimité	-11.1287
▁(FI	-11.1287
arbitr	-11.129
▁Growth	-11.1292
▁priv	-11.1296
▁d’État	-11.1297
▁enabling	-11.1297
▁Hongrie	-11.1303
▁l’État	-11.1308
▁remerciements	-11.131
▁Egypt	-11.1318
▁reveal	-11.1323
▁advice	-11.1328
▁black	-11.1343
▁considerably	-11.1344
/2003	-11.1349
▁auparavant	-11.1369
▁carburant	-11.1369
▁s'assurer	-11.138
▁clarity	-11.1385
▁exceed	-11.1385
▁sert	-11.1397
▁picture	-11.14
itarian	-11.1408
▁reliable	-11.1416
▁Moldova	-11.1421
▁connaissent	-11.1421
▁avéré	-11.1421
▁donor	-11.1423
▁Belgique	-11.1436
▁willingness	-11.1437
▁l’adhésion	-11.1447
▁shape	-11.1452
▁certifi	-11.1452
▁lift	-11.1453
▁infect	-11.1456
▁préférence	-11.1457
▁persuade	-11.1462
▁décrit	-11.1463
▁dramatic	-11.1473
▁tragique	-11.1473
▁jugé	-11.1477
▁démographique	-11.1478
▁tiendra	-11.1478
▁repris	-11.1479
▁d'expression	-11.148
▁quotidienne	-11.1481
▁manufacturers	-11.1489
▁consolidate	-11.1493
▁l'internet	-11.1504
▁tribunal	-11.1504
▁alcohol	-11.1504
▁Objet	-11.1509
▁l'instant	-11.152
▁adresser	-11.1546
▁bureaucracy	-11.1546
▁médecin	-11.1551
▁transmission	-11.1576
▁affront	-11.1593
▁ECB	-11.1594
▁flight	-11.1597
▁appartient	-11.1609
▁simplifier	-11.1614
▁couvrir	-11.162
▁profil	-11.1631
▁Equal	-11.1635
▁await	-11.1641
▁linguistique	-11.1646
-vous	-11.1651
aspect	-11.1652
▁navigation	-11.1656
▁constructif	-11.1656
migrant	-11.1659
▁administratif	-11.1662
▁fragile	-11.1662
▁component	-11.1662
▁absent	-11.1662
▁nettement	-11.1663
▁l’énergie	-11.1672
▁physical	-11.1672
▁ratifié	-11.1677
-related	-11.1683
▁écoles	-11.1683
▁Certes	-11.1688
▁prenne	-11.1697
▁-B4	-11.1699
▁legitimacy	-11.1704
-free	-11.171
▁consequence	-11.1711
▁Macedonia	-11.1715
étendue	-11.1723
institutionnelle	-11.1724
▁externe	-11.1731
▁biggest	-11.1747
▁c'était	-11.1747
▁unnecessary	-11.1747
▁BCE	-11.1747
▁recettes	-11.1757
▁night	-11.1763
▁après-midi	-11.1773
▁Baltique	-11.1779
▁i.e.	-11.1779
▁espère	-11.1784
▁l'intervention	-11.1789
▁empêche	-11.1795
▁eastern	-11.1811
▁s'agissait	-11.1811
▁d'échange	-11.1813
▁MM.	-11.1823
▁Kinnock	-11.1827
▁crédible	-11.1827
▁préjudice	-11.1833
▁recourir	-11.1833
▁unilateral	-11.1838
▁detriment	-11.1839
▁evident	-11.1854
▁Rural	-11.186
▁exercé	-11.186
extension	-11.1862
▁Madrid	-11.1865
▁Denmark	-11.1865
▁book	-11.187
▁autorise	-11.1881
ppuyer	-11.1881
▁summer	-11.1889
▁applaud	-11.1892
▁espérer	-11.1892
2004	-11.1922
▁monopole	-11.1925
▁d'appliquer	-11.1935
▁quelconque	-11.1935
▁perfect	-11.1953
▁Civil	-11.1968
▁conçu	-11.1968
▁identique	-11.1968
▁abolition	-11.1974
▁Authority	-11.1979
▁Like	-11.1994
▁utmost	-11.1996
▁construct	-11.2001
▁Association	-11.2001
▁dispositif	-11.2001
▁threshold	-11.2012
▁Slovakia	-11.2015
▁quatrième	-11.2017
▁greenhouse	-11.2028
▁infraction	-11.2028
▁healthcare	-11.2029
▁bureaucratique	-11.2034
stitutionnelles	-11.2039
▁fictif	-11.2039
▁séjour	-11.2045
▁insufficient	-11.205
▁Danemark	-11.2056
Européen	-11.2059
▁stimuler	-11.2061
▁ruling	-11.2062
▁voudrions	-11.2067
▁supplementary	-11.2068
▁servi	-11.207
▁afraid	-11.2072
▁d'augmenter	-11.2089
▁d'examiner	-11.2089
▁aspirations	-11.2089
▁l'Espagne	-11.2095
▁ecological	-11.2106
▁straight	-11.2106
▁Joint	-11.2114
▁instamment	-11.2128
▁faiblesse	-11.2135
▁mother	-11.214
▁citizenship	-11.2151
flex	-11.2156
▁everybody	-11.2161
▁étrangers	-11.2163
▁remédier	-11.2167
▁d'immigration	-11.2167
▁garantissant	-11.2172
▁l'avez	-11.218
▁Blair	-11.2184
▁hydr	-11.2184
▁d’avoir	-11.2188
▁watch	-11.2195
▁command	-11.2196
▁Quoi	-11.22
▁battle	-11.2206
▁demonstration	-11.2211
▁subsiste	-11.2212
▁evaluate	-11.2217
▁cease	-11.2227
apprentissage	-11.2234
▁chaleureusement	-11.2234
▁appris	-11.2234
▁changé	-11.2234
▁extrême	-11.2235
▁Nigeria	-11.224
▁souffrance	-11.2245
▁pourcentage	-11.2251
▁durabilité	-11.2252
▁massacre	-11.2262
▁plafond	-11.2268
▁privilege	-11.2268
▁pouvant	-11.2268
▁espèces	-11.2269
▁turque	-11.2273
▁jusqu'ici	-11.2275
équ	-11.2275
▁inévitable	-11.2279
▁honte	-11.2294
▁sustain	-11.2301
▁blame	-11.2303
▁condamnation	-11.2307
▁leaving	-11.231
Q	-11.2312
▁transnational	-11.2313
▁d’information	-11.2313
▁Follow	-11.2318
▁Slovenia	-11.2318
▁évolue	-11.2318
▁fermeture	-11.2327
▁(Parliament	-11.233
▁situé	-11.2333
▁shift	-11.2341
▁citoyenneté	-11.2347
▁Tourism	-11.2352
▁Burma	-11.2352
▁l'harmonisation	-11.2358
▁prestation	-11.2358
economic	-11.2379
▁struggle	-11.2381
▁vitesse	-11.2387
▁soulève	-11.2394
▁stipulat	-11.2398
▁banana	-11.2404
▁entail	-11.241
▁voulais	-11.2415
▁ordinary	-11.2421
▁guère	-11.2421
▁recognize	-11.2438
▁treaties	-11.2439
▁franc	-11.2441
▁York	-11.2467
▁voyons	-11.2469
▁dramatique	-11.2472
▁electoral	-11.2472
▁Industry	-11.2478
▁calm	-11.2479
tribution	-11.2486
▁résistance	-11.249
▁traduit	-11.2495
▁occidentaux	-11.2501
▁credible	-11.2507
▁disabled	-11.2507
izing	-11.2508
ifiant	-11.2508
▁l'enseignement	-11.2513
▁Yugoslavia	-11.252
▁ambitieuse	-11.2524
▁qu'avec	-11.2524
▁contrast	-11.2524
▁l’égard	-11.2525
▁armed	-11.2525
▁necessarily	-11.253
▁revised	-11.253
▁bureaucratic	-11.2553
▁pousse	-11.2554
▁Frontex	-11.2559
▁Milosevic	-11.2565
▁unanime	-11.2565
approche	-11.2587
▁outstanding	-11.2588
▁patient	-11.2598
▁Grâce	-11.26
▁pleasure	-11.26
▁entamé	-11.2606
▁Tunisia	-11.2611
▁shortcomings	-11.2611
▁discover	-11.2617
▁aujourd'	-11.2623
▁numérique	-11.2623
▁exempt	-11.2638
cultural	-11.2651
▁Office	-11.2652
architect	-11.2658
introduction	-11.266
▁critère	-11.2663
▁Déclaration	-11.2664
▁pluralism	-11.2664
▁shock	-11.2664
▁rigid	-11.2664
▁l'affaire	-11.2681
▁d'encourager	-11.2687
▁distorsion	-11.2687
▁ethical	-11.2688
▁investigate	-11.2693
▁diagnos	-11.2699
▁sacrifice	-11.2705
▁Macédoine	-11.2711
▁instruct	-11.2711
▁déterminant	-11.2717
▁a.m.	-11.2724
▁prenons	-11.2731
▁undertake	-11.2733
▁réservé	-11.2746
▁Palestiniens	-11.2758
▁d'aucun	-11.2758
▁engine	-11.276
▁l’objet	-11.277
▁schedule	-11.2776
▁Free	-11.2778
▁marche	-11.2793
▁coordonner	-11.2793
▁shame	-11.2793
▁federal	-11.2799
▁Helsinki	-11.2805
▁frappé	-11.2805
▁d'intervention	-11.2811
placing	-11.2816
CR	-11.2817
▁s'oppose	-11.2817
▁possess	-11.2817
▁constamment	-11.2823
▁Hussein	-11.2829
▁transitoire	-11.2842
▁l'Irak	-11.2853
▁L’Union	-11.2859
▁unemployed	-11.2859
▁Américains	-11.2871
migration	-11.2876
▁l'acquis	-11.2877
▁foster	-11.2877
▁journalistes	-11.2878
ecommunications	-11.2883
▁engendre	-11.2889
▁Slovaquie	-11.2895
▁encouragé	-11.2901
▁trompe	-11.2901
▁fusion	-11.2901
▁Therefore	-11.2904
▁constitué	-11.2907
▁embryo	-11.2907
▁transpose	-11.2912
▁widespread	-11.2925
▁embargo	-11.2931
▁percentage	-11.2931
▁salariés	-11.2931
▁coalition	-11.2931
environnement	-11.2935
▁automatique	-11.2937
▁veto	-11.2943
▁fresh	-11.2955
▁biodiversity	-11.2967
▁biodiversité	-11.2967
▁printemps	-11.2967
▁unilatérale	-11.2973
▁ratify	-11.2985
opportunité	-11.2992
énorme	-11.2992
espèce	-11.3008
▁d'introduire	-11.3009
▁Michel	-11.3028
▁éthique	-11.3028
▁arabe	-11.3028
▁terminé	-11.3029
▁l’occasion	-11.3034
▁penalties	-11.3046
▁Freedom	-11.3046
autonomie	-11.3064
▁intense	-11.3065
▁nous-mêmes	-11.3068
▁swift	-11.307
▁transmettre	-11.3072
▁track	-11.3076
▁modalités	-11.3082
▁announce	-11.3088
▁légère	-11.3095
▁précaution	-11.3095
▁tackling	-11.3095
▁subsidi	-11.3109
▁instaurer	-11.3113
▁octroyé	-11.3113
▁broadcast	-11.3119
▁unfortunate	-11.3129
▁douanière	-11.3137
▁l'exemple	-11.3137
▁libération	-11.3137
▁législature	-11.3137
-wide	-11.3138
structure	-11.3145
▁armée	-11.3147
▁Washington	-11.3162
▁category	-11.3162
▁transatlantic	-11.3162
▁tariff	-11.3162
▁critiqu	-11.3163
(1)	-11.3172
▁pluriannuel	-11.3181
▁derogation	-11.3192
▁rétablir	-11.3194
▁d'enquête	-11.3194
▁Laeken	-11.3199
engager	-11.3204
▁acquire	-11.3205
▁suggère	-11.3205
▁milliard	-11.3207
▁entraîné	-11.3211
▁côte	-11.3212
illusion	-11.3215
▁alliance	-11.3218
▁uncertainty	-11.323
▁village	-11.323
▁became	-11.323
▁soulever	-11.3236
▁Clearly	-11.3249
▁préoccupant	-11.3255
▁SIS	-11.3255
▁gratitude	-11.3267
▁Geneva	-11.3273
▁apparu	-11.3273
▁club	-11.3273
▁tiré	-11.3277
▁dictatorship	-11.328
▁échelle	-11.3286
ifiable	-11.3288
▁English	-11.3292
▁EMU	-11.3292
▁occurred	-11.3299
▁dictature	-11.3305
▁depriv	-11.3305
▁Genève	-11.3311
▁Morocco	-11.3311
▁OLAF	-11.3311
▁détenu	-11.3311
▁aircraft	-11.3317
▁army	-11.3318
▁earn	-11.3318
▁game	-11.3319
▁Espagne	-11.3323
▁expensive	-11.3323
▁dictate	-11.3326
▁twenty	-11.3342
emprunt	-11.3342
▁enceinte	-11.3386
▁receiving	-11.3392
&#x02BC;	-11.3399
▁Swoboda	-11.3399
installation	-11.3401
▁inquiétant	-11.3405
▁estimé	-11.3409
▁demographic	-11.3411
▁écouté	-11.3418
▁nonetheless	-11.343
▁vigilant	-11.3443
▁causing	-11.3443
▁Frattini	-11.3449
▁consolider	-11.3449
▁secrétaire	-11.3449
▁confine	-11.3457
▁outset	-11.3458
▁supprimé	-11.3462
▁sovereign	-11.3467
▁douane	-11.3475
▁abstenu	-11.3487
▁frank	-11.3506
▁îles	-11.3513
▁Investment	-11.3526
▁n'importe	-11.3526
▁Obviously	-11.3532
▁Danube	-11.3545
▁l’amendement	-11.3545
regulation	-11.3547
▁mondiaux	-11.3558
Alliance	-11.356
▁compliqué	-11.357
▁dégâts	-11.357
▁diffusion	-11.3577
▁voilà	-11.3577
▁décisif	-11.3577
▁objet	-11.3583
▁composé	-11.3584
▁exert	-11.3586
▁extraordinary	-11.359
▁programmation	-11.359
▁Again	-11.359
▁elderly	-11.3596
▁began	-11.3597
▁certification	-11.3603
▁manufacture	-11.3614
▁souverain	-11.3622
▁l'instar	-11.3622
▁Syria	-11.3628
▁invitation	-11.3629
▁supranational	-11.3635
▁journalists	-11.3635
▁Other	-11.3635
▁Lituanie	-11.3641
▁l’objectif	-11.3641
▁Barnier	-11.3654
▁loyal	-11.3654
▁compétitif	-11.3661
▁règne	-11.3661
▁situe	-11.3665
/1999	-11.3667
améliorer	-11.367
▁interprétation	-11.3686
▁l'exportation	-11.3699
▁tribute	-11.3699
▁adhere	-11.3705
▁déséquilibre	-11.3713
▁killed	-11.3719
▁Bolkestein	-11.3725
▁beneficial	-11.3732
▁bilatéraux	-11.3732
▁tribunaux	-11.3732
▁REACH	-11.3739
▁deploy	-11.3752
▁allusion	-11.3752
▁congratulations	-11.3758
▁necessity	-11.3758
▁s'efforce	-11.3758
▁hommage	-11.3765
▁paradox	-11.3765
▁hyp	-11.3765
▁cohérent	-11.3769
▁Poettering	-11.3771
▁Nonetheless	-11.3784
▁throw	-11.3786
▁emphasize	-11.3791
▁territories	-11.3791
▁l'Inde	-11.3797
▁rubrique	-11.3797
▁d'enfants	-11.3804
▁favorise	-11.3806
▁London	-11.3824
▁broke	-11.3824
▁venons	-11.3824
(2)	-11.3826
▁contamination	-11.3837
▁fiscaux	-11.3843
▁félicitations	-11.3857
▁s'agisse	-11.3857
▁supplement	-11.3862
▁disponible	-11.3863
▁circonscription	-11.3863
▁impliquant	-11.3863
▁foi	-11.3864
▁démocratisation	-11.387
▁popular	-11.3876
▁l'Iran	-11.3876
▁Malte	-11.3877
▁Soviet	-11.3883
▁supplies	-11.389
▁explor	-11.389
▁parallel	-11.389
▁l’adoption	-11.3896
▁rassemble	-11.391
▁prudence	-11.3916
▁liaison	-11.3923
incitation	-11.3933
▁Palacio	-11.3936
▁Declaration	-11.3943
▁Brazil	-11.3943
▁Labour	-11.3943
▁d'armes	-11.3944
▁accru	-11.3952
▁Algeria	-11.3956
▁ça	-11.3956
▁Chechnya	-11.3963
▁d'élaborer	-11.3963
▁troops	-11.3963
▁étudiants	-11.3963
▁nobody	-11.3969
▁censé	-11.3976
▁Year	-11.3976
▁IGC	-11.399
▁sincerely	-11.399
▁officiel	-11.3995
▁Birmanie	-11.3996
▁éliminer	-11.4003
▁agisse	-11.4008
▁Libya	-11.401
▁l'extérieur	-11.401
▁cinquième	-11.4016
▁accurate	-11.4016
▁décisive	-11.4016
▁entamer	-11.4016
▁affaibli	-11.4019
▁dégager	-11.4063
▁utilisateurs	-11.407
▁envoyer	-11.407
▁rigorous	-11.4083
employ	-11.4088
▁applique	-11.4089
▁drink	-11.409
▁déployés	-11.409
▁Eurostat	-11.409
▁Also	-11.4091
▁provisoire	-11.4097
▁drop	-11.4101
▁Parallèlement	-11.4104
▁accompanied	-11.4104
▁débouche	-11.4104
▁dominant	-11.4105
▁emerging	-11.4111
ë	-11.4111
▁tunnel	-11.4117
commun	-11.4122
▁congratulating	-11.4124
▁Decision	-11.4131
Albanie	-11.4138
▁collapse	-11.4151
▁reçoivent	-11.4151
▁éprouv	-11.4151
▁généraux	-11.4158
▁bénéfique	-11.4165
▁compléter	-11.4172
▁approximately	-11.4172
▁réagi	-11.4185
▁newspaper	-11.4185
▁enlarged	-11.4192
▁l’utilisation	-11.4192
▁harmonisé	-11.4192
clav	-11.4196
▁exacerb	-11.4199
▁surveiller	-11.4199
▁l'essentiel	-11.4213
▁birth	-11.4213
▁keen	-11.4213
▁Great	-11.422
▁persuadé	-11.4226
▁rémunération	-11.4226
▁Mugabe	-11.4233
▁réglé	-11.4248
▁imbalance	-11.4254
▁dirigé	-11.4254
▁maîtris	-11.4261
▁rejoindre	-11.4261
▁déçu	-11.4261
▁resource	-11.4269
▁dépassé	-11.4288
indique	-11.4289
▁oppress	-11.4298
▁purchase	-11.4309
▁rythme	-11.4316
▁l'actuel	-11.4319
▁yourself	-11.4323
▁Objective	-11.4336
▁crops	-11.4338
▁northern	-11.4343
▁gouvern	-11.435
▁Statute	-11.435
▁Education	-11.435
▁s'agissant	-11.4357
▁advise	-11.4366
gressive	-11.4368
▁renvoi	-11.4371
-level	-11.4385
▁routière	-11.4406
▁identifié	-11.4406
▁Cotonou	-11.4413
▁guard	-11.4413
▁S'agissant	-11.442
▁disappointed	-11.442
▁Est-ce	-11.442
▁combler	-11.442
▁trans-European	-11.4427
▁sharing	-11.4427
▁experiencing	-11.4434
▁Petitions	-11.4441
▁Jusqu'	-11.4448
▁coherence	-11.4448
▁begun	-11.4449
▁accélérer	-11.4449
▁ultrapériphéri	-11.4455
▁Otherwise	-11.4455
▁troupes	-11.4455
▁unanimity	-11.4462
▁computer	-11.4469
▁distinguish	-11.4476
▁stick	-11.4477
▁requiert	-11.4483
▁incompatible	-11.449
▁l'Agenda	-11.449
▁surrounding	-11.449
▁settle	-11.4492
▁l’autre	-11.4504
▁nôtre	-11.4511
▁Cohesion	-11.4518
▁jurisdiction	-11.4518
▁ordinaire	-11.4518
8/9	-11.4528
▁utilisant	-11.4532
▁Atlantic	-11.4539
▁Communist	-11.4546
▁neighbourhood	-11.4546
▁voulez	-11.4549
▁l'ESB	-11.4553
▁suscité	-11.456
▁soviétique	-11.4568
▁Information	-11.4568
▁Finnish	-11.4575
▁entrepris	-11.4575
▁essence	-11.4582
▁surplus	-11.4596
lusieurs	-11.4596
▁racist	-11.4598
▁d'assurance	-11.461
▁update	-11.4617
▁quelqu'un	-11.4617
▁communiqué	-11.4617
▁dream	-11.4624
▁retiré	-11.4624
▁investisseurs	-11.4631
▁musulman	-11.4631
▁quotidien	-11.4635
▁accompagné	-11.4642
▁j’espère	-11.4646
▁1991	-11.4653
▁dizaines	-11.466
▁synergie	-11.466
▁Two	-11.466
▁Sakharov	-11.4667
▁l’esprit	-11.4667
▁reflét	-11.4674
▁pursuan	-11.4674
augmentation	-11.4681
▁closure	-11.4682
▁stabilise	-11.4689
▁Single	-11.469
▁Tchétchénie	-11.4696
▁impératif	-11.4703
▁conformité	-11.4703
▁forgotten	-11.4717
▁révèle	-11.4717
▁réjouir	-11.4725
inscrire	-11.4726
▁d'accroître	-11.4732
▁inadmissible	-11.4732
▁gather	-11.4732
rreur	-11.4732
▁étrange	-11.4737
▁hospital	-11.4746
▁procedural	-11.4746
▁électrique	-11.4753
▁municipal	-11.4768
▁province	-11.4768
▁Mercosur	-11.4782
▁examination	-11.4782
▁d’autre	-11.4786
▁residence	-11.479
▁CIG	-11.4797
▁praise	-11.4801
▁adverse	-11.4804
▁stipule	-11.4826
▁integrity	-11.4833
▁Ministre	-11.484
▁impetus	-11.484
▁prostitution	-11.484
▁l'appel	-11.4849
▁assert	-11.4851
rait-il	-11.4853
▁categories	-11.4855
▁régulation	-11.4855
▁consequently	-11.4862
▁controversial	-11.4862
▁1989	-11.4862
▁Defence	-11.4862
▁rigueur	-11.4877
▁frappe	-11.4877
▁irakien	-11.4877
▁facilité	-11.4892
▁uphold	-11.4899
▁equivalent	-11.4906
▁contributing	-11.4928
organisme	-11.4934
▁comprennent	-11.4943
▁Malta	-11.4943
▁Regarding	-11.495
▁tiennent	-11.495
▁Natura	-11.495
▁redistribu	-11.4952
▁communiquer	-11.4952
▁essayé	-11.4958
▁install	-11.496
-Mediterranean	-11.4965
▁découvert	-11.4965
▁bateaux	-11.4965
▁imposing	-11.4965
▁ruin	-11.4971
▁Conservative	-11.4972
▁illustrate	-11.4972
▁accusations	-11.498
▁characteristics	-11.498
▁reconciliation	-11.4987
▁Criminal	-11.4994
▁l'Amérique	-11.4994
▁anglais	-11.4995
▁cigarette	-11.5002
▁d'impact	-11.5002
▁slightly	-11.5009
Égypte	-11.5017
▁sauver	-11.5018
extradition	-11.5022
▁(debate)	-11.5024
▁System	-11.5024
▁tolérance	-11.5032
▁observé	-11.5039
▁militari	-11.5039
▁identité	-11.5039
▁désigné	-11.5039
▁pierre	-11.5039
▁fausse	-11.504
▁marginalis	-11.5041
impose	-11.5046
▁fossil	-11.5046
▁mépris	-11.5046
▁(débat)	-11.5054
▁hémicycle	-11.5054
▁dictator	-11.5061
▁ambigu	-11.5061
▁l'humanité	-11.5061
▁répété	-11.5061
▁thousand	-11.5066
▁divergent	-11.5069
▁short-term	-11.5069
▁perçu	-11.5069
▁housing	-11.5069
▁lawyer	-11.5071
▁accumul	-11.5076
▁counterfeit	-11.5076
▁transeuropéens	-11.5076
obligation	-11.5108
▁disregard	-11.5121
▁convince	-11.5126
▁Posselt	-11.5128
▁énormément	-11.5128
▁street	-11.5129
n-discrimination	-11.5133
▁ministère	-11.5136
▁préventive	-11.5143
▁rédaction	-11.5143
▁éventuel	-11.515
▁Solidarity	-11.5151
▁l'alimentation	-11.5151
▁whatsoever	-11.5151
▁August	-11.5151
▁MEDA	-11.5166
▁combustible	-11.5166
▁execution	-11.5166
▁indépendamment	-11.5174
▁autonome	-11.5174
▁Friday	-11.5181
▁preliminary	-11.5181
▁d'aller	-11.5189
▁biotechnologi	-11.5196
▁maintenance	-11.5196
▁location	-11.5204
▁virus	-11.5204
▁déplacé	-11.5219
▁managing	-11.5219
▁Please	-11.5234
▁Monday	-11.5234
▁except	-11.5234
▁s'agir	-11.5235
▁translate	-11.5237
▁blind	-11.5242
▁croyons	-11.5242
▁l’Assemblée	-11.5249
▁prouvé	-11.5249
▁enseignement	-11.5249
▁Londres	-11.5257
▁l'occurrence	-11.5257
▁integrate	-11.5269
▁reprend	-11.5279
▁OGM	-11.5279
▁resistance	-11.5279
▁publish	-11.5282
accommod	-11.5287
enthousiasme	-11.5287
▁cancel	-11.5309
▁l’intérêt	-11.531
outermost	-11.531
▁l’intégration	-11.531
▁Watson	-11.5318
▁Muslim	-11.5325
▁illustre	-11.5325
▁convey	-11.5333
▁j'avais	-11.5348
abandon	-11.5351
▁Affaire	-11.5356
▁losing	-11.5364
▁anniversaire	-11.5371
▁woman	-11.5371
▁Latvia	-11.5387
appareil	-11.5387
▁préconise	-11.5387
▁Tunisie	-11.5394
▁adhérer	-11.5394
▁compliment	-11.5394
▁Direct	-11.5428
▁Tribunal	-11.5433
▁d'Amérique	-11.5433
▁participating	-11.5433
▁universities	-11.5433
▁pèse	-11.5435
▁stimulate	-11.5441
▁profond	-11.5447
▁bovine	-11.5456
▁banned	-11.5457
▁Through	-11.5464
▁inhabitants	-11.5471
▁Annex	-11.5472
▁gaspill	-11.5472
▁impartial	-11.5487
▁iranien	-11.5487
▁roll	-11.5488
▁Wednesday	-11.5495
▁profound	-11.551
▁probable	-11.5516
▁complément	-11.5524
▁eventually	-11.5526
▁l'étiquetage	-11.5534
▁motivation	-11.5534
▁résume	-11.557
▁inondations	-11.5573
▁d'imposer	-11.5573
▁détruit	-11.5581
▁Lebanon	-11.5596
▁pretext	-11.5604
▁traduction	-11.5604
▁barrières	-11.5612
▁description	-11.5612
▁frein	-11.5613
▁réfléchi	-11.5618
▁hélas	-11.5628
control	-11.5631
▁perturb	-11.5636
power	-11.5643
▁certitude	-11.5644
▁immigrés	-11.5644
▁Similarly	-11.5651
▁n’avons	-11.5652
▁révisé	-11.5654
(COD))	-11.5667
▁abroad	-11.5667
▁l'espère	-11.5667
▁montagne	-11.5667
▁Brésil	-11.5675
▁executive	-11.5683
▁intérimaire	-11.5683
▁ECHO	-11.5691
▁Indonesia	-11.5691
▁incendies	-11.5699
▁d'importance	-11.5699
'après	-11.57
▁comparaison	-11.5707
▁l’idée	-11.5707
▁stringent	-11.5715
▁ELDR	-11.5723
▁judicieux	-11.5723
▁islamique	-11.5731
▁l'espoir	-11.5739
▁papier	-11.5739
▁concurrentiel	-11.5747
▁Sarkozy	-11.5747
▁modifiant	-11.5747
z-moi	-11.5754
▁d'accepter	-11.5755
▁freight	-11.5755
▁gratuit	-11.5755
▁shop	-11.5755
▁pratiqu	-11.5756
▁disparu	-11.5771
▁Taiwan	-11.5779
▁supervisory	-11.5779
▁charbon	-11.5779
▁déloyale	-11.5795
▁confuse	-11.5795
▁l'issue	-11.5819
▁anniversary	-11.5835
▁resolving	-11.5835
▁display	-11.5835
▁poussé	-11.5835
▁insult	-11.5838
▁BEI	-11.5843
▁intervenants	-11.5851
▁l'étranger	-11.5851
▁pharmaceutique	-11.5851
▁stakeholders	-11.5851
▁victoire	-11.5851
▁déroulé	-11.5851
▁assets	-11.5852
▁échéant	-11.5859
▁OSCE	-11.5867
▁PHARE	-11.5867
▁pursuing	-11.5875
▁registration	-11.5875
▁suggéré	-11.5883
▁l'élimination	-11.5891
▁réconciliation	-11.5891
▁l’accès	-11.5891
▁vérification	-11.5891
expulsion	-11.5891
▁erroné	-11.5899
▁d’adhésion	-11.5907
▁Liban	-11.5916
▁albeit	-11.5932
▁arrière	-11.5932
▁mountain	-11.594
▁EIB	-11.5948
▁déplacement	-11.5948
▁Finance	-11.5948
▁Sahara	-11.5948
▁reaffirm	-11.5948
▁Third	-11.5962
▁smooth	-11.5964
▁chômeurs	-11.5972
attache	-11.5986
▁Chairman	-11.5989
▁d’intérêt	-11.5989
▁l'ampleur	-11.5989
▁gravité	-11.5989
▁s'attaquer	-11.5989
▁lorsqu’il	-11.5997
▁branch	-11.5998
▁compromet	-11.6014
▁rêve	-11.6022
▁virtue	-11.6022
▁répand	-11.603
&	-11.6038
▁d'experts	-11.6046
▁vendredi	-11.6046
▁imperative	-11.6046
▁Syrie	-11.6054
sécurité	-11.606
▁experiment	-11.6062
▁naissance	-11.6062
▁réglementé	-11.6062
▁Could	-11.6063
▁expressément	-11.6063
▁furthermore	-11.6071
▁fifteen	-11.6079
▁optimal	-11.6079
▁étroit	-11.6093
▁Wallström	-11.6095
▁female	-11.6095
▁essaie	-11.6097
▁(Rule	-11.6104
▁Estonia	-11.6104
▁sincère	-11.6111
▁proactive	-11.6112
▁prerequisite	-11.612
▁saluons	-11.6121
▁prépare	-11.6128
▁douze	-11.6129
▁criterion	-11.6137
unanimité	-11.6139
ensemble	-11.6164
▁disparition	-11.617
▁brève	-11.6178
▁pharmaceutical	-11.6187
▁Celle-ci	-11.6195
▁third-country	-11.6195
▁voudrait	-11.6195
▁recital	-11.6195
▁législateur	-11.6203
▁mercredi	-11.6203
▁l'enfant	-11.6203
▁traduire	-11.6212
▁(CE)	-11.622
▁sympathy	-11.622
▁fifth	-11.622
▁saurait	-11.622
▁oublié	-11.6221
▁policière	-11.6228
▁réaffirme	-11.6228
▁antérieur	-11.6237
▁perpétré	-11.6245
▁slaughter	-11.6245
▁éloigné	-11.6245
▁partiellement	-11.6245
▁communicate	-11.6246
non-governmental	-11.6254
▁apprécié	-11.6262
▁autonomy	-11.6262
▁contradictoire	-11.6262
▁neglect	-11.6262
▁c’est-à-dire	-11.627
▁illégal	-11.6283
▁Millennium	-11.6287
▁radioactive	-11.6287
▁vivons	-11.6287
▁risqu	-11.6295
▁protège	-11.6296
▁l'urgence	-11.6304
▁prescription	-11.6312
▁wave	-11.6317
▁biocarburants	-11.6329
▁oriental	-11.635
argument	-11.6353
▁mémoire	-11.6355
▁caution	-11.6363
(CNS))	-11.6372
▁GMOs	-11.6372
▁remplacé	-11.6372
▁Maintenant	-11.638
▁controversé	-11.638
▁Jarzembowski	-11.6389
▁améliore	-11.6394
▁Scotland	-11.6397
▁false	-11.6397
▁attentif	-11.6397
▁corriger	-11.6406
▁disastrous	-11.6406
▁fossé	-11.6406
2009	-11.6412
▁renewed	-11.6423
-General	-11.6425
ecretary-General	-11.6429
▁personnalité	-11.6431
▁néfaste	-11.644
▁storage	-11.644
▁forecast	-11.6457
▁Above	-11.6465
▁pipeline	-11.6474
▁préparatoire	-11.6474
▁Corbett	-11.6483
▁Naturally	-11.6491
▁autorisation	-11.65
▁productivity	-11.6508
▁examining	-11.6517
▁l'agenda	-11.6526
▁âge	-11.6526
▁roumain	-11.6543
▁chantier	-11.6544
▁licenciement	-11.6551
▁l’immigration	-11.6551
▁(EC)	-11.656
▁Colombia	-11.656
▁Moldavie	-11.656
▁scientists	-11.656
▁manoeuvre	-11.6569
▁privacy	-11.6569
uranium	-11.6577
▁incorrect	-11.6577
▁lundi	-11.6577
▁Beaucoup	-11.6586
▁statistical	-11.6586
▁évalué	-11.6586
▁contenant	-11.6586
▁précieuse	-11.6595
entrepreneur	-11.6597
/2005	-11.6603
▁damaging	-11.6603
▁socio-economic	-11.6647
▁ratifier	-11.6647
▁journey	-11.6647
▁intégrante	-11.6656
▁examinons	-11.6664
▁d'intervenir	-11.6673
▁guise	-11.6673
▁overlook	-11.6682
▁platform	-11.6682
▁Venezuela	-11.6691
▁comitologie	-11.6691
▁everywhere	-11.6691
▁résumé	-11.6708
▁far-reaching	-11.6717
▁programming	-11.6717
▁l'âge	-11.6717
écrire	-11.6723
▁écoulé	-11.6726
▁definitive	-11.6735
▁l'effort	-11.6735
▁John	-11.6735
▁délocalisation	-11.6743
▁d’origine	-11.6743
▁interrompu	-11.6752
▁Libye	-11.677
č	-11.6779
▁juridiction	-11.6779
▁TACIS	-11.6787
▁Vitorino	-11.6787
▁côtière	-11.6787
▁réexamin	-11.6787
▁n'étaient	-11.6787
▁Erasmus	-11.6796
ciaux-démocrates	-11.68
▁accusé	-11.6805
▁title	-11.6805
▁suspens	-11.6815
▁Switzerland	-11.6823
▁numéro	-11.6823
▁Whilst	-11.6841
▁propriétaire	-11.685
▁resort	-11.685
▁Aujourd’hui	-11.6858
▁Liikanen	-11.6858
▁démantèlement	-11.6858
▁142)	-11.6858
▁régulier	-11.6858
▁translation	-11.6859
comprehensible	-11.6867
▁precondition	-11.6867
▁tissu	-11.6876
aménagement	-11.6885
▁précieux	-11.6885
▁d'empêcher	-11.6894
▁rédiger	-11.6894
▁encounter	-11.6903
▁fréquent	-11.6903
▁nutrition	-11.6903
▁struck	-11.6903
▁frustration	-11.6912
▁satisfy	-11.6912
▁generous	-11.6921
▁inappropriate	-11.6921
▁l’attention	-11.693
▁accused	-11.6939
▁benchmark	-11.6948
▁quantitative	-11.6948
▁qualitative	-11.6957
▁Ecofin	-11.6957
▁Oomen-Ruijten	-11.6966
▁recueilli	-11.6966
▁s'adresse	-11.6975
▁Liberties	-11.6984
▁deviendra	-11.6992
▁autumn	-11.6993
▁semestre	-11.702
▁dégagé	-11.7029
▁write	-11.7037
▁d'animaux	-11.7038
▁semblable	-11.7038
▁fought	-11.7038
▁Mexico	-11.7056
▁vocational	-11.7056
▁Trois	-11.7056
/EEC	-11.7065
-Herzégovine	-11.7075
▁irregularities	-11.7075
▁fault	-11.7075
▁middle	-11.7084
▁simplified	-11.7093
▁council	-11.7093
▁absorb	-11.7102
▁identification	-11.7102
▁sexuel	-11.7103
▁Special	-11.7111
▁Vietnam	-11.712
▁cofinancement	-11.712
▁l’encontre	-11.712
▁enterprise	-11.712
▁Naturellement	-11.7129
▁Médiateur	-11.7139
▁enshrined	-11.7139
système	-11.7139
▁Olympic	-11.7148
▁repercussions	-11.7148
▁illégaux	-11.7157
▁sensibilisation	-11.7157
▁assorti	-11.7157
▁Cohn-Bendit	-11.7166
▁Berlusconi	-11.7175
▁Slovénie	-11.7175
▁Would	-11.7184
▁spécificité	-11.7194
▁suspicion	-11.7194
▁bataille	-11.7221
▁parviendrons	-11.7221
▁vécu	-11.7231
▁restreint	-11.724
▁fashion	-11.724
▁séparation	-11.724
▁inequalities	-11.7249
▁privilège	-11.7249
▁apparten	-11.7253
▁bridge	-11.7258
▁dynamism	-11.7268
▁intéresse	-11.7268
▁d'organiser	-11.7277
▁persecution	-11.7286
▁speculation	-11.7286
▁caractérise	-11.7295
▁scenario	-11.7295
▁compensate	-11.7296
medicinal	-11.7305
▁préfère	-11.7305
▁removal	-11.7305
▁rouge	-11.7305
▁d'efforts	-11.7314
▁disturb	-11.7314
▁l'armée	-11.7314
▁publier	-11.7324
▁Böge	-11.7333
▁vegetable	-11.7333
▁1980	-11.7342
▁photo	-11.7352
▁d'exercer	-11.7361
▁d'instaurer	-11.7361
▁parliamentarian	-11.7361
▁pourparlers	-11.7361
▁prévoyant	-11.7361
▁ownership	-11.7361
▁recruit	-11.7361
▁idéologique	-11.737
▁permanence	-11.738
▁alleged	-11.738
▁Ferrero-Waldner	-11.7389
▁preparatory	-11.7389
▁vétérinaire	-11.7398
▁ideological	-11.7398
▁narrow	-11.7408
▁s'avérer	-11.7408
▁construit	-11.7417
▁Federal	-11.7427
▁témoin	-11.7427
▁déploie	-11.7436
▁twice	-11.7436
▁transplant	-11.7464
▁'no'	-11.7464
▁Jacques	-11.7474
▁multiannual	-11.7474
▁vigour	-11.7474
▁Johannesburg	-11.7483
▁Quatrièmement	-11.7493
▁facility	-11.7493
▁inevitably	-11.7493
▁linguistic	-11.7493
▁pouvaient	-11.7493
▁cellules	-11.7502
▁disponibilité	-11.7502
▁overwhelming	-11.7502
▁d’ailleurs	-11.7512
▁patience	-11.7512
▁constraints	-11.7521
▁screen	-11.7531
▁apparemment	-11.754
▁caractérisé	-11.755
▁là-bas	-11.755
▁precedent	-11.755
▁malheur	-11.755
▁Deuxième	-11.7559
▁drastic	-11.756
▁Progress	-11.7568
▁embark	-11.7579
-friendly	-11.7588
▁Barón	-11.7588
▁hunger	-11.7588
avortement	-11.7598
▁foodstuffs	-11.7607
▁gentlemen	-11.7614
▁appalling	-11.7617
▁légiférer	-11.7627
élargir	-11.7629
▁remboursement	-11.7636
▁Harbour	-11.7656
▁monopoly	-11.7656
industrie	-11.7657
establish	-11.7658
▁AIDS	-11.7665
▁s'inscrit	-11.7665
▁découlant	-11.7675
▁félicitons	-11.7675
▁wholeheartedly	-11.7675
▁Schmid	-11.7675
▁faillite	-11.7675
▁Fourthly	-11.7685
▁reviendra	-11.7687
▁XXIe	-11.7694
▁discriminatoire	-11.7694
▁l’OMC	-11.7694
ñ	-11.8627
š	-12.0189
ã	-12.1113
­	-12.1376
ń	-12.1746
Ö	-12.1893
Z	-12.2575
ß	-12.2706
ă	-12.277
ò	-12.3048
æ	-12.3893
ş	-12.4056
ø	-12.4075
Á	-12.4335
—	-12.4544
ú	-12.5219
Å	-12.6077
–	-12.6222
ł	-12.6304
°	-12.6396
ć	-12.7572
ė	-12.8729
Ε	-12.9116
Ê	-12.9424
”	-13.0619
ő	-13.0942
«	-13.1202
£	-13.3644
Ţ	-13.3935
Α	-13.4184
$	-13.5134
Ó	-13.6309
ę	-13.6952
Τ	-13.7086
ğ	-13.7221
ž	-13.7569
•	-13.7569
ľ	-13.764
ý	-13.7783
_	-13.7855
=	-13.8378
å	-13.8929
Ν	-13.9175
ś	-13.9513
Â	-14.06
Ο	-14.0696
Ι	-14.0793
ū	-14.099
·	-14.1396
−	-14.2375
ţ	-14.2606
Č	-14.2964
Í	-14.3461
ī	-14.4395
À	-14.5235
―	-14.6574
È	-14.7676
ì	-14.7872
@	-14.8697
“	-14.9136
Μ	-14.9137
μ	-14.9834
а	-14.9834
Ô	-15.0848
Ü	-15.1118
Ø	-15.1118
ź	-15.1396
‘	-15.194
\	-15.2279
#	-15.2279
ą	-15.2914
ż	-15.2914
ρ	-15.3247
е	-15.3247
õ	-15.3592
ο	-15.3592
§	-15.3949
о	-15.3949
*	-15.432
Ï	-15.432
⁄	-15.5521
α	-15.5956
ε	-15.5956
Ì	-15.641
Œ	-15.641
т	-15.641
ı	-15.6886
τ	-15.6886
ě	-15.7386
ι	-15.7386
р	-15.7386
ǎ	-15.7913
Ρ	-15.7913
σ	-15.8468
н	-15.8468
¡	-15.9056
и	-15.9681
в	-15.9681
с	-15.9682
Κ	-16.0348
β	-16.1062
ν	-16.1062
ί	-16.1832
η	-16.1832
π	-16.1832
к	-16.2665
δ	-16.3574
ς	-16.3574
ǔ	-16.3574
д	-16.4574
ή	-16.4574
έ	-16.4574
χ	-16.4574
л	-16.4574
κ	-16.5685
λ	-16.5685
з	-16.6935
й	-16.6935
м	-16.6935
υ	-16.6935
ш	-16.6935
ά	-16.6935
Υ	-16.8364
>	-17.003
©	-17.003
ņ	-17.003
ό	-17.003
я	-17.003
і	-17.003
Ż	-17.003
ч	-17.003
п	-17.0031
þ	-17.203
Ľ	-17.203
ŕ	-17.203
Ģ	-17.203
γ	-17.453
Н	-17.453
ь	-17.453
Ř	-17.453
đ	-17.453
Ú	-17.453
ā	-17.453
ų	-17.453
φ	-17.453
ώ	-17.453
М	-17.453
г	-17.453
у	-17.453
ъ	-17.453
ð	-17.453
б	-17.453
ď	-17.4531
ύ	-17.7864
ů	-17.7864
Π	-17.7864
ē	-17.7864
ș	-17.7864
`	-17.7864
<	-17.7864
Ý	-17.7864
ǐ	-18.2847
ķ	-18.2848
ť	-18.2849
Β	-18.285
Ł	-18.2851
Ş	-18.2852
Đ	-18.2853
Ś	-18.2854
́	-18.2855
€	-18.2856
Ž	-18.2857
ř	-18.2858
ň	-18.2859
Ő	-18.286
Î	-18.2861
Ç	-18.2862
Š	-18.2863
Є	-18.2864
ō	-18.2864
ŵ	-18.2864
±	-18.2864
Ä	-18.2864
Æ	-18.2864
Ù	-18.2864
Ć	-18.2864
ĉ	-18.2864
İ	-18.2864
˗	-18.2864
̊	-18.2864
̧	-18.2864
А	-18.2864
Д	-18.2864
П	-18.2864
Т	-18.2864
У	-18.2864
ж	-18.2864
ы	-18.2864
ю	-18.2864
є	-18.2864
ʻ	-18.2864
Ð	-18.2864
î	-18.2864
О	-18.2864
