<s>	0
</s>	0
<unk>	0
<pad>	0
,	-3.25306
▁the	-3.42777
▁de	-3.63635
▁of	-4.1044
▁la	-4.12882
▁to	-4.17927
▁and	-4.33996
▁et	-4.41533
▁le	-4.56059
▁a	-4.58414
▁in	-4.5928
▁à	-4.63192
▁les	-4.63538
▁des	-4.6607
▁que	-4.82841
▁that	-4.83168
▁is	-4.86962
.	-4.89308
▁en	-5.05039
▁for	-5.26496
▁I	-5.27829
▁du	-5.29891
▁on	-5.32751
▁dans	-5.43213
▁nous	-5.4459
▁pour	-5.45276
▁qui	-5.46978
▁be	-5.49651
▁this	-5.52488
▁we	-5.53797
▁une	-5.58643
▁un	-5.63052
▁ce	-5.66508
▁est	-5.67413
▁are	-5.68469
▁have	-5.73068
▁-	-5.73822
▁pas	-5.75198
▁sur	-5.76441
▁au	-5.77943
▁not	-5.78249
▁it	-5.7881
▁as	-5.83975
▁with	-5.84742
▁which	-5.87983
▁ne	-5.92281
▁European	-5.9248
▁par	-5.92628
▁Commission	-5.97755
▁The	-6.01519
▁will	-6.03632
s	-6.03908
▁by	-6.04868
▁plus	-6.12232
▁has	-6.1638
▁je	-6.17687
▁Mr	-6.32303
▁Je	-6.38109
▁cette	-6.38959
▁aux	-6.39441
▁an	-6.43637
▁il	-6.45352
▁at	-6.47461
▁would	-6.48356
▁sont	-6.4844
▁also	-6.49701
▁should	-6.54235
▁from	-6.59061
▁avec	-6.59722
▁We	-6.60728
▁our	-6.61551
▁but	-6.61607
▁must	-6.62442
▁all	-6.6299
▁Nous	-6.65386
▁Il	-6.66483
▁se	-6.6837
▁mais	-6.70791
▁been	-6.70805
▁Monsieur	-6.71773
▁	-6.73579
▁être	-6.74851
▁ces	-6.76178
▁pays	-6.78587
▁été	-6.80504
▁ont	-6.81126
▁It	-6.814
▁can	-6.832
▁La	-6.83815
▁President,	-6.84881
▁européenne	-6.86038
▁Le	-6.87504
▁was	-6.87891
▁Member	-6.8869
▁fait	-6.8879
▁you	-6.89577
▁more	-6.90031
▁vous	-6.90454
▁or	-6.90491
▁important	-6.92023
▁its	-6.93006
▁qu'il	-6.9325
▁comme	-6.93478
▁politique	-6.95415
▁their	-6.95442
▁Parlement	-6.95786
▁tout	-6.95926
▁rapport	-6.97308
▁like	-6.98081
:	-6.98678
▁do	-6.99185
▁there	-7.00579
▁Président,	-7.00645
▁question	-7.00693
▁États	-7.01225
▁very	-7.01664
▁l'Union	-7.02161
▁ou	-7.03012
▁également	-7.03828
▁This	-7.05565
▁In	-7.06179
▁these	-7.07625
▁Union	-7.09641
▁they	-7.09793
▁aussi	-7.10034
▁d'une	-7.1378
?	-7.14586
▁notre	-7.15487
▁Conseil	-7.17045
▁one	-7.17871
▁Parliament	-7.1796
▁who	-7.18297
▁si	-7.1908
▁report	-7.19339
▁faire	-7.19378
▁point	-7.21567
▁me	-7.21901
▁leur	-7.22071
▁avons	-7.22109
▁what	-7.22392
▁about	-7.22571
▁doit	-7.23062
▁M.	-7.23883
▁other	-7.23904
▁Council	-7.24022
▁need	-7.24396
▁membres	-7.24789
▁Europe	-7.24819
▁so	-7.26357
▁très	-7.26424
▁tous	-7.26483
▁Les	-7.26789
▁son	-7.2825
▁y	-7.29321
▁même	-7.2942
▁situation	-7.29475
▁my	-7.29793
▁d'un	-7.302
▁EU	-7.30667
▁only	-7.30808
▁bien	-7.30934
▁En	-7.31014
▁States	-7.31566
▁new	-7.32125
▁no	-7.32646
;	-7.34385
▁européen	-7.34591
▁entre	-7.35436
▁because	-7.35957
▁if	-7.36343
▁us	-7.37055
▁Ce	-7.38324
▁part	-7.3875
▁devons	-7.38994
▁l'	-7.40202
▁droits	-7.43651
▁nos	-7.43734
▁am	-7.45011
▁time	-7.45472
▁people	-7.46887
▁such	-7.48205
▁up	-7.49004
▁countries	-7.50719
▁make	-7.51257
▁take	-7.51379
▁out	-7.52047
▁support	-7.52228
▁into	-7.52731
▁between	-7.53599
▁voudrais	-7.53977
▁contre	-7.54107
▁those	-7.54226
▁directive	-7.56709
▁donc	-7.58482
▁now	-7.59037
▁peut	-7.59186
▁possible	-7.59388
▁protection	-7.59476
▁vote	-7.60145
▁social	-7.60765
▁dont	-7.61171
▁when	-7.61205
▁therefore	-7.61286
▁non	-7.61791
▁some	-7.62395
▁C'est	-7.62678
▁any	-7.63359
▁being	-7.63368
▁sans	-7.64552
▁soit	-7.64748
▁proposition	-7.65444
▁political	-7.66097
▁deux	-7.67669
▁encore	-7.67802
▁were	-7.67809
▁cela	-7.68632
▁policy	-7.69833
▁than	-7.69977
▁rapporteur	-7.70237
▁made	-7.70849
▁ainsi	-7.7101
▁economic	-7.71153
▁believe	-7.71364
▁ses	-7.71396
▁c'est	-7.71608
▁commission	-7.72713
▁place	-7.73641
▁work	-7.7365
▁suis	-7.75074
▁faut	-7.75913
▁d'	-7.77036
▁sa	-7.77195
▁many	-7.77369
▁position	-7.77643
▁say	-7.77717
▁against	-7.78198
▁développement	-7.78567
▁n'est	-7.78649
▁mesures	-7.79297
▁fact	-7.79595
▁public	-7.79891
▁programme	-7.80421
▁first	-7.81592
▁cas	-7.81943
▁pense	-7.82184
▁budget	-7.82506
▁leurs	-7.82611
▁matière	-7.83653
▁travail	-7.84459
▁car	-7.84574
▁cet	-7.84582
▁That	-7.84665
▁marché	-7.84759
▁doivent	-7.85222
▁sécurité	-7.8523
▁afin	-7.85274
▁think	-7.85499
's	-7.86408
▁groupe	-7.86768
▁national	-7.86854
▁questions	-7.87231
▁just	-7.87374
▁way	-7.8793
▁déjà	-7.88184
▁sommes	-7.88276
▁proposal	-7.88311
▁international	-7.88334
▁où	-7.88992
▁rights	-7.89137
▁Committee	-7.89142
▁cadre	-7.90243
▁respect	-7.90305
▁manière	-7.90367
▁elle	-7.90389
▁human	-7.91647
▁dire	-7.91992
▁services	-7.92263
▁Madame	-7.92681
▁citoyens	-7.92961
▁concerne	-7.93258
▁mon	-7.93574
▁cannot	-7.94031
▁debate	-7.94521
▁order	-7.95612
ing	-7.95786
▁droit	-7.95855
▁politiques	-7.95861
▁does	-7.95875
▁had	-7.96027
▁two	-7.96281
▁conditions	-7.96329
▁even	-7.96441
▁As	-7.96753
▁want	-7.96854
▁same	-7.97003
▁tant	-7.97978
▁niveau	-7.98653
▁could	-7.98653
▁them	-7.98933
▁débat	-7.99227
▁right	-7.99416
▁sera	-7.99919
▁most	-8.00482
▁already	-8.03327
▁where	-8.03515
e	-8.04039
'	-8.04274
▁certain	-8.0455
▁–	-8.05276
▁measures	-8.05381
▁financial	-8.0545
▁lors	-8.0577
▁within	-8.05961
▁much	-8.06032
▁good	-8.06728
▁said	-8.073
▁still	-8.07529
▁Mrs	-8.07606
▁personnes	-8.07614
▁how	-8.07809
▁development	-8.07868
▁toute	-8.08741
▁There	-8.09109
▁issue	-8.09763
▁common	-8.10126
▁both	-8.10506
▁your	-8.10975
▁Dans	-8.11183
▁see	-8.11289
▁parce	-8.11455
▁toutes	-8.11542
▁President	-8.11654
▁concernant	-8.11684
▁use	-8.11831
▁clear	-8.11978
▁However,	-8.12035
▁certains	-8.12193
▁sein	-8.12258
▁dit	-8.12265
▁fois	-8.12554
▁long	-8.13017
▁under	-8.1323
▁problème	-8.13261
▁here	-8.13368
▁agreement	-8.13487
▁particular	-8.13602
▁Mme	-8.1408
▁européenne.	-8.14115
▁On	-8.14408
▁well	-8.14706
▁over	-8.14957
▁hope	-8.15397
▁d'autres	-8.15601
▁ensure	-8.16388
▁moins	-8.16801
▁vue	-8.17204
▁action	-8.17301
▁too	-8.1748
▁institutions	-8.17489
▁able	-8.17794
▁efforts	-8.17923
▁coopération	-8.1804
▁his	-8.1838
s.	-8.18672
▁économique	-8.18736
▁système	-8.18744
▁view	-8.18902
▁seulement	-8.19016
▁taken	-8.19407
▁mettre	-8.20644
▁future	-8.20799
▁market	-8.21196
▁why	-8.21417
▁pourquoi	-8.21924
▁base	-8.22403
▁put	-8.22543
▁own	-8.2256
▁mise	-8.2329
▁Community	-8.24014
▁number	-8.24294
▁.	-8.24671
▁plan	-8.25109
▁may	-8.2511
▁nombre	-8.25781
▁last	-8.25883
▁A	-8.26
▁nom	-8.26052
▁means	-8.2668
▁Pour	-8.26881
▁problèmes	-8.26907
▁without	-8.27191
▁autres	-8.27245
▁avoir	-8.27304
▁compte	-8.27597
▁%	-8.27652
tte	-8.27957
▁savoir	-8.27966
▁know	-8.28156
▁Mais	-8.28481
▁case	-8.2864
▁points	-8.28654
▁toujours	-8.28809
▁temps	-8.2883
▁grande	-8.2884
▁information	-8.28961
▁through	-8.29032
▁energy	-8.29068
▁If	-8.29343
▁s'agit	-8.29438
▁lieu	-8.29504
▁gentlemen,	-8.29862
▁cooperation	-8.30021
▁raison	-8.30166
▁devrait	-8.30612
▁Si	-8.30719
▁aujourd'hui	-8.30949
▁secteur	-8.31518
▁avant	-8.31811
▁processus	-8.31868
▁particulier	-8.3196
)	-8.32026
▁relations	-8.32111
▁notamment	-8.3213
▁laquelle	-8.32299
▁he	-8.32405
▁À	-8.32417
▁Madam	-8.32549
▁particularly	-8.32635
▁beaucoup	-8.32712
▁however	-8.32984
▁l'UE	-8.33139
▁great	-8.34237
▁give	-8.34248
▁solution	-8.34621
▁prendre	-8.34712
▁Cela	-8.34739
▁ceux	-8.34982
▁demande	-8.35068
▁regard	-8.3507
▁Commission.	-8.35323
▁today	-8.35334
▁importance	-8.35627
▁j'ai	-8.35653
▁cours	-8.35896
▁citizens	-8.35958
▁faveur	-8.36435
▁rôle	-8.36466
▁then	-8.36728
▁transport	-8.36784
▁years	-8.37131
▁domaine	-8.37147
▁before	-8.37413
▁partie	-8.37438
▁gouvernement	-8.37482
▁given	-8.37646
▁l'Europe	-8.38154
▁continue	-8.38188
▁country	-8.38366
▁legal	-8.38626
▁Commission,	-8.38701
▁Commissioner	-8.38745
▁mesure	-8.39025
▁votre	-8.39118
▁soient	-8.3964
▁effet	-8.3989
▁propositions	-8.39967
▁qu'elle	-8.40548
▁necessary	-8.40761
▁end	-8.40832
▁moment	-8.41865
▁whether	-8.4222
▁dialogue	-8.42245
▁président	-8.42585
▁ladies	-8.43027
▁pouvons	-8.43437
▁qu’il	-8.43728
▁problems	-8.43828
▁United	-8.43961
▁besoin	-8.44046
▁nouvelle	-8.44058
▁thank	-8.44196
▁attention	-8.44819
▁résolution	-8.45061
▁accord	-8.45211
▁programmes	-8.45581
▁Europe.	-8.45723
▁behalf	-8.45724
▁soutien	-8.45735
▁since	-8.45765
▁far	-8.46132
▁security	-8.46174
▁system	-8.46716
▁pouvoir	-8.46873
▁serait	-8.46947
▁n'a	-8.46983
▁était	-8.47068
▁set	-8.47204
▁production	-8.47226
▁traité	-8.47273
▁santé	-8.47587
▁large	-8.4769
▁nouveau	-8.48113
▁peuvent	-8.4829
▁world	-8.48414
▁next	-8.48633
▁amendements	-8.49004
▁peu	-8.49152
▁issues	-8.49854
▁further	-8.50233
▁l’Union	-8.50269
▁sujet	-8.50311
▁ils	-8.50365
▁role	-8.50368
▁objectifs	-8.50651
▁autre	-8.51105
▁favour	-8.51145
▁millions	-8.51365
▁depuis	-8.51741
▁femmes	-8.51865
▁Members	-8.52562
▁alors	-8.52866
▁l'on	-8.52868
▁face	-8.53047
▁terms	-8.53055
▁:	-8.53148
▁problem	-8.53298
▁amendments	-8.53453
▁commissaire	-8.53604
▁monde	-8.53646
▁area	-8.53923
▁décision	-8.54391
▁come	-8.54488
▁produits	-8.54991
▁ici	-8.55271
▁règlement	-8.55277
▁again	-8.55451
▁agree	-8.55745
▁different	-8.55857
▁De	-8.55994
▁s	-8.56096
▁areas	-8.56137
!	-8.56371
▁façon	-8.56396
▁process	-8.56431
▁help	-8.56688
s,	-8.56697
▁Commissioner,	-8.56735
▁crois	-8.56797
▁What	-8.56894
▁nécessaire	-8.56923
▁proposals	-8.56973
▁jour	-8.57005
▁présent	-8.57171
▁better	-8.57232
▁Union.	-8.57275
▁matter	-8.57587
▁Commissaire,	-8.57887
▁entreprises	-8.57917
▁But	-8.57926
▁première	-8.57952
▁stratégie	-8.57998
▁principe	-8.58392
▁européenne,	-8.58527
▁contrôle	-8.58701
▁commune	-8.58949
▁trade	-8.59022
▁adopted	-8.59067
▁needs	-8.59253
▁House	-8.59539
▁Mesdames	-8.59906
▁ask	-8.60073
▁For	-8.60378
▁d’une	-8.60437
▁after	-8.60484
▁présidence	-8.60673
▁framework	-8.60731
▁present	-8.60867
▁wish	-8.61162
▁level	-8.61205
▁députés	-8.61291
▁eu	-8.61435
▁règles	-8.61609
que	-8.62163
▁quelques	-8.62168
▁bonne	-8.6222
▁aid	-8.62446
▁going	-8.627
▁women	-8.62798
▁mes	-8.62825
nt	-8.62898
▁second	-8.63189
▁Par	-8.63249
▁crise	-8.63368
▁nouveaux	-8.63402
▁change	-8.63825
▁après	-8.63841
▁done	-8.64024
▁resolution	-8.64059
▁towards	-8.6409
▁basis	-8.64107
▁few	-8.64354
▁européens	-8.64476
▁régions	-8.64637
▁fonds	-8.64657
▁ni	-8.64714
▁actions	-8.64722
▁l'homme	-8.64997
▁trois	-8.65273
▁vie	-8.65404
▁voted	-8.65619
▁working	-8.65967
▁lutte	-8.66074
▁garantir	-8.66268
▁sous	-8.66413
▁three	-8.66509
▁selon	-8.66643
▁something	-8.66703
▁year	-8.66883
▁positive	-8.66956
▁projet	-8.66965
▁parties	-8.67132
▁Présidente,	-8.67152
▁communication	-8.67233
▁Treaty	-8.67429
▁grand	-8.67518
▁fin	-8.67759
▁welcome	-8.67967
▁result	-8.68145
▁lui	-8.68174
▁recherche	-8.68238
▁remercier	-8.68243
▁rules	-8.68363
▁current	-8.68394
▁(	-8.68537
▁aspects	-8.68718
▁nouvelles	-8.68947
▁J'ai	-8.68964
▁progress	-8.69075
▁sector	-8.69348
▁clairement	-8.69518
▁bon	-8.69698
▁health	-8.69844
▁including	-8.70216
▁nombreux	-8.70253
▁population	-8.7074
▁vers	-8.70778
▁législation	-8.70993
▁really	-8.71694
▁provide	-8.7175
▁seront	-8.71821
▁cha	-8.7186
▁million	-8.72012
▁shall	-8.72053
dès	-8.72237
▁go	-8.72252
▁s'est	-8.72346
▁specific	-8.72583
▁group	-8.73002
▁voir	-8.73302
▁did	-8.7361
▁qualité	-8.73673
▁nécessité	-8.7368
▁voté	-8.73692
▁là	-8.73941
▁va	-8.73982
▁proposed	-8.74111
▁justice	-8.74189
▁especially	-8.74691
▁decision	-8.74767
▁during	-8.74816
▁initiative	-8.7485
▁every	-8.74941
▁increase	-8.75184
▁opportunity	-8.75232
▁pourrait	-8.75255
▁d’un	-8.75278
▁négociations	-8.75555
▁plusieurs	-8.75739
▁whole	-8.75921
▁trop	-8.76049
▁find	-8.76181
▁principle	-8.76423
▁environmental	-8.76696
▁State	-8.7681
▁become	-8.77255
▁procédure	-8.77515
▁premier	-8.77895
▁ma	-8.77966
▁autorités	-8.77989
▁greater	-8.78168
▁clearly	-8.78254
▁visant	-8.78505
▁States.	-8.78557
▁000	-8.78692
▁quite	-8.78723
▁œuvre	-8.78847
▁used	-8.78946
▁force	-8.79224
▁subject	-8.793
y	-8.79402
▁forward	-8.79755
▁concerned	-8.79787
▁aucun	-8.79792
▁surtout	-8.79886
▁rather	-8.80064
▁serious	-8.80355
▁Ces	-8.80358
▁certaines	-8.8036
▁Une	-8.80473
▁effective	-8.80498
▁maintenant	-8.80765
▁contribution	-8.80904
▁Europe,	-8.81216
▁They	-8.81247
-	-8.81331
▁least	-8.81356
▁cause	-8.81417
"	-8.81424
▁Messieurs,	-8.8167
▁reste	-8.81746
▁l'environnement	-8.81977
▁Group	-8.82059
▁chose	-8.82114
▁discussion	-8.82175
▁Nations	-8.82229
▁global	-8.82338
▁course,	-8.82757
▁service	-8.83016
▁always	-8.83099
▁tiens	-8.83309
▁?	-8.83338
▁mois	-8.83878
▁down	-8.84014
▁call	-8.84034
▁Elle	-8.84182
▁real	-8.84421
▁These	-8.84424
▁fundamental	-8.84474
▁voulons	-8.84633
▁No	-8.84696
▁account	-8.85068
▁ressources	-8.85141
▁making	-8.85158
▁legislation	-8.85238
▁law	-8.8542
▁avez	-8.85427
▁course	-8.85436
▁once	-8.8547
▁conséquent	-8.85493
▁opinion	-8.85622
▁Commission's	-8.85746
▁membre	-8.85763
▁qu'	-8.85955
▁together	-8.86027
▁it.	-8.86392
▁major	-8.86399
▁Presidency	-8.86489
▁another	-8.86506
▁prix	-8.86604
▁reason	-8.86642
▁donner	-8.86654
▁state	-8.86861
▁access	-8.86931
▁taking	-8.87192
▁employment	-8.87356
▁Et	-8.8737
▁general	-8.87537
▁approach	-8.87869
▁At	-8.8788
▁small	-8.87954
▁third	-8.88149
▁regulation	-8.88231
▁difficult	-8.88293
▁internal	-8.8853
▁deal	-8.88587
▁report.	-8.88593
▁democratic	-8.88682
▁research	-8.8869
▁based	-8.88713
▁Comme	-8.88728
▁achieve	-8.88731
▁get	-8.88749
▁essential	-8.8892
▁donné	-8.88935
▁various	-8.89061
▁main	-8.89642
▁lorsque	-8.89763
▁davantage	-8.89793
▁création	-8.90439
▁excellent	-8.90461
▁soutenir	-8.90602
▁responsibility	-8.90634
▁safety	-8.90801
▁each	-8.91028
▁membres.	-8.91041
▁1	-8.91048
▁responsabilité	-8.91222
▁elles	-8.9128
▁l'a	-8.91291
▁strategy	-8.91615
▁instruments	-8.91623
▁juridique	-8.9166
▁mis	-8.91774
▁constitue	-8.91919
▁impact	-8.92286
▁policies	-8.92572
▁société	-8.92594
▁L'	-8.92594
▁comment	-8.92609
▁example,	-8.92644
▁semble	-8.92826
▁negotiations	-8.92844
▁violence	-8.9305
▁implementation	-8.93332
▁while	-8.9348
▁allow	-8.93541
▁organisations	-8.93795
▁économiques	-8.94225
▁réponse	-8.94271
▁souligner	-8.94331
▁sorte	-8.94522
▁État	-8.94541
▁crisis	-8.94695
▁termes	-8.94778
▁souvent	-8.9524
▁toutefois	-8.95242
▁Au	-8.9534
▁look	-8.95559
▁région	-8.9556
▁européen.	-8.95571
▁consider	-8.95608
▁industry	-8.95692
▁avait	-8.95708
▁"	-8.95738
▁yet	-8.95846
▁Un	-8.9599
▁hand	-8.96083
▁qu'une	-8.96185
▁itself	-8.96438
▁initiatives	-8.96482
▁participation	-8.96496
▁EUR	-8.96599
▁aura	-8.96625
▁free	-8.96675
▁actuellement	-8.9695
▁propose	-8.96964
▁having	-8.96972
▁démocratie	-8.97048
▁type	-8.97156
▁single	-8.9729
▁travailleurs	-8.97528
▁liberté	-8.97544
▁affaires	-8.97575
▁back	-8.97662
▁progrès	-8.97714
▁différents	-8.98024
▁So	-8.98035
▁resources	-8.98603
▁aucune	-8.98639
▁ait	-8.98853
▁années	-8.98947
▁Convention	-8.98968
▁importante	-8.99233
▁coordination	-8.99449
▁authorities	-8.99639
▁countries.	-8.99654
▁gestion	-8.99722
▁lequel	-8.99737
▁telle	-8.99879
▁sociale	-8.99916
▁dernier	-8.99971
▁propos	-9.00137
▁croissance	-9.0018
▁nature	-9.00246
▁high	-9.00327
ed	-9.00382
▁full	-9.00547
▁étant	-9.00614
▁Toutefois	-9.00678
▁compris	-9.00854
▁souhaite	-9.00929
▁mieux	-9.01146
▁concerns	-9.01176
▁pris	-9.01218
▁possibilité	-9.01263
▁instrument	-9.01313
▁peut-être	-9.01465
▁demander	-9.01858
▁government	-9.01906
▁existe	-9.01922
▁final	-9.02052
▁d'abord	-9.02299
▁best	-9.0251
▁fully	-9.0262
▁celui	-9.02806
▁dernière	-9.02832
▁money	-9.02844
▁often	-9.02853
▁euro	-9.03115
▁simply	-9.03336
▁renforcer	-9.03364
▁collègues	-9.03392
▁culture	-9.03406
▁democracy	-9.03529
▁certainly	-9.03548
▁permettre	-9.03613
▁recent	-9.03619
▁rien	-9.03792
▁moyens	-9.03837
r	-9.0386
▁exemple	-9.03879
▁avis	-9.03891
▁communautaire	-9.03924
▁décisions	-9.03952
▁européen,	-9.03958
▁sûr	-9.04017
▁terme	-9.04306
▁regions	-9.04339
▁nombreuses	-9.04385
ment	-9.04658
▁domaines	-9.04759
▁commerce	-9.04838
▁relation	-9.04854
▁période	-9.04857
▁agricultural	-9.04866
▁créer	-9.04887
▁données	-9.04983
▁'	-9.05036
▁interests	-9.05053
▁bring	-9.05071
▁States,	-9.05078
▁devraient	-9.05151
▁pêche	-9.05168
▁step	-9.05283
▁extremely	-9.05439
▁quelque	-9.05567
▁discussions	-9.05582
▁freedom	-9.05683
▁deuxième	-9.06316
▁food	-9.06359
▁(DE)	-9.06442
▁her	-9.06549
▁aware	-9.06556
▁normes	-9.06839
▁tel	-9.06872
▁create	-9.06888
▁d'être	-9.06913
▁Enfin	-9.07198
▁quality	-9.07228
▁accords	-9.07595
▁trouver	-9.07671
▁texte	-9.07902
▁majority	-9.08322
▁groupes	-9.08337
▁reform	-9.08519
▁résultats	-9.08568
▁growth	-9.0869
▁following	-9.08816
▁policy.	-9.08974
▁européennes	-9.09021
▁internationale	-9.09107
▁simplement	-9.09135
▁France	-9.09169
▁(EN)	-9.09172
▁things	-9.09303
▁majorité	-9.09382
▁exemple,	-9.09481
▁accept	-9.09524
▁might	-9.09859
▁involved	-9.09897
▁qu'un	-9.09952
▁pu	-9.09956
▁actually	-9.09974
▁developing	-9.09986
▁Parliament,	-9.10089
▁financement	-9.10161
▁power	-9.10233
▁voie	-9.1027
▁celle	-9.10334
▁Government	-9.10628
▁10	-9.10789
▁unique	-9.1088
▁Union,	-9.11105
▁fight	-9.11435
▁20	-9.115
▁projets	-9.11561
▁devrions	-9.11599
▁d'accord	-9.1182
▁concurrence	-9.11824
▁écrit.	-9.11882
▁juste	-9.11918
▁solutions	-9.11941
▁local	-9.11972
▁sens	-9.12207
▁improve	-9.12393
▁application	-9.1242
▁products	-9.12453
▁consommateurs	-9.12616
▁To	-9.12627
▁s'	-9.12729
▁Let	-9.12991
▁amendment	-9.13074
▁committee	-9.13105
▁regional	-9.13145
a	-9.13164
▁Article	-9.13234
ant	-9.13437
▁réforme	-9.1344
▁form	-9.13592
▁Finally	-9.1374
▁report,	-9.13754
▁objectif	-9.1382
▁companies	-9.14008
▁currently	-9.14081
▁collègues,	-9.14129
▁concerning	-9.14264
▁decisions	-9.14463
ons	-9.14561
▁l'ensemble	-9.14773
▁Président	-9.1489
▁document	-9.14904
▁Court	-9.14928
▁indeed	-9.15089
▁economy	-9.15213
▁objectives	-9.15229
▁procedure	-9.15239
▁And	-9.15358
▁society	-9.15403
▁cependant	-9.15483
▁Lisbon	-9.15576
▁choses	-9.15804
▁You	-9.16047
▁climate	-9.16063
▁vraiment	-9.16118
▁dispositions	-9.16136
▁conclusions	-9.16168
▁concern	-9.16182
▁marchés	-9.16264
▁essentiel	-9.16527
▁intérêts	-9.1653
▁control	-9.16602
▁environment	-9.16666
▁entendu	-9.16832
▁example	-9.17024
▁l'avenir	-9.1728
▁six	-9.17356
▁n'y	-9.17361
▁C’est	-9.17586
▁Vous	-9.17717
▁standards	-9.17725
▁seule	-9.17744
▁understand	-9.17954
▁contexte	-9.17978
▁Assemblée	-9.18062
▁Conseil,	-9.18363
▁convient	-9.18453
▁quant	-9.18702
▁forces	-9.18711
▁meeting	-9.18742
▁due	-9.18772
▁l'accord	-9.1886
▁nécessaires	-9.19021
▁appropriate	-9.19025
▁quand	-9.19031
▁let	-9.19084
▁less	-9.19141
▁plutôt	-9.19155
▁start	-9.19309
▁principes	-9.19355
▁propre	-9.19371
▁extrêmement	-9.19414
▁funds	-9.19446
▁open	-9.1945
▁États-Unis	-9.19451
▁ans	-9.19464
▁stabilité	-9.19502
▁key	-9.19592
▁Cour	-9.19691
▁général	-9.19804
▁interest	-9.19939
▁message	-9.19946
▁risk	-9.2003
▁ailleurs	-9.20045
▁n'ont	-9.2032
▁changement	-9.20368
▁l'article	-9.20385
▁With	-9.2047
▁rendre	-9.20522
▁15	-9.20633
▁font	-9.20711
▁text	-9.2084
▁children	-9.20962
▁dernières	-9.20999
▁relative	-9.20999
ticulièrement	-9.21027
t	-9.21078
▁2	-9.21295
▁responsible	-9.21328
▁égard	-9.21566
▁jamais	-9.21646
d	-9.2175
▁crucial	-9.21769
▁compromis	-9.22322
es	-9.22355
▁mentioned	-9.22358
ait	-9.22366
▁period	-9.22574
▁approche	-9.22612
▁raisons	-9.22762
▁them.	-9.22847
er	-9.2287
▁Parliament.	-9.23027
▁Parliament's	-9.23137
▁competition	-9.23163
▁l'emploi	-9.23221
▁regards	-9.23263
▁tels	-9.23501
▁c’est	-9.23507
▁objective	-9.23583
▁12	-9.23594
’s	-9.23647
▁individual	-9.23752
▁volonté	-9.23901
▁suite	-9.23934
▁joint	-9.2398
▁Cependant	-9.24065
▁réduire	-9.24103
▁puisse	-9.24209
▁promotion	-9.24318
▁pays.	-9.2432
▁informations	-9.2432
▁possible.	-9.24441
▁risque	-9.24514
▁activités	-9.24578
▁doing	-9.24597
▁countries,	-9.24936
▁membres,	-9.25164
▁members	-9.25175
▁feel	-9.25377
▁année	-9.25409
▁though	-9.25444
▁répondre	-9.25542
▁n’est	-9.2555
▁peace	-9.25634
▁Council,	-9.2571
▁states	-9.2582
▁rapport.	-9.25939
▁devant	-9.26035
▁among	-9.26146
▁education	-9.26353
▁chers	-9.26432
▁civil	-9.26581
▁paix	-9.26619
▁available	-9.26744
▁data	-9.26797
▁clair	-9.26937
▁peux	-9.27168
▁aide	-9.2719
▁systèmes	-9.27293
▁conséquences	-9.27335
▁collègue	-9.27498
▁moyen	-9.27577
se	-9.27592
▁lack	-9.27686
▁doute	-9.27695
▁promote	-9.27745
▁cases	-9.27998
▁writing.	-9.28018
▁Fonds	-9.281
▁déclaration	-9.28128
▁simple	-9.2814
▁although	-9.28182
▁parler	-9.28255
▁discrimination	-9.28435
▁preuve	-9.28513
▁agreements	-9.28597
▁meilleure	-9.28668
▁l'aide	-9.28797
▁draft	-9.2897
▁appelle	-9.28976
▁savons	-9.29125
▁efficace	-9.2915
▁congratulate	-9.29252
▁significant	-9.29371
▁enlargement	-9.29405
▁legislative	-9.29412
▁titre	-9.29421
▁aim	-9.2956
▁Tout	-9.29562
▁results	-9.2961
▁direction	-9.29655
▁réalité	-9.29692
▁grâce	-9.2979
▁field	-9.29946
▁My	-9.29967
▁kind	-9.29985
▁remercie	-9.30048
▁longer	-9.30058
▁thing	-9.30092
▁pendant	-9.30165
▁note	-9.30235
▁commitment	-9.30381
▁3	-9.30422
▁difficile	-9.30437
▁zone	-9.30563
▁ago	-9.30576
▁little	-9.30676
▁principles	-9.30694
▁5	-9.30738
▁sure	-9.30781
▁question.	-9.30822
▁special	-9.30834
▁perhaps	-9.31134
▁vu	-9.3114
▁strong	-9.31265
▁mean	-9.31398
▁tax	-9.31613
▁prevent	-9.31636
▁gouvernements	-9.31724
▁Amendment	-9.31773
▁include	-9.31846
▁idea	-9.321
▁sustainable	-9.32234
▁différentes	-9.32314
▁effort	-9.32344
▁nuclear	-9.32578
▁guarantee	-9.32632
▁rapidement	-9.32632
▁all,	-9.32661
▁;	-9.32667
▁taux	-9.32761
▁féliciter	-9.32809
▁provided	-9.32871
▁Turkey	-9.33039
▁compromise	-9.33109
▁telles	-9.33144
▁regarding	-9.33191
▁rapports	-9.33213
▁réduction	-9.33233
▁young	-9.33243
▁life	-9.33309
▁lead	-9.33339
▁transparence	-9.33642
▁forme	-9.33656
▁total	-9.33658
▁aurait	-9.33742
▁représente	-9.33775
▁others	-9.34142
▁régime	-9.34246
▁workers	-9.34303
▁véritable	-9.34422
▁seul	-9.34518
▁sommet	-9.34567
".	-9.34863
▁foreign	-9.34998
▁date	-9.35099
▁management	-9.35136
▁critères	-9.35325
▁qu'à	-9.3538
▁assurer	-9.35435
▁nothing	-9.35518
▁labour	-9.35528
▁ensemble	-9.35573
▁makes	-9.35638
▁needed	-9.35702
▁assistance	-9.35811
▁ministre	-9.35854
▁above	-9.35941
▁trouve	-9.36155
▁relatives	-9.36183
▁several	-9.36223
▁signifie	-9.36253
▁Ils	-9.36383
▁line	-9.36393
▁intérieur	-9.36503
▁funding	-9.36631
▁themselves	-9.36768
▁act	-9.36811
▁publique	-9.36926
▁Our	-9.36954
▁comes	-9.36973
▁seen	-9.36981
-in-Office	-9.3707
▁addition	-9.37138
▁agreed	-9.37165
▁remain	-9.37258
▁aspect	-9.37265
▁solidarité	-9.37384
▁enfants	-9.37419
▁jeunes	-9.37425
▁personne	-9.3787
▁formation	-9.37894
▁dimension	-9.37914
▁procédures	-9.37914
▁Constitution	-9.38071
▁qu'en	-9.38374
▁Affairs	-9.38532
▁conclusion	-9.38567
▁costs	-9.38641
▁projects	-9.38694
▁uniquement	-9.3899
▁30	-9.39255
▁confiance	-9.39291
▁tiers	-9.39341
▁play	-9.39428
▁reasons	-9.3944
▁governments	-9.39625
▁intervention	-9.397
▁certainement	-9.39787
▁11	-9.39905
▁months	-9.4029
▁exercice	-9.4034
▁technical	-9.40422
▁rappeler	-9.40458
▁adopté	-9.4046
▁promouvoir	-9.40575
▁construction	-9.40624
▁réellement	-9.40655
▁upon	-9.40763
▁libre	-9.40866
▁l'amendement	-9.40961
▁priority	-9.41028
▁groups	-9.41087
▁résultat	-9.41314
▁seems	-9.41374
▁this.	-9.41596
▁valeurs	-9.41601
▁pay	-9.41611
▁démocratique	-9.41719
▁J'espère	-9.41749
▁outre,	-9.4175
▁apply	-9.41809
▁prises	-9.41989
▁25	-9.42002
▁plans	-9.42088
▁pleased	-9.4212
▁benefit	-9.42159
▁sanctions	-9.42197
▁mention	-9.42203
▁prise	-9.42214
▁existing	-9.42425
▁consumer	-9.42486
▁true	-9.4249
▁n'	-9.42508
▁consumers	-9.42596
▁Bien	-9.42667
▁One	-9.42691
▁share	-9.4271
▁propres	-9.42733
▁activities	-9.42922
▁améliorer	-9.42969
▁move	-9.42988
▁l’	-9.43015
▁s'il	-9.43024
▁veut	-9.43069
▁enough	-9.4327
▁Parlement.	-9.43353
▁tenir	-9.43406
▁présente	-9.43551
▁context	-9.4371
▁mondiale	-9.43797
▁l'importance	-9.43843
▁frontières	-9.43979
▁grandes	-9.44021
▁Secondly,	-9.44099
▁Union's	-9.44299
▁words	-9.44339
▁inter	-9.4453
▁future.	-9.44567
▁Des	-9.44606
▁express	-9.44681
▁motion	-9.44806
▁agricole	-9.44978
▁l'industrie	-9.45038
▁documents	-9.45083
▁perspective	-9.45122
▁effect	-9.45159
▁Turquie	-9.45245
▁durable	-9.45302
ly	-9.45328
▁financière	-9.45465
▁autant	-9.45503
▁until	-9.45548
▁parti	-9.45592
▁rapporteurs	-9.45635
▁speak	-9.45639
▁vital	-9.45766
▁évidemment	-9.4579
▁adopt	-9.45856
▁dois	-9.46082
▁Kosovo	-9.46083
▁consensus	-9.46219
▁technologies	-9.46253
▁Communauté	-9.46348
▁Parlement,	-9.46488
particulièrement	-9.46757
▁basic	-9.46802
▁voting	-9.47071
▁protéger	-9.47145
▁active	-9.47191
▁directives	-9.47202
▁petites	-9.47206
▁carried	-9.47293
▁manque	-9.47345
▁Minister	-9.47438
▁response	-9.47559
▁achieved	-9.47596
▁Directive	-9.47682
▁vigueur	-9.47745
▁police	-9.47754
▁never	-9.47777
▁direct	-9.48126
▁region	-9.48208
▁nationaux	-9.4824
▁concept	-9.48247
▁military	-9.48263
▁solidarity	-9.48281
▁provisions	-9.48419
▁cultural	-9.4844
▁l'économie	-9.4848
▁qu'elles	-9.48531
▁absolument	-9.48646
▁transparency	-9.48667
▁l'année	-9.48847
▁cohésion	-9.49094
▁relating	-9.49195
▁étaient	-9.4922
▁contraire	-9.49329
▁protect	-9.49605
▁matters	-9.49669
▁reduce	-9.49676
▁asked	-9.49853
▁4	-9.49885
▁changes	-9.49909
▁namely	-9.49996
▁encourage	-9.50093
▁show	-9.50113
▁victimes	-9.50118
▁zones	-9.50226
▁veiller	-9.50335
▁creation	-9.50386
▁rural	-9.5052
▁commun	-9.50721
▁sources	-9.50765
▁chance	-9.50859
▁reports	-9.51028
▁respecter	-9.5111
▁balance	-9.51133
▁minimum	-9.51163
▁accession	-9.51232
▁d'avoir	-9.51245
▁saying	-9.51267
▁All	-9.51277
▁agenda	-9.51309
▁début	-9.5132
▁soon	-9.51325
▁close	-9.51346
▁investment	-9.51351
▁éléments	-9.51359
▁equal	-9.51458
▁held	-9.51517
▁Council.	-9.51538
▁paragraphe	-9.51747
▁increasing	-9.52015
▁Conseil.	-9.52038
▁celles	-9.52074
▁draw	-9.5208
▁parmi	-9.52196
▁capital	-9.5226
▁coûts	-9.52262
▁meet	-9.52266
▁thus	-9.52267
▁l'utilisation	-9.52268
▁item	-9.52357
▁market.	-9.52443
▁When	-9.52528
▁policy,	-9.52589
▁présenter	-9.52761
▁integration	-9.52829
▁obligations	-9.52845
▁jusqu'à	-9.52951
▁him	-9.52956
▁totalement	-9.52986
▁business	-9.53054
▁tenu	-9.53136
▁moi	-9.5317
▁tabled	-9.53297
▁centrale	-9.53316
▁throughout	-9.53339
▁d’autres	-9.53461
▁référence	-9.53519
▁develop	-9.53634
▁Russie	-9.53675
▁increased	-9.53714
▁Thank	-9.53756
▁quel	-9.53782
▁demandé	-9.53792
▁défense	-9.53838
▁met	-9.53851
▁financières	-9.53968
▁collaboration	-9.54008
▁continuer	-9.54063
▁guerre	-9.54103
▁ourselves	-9.54407
▁réunion	-9.54496
▁l’Europe	-9.54569
▁presented	-9.54582
▁budgetary	-9.54616
▁élections	-9.54865
▁everyone	-9.54947
▁called	-9.5503
▁relevant	-9.55045
▁voter	-9.55053
▁parvenir	-9.55069
▁stability	-9.552
▁jobs	-9.55215
▁everything	-9.55228
▁l'objet	-9.55233
▁priorité	-9.55266
▁rule	-9.55478
▁grands	-9.55701
▁keep	-9.55708
▁pratique	-9.55954
▁capacité	-9.56024
▁project	-9.56048
▁vrai	-9.56102
▁précisément	-9.56326
▁transports	-9.56338
▁sense	-9.56464
▁urgent	-9.56484
▁values	-9.56698
▁tell	-9.56782
▁external	-9.56989
▁mission	-9.57002
▁dépenses	-9.57039
▁systems	-9.57047
▁occasion	-9.57063
▁qu'on	-9.5711
▁fishing	-9.57182
▁traitement	-9.57219
▁answer	-9.5735
▁statement	-9.5758
▁lesquels	-9.5758
▁développer	-9.57658
▁combat	-9.57673
▁administrative	-9.57758
▁around	-9.57766
▁importants	-9.57856
▁off	-9.57898
▁proposé	-9.57913
▁accepter	-9.58088
▁time.	-9.58289
▁priorités	-9.58299
▁consultation	-9.5838
▁(PL)	-9.58419
▁d’	-9.58491
▁quatre	-9.58511
▁address	-9.58578
▁mind	-9.5858
▁réformes	-9.58584
▁UN	-9.58709
▁gens	-9.58771
▁pleinement	-9.58924
▁previous	-9.58937
▁l'heure	-9.58971
▁permettant	-9.5904
▁financiers	-9.59056
▁secteurs	-9.59075
▁she	-9.5909
▁using	-9.59164
▁request	-9.59208
▁markets	-9.59219
▁budgétaire	-9.59343
▁eux	-9.59454
▁puissent	-9.59467
▁amendement	-9.59703
▁partenaires	-9.59761
▁vos	-9.59801
▁valeur	-9.59964
▁générale	-9.59983
▁establish	-9.59989
▁nationales	-9.60034
▁situation.	-9.60085
▁considère	-9.60155
▁condition	-9.60173
▁fondamentaux	-9.60194
▁travailler	-9.60196
▁Notre	-9.60257
▁years.	-9.60354
▁impossible	-9.60378
▁consequences	-9.60383
▁pourra	-9.60431
▁résoudre	-9.60455
▁decided	-9.60471
▁présenté	-9.60545
▁talking	-9.60554
▁2000	-9.60586
▁peuple	-9.60591
▁rights.	-9.60631
▁across	-9.60714
▁financier	-9.60949
▁Therefore,	-9.61003
▁colleagues	-9.61169
▁temps,	-9.61175
▁l'UE.	-9.61205
▁four	-9.61234
▁prepared	-9.61255
▁renforcement	-9.61333
▁substances	-9.61354
▁value	-9.61377
▁moi,	-9.61566
▁expressed	-9.61667
▁potential	-9.61725
/	-9.61784
▁50	-9.61806
▁regulations	-9.6182
▁produit	-9.61919
▁demand	-9.61992
▁travail.	-9.6203
▁vient	-9.62035
▁Russia	-9.62059
▁d'action	-9.62288
▁try	-9.62415
▁opportunities	-9.62417
▁personnel	-9.62446
▁quoi	-9.62525
▁l'occasion	-9.62627
▁D	-9.62662
▁C	-9.62671
▁monitoring	-9.63012
▁agriculture	-9.63024
▁adoption	-9.63041
▁important.	-9.63062
▁côté	-9.63064
▁road	-9.63083
▁«	-9.63121
▁session	-9.63273
▁félicite	-9.63309
▁pratiques	-9.63378
▁statut	-9.63461
▁difficultés	-9.63504
▁cinq	-9.63565
▁absolutely	-9.63622
▁perspectives	-9.63693
▁communauté	-9.63747
▁sociaux	-9.63777
▁attitude	-9.63792
▁pourraient	-9.63807
»	-9.63879
▁enable	-9.63946
▁dû	-9.63983
▁Chine	-9.64012
▁focus	-9.64026
▁l'élargissement	-9.64065
re	-9.64088
▁6	-9.64093
▁required	-9.6419
▁partenariat	-9.64254
▁partage	-9.64254
▁private	-9.64302
▁rapport,	-9.64532
▁pressure	-9.64577
▁illegal	-9.64588
▁l'objectif	-9.64625
▁Lisbonne	-9.64632
▁structure	-9.6464
▁loin	-9.64738
▁movement	-9.64746
▁French	-9.64763
▁travers	-9.64833
▁exigences	-9.6484
▁série	-9.64846
▁reached	-9.64976
▁fellow	-9.64981
▁malheureusement	-9.65031
▁requirements	-9.65046
▁coming	-9.65061
▁semaine	-9.65167
▁Deuxièmement	-9.65275
▁implement	-9.65312
▁poverty	-9.6541
▁doubt	-9.65543
▁job	-9.65642
▁five	-9.65751
▁actuelle	-9.65783
▁conférence	-9.65829
▁besoins	-9.65831
▁past	-9.65833
▁talk	-9.65855
▁quelle	-9.65911
▁permet	-9.66
▁times	-9.66092
▁poursuivre	-9.66097
▁constituent	-9.66132
▁central	-9.66331
▁ensuite	-9.66335
▁train	-9.66373
▁farmers	-9.66378
▁short	-9.66458
▁pauvreté	-9.66507
▁year.	-9.66522
▁contribuer	-9.66601
▁reduction	-9.6667
▁stress	-9.66682
▁permis	-9.66759
▁commencer	-9.66777
▁2004	-9.66791
▁permettra	-9.66797
▁practice	-9.66835
▁positions	-9.66859
▁vis-à-vis	-9.66904
▁publics	-9.67016
▁possibilités	-9.67143
▁fisheries	-9.6736
▁fair	-9.67532
▁compétences	-9.67603
▁raised	-9.6768
▁hommes	-9.67816
▁brought	-9.6784
▁modèle	-9.67865
▁lutter	-9.67883
▁jouer	-9.67892
▁assez	-9.67979
▁enfin	-9.68009
▁circulation	-9.68115
▁review	-9.68274
▁outside	-9.6833
▁convention	-9.6836
▁fort	-9.68429
▁giving	-9.6845
▁situations	-9.68498
▁included	-9.68508
▁task	-9.68511
▁reach	-9.68695
▁d'euros	-9.68855
▁prochaine	-9.69002
▁thanks	-9.6901
▁structural	-9.69068
▁China	-9.69146
▁cohesion	-9.69155
▁risques	-9.69265
▁recently	-9.69453
▁peine	-9.69484
▁effets	-9.6952
▁représentants	-9.69605
▁commercial	-9.69632
▁experience	-9.69655
▁l'un	-9.69714
▁completely	-9.6975
▁travaux	-9.69763
▁organisation	-9.6984
▁structures	-9.69923
▁énergétique	-9.69954
▁considération	-9.6996
▁aides	-9.69975
▁S	-9.70031
▁éviter	-9.70116
▁l'agriculture	-9.70134
▁ayant	-9.70169
▁directive.	-9.70183
▁level.	-9.70207
▁1999	-9.70256
▁day	-9.70288
▁derniers	-9.70292
▁réglementation	-9.70317
▁representatives	-9.70323
▁sais	-9.70365
▁took	-9.7037
▁additional	-9.70395
▁séance	-9.70402
▁engagement	-9.70484
▁influence	-9.70503
▁l’UE	-9.70587
▁ministres	-9.70646
▁along	-9.70767
▁criteria	-9.70915
▁ensuring	-9.71027
▁puisque	-9.7109
▁passer	-9.71094
▁pression	-9.71109
▁EU's	-9.71155
▁almost	-9.71163
▁source	-9.71169
▁Firstly	-9.71276
▁plupart	-9.71313
▁powers	-9.71386
▁apporter	-9.71399
▁milliards	-9.71403
▁crime	-9.71439
▁supported	-9.71475
▁8	-9.71521
▁révision	-9.71663
▁years,	-9.71807
▁world.	-9.71834
aient	-9.71936
▁L'Union	-9.72035
▁cost	-9.72096
▁British	-9.72156
▁International	-9.72202
▁institution	-9.72213
▁lesquelles	-9.72261
▁amount	-9.72273
▁l'État	-9.72304
▁d'ailleurs	-9.72349
▁possibility	-9.72369
▁procedures	-9.72392
▁Or	-9.7242
▁established	-9.72469
▁investissements	-9.72477
▁Development	-9.72549
▁vont	-9.72552
▁fonctionnement	-9.72651
▁Furthermore	-9.72701
▁Party	-9.72709
▁natural	-9.72793
▁live	-9.728
▁creating	-9.72808
▁conflict	-9.72918
▁water	-9.73122
▁importantes	-9.7313
▁l'application	-9.7325
▁décidé	-9.73268
▁work.	-9.73296
▁lot	-9.7332
▁strengthen	-9.73486
▁effects	-9.73492
▁either	-9.7354
▁priorities	-9.7357
▁competitiveness	-9.73606
▁air	-9.7362
▁term	-9.7362
▁troisième	-9.73644
▁comprendre	-9.73779
▁devoir	-9.73817
▁conclure	-9.73883
▁compétitivité	-9.73947
▁mêmes	-9.7422
▁found	-9.7422
▁réjouis	-9.74284
▁déclaré	-9.74286
▁porte	-9.74345
▁Europe's	-9.7435
▁danger	-9.7436
▁light	-9.74365
▁aujourd’hui	-9.74377
▁stage	-9.74381
▁défis	-9.74424
▁choix	-9.74442
▁Rights	-9.74572
▁près	-9.74704
▁responsables	-9.74716
▁7	-9.74784
n	-9.74793
’	-9.74819
▁practical	-9.74834
▁training	-9.7485
▁l'ordre	-9.74886
▁conformément	-9.74927
▁war	-9.74982
▁takes	-9.75145
▁package	-9.75155
▁waste	-9.75299
▁price	-9.75374
▁remains	-9.7538
▁charge	-9.75424
▁parliamentary	-9.75448
▁parole	-9.75463
▁nor	-9.75479
▁you,	-9.75544
▁chacun	-9.75569
▁today.	-9.75574
▁l'adoption	-9.75628
▁Of	-9.75727
▁proper	-9.75778
▁phase	-9.75795
▁2009	-9.7585
▁heard	-9.75929
▁budgets	-9.75978
▁US	-9.76017
▁success	-9.76035
▁c'est-à-dire	-9.76083
▁aider	-9.76096
▁constater	-9.76112
▁unies	-9.76143
▁year,	-9.76147
▁l'énergie	-9.76379
▁parlementaire	-9.76379
▁add	-9.76451
▁billion	-9.76457
▁Republic	-9.76526
▁soutiens	-9.76531
▁received	-9.76591
▁devra	-9.76594
▁offer	-9.76621
▁responsabilités	-9.76799
▁extent	-9.76854
▁18	-9.76934
▁begin	-9.77056
▁living	-9.77115
'.	-9.77135
▁succès	-9.77138
▁behind	-9.77299
▁citizens.	-9.77325
▁He	-9.77342
▁2005	-9.77407
▁avoid	-9.77441
▁certaine	-9.77452
▁liste	-9.7747
▁discuss	-9.77486
▁Permettez-moi	-9.77586
▁adopter	-9.77613
▁pensons	-9.77678
▁expect	-9.77716
▁turn	-9.77767
▁spécifiques	-9.77882
▁presidency	-9.77896
▁vise	-9.77964
▁grave	-9.78094
▁victims	-9.78112
▁week	-9.7818
▁République	-9.78276
▁fournir	-9.78297
▁mener	-9.78359
▁d'entre	-9.78438
▁effectivement	-9.78751
▁aimed	-9.78826
▁despite	-9.78838
▁capable	-9.78909
▁ever	-9.78926
▁Central	-9.79016
▁internationales	-9.79027
▁elections	-9.79136
▁Schengen	-9.79139
▁chômage	-9.79162
▁challenges	-9.79279
▁changements	-9.79394
▁acceptable	-9.79399
▁opposition	-9.79409
▁27	-9.79452
▁s’agit	-9.79663
▁votes	-9.79688
▁humanitarian	-9.79758
▁veux	-9.79762
▁contribute	-9.79819
▁quickly	-9.79893
▁donne	-9.79904
▁introduction	-9.79932
c	-9.79974
▁discussed	-9.79974
▁precisely	-9.80027
▁désormais	-9.80072
▁l'égard	-9.80089
▁supplémentaires	-9.80099
▁trying	-9.80147
▁montre	-9.80239
▁vision	-9.80317
▁9	-9.80356
▁First	-9.80408
▁violations	-9.80489
▁left	-9.80584
▁souhaiterais	-9.80648
▁scope	-9.80663
▁remind	-9.8073
▁(PT)	-9.80761
▁décembre	-9.80852
▁émissions	-9.80852
▁approved	-9.80994
▁shown	-9.81066
▁rights,	-9.81066
▁list	-9.81113
▁candidats	-9.81131
▁issue.	-9.81158
▁assessment	-9.81175
▁2003	-9.81221
▁Economic	-9.81289
▁away	-9.81351
▁techniques	-9.8137
▁World	-9.81389
▁caractère	-9.81407
▁implemented	-9.81529
▁élément	-9.81587
z	-9.81734
ions	-9.81753
▁constructive	-9.81796
▁signal	-9.81829
▁December	-9.81873
▁honourable	-9.81938
▁récemment	-9.82033
▁carry	-9.82039
▁surveillance	-9.82087
▁jours	-9.82175
▁area.	-9.82256
▁années,	-9.82271
▁accordance	-9.8229
▁providing	-9.82404
▁loi	-9.82477
▁mandat	-9.82487
▁huge	-9.8253
▁Nos	-9.82535
▁court	-9.82568
▁men	-9.82783
▁applied	-9.82798
▁l'Europe.	-9.82819
▁reforms	-9.82848
▁alimentaire	-9.83023
▁j’ai	-9.83094
▁sort	-9.83175
).	-9.83193
▁civile	-9.83248
▁improving	-9.83261
▁confidence	-9.83392
▁quotas	-9.83413
▁Ireland	-9.83418
▁maintenir	-9.83515
▁events	-9.83551
▁considered	-9.83662
▁yeux	-9.83695
▁personal	-9.83711
▁according	-9.83725
▁indispensable	-9.83758
▁reference	-9.83774
▁monde.	-9.83786
▁qu’elle	-9.83842
▁treatment	-9.8389
▁européens.	-9.8396
▁pose	-9.83974
▁Voilà	-9.84007
▁via	-9.84042
▁suffisamment	-9.84074
▁consiste	-9.84109
▁partners	-9.84175
▁here.	-9.84229
▁pollution	-9.84251
▁goes	-9.84424
▁j'espère	-9.84484
▁instead	-9.84548
▁libertés	-9.84553
▁partir	-9.84695
▁EU.	-9.84697
▁demain	-9.84815
▁stop	-9.8485
▁immigration	-9.84893
▁13	-9.84961
▁old	-9.84971
▁criminal	-9.85028
▁provides	-9.85052
▁people.	-9.85064
▁Group.	-9.85073
▁malgré	-9.85118
▁(FR)	-9.85204
▁vote.	-9.8522
▁longtemps	-9.85239
▁model	-9.85271
▁capacity	-9.85398
▁n’a	-9.85408
▁sectors	-9.8542
▁(IT)	-9.85445
▁biais	-9.85452
▁process.	-9.85464
▁connection	-9.85495
▁rate	-9.85513
▁dix	-9.85513
▁guidelines	-9.85556
▁defence	-9.85605
▁2002	-9.8566
▁rightly	-9.85867
▁opinion,	-9.85874
▁relatif	-9.86002
▁favorable	-9.86058
▁allowed	-9.86115
▁puis	-9.86188
▁Now	-9.86228
▁passé	-9.86245
▁community	-9.86378
▁alternative	-9.86492
▁allons	-9.86527
▁communautaires	-9.86528
▁businesses	-9.86613
▁politique.	-9.86621
▁prices	-9.86639
▁care	-9.86698
▁calls	-9.86728
▁content	-9.86729
▁emissions	-9.868
▁implementing	-9.86826
▁Social	-9.86831
▁maritime	-9.86834
▁animal	-9.86862
▁causes	-9.86865
▁reading	-9.86907
▁l'Union.	-9.86918
▁per	-9.86923
▁agriculteurs	-9.86924
▁l'accès	-9.87031
à	-9.87092
▁former	-9.87122
▁committed	-9.87129
▁présence	-9.87147
▁atteindre	-9.87267
▁considerable	-9.87325
▁obtenir	-9.87379
▁institutional	-9.87379
▁obstacles	-9.87394
▁independent	-9.87584
▁unfortunately	-9.87647
▁n'avons	-9.87697
▁rapide	-9.8773
é	-9.87807
▁mondial	-9.8797
▁promoting	-9.87996
▁terrorisme	-9.88019
▁family	-9.88113
▁déclarations	-9.88132
▁Conference	-9.88185
▁prévoit	-9.88331
▁forte	-9.88379
▁centre	-9.88435
▁receive	-9.88553
▁specifically	-9.88566
▁territoire	-9.8862
▁us.	-9.88634
▁souligné	-9.88651
▁dealing	-9.88684
▁M	-9.8869
▁conflit	-9.88726
▁développement.	-9.88743
▁fonction	-9.88755
▁sociales	-9.88756
▁importe	-9.88844
▁2020	-9.88867
▁libéralisation	-9.88886
▁regret	-9.88889
▁intention	-9.88971
▁suivi	-9.88976
▁d'autre	-9.88987
▁maximum	-9.89091
▁Banque	-9.89243
▁levels	-9.89252
▁Human	-9.89296
▁stated	-9.89487
▁colleague	-9.89569
▁actuel	-9.8962
▁ligne	-9.89626
▁prévention	-9.89638
▁adoptée	-9.89653
▁asylum	-9.89663
▁parfois	-9.897
▁developed	-9.89719
▁veulent	-9.89762
▁beginning	-9.8989
▁engagements	-9.89911
▁return	-9.89919
▁forms	-9.89946
▁point.	-9.89954
▁benefits	-9.8999
▁lignes	-9.90016
▁long-term	-9.90106
▁rapporteur.	-9.90121
▁ans,	-9.90136
▁mer	-9.9023
▁comptes	-9.90258
▁country.	-9.90364
▁overall	-9.90401
▁mal	-9.90622
▁outre	-9.90687
▁l'égalité	-9.9071
▁know,	-9.90863
▁affected	-9.90871
▁provision	-9.90878
▁Sur	-9.90912
▁reality	-9.90934
▁country,	-9.90939
▁faisant	-9.91036
▁scientific	-9.91123
▁auquel	-9.91159
▁responsable	-9.91265
▁nations	-9.91267
▁goods	-9.91303
▁bonnes	-9.91341
▁requires	-9.91432
▁Fund	-9.91449
▁restrictions	-9.91476
▁directement	-9.915
▁liés	-9.91531
▁meilleur	-9.91618
▁finally	-9.91655
▁death	-9.91699
▁strategic	-9.91763
▁hard	-9.91834
▁l’homme	-9.91965
▁Today	-9.91985
▁stand	-9.91997
▁populations	-9.92019
▁emplois	-9.92089
▁profit	-9.92149
▁accès	-9.92168
▁May	-9.92391
▁producteurs	-9.92452
▁Présidence	-9.92486
▁referred	-9.92515
▁sociétés	-9.92536
▁disposition	-9.9257
▁événements	-9.92574
▁Irish	-9.92615
▁table	-9.92703
▁difficulties	-9.9275
▁exchange	-9.92765
▁maintain	-9.92795
▁days	-9.92832
▁paquet	-9.92833
▁pourrons	-9.92838
▁juridiques	-9.9286
▁réaliser	-9.92939
▁beyond	-9.9295
▁citoyens.	-9.92956
▁innovation	-9.92962
▁rester	-9.9298
▁crimes	-9.92985
▁Justice	-9.93011
▁industrial	-9.93089
▁définition	-9.93143
▁100	-9.93262
▁partnership	-9.93275
▁Regulation	-9.93294
▁40	-9.93377
▁June	-9.93405
▁juin	-9.93556
▁reçu	-9.93619
▁created	-9.93656
▁envers	-9.93667
▁Premièrement	-9.93733
▁devenir	-9.93795
▁monétaire	-9.93839
▁principal	-9.93963
▁side	-9.94012
▁wanted	-9.94073
▁decide	-9.9408
▁économique,	-9.94108
▁déchets	-9.94203
▁passe	-9.94222
▁suivre	-9.94397
▁ACP	-9.94464
▁reconnaissance	-9.94488
▁successful	-9.9459
▁intérêt	-9.94612
▁oil	-9.94643
▁complete	-9.94679
▁half	-9.94832
▁claire	-9.94967
▁conscience	-9.95
▁closed.	-9.95009
▁debate.	-9.95034
▁budget.	-9.95045
▁directly	-9.95057
▁parle	-9.95171
▁efficiency	-9.95246
▁Merci	-9.95251
▁Balkans	-9.95273
▁entire	-9.95366
▁néanmoins	-9.95374
▁évident	-9.95494
▁institutions.	-9.95574
▁status	-9.95583
▁How	-9.95584
▁Agreement	-9.95612
▁naturellement	-9.95645
▁German	-9.9572
",	-9.9579
▁étrangères	-9.95801
▁effectively	-9.95852
▁words,	-9.95878
▁l'efficacité	-9.9615
▁14	-9.96162
▁2001	-9.96208
▁l'intérêt	-9.96294
▁challenge	-9.9642
▁steps	-9.96422
▁double	-9.96434
▁conciliation	-9.96656
▁closely	-9.96671
▁courage	-9.96681
▁supporting	-9.96753
▁débats	-9.96796
▁produce	-9.96881
▁sitting	-9.96899
▁sait	-9.9691
▁voix	-9.96928
▁clause	-9.97039
▁lorsqu'il	-9.97125
▁paragraph	-9.97169
o	-9.97177
▁étrangère	-9.97261
▁intended	-9.97304
▁exprimer	-9.97355
▁mort	-9.97443
▁conclude	-9.97475
▁knowledge	-9.97517
▁haut	-9.97539
▁shows	-9.97616
▁sector.	-9.97716
▁publiques	-9.97717
▁similar	-9.97732
▁dossier	-9.97744
▁17	-9.9777
▁Internet	-9.97797
▁permettez-moi	-9.97921
▁highly	-9.97922
▁nucléaire	-9.97957
▁Elles	-9.97981
▁animaux	-9.98088
▁genuine	-9.98089
▁medium-sized	-9.98097
▁réseaux	-9.98137
▁aller	-9.98175
▁refer	-9.98194
▁reconnaître	-9.98199
▁contenu	-9.98245
▁genre	-9.98258
al	-9.98267
▁supply	-9.98286
▁n'en	-9.98311
▁transition	-9.9839
▁gaz	-9.98532
▁niveaux	-9.98536
▁setting	-9.98594
▁paid	-9.98654
▁speech	-9.98698
▁law.	-9.98712
▁Although	-9.98725
▁délégation	-9.98738
▁Rules	-9.98775
▁speaking	-9.98794
▁ratification	-9.98867
▁views	-9.98873
▁principaux	-9.98903
▁calling	-9.98975
▁menace	-9.99014
▁establishing	-9.99132
▁financing	-9.99139
▁increasingly	-9.99153
▁l'idée	-9.9918
▁leave	-9.99242
▁augmentation	-9.9925
▁crédits	-9.99381
▁WTO	-9.99454
▁Selon	-9.99497
▁comité	-9.99497
▁whom	-9.99519
▁défendre	-9.99569
▁led	-9.99577
▁Unfortunately	-9.99616
▁tâche	-9.99805
▁continent	-9.9985
▁agir	-9.99899
▁Germany	-9.9993
▁ban	-9.99931
▁types	-9.99962
▁poser	-9.99966
▁clos.	-9.99989
▁myself	-10.0002
▁positif	-10.0006
▁higher	-10.0008
▁soumis	-10.0021
▁montrer	-10.0024
▁represents	-10.0027
▁achieving	-10.003
▁l'information	-10.003
▁harmonisation	-10.0032
▁technique	-10.0045
▁obligation	-10.0046
▁permanent	-10.0048
▁gives	-10.0058
▁respond	-10.0065
▁services.	-10.0071
▁join	-10.0077
▁discussing	-10.0078
▁modification	-10.0081
▁event	-10.0082
▁Royaume-Uni	-10.009
▁l'attention	-10.0094
▁caused	-10.0094
▁sérieux	-10.0095
▁tomorrow	-10.0097
▁tirer	-10.0098
▁Ceci	-10.0119
▁early	-10.0122
▁hear	-10.0123
▁candidate	-10.0128
▁market,	-10.0129
▁By	-10.0135
▁strengthening	-10.0139
▁regime	-10.0142
▁union	-10.015
▁urge	-10.015
▁emphasise	-10.015
▁media	-10.0153
▁Security	-10.0154
▁experts	-10.0156
▁16	-10.0158
▁utiliser	-10.016
▁distribution	-10.0161
▁particulière	-10.0163
▁gas	-10.0163
▁salue	-10.0165
▁code	-10.0167
▁duty	-10.0171
▁terrorism	-10.0171
▁represent	-10.0174
▁participer	-10.0176
▁reducing	-10.0177
▁etc.	-10.0183
▁préoccupations	-10.0185
▁pourtant	-10.019
▁corruption	-10.0193
▁obviously	-10.0196
▁l'autre	-10.0204
▁pouvoirs	-10.0207
▁efficient	-10.0208
▁violation	-10.0209
▁graves	-10.0212
▁annual	-10.0213
▁peuples	-10.0216
▁Since	-10.0217
▁moyennes	-10.0219
▁accepted	-10.0221
▁poor	-10.0226
▁janvier	-10.0238
▁route	-10.0247
▁infrastructures	-10.0249
▁garantie	-10.0252
▁professionnelle	-10.0256
▁aient	-10.0264
▁sufficient	-10.027
▁demands	-10.027
▁purpose	-10.0282
▁January	-10.0289
▁1998	-10.029
▁contrôles	-10.0301
▁Néanmoins	-10.0301
▁trafic	-10.0302
▁convinced	-10.031
▁largement	-10.0326
▁looking	-10.0336
▁follow	-10.0348
▁partis	-10.0351
▁ambitious	-10.0361
▁l'adhésion	-10.0364
▁celle-ci	-10.0368
▁Foreign	-10.0369
▁consommation	-10.0381
▁Moreover	-10.0384
▁II	-10.0395
▁pacte	-10.0396
▁administration	-10.0407
▁convergence	-10.041
▁remember	-10.0414
▁‘	-10.0417
responsibilities	-10.0419
),	-10.0421
▁L’	-10.0429
▁nouvel	-10.0431
».	-10.0431
▁l'intégration	-10.0434
▁chez	-10.045
▁ways	-10.0451
▁traiter	-10.0452
▁firstly	-10.0464
▁measure	-10.0465
▁limit	-10.0466
▁parfaitement	-10.0469
▁summit	-10.0477
▁fondamental	-10.048
▁consideration	-10.0481
▁combating	-10.0481
▁equality	-10.0483
▁infrastructure	-10.0485
▁constitutionnel	-10.0485
▁development.	-10.0491
▁utile	-10.0495
▁correct	-10.0496
▁unacceptable	-10.0497
▁monetary	-10.0507
▁réseau	-10.0509
▁pourront	-10.0515
▁study	-10.0516
▁connaissance	-10.0519
▁figure	-10.0519
▁require	-10.0521
▁sometimes	-10.0528
▁commitments	-10.0533
▁recognise	-10.0536
▁comments	-10.0538
▁known	-10.0544
▁enterprises	-10.0548
▁dispose	-10.0557
▁hold	-10.0571
▁so-called	-10.0572
▁domaine.	-10.058
▁parlé	-10.0581
▁l'euro	-10.0582
▁Mediterranean	-10.0583
▁limited	-10.0583
▁Mon	-10.0584
▁européens,	-10.059
▁heureux	-10.0592
▁(NL)	-10.0595
▁contact	-10.0599
▁élevé	-10.0615
▁procès-verbal	-10.062
▁oral	-10.0633
▁espérons	-10.0634
▁Green	-10.0636
▁product	-10.0638
▁transparent	-10.0643
▁competitive	-10.0648
▁system.	-10.065
▁durant	-10.0666
▁Spanish	-10.0668
▁avaient	-10.0668
▁party	-10.0671
▁défi	-10.0672
▁comprehensive	-10.0673
▁becoming	-10.0673
▁broad	-10.0674
▁réfugiés	-10.0679
▁d'énergie	-10.068
▁compétence	-10.0684
▁border	-10.0685
▁concrete	-10.0685
▁introduce	-10.0686
▁l'UE,	-10.0691
▁spécifique	-10.0698
▁Ainsi	-10.07
▁American	-10.0719
▁Prodi	-10.0725
▁pointed	-10.0732
▁ceci	-10.0732
▁Après	-10.0739
▁mécanisme	-10.0743
▁ten	-10.0749
▁arguments	-10.0752
▁programme.	-10.0753
▁parts	-10.0754
▁encourager	-10.0754
▁aims	-10.0757
▁traite	-10.0761
▁économie	-10.0763
▁rise	-10.0766
▁produced	-10.0772
▁statements	-10.0778
▁constitution	-10.078
▁member	-10.0784
▁history	-10.0785
▁asking	-10.0787
▁ai	-10.0794
▁Nevertheless	-10.0801
▁recommandations	-10.0806
▁contributions	-10.0811
▁proposer	-10.0816
▁Conférence	-10.082
▁cross-border	-10.082
▁soins	-10.0821
▁fund	-10.0825
▁proposal.	-10.0826
▁Strasbourg	-10.0827
ra	-10.0836
▁Cet	-10.0842
▁After	-10.0842
▁britannique	-10.0846
▁seriously	-10.0847
▁lecture	-10.0852
▁unemployment	-10.0856
▁laisser	-10.0873
▁définir	-10.0881
▁réalisation	-10.0881
▁sensible	-10.089
▁recommendations	-10.0908
▁procéder	-10.091
▁Brussels	-10.0912
▁économies	-10.0922
▁wants	-10.0925
▁expenditure	-10.0928
▁recours	-10.0929
l	-10.0934
▁building	-10.0937
▁budgétaires	-10.0947
▁l'esprit	-10.0948
▁opinions	-10.0949
▁entirely	-10.095
▁Malheureusement	-10.0953
▁recognition	-10.0975
▁l'une	-10.0976
▁balanced	-10.0978
▁venir	-10.098
▁d'améliorer	-10.0982
▁devront	-10.0982
▁raise	-10.0983
▁député	-10.0983
▁establishment	-10.0985
▁anything	-10.0987
▁conclusion,	-10.0989
▁East	-10.0994
▁useful	-10.0995
▁article	-10.0996
▁probably	-10.0999
▁l'éducation	-10.1013
▁analyse	-10.102
▁l'ai	-10.1024
▁closer	-10.1028
▁qu'au	-10.1032
▁sujet.	-10.1051
▁Indeed	-10.1055
▁place.	-10.1067
▁lives	-10.1075
près	-10.1079
▁facing	-10.1093
▁communes	-10.1096
▁cut	-10.1097
▁impose	-10.1098
▁name	-10.11
▁Luxembourg	-10.1102
▁1997	-10.1102
▁spirit	-10.1117
▁souligne	-10.1118
▁souhaitons	-10.1124
▁B	-10.1125
▁liées	-10.1127
▁prochain	-10.1145
▁weeks	-10.115
▁risks	-10.1156
▁home	-10.1159
▁contrary	-10.1165
▁Some	-10.1182
▁Israel	-10.1182
▁forget	-10.1191
▁maintien	-10.1194
▁d'Europe	-10.1196
▁semaines	-10.121
▁Aujourd'hui	-10.1211
▁monnaie	-10.1216
▁l'initiative	-10.1216
▁exactly	-10.1218
▁Greece	-10.1228
▁Belarus	-10.1232
▁Iraq	-10.1233
▁rest	-10.1237
▁Commissaire	-10.124
▁bodies	-10.1243
▁expression	-10.1244
▁tard	-10.1246
▁Messieurs	-10.1247
▁d'ici	-10.1247
▁added	-10.1266
▁au-delà	-10.1273
▁représentent	-10.1275
▁mécanismes	-10.1285
▁presque	-10.1288
▁bear	-10.1295
▁threat	-10.1299
▁stocks	-10.1299
▁seraient	-10.13
▁mars	-10.1303
▁conflits	-10.1315
▁developments	-10.1319
▁méthode	-10.1323
▁discuter	-10.1331
▁authority	-10.1332
▁21	-10.1336
▁avions	-10.1339
▁actes	-10.1341
▁Environment	-10.1347
▁delegation	-10.1348
▁compensation	-10.135
▁analysis	-10.1358
▁faudra	-10.1358
▁milliers	-10.136
▁faudrait	-10.1361
▁Nord	-10.1365
▁strongly	-10.1366
▁reconstruction	-10.1367
▁properly	-10.1368
▁évaluation	-10.1371
▁visa	-10.1381
▁attempt	-10.1384
▁Palestinian	-10.139
▁well.	-10.1403
▁thought	-10.1411
▁l'Assemblée	-10.1418
▁negative	-10.142
▁laid	-10.1424
▁word	-10.1426
▁médias	-10.1428
▁dealt	-10.1433
▁demandons	-10.1442
▁trust	-10.1445
▁mai	-10.145
▁avantages	-10.1451
▁drawn	-10.1456
▁direction.	-10.1457
▁Minutes	-10.1461
▁auxquels	-10.1462
▁seek	-10.1478
▁Bruxelles	-10.1481
▁differences	-10.1485
▁way.	-10.1487
▁applies	-10.1491
▁problème.	-10.1497
▁outcome	-10.1503
▁damage	-10.1504
i	-10.1507
▁improved	-10.1512
▁l’a	-10.1517
▁relationship	-10.1518
▁l'homme.	-10.1526
▁mot	-10.1526
▁instance	-10.1528
▁Iran	-10.1543
▁press	-10.155
▁s’est	-10.1552
▁happened	-10.1565
▁problem.	-10.1566
▁uvre	-10.1568
▁d'État	-10.157
▁activity	-10.1575
▁Ladies	-10.1576
▁chances	-10.1584
▁modifier	-10.1592
▁CO2	-10.1594
▁South	-10.1606
▁mérite	-10.1606
▁says	-10.1607
▁Bank	-10.161
▁principalement	-10.1614
▁big	-10.1616
▁pauvres	-10.1616
▁borders	-10.162
▁Italian	-10.1623
▁introduced	-10.1648
▁liberalisation	-10.165
▁Amsterdam	-10.1653
▁leaders	-10.166
▁integrated	-10.1663
▁build	-10.1679
▁putting	-10.1682
▁patients	-10.1683
▁militaire	-10.1686
▁industries	-10.1696
▁nationale	-10.1699
▁dangerous	-10.1706
▁cela,	-10.171
▁500	-10.1713
▁l'ont	-10.172
▁flexibility	-10.1724
▁soutenu	-10.1725
▁montant	-10.1726
▁parlons	-10.1731
▁prevention	-10.1731
▁vais	-10.1733
▁fond	-10.1733
▁!	-10.1734
▁travail,	-10.1735
▁démocratiques	-10.1736
▁future,	-10.1738
▁2007	-10.174
▁taxation	-10.1746
▁populaire	-10.1749
▁level,	-10.1751
▁happy	-10.1752
▁exist	-10.1755
▁appel	-10.1756
▁l'intention	-10.1757
▁send	-10.1759
▁fera	-10.1768
▁submitted	-10.1773
▁considérable	-10.178
▁Middle	-10.1781
▁contains	-10.1786
▁conference	-10.1787
▁original	-10.1793
▁mutual	-10.1798
▁sport	-10.1814
▁faisons	-10.1816
▁Trade	-10.1817
▁question,	-10.1825
▁unable	-10.1826
▁années.	-10.1826
▁discours	-10.1826
▁lumière	-10.1826
▁enormous	-10.183
▁implique	-10.1832
▁prévu	-10.1837
▁earlier	-10.1839
▁P	-10.1839
▁opening	-10.1843
▁destruction	-10.1853
▁people,	-10.1859
▁humains	-10.186
▁probablement	-10.186
▁Grèce	-10.1865
▁19	-10.188
▁understanding	-10.1887
▁yesterday	-10.1888
▁technology	-10.1889
▁Prime	-10.1889
▁mainly	-10.1904
▁matter.	-10.1904
▁person	-10.1908
▁critical	-10.1909
▁coût	-10.192
▁sensitive	-10.1923
▁état	-10.1926
▁entièrement	-10.1935
▁Premier	-10.1946
▁d'information	-10.1948
▁version	-10.195
▁estime	-10.1956
▁wrong	-10.1957
▁économique.	-10.1963
▁protocole	-10.1968
▁seem	-10.197
▁24	-10.1979
▁1996	-10.1989
▁prochaines	-10.199
▁elements	-10.1992
▁européennes.	-10.1993
▁décider	-10.2005
▁l'encontre	-10.201
▁managed	-10.2014
▁merely	-10.202
▁company	-10.2027
▁reduced	-10.2033
▁thinking	-10.2036
▁simplification	-10.2041
▁Even	-10.2042
▁Russian	-10.2047
▁initial	-10.2053
▁finance	-10.2054
▁alimentaires	-10.2056
▁thème	-10.2057
▁reprises	-10.2059
▁fall	-10.2065
▁(A	-10.2069
▁contient	-10.2073
▁leading	-10.2075
▁l'action	-10.2077
▁normal	-10.2078
▁invite	-10.2079
▁producers	-10.2088
▁critique	-10.2089
▁MEPs	-10.2099
▁structurels	-10.2101
▁dis	-10.2102
▁growing	-10.2105
▁acteurs	-10.2114
▁parlements	-10.2119
▁definition	-10.2127
▁agricoles	-10.2129
▁climatique	-10.2133
▁animals	-10.2135
▁regrettable	-10.2139
▁atteint	-10.2143
▁alone	-10.2143
▁longue	-10.2152
▁organised	-10.2154
▁assure	-10.2155
▁prêts	-10.2164
▁areas.	-10.2164
▁d'aide	-10.2166
▁substance	-10.2172
▁n'ai	-10.2181
▁considérer	-10.2184
ès	-10.2187
▁septembre	-10.2188
▁laws	-10.219
▁pas.	-10.22
▁Amendments	-10.2201
▁convaincu	-10.2203
▁oublier	-10.2205
▁thousands	-10.2211
▁low	-10.2217
▁Romania	-10.2221
▁questions.	-10.2225
▁Health	-10.2226
▁Même	-10.2232
▁came	-10.2233
▁potentiel	-10.2235
▁armes	-10.2243
▁currency	-10.2244
▁pension	-10.2252
▁Turkish	-10.2255
▁aborder	-10.2255
▁bénéficier	-10.2255
▁Portugal	-10.2263
▁Traité	-10.2263
▁méthodes	-10.2269
▁ans.	-10.2276
▁exprimé	-10.2286
▁Comment	-10.2294
▁fear	-10.2295
▁told	-10.2297
▁serve	-10.23
▁body	-10.23
▁l'argent	-10.2301
▁Spain	-10.2303
▁includes	-10.2305
▁informed	-10.2306
▁60	-10.2307
▁demandes	-10.2311
▁s'en	-10.2321
▁2006	-10.2328
▁renewable	-10.2328
▁continuing	-10.2334
▁substantial	-10.2334
▁UK	-10.2336
▁représentant	-10.2337
▁concentrer	-10.234
▁efficaces	-10.2342
▁related	-10.2345
▁Many	-10.2348
▁immigrants	-10.2349
▁taxes	-10.2361
▁formes	-10.2365
▁Roumanie	-10.2366
▁délai	-10.2367
▁disposer	-10.237
▁soutient	-10.2376
▁issues.	-10.239
▁orientations	-10.2395
▁resolve	-10.24
▁négociation	-10.2403
▁petits	-10.2409
▁desire	-10.2409
▁totally	-10.241
▁failure	-10.2414
▁action.	-10.2415
▁ought	-10.2418
▁l'Europe,	-10.2436
▁supplémentaire	-10.2444
ent	-10.2449
▁l'absence	-10.2452
▁avenir	-10.2463
▁crisis.	-10.2467
▁PME	-10.247
▁institutions,	-10.2472
▁crises	-10.2474
▁montré	-10.2476
▁read	-10.2484
▁mots	-10.2497
▁complex	-10.2501
▁methods	-10.2506
▁worked	-10.2507
▁(ES)	-10.2508
▁staff	-10.2508
▁Paper	-10.2513
▁(The	-10.2515
▁September	-10.2518
▁tient	-10.2518
▁child	-10.2519
▁sociale.	-10.2526
▁aujourd'hui.	-10.2528
▁Africa	-10.2536
▁ideas	-10.2547
▁maladies	-10.2552
▁modifications	-10.2555
▁Que	-10.2559
▁collective	-10.2562
▁stratégique	-10.2564
▁too.	-10.2567
▁attirer	-10.2568
▁services,	-10.2579
▁globale	-10.2586
▁elected	-10.2587
▁faire.	-10.2595
▁mondialisation	-10.2604
▁extend	-10.2606
▁limiter	-10.2609
▁signed	-10.2617
▁mechanism	-10.2618
▁médicaments	-10.262
▁novembre	-10.2622
▁improvement	-10.2622
▁confrontés	-10.2627
▁idée	-10.2629
▁language	-10.2633
▁van	-10.2634
▁1er	-10.2635
▁Charter	-10.2647
▁sens,	-10.2652
▁communautaire.	-10.2657
▁satisfaction	-10.2659
▁bringing	-10.2662
▁voire	-10.2662
▁Depuis	-10.2665
▁celui-ci	-10.2674
▁hier	-10.2675
▁adequate	-10.268
▁diversité	-10.268
▁examine	-10.2683
▁J’ai	-10.2699
▁essentielle	-10.2702
▁points.	-10.2704
▁migration	-10.2709
▁flexibilité	-10.2714
▁Monetary	-10.2718
▁gouvernance	-10.2722
▁them,	-10.2726
▁législatif	-10.2728
▁penser	-10.2728
▁actual	-10.2737
▁strict	-10.2738
▁interventions	-10.2743
in	-10.2744
▁accorder	-10.2744
▁Programme	-10.2755
▁occasions	-10.2762
▁origin	-10.2764
▁23	-10.2766
▁agreement.	-10.2767
▁traités	-10.2767
▁presse	-10.277
▁legislation.	-10.2773
▁faits	-10.278
ont	-10.2784
▁way,	-10.2786
▁limites	-10.2788
▁Alors	-10.2791
▁involving	-10.2794
▁sentiment	-10.2795
▁range	-10.2795
▁appliquer	-10.2808
▁quelles	-10.2809
▁method	-10.2816
ez	-10.2817
▁établir	-10.2819
▁Structural	-10.2825
▁November	-10.283
▁highlight	-10.2831
▁l'avis	-10.2831
▁actuelle,	-10.2832
▁revenir	-10.2832
▁getting	-10.2834
▁Why	-10.2839
▁équilibre	-10.2842
▁disposons	-10.2847
▁intend	-10.2852
▁servir	-10.2856
▁Council's	-10.2861
▁guarantees	-10.2862
▁cover	-10.2862
▁supports	-10.2863
▁d'en	-10.2864
▁(RO)	-10.2865
▁An	-10.2869
▁grateful	-10.2878
▁decision-making	-10.2885
▁easy	-10.289
▁accidents	-10.2897
▁truly	-10.2897
▁so.	-10.2897
▁House.	-10.2899
▁remarque	-10.2907
▁chefs	-10.2911
▁addressed	-10.2912
▁réelle	-10.2916
▁offre	-10.2923
▁law,	-10.2926
▁immediate	-10.2928
▁mises	-10.2929
▁now,	-10.293
V)	-10.2935
▁(S	-10.2937
▁garanties	-10.294
▁faced	-10.2941
▁mechanisms	-10.2958
▁refugees	-10.2961
▁Certains	-10.2962
▁mandate	-10.2969
▁official	-10.2972
▁linked	-10.2975
▁Summit	-10.2986
▁relatifs	-10.299
▁recommandation	-10.3013
▁intentions	-10.3014
▁justement	-10.3016
▁opposed	-10.3021
▁protecting	-10.3028
▁society.	-10.3032
▁degree	-10.3035
▁minutes	-10.3036
▁moindre	-10.3037
▁examiner	-10.3042
▁véhicules	-10.3043
▁moi-même	-10.3045
▁réalisé	-10.3046
▁exercise	-10.305
▁sound	-10.3056
▁burden	-10.3059
▁rail	-10.3061
▁forced	-10.3077
▁départ	-10.3079
▁support.	-10.3082
▁futur	-10.3082
▁2008	-10.3086
▁greatest	-10.3092
▁Kingdom	-10.3094
▁figures	-10.3095
▁faciliter	-10.3097
▁secure	-10.3102
▁véritablement	-10.3103
▁persons	-10.311
▁wishes	-10.3111
▁discharge	-10.3119
▁critiques	-10.312
▁America	-10.3121
▁minorités	-10.3122
4	-10.3129
▁remarques	-10.3139
▁happen	-10.3141
▁arrive	-10.3142
▁networks	-10.3146
▁sujets	-10.3148
▁operation	-10.3149
▁200	-10.3151
▁targets	-10.3154
▁adopting	-10.3154
▁stable	-10.3167
▁practices	-10.3167
▁estimons	-10.3168
▁oeuvre	-10.3177
▁heures	-10.3178
▁fiscal	-10.318
▁faites	-10.3188
▁j'	-10.319
▁evidence	-10.3199
▁coup	-10.32
▁October	-10.32
▁speakers	-10.3202
▁qu’	-10.3206
▁us,	-10.321
▁seeking	-10.3213
▁débat.	-10.3218
▁involvement	-10.3227
▁African	-10.3232
▁divers	-10.3234
▁rappelle	-10.3235
▁New	-10.3238
▁Ma	-10.3239
en	-10.3239
▁commerciales	-10.324
▁scientifiques	-10.3243
▁tackle	-10.3244
▁faite	-10.3252
▁defend	-10.3255
▁limite	-10.326
▁else	-10.3262
▁échanges	-10.3262
▁ability	-10.3263
▁l'amélioration	-10.3264
▁climat	-10.3265
▁excessive	-10.327
▁enter	-10.3276
▁morning	-10.3282
▁regrette	-10.329
▁Pourquoi	-10.3311
▁devait	-10.3312
▁consistent	-10.332
▁Lorsque	-10.3321
▁ajouter	-10.3322
▁fins	-10.3324
▁matin	-10.3325
▁shared	-10.3325
▁March	-10.3325
▁criminalité	-10.3331
▁appear	-10.3334
▁lost	-10.3337
▁ready	-10.3337
▁faible	-10.3338
▁extension	-10.3339
▁failed	-10.3341
▁femme	-10.3342
▁Europeans	-10.335
▁règlements	-10.3361
▁mobilité	-10.3363
▁stade	-10.3366
▁problems.	-10.3367
▁champ	-10.3375
▁starting	-10.338
▁approuvé	-10.3386
▁prend	-10.3389
▁governance	-10.339
▁flexible	-10.339
▁petit	-10.3402
▁humaine	-10.3406
▁n’	-10.3407
▁idées	-10.3411
▁involve	-10.3411
▁Sud	-10.3412
▁concrètes	-10.3416
▁humanitaire	-10.3419
▁campagne	-10.3421
▁Public	-10.3423
▁politiques.	-10.3434
▁centres	-10.3437
▁soir	-10.3443
▁finalement	-10.345
▁appeal	-10.345
▁choice	-10.3453
▁option	-10.3454
▁Kyoto	-10.3455
▁fondamentales	-10.3462
▁fish	-10.3464
▁Avec	-10.3468
▁comply	-10.347
▁finances	-10.3471
▁l'introduction	-10.3476
▁conventions	-10.3484
▁economy.	-10.3485
▁locales	-10.3485
▁étape	-10.3485
▁explain	-10.3487
▁l'état	-10.349
▁reject	-10.3495
▁efficacement	-10.3502
▁puissions	-10.3502
▁Affairs,	-10.3503
▁export	-10.3505
▁Afghanistan	-10.3506
▁Thirdly,	-10.351
▁2010	-10.3515
▁l'avenir.	-10.3516
▁immediately	-10.3518
▁d'éviter	-10.3519
▁designed	-10.3525
▁préparation	-10.3527
▁detailed	-10.3528
▁judiciaire	-10.3538
▁évidence	-10.3544
▁obvious	-10.3546
▁(EL)	-10.3547
▁compagnies	-10.3551
▁dirigeants	-10.3551
▁consommateurs.	-10.3554
▁auront	-10.3554
▁insister	-10.3558
▁standard	-10.3564
▁Treaty.	-10.3565
▁affaire	-10.3567
▁décharge	-10.3569
▁obtenu	-10.3589
▁relever	-10.359
▁j'aimerais	-10.3595
▁age	-10.3596
▁l’on	-10.3602
▁thereby	-10.3602
▁scientifique	-10.3608
▁contacts	-10.3623
▁While	-10.3627
▁emploi	-10.3632
▁conduite	-10.3633
▁Ukraine	-10.3639
▁pied	-10.364
▁chiffres	-10.3641
▁totale	-10.3643
▁region.	-10.3645
▁sent	-10.3645
▁sécurité.	-10.3646
▁22	-10.365
▁Barroso	-10.3651
▁catastrophe	-10.3653
▁ahead	-10.3655
▁North	-10.3669
▁citizens,	-10.3669
▁Question	-10.3687
▁monde,	-10.3689
▁Swedish	-10.3693
▁Troisièmement	-10.3694
▁talks	-10.3695
▁sign	-10.3695
▁recommendation	-10.3698
▁judicial	-10.3699
▁environment.	-10.3701
▁Ministers	-10.3702
▁reply	-10.3704
▁cooperation.	-10.3712
▁bilateral	-10.3717
6	-10.3718
▁indiqué	-10.372
▁portant	-10.3723
▁États-Unis,	-10.3723
▁payments	-10.3725
▁Nice	-10.3725
ront	-10.3725
▁followed	-10.3728
▁naturally	-10.373
▁qu’une	-10.3739
▁continues	-10.3743
▁advantage	-10.375
▁l'évolution	-10.3754
▁réserve	-10.376
▁devrons	-10.3762
▁agences	-10.3765
▁inacceptable	-10.3767
▁series	-10.377
▁contrôler	-10.378
▁empêcher	-10.3787
▁parlementaires	-10.3789
▁aurons	-10.3793
▁absence	-10.38
▁1995	-10.3801
▁euros	-10.3802
▁circumstances	-10.3805
▁concerned.	-10.3814
▁sociale,	-10.3814
▁vertu	-10.3815
▁interesting	-10.3821
▁suffit	-10.3821
▁recognised	-10.3824
▁charges	-10.3825
▁bad	-10.3828
▁element	-10.3832
▁heart	-10.3839
▁d'application	-10.3839
▁emphasis	-10.384
▁soutenons	-10.3844
▁commune.	-10.3847
▁covered	-10.3851
▁différences	-10.3852
▁bases	-10.3858
▁combien	-10.3865
▁travel	-10.3867
5	-10.3868
▁proposing	-10.387
▁développement,	-10.3871
▁exactement	-10.3874
▁soi	-10.3874
▁rates	-10.3877
▁favoriser	-10.388
▁presence	-10.3882
▁l'opinion	-10.3885
ordre	-10.389
pplaudissements)	-10.3891
▁accompli	-10.3897
▁haute	-10.3903
▁fasse	-10.3907
▁2,	-10.3908
▁diverses	-10.3909
▁essentiellement	-10.3911
▁réponses	-10.3917
▁repeat	-10.3922
▁Eastern	-10.3924
▁produire	-10.3926
▁conduct	-10.3929
▁position.	-10.3934
▁citoyen	-10.3937
▁acts	-10.3937
▁affect	-10.3941
ation	-10.3946
▁Van	-10.395
▁network	-10.3958
▁d’être	-10.3968
▁fondamentale	-10.3969
▁2000,	-10.3977
▁déterminer	-10.3985
▁durée	-10.3988
▁crisis,	-10.3994
▁worth	-10.4003
▁later	-10.4004
▁suppression	-10.4006
▁cultures	-10.401
▁Tous	-10.401
▁argument	-10.402
▁plénière	-10.4023
▁1,	-10.4027
▁run	-10.4032
▁région.	-10.4033
▁n'était	-10.4037
▁lois	-10.4037
▁eaux	-10.405
▁granted	-10.4053
▁solution.	-10.4063
▁attendre	-10.4065
▁Rule	-10.4071
▁entreprises.	-10.4073
▁lancer	-10.4088
▁seuls	-10.4094
▁resolutions	-10.4096
▁profiter	-10.4099
▁obtain	-10.4101
▁arrangements	-10.4101
▁l’environnement	-10.4103
▁House,	-10.4104
▁meilleures	-10.4115
▁tourisme	-10.4119
▁monitor	-10.4126
▁financer	-10.4126
▁massive	-10.4131
▁ground	-10.4145
▁Democrats	-10.4145
▁mentionné	-10.4152
▁Greek	-10.4152
▁Pakistan	-10.4155
▁manner	-10.416
▁existence	-10.4161
▁controls	-10.4162
tandis	-10.4163
▁Agency	-10.4164
▁test	-10.4168
▁supervision	-10.4173
▁gender	-10.4177
▁changer	-10.4179
▁extérieure	-10.4181
▁amongst	-10.4182
▁Only	-10.4186
▁Chamber	-10.4193
▁navires	-10.4194
▁fermement	-10.4194
▁applicable	-10.4197
▁porter	-10.4198
▁then,	-10.42
3	-10.4205
▁pourrions	-10.4208
▁Such	-10.4208
▁rendu	-10.4211
▁traffic	-10.4217
▁distinction	-10.4218
▁premières	-10.4219
▁d'assurer	-10.4224
▁d'emplois	-10.4224
▁gave	-10.4229
▁inform	-10.4232
▁80	-10.4233
▁ports	-10.4234
▁happening	-10.4241
▁Strategy	-10.4246
▁General	-10.4253
▁ceux-ci	-10.4254
▁weapons	-10.4268
▁now.	-10.4277
▁Assemblée,	-10.4278
▁certes	-10.4278
▁entry	-10.428
▁evaluation	-10.4281
▁trouvent	-10.4285
▁subventions	-10.4289
▁immédiatement	-10.429
▁31	-10.429
▁j'estime	-10.4294
▁neither	-10.4297
▁regulatory	-10.4297
▁representative	-10.4298
▁suffering	-10.4301
▁destinés	-10.4302
▁restent	-10.4305
▁statistiques	-10.4314
▁l'immigration	-10.4314
▁anyone	-10.4315
▁comprends	-10.4327
▁professional	-10.4332
▁technologie	-10.4338
▁retard	-10.4339
▁exploitation	-10.434
▁Pact	-10.4355
▁avancer	-10.4359
▁Lisbonne.	-10.4363
▁nation	-10.4364
▁préparer	-10.4365
▁juillet	-10.4367
▁States'	-10.4367
▁Those	-10.4368
▁rapid	-10.4369
▁religious	-10.437
▁logique	-10.4379
▁d'adopter	-10.438
▁one.	-10.4386
▁terrorist	-10.4389
▁terme,	-10.439
▁utilisé	-10.4392
▁viens	-10.4402
▁whilst	-10.4414
▁disaster	-10.4419
▁banques	-10.4426
▁credit	-10.4427
▁reasonable	-10.4431
▁impression	-10.4431
▁concernés	-10.4436
▁Euro	-10.4438
▁voisins	-10.4438
▁commerciaux	-10.4442
▁d'informations	-10.4447
▁préserver	-10.4452
▁lower	-10.4455
▁arms	-10.446
▁fortement	-10.4474
▁election	-10.4477
▁utilisation	-10.4477
▁savez,	-10.4479
▁membership	-10.4479
▁équitable	-10.4481
▁utilisés	-10.4482
▁Commission’s	-10.4484
▁accepté	-10.4487
▁tonnes	-10.4491
▁français	-10.4492
▁binding	-10.4496
▁Socialist	-10.4499
▁langues	-10.45
▁tourism	-10.4508
▁target	-10.451
▁safe	-10.4512
▁treaty	-10.4518
▁From	-10.4526
▁pensions	-10.4527
▁rejected	-10.4533
▁chemin	-10.4536
▁socialiste	-10.4539
▁domestic	-10.4539
▁réaction	-10.4542
▁Yet	-10.4545
▁parvenus	-10.4546
▁planning	-10.4546
▁families	-10.4555
▁d'origine	-10.4556
▁meetings	-10.4558
▁options	-10.4562
▁environnement	-10.4565
▁economies	-10.4568
▁goal	-10.4569
▁communications	-10.457
▁revenus	-10.4573
pprovisionnement	-10.4575
▁Agriculture	-10.4576
▁autres,	-10.4581
▁appears	-10.4583
▁Do	-10.4584
▁Bureau	-10.4587
1	-10.4599
▁retour	-10.4599
▁plenary	-10.46
7	-10.4606
▁transfer	-10.4615
▁Maastricht	-10.4618
le	-10.4618
▁l'élaboration	-10.4621
▁octobre	-10.4622
▁facilitate	-10.4625
▁étude	-10.4626
▁Western	-10.4627
▁criticism	-10.4632
▁delighted	-10.4634
▁spent	-10.4635
▁réflexion	-10.4637
▁dehors	-10.4639
▁carefully	-10.464
▁public.	-10.4643
▁nucléaires	-10.4644
▁debates	-10.4646
▁d'urgence	-10.466
▁expected	-10.4663
▁tests	-10.4669
▁progresser	-10.4673
▁income	-10.4676
▁constitutional	-10.468
▁solve	-10.4688
▁SMEs	-10.4697
▁lui-même	-10.4699
▁Cyprus	-10.4702
▁conclu	-10.4704
▁Quelle	-10.4704
▁measures.	-10.471
▁(Applause)	-10.471
▁langue	-10.4712
▁system,	-10.4713
▁attendons	-10.4719
▁otherwise	-10.4719
▁matières	-10.4719
▁l'espace	-10.4726
▁minority	-10.4728
▁change.	-10.473
▁terroristes	-10.4731
▁inclusion	-10.4732
▁cycle	-10.4736
▁signaler	-10.4739
▁viande	-10.4741
▁Legal	-10.4741
▁(Le	-10.4748
▁improvements	-10.4749
▁ouverte	-10.4753
▁26	-10.4758
▁réalisés	-10.476
▁adoptées	-10.4761
▁Livre	-10.4765
▁lines	-10.4765
▁declaration	-10.4772
▁mauvaise	-10.4773
▁visas	-10.4776
▁voice	-10.4776
▁poids	-10.4779
▁m'a	-10.4785
▁justice.	-10.4785
2	-10.4786
▁peoples	-10.4786
▁revient	-10.4794
▁generally	-10.4799
▁cent	-10.4801
▁parlement	-10.4804
▁implications	-10.4804
▁Lisbonne,	-10.4806
▁Is	-10.4806
▁payer	-10.4809
▁J'estime	-10.481
▁participate	-10.4812
▁marché.	-10.4817
▁dire,	-10.4817
▁reprise	-10.4831
▁règle	-10.4831
▁précédent	-10.4837
▁moving	-10.484
▁PPE	-10.4846
▁mobility	-10.4848
▁modern	-10.4852
▁internationaux	-10.4856
▁environ	-10.4858
▁likely	-10.4868
▁re	-10.4875
▁acquis	-10.4876
▁encouraging	-10.4878
▁elle-même	-10.4881
▁lies	-10.4885
▁permettent	-10.4886
▁reflect	-10.4897
▁familles	-10.4897
▁Suède	-10.4897
▁vaut	-10.4897
▁vite	-10.4902
▁People'	-10.4906
▁started	-10.4908
▁interested	-10.4915
▁association	-10.492
▁policies.	-10.4921
▁parents	-10.4923
▁credibility	-10.4923
▁helping	-10.4924
▁L'Europe	-10.4924
▁auxquelles	-10.4926
▁militaires	-10.4931
▁demonstrate	-10.4936
▁combattre	-10.4937
▁firm	-10.4938
▁proposes	-10.4943
▁approval	-10.4943
▁negotiating	-10.4946
▁link	-10.4951
▁industry.	-10.4954
▁placed	-10.4955
▁committees	-10.4959
▁Stability	-10.4962
▁learn	-10.4966
▁subsidies	-10.4969
▁n'existe	-10.497
▁frais	-10.4976
▁calendrier	-10.4979
▁principales	-10.4981
▁today's	-10.4982
▁Funds	-10.4984
▁qu’un	-10.4985
▁population.	-10.4988
▁competence	-10.4988
▁Ne	-10.4995
▁bien-être	-10.4999
▁subsidiarity	-10.5002
▁Czech	-10.5003
▁independence	-10.5008
▁Agenda	-10.501
▁marchandises	-10.501
▁allowing	-10.5012
▁l'OMC	-10.5017
▁fighting	-10.5022
▁constituer	-10.5028
▁cœur	-10.5036
▁essentiels	-10.5037
▁religion	-10.5046
▁annuel	-10.5046
▁moitié	-10.5048
▁Sweden	-10.5049
▁fraud	-10.505
▁compliance	-10.505
▁poursuite	-10.505
▁numerous	-10.5051
▁area,	-10.5054
▁déposé	-10.5055
▁notion	-10.5055
▁Berlin	-10.5059
▁conséquence	-10.5066
▁lettre	-10.5067
▁territory	-10.5072
▁easier	-10.5076
▁bas	-10.5077
▁Roma	-10.5083
▁êtes	-10.5084
▁sides	-10.509
▁office	-10.509
▁relève	-10.5093
▁nécessaire.	-10.5097
▁évoqué	-10.5098
▁exige	-10.5099
▁Bulgarie	-10.5103
▁Assemblée.	-10.5109
▁c'	-10.5116
▁contribué	-10.5117
▁conviction	-10.5119
▁Policy	-10.5122
▁Poland	-10.5124
▁connu	-10.5126
...	-10.5128
▁Israël	-10.5128
▁Aussi	-10.5131
▁disponibles	-10.5131
▁imposed	-10.5131
▁%.	-10.5132
▁diversity	-10.514
▁fiscale	-10.5147
▁trafficking	-10.5153
▁equally	-10.5156
▁Pologne	-10.516
▁customs	-10.516
▁proportion	-10.5163
▁terminer	-10.5166
▁glad	-10.5167
▁land	-10.5172
▁espace	-10.5173
▁transactions	-10.5173
▁separate	-10.5178
▁affairs	-10.5182
▁traditional	-10.5184
▁égard.	-10.5185
▁associations	-10.5185
▁vert	-10.5188
▁limits	-10.5189
▁safeguard	-10.5192
▁issue,	-10.5194
▁fail	-10.5194
▁Europol	-10.5196
▁catastrophes	-10.5197
it	-10.5201
▁communautés	-10.5205
▁l'impact	-10.5208
▁forthcoming	-10.5211
▁endorse	-10.5214
▁vouloir	-10.5221
▁Éta	-10.5225
▁portée	-10.5226
▁supprimer	-10.5227
▁peaceful	-10.5227
▁missions	-10.523
▁politicians	-10.5231
▁disease	-10.5234
▁voluntary	-10.5245
▁réfléchir	-10.5252
▁ECU	-10.5264
▁J'aimerais	-10.5282
▁ultimately	-10.5282
▁réussi	-10.5283
▁délais	-10.5284
▁famille	-10.5284
▁facile	-10.5284
▁accrue	-10.5285
▁fixer	-10.5292
▁Sea	-10.5293
▁sens.	-10.5293
▁étroite	-10.5294
▁vaste	-10.5299
▁Charte	-10.5305
▁régionale	-10.5307
▁April	-10.5309
▁crédibilité	-10.531
▁correctement	-10.5313
▁régional	-10.5314
▁l'accent	-10.5319
▁entreprises,	-10.5324
▁cohérence	-10.5333
▁acte	-10.5337
▁souhaitent	-10.5337
▁modernisation	-10.534
▁Plus	-10.5343
▁consommateurs,	-10.5348
▁functioning	-10.5353
▁paraît	-10.536
▁associated	-10.5361
▁l'échelle	-10.5364
▁personnellement	-10.5365
▁ambitieux	-10.5367
▁Another	-10.537
▁28	-10.5373
▁articles	-10.5376
▁opérations	-10.5376
▁résolutions	-10.5377
▁recevoir	-10.5381
▁terme.	-10.5382
▁maladie	-10.5384
▁democracy.	-10.5388
▁augmenter	-10.5392
▁attacks	-10.5398
▁written	-10.5398
▁situation,	-10.54
▁grounds	-10.5403
▁cesse	-10.5405
▁Action	-10.5406
▁PPE-DE	-10.5408
▁passagers	-10.541
▁personally	-10.5418
▁protection.	-10.542
▁l'innovation	-10.5422
▁itself.	-10.5423
▁d'asile	-10.5429
9	-10.543
▁concernent	-10.5431
▁d'obtenir	-10.5432
▁entreprise	-10.5436
▁complète	-10.5437
▁Quant	-10.5442
▁conservation	-10.5443
▁According	-10.5447
▁connaître	-10.5448
▁d'aujourd'hui	-10.545
▁process,	-10.5453
▁all.	-10.5457
▁garder	-10.5464
▁payment	-10.5466
▁constate	-10.5472
▁démocrates	-10.5477
▁hours	-10.5478
▁tour	-10.5481
▁destinées	-10.5481
▁Framework	-10.5487
▁Lastly	-10.5489
▁l'augmentation	-10.5491
▁subsidiarité	-10.5491
▁work,	-10.5493
▁Research	-10.5495
▁2000.	-10.5495
▁recovery	-10.5502
▁moral	-10.5504
▁refuse	-10.5507
▁terrain	-10.5517
▁consommateur	-10.5521
▁ordre	-10.5522
▁manage	-10.5522
▁fonctionnaires	-10.5528
▁réserves	-10.5532
▁tendance	-10.5537
▁tried	-10.5539
▁involves	-10.5543
▁gain	-10.5544
▁entendre	-10.5548
▁proposée	-10.5551
▁suggest	-10.5554
▁minute	-10.5558
▁demonstrated	-10.556
▁contained	-10.5561
▁préoccupation	-10.5571
▁fut	-10.5574
e.	-10.558
▁agencies	-10.5582
▁minorities	-10.559
▁trading	-10.5594
▁entitled	-10.5595
▁environnemental	-10.5598
▁Portuguese	-10.5598
▁Not	-10.5602
▁moment.	-10.5602
▁commissions	-10.5604
▁quels	-10.5608
▁études	-10.562
▁factor	-10.5621
▁changed	-10.5624
▁lien	-10.5629
▁Financial	-10.563
▁communities	-10.5632
▁préciser	-10.5633
▁primarily	-10.5633
▁vivre	-10.5635
▁continued	-10.5645
▁transfert	-10.5656
▁imposer	-10.5663
▁Européens	-10.5667
▁d'emploi	-10.5673
▁revêt	-10.5674
▁voulu	-10.5684
▁factors	-10.5686
▁case.	-10.5689
▁consumption	-10.5695
▁vivent	-10.5698
▁Avant	-10.5699
▁heures.	-10.5701
▁ouvert	-10.5702
▁approve	-10.5704
▁programmes.	-10.571
▁round	-10.5711
▁realise	-10.5712
▁requirement	-10.5712
▁cancer	-10.5716
▁Lors	-10.5726
▁transport.	-10.5726
▁parliaments	-10.573
▁sérieusement	-10.5732
▁commentaires	-10.5735
▁resolution.	-10.5737
▁historique	-10.5747
▁capacités	-10.5748
▁l'évaluation	-10.575
▁capables	-10.5766
▁assume	-10.5773
▁transit	-10.5774
▁hausse	-10.5776
▁réussite	-10.5777
▁l'engagement	-10.5779
▁jour.	-10.5782
▁resources.	-10.5784
▁amounts	-10.5785
▁dépit	-10.5785
▁renouvelables	-10.5786
▁floor	-10.5799
▁...	-10.5801
▁relativement	-10.5804
▁tobacco	-10.5807
▁facteurs	-10.5808
▁débattre	-10.5811
▁late	-10.5816
▁serons	-10.5824
▁l'exercice	-10.5828
▁précis	-10.5833
▁suggestions	-10.5833
▁appropriations	-10.5838
▁Despite	-10.5842
▁précise	-10.5849
▁played	-10.585
▁savez	-10.585
▁exception	-10.5853
▁trouvé	-10.5855
▁administratives	-10.5859
▁internationale.	-10.586
▁welfare	-10.5864
▁européennes,	-10.587
▁legitimate	-10.5872
▁knows	-10.5872
▁C'	-10.5872
▁Chinese	-10.5873
▁permettrait	-10.5875
▁connaît	-10.5875
▁expérience	-10.5876
▁apporté	-10.5878
▁petite	-10.5879
▁leadership	-10.5882
▁d'autant	-10.5885
▁mass	-10.5901
▁législative	-10.5905
▁vois	-10.5907
▁letter	-10.5908
▁Vice-President	-10.5913
▁proposition.	-10.5915
▁sexual	-10.5919
▁Baltic	-10.592
▁Commissioners	-10.5926
▁plein	-10.5927
▁firmly	-10.5933
▁d'intérêt	-10.5934
▁confirm	-10.5946
▁temporary	-10.5947
▁réglementations	-10.5949
▁offrir	-10.595
▁L	-10.5956
▁Treaty,	-10.5965
▁nevertheless	-10.5968
▁pouvait	-10.5968
▁réunions	-10.5971
▁context,	-10.5972
▁autour	-10.5975
▁out.	-10.5983
▁d	-10.5984
▁amélioration	-10.5985
▁esprit	-10.599
▁établi	-10.5993
▁banks	-10.5995
▁whatever	-10.5995
▁delay	-10.6
▁proposés	-10.6002
▁debt	-10.6011
▁paiement	-10.6015
▁Dutch	-10.6016
▁goals	-10.6025
▁fondée	-10.6033
▁terrible	-10.6033
▁Given	-10.6034
▁principale	-10.6035
▁development,	-10.6042
▁passage	-10.6047
▁top	-10.6049
▁Auditors	-10.6049
▁d’abord	-10.6058
▁got	-10.6059
▁spending	-10.606
▁Italy	-10.606
▁record	-10.6061
▁closed	-10.6067
▁J'	-10.6067
▁2009.	-10.6067
▁tôt	-10.6076
▁partner	-10.6087
▁port	-10.6087
▁biens	-10.6088
▁unless	-10.6089
▁tenter	-10.609
▁allows	-10.609
▁Perhaps	-10.6096
▁decisive	-10.6098
▁l'organisation	-10.61
▁attack	-10.6108
▁compter	-10.6113
▁products.	-10.6119
▁pêcheurs	-10.6121
▁campaign	-10.6128
▁d'établir	-10.6129
▁joue	-10.6133
▁régimes	-10.6133
▁l'eau	-10.6133
▁High	-10.6141
▁évolution	-10.6142
▁présentée	-10.6143
▁l’ensemble	-10.6144
▁législatives	-10.6145
▁July	-10.6146
▁investments	-10.6148
▁(HU	-10.6149
▁s’il	-10.6152
▁Ensuite	-10.6155
▁Sans	-10.6155
▁jeu	-10.6155
▁secondly	-10.6157
▁actuelles	-10.6165
▁prévenir	-10.6166
▁labelling	-10.6168
▁l'emploi.	-10.6169
▁ones	-10.6175
▁defined	-10.6184
▁visit	-10.6186
▁awareness	-10.6188
▁centrales	-10.6188
▁complètement	-10.6189
on	-10.6191
▁allocated	-10.6192
▁ethnic	-10.6195
▁Here	-10.6201
▁concernées	-10.6202
▁fraude	-10.6202
▁femmes.	-10.6206
▁speed	-10.6211
▁l'intérieur	-10.6214
▁somewhat	-10.6214
▁l'approche	-10.6214
▁sea	-10.6217
▁Transport	-10.622
▁citizens'	-10.6221
▁employees	-10.6228
▁Car	-10.6241
▁conflicts	-10.6245
▁attend	-10.6247
▁overcome	-10.6251
▁l'avons	-10.6252
▁interne	-10.6264
▁positifs	-10.6268
▁commissaires	-10.6268
▁auraient	-10.6268
▁technological	-10.6269
▁prepare	-10.6274
▁procedure.	-10.6279
▁gone	-10.6279
▁conscients	-10.6282
▁done.	-10.6287
▁preparing	-10.6289
▁répartition	-10.6289
▁Copenhagen	-10.6289
▁activité	-10.6298
▁conditions.	-10.6301
▁mode	-10.6303
▁compared	-10.6315
▁organes	-10.632
▁prove	-10.6322
▁soumettre	-10.6322
▁favorables	-10.6322
▁effectiveness	-10.6323
▁lose	-10.6326
▁constant	-10.6327
▁detail	-10.6328
»,	-10.6331
▁average	-10.6337
▁différence	-10.6347
▁preventing	-10.6347
▁considering	-10.6349
▁obstacle	-10.6366
▁Head	-10.6368
▁treated	-10.6373
▁Concernant	-10.6375
▁highest	-10.6376
▁jour,	-10.6382
▁passed	-10.6382
▁consolidation	-10.6384
▁énorme	-10.6385
▁facteur	-10.6385
▁fruit	-10.6387
▁concentration	-10.6389
▁profits	-10.639
vironnementales	-10.6391
▁freedoms	-10.6392
▁envisager	-10.6395
▁undoubtedly	-10.6398
▁again.	-10.64
▁appreciate	-10.6407
m	-10.6409
▁offers	-10.6412
▁l'histoire	-10.6413
▁29	-10.6413
▁revision	-10.6416
▁Market	-10.6417
▁constantly	-10.6421
▁cooperate	-10.6423
▁aliments	-10.6424
▁Energy	-10.6429
▁Barroso,	-10.6433
▁textes	-10.6434
▁drawing	-10.6435
▁prévue	-10.6436
▁alternatives	-10.6437
▁tentative	-10.6439
▁operate	-10.6442
▁tasks	-10.6446
▁paiements	-10.645
▁please	-10.6456
▁l'obligation	-10.6459
▁drugs	-10.6461
▁circonstances	-10.6466
▁loss	-10.6466
▁Gaza	-10.647
▁s'ils	-10.6472
▁emergency	-10.6479
▁citizen	-10.6479
▁perdre	-10.648
▁remarquer	-10.648
▁pursue	-10.6486
▁territorial	-10.6489
▁spoke	-10.6504
▁division	-10.6505
▁programme-cadre	-10.6505
▁electronic	-10.651
▁partout	-10.6519
▁dignité	-10.652
▁montrent	-10.6524
▁taxe	-10.653
▁applying	-10.653
▁concluded	-10.6534
▁accident	-10.6536
▁Because	-10.6539
▁Then	-10.6545
▁mauvais	-10.6547
▁prison	-10.6548
▁phénomène	-10.6548
▁revanche	-10.655
algré	-10.6552
▁référendum	-10.6553
▁lancé	-10.6557
▁concitoyens	-10.6559
▁relates	-10.6559
▁Canada	-10.6567
▁70	-10.657
▁international.	-10.657
▁meilleurs	-10.6591
▁États-Unis.	-10.6595
▁wonder	-10.6598
▁keeping	-10.66
▁l'entrée	-10.66
▁fulfil	-10.6603
▁referendum	-10.6604
▁dépend	-10.6606
▁Pourtant	-10.6616
▁introducing	-10.6623
▁seconde	-10.6624
▁Fundamental	-10.6625
8	-10.6627
▁officials	-10.6629
▁regions.	-10.6637
▁contribue	-10.6638
▁operations	-10.6639
▁prennent	-10.6642
▁2010.	-10.6642
▁tradition	-10.6649
▁respecte	-10.6651
▁aérien	-10.6655
▁volume	-10.6667
▁intervenir	-10.6673
▁avril	-10.6676
▁non-	-10.6683
▁plaisir	-10.6688
▁qualifications	-10.6695
▁Budgets	-10.6697
▁d’accord	-10.6699
▁directrices	-10.6699
▁eux-mêmes	-10.6708
▁orateurs	-10.6708
▁joué	-10.6713
▁ministers	-10.6716
▁proposées	-10.6717
▁?uvre	-10.672
▁historic	-10.6724
▁croire	-10.6732
▁l'ouverture	-10.6732
▁Bulgaria	-10.6743
▁actuels	-10.675
▁fonctionne	-10.675
▁clé	-10.6758
▁celles-ci	-10.6759
▁forum	-10.6764
▁vulnerable	-10.6767
▁extended	-10.6773
▁culturelle	-10.6775
▁path	-10.6785
▁operating	-10.6787
▁guaranteed	-10.679
▁détermination	-10.6791
▁300	-10.6796
▁resolution,	-10.6798
▁difficiles	-10.6799
▁formuler	-10.6802
▁démocratie.	-10.6802
▁Chypre	-10.6802
▁créé	-10.6802
▁continuent	-10.6808
▁traditions	-10.681
▁progressive	-10.6817
▁inquiétudes	-10.6823
▁clarify	-10.6823
▁2006,	-10.6823
▁Israeli	-10.6824
▁citer	-10.6824
▁organismes	-10.6825
▁travaillé	-10.6831
▁complexe	-10.6839
▁ressort	-10.6845
▁requested	-10.6846
▁latter	-10.6848
▁material	-10.6854
▁exists	-10.6854
▁determined	-10.686
▁difference	-10.6864
▁planned	-10.6866
▁chef	-10.687
▁operational	-10.6871
▁installations	-10.6872
▁month	-10.6873
▁vehicles	-10.6875
▁entrer	-10.6876
▁mentionner	-10.6882
▁tabac	-10.6885
▁n’ont	-10.6886
▁languages	-10.6891
▁propriété	-10.69
▁intends	-10.6904
▁secret	-10.6904
▁space	-10.6905
▁submit	-10.6906
▁operators	-10.6909
▁statistics	-10.6912
▁willing	-10.6912
▁ferme	-10.6913
▁rend	-10.6915
▁spoken	-10.6915
▁pétrole	-10.6917
transfrontalière	-10.6918
▁NATO	-10.6921
▁construire	-10.6923
▁ayons	-10.6923
▁expliquer	-10.6926
▁menées	-10.6928
considérablement	-10.6928
▁réel	-10.6929
▁textile	-10.6931
▁scheme	-10.6934
▁présidents	-10.6934
▁maintaining	-10.6938
▁touche	-10.6939
▁politics	-10.6939
▁hors	-10.6939
▁employment.	-10.6941
▁individuals	-10.6947
▁Consumer	-10.6961
▁proceed	-10.6963
▁semblent	-10.6964
▁remarks	-10.6964
▁claires	-10.6968
terinstitutional	-10.6982
▁prévoir	-10.6982
▁tâches	-10.6983
▁arriver	-10.699
▁cas.	-10.699
▁qu'a	-10.6992
▁largely	-10.6993
▁debating	-10.6994
▁raisonnable	-10.6995
▁stronger	-10.6995
▁largest	-10.6995
▁Austria	-10.7002
▁front	-10.7006
▁élevés	-10.7007
▁places	-10.7013
▁introduit	-10.7019
▁considéré	-10.7024
▁sites	-10.7028
▁happens	-10.703
▁urgently	-10.703
▁security.	-10.7033
▁insist	-10.7049
▁majeure	-10.7051
▁gérer	-10.7052
▁février	-10.7055
▁man	-10.7057
▁Organisation	-10.7061
0	-10.7067
▁l'origine	-10.7068
▁d'y	-10.7071
▁commencé	-10.7072
▁announced	-10.7073
▁precise	-10.7076
▁stratégies	-10.7079
▁finding	-10.708
▁fais	-10.7082
▁attention.	-10.7084
▁visite	-10.709
▁tiers.	-10.7094
▁suppose	-10.7099
▁énergies	-10.7101
▁sept	-10.7104
▁diseases	-10.7109
▁marge	-10.7112
▁ago.	-10.7112
▁Pays-Bas	-10.7117
▁d'Amsterdam	-10.7118
▁2007,	-10.7118
▁conseil	-10.7119
▁torture	-10.7127
▁Rome	-10.7129
▁menée	-10.7129
▁Group,	-10.713
▁livre	-10.7145
▁importations	-10.7149
▁negotiations.	-10.7153
▁homme	-10.7161
▁considérons	-10.7164
▁innovative	-10.7164
▁jobs.	-10.7166
▁insurance	-10.7166
▁February	-10.717
▁there.	-10.7179
▁améliorations	-10.7179
▁Instead	-10.718
▁matière.	-10.7185
▁premiers	-10.7187
▁Employment	-10.7197
▁considérables	-10.7199
▁dependent	-10.72
▁transposition	-10.72
▁noted	-10.7201
▁you.	-10.7204
▁règlement.	-10.7208
▁described	-10.7208
▁ressortissants	-10.7209
▁aurions	-10.721
▁reconnu	-10.7211
▁CAP	-10.7211
▁condemn	-10.7212
▁fuel	-10.7213
▁déficit	-10.7222
▁importance.	-10.7234
▁offered	-10.7238
▁globalisation	-10.7242
▁liée	-10.7243
▁laisse	-10.7245
▁perfectly	-10.7246
▁observations	-10.7253
▁irlandais	-10.7256
▁brings	-10.7258
▁D'un	-10.7259
▁temps.	-10.7261
▁perdu	-10.7262
▁parties.	-10.7263
▁exclusion	-10.7264
▁Constitutional	-10.7264
▁diminution	-10.7264
▁restructuration	-10.7271
▁industrielle	-10.7271
▁incombe	-10.7273
▁hands	-10.7277
▁confusion	-10.7278
▁universal	-10.7282
▁d'adhésion	-10.7294
▁signé	-10.7298
▁l’aide	-10.7301
▁India	-10.7308
▁amending	-10.731
▁kept	-10.7312
▁felt	-10.7312
▁sortir	-10.732
▁répète	-10.7322
▁scale	-10.7326
▁confirmed	-10.7326
▁villes	-10.7328
▁farming	-10.7329
▁Dur	-10.7331
▁bientôt	-10.7332
▁travaillent	-10.7332
▁L'UE	-10.7333
▁careful	-10.7335
▁ONG	-10.7349
▁extra	-10.7352
▁studies	-10.7353
▁seven	-10.7355
▁garde	-10.7357
▁activement	-10.7358
▁sincèrement	-10.7358
▁communs	-10.736
▁Protection	-10.7361
▁ajoutée	-10.7367
▁coordinated	-10.7369
▁reconnaît	-10.7372
▁approach.	-10.7379
▁communautaire,	-10.7379
▁pêche.	-10.7392
▁d'avis	-10.7396
▁resolved	-10.7397
▁régler	-10.7405
▁latest	-10.7406
▁represented	-10.7406
▁généralement	-10.7409
▁define	-10.7416
▁d'utiliser	-10.7421
▁denrées	-10.7421
▁abuse	-10.7427
▁tool	-10.7428
▁existent	-10.7428
▁visent	-10.7428
▁dangers	-10.7433
▁l'Organisation	-10.7433
▁2008,	-10.7434
▁présents	-10.7436
▁viennent	-10.7436
▁waiting	-10.7436
▁l'existence	-10.7446
▁genuinely	-10.7447
▁USA	-10.745
▁l'an	-10.7454
▁tous.	-10.7458
▁codecision	-10.7458
▁clauses	-10.7462
▁centaines	-10.7465
▁conséquence,	-10.7474
▁acknowledge	-10.7477
▁Commission'	-10.7482
▁erreur	-10.7482
▁récente	-10.7483
▁transport,	-10.7484
▁Fisheries	-10.7488
▁réagir	-10.7489
▁property	-10.7492
▁codécision	-10.7496
▁examples	-10.7496
▁forward.	-10.7503
▁passengers	-10.7504
▁2007.	-10.7504
▁baisse	-10.7506
▁prête	-10.7507
▁proved	-10.751
▁adéquate	-10.7512
▁agenda.	-10.7516
▁Croatia	-10.7523
▁Irlande	-10.7526
▁enfin,	-10.7527
▁performance	-10.753
▁consultations	-10.753
▁assess	-10.7531
▁possibles	-10.7532
▁qualified	-10.7535
▁perte	-10.7538
▁NGOs	-10.754
▁comprend	-10.7542
▁conduit	-10.7544
▁autrement	-10.7544
▁actively	-10.7546
▁repose	-10.7552
▁commune,	-10.7554
ce	-10.7556
▁medical	-10.756
▁holding	-10.7561
▁est-il	-10.7574
▁contradiction	-10.7574
▁souveraineté	-10.758
▁Alliance	-10.7582
▁naturelles	-10.7584
▁conforme	-10.7586
▁j'en	-10.759
▁accroître	-10.7591
▁provenance	-10.7598
▁fishermen	-10.7599
▁women.	-10.76
▁santé.	-10.7601
▁signature	-10.7611
▁blanc	-10.7612
▁détails	-10.7619
▁ongoing	-10.7619
▁d'atteindre	-10.7619
▁conserver	-10.7621
▁stabilisation	-10.7624
▁invest	-10.7627
▁d'argent	-10.7628
▁l'établissement	-10.7628
▁répercussions	-10.763
▁cohérente	-10.7632
▁protected	-10.7634
▁rules.	-10.7644
▁PAC	-10.7649
▁Assembly	-10.7655
▁viable	-10.7665
▁compatible	-10.7668
▁disposent	-10.767
▁believes	-10.7675
▁leader	-10.7676
▁briefly	-10.7678
▁tchèque	-10.7681
▁l’accord	-10.7684
▁Report	-10.7685
▁life.	-10.7688
▁durable.	-10.7693
▁legally	-10.7699
▁politically	-10.7707
▁pouvez	-10.771
▁vivement	-10.7717
▁ambitions	-10.7717
▁organisé	-10.7719
▁united	-10.7726
▁bout	-10.7729
▁significantly	-10.7733
▁transfrontalier	-10.7735
▁composition	-10.7735
▁90	-10.7737
▁l'époque	-10.7737
▁proposals.	-10.7738
▁Hungarian	-10.774
▁adhésion	-10.7741
▁board	-10.7743
▁2010,	-10.7744
▁saluer	-10.7746
▁published	-10.7747
▁résolution.	-10.7748
▁oppose	-10.775
▁near	-10.7751
▁préalable	-10.7754
▁Last	-10.7759
▁information.	-10.7766
▁provenant	-10.7766
▁Doha	-10.7767
▁seeing	-10.7768
▁shadow	-10.7769
▁image	-10.7769
▁barriers	-10.7771
▁tellement	-10.7774
▁répéter	-10.778
▁evening	-10.7781
▁choose	-10.7782
▁régionales	-10.7783
▁abordé	-10.7785
▁degré	-10.7786
▁Ombudsman	-10.7793
▁formulation	-10.7795
▁Zimbabwe	-10.7795
▁apporte	-10.7798
▁publicité	-10.7799
▁referring	-10.7801
▁Latin	-10.7804
▁dignity	-10.7807
▁migrants	-10.781
▁ensemble.	-10.7812
▁valuable	-10.7817
▁More	-10.7818
▁Parliament’s	-10.7819
▁agit	-10.7821
▁driving	-10.7822
▁adopte	-10.7823
▁electricity	-10.7825
▁claim	-10.7826
▁resulting	-10.7833
▁l'Irlande	-10.7834
▁3,	-10.7834
▁obligatoire	-10.7839
▁suggestion	-10.7842
▁basée	-10.7844
▁extérieures	-10.7844
▁strategy.	-10.7845
▁justified	-10.7849
▁ambition	-10.785
▁soyons	-10.7859
▁aid.	-10.7865
▁socialistes	-10.7865
▁basis.	-10.7865
▁White	-10.787
▁Portugal,	-10.7872
▁wait	-10.7875
▁reprendre	-10.7875
▁siècle	-10.7881
▁nationaux.	-10.7882
▁mois.	-10.7884
▁comportement	-10.7884
▁primary	-10.7888
▁comporte	-10.789
▁fixé	-10.7891
▁moyenne	-10.7894
▁accounts	-10.7895
▁Solana	-10.7896
▁Thursday	-10.7897
an	-10.79
▁commerciale	-10.7902
ntergovernmental	-10.7903
▁pilier	-10.7907
▁réduit	-10.7913
▁Food	-10.7915
▁remove	-10.7918
▁problèmes.	-10.792
▁leads	-10.7921
▁penalty	-10.7922
▁undertaken	-10.7923
▁avancées	-10.7925
▁partenaire	-10.7926
▁dangereux	-10.7931
▁Dublin	-10.7931
▁strategies	-10.7932
▁suffer	-10.7933
▁accordée	-10.7936
▁2004.	-10.794
▁Quand	-10.7941
▁Rapport	-10.7945
▁correspond	-10.7947
▁brief	-10.7947
▁l'impression	-10.795
▁conception	-10.7952
▁fine	-10.7952
▁absolute	-10.7953
▁production.	-10.7955
▁étroitement	-10.796
▁engage	-10.7965
▁(vote)	-10.7967
▁Comité	-10.7967
▁devient	-10.797
▁Once	-10.797
▁majeur	-10.7971
▁entend	-10.7978
▁coherent	-10.7983
▁daily	-10.7985
▁résolution,	-10.7994
▁Patten	-10.7998
▁changing	-10.8003
▁introduire	-10.8003
▁Before	-10.8007
▁prêt	-10.8009
▁2008.	-10.801
▁listen	-10.8014
▁euro.	-10.8022
▁année.	-10.8024
▁n°	-10.8025
▁room	-10.8026
▁êtres	-10.8027
',	-10.8027
▁française	-10.8031
▁region,	-10.8036
▁importante.	-10.8037
▁industrie	-10.8037
▁remettre	-10.8039
▁identify	-10.8039
▁pratiquement	-10.8043
▁capitaux	-10.8043
▁Northern	-10.8043
▁cela.	-10.8047
▁présentation	-10.8047
▁n'ait	-10.8051
▁mondiale.	-10.8056
environnementaux	-10.8057
▁imports	-10.8057
▁playing	-10.8057
▁E	-10.8058
▁Internal	-10.8059
▁saw	-10.8063
▁works	-10.8068
▁someone	-10.807
▁paroles	-10.8073
▁formal	-10.8074
▁bons	-10.8077
▁neighbouring	-10.8084
▁PSE	-10.8085
▁regular	-10.8085
▁mouvement	-10.8089
▁postes	-10.8091
▁unfair	-10.8097
▁prévues	-10.8098
▁organisée	-10.81
▁enfants.	-10.8101
▁amendments.	-10.8111
▁exportations	-10.8112
▁ville	-10.8113
▁prospérité	-10.8114
▁4,	-10.8115
▁assumer	-10.8118
▁becomes	-10.8118
▁duquel	-10.8119
▁constitute	-10.8139
▁whole.	-10.8148
▁derrière	-10.815
▁efficace.	-10.8151
▁grant	-10.8151
▁ferroviaire	-10.8151
▁connaissons	-10.8152
▁People	-10.8153
▁understood	-10.816
▁initiative.	-10.8163
▁authorities.	-10.8164
▁nécessaires.	-10.8165
▁reflète	-10.8168
▁tenue	-10.8168
▁sécurité,	-10.8169
able	-10.8173
▁l'interdiction	-10.8173
▁Cooperation	-10.8184
▁essayer	-10.8185
▁details	-10.8189
h	-10.819
▁stock	-10.8191
▁honour	-10.8192
▁inclure	-10.82
▁d'agir	-10.8204
▁Rights,	-10.821
▁crédit	-10.8217
▁considers	-10.8218
▁intérieur.	-10.822
▁wider	-10.8221
▁choisi	-10.8231
▁liens	-10.8232
▁américain	-10.8237
▁réside	-10.8239
▁VAT	-10.8243
▁enjoy	-10.8243
▁century	-10.8246
honorable	-10.8251
▁duties	-10.8256
▁p.m.	-10.8257
▁privé	-10.8258
▁spécial	-10.8262
▁voit	-10.8264
▁Palestine	-10.8266
▁addressing	-10.8271
▁entier	-10.8272
▁actuelle.	-10.8279
▁Cuba	-10.8285
▁mutuelle	-10.8286
▁l'ONU	-10.8288
▁dumping	-10.8289
▁Are	-10.8293
▁brièvement	-10.8293
▁Russie.	-10.8294
▁markets.	-10.8295
▁highlighted	-10.8295
▁objectives.	-10.8295
▁Méditerranée	-10.8297
▁concentrate	-10.8316
▁publication	-10.8328
▁Can	-10.8329
▁L'ord	-10.833
▁Kosovo.	-10.8331
▁section	-10.8332
▁l'Agence	-10.8333
▁Regional	-10.8334
▁sufficiently	-10.8334
▁Quel	-10.8342
▁S'il	-10.8342
▁urban	-10.8346
▁function	-10.8347
▁assist	-10.8349
▁démarche	-10.835
▁lié	-10.8351
▁pleine	-10.8352
d'investissement	-10.8357
▁accessible	-10.8358
▁Commissioner.	-10.8364
▁legislation,	-10.8364
▁possibly	-10.8365
▁routes	-10.8369
▁obliged	-10.837
▁apart	-10.8371
▁m'	-10.8371
▁proceedings	-10.8373
▁External	-10.8374
▁Without	-10.8374
▁Donc	-10.8375
▁Non	-10.8376
▁expectations	-10.8376
▁meant	-10.8377
▁thanking	-10.838
▁permettront	-10.8383
▁intégrée	-10.8388
▁pêche,	-10.8393
▁transitional	-10.8403
▁exercer	-10.8405
▁tragic	-10.8406
▁together.	-10.8407
▁extensive	-10.8409
▁informer	-10.8415
▁susceptibles	-10.8415
▁determination	-10.8415
▁flux	-10.8415
▁essentielles	-10.8416
▁preparation	-10.8417
▁futures	-10.8418
▁Austrian	-10.8419
▁directe	-10.8425
▁Consequently,	-10.8435
▁moreover	-10.844
▁Moyen-Orient	-10.844
▁observe	-10.8441
▁problem,	-10.8454
▁milk	-10.846
▁caractéristique	-10.8466
▁sets	-10.8472
▁enquête	-10.8474
▁appropriée	-10.8475
▁approprié	-10.8475
▁mobilisation	-10.8485
▁mené	-10.8485
▁utilisées	-10.8485
▁partly	-10.8492
▁participants	-10.8504
▁multilateral	-10.8505
▁Ashton	-10.8512
▁advance	-10.8513
▁Thus	-10.8523
▁succeed	-10.8524
▁orientale	-10.8532
▁National	-10.8537
▁affects	-10.8539
▁chiffre	-10.8539
▁élargissement	-10.8543
▁britanniques	-10.8544
▁standards.	-10.8546
▁choisir	-10.8547
▁bénéfices	-10.8549
▁pillar	-10.855
▁processes	-10.8555
▁necessary.	-10.8555
▁suffered	-10.8561
▁proche	-10.8565
▁paper	-10.8565
▁attempts	-10.8567
▁destiné	-10.8571
▁chapitre	-10.8576
▁exceptions	-10.858
▁transformation	-10.8583
▁speaker	-10.8585
▁l'exploitation	-10.8588
▁deliver	-10.859
▁uniform	-10.8592
▁gros	-10.8596
▁agency	-10.8597
▁quantité	-10.8598
▁contain	-10.8598
▁counter	-10.8598
▁observation	-10.8599
▁35	-10.8605
▁culturel	-10.8608
environnementale	-10.8609
▁fields	-10.8615
▁Treaties	-10.8615
▁fruits	-10.8617
▁suggested	-10.8617
▁exemples	-10.8618
▁habitants	-10.862
▁privée	-10.8621
▁adapt	-10.8627
▁force.	-10.8628
▁usage	-10.8631
▁helped	-10.8631
▁greatly	-10.8631
rait	-10.8634
▁intéressant	-10.8636
▁(SK)	-10.864
▁contribuera	-10.8641
▁tête	-10.8641
▁(CS)	-10.8645
▁applications	-10.8647
▁libéraux	-10.865
▁carrying	-10.8655
▁démocratique.	-10.8666
▁qu’elles	-10.8672
▁equipment	-10.8673
▁Having	-10.8673
▁domaine,	-10.8678
▁State.	-10.8685
▁2006.	-10.8688
gouvernementale	-10.8689
▁demain,	-10.8691
▁somme	-10.8692
▁refus	-10.87
▁mettent	-10.8706
▁Centre	-10.8711
▁élaborer	-10.8712
▁frontière	-10.8716
▁amis	-10.8716
▁connaissances	-10.872
▁l'Afrique	-10.8722
▁Russie,	-10.8723
▁guaranteeing	-10.8728
▁humain	-10.8729
▁paix.	-10.8733
▁difficulty	-10.8741
▁confirmer	-10.8742
▁learning	-10.8747
▁Serbia	-10.8748
▁Grande-Bretagne	-10.875
▁détail	-10.8752
▁anciens	-10.8752
▁thèmes	-10.8754
▁terre	-10.8757
▁trait	-10.8764
▁qu'aucun	-10.8769
▁participé	-10.8769
▁satisfaire	-10.877
▁others.	-10.8772
▁terrorism.	-10.8774
▁science	-10.8775
▁dynamique	-10.8777
▁Verheugen	-10.8779
▁d'accès	-10.8779
▁opérateurs	-10.8781
▁West	-10.8787
▁Common	-10.8788
▁seeks	-10.8792
▁Afrique	-10.8794
▁libre-échange	-10.8794
▁spread	-10.8795
▁déclarer	-10.8796
▁détriment	-10.8797
▁transatlantique	-10.8797
▁signe	-10.8798
▁realistic	-10.88
▁prosperity	-10.8802
▁competent	-10.8807
▁materials	-10.8811
▁spite	-10.8812
▁indicated	-10.8814
▁existantes	-10.8815
▁J’espère	-10.8817
▁health.	-10.8818
▁sorry	-10.8822
▁déclare	-10.8825
▁poorest	-10.8827
th	-10.8829
▁jusqu’	-10.8829
▁énergétiques	-10.8832
▁surely	-10.8836
▁television	-10.8837
▁wide	-10.8837
▁donnée	-10.8838
▁crains	-10.8841
▁exclusivement	-10.8852
▁release	-10.8852
▁Danish	-10.8855
▁catégorie	-10.8856
▁technologique	-10.8859
▁échange	-10.8859
▁rejeter	-10.8862
’.	-10.8862
▁competition.	-10.8868
▁links	-10.8869
▁coopérer	-10.887
▁drug	-10.8872
▁objections	-10.8875
▁definitely	-10.8875
▁l'examen	-10.8876
▁part.	-10.8879
▁profondément	-10.8881
▁Safety	-10.8882
▁negotiation	-10.8886
▁Schulz	-10.889
▁ravi	-10.8894
▁vente	-10.8896
▁violence.	-10.8901
▁l'OTAN	-10.8901
▁quota	-10.8902
▁Belgian	-10.8903
▁dossiers	-10.8903
▁truth	-10.8907
▁1999.	-10.8916
▁Qui	-10.8919
▁revenu	-10.892
▁chercher	-10.8922
▁contrats	-10.8923
▁l’article	-10.8924
▁whereby	-10.8924
▁20%	-10.8925
▁levée	-10.8933
▁Union’s	-10.8933
▁southern	-10.8933
▁trouvons	-10.8935
▁regulation.	-10.8937
e,	-10.8938
▁pressions	-10.8942
▁compulsory	-10.8945
▁l'exécution	-10.8948
▁example.	-10.8954
▁l’avenir	-10.8958
▁running	-10.896
▁contracts	-10.8963
▁respected	-10.8965
▁premièrement	-10.8966
▁d'apporter	-10.8967
▁avancée	-10.8972
▁significative	-10.8972
▁locaux	-10.8973
▁remplacer	-10.8975
▁answers	-10.8976
▁Sommet	-10.8977
▁rejet	-10.8978
▁built	-10.8984
▁diplomatic	-10.8987
▁examen	-10.8988
▁constaté	-10.8989
▁quinze	-10.8997
▁respectent	-10.9001
▁requests	-10.9009
▁ignore	-10.9009
▁Subject	-10.9011
▁chosen	-10.9014
▁Democrats)	-10.9015
▁radical	-10.9017
▁bit	-10.9019
u	-10.9023
▁l’industrie	-10.9024
▁strengthened	-10.9027
▁imagine	-10.903
▁excellente	-10.903
▁unique.	-10.9031
▁aviation	-10.9033
▁(Christian	-10.9036
▁médiateur	-10.9036
▁qu’en	-10.9037
▁satisfied	-10.9042
▁demeure	-10.9045
▁launched	-10.9045
▁amended	-10.9047
▁J'en	-10.9049
▁2005.	-10.9049
▁oui	-10.905
▁hearing	-10.905
▁purely	-10.9051
▁taille	-10.9055
▁went	-10.9057
▁efficacité	-10.9058
▁silence	-10.9059
▁Culture	-10.9066
▁previously	-10.9067
▁représentation	-10.907
▁nécessite	-10.9074
▁automobile	-10.9078
▁entière	-10.9081
▁disant	-10.9088
▁L'objectif	-10.909
▁parliament	-10.9091
▁enlargement.	-10.9095
▁adoptés	-10.9097
▁soulevé	-10.9099
▁passé,	-10.9102
▁convenu	-10.9103
▁W	-10.9111
▁solely	-10.912
▁significance	-10.9128
▁Budget	-10.914
▁retirer	-10.9143
▁modes	-10.9145
▁générales	-10.9149
▁issued	-10.915
▁l'indépendance	-10.9154
▁Liberal	-10.9156
▁commence	-10.9157
▁conduire	-10.9158
▁courant	-10.916
▁évaluer	-10.916
▁paix,	-10.9161
▁conducted	-10.9164
▁convaincre	-10.9165
▁determine	-10.9165
▁deficit	-10.9166
▁concrète	-10.9167
▁Polish	-10.917
▁chargé	-10.9173
▁worst	-10.9175
▁administrations	-10.9176
▁Fischler	-10.9178
▁Will	-10.9179
▁capitale	-10.9182
▁terrorisme.	-10.9182
▁demanding	-10.9183
▁deals	-10.9184
▁months.	-10.919
▁véritables	-10.9195
▁apparaît	-10.9196
▁a-t-il	-10.9198
▁attentes	-10.9199
▁milieu	-10.92
▁Saddam	-10.92
▁patrimoine	-10.92
▁Santer	-10.9203
▁faibles	-10.9204
▁investigation	-10.9204
▁sud	-10.9206
▁school	-10.9206
▁depend	-10.9207
▁systems.	-10.9208
▁bénéficient	-10.9208
▁Tel	-10.9208
▁l’importance	-10.921
▁restructuring	-10.9213
▁Convention.	-10.9219
▁Where	-10.922
▁enough.	-10.9223
▁freedom,	-10.9223
▁Peut-être	-10.9225
▁discutons	-10.9225
▁foremost	-10.9225
▁huit	-10.9226
▁producing	-10.9226
▁practice.	-10.9231
▁suivante:	-10.9233
▁meat	-10.9234
▁souhait	-10.9239
▁existants	-10.924
▁behaviour	-10.9242
▁déposés	-10.9246
▁essentially	-10.9247
▁day,	-10.9247
▁stressed	-10.925
▁pertes	-10.9251
▁acting	-10.9251
▁discuté	-10.9253
▁définitive	-10.9254
▁bilan	-10.926
▁debated	-10.9261
▁hundreds	-10.9261
▁concurrence.	-10.9264
▁civiles	-10.9266
▁venir.	-10.9268
▁themselves.	-10.9272
▁fer	-10.9274
▁governing	-10.9276
▁extending	-10.9277
▁crise.	-10.9279
▁Does	-10.9282
▁posé	-10.9283
▁healthy	-10.9284
▁l'équilibre	-10.9291
▁Policy,	-10.9291
▁justification	-10.9291
▁proof	-10.9295
▁humaines	-10.9295
▁Finland	-10.9296
▁salaires	-10.9297
▁climatique.	-10.9298
▁continuera	-10.9299
▁enforcement	-10.9301
▁débattons	-10.9301
▁Nor	-10.9304
▁UE	-10.9305
▁écrit	-10.9309
▁règlement,	-10.9314
▁deserves	-10.9315
▁identified	-10.9315
▁welcomed	-10.9319
▁Home	-10.9321
▁tomorrow.	-10.9323
▁sum	-10.9327
▁TVA	-10.933
▁Both	-10.9331
▁autres.	-10.9331
▁discipline	-10.9332
▁suspension	-10.9333
▁relance	-10.9335
▁enfants,	-10.9336
▁1.	-10.9337
▁depends	-10.9338
▁démontré	-10.934
es.	-10.9342
▁solide	-10.9343
▁clarification	-10.9344
▁(LT	-10.9345
institutionnelle	-10.9351
▁envisage	-10.9351
▁enhance	-10.936
▁mains	-10.9365
▁d'association	-10.9371
us	-10.9372
▁saisir	-10.9395
▁annoncé	-10.9395
▁tenant	-10.9396
▁Growth	-10.9397
▁vie.	-10.9397
▁numbers	-10.9399
▁Georgia	-10.9402
▁enabling	-10.9403
▁head	-10.9403
▁identity	-10.9407
▁sustainability	-10.9412
▁territoires	-10.9412
▁eight	-10.9416
▁Serbie	-10.9417
▁revoir	-10.9417
▁télévision	-10.942
▁demain.	-10.9422
▁(FI	-10.9424
▁vérifier	-10.9424
▁gouvernementale	-10.9426
▁extreme	-10.943
▁prior	-10.943
▁made.	-10.9433
isation	-10.9438
▁distance	-10.9442
▁up.	-10.9445
▁négocier	-10.9447
▁rappelé	-10.9451
▁speeches	-10.9452
▁responsibility.	-10.9453
▁heavy	-10.9453
▁télécommun	-10.9455
▁renforcée	-10.9458
▁l'opposition	-10.9459
▁possibilities	-10.9459
▁électeurs	-10.946
▁législations	-10.9462
▁prononcer	-10.9466
▁consacré	-10.9477
▁voitures	-10.948
▁Stockholm	-10.948
▁feeling	-10.9483
▁gap	-10.9484
▁s'assurer	-10.9488
▁recall	-10.9488
▁l'Allemagne	-10.9489
▁compréhension	-10.949
is	-10.9493
▁intégration	-10.9493
▁remaining	-10.9496
▁rich	-10.9513
▁cooperation,	-10.9515
▁harmful	-10.9517
▁chairman	-10.952
▁interests.	-10.9523
▁Asia	-10.9525
▁l'activité	-10.9526
▁Barcelona	-10.9527
▁connaissent	-10.9527
▁stands	-10.9528
▁children.	-10.9533
▁surmonter	-10.9538
▁willingness	-10.9541
▁interdiction	-10.9542
▁aériennes	-10.9544
▁core	-10.9547
▁interpretation	-10.9549
▁intégrer	-10.9549
▁experienced	-10.955
▁l’adhésion	-10.9551
▁disposal	-10.9552
▁check	-10.9552
▁refers	-10.9553
▁Toutes	-10.9553
▁spend	-10.956
▁scène	-10.9562
▁prime	-10.9562
▁régulièrement	-10.9563
▁geographical	-10.9566
▁clarifier	-10.9566
▁focused	-10.9567
▁plant	-10.9568
▁répondu	-10.9568
▁said.	-10.9569
▁problématique	-10.9574
▁facts	-10.9577
▁Under	-10.9585
ur	-10.9585
▁Bosnia	-10.9588
▁paying	-10.9589
▁granting	-10.9592
▁effectué	-10.9593
▁replace	-10.9594
▁Finlande	-10.9595
▁exports	-10.9595
▁publique.	-10.9597
▁resources,	-10.9601
▁sugar	-10.9605
▁Brok	-10.9605
▁opened	-10.9618
▁cars	-10.9618
▁progress.	-10.9618
▁news	-10.9626
▁clarté	-10.9631
▁nationales.	-10.9632
tergovernmental	-10.9633
▁favourable	-10.9633
▁internes	-10.9636
▁hauteur	-10.9639
▁crée	-10.964
▁satisfactory	-10.9646
▁Tampere	-10.9647
▁présentent	-10.9648
▁exemple.	-10.9653
▁Turquie.	-10.9655
▁venu	-10.9656
▁savent	-10.9658
▁remplir	-10.9658
▁camps	-10.9662
▁Christian	-10.9663
▁consumers.	-10.9664
▁menaces	-10.9665
▁suitable	-10.9666
▁dommages	-10.9667
▁institutionnel	-10.9668
▁motifs	-10.9669
▁Protocol	-10.9674
▁Just	-10.9679
▁rédigé	-10.9682
▁involved.	-10.969
▁riches	-10.9694
▁adresser	-10.9695
▁prisonniers	-10.9697
▁marketing	-10.9698
purement	-10.9701
▁intérieures	-10.9701
▁strictes	-10.9703
▁carbon	-10.9708
▁énergie	-10.9708
▁destinée	-10.9713
▁affirmer	-10.9713
▁declared	-10.9714
▁indique	-10.9715
▁erreurs	-10.9724
▁timetable	-10.9731
▁Corée	-10.9732
▁contributed	-10.9733
▁launch	-10.9738
▁powerful	-10.9739
▁appartient	-10.974
▁respect.	-10.9743
▁entered	-10.9747
▁V	-10.9753
▁disasters	-10.9754
▁mondial.	-10.9757
▁corps	-10.9758
▁reflected	-10.9763
▁agents	-10.9765
▁nettement	-10.9767
▁d'intégration	-10.9768
▁Bosnie	-10.9769
▁civils	-10.977
▁d’action	-10.9773
▁prenne	-10.9773
▁1992	-10.9774
▁successfully	-10.9776
▁formulées	-10.9779
▁poste	-10.9782
▁indépendants	-10.9782
▁modified	-10.9783
▁intellectual	-10.9784
▁souci	-10.9786
▁fonctionner	-10.9786
▁Roms	-10.9787
▁5,	-10.9789
▁Presidency.	-10.979
▁Certes	-10.9793
▁sert	-10.9794
▁marine	-10.9795
▁prisoners	-10.9797
▁demandent	-10.9802
▁passenger	-10.9811
▁worse	-10.9813
▁pacifique	-10.9818
▁thorough	-10.9818
▁Turquie,	-10.9824
▁succeeded	-10.9826
▁instances	-10.9828
▁d’euros	-10.9831
▁wine	-10.9834
rai	-10.9842
▁increases	-10.9845
▁products,	-10.9847
▁historical	-10.9851
▁c'était	-10.9851
▁biggest	-10.9851
▁deep	-10.9855
▁presenting	-10.9857
▁affecting	-10.9858
▁supposed	-10.9863
▁attendent	-10.9868
▁2003.	-10.9873
▁agreements.	-10.9876
▁jeudi	-10.9876
▁i.e.	-10.9884
▁concessions	-10.9886
est	-10.9889
▁commis	-10.9893
▁l'intervention	-10.99
▁do.	-10.9901
▁suivant	-10.9909
▁refuser	-10.9911
▁marque	-10.9913
▁l’État	-10.9914
▁engagés	-10.9916
▁s'agissait	-10.9916
▁eastern	-10.9916
▁époque	-10.992
▁tensions	-10.9922
▁Croatie	-10.9925
▁dirais	-10.9925
▁MM.	-10.9926
▁plants	-10.9928
▁easily	-10.993
▁lire	-10.9931
▁remerciements	-10.9933
▁BSE	-10.9936
▁President.	-10.9937
▁recourir	-10.9937
▁hopes	-10.994
▁faute	-10.9948
▁vague	-10.9951
▁reliable	-10.9952
▁rapporteur's	-10.9953
▁prie	-10.9954
▁utilisée	-10.9956
▁accomplis	-10.9959
▁constitutes	-10.9961
▁Rural	-10.9964
▁tenus	-10.9965
▁sovereignty	-10.997
▁affirmé	-10.997
▁tools	-10.9971
▁population,	-10.9974
▁possède	-10.9977
▁skills	-10.9981
▁whereas	-10.9983
▁atteinte	-10.9985
▁green	-10.9986
▁regarded	-10.9988
▁futurs	-10.9989
▁topic	-10.9989
▁prospects	-10.999
▁outil	-10.999
▁background	-10.9991
▁écologique	-10.9991
▁l'autorité	-10.9991
▁T	-10.9992
▁funds.	-10.9993
▁espérer	-10.9997
▁transmission	-11.0001
▁Hungary	-11.0001
▁dépendance	-11.0002
▁reiterate	-11.0002
▁privés	-11.0007
▁approuver	-11.0011
▁400	-11.0015
▁Russia,	-11.0018
▁reaching	-11.0021
p	-11.0021
▁Allemagne	-11.0023
▁(La	-11.0026
▁complicated	-11.0028
▁restore	-11.0029
▁openness	-11.0029
▁opportun	-11.0029
▁l'expérience	-11.003
▁satisfait	-11.0034
▁G	-11.0036
▁Belgium	-11.0039
▁légitimité	-11.0039
▁disent	-11.004
▁d'appliquer	-11.004
▁professionnels	-11.004
▁offering	-11.0041
▁précédente	-11.0042
▁électronique	-11.0046
▁Parliamentary	-11.0046
▁régionaux	-11.0052
▁l’élargissement	-11.0057
▁facilement	-11.0058
▁R	-11.0059
▁l’Europe.	-11.0059
▁retraite	-11.0062
▁gauche	-11.0064
-il	-11.0066
▁ici.	-11.0068
▁ratified	-11.0072
▁considérée	-11.0078
▁football	-11.0079
▁vessels	-11.0082
▁rencontre	-11.0083
▁opposite	-11.0088
▁méritent	-11.009
▁liberté,	-11.009
▁promised	-11.0091
▁devenu	-11.0095
▁retain	-11.0095
▁terrorism,	-11.0097
▁utmost	-11.01
s'	-11.0104
▁PIB	-11.0105
▁prétexte	-11.0105
▁illégale	-11.0106
▁difficulté	-11.0107
▁Association	-11.0107
▁chaîne	-11.0112
▁site	-11.0125
▁doubts	-11.0127
▁things,	-11.0128
▁deeply	-11.0129
▁l'union	-11.0129
▁greenhouse	-11.0133
▁advantages	-11.0137
▁sake	-11.014
administration	-11.0141
▁mines	-11.0141
▁prochains	-11.0147
▁proud	-11.0149
▁abus	-11.015
▁consequence	-11.0152
▁2.	-11.0154
▁chimiques	-11.0159
▁2013	-11.0163
▁justifier	-11.0166
▁pire	-11.0168
▁safety.	-11.0171
▁voudrions	-11.0172
▁supplementary	-11.0172
▁incorporated	-11.0173
▁entraîne	-11.0174
▁claims	-11.0175
▁afraid	-11.0177
▁country's	-11.0179
▁Britain	-11.0183
▁général.	-11.0185
▁l’heure	-11.0188
▁soumise	-11.0189
▁d'examiner	-11.0194
▁complet	-11.0194
▁medicines	-11.0195
▁structurelles	-11.0199
▁mettant	-11.02
▁Partnership	-11.0202
▁intensive	-11.0205
▁committee.	-11.0206
▁generation	-11.0206
▁société.	-11.0207
▁convaincue	-11.0208
▁tangible	-11.021
▁procès	-11.0212
▁fixés	-11.0212
▁lacunes	-11.0212
▁abolition	-11.0212
▁Joint	-11.0216
▁navigation	-11.0217
▁prospect	-11.0224
▁forêts	-11.0225
▁lay	-11.0226
▁instamment	-11.0233
▁Galileo	-11.0233
▁allocation	-11.0242
▁élaboré	-11.0246
g	-11.025
▁titre,	-11.0252
▁Constitution.	-11.0257
▁répond	-11.0263
▁GDP	-11.0272
▁vice-président	-11.0273
▁Netherlands	-11.0275
▁russe	-11.0277
▁garantissant	-11.0277
▁1990	-11.0282
▁gagner	-11.0282
▁présentés	-11.0286
▁d’avoir	-11.0288
▁dynamic	-11.0294
▁Hamas	-11.0295
▁clairs	-11.0298
▁Russia.	-11.0298
▁minorité	-11.0298
▁right.	-11.0303
▁sales	-11.0303
▁size	-11.0304
▁pétitions	-11.0307
▁chose.	-11.0311
▁women's	-11.0312
ais	-11.0313
▁engagée	-11.0313
▁l'Ukraine	-11.0317
▁save	-11.032
▁concrets	-11.0321
▁applicant	-11.0323
▁limitation	-11.0325
▁cite	-11.0326
▁cuts	-11.0329
▁2002.	-11.0332
▁l’UE.	-11.0337
▁chaleureusement	-11.0339
▁completed	-11.0344
▁terrorisme,	-11.0347
▁expériences	-11.0348
▁motions	-11.035
▁texts	-11.0351
▁reaction	-11.0354
▁dispute	-11.0355
▁Géorgie	-11.0358
▁rapporteure	-11.036
▁retrait	-11.037
▁smaller	-11.0371
▁term.	-11.0372
▁pouvant	-11.0372
▁passé.	-11.0381
▁threats	-11.0381
▁jusqu'	-11.0381
▁dialogue.	-11.0383
▁l'avez	-11.0385
▁eliminate	-11.0388
▁groups,	-11.039
▁vingt	-11.039
▁piece	-11.039
▁mobile	-11.0392
▁Procedure	-11.0396
▁matters.	-11.0402
▁EU’s	-11.0402
▁Bush	-11.0404
▁tragedy	-11.0408
▁l’année	-11.0408
▁accordé	-11.0408
▁rurales	-11.041
▁purposes	-11.041
▁extraordinaire	-11.041
▁raising	-11.0412
▁users	-11.0412
ness	-11.0414
▁emphasised	-11.0419
▁âgées	-11.0423
▁neighbours	-11.0424
▁simplifier	-11.0424
▁break	-11.0427
▁unanimously	-11.0431
▁leaving	-11.0432
▁commit	-11.0433
▁(Parliament	-11.0434
▁contribuent	-11.0438
▁preuves	-11.0438
▁subject.	-11.0439
▁budgétaire,	-11.0439
▁success.	-11.0443
▁secteur.	-11.0445
▁organise	-11.0445
▁l'excellent	-11.0452
▁schemes	-11.0455
▁groups.	-11.0456
▁recettes	-11.0462
▁bureaucratie	-11.0463
▁l'harmonisation	-11.0463
▁manifestement	-11.0464
▁voies	-11.0473
▁maintained	-11.0474
▁l'unanimité	-11.0477
▁Civil	-11.0479
▁heading	-11.048
▁species	-11.0482
▁Over	-11.0485
▁violent	-11.0485
▁h	-11.0491
▁clés	-11.0492
▁évoquer	-11.0494
▁vast	-11.0495
▁allemande	-11.0497
▁CE	-11.0497
▁l’économie	-11.05
▁pensent	-11.0502
▁himself	-11.0506
▁seuil	-11.0506
▁applicables	-11.0507
▁players	-11.0508
▁authorities,	-11.0514
▁advertising	-11.0516
▁voisinage	-11.0517
▁voulais	-11.052
▁peur	-11.0524
▁guère	-11.0525
▁ordinary	-11.0525
▁import	-11.0529
▁équilibré	-11.0534
▁juridique.	-11.0537
▁racisme	-11.0538
▁merci	-11.054
▁contribuables	-11.0544
▁postal	-11.0546
▁élus	-11.0549
▁visible	-11.055
▁showing	-11.0553
▁Europe’s	-11.0565
ic	-11.0567
▁indiquer	-11.0572
▁beings	-11.0574
▁electoral	-11.0577
▁démontre	-11.0578
▁Congo	-11.058
▁Industry	-11.0583
▁portent	-11.0583
▁Chaque	-11.0589
▁considérations	-11.0591
▁équilibrée	-11.0592
▁repris	-11.0595
▁strength	-11.0598
▁Son	-11.06
▁négociations.	-11.0605
▁quelconque	-11.0606
▁programmes,	-11.0607
▁considerably	-11.0609
▁rapidly	-11.0611
▁achievement	-11.0611
▁l’égalité	-11.0612
▁Hongrie	-11.0615
▁exiger	-11.0616
▁creates	-11.0617
▁2020.	-11.0619
▁clarity	-11.0621
▁von	-11.0622
▁admit	-11.0624
▁croissante	-11.0625
▁negotiated	-11.0628
▁fil	-11.0628
▁l’égard	-11.0629
▁qu'avec	-11.0629
▁armed	-11.063
▁pencher	-11.0632
iez	-11.0633
▁necessarily	-11.0635
▁crime.	-11.0636
▁anti-	-11.0644
▁Well	-11.0649
▁pesticides	-11.0649
ion	-11.0654
▁combined	-11.0659
▁rejeté	-11.0661
▁facilities	-11.0661
▁recommande	-11.0662
▁Quoi	-11.0663
▁Députés	-11.0666
▁Telle	-11.0682
▁manufacturers	-11.0686
▁Follow	-11.0687
▁feed	-11.069
▁advice	-11.069
▁investir	-11.0691
▁écoles	-11.0691
▁drogue	-11.0696
▁concrètement	-11.0699
▁surprised	-11.07
▁Belgique	-11.0702
▁engager	-11.0703
▁inadequate	-11.0703
▁Grâce	-11.0704
▁légitime	-11.0709
▁d’entre	-11.0711
▁d'aider	-11.0713
▁money.	-11.0716
▁borders.	-11.0716
▁tente	-11.0718
▁d'écus	-11.072
▁sought	-11.0721
▁fallait	-11.0724
▁reflects	-11.0724
▁encouraged	-11.0725
▁aujourd'	-11.0728
▁confirmé	-11.0731
▁d'augmenter	-11.0732
▁results.	-11.0735
és	-11.0736
▁importantly	-11.0737
▁inflation	-11.0739
▁d'amendements	-11.074
▁continent.	-11.074
▁targeted	-11.074
▁exprimées	-11.0743
▁siège	-11.0743
▁réductions	-11.0743
▁puisqu'il	-11.0745
▁destination	-11.0751
▁leçons	-11.0756
▁stratégiques	-11.0759
▁world's	-11.076
▁den	-11.0761
▁messages	-11.0763
▁justify	-11.0765
▁personnes.	-11.0765
▁negotiate	-11.0767
▁Déclaration	-11.0769
▁drafting	-11.0772
▁representation	-11.0786
▁unnecessary	-11.0786
▁couple	-11.0787
▁accord.	-11.079
▁d'encourager	-11.0792
▁repeatedly	-11.0793
▁consacrer	-11.0794
▁needed.	-11.0795
▁exceptional	-11.0798
▁étions	-11.0798
▁beef	-11.0798
▁voyons	-11.0801
▁fonctions	-11.0806
▁unies,	-11.0807
▁savings	-11.0809
▁welcomes	-11.0809
▁analyses	-11.0811
▁hui	-11.0815
▁nationaux,	-11.0818
▁expressing	-11.0828
▁relate	-11.0829
▁prenons	-11.0833
▁initiale	-11.0837
▁présentées	-11.084
▁opinion.	-11.0841
▁fairly	-11.0842
▁sûreté	-11.0844
▁nearly	-11.0846
▁tenté	-11.0846
▁campagnes	-11.0847
▁schools	-11.0851
▁droit.	-11.0852
▁fondamentaux.	-11.0854
▁l'exclusion	-11.0857
▁carte	-11.0858
▁amend	-11.0863
▁l'est	-11.0867
▁appris	-11.0867
▁phenomenon	-11.0868
▁aside	-11.0869
▁correctly	-11.0871
▁net	-11.0871
▁view.	-11.0873
▁l’objet	-11.0874
▁retire	-11.0875
▁s'applique	-11.0877
▁l’un	-11.0877
▁catégories	-11.0878
▁orientation	-11.0878
▁heureuse	-11.0879
▁Time	-11.088
▁discussion.	-11.0881
▁stimuler	-11.0887
▁field.	-11.089
▁volontaire	-11.0895
▁partageons	-11.0898
▁observer	-11.09
▁H	-11.0902
▁coordonner	-11.0905
▁ouvrir	-11.0911
▁dollars	-11.0911
▁intervene	-11.0914
▁dites	-11.0914
▁feront	-11.0918
▁couvrir	-11.0921
▁cities	-11.0921
▁underline	-11.0923
▁broader	-11.0925
▁raison,	-11.0925
▁trade.	-11.0927
▁Arab	-11.0928
▁energy.	-11.0928
▁défaut	-11.0928
▁constamment	-11.0928
▁charte	-11.0933
▁waters	-11.0936
▁bearing	-11.0937
▁wealth	-11.0938
▁past.	-11.0938
▁She	-11.094
▁allemand	-11.0941
ée	-11.0942
▁existant	-11.0943
▁puissance	-11.0944
▁turned	-11.0944
▁exclusive	-11.0945
▁friends	-11.0946
▁appliquées	-11.0952
▁island	-11.0952
▁Therefore	-11.0959
▁appelé	-11.0961
▁L’Union	-11.0964
▁educational	-11.0967
▁positives	-11.0969
▁indication	-11.0971
▁red	-11.098
▁s'avère	-11.0981
▁publié	-11.0982
▁Presidents	-11.0982
▁américaine	-11.0993
▁Denmark	-11.0998
▁50%	-11.1
▁resulted	-11.1002
▁obtained	-11.1002
▁progressivement	-11.1009
▁hardly	-11.1014
▁voient	-11.1016
▁susceptible	-11.1018
▁critère	-11.1019
▁environmentally	-11.103
▁Kinnock	-11.1036
▁EC	-11.1036
▁activities.	-11.1037
▁écrites	-11.1039
▁prendra	-11.1039
▁suivante	-11.104
▁Free	-11.1042
▁d'égalité	-11.1042
▁accorde	-11.1047
▁considérant	-11.1051
▁mistake	-11.1056
▁génération	-11.1057
▁cher	-11.1059
▁boost	-11.1059
▁1993	-11.1061
▁decision.	-11.1062
▁fewer	-11.1066
▁below	-11.1082
▁ECB	-11.1084
▁hit	-11.1084
▁worrying	-11.1084
▁l'instant	-11.1086
▁d'évaluation	-11.1088
▁politiquement	-11.1088
▁label	-11.1094
▁profonde	-11.1099
▁budgétaire.	-11.1103
▁preserve	-11.1105
▁l’énergie	-11.1109
▁l'énergie,	-11.1111
▁undermine	-11.1114
es,	-11.1114
▁d'introduire	-11.1114
▁promise	-11.1115
▁competences	-11.1119
▁unies.	-11.1121
▁pleasure	-11.1122
▁développements	-11.1125
▁augmenté	-11.1127
▁jointly	-11.1128
▁différente	-11.1129
▁vulnérables	-11.1133
▁production,	-11.1136
▁l’occasion	-11.1138
▁unacceptable.	-11.1139
▁warmly	-11.1139
▁BCE	-11.1139
▁tribunal	-11.114
▁collecte	-11.1146
▁fiscales	-11.1147
▁bureaucratic	-11.1156
▁d'expression	-11.1158
▁Blair	-11.116
▁privatisation	-11.1161
▁spécifiquement	-11.1161
▁précédemment	-11.1164
▁Barcelone	-11.117
▁partager	-11.1173
▁argent	-11.1173
▁transmettre	-11.1175
▁pass	-11.1175
▁l'enseignement	-11.1177
▁information,	-11.1178
te	-11.1179
▁physical	-11.118
▁restrictive	-11.1184
▁modalités	-11.1188
▁nationals	-11.1193
▁reservations	-11.1195
▁espèces	-11.1195
▁Japan	-11.1196
▁tackling	-11.1199
▁inquiétude	-11.1203
▁juge	-11.1204
▁75	-11.1207
▁150	-11.1214
▁travailleurs.	-11.1218
▁fassent	-11.1222
▁jouent	-11.1224
▁communautaires.	-11.1224
▁tiendra	-11.1228
▁clear.	-11.1229
▁kinds	-11.123
▁cherche	-11.1231
▁Yes	-11.1231
or	-11.1233
▁falls	-11.1233
▁incentives	-11.1234
▁instaurer	-11.1234
▁affirme	-11.1236
▁fresh	-11.1236
▁attaques	-11.1242
▁libération	-11.1242
▁qu'aux	-11.1243
▁minimales	-11.1251
▁other.	-11.1254
▁Madrid	-11.1256
▁lie	-11.1259
▁assurance	-11.1261
▁worldwide	-11.1262
▁workers.	-11.1266
▁d'États	-11.1266
▁transatlantic	-11.1267
▁2012	-11.1269
▁deserve	-11.1272
▁demonstrates	-11.1272
▁finale	-11.1274
▁fourni	-11.1275
▁healthcare	-11.1275
▁aspirations	-11.1276
▁m	-11.1276
▁temporaire	-11.1277
▁Sa	-11.1277
▁mark	-11.128
▁autorité	-11.128
▁sûre	-11.1281
▁montants	-11.1287
▁text.	-11.1287
▁manner.	-11.129
▁undertakings	-11.1291
▁lasting	-11.1298
▁discrimination.	-11.1298
▁growth.	-11.1298
▁withdraw	-11.1306
▁rétablir	-11.1309
▁drogues	-11.1309
▁bank	-11.131
▁suit	-11.131
▁citoyenneté	-11.1312
▁explanation	-11.1316
▁wording	-11.1317
▁Parmi	-11.1317
rcialisation	-11.1323
▁reality.	-11.1326
▁declarations	-11.1329
▁none	-11.133
▁processing	-11.1332
▁digital	-11.1333
▁jobs,	-11.1335
▁Islamic	-11.1335
▁became	-11.1336
▁elections.	-11.1336
▁climatique,	-11.1337
▁dernier.	-11.1338
▁souhaité	-11.1339
▁DG	-11.134
▁soulever	-11.1341
▁l'Espagne	-11.1344
▁concepts	-11.1345
▁reconnaissant	-11.1345
▁lessons	-11.1345
▁courts	-11.1348
▁espagnole	-11.1348
▁actif	-11.1351
▁Clearly	-11.1354
ers	-11.1354
▁garantit	-11.1354
▁économiques.	-11.1355
▁histoire	-11.1357
▁everybody	-11.1361
▁2011	-11.1363
▁considerations	-11.1364
▁bound	-11.1367
▁Monti	-11.1372
▁Danemark	-11.1375
▁appliquée	-11.1378
▁civilian	-11.1381
▁nord	-11.1381
▁candidat	-11.1386
▁processus.	-11.1388
▁Commissaire.	-11.1391
▁conscient	-11.1395
▁phrase	-11.1398
▁outstanding	-11.1399
▁choses.	-11.1403
▁(article	-11.1404
▁jeunesse	-11.1406
▁rapprocher	-11.1407
▁flotte	-11.1408
▁weak	-11.1409
▁arrest	-11.1409
▁certainty	-11.1413
▁firms	-11.1416
▁gradually	-11.1416
▁dé	-11.1417
▁Parti	-11.1417
▁regulate	-11.142
▁contrairement	-11.1422
▁demandeurs	-11.1423
▁dirai	-11.1424
▁shape	-11.1424
▁collaborer	-11.1424
▁disabled	-11.1425
▁l'affaire	-11.1425
▁engagé	-11.1429
▁inspections	-11.143
ist	-11.1435
▁honest	-11.1435
▁positive.	-11.1437
▁reading.	-11.1437
▁bénéficiaires	-11.1438
▁planification	-11.1439
▁restriction	-11.1443
▁credible	-11.1444
▁devienne	-11.1445
▁sensibles	-11.1447
▁libres	-11.1456
▁belief	-11.1456
▁sauvegarde	-11.1457
▁D'autre	-11.146
▁d'ordre	-11.1463
ar	-11.1464
▁quatrième	-11.1469
▁widespread	-11.147
▁companies.	-11.147
▁pénale	-11.1472
▁workers,	-11.1473
▁indicate	-11.1475
▁societies	-11.1475
▁meaning	-11.1477
▁respects	-11.1483
ive	-11.1486
▁librement	-11.1497
▁larger	-11.1497
▁receiving	-11.1497
▁l'octroi	-11.1497
▁adaptation	-11.15
▁legitimacy	-11.1501
▁yes	-11.1503
▁posent	-11.1504
▁Plan	-11.1508
▁lecture.	-11.1508
▁pénal	-11.151
▁Convention,	-11.1516
▁demographic	-11.1516
▁importants.	-11.1518
▁domaines.	-11.1518
institutionnel	-11.1518
▁employers	-11.1518
▁d'amendement	-11.152
▁proposons	-11.1523
▁espère	-11.1525
▁clean	-11.1531
▁nonetheless	-11.1535
▁project.	-11.1538
▁préjudice	-11.1539
▁unanimous	-11.154
▁shares	-11.1541
▁indications	-11.1541
▁condamner	-11.1541
▁Afin	-11.1542
▁milliard	-11.1546
▁recommend	-11.1547
▁causing	-11.1548
▁souhaitable	-11.1549
▁ALDE	-11.1552
▁récents	-11.1552
▁naturel	-11.1554
▁Frattini	-11.1554
▁covers	-11.1561
▁regardless	-11.1561
▁intérieure	-11.1562
▁patent	-11.1562
▁airlines	-11.1562
▁eyes	-11.1564
▁revised	-11.1565
▁reinforce	-11.157
▁G20	-11.1571
▁moteur	-11.158
▁outils	-11.1581
▁agence	-11.1581
▁heritage	-11.1584
▁ethical	-11.1591
▁énergétique.	-11.1593
▁récentes	-11.1593
▁preparations	-11.1595
▁Du	-11.1598
▁SIS	-11.1599
▁railway	-11.16
▁Japon	-11.1603
▁arise	-11.1606
▁interest.	-11.161
▁donnent	-11.1611
▁eye	-11.1623
▁représenter	-11.1624
▁forest	-11.1627
▁satellite	-11.163
▁n'importe	-11.163
▁raw	-11.163
▁coordinate	-11.1631
▁légale	-11.1635
▁réalité.	-11.1636
▁Obviously	-11.1637
▁comparable	-11.1637
▁economically	-11.1639
▁fermeture	-11.1639
▁discriminations	-11.1641
▁listened	-11.1645
ecommunications	-11.1645
▁l’amendement	-11.165
▁day.	-11.1653
▁durabilité	-11.1654
▁euro,	-11.1655
▁permette	-11.1659
▁Authority	-11.1661
▁hence	-11.1663
▁latine	-11.1664
▁Compte	-11.1664
▁réponse.	-11.1666
▁incidents	-11.1666
▁ecological	-11.1668
-related	-11.1668
▁declare	-11.1669
▁périodes	-11.1674
▁45	-11.1676
▁Union'	-11.1677
▁renforce	-11.1678
▁voilà	-11.1682
▁diffusion	-11.1682
▁health,	-11.1682
▁examined	-11.1683
▁actions.	-11.1683
▁stage.	-11.1683
▁intégré	-11.1687
▁Office	-11.1687
▁Oui	-11.169
▁extraordinary	-11.1695
▁subjects	-11.1695
▁engaged	-11.1696
▁dette	-11.1696
▁deuxièmement	-11.1697
▁Slovakia	-11.1698
▁expansion	-11.1702
▁inutile	-11.1704
▁unfortunate	-11.1705
▁supérieur	-11.1706
▁attentivement	-11.1707
▁rapprochement	-11.1708
▁Copenhague	-11.1708
▁réglementaire	-11.1713
▁complaints	-11.172
▁l'instar	-11.1727
▁Communauté.	-11.1727
▁souffrent	-11.1728
▁lorsqu'elle	-11.1733
▁push	-11.1735
▁buy	-11.1737
▁retrouver	-11.1738
▁journalistes	-11.1739
▁l’objectif	-11.1746
▁suffisante	-11.1747
▁turning	-11.1747
-t-elle	-11.1747
▁Parliament'	-11.1748
▁foundations	-11.1749
▁informé	-11.1757
▁doter	-11.1766
▁présidente	-11.1767
▁formule	-11.1767
▁imposées	-11.1772
▁d'accorder	-11.1773
▁Representative	-11.1775
▁basically	-11.1779
▁appliqué	-11.1781
▁severe	-11.1784
▁excluded	-11.1785
▁appropriées	-11.1786
▁défini	-11.1786
▁civilisation	-11.179
▁pauvreté.	-11.179
-t-il	-11.1791
▁undertake	-11.1792
▁widely	-11.1793
▁settlement	-11.18
▁ad	-11.1802
▁Act	-11.1803
▁vérité	-11.1803
▁tribute	-11.1805
▁d'immigration	-11.1811
▁aboutir	-11.1812
▁students	-11.1817
▁candidates	-11.1818
▁youth	-11.1818
▁prefer	-11.1819
▁procédure.	-11.1822
▁period.	-11.1824
▁post	-11.1824
▁Turkey.	-11.1824
▁soutien.	-11.183
▁achieved.	-11.183
▁enhanced	-11.1834
▁sexuelle	-11.1835
▁tend	-11.1836
▁devenue	-11.1841
▁REACH	-11.1843
▁conseils	-11.1846
▁question:	-11.1849
▁sovereign	-11.1856
▁doutes	-11.1857
▁suspended	-11.1857
▁afternoon	-11.1859
▁incapable	-11.1861
▁radio	-11.1863
me	-11.1863
▁élu	-11.1864
▁congratulations	-11.1864
▁justifie	-11.1866
▁hommage	-11.187
▁Second	-11.1873
▁membre.	-11.1875
▁pourcentage	-11.1878
▁manifestations	-11.1879
▁lecture,	-11.1881
▁judiciaires	-11.1884
▁3.	-11.1885
▁nomination	-11.1885
▁Italie	-11.1887
▁consolider	-11.1888
▁Nonetheless	-11.1889
▁tomorrow,	-11.1889
▁mouvements	-11.1891
▁génétiquement	-11.1896
▁stay	-11.1898
▁commun.	-11.19
▁expense	-11.1901
▁sociales,	-11.1905
▁culture.	-11.1906
▁confirme	-11.1916
▁explained	-11.1926
▁Paris	-11.1927
▁retards	-11.1928
▁l'exemple	-11.1929
▁million.	-11.1933
▁lever	-11.1935
▁posée	-11.1935
▁abstained	-11.1936
▁éventuellement	-11.1936
▁stance	-11.1942
▁spécialement	-11.1943
▁afford	-11.195
▁presentation	-11.1951
▁protocol	-11.1954
-based	-11.1957
▁s'agisse	-11.1961
rons	-11.1962
▁insiste	-11.1963
▁Moldova	-11.1966
▁modèles	-11.1967
▁collection	-11.1968
▁circonscription	-11.1968
▁impliquant	-11.1968
▁vivant	-11.1969
▁assisté	-11.197
▁puts	-11.1972
▁démocratisation	-11.1975
▁immense	-11.1975
▁d'initiative	-11.198
▁circumstances,	-11.1985
age	-11.1992
▁Milosevic	-11.1998
▁l’adoption	-11.2001
▁tentatives	-11.2002
▁count	-11.2011
▁sending	-11.2012
▁frequently	-11.2015
▁Leur	-11.2016
▁remédier	-11.2017
▁looked	-11.2019
▁informal	-11.202
▁simples	-11.2021
▁carbone	-11.2023
▁removed	-11.2023
▁d'aborder	-11.2024
▁checks	-11.2026
▁promesses	-11.2028
▁transformer	-11.203
▁approfondie	-11.2033
▁l'échange	-11.2042
▁établissant	-11.2054
▁drafted	-11.2057
▁approach,	-11.206
▁renforcé	-11.2062
▁Labour	-11.2062
▁6,	-11.2062
▁Timor	-11.2062
▁bienvenue	-11.2065
▁réels	-11.2065
▁d'élaborer	-11.2068
▁past,	-11.2068
▁permanente	-11.2069
ity	-11.2071
▁l'internet	-11.2071
▁côtés	-11.2074
▁nobody	-11.2074
▁qualifiée	-11.2076
▁camp	-11.2077
▁Investment	-11.2077
ne	-11.2077
▁limité	-11.2088
▁deadline	-11.2089
▁gratitude	-11.2089
▁integration.	-11.2093
▁nature.	-11.2094
▁l'instrument	-11.2094
▁sincerely	-11.2095
▁auparavant	-11.2096
▁rejection	-11.2096
▁noon.	-11.21
▁urgence	-11.2101
▁decades	-11.2103
▁familiar	-11.2107
▁admettre	-11.2108
▁négatif	-11.211
▁arising	-11.2114
▁allant	-11.2115
▁opposés	-11.2125
▁rendent	-11.2127
▁difficile.	-11.2129
▁coalition	-11.2132
▁Soviet	-11.2134
▁dangereuses	-11.2135
▁bureaucracy	-11.2136
▁convaincus	-11.2136
▁reasons.	-11.2137
▁moderne	-11.214
▁seules	-11.2141
▁moved	-11.2141
▁qualité.	-11.2143
▁limitée	-11.2144
▁remarquable	-11.2146
▁générations	-11.2149
▁city	-11.215
▁solutions.	-11.2152
▁soutiennent	-11.2154
▁summer	-11.2157
▁bénéfice	-11.2159
▁category	-11.2164
▁repeated	-11.2166
▁avantage	-11.2167
▁envoyer	-11.2175
▁impliqués	-11.2178
▁organiser	-11.218
▁sinon	-11.2182
▁aéroports	-11.2189
▁excuse	-11.2192
▁plaintes	-11.2193
▁déployés	-11.2201
▁bureau	-11.2201
▁promis	-11.2202
▁ferons	-11.2203
▁bénéficie	-11.2204
raient	-11.2205
▁a.m.	-11.2206
▁devaient	-11.2206
▁Parallèlement	-11.2208
▁accompanied	-11.2208
▁heure	-11.2209
▁Swoboda	-11.2211
▁laissé	-11.2212
▁partant	-11.2212
▁Toute	-11.2214
▁nécessairement	-11.2214
▁accepte	-11.2215
▁emerging	-11.2215
▁began	-11.2217
▁permit	-11.2218
▁social.	-11.2219
▁Mes	-11.222
▁criminels	-11.2222
▁banking	-11.2226
▁trend	-11.2227
▁opportunités	-11.2228
▁congratulating	-11.2229
▁extérieur	-11.2229
▁control.	-11.2233
▁poverty.	-11.2242
▁compromis.	-11.2242
▁talked	-11.2248
▁delays	-11.2255
▁expertise	-11.2256
▁venons	-11.2257
▁insisté	-11.2257
▁belong	-11.2258
▁respective	-11.2259
▁reçoivent	-11.2264
▁medium	-11.2266
▁contraintes	-11.2266
▁recherches	-11.2267
▁Community.	-11.2273
▁projects.	-11.2274
▁bref	-11.2274
▁fiscalité	-11.2274
▁constatons	-11.228
▁belge	-11.2282
▁approximately	-11.2284
▁relations.	-11.2285
▁licences	-11.2286
▁exclusively	-11.2291
▁l'attitude	-11.2291
▁jusqu'ici	-11.2291
▁résistance	-11.2292
▁Traités	-11.2293
▁alongside	-11.2294
▁l’utilisation	-11.2297
▁enlarged	-11.2297
as	-11.2298
▁Américains	-11.23
▁utiles	-11.2302
▁apparent	-11.2306
▁mainte	-11.2308
▁2007-2013	-11.2314
▁exact	-11.2317
▁Slovaquie	-11.2321
▁Their	-11.2323
▁adopted.	-11.2324
▁Great	-11.2324
▁picture	-11.2326
▁Helsinki	-11.2328
▁urgency	-11.2331
▁lancement	-11.2339
▁promises	-11.2342
▁inacceptable.	-11.2347
▁minister	-11.2352
▁géographique	-11.2353
▁couvre	-11.2354
▁wage	-11.2358
▁parvenu	-11.2359
▁étrangers	-11.2364
▁examiné	-11.2364
▁organe	-11.2367
▁warning	-11.2368
▁divergences	-11.2369
▁stake	-11.2369
▁percentage	-11.237
▁soumises	-11.2373
▁simplify	-11.2375
▁répression	-11.2376
▁deviennent	-11.2381
▁defending	-11.2381
▁élevées	-11.2388
▁F	-11.2389
▁irlandaise	-11.2393
▁financière.	-11.2397
▁conclus	-11.2401
▁d’État	-11.2405
▁croissant	-11.241
▁Like	-11.2413
▁nuit	-11.2418
▁beneficial	-11.2418
▁îles	-11.2419
▁inclus	-11.2422
▁strictly	-11.2423
▁ships	-11.2424
▁account.	-11.2425
▁dégâts	-11.2425
▁Most	-11.2427
▁2001.	-11.2432
▁listening	-11.2433
▁elsewhere	-11.2438
▁Any	-11.2439
▁costs.	-11.2441
▁dégager	-11.2442
▁veille	-11.2443
▁prévus	-11.2448
▁northern	-11.2448
▁financières.	-11.245
▁voyage	-11.245
▁acceptable.	-11.2451
▁Etats	-11.2452
▁Hussein	-11.2453
▁condemned	-11.2455
▁liability	-11.2459
▁suffisant	-11.2459
▁absolue	-11.2462
▁s'agissant	-11.2462
▁Every	-11.2462
▁respecting	-11.2464
▁Control	-11.2469
▁Strasbourg.	-11.247
▁regulated	-11.2475
▁décision.	-11.2479
▁parallel	-11.248
▁printemps	-11.248
▁tenons	-11.2485
▁brevets	-11.2485
▁army	-11.2488
▁restricted	-11.2489
▁periods	-11.2492
▁Palestiniens	-11.25
▁secrétaire	-11.25
▁Geneva	-11.2502
▁stations	-11.2503
▁well,	-11.2507
▁penalties	-11.251
▁auteurs	-11.2511
▁informés	-11.2518
il	-11.2519
▁another.	-11.2521
▁unemployed	-11.2522
▁national.	-11.2523
▁indicators	-11.2524
▁S'agissant	-11.2525
▁Est-ce	-11.2525
▁l'approbation	-11.2525
▁également.	-11.2528
▁buildings	-11.253
▁réaliste	-11.2531
▁sharing	-11.2532
▁trans-European	-11.2532
▁financed	-11.2532
▁entraîner	-11.2537
▁K	-11.2537
▁débattu	-11.2539
▁suédoise	-11.2539
▁unity	-11.2547
▁battle	-11.2547
▁freely	-11.2548
▁suédois	-11.255
▁combler	-11.2553
▁immédiate	-11.2554
▁compléter	-11.2556
▁figurent	-11.2557
▁force,	-11.2559
▁Otherwise	-11.256
▁certification	-11.256
▁troupes	-11.256
▁s'engager	-11.2562
▁ré	-11.2564
▁solidarity.	-11.257
▁strike	-11.2572
▁pact	-11.2573
▁différent	-11.2575
▁bord	-11.2583
▁pratique.	-11.2586
▁requiert	-11.2588
▁Lithuania	-11.2592
▁l'Agenda	-11.2595
▁ultrapériphéri	-11.2596
▁cruciale	-11.2599
▁Poettering	-11.2601
▁fourth	-11.2607
▁tragédie	-11.2608
▁underlying	-11.2609
▁signalé	-11.2609
ées	-11.2612
▁neuf	-11.2613
▁deaths	-11.2615
▁électorale	-11.2616
▁salariés	-11.2618
▁48	-11.262
▁agrees	-11.262
▁embargo	-11.2623
▁Cohesion	-11.2623
▁Irak	-11.2624
▁utilisant	-11.2637
▁entraîné	-11.264
▁recherche.	-11.264
▁i	-11.2649
▁occurred	-11.265
▁revenue	-11.2651
▁morts	-11.2653
▁éliminer	-11.2658
▁Baltique	-11.2659
▁directed	-11.2661
▁treat	-11.2661
▁longues	-11.2662
▁compete	-11.2663
▁procurement	-11.2664
▁mere	-11.2666
▁passant	-11.2668
▁l'Est	-11.2671
▁struggle	-11.2671
▁Information	-11.2673
▁mène	-11.2676
▁journalists	-11.2678
▁risquent	-11.2679
▁Finnish	-11.2679
▁suggère	-11.2679
▁demandant	-11.2685
▁standing	-11.2686
▁friend	-11.2687
▁lait	-11.2688
▁efforts.	-11.2692
lusieurs	-11.2694
▁italien	-11.2696
▁primordial	-11.2697
▁commission.	-11.2699
▁chemical	-11.2702
▁parallèlement	-11.2702
▁systems,	-11.2708
▁relèvent	-11.271
▁OLAF	-11.2714
▁quelqu'un	-11.2722
▁opportunité	-11.273
▁indispensables	-11.273
▁éventuelle	-11.273
▁alcohol	-11.274
▁Africa.	-11.274
▁citizenship	-11.2743
▁occupation	-11.2743
▁multinationales	-11.275
▁j’espère	-11.275
▁sauf	-11.2751
▁surveiller	-11.2752
▁restrict	-11.2756
▁l’emploi	-11.2756
▁climatiques	-11.2756
▁Macedonia	-11.2764
▁principle.	-11.2766
▁rare	-11.2767
▁dizaines	-11.2768
▁étudiants	-11.277
▁undertaking	-11.2772
▁l’esprit	-11.2772
▁disons	-11.2775
▁coopération.	-11.2778
▁pursuan	-11.2783
▁efficace,	-11.2784
udgetary	-11.2785
▁Service	-11.2786
▁Michel	-11.2786
▁d'après	-11.2787
▁replaced	-11.2788
▁Single	-11.2794
▁connected	-11.2794
▁particulier.	-11.2795
▁l’ordre	-11.2795
▁solid	-11.2795
▁entrepris	-11.2795
▁renoncer	-11.2796
▁diversification	-11.2801
▁rythme	-11.2802
▁séjour	-11.2806
▁Palestinians	-11.2815
▁competition,	-11.2816
▁travaille	-11.2822
▁objectifs.	-11.2826
▁après-midi	-11.2829
▁Services	-11.283
▁Your	-11.2833
▁states.	-11.2834
▁d'accroître	-11.2837
▁uncertainty	-11.2837
▁surprise	-11.2837
▁concret	-11.2839
▁d'intervention	-11.284
▁Re	-11.2843
▁d'élargissement	-11.2844
▁1998.	-11.2844
▁communication.	-11.2846
▁liberal	-11.2846
▁decisions.	-11.2852
▁droite	-11.2853
▁emission	-11.2854
▁rejoindre	-11.2857
▁fourniture	-11.2857
▁Barnier	-11.2862
▁intelligent	-11.2865
▁l’application	-11.2865
▁Laeken	-11.2866
▁raises	-11.2866
▁nationales,	-11.2866
▁n'avait	-11.2873
▁basé	-11.2874
▁10%	-11.2874
▁prevented	-11.2875
▁Verts	-11.2877
▁fondé	-11.2879
▁contamination	-11.2881
▁bâtiments	-11.2883
▁Traité.	-11.2885
▁pièces	-11.289
▁diminuer	-11.289
▁directeur	-11.289
▁culturelles	-11.2894
▁Washington	-11.2894
▁contract	-11.2895
ai	-11.2897
▁manifeste	-11.2899
▁tribunaux	-11.2902
▁d'éducation	-11.2903
▁cesser	-11.2904
▁noise	-11.2905
▁objectif.	-11.2906
▁Albania	-11.2909
▁1994	-11.2909
▁récent	-11.2913
▁elderly	-11.2917
▁d'euros.	-11.2918
▁losses	-11.292
▁finir	-11.2922
▁Allow	-11.2923
▁defining	-11.2924
▁Declaration	-11.2924
▁8,	-11.2924
▁Education	-11.2925
▁treaties	-11.2932
▁yourself	-11.2937
▁enquêtes	-11.2937
▁Two	-11.2938
▁sérieuse	-11.294
▁motor	-11.2941
▁législatifs	-11.2943
▁inégalités	-11.2943
▁register	-11.2945
▁reserve	-11.2948
▁présent.	-11.2948
▁écouté	-11.295
▁modifié	-11.295
▁jeune	-11.295
▁l'acquis	-11.2953
▁exploitations	-11.2954
▁participent	-11.2954
▁systématique	-11.2957
▁pure	-11.296
▁criteria.	-11.2961
▁Americans	-11.2962
▁clearer	-11.2962
▁libéral	-11.2964
relatively	-11.2966
▁Defence	-11.2967
▁consequently	-11.2967
▁indépendante	-11.2973
▁7,	-11.2974
▁Socialists	-11.2978
▁door	-11.2979
▁rencontré	-11.2979
▁serais	-11.2988
▁adéquat	-11.2989
▁slow	-11.299
▁similaires	-11.2991
▁vehicle	-11.2993
▁indépendant	-11.2999
▁values.	-11.3001
▁l'inclusion	-11.3004
ary	-11.3004
▁York	-11.3005
▁félicitations	-11.3005
▁veto	-11.3006
▁rejette	-11.3007
▁priority.	-11.301
▁equivalent	-11.3011
▁matériel	-11.3012
▁team	-11.3016
▁harmonised	-11.3021
▁quote	-11.3024
▁italienne	-11.3025
▁faith	-11.3026
▁fleet	-11.3027
▁amendements.	-11.3027
▁worthy	-11.3029
▁agreements,	-11.3033
▁dramatic	-11.3033
▁contributing	-11.3033
▁sections	-11.3033
▁divided	-11.3035
▁culturels	-11.304
▁showed	-11.3041
▁m'ont	-11.3046
▁dossier.	-11.3048
▁friendly	-11.3051
▁Regarding	-11.3055
▁planète	-11.3057
▁night	-11.3057
▁complémentaires	-11.3059
▁logical	-11.3062
▁cinquième	-11.3062
▁essayé	-11.3062
▁plays	-11.3064
▁comprennent	-11.3065
▁restera	-11.3065
▁prenant	-11.3067
▁imposing	-11.307
▁highlights	-11.3071
▁Danube	-11.3071
▁London	-11.3072
▁expliqué	-11.3072
▁lu	-11.3073
▁either.	-11.3077
▁troops	-11.308
▁accélérer	-11.308
▁sucre	-11.3081
▁porté	-11.3083
▁Cher	-11.3088
▁tiennent	-11.3089
▁démocratique,	-11.309
-Mediterranean	-11.3094
▁nationale.	-11.3097
▁procedural	-11.3098
▁exprimée	-11.3098
▁Criminal	-11.3099
▁l'Amérique	-11.3099
▁Bolkestein	-11.3101
▁pursued	-11.3103
▁industriels	-11.3105
▁characteristics	-11.3105
▁plan.	-11.3106
▁weight	-11.3107
▁organisations.	-11.3111
▁souhaiter	-11.3113
▁slightly	-11.3114
▁américains	-11.3115
▁fournit	-11.3115
▁blame	-11.3122
▁fondement	-11.3123
▁Year	-11.3123
▁insufficient	-11.3125
▁Italy,	-11.3126
▁(debate)	-11.3129
▁correcte	-11.313
▁finally,	-11.313
▁publique,	-11.313
▁nous-mêmes	-11.3131
▁particuliers	-11.3137
▁utilisent	-11.314
▁.-	-11.3143
x	-11.3143
▁bilatéraux	-11.3146
▁borne	-11.3147
▁désir	-11.315
▁incident	-11.3154
▁(débat)	-11.3159
▁hautement	-11.3162
▁entamer	-11.3163
▁estimated	-11.3166
▁devions	-11.3167
▁aborde	-11.3171
▁salaire	-11.3172
▁short-term	-11.3173
▁coherence	-11.3184
▁interim	-11.3189
▁devez	-11.3189
▁signing	-11.319
▁consistant	-11.3194
▁décennies	-11.3196
▁l'exportation	-11.3199
▁Palacio	-11.3199
▁soutenue	-11.3202
▁preventive	-11.3204
▁d’autre	-11.3213
▁l'entreprise	-11.3214
▁précédents	-11.3216
▁rising	-11.3221
▁killed	-11.3222
▁Président.	-11.3222
▁craintes	-11.3223
▁surrounding	-11.3225
▁end.	-11.3226
▁promoted	-11.3229
▁essence	-11.323
▁comparison	-11.323
▁textiles	-11.3231
▁l'Irak	-11.3236
▁timely	-11.3236
▁productive	-11.324
▁N	-11.3241
▁changé	-11.3243
▁déplore	-11.3244
▁publics.	-11.3246
▁Korea	-11.3246
▁joining	-11.3246
▁hoped	-11.3247
▁necessity	-11.3251
▁d'enfants	-11.3252
▁convince	-11.3255
▁keen	-11.3255
▁Solidarity	-11.3256
▁order.	-11.3257
▁l'Inde	-11.3259
▁Morocco	-11.3259
▁expert	-11.3265
▁besoin.	-11.3267
▁espoir	-11.3268
▁notably	-11.327
▁coastal	-11.3271
▁EMU	-11.3274
▁constructif	-11.3274
▁sûrs	-11.3277
▁indépendamment	-11.3279
▁harm	-11.3285
▁envoyé	-11.3286
▁preliminary	-11.3286
▁systematic	-11.3286
▁III	-11.3287
▁exemption	-11.3287
▁peace.	-11.3288
▁censure	-11.3291
▁evident	-11.3296
▁concurrence,	-11.3298
▁transparente	-11.3299
▁transparence.	-11.33
▁maintenance	-11.3301
▁biodiversity	-11.3304
▁refused	-11.3309
▁subsequently	-11.3309
▁follow-up	-11.3313
▁précises	-11.3315
▁subsequent	-11.3315
ritten	-11.3316
▁disagree	-11.3316
▁implemented.	-11.3319
▁Espagne	-11.3319
▁généraux	-11.332
▁employés	-11.332
▁managing	-11.3324
▁eux.	-11.3326
▁palestinien	-11.3328
▁Please	-11.3339
▁respectant	-11.3342
▁l'essentiel	-11.3343
▁Hong	-11.3346
▁croyons	-11.3346
▁J	-11.3353
▁group.	-11.3357
▁démontrer	-11.336
les	-11.3362
▁conformité	-11.3366
▁vigueur.	-11.3367
▁peace,	-11.3367
▁l'instauration	-11.337
▁concern.	-11.3375
▁Deux	-11.3377
▁succès.	-11.3378
▁lieux	-11.3379
▁4.	-11.3382
▁80%	-11.3384
▁disappointed	-11.3388
▁grow	-11.3389
▁effect.	-11.3395
▁thousand	-11.3396
▁integrate	-11.3398
▁advanced	-11.3402
▁su	-11.3402
▁voterons	-11.3407
▁GUE/NGL	-11.3413
▁alimentaire.	-11.3414
▁l’intégration	-11.3415
▁l’intérêt	-11.3415
outermost	-11.3415
▁patient	-11.3415
▁acceptance	-11.3416
▁War	-11.3416
▁airports	-11.3417
▁syndicats	-11.3418
▁representing	-11.342
▁advocate	-11.3421
▁rules,	-11.3421
▁d'entreprises	-11.3422
▁utilisateurs	-11.3422
▁contenter	-11.3423
▁joined	-11.3428
▁sauver	-11.3431
▁prouve	-11.3434
▁judge	-11.3435
▁humanitaires	-11.3436
▁chute	-11.3437
▁nucléaire.	-11.3439
▁utilise	-11.344
▁San	-11.3442
▁règne	-11.3443
▁dépendent	-11.3446
▁fixe	-11.3449
▁d'armes	-11.345
▁accomplir	-11.3452
▁j'avais	-11.3453
▁condamnation	-11.3454
▁procedures.	-11.3454
▁Ceux	-11.3455
▁énergétique,	-11.3457
▁Sakharov	-11.3458
▁terres	-11.346
▁Affaire	-11.3461
▁Africa,	-11.3463
▁ratify	-11.3465
▁losing	-11.3468
▁ferait	-11.3471
ie	-11.3471
▁biodiversité	-11.3473
▁Lituanie	-11.3481
▁fermer	-11.3483
▁imported	-11.3483
▁événement	-11.3484
▁failing	-11.3484
▁échelle	-11.3487
▁allusion	-11.3488
▁experiencing	-11.3489
▁hoc	-11.3491
▁Iraqi	-11.3496
▁Balkans.	-11.3497
▁touchés	-11.3499
▁pilot	-11.3503
▁ruling	-11.3503
▁financiers.	-11.3503
▁impetus	-11.3504
▁refusé	-11.3505
▁d'entendre	-11.3507
▁s’	-11.3512
▁réformer	-11.3513
▁fortes	-11.3515
▁regularly	-11.3516
▁drivers	-11.3517
▁authorisation	-11.3518
▁turc	-11.3521
▁orale	-11.3522
▁reflection	-11.3522
▁unions	-11.3525
l'administration	-11.3526
▁participating	-11.3538
▁terms.	-11.3538
▁terrorists	-11.3539
▁sphere	-11.3541
▁Maroc	-11.3545
▁Burma	-11.3551
▁regard.	-11.3552
▁react	-11.3554
▁multiples	-11.3559
▁jugement	-11.3559
▁préoccupe	-11.356
▁appointment	-11.3564
▁entrée	-11.3564
▁compromise.	-11.3564
▁items	-11.3568
▁concrétiser	-11.3572
▁banque	-11.3572
▁chapter	-11.3573
▁aircraft	-11.3573
▁Frontex	-11.3574
▁Women	-11.3577
▁judgment	-11.3581
▁journée	-11.3583
▁longtemps.	-11.3583
▁shortcomings	-11.3587
▁genetically	-11.3587
▁resumed	-11.3591
▁communiquer	-11.3597
▁considérés	-11.3602
▁nine	-11.3602
▁observed	-11.3604
▁supporter	-11.3605
▁safeguarding	-11.3608
▁privées	-11.3611
▁gained	-11.3611
▁norme	-11.3611
▁outset	-11.3614
▁compétentes	-11.3615
▁émis	-11.3616
▁d'actions	-11.3621
▁Objective	-11.3622
▁Chine.	-11.3624
▁assurément	-11.3624
▁Outre	-11.3628
▁Communist	-11.3628
▁eventually	-11.3631
▁covering	-11.3641
▁intellectuelle	-11.3644
▁d'aller	-11.3647
▁vin	-11.3648
▁Democratic	-11.365
▁officielle	-11.3654
▁fournisseurs	-11.3663
▁further.	-11.3664
▁Eurostat	-11.3668
▁drive	-11.3669
▁infringement	-11.3671
▁l’Union.	-11.3672
▁vitesse	-11.3673
▁d'imposer	-11.3678
▁trial	-11.3681
▁foundation	-11.3681
▁prends	-11.3682
▁confident	-11.3684
▁spéciale	-11.3688
▁profite	-11.3692
▁accusations	-11.3695
▁structurelle	-11.3699
▁pouvons-nous	-11.3703
▁arrêter	-11.3704
▁partisans	-11.3704
▁fiscaux	-11.3708
▁Certaines	-11.3709
▁énormes	-11.3711
▁exposé	-11.3712
▁prioritaires	-11.3713
▁communiste	-11.372
▁basis,	-11.372
▁plafond	-11.372
▁Verts/ALE	-11.3721
▁inside	-11.3723
▁effectuer	-11.3726
▁barrières	-11.3726
▁feuille	-11.3727
▁framework.	-11.3728
▁contrast	-11.3728
▁hélas	-11.3733
▁32	-11.3736
▁Yugoslavia	-11.3738
▁victim	-11.3746
▁produisent	-11.3748
▁withdrawal	-11.3753
▁fails	-11.3755
▁popular	-11.3756
▁énormément	-11.3756
▁Similarly	-11.3756
▁Forum	-11.3757
▁élargie	-11.3766
▁notes	-11.377
▁régulation	-11.3772
▁J'appelle	-11.3772
▁l'espère	-11.3772
▁profondeur	-11.3774
▁licence	-11.3777
▁week.	-11.3778
ri	-11.3778
▁Women's	-11.3779
▁permitted	-11.3779
▁n’avons	-11.3781
▁fragile	-11.3781
▁mentioned.	-11.3786
▁prudence	-11.3787
▁priorities.	-11.3787
▁sectors.	-11.3788
▁continuation	-11.3788
▁marked	-11.3789
▁Tant	-11.379
▁action,	-11.3792
ch	-11.3793
▁this:	-11.3795
▁blood	-11.3796
▁Natura	-11.3796
▁incorporate	-11.3797
▁considèrent	-11.3798
f	-11.38
▁détention	-11.3801
▁rely	-11.3802
▁threshold	-11.3804
▁Citizens'	-11.3805
▁crime,	-11.3806
▁régions.	-11.3811
▁controversial	-11.3811
▁l’idée	-11.3812
▁jusqu'au	-11.3813
▁aspects.	-11.3813
▁stockage	-11.382
▁polonais	-11.382
▁objective.	-11.382
▁conjointement	-11.3821
▁opposé	-11.3825
▁Ms	-11.3825
▁Cotonou	-11.3827
▁profession	-11.3827
▁d'impact	-11.3828
▁violences	-11.3829
▁usual	-11.3829
▁campaigns	-11.3832
ques	-11.3833
▁importantes.	-11.3834
▁programmation	-11.3837
▁horizontal	-11.3838
▁loans	-11.3839
▁600	-11.3843
▁reform.	-11.3846
▁liked	-11.3849
▁power.	-11.385
▁assurances	-11.385
▁forests	-11.3851
▁modifiant	-11.3851
▁d'évaluer	-11.3852
▁threatened	-11.3854
▁follows	-11.3855
▁funds,	-11.3857
▁Y	-11.3859
▁l'Iran	-11.3859
▁d'accepter	-11.3859
▁freight	-11.386
▁chemins	-11.386
▁present.	-11.3864
▁protest	-11.3864
▁racism	-11.3865
▁sentence	-11.3865
▁volet	-11.3878
▁neighbourhood	-11.3879
▁préférable	-11.3883
▁supervisory	-11.3883
▁looks	-11.3884
▁supplies	-11.3885
▁indicateurs	-11.3885
▁part-session	-11.3886
▁chargée	-11.3888
▁warm	-11.389
▁préservation	-11.3891
▁appeler	-11.3895
systématiquement	-11.3904
▁tolérance	-11.3906
▁Personne	-11.3907
▁voulez	-11.3907
▁explicitement	-11.3908
▁établit	-11.391
▁rechercher	-11.3911
▁reported	-11.3916
▁marche	-11.392
▁l'issue	-11.3924
▁begun	-11.3926
▁signs	-11.3927
▁territoriale	-11.3927
▁containing	-11.3929
▁consulted	-11.3933
▁resolving	-11.3939
▁anniversary	-11.3941
▁accepting	-11.3942
▁fallu	-11.3944
▁older	-11.3945
▁dimensions	-11.3947
▁compétitive	-11.3948
▁ouverture	-11.3949
▁assemblée	-11.3953
▁classification	-11.3954
▁suggests	-11.3956
▁inspection	-11.3956
▁race	-11.3964
▁l'alimentation	-11.3964
▁contenues	-11.3969
▁hundred	-11.397
▁Community's	-11.397
▁categories	-11.3973
▁l'extérieur	-11.3975
▁Genève	-11.3975
▁pursuing	-11.398
▁registration	-11.398
▁rigueur	-11.3981
▁l'occurrence	-11.3981
▁investigations	-11.3984
▁employeurs	-11.3985
▁proven	-11.3985
▁partners.	-11.3986
▁intense	-11.3987
▁anniversaire	-11.399
▁interdit	-11.3993
▁funded	-11.3994
▁l’accès	-11.3996
▁l'élimination	-11.3996
▁sale	-11.3996
▁substantielle	-11.3999
▁English	-11.3999
▁moments	-11.3999
▁disponible	-11.4
▁Rien	-11.4004
▁bateaux	-11.4013
▁prisons	-11.4014
▁inviter	-11.4017
▁block	-11.4029
▁travaillons	-11.403
▁Présidente	-11.4031
▁définis	-11.4032
▁objet	-11.4036
▁albeit	-11.4037
▁l'Italie	-11.404
▁respecté	-11.4045
▁residence	-11.4046
▁appels	-11.4047
▁grandement	-11.4051
▁qu'est	-11.4052
▁EIB	-11.4053
▁sad	-11.4054
▁appelons	-11.4064
▁rubrique	-11.4065
▁offices	-11.4066
▁néerlandais	-11.407
▁Atlantic	-11.4071
▁Tribunal	-11.4071
▁approuve	-11.4073
▁investisseurs	-11.4073
▁abandon	-11.4073
▁Statute	-11.4073
▁consent	-11.4074
▁poisson	-11.4076
▁stringent	-11.4076
▁accounting	-11.4076
▁government.	-11.4078
▁unanimity	-11.408
st	-11.4081
▁estimé	-11.4081
▁Belarus.	-11.4085
▁spring	-11.4087
▁fast	-11.4087
▁invitation	-11.4088
▁entrepreneurs	-11.409
▁visited	-11.409
▁expensive	-11.409
▁1997.	-11.409
▁helps	-11.4091
▁l'ampleur	-11.4093
▁Chairman	-11.4093
▁l'assistance	-11.4094
▁Tibet	-11.4098
▁lorsqu’il	-11.4102
▁L'accord	-11.4102
▁France.	-11.4105
▁invited	-11.4106
▁house	-11.4106
▁point:	-11.4107
▁Liberals	-11.4108
▁encourageant	-11.4108
▁customer	-11.4112
▁exchanges	-11.4115
▁globalement	-11.4117
▁coexistence	-11.412
▁s'attaquer	-11.4125
▁signer	-11.4126
▁gross	-11.4129
▁prouver	-11.4131
▁arrivé	-11.4132
▁tough	-11.4133
▁page	-11.4135
▁majeurs	-11.4135
▁m'en	-11.4136
▁noter	-11.4137
▁tension	-11.4139
▁95	-11.4139
▁professions	-11.4146
▁personnelle	-11.4151
▁Hence	-11.4151
▁integrity	-11.4153
▁5.	-11.4155
▁victime	-11.4156
▁China.	-11.4157
▁rédaction	-11.4159
▁donnera	-11.4161
▁concludes	-11.4162
▁ratifié	-11.4164
▁notice	-11.4167
▁Could	-11.4167
▁expressément	-11.4167
▁answer.	-11.4168
▁juridiquement	-11.4169
▁chain	-11.417
▁oblige	-11.4173
▁Who	-11.4175
▁furthermore	-11.4176
▁date.	-11.418
▁choices	-11.4181
▁augmente	-11.4182
▁fifteen	-11.4184
▁variety	-11.4184
▁résulte	-11.4188
▁state.	-11.4192
▁concernés.	-11.4193
▁réjouissons	-11.4193
▁probable	-11.4194
▁observers	-11.4196
▁reductions	-11.4198
▁votes.	-11.4198
▁female	-11.42
▁except	-11.4206
▁Bruxelles.	-11.4207
▁apportée	-11.4208
▁(Rule	-11.4208
▁l'extension	-11.4209
▁denied	-11.4217
▁available.	-11.4221
▁saluons	-11.4225
▁l’homme.	-11.4226
▁about.	-11.4226
▁proches	-11.4227
▁présentant	-11.4227
▁l’agriculture	-11.4228
▁D'autres	-11.4232
▁douze	-11.4233
▁Watson	-11.4236
▁issus	-11.4242
▁technologies.	-11.4244
▁document.	-11.4245
▁résolu	-11.4246
stitutionnelles	-11.4247
▁obtenus	-11.4251
▁territories	-11.4252
▁controlled	-11.4253
▁complémentaire	-11.4258
▁d'accords	-11.426
▁housing	-11.4261
▁pretext	-11.4261
ir	-11.4262
▁breach	-11.4267
▁woman	-11.427
▁host	-11.427
▁compétente	-11.4271
▁taken.	-11.4279
▁valid	-11.4282
▁législature	-11.4286
▁d'entreprise	-11.429
▁effective.	-11.4292
▁service.	-11.4293
▁sports	-11.4296
▁soulève	-11.4297
▁œuvre.	-11.4299
▁role.	-11.4299
▁Celle-ci	-11.43
▁voudrait	-11.43
▁third-country	-11.43
▁concertation	-11.4301
▁argue	-11.4303
▁étendre	-11.4308
▁rencontrer	-11.4314
▁unilateral	-11.4314
▁ferai	-11.4316
▁traduire	-11.4316
▁incentive	-11.4319
▁vues	-11.4319
▁Nigeria	-11.432
▁maritimes	-11.432
▁dépasse	-11.432
▁définies	-11.4323
▁guide	-11.4323
▁agi	-11.4324
▁sympathy	-11.4325
▁(CE)	-11.4325
▁organic	-11.4325
▁transparency.	-11.4326
▁saurait	-11.4326
▁délégations	-11.4328
▁complexes	-11.4331
▁regarder	-11.4331
▁usually	-11.4334
▁uniforme	-11.4334
▁minimal	-11.4336
▁borders,	-11.4338
▁envisaged	-11.4339
▁provoqué	-11.4341
▁directive-cadre	-11.4343
▁juger	-11.4344
▁commend	-11.4345
▁gradual	-11.4349
▁partiellement	-11.4351
▁l’Assemblée	-11.4353
▁decent	-11.4355
▁l'espoir	-11.4361
▁l’éducation	-11.4362
ci	-11.4362
▁amendment.	-11.4363
▁effectively.	-11.4364
▁search	-11.4369
▁learned	-11.4371
▁recognises	-11.4372
▁c’est-à-dire	-11.4375
▁Decision	-11.4379
▁poissons	-11.4379
-nous	-11.4379
▁adoptant	-11.4381
▁Reform	-11.4385
▁refugee	-11.4387
▁invité	-11.4388
▁registre	-11.4389
▁vivons	-11.4392
▁Millennium	-11.4392
▁conservateurs	-11.4392
▁closing	-11.4393
▁1%	-11.4403
▁frontières.	-11.4403
▁lives.	-11.4403
▁Objet:	-11.4406
▁quantités	-11.4406
▁Mugabe	-11.4409
▁l'analyse	-11.4409
▁fixed	-11.441
▁n'aurait	-11.4411
▁placer	-11.4412
▁mandatory	-11.4413
▁portugaise	-11.4416
▁reconciliation	-11.4421
▁crops	-11.4428
▁desirable	-11.443
▁Petitions	-11.4431
▁confrontée	-11.4433
▁déficits	-11.444
▁mondiaux	-11.4441
▁handicapées	-11.4442
▁ça	-11.4445
▁similaire	-11.4446
▁grec	-11.4446
▁40%	-11.4447
▁l'énergie.	-11.4448
▁c	-11.4451
▁réglementer	-11.4452
▁monétaire,	-11.4452
▁prouvé	-11.4455
▁black	-11.4457
▁régionale,	-11.446
▁prix.	-11.4461
▁exprimés	-11.4464
▁l’une	-11.4465
▁Directive.	-11.4465
▁commentaire	-11.4469
▁foi	-11.4471
▁endorsed	-11.4471
▁rapidement.	-11.4472
▁significatif	-11.4473
▁parole.	-11.4475
▁universel	-11.4476
▁Penda	-11.4479
▁l'étiquetage	-11.4481
▁servent	-11.4482
▁research.	-11.4484
▁Maintenant	-11.4485
▁Other	-11.4489
▁things.	-11.449
▁coal	-11.4492
▁d'exprimer	-11.4493
▁d'échange	-11.4494
▁Rights.	-11.4496
▁procédé	-11.4497
▁30%	-11.4498
▁faisait	-11.4499
▁achievements	-11.4501
▁elections,	-11.4502
▁helpful	-11.4502
▁finish	-11.4502
▁occur	-11.4504
▁substantially	-11.4506
▁fossé	-11.451
▁agriculture.	-11.4511
▁reporting	-11.4514
▁développés	-11.4515
▁civile.	-11.4517
▁hopefully	-11.4519
▁comités	-11.452
▁corriger	-11.4525
▁entering	-11.4526
▁Ministre	-11.4527
▁virtually	-11.4528
▁renewed	-11.4528
▁l'aspect	-11.453
▁Monday	-11.4532
n-discrimination	-11.4532
▁assessments	-11.4533
▁établies	-11.4533
▁missing	-11.4534
▁stipule	-11.4535
▁indépendance	-11.4536
▁exploit	-11.4537
▁resistance	-11.4541
▁judicieux	-11.4541
▁masse	-11.4542
▁digne	-11.4543
▁harmonise	-11.4547
▁fabricants	-11.4547
▁financière,	-11.4548
▁Affairs.	-11.4549
▁Sarkozy	-11.455
▁acted	-11.455
▁reports.	-11.455
▁community.	-11.4556
▁législation.	-11.4558
▁légitimes	-11.4559
▁fears	-11.456
▁resource	-11.456
▁evaluate	-11.4562
▁innocent	-11.4566
▁sincere	-11.4567
▁length	-11.4569
▁Above	-11.457
▁l'effet	-11.4571
▁ageing	-11.4573
▁égalité	-11.4577
▁négatives	-11.4577
▁négatifs	-11.4582
▁résultats.	-11.4587
▁organizations	-11.4593
▁l'autre.	-11.4594
▁prostitution	-11.4595
▁Naturally	-11.4596
k	-11.46
▁faux	-11.4601
▁250	-11.4602
non-governmental	-11.4602
▁disait	-11.4606
▁fondamentaux,	-11.4611
▁décisif	-11.4615
▁focusing	-11.4617
▁routier	-11.4618
▁feu	-11.4619
▁coordonnée	-11.462
▁objection	-11.4621
▁disposé	-11.4621
▁examining	-11.4622
▁témoigne	-11.4623
▁destroy	-11.4624
▁l'agenda	-11.4631
▁continuerons	-11.4635
man	-11.4638
▁requirements.	-11.4639
▁favorablement	-11.4642
-0	-11.4648
▁entreprendre	-11.4654
▁l’immigration	-11.4656
▁education.	-11.4658
Votre	-11.4662
▁dates	-11.4664
▁(EC)	-11.4665
▁stages	-11.4665
▁roads	-11.4666
▁demi	-11.4667
▁flow	-11.4676
▁touch	-11.4678
▁ECHO	-11.468
▁apparently	-11.4683
▁désire	-11.4684
▁l’UE,	-11.4688
▁contenant	-11.4691
▁Beaucoup	-11.4691
▁die	-11.4694
▁Posselt	-11.4702
▁agricole.	-11.4702
▁humaine.	-11.4704
▁dernière.	-11.4705
▁audit	-11.4706
▁mobiliser	-11.4708
▁damaging	-11.4708
▁examination	-11.471
▁détaillée	-11.4711
▁animale	-11.4711
▁leaves	-11.4712
▁soin	-11.4713
▁rares	-11.4715
'après	-11.4715
▁brevet	-11.4719
▁électroniques	-11.472
▁entamé	-11.4721
▁lacking	-11.4722
▁experiences	-11.4722
▁ethniques	-11.4724
▁37	-11.4726
▁l’efficacité	-11.4726
▁certitude	-11.4728
▁initially	-11.4729
▁constante	-11.473
▁president	-11.473
▁gravité	-11.4733
▁victoire	-11.4733
▁emerged	-11.4735
▁disputes	-11.4736
▁L'amendement	-11.4736
▁perception	-11.4737
ise	-11.4738
▁américaines	-11.4741
▁étapes	-11.4742
▁devoted	-11.4744
▁attentats	-11.4746
▁Procedure.	-11.4747
▁disposés	-11.4747
▁prochaine.	-11.4749
▁occupe	-11.475
▁obligatoires	-11.475
▁socio-economic	-11.4752
▁d'assistance	-11.4752
▁strictement	-11.4753
▁indirect	-11.4756
▁founded	-11.4756
▁d'émission	-11.476
▁65	-11.4761
▁l’Europe,	-11.4761
▁chrétiens	-11.4762
▁intégrante	-11.4763
▁shortly	-11.4764
▁L'un	-11.4767
▁universities	-11.4767
▁alone.	-11.4767
▁August	-11.4767
▁needs.	-11.4768
▁completion	-11.4769
▁examinons	-11.477
▁exigence	-11.4775
▁employed	-11.4777
▁approaches	-11.4778
▁guise	-11.4778
▁Code	-11.4778
▁closure	-11.4779
▁fire	-11.478
▁ratifier	-11.4782
▁partenariats	-11.4783
▁poursuit	-11.4787
▁actifs	-11.4791
▁anti	-11.4794
▁colleagues,	-11.48
▁movements	-11.4801
▁paragraphs	-11.4802
▁tolerance	-11.4803
▁disparités	-11.4803
▁suscite	-11.4808
▁individus	-11.4811
▁traduit	-11.4811
▁forgotten	-11.4813
▁handling	-11.4814
▁Vu	-11.4816
▁d'Amérique	-11.482
▁far-reaching	-11.4822
▁l'âge	-11.4822
▁richesse	-11.4822
▁vies	-11.4823
▁sole	-11.4823
▁échec	-11.4824
▁démographique	-11.4826
▁remis	-11.4827
▁enables	-11.4829
▁totalité	-11.483
▁encouragement	-11.483
▁conflict.	-11.4832
ement	-11.4832
▁sight	-11.4833
▁locale	-11.4835
▁piliers	-11.4835
▁particular.	-11.4837
▁danois	-11.4837
▁l'effort	-11.4839
▁acknowledged	-11.4849
▁ignorer	-11.4852
▁minor	-11.4854
▁outlined	-11.4856
▁explanations	-11.4857
▁exploiter	-11.4859
▁universités	-11.4861
▁espagnol	-11.4864
▁business.	-11.4867
▁surface	-11.4868
▁directs	-11.4869
▁levels.	-11.487
▁fit	-11.4872
▁Iraq.	-11.4874
▁d'eau	-11.4874
▁explications	-11.488
▁entier.	-11.4882
▁d'efficacité	-11.4882
▁évaluations	-11.4883
▁réjouir	-11.4883
▁impératif	-11.4887
▁approuvée	-11.4888
▁prévisions	-11.489
▁serai	-11.4891
▁décrit	-11.4891
▁d'importance	-11.4891
▁d'experts	-11.4892
▁n'étaient	-11.4892
▁joindre	-11.4893
▁chemicals	-11.4895
▁constitué	-11.4895
▁explique	-11.49
▁intervenants	-11.49
▁Erasmus	-11.4902
▁personnelles	-11.4905
▁responsabilité.	-11.4906
▁fifth	-11.4908
▁rigorous	-11.4908
▁consolidate	-11.4909
▁cope	-11.491
▁immigrés	-11.491
▁innovations	-11.4911
▁farms	-11.4916
▁Chechnya	-11.4918
▁l’intention	-11.4919
▁consistency	-11.4919
▁accru	-11.4923
▁mille	-11.4924
▁équipements	-11.4926
▁sang	-11.493
▁falling	-11.4931
▁compagnie	-11.4932
▁échéant	-11.4936
▁false	-11.4936
▁inscrit	-11.4941
▁shift	-11.4941
▁PHARE	-11.4945
▁Whilst	-11.4945
▁USD	-11.4946
▁ethnique	-11.4949
▁testing	-11.4956
▁Aujourd’hui	-11.4963
▁donnant	-11.4963
▁démantèlement	-11.4963
▁142)	-11.4964
▁considération.	-11.4966
▁mine	-11.4968
▁sit	-11.4969
▁Martin	-11.4974
▁recommended	-11.4974
▁sums	-11.4974
▁n’en	-11.4976
▁d'ajustement	-11.4981
▁regulations.	-11.4981
▁paragraphes	-11.4981
▁soil	-11.4983
▁heads	-11.4992
▁est-elle	-11.4992
▁workers'	-11.4994
▁l’autre	-11.4998
▁d’Europe	-11.4998
▁d'empêcher	-11.4999
▁cutting	-11.4999
▁incendies	-11.5
▁meets	-11.5002
▁transnational	-11.5002
▁étudier	-11.5004
▁tourisme,	-11.5004
▁struck	-11.5008
▁abuses	-11.5009
▁delegations	-11.5009
▁numérique	-11.5012
▁Aucun	-11.5012
▁me.	-11.5012
▁qu'après	-11.5018
▁russes	-11.5019
▁animaux.	-11.5021
▁meantime	-11.5026
▁classe	-11.5027
▁vols	-11.5032
▁statute	-11.5033
▁Londres	-11.5034
▁l’attention	-11.5035
▁eau	-11.5037
ciaux-démocrates	-11.5037
▁présentera	-11.5039
▁physique	-11.5039
▁marqué	-11.504
▁réussir	-11.504
▁empêche	-11.5041
▁aériens	-11.5042
▁precautionary	-11.5044
▁9,	-11.5044
▁accused	-11.5045
▁features	-11.5045
▁stricte	-11.5047
▁traitées	-11.5049
▁Tunisia	-11.5052
▁adapter	-11.5052
▁viabilité	-11.5053
▁fait.	-11.5055
▁Left	-11.5055
▁solidarité.	-11.5056
▁adéquates	-11.506
▁palestinienne	-11.5061
▁complexité	-11.5062
▁sérieux.	-11.5066
▁sociaux.	-11.5068
▁incompatible	-11.5071
▁serre	-11.5074
▁cheap	-11.5077
▁interdire	-11.508
▁tort	-11.5081
▁subi	-11.5084
▁facto	-11.5086
▁banned	-11.5089
▁Liberties	-11.5089
▁monétaire.	-11.5092
▁condamné	-11.5093
▁apportées	-11.5094
▁charbon	-11.5096
▁ouvre	-11.5097
▁investigate	-11.5097
▁appointed	-11.5099
▁Traité,	-11.5103
ta	-11.5103
▁explicitly	-11.5107
▁propositions.	-11.5112
ité	-11.5116
▁décès	-11.5116
▁liaison	-11.5121
▁formulé	-11.5124
▁birth	-11.5126
▁120	-11.5132
▁Costa	-11.5134
▁mistakes	-11.5135
▁ideal	-11.5136
▁flows	-11.5139
▁fundamentally	-11.5139
▁enabled	-11.514
▁fought	-11.5143
▁respected.	-11.5143
v	-11.5144
▁document,	-11.5148
▁statistical	-11.5151
▁financements	-11.5152
▁chinois	-11.5152
▁Brazil	-11.5152
▁organisations,	-11.5153
▁traité.	-11.5154
▁touchent	-11.5154
▁Institute	-11.5154
▁inhabitants	-11.5156
▁passée	-11.5161
▁vocational	-11.5162
▁précaution	-11.5166
▁croissance.	-11.5171
▁executive	-11.5174
▁e	-11.5174
▁railways	-11.5174
▁exigent	-11.5175
▁System	-11.5177
▁positif.	-11.518
ism	-11.5183
▁fictifs	-11.5184
▁initiatives.	-11.5184
▁alliance	-11.5185
▁écrite	-11.5185
▁voie.	-11.5187
▁voici	-11.5188
▁l'ancienne	-11.5189
▁CIG	-11.5189
▁ceiling	-11.5194
▁2011.	-11.5194
▁dérogation	-11.5195
ment,	-11.5198
▁s'exprimer	-11.5198
▁réconciliation	-11.5199
▁wages	-11.5199
▁corresponding	-11.5203
▁observateurs	-11.5205
▁adhérer	-11.5207
▁identification	-11.5208
▁Special	-11.5216
▁écologiques	-11.5216
▁Ireland.	-11.522
▁révolution	-11.5222
▁arrangement	-11.5223
▁l’encontre	-11.5225
▁Malta	-11.5228
▁East.	-11.5231
▁deny	-11.5232
▁dictature	-11.5234
▁Naturellement	-11.5234
▁évolutions	-11.5234
▁touchées	-11.5236
▁d'environnement	-11.5237
▁ventes	-11.5242
▁enshrined	-11.5243
▁BEI	-11.5245
▁ex	-11.5246
▁immigration.	-11.5249
▁structurels.	-11.525
ications	-11.5251
▁adverse	-11.5252
▁Wallström	-11.5255
▁investors	-11.5258
▁sensibilisation	-11.5262
▁disadvantaged	-11.5262
▁Sudan	-11.5264
▁limitations	-11.5264
▁disastrous	-11.5265
▁consistently	-11.5266
▁virus	-11.5269
▁réunir	-11.5272
▁criterion	-11.5272
▁names	-11.5275
▁mentionne	-11.5279
▁sociales.	-11.528
▁Malte	-11.5281
▁1989	-11.5282
▁prononcé	-11.5283
▁présentes	-11.5285
▁capital.	-11.5286
▁l’ai	-11.5289
▁Globalisation	-11.5289
▁Would	-11.5289
▁wherever	-11.5291
▁brutal	-11.5297
▁désaccord	-11.5301
▁l'OMC.	-11.5306
▁prioritaire	-11.5308
▁perspective.	-11.5309
▁functions	-11.5317
▁créant	-11.5317
▁actuellement.	-11.5317
▁Greens	-11.5318
▁instant	-11.532
▁Communautés	-11.5322
▁providers	-11.5324
▁l'ESB	-11.5325
▁decline	-11.5326
▁Jusqu'	-11.5327
▁représentante	-11.5329
▁1996.	-11.5331
▁cur	-11.5337
▁adapted	-11.5339
▁enterprises.	-11.5339
▁séparation	-11.5345
▁lifelong	-11.5345
▁quickly.	-11.5345
▁loin.	-11.5346
▁storage	-11.5347
▁relancer	-11.5347
▁Reding	-11.5349
▁emissions.	-11.5349
European	-11.535
▁prices.	-11.5351
▁codes	-11.5351
b	-11.5353
▁democratisation	-11.5354
▁result.	-11.5355
▁catch	-11.5356
▁Birmanie	-11.5356
▁attractive	-11.5356
▁développé	-11.5358
▁croissance,	-11.5358
▁straight	-11.5359
▁laying	-11.5362
▁gravement	-11.5362
▁brut	-11.5362
▁perfect	-11.5362
▁transeuropéens	-11.5362
▁fixation	-11.5363
▁OSCE	-11.5365
▁faim	-11.5367
▁adequately	-11.5368
▁participe	-11.5369
▁sensiblement	-11.537
▁surpris	-11.5371
▁consciente	-11.5372
▁endeavour	-11.5376
l'investissement	-11.5379
▁cohesion.	-11.5382
▁d'organiser	-11.5382
▁actors	-11.5383
▁Brésil	-11.5384
▁comparaison	-11.5387
▁chômeurs	-11.5387
▁unit	-11.5391
▁compromises	-11.5391
▁Sri	-11.5392
▁devise	-11.5393
▁models	-11.5397
▁unemployment.	-11.5401
▁bel	-11.5403
▁morale	-11.5403
▁programming	-11.5403
▁préparé	-11.5404
▁rémunération	-11.5405
▁badly	-11.5406
▁fate	-11.5409
▁infractions	-11.5409
▁conformer	-11.5409
▁removal	-11.541
▁d’ici	-11.541
▁interprétation	-11.5412
▁sell	-11.5414
▁object	-11.5416
▁individuels	-11.5417
▁sérieuses	-11.5417
medicinal	-11.5418
▁detriment	-11.5423
▁chercheurs	-11.5424
▁structurels,	-11.5432
▁unemployment,	-11.5436
▁efficiently	-11.5436
▁avancé	-11.5436
▁Brussels.	-11.5436
▁down.	-11.5437
▁suscité	-11.5439
▁exprime	-11.544
▁Lomé	-11.544
▁scrutiny	-11.5441
▁presents	-11.5441
▁communautaires,	-11.5443
▁bois	-11.5443
▁Face	-11.5446
▁intérieures,	-11.5448
▁texte.	-11.5449
▁attached	-11.5459
▁Romanian	-11.5462
▁socially	-11.5464
▁pourparlers	-11.5466
▁d'exercer	-11.5466
▁d'instaurer	-11.5466
▁hémicycle	-11.5468
▁soldats	-11.5473
▁assuré	-11.5473
▁presidential	-11.5475
▁remise	-11.5476
▁backing	-11.5477
▁traitements	-11.5477
▁Corbett	-11.5478
▁fires	-11.5481
▁description	-11.5483
▁réclame	-11.5483
▁rédiger	-11.5486
ising	-11.5486
ro	-11.5488
▁Iranian	-11.5491
▁Syria	-11.5493
▁Ferrero-Waldner	-11.5494
▁preparatory	-11.5494
▁congé	-11.5496
▁answered	-11.5496
▁aérienne	-11.5498
▁generations	-11.5499
▁assets	-11.55
▁jurisdiction	-11.5506
▁Jarzembowski	-11.5506
▁Friday	-11.5508
▁proactive	-11.551
▁attach	-11.5514
▁officiellement	-11.5515
▁l'Autriche	-11.5516
▁commerce.	-11.5518
▁Autrement	-11.5523
▁transferred	-11.5523
▁résolument	-11.5524
▁700	-11.5524
▁hongroise	-11.5527
▁error	-11.5529
▁subsidiarité.	-11.5531
▁Federal	-11.5531
▁inclusive	-11.5532
▁lundi	-11.5535
▁satisfaisante	-11.5538
▁win	-11.5538
▁l'appel	-11.554
▁'the	-11.5541
▁absent	-11.5543
▁définitivement	-11.5544
▁formulée	-11.5546
▁l	-11.5546
▁constituera	-11.5547
▁dur	-11.555
▁vaccination	-11.5551
▁management.	-11.5557
▁conviendrait	-11.556
▁south	-11.5563
▁parviendrons	-11.5564
▁assured	-11.5565
▁dispositif	-11.5567
▁pain	-11.557
▁extrême	-11.557
▁thing.	-11.5571
▁Pack	-11.5572
▁crédible	-11.5572
▁démarches	-11.5574
▁pressing	-11.5574
▁collapse	-11.5574
▁Jacques	-11.5579
▁multiannual	-11.5579
▁bureaux	-11.5579
▁Youth	-11.5581
▁democratically	-11.5584
▁destroyed	-11.5584
▁34	-11.5586
▁safeguards	-11.5586
▁posées	-11.5589
’,	-11.559
▁actives	-11.5595
▁farm	-11.5596
▁scientists	-11.5597
▁jeux	-11.5597
▁inevitably	-11.5598
▁pouvaient	-11.5598
▁historiques	-11.5598
▁Quatrièmement	-11.5598
▁d'assurance	-11.5598
▁Européens,	-11.5599
▁signes	-11.56
▁décide	-11.5601
▁dénoncer	-11.5601
▁Procedure,	-11.5602
▁impliquées	-11.5605
▁Everyone	-11.5607
▁disponibilité	-11.5607
▁l'expression	-11.5607
▁His	-11.5608
03	-11.561
▁circumstances.	-11.5611
▁cellules	-11.5615
▁MEP	-11.5615
▁d’ailleurs	-11.5617
▁however.	-11.5618
▁instruments.	-11.5619
▁regimes	-11.5622
▁potentially	-11.5622
▁solved	-11.5624
▁compte.	-11.5626
▁forestry	-11.5626
▁reproductive	-11.5626
▁war.	-11.5626
▁durables	-11.5627
▁affronter	-11.563
▁explication	-11.5631
▁prochainement	-11.5631
▁title	-11.5632
▁d’améliorer	-11.5636
▁context.	-11.5636
▁préférence	-11.5639
▁manifestation	-11.564
▁stricter	-11.5641
▁chômage.	-11.5645
▁apparemment	-11.5645
▁bovine	-11.5646
▁quitter	-11.5648
▁wished	-11.5649
▁year's	-11.5652
▁Lisbon.	-11.5658
▁blind	-11.5659
▁suffisantes	-11.5659
▁pourrais	-11.5659
▁matters,	-11.566
▁Ecofin	-11.566
▁tard.	-11.5661
▁saving	-11.5662
▁funding.	-11.5663
▁fallen	-11.5666
▁fabrication	-11.5669
▁convictions	-11.567
▁IGC	-11.5673
▁j'étais	-11.5674
▁customers	-11.5676
▁card	-11.5676
▁d'intervenir	-11.5676
aux	-11.5678
▁dead	-11.5678
▁valable	-11.568
▁l’ont	-11.568
▁l'opportunité	-11.5684
▁disparition	-11.5685
▁marks	-11.5687
▁Government.	-11.5688
▁particulières	-11.5689
▁ministère	-11.569
▁Barón	-11.5693
▁d'ore	-11.57
▁péril	-11.57
▁vraie	-11.5701
▁réduite	-11.5704
▁arrived	-11.5704
▁Tunisie	-11.5707
▁Lebanon	-11.5707
s"	-11.5709
▁Deuxième	-11.5709
▁J'invite	-11.5709
▁mette	-11.5709
▁puissances	-11.5716
▁feature	-11.5717
▁airport	-11.5718
▁sold	-11.572
▁internationally	-11.5721
▁training,	-11.5724
▁detention	-11.5728
▁serves	-11.573
▁originally	-11.5735
▁Internet.	-11.5735
▁mercredi	-11.5736
▁aujourd’hui.	-11.5736
▁contraignant	-11.5737
▁documents.	-11.574
▁promesse	-11.5741
▁contrat	-11.5745
▁stick	-11.5746
▁murder	-11.5748
▁tableau	-11.5751
▁confirmation	-11.5752
▁attitudes	-11.5754
▁draftsman	-11.576
▁associés	-11.5766
▁died	-11.5767
▁livres	-11.5768
▁produits.	-11.5769
▁36	-11.5769
▁s'inscrit	-11.577
▁western	-11.577
▁apprendre	-11.5772
▁qu’on	-11.5772
▁Slovenia	-11.5774
▁subir	-11.5778
▁découlant	-11.578
▁transferts	-11.578
▁définit	-11.578
▁félicitons	-11.5781
▁55	-11.5782
▁classes	-11.5782
▁financier.	-11.5784
▁recyclage	-11.5785
DA)	-11.5786
▁candidats.	-11.5789
▁characterised	-11.579
▁Fourthly	-11.579
▁sanctions.	-11.579
▁naissance	-11.5792
▁l'urgence	-11.5793
▁décisive	-11.5794
▁suivie	-11.5794
▁relief	-11.5795
▁Secretary	-11.5796
▁satisfaits	-11.5796
▁Europe'	-11.5797
▁XXIe	-11.5799
▁parliamentarian	-11.5799
▁discriminatoire	-11.58
▁bloc	-11.58
▁autorisés	-11.5801
▁immigration,	-11.5804
▁clandestine	-11.5807
▁course.	-11.5808
▁Celui-ci	-11.5809
▁desquels	-11.5809
▁détenus	-11.581
▁linguistic	-11.5818
▁réelles	-11.582
▁countries'	-11.5822
▁sentir	-11.5824
▁rendue	-11.5825
▁réactions	-11.5825
▁appreciation	-11.5828
▁generate	-11.5834
▁Portugal.	-11.5836
▁tendances	-11.5839
▁required.	-11.5843
▁calcul	-11.5843
▁contenus	-11.5843
▁prévoyant	-11.5843
▁d’adhésion	-11.5844
▁alloués	-11.5847
▁réalisées	-11.5847
▁Actuellement	-11.5847
▁own-initiative	-11.5847
▁soi-disant	-11.5847
▁systematically	-11.5848
▁assessing	-11.5849
▁l'euro.	-11.585
▁ravie	-11.5855
▁concitoyens.	-11.5857
▁incidence	-11.5857
▁personnel.	-11.5861
▁happen.	-11.5861
▁rating	-11.5862
▁est-ce	-11.5863
▁pharmaceutical	-11.5868
▁remained	-11.587
▁clients	-11.5872
▁Tchétchénie	-11.5872
at	-11.5875
▁d'inclure	-11.5877
▁plénière.	-11.5877
▁rang	-11.5879
▁mort.	-11.5879
▁diplomatique	-11.5879
▁practically	-11.5882
▁autonomy	-11.5883
▁encore.	-11.5884
▁établis	-11.5886
▁irrespective	-11.5886
▁combine	-11.5887
▁appuyer	-11.5889
▁immunity	-11.5893
▁annuelle	-11.5895
▁responses	-11.5895
▁won	-11.5895
▁stating	-11.5896
▁large-scale	-11.5897
▁stakeholders	-11.5898
▁El	-11.5899
▁businesses.	-11.59
▁broadly	-11.5901
▁telling	-11.5904
▁consulter	-11.5904
▁ship	-11.5906
▁high-quality	-11.5906
▁vieux	-11.5907
▁disposée	-11.5911
▁whatsoever	-11.5912
▁logement	-11.5913
▁impôts	-11.5915
▁G8	-11.5917
▁concilier	-11.5918
▁absurd	-11.5919
▁humains.	-11.5922
▁hazardous	-11.5926
▁images	-11.5931
▁dommage	-11.5932
▁d'animaux	-11.5932
▁bancaire	-11.5934
▁l'exception	-11.5935
▁tourner	-11.5935
▁deciding	-11.5935
▁design	-11.5936
▁tomber	-11.5937
▁regime.	-11.5938
▁stimulate	-11.5938
▁partagent	-11.5939
▁définitif	-11.5939
▁2013.	-11.5942
▁semestre	-11.5942
▁Wednesday	-11.5943
▁imperative	-11.5945
00	-11.5945
▁vieillissement	-11.5945
▁L’Europe	-11.5946
▁mépris	-11.5947
▁voters	-11.595
▁vote:	-11.5953
▁PNR	-11.5955
▁OGM	-11.5955
▁attaque	-11.5956
▁traditionnelle	-11.5957
▁motif	-11.596
▁technologiques	-11.596
▁crainte	-11.5962
▁middle	-11.5962
▁automatically	-11.5965
▁d'enquête	-11.5967
ecretary-General	-11.5969
▁estiment	-11.597
▁inciter	-11.5972
▁contrôle.	-11.5974
▁demanded	-11.5981
▁absurde	-11.5983
▁criticised	-11.5986
▁heureusement	-11.5988
▁hour	-11.5991
▁compare	-11.5992
▁négative	-11.5994
▁refusal	-11.5995
▁appui	-11.5996
▁dépasser	-11.5996
▁intervention.	-11.6
▁TACIS	-11.6002
▁unanime	-11.6008
placing	-11.6012
▁l'ancien	-11.6014
▁complied	-11.6014
▁Also,	-11.6016
▁partnerships	-11.6016
▁times.	-11.6017
▁Libya	-11.6017
▁seriously.	-11.6018
▁autrichienne	-11.6022
▁Oomen-Ruijten	-11.6022
▁attendant	-11.6027
▁maximale	-11.603
▁diverse	-11.603
▁genres	-11.6031
▁exposed	-11.6033
▁33	-11.6033
▁emplois.	-11.6034
▁déposer	-11.6035
▁deviendra	-11.6039
▁him.	-11.604
▁800	-11.6042
▁bénéficié	-11.6044
▁delivered	-11.6044
▁Erika	-11.6045
ate	-11.6045
▁Amérique	-11.6045
▁offrent	-11.6047
▁inquiry	-11.6051
▁l'armée	-11.6052
▁courte	-11.6053
▁persuade	-11.6055
▁Afghanistan.	-11.6058
▁vendredi	-11.6059
▁track	-11.6059
▁inférieur	-11.606
▁d'efforts	-11.606
ons-nous	-11.6065
▁d’intérêt	-11.6067
▁signatures	-11.6069
▁MEDA	-11.6072
▁fixées	-11.6073
▁travelling	-11.6074
▁Fund,	-11.6075
▁exist.	-11.6077
▁amener	-11.6078
▁jeter	-11.6082
▁potentiels	-11.6085
▁component	-11.6085
▁possèdent	-11.609
▁cohésion.	-11.609
▁d'intérêts	-11.6091
▁risk.	-11.6091
▁l'être	-11.6093
▁conversion	-11.6094
▁vous-même	-11.6096
▁abord	-11.6096
▁Böge	-11.6102
▁Third	-11.6103
▁worried	-11.6104
▁pierre	-11.6104
▁identité	-11.6112
▁producer	-11.6114
▁sanitaires	-11.6119
▁Syrie	-11.6122
▁initiated	-11.6123
▁released	-11.6124
▁guilty	-11.6124
▁monitored	-11.6126
▁38	-11.6127
▁méditerranéenne	-11.6128
▁subjected	-11.613
▁accurate	-11.6131
▁précision	-11.6132
▁in-depth	-11.6134
▁inclut	-11.6134
▁tackled	-11.6135
▁43	-11.6141
▁notification	-11.6143
▁portugais	-11.6145
▁rendus	-11.6149
la	-11.6151
▁opération	-11.6156
▁concert	-11.6157
▁Annex	-11.6163
▁démocratiques.	-11.6167
▁delicate	-11.6174
▁wake	-11.6174
▁reserves	-11.6175
▁travaillant	-11.6175
▁Macédoine	-11.6178
▁souffre	-11.6182
▁Kurdish	-11.6184
▁coordinating	-11.6184
▁protectionnisme	-11.6185
▁obligés	-11.6185
▁Black	-11.6194
▁Fund.	-11.6196
▁consideration.	-11.6198
▁onto	-11.6202
▁table.	-11.6203
▁a-t-elle	-11.6205
ère	-11.6208
▁references	-11.6213
ys	-11.6216
▁ambitieuse	-11.622
▁Médiateur	-11.6221
▁mental	-11.6222
▁cofinancement	-11.6225
▁nullement	-11.6225
▁formally	-11.6227
▁soldiers	-11.6227
▁42	-11.6228
▁sanction	-11.6232
▁simplified	-11.6233
▁effectués	-11.6234
▁venez	-11.6234
▁résumé	-11.6238
▁précédentes	-11.6243
▁ideological	-11.6243
▁n’ai	-11.6254
▁ensured	-11.6254
▁traditionnelles	-11.6255
▁cases.	-11.6256
▁lesson	-11.6256
▁assistance.	-11.6257
▁écouter	-11.6264
▁repercussions	-11.6264
▁O	-11.6264
▁l'arrêt	-11.6271
▁terroriste	-11.6271
▁thirdly	-11.6272
▁reminded	-11.6273
▁reconnais	-11.6273
▁Moldavie	-11.6274
▁valoir	-11.6275
▁impliquer	-11.628
▁mother	-11.6282
▁arrivés	-11.6283
▁s'appliquer	-11.6284
▁reporter	-11.6286
▁enjeux	-11.6286
▁transporteurs	-11.6287
▁voulait	-11.6295
▁scheduled	-11.6296
▁authorised	-11.6297
▁d'emplois.	-11.6301
▁commises	-11.6302
▁corruption.	-11.6304
▁writing	-11.6304
▁twice	-11.6305
onformément	-11.6305
▁d'offrir	-11.6305
▁exemptions	-11.6306
▁survie	-11.6308
▁parvenons	-11.6318
▁inadmissible	-11.6318
▁technology.	-11.6321
▁»	-11.6323
▁mémoire	-11.6323
▁directes	-11.6324
▁ones.	-11.6326
isme	-11.6328
▁Egypt	-11.6328
▁données.	-11.6331
▁notation	-11.6332
▁contributes	-11.6333
de	-11.6334
▁criminals	-11.6335
▁l'image	-11.6335
▁équipe	-11.6336
▁rapides	-11.634
▁décisionnel	-11.634
▁divisions	-11.6341
▁Scotland	-11.6342
ad	-11.6344
▁Suisse	-11.6346
▁intelligence	-11.6346
▁everyday	-11.6347
▁provoquer	-11.6347
▁obtaining	-11.6348
▁avoiding	-11.6348
▁base.	-11.6356
▁précieux	-11.6356
▁unprecedented	-11.6357
▁émanant	-11.6357
▁résultant	-11.6357
▁pensée	-11.6357
▁dependence	-11.6357
▁sex	-11.6357
▁contradictions	-11.6358
▁concernées.	-11.6359
▁chacune	-11.636
▁fuels	-11.6362
▁Switzerland	-11.6367
▁reposer	-11.6369
▁film	-11.6371
▁accountability	-11.6378
▁addresses	-11.6379
▁shipping	-11.6379
▁uses	-11.638
▁autorisé	-11.6382
▁couverture	-11.6388
▁supranational	-11.6388
▁l'unité	-11.6389
▁concerns.	-11.639
▁soulevées	-11.6393
▁logic	-11.6393
▁estimates	-11.6394
▁qu’au	-11.6395
▁demonstration	-11.6396
▁generous	-11.6396
▁audiovisual	-11.6398
▁package.	-11.6398
▁openly	-11.6398
▁d'utilisation	-11.6398
▁root	-11.6404
▁prévoient	-11.6406
▁privacy	-11.6408
▁semble-t-il	-11.641
▁innovation.	-11.6413
▁d’énergie	-11.6414
▁Ukraine.	-11.6415
▁surplus	-11.6418
▁libérer	-11.6419
▁d'où	-11.6419
▁biocarburants	-11.642
▁sévères	-11.6424
▁répondent	-11.6425
▁urgente	-11.643
▁used.	-11.6431
▁maintenant.	-11.6439
▁Berlusconi	-11.6439
▁foster	-11.644
▁tienne	-11.6444
▁rien.	-11.6446
▁tragique	-11.6449
ré	-11.6449
▁l’initiative	-11.6449
▁nul	-11.645
▁révélé	-11.6452
▁bruit	-11.6454
▁avéré	-11.6454
▁occidentaux	-11.6455
▁deficits	-11.6458
▁David	-11.646
▁3%	-11.6462
▁profitable	-11.6464
▁grecque	-11.6465
▁sélection	-11.6468
▁ownership	-11.6471
▁dérogations	-11.6472
▁Turkey's	-11.6473
▁vit	-11.6478
▁better.	-11.6481
▁Vitorino	-11.6481
▁pace	-11.6481
▁consacrée	-11.6481
▁couverts	-11.6482
▁établissements	-11.6482
▁l'air	-11.6484
▁class	-11.6487
▁consequences.	-11.6488
▁Slovénie	-11.6491
▁reforms.	-11.6492
▁inondations	-11.6499
▁facilitating	-11.6501
▁Taiwan	-11.6502
▁réalisée	-11.6507
▁d'exécution	-11.6507
▁ouvertement	-11.6508
▁conjointe	-11.651
▁21st	-11.6512
▁arises	-11.6512
▁investissement	-11.6513
▁federal	-11.6517
▁billion.	-11.6517
▁d'aides	-11.6517
▁dûment	-11.652
▁entendons	-11.652
▁returned	-11.6521
▁passing	-11.6522
▁heavily	-11.6522
▁prestations	-11.6528
▁conducteurs	-11.6529
▁d'approvisionne	-11.6533
▁décision-cadre	-11.6534
▁causés	-11.6537
▁mentionnés	-11.6538
▁sentiments	-11.6538
ised	-11.6538
▁concentre	-11.6539
▁abandonner	-11.6539
▁élevée	-11.654
▁wholeheartedly	-11.6544
▁soviétique	-11.6544
▁[	-11.6546
▁Aucune	-11.6548
co	-11.6551
▁Asian	-11.6552
▁Should	-11.6553
▁députés.	-11.6554
▁établie	-11.6555
▁préconise	-11.6556
▁amélioré	-11.6557
▁fiables	-11.6557
▁faille	-11.6563
▁José	-11.6564
▁arrested	-11.6567
▁60%	-11.6567
▁Moyen-Orient.	-11.6571
▁d'intégrer	-11.6574
▁permanence	-11.6575
▁soutiendra	-11.6578
▁venir,	-11.6579
▁cherchent	-11.6582
▁seat	-11.6583
▁Through	-11.6584
▁Baroness	-11.6584
▁irregularities	-11.6586
▁monopoly	-11.6586
▁honorables	-11.6588
▁traduction	-11.6588
▁remarkable	-11.6595
▁consacrés	-11.66
▁difficilement	-11.661
▁p.m.)	-11.6612
os	-11.6612
▁parvenue	-11.6614
▁s’en	-11.6614
▁radioactive	-11.6616
▁cohérent	-11.662
▁réflexions	-11.6624
▁budgets.	-11.6625
▁Liikanen	-11.6628
▁quick	-11.6629
▁identifier	-11.663
▁clair.	-11.663
▁abolish	-11.6632
▁tentent	-11.6632
▁ended	-11.6638
ns	-11.6638
▁découle	-11.6643
▁ferroviaires	-11.6643
▁John	-11.6647
▁imposé	-11.6649
▁north	-11.6651
▁Democrat	-11.6652
▁ami	-11.6657
▁governments.	-11.6662
▁remplacement	-11.6662
▁stability.	-11.6663
▁institution.	-11.6663
▁Ukraine,	-11.6666
▁phénomènes	-11.6667
▁l'humanité	-11.6667
▁prêter	-11.6668
▁trente	-11.6669
▁inequalities	-11.6671
▁contraire.	-11.6671
▁d'accueil	-11.6672
▁volontiers	-11.6672
▁Lamy	-11.6673
▁développe	-11.6673
▁atteints	-11.6675
▁Tourism	-11.6676
▁fusion	-11.6678
▁l’avis	-11.6679
▁d'ouvrir	-11.6679
▁d’origine	-11.668
/02	-11.6681
▁indicates	-11.6682
▁sexes	-11.6683
▁Nord.	-11.6684
▁professionals	-11.6685
▁requête	-11.6687
▁régissant	-11.669
▁pluriannuel	-11.6691
▁Harbour	-11.6692
▁Rehn	-11.6692
▁serions	-11.6693
▁estimations	-11.6696
▁l'électricité	-11.6701
▁déterminée	-11.6703
▁ressource	-11.6703
▁responding	-11.6708
▁coûte	-11.671
▁ultimate	-11.671
▁PPE-DE.	-11.6711
▁consists	-11.6713
▁victimes.	-11.6717
▁lists	-11.6719
▁Greens/	-11.672
▁self-employed	-11.6722
▁internationaux.	-11.6724
▁riche	-11.6724
▁défenseurs	-11.6725
▁Socrates	-11.6726
▁d’en	-11.6728
▁m'est	-11.6731
▁flights	-11.6731
▁élan	-11.6732
▁souvenir	-11.6734
▁Latvia	-11.6734
▁spécifiques.	-11.6734
▁facility	-11.6735
▁town	-11.6736
▁modifiés	-11.6739
▁constraints	-11.674
▁favorise	-11.674
▁monopole	-11.6741
▁Iran.	-11.6742
▁irresponsible	-11.6743
▁bien.	-11.6743
▁l’information	-11.6745
▁qu'aujourd'hui	-11.6746
▁biologique	-11.675
▁frappé	-11.6756
▁adjustment	-11.6756
▁'no'	-11.6757
▁moratoire	-11.6758
▁exclude	-11.6758
▁espoirs	-11.6763
-elle	-11.6764
▁integral	-11.6764
▁l'appui	-11.6764
▁corporate	-11.6765
▁pertinentes	-11.6768
▁lourds	-11.6769
▁lance	-11.6771
▁connais	-11.6773
▁creative	-11.6773
▁concerné	-11.6774
▁synergies	-11.6775
▁continuons	-11.6781
▁troubles	-11.6781
▁rational	-11.6782
▁négocié	-11.6785
▁fonde	-11.6786
▁devote	-11.6789
investissements	-11.6793
▁posed	-11.6794
▁stresses	-11.6796
▁renforçant	-11.6796
▁Relations	-11.6797
▁bus	-11.6798
▁Mann	-11.6798
▁hunger	-11.6799
▁towns	-11.6803
▁obligations.	-11.6804
▁autre.	-11.6807
▁solving	-11.6807
▁l'échec	-11.681
▁prerequisite	-11.681
▁implementation.	-11.6815
▁imaginer	-11.6816
▁mauvaises	-11.6817
▁soutenant	-11.6818
▁investing	-11.6818
▁vide	-11.6819
▁souhaits	-11.682
▁emphasize	-11.6821
▁attempting	-11.6823
▁mur	-11.6826
▁game	-11.6828
▁C'était	-11.6828
▁unité	-11.6831
▁tuna	-11.6832
▁j'aurais	-11.6832
▁listes	-11.6833
▁externes	-11.6836
▁familiale	-11.6836
▁raison.	-11.6836
▁multinational	-11.6842
▁impatience	-11.6842
▁Sharon	-11.6843
▁placé	-11.6845
▁strive	-11.6847
▁dollar	-11.6848
urs	-11.6849
▁verte	-11.685
▁governed	-11.6851
▁constat	-11.6854
▁jurisprudence	-11.6861
▁vérification	-11.6861
▁publiques.	-11.6866
▁handicap	-11.6868
▁recorded	-11.6871
▁routière	-11.6871
▁résolus	-11.6872
▁turque	-11.6872
▁emphasises	-11.6873
▁enceinte	-11.6875
▁criteria,	-11.6876
▁dictatorship	-11.6877
▁distorsions	-11.6879
▁réchauffement	-11.6882
▁enfant	-11.6882
▁exhaustive	-11.6885
▁errors	-11.6887
▁figurer	-11.6889
▁coins	-11.689
▁l'annexe	-11.6893
▁renouvelables.	-11.6893
▁Questions	-11.6894
di	-11.6896
▁appalling	-11.6896
▁l'aviation	-11.6897
▁normally	-11.6897
▁Lisbon,	-11.6898
um	-11.69
▁unie	-11.6903
▁Apart	-11.6904
▁assistants	-11.6904
▁m’a	-11.6905
▁transitoire	-11.6905
▁pages	-11.6905
▁traitée	-11.6908
▁criticisms	-11.6909
▁verts	-11.6909
-là	-11.6914
▁2015	-11.6918
▁enforce	-11.6918
▁Democracy	-11.6919
▁quantitative	-11.692
▁bénéfique	-11.6921
▁etc.,	-11.6922
▁saine	-11.6923
▁industriel	-11.6924
▁findings	-11.693
▁seekers	-11.693
▁match	-11.6935
▁witnessed	-11.6937
▁essential.	-11.6938
▁jours.	-11.6941
▁l'offre	-11.6941
▁défend	-11.6944
▁describe	-11.6947
▁Jean	-11.695
▁situe	-11.695
▁ELDR	-11.6951
▁born	-11.6951
▁dépens	-11.6952
▁réservé	-11.6953
▁sustained	-11.6959
▁IV	-11.6962
▁GMOs	-11.6964
▁proposant	-11.6964
▁impossible.	-11.6964
▁explicit	-11.6965
▁combination	-11.6966
▁character	-11.6967
▁recognising	-11.6969
▁(SL)	-11.6969
▁livestock	-11.6969
▁Pas	-11.6972
▁believed	-11.6974
▁linguistique	-11.6974
▁criticise	-11.6976
▁served	-11.6976
▁aidera	-11.6978
▁langage	-11.698
▁removing	-11.698
▁(démocrates	-11.698
▁septième	-11.698
▁considérées	-11.6982
▁interference	-11.6984
▁modernes	-11.6985
▁wise	-11.6988
▁adding	-11.6991
▁s'impose	-11.6992
▁Olympic	-11.6993
▁bananes	-11.6995
▁Libye	-11.6995
▁équitables	-11.6997
▁l'UEM	-11.6997
▁wonderful	-11.7001
▁possession	-11.7005
▁thoroughly	-11.7008
▁occidentale	-11.7008
▁légal	-11.7011
▁préféré	-11.7014
▁general,	-11.7014
▁Mexico	-11.7017
▁d'Afrique	-11.7017
▁accessibles	-11.7022
▁fréquemment	-11.7023
▁strikes	-11.7034
▁availability	-11.7034
▁l'échelon	-11.7035
ex	-11.7035
▁g	-11.7035
▁tonight	-11.7037
▁modest	-11.7037
▁6.	-11.7039
▁bataille	-11.7041
▁rétablissement	-11.7045
▁apparaître	-11.7047
▁progression	-11.7048
▁researchers	-11.705
▁data.	-11.7051
▁cast	-11.7051
▁Nordic	-11.7051
▁taxpayers	-11.7056
▁victory	-11.7061
▁révèle	-11.7063
▁retirement	-11.7065
▁procedures,	-11.7066
▁tunnel	-11.7069
▁approbation	-11.7071
▁persecution	-11.7073
▁tarifs	-11.7077
▁Resolution	-11.7079
▁lobby	-11.7083
▁apportera	-11.7084
▁cause.	-11.7084
▁ignored	-11.7085
▁internet	-11.7087
▁égal	-11.7088
▁conformes	-11.709
▁sixième	-11.709
▁lowest	-11.709
▁unlike	-11.7091
▁doive	-11.7093
▁accéder	-11.7095
▁d’information	-11.7095
▁conclusions.	-11.7096
▁Bank,	-11.71
▁réexamen	-11.71
▁l’absence	-11.71
▁secrétariat	-11.7102
▁whenever	-11.7103
▁recycling	-11.7106
▁desired	-11.7106
▁suivants:	-11.7108
▁reports,	-11.7111
▁préparatifs	-11.7111
▁Each	-11.7112
▁Peace	-11.7112
▁financement.	-11.7113
na	-11.7116
▁d'Israël	-11.7116
▁Kong	-11.7116
▁illégal	-11.7118
▁satisfy	-11.7119
▁économiquement	-11.712
▁Against	-11.7123
Parce	-11.7126
▁Estonia	-11.7127
▁condemnation	-11.7127
▁déterminant	-11.713
▁stem	-11.7131
▁leçon	-11.7133
▁vendre	-11.7134
▁11,	-11.7135
▁triste	-11.7138
▁attaquer	-11.7138
▁pertinent	-11.7139
▁Vienna	-11.7141
im	-11.7141
▁poorer	-11.7141
▁follows:	-11.7147
▁Barrot	-11.715
ling	-11.7151
▁d'objectifs	-11.7151
▁donor	-11.7152
▁consentis	-11.7153
▁Medina	-11.7156
▁africaine	-11.716
▁enterprise	-11.7164
▁response.	-11.7165
▁profound	-11.7166
▁sachant	-11.7167
▁enjoyed	-11.717
▁d'instruments	-11.7171
▁qualitative	-11.7172
▁moratorium	-11.7174
▁maison	-11.7175
▁exceptionnelle	-11.7175
▁inappropriate	-11.7176
▁burdens	-11.7179
▁publier	-11.718
▁réduits	-11.7181
▁principles.	-11.7181
▁location	-11.7182
▁pénales	-11.719
▁gouvernement.	-11.719
▁quotidienne	-11.719
▁rejoins	-11.7191
▁history.	-11.7193
▁Agreement.	-11.7196
▁d'affaires	-11.7197
▁suggéré	-11.7198
▁contraints	-11.7198
▁l'étude	-11.7201
C	-11.721
▁Neighbourhood	-11.7211
▁caught	-11.7211
et	-11.7217
ter	-11.7222
▁securing	-11.7222
▁pointing	-11.7226
▁siècle.	-11.7228
▁assister	-11.7231
▁González	-11.7234
▁l'Autorité	-11.7234
▁century.	-11.7243
▁efficaces.	-11.7244
▁détruire	-11.7246
▁retrouve	-11.7247
▁lieu.	-11.7247
▁claimed	-11.7249
▁7.	-11.7251
▁genetic	-11.7252
con	-11.7252
▁implication	-11.7253
▁grants	-11.7255
▁islands	-11.7255
▁resolution)	-11.7256
▁(BG)	-11.7256
▁mesures.	-11.7256
▁d'envisager	-11.7256
▁publicly	-11.7261
▁differ	-11.7261
▁parallèle	-11.7262
▁normalisation	-11.7264
▁réalités	-11.7265
▁pair	-11.7266
▁topics	-11.7267
▁pauvres.	-11.7269
▁enregistré	-11.7269
▁avance	-11.727
ts	-11.7271
▁dépenser	-11.7273
▁essayons	-11.7273
▁limiting	-11.7275
▁motivation	-11.7275
▁Day	-11.7275
▁route.	-11.7278
▁dioxide	-11.7278
▁l'intégrité	-11.7279
▁Quite	-11.7279
▁préoccupés	-11.728
▁posts	-11.7283
▁Eh	-11.7283
▁humanity	-11.7285
▁constituency	-11.7285
▁parlent	-11.7286
▁remboursement	-11.7291
▁solides	-11.7291
▁allait	-11.7295
▁confirms	-11.7295
▁appeared	-11.7296
▁AIDS	-11.7297
▁brefs	-11.7298
▁facilité	-11.7299
▁interpreted	-11.7302
▁priorités.	-11.7307
▁activity.	-11.7307
▁model.	-11.7309
▁continue.	-11.731
▁nationale,	-11.7311
▁topical	-11.7312
▁(L	-11.7314
▁affectés	-11.7315
▁fournis	-11.7315
▁correction	-11.7316
▁guerre.	-11.7317
▁africains	-11.7322
▁Mercosur	-11.7325
▁transmis	-11.7326
▁repression	-11.7326
▁défendu	-11.7326
▁philosophie	-11.7328
▁pluralisme	-11.7328
▁patience	-11.733
▁indiquent	-11.733
▁l'institution	-11.7331
▁Chacun	-11.7335
▁manifester	-11.7337
▁demanderai	-11.7338
▁fournies	-11.734
▁condamne	-11.7341
▁banana	-11.7342
▁d'ouverture	-11.7342
▁fièvre	-11.7346
▁occupied	-11.7346
▁majeures	-11.7347
▁Small	-11.7348
▁maybe	-11.7348
▁cap	-11.7348
▁d'attention	-11.7356
I	-11.7357
▁yougoslave	-11.7357
▁earmarked	-11.7358
▁l'orientation	-11.7358
▁adressée	-11.7358
▁frankly	-11.7359
▁arrêt	-11.7362
S	-11.7363
▁Crespo	-11.7365
▁dairy	-11.7369
▁groupe.	-11.737
ul	-11.737
▁threatening	-11.7372
▁soir.	-11.7376
▁approfondi	-11.738
▁manufacturing	-11.738
▁close.	-11.7381
▁fondements	-11.7384
▁exert	-11.7395
▁reflètent	-11.7396
▁billets	-11.7396
▁Royaume-Uni.	-11.7398
▁Bangemann	-11.7399
▁août	-11.7399
▁25%	-11.74
▁réagi	-11.7401
▁definitive	-11.7402
▁focuses	-11.7402
▁âge	-11.7402
▁split	-11.7403
▁70%	-11.7403
▁administratifs	-11.7404
▁créée	-11.7404
▁proprement	-11.7407
▁parviennent	-11.7409
▁préférences	-11.7421
▁speculation	-11.7422
▁douane	-11.7423
▁n'aient	-11.7423
▁guerres	-11.7428
▁44	-11.743
▁avancés	-11.7431
▁contribution.	-11.7438
▁jouets	-11.7438
▁défense.	-11.7439
▁incapables	-11.744
-General	-11.7442
▁Sahara	-11.7442
▁opérationnel	-11.7442
▁aiming	-11.7443
▁46	-11.7445
▁Robert	-11.7448
▁Oostlander	-11.7448
▁redistribution	-11.7448
▁Until	-11.7449
▁Sud.	-11.7452
▁reverse	-11.7453
▁farmers.	-11.7454
▁prochain.	-11.7455
▁lourde	-11.7456
▁garanti	-11.7458
▁Communication	-11.7458
▁uphold	-11.7459
▁modifiée	-11.7459
▁requiring	-11.746
▁concluding	-11.746
▁computer	-11.7461
):	-11.7463
▁mind.	-11.7464
▁Netherlands,	-11.7464
▁formula	-11.7466
▁preference	-11.7467
▁pollution.	-11.7469
▁évidente	-11.7471
▁apprécié	-11.7471
▁rid	-11.7474
▁rural,	-11.7474
▁jeunes.	-11.7476
▁référendums	-11.7477
▁sanitaire	-11.748
▁d'étendre	-11.7483
▁prétend	-11.7484
▁ground.	-11.7492
▁tremendous	-11.7493
▁Mulder	-11.7494
▁carburants	-11.7495
▁p	-11.7495
▁illégaux	-11.7495
▁accueillir	-11.7499
▁challenges.	-11.7502
▁Lettonie	-11.7503
▁pragmatic	-11.7506
▁optique	-11.7507
▁reconnaissons	-11.7508
▁directives.	-11.7509
▁surcroît	-11.7517
▁wind	-11.7519
▁Aux	-11.752
▁cru	-11.7523
▁feels	-11.7525
▁fragmentation	-11.7526
▁faut-il	-11.7526
▁parlementaire.	-11.7527
▁Neither	-11.7529
▁concevoir	-11.7529
▁convey	-11.7533
▁province	-11.7535
▁moves	-11.7537
▁cité	-11.7538
▁communicate	-11.7539
▁initiate	-11.7539
▁teneur	-11.754
ally	-11.7541
▁clear:	-11.7543
▁remedy	-11.7548
▁Euratom	-11.755
▁oriental	-11.7552
ly,	-11.7553
▁intérimaire	-11.7553
▁symbol	-11.7553
▁retraités	-11.7554
▁fin.	-11.7556
▁parlementaires,	-11.7558
▁prolonger	-11.7558
▁prépare	-11.7559
▁transports.	-11.756
▁remark	-11.756
▁overwhelming	-11.7562
▁registered	-11.7563
▁d’adopter	-11.7563
▁voulions	-11.7563
▁displaced	-11.7563
▁preferred	-11.7563
▁restaurer	-11.7566
au	-11.7568
▁deadlines	-11.7568
▁Hague	-11.7572
▁minds	-11.7576
▁13,	-11.7578
▁Schengen.	-11.7579
▁adressées	-11.758
▁war,	-11.7581
▁abroad	-11.7584
▁naturelle	-11.7585
▁Yesterday	-11.7586
▁Fédération	-11.7587
▁massacre	-11.7588
▁faiblesse	-11.759
▁ensures	-11.7591
▁ancien	-11.7597
▁clubs	-11.7598
▁co	-11.7598
▁promotes	-11.76
▁donateurs	-11.7607
▁Conciliation	-11.761
▁l'autorisation	-11.761
▁trains	-11.7611
▁profond	-11.7612
▁hongrois	-11.7612
▁Party,	-11.7617
▁origine	-11.762
▁durement	-11.7623
▁fondées	-11.7625
▁passent	-11.7627
▁praise	-11.7628
▁respectés	-11.763
▁fonctionnent	-11.7631
▁réfère	-11.7631
ment.	-11.7631
-chrétiens)	-11.7634
▁critiquer	-11.7637
▁perform	-11.7638
▁beau	-11.7639
▁elimination	-11.7644
▁Rothley	-11.7644
▁l’amélioration	-11.7645
▁dual	-11.7648
▁floods	-11.765
▁déposée	-11.765
▁mobilise	-11.7653
▁demonstrating	-11.7656
▁realised	-11.7659
▁rassembler	-11.766
▁consommateur.	-11.7665
▁tariff	-11.7668
▁steel	-11.7668
▁prétendre	-11.7669
▁85	-11.7673
▁fier	-11.7675
▁East,	-11.7675
année	-11.7679
▁D'abord	-11.7679
▁d'énormes	-11.7679
▁mettons	-11.7681
▁Strategy.	-11.7686
▁divide	-11.7687
▁persuadé	-11.7689
▁autumn	-11.7689
▁d'innovation	-11.769
▁assurant	-11.7691
▁automatiquement	-11.7692
▁là.	-11.7693
▁Se	-11.7693
▁israélien	-11.7698
▁expressly	-11.7699
▁arrière	-11.77
▁requises	-11.7701
▁dramatique	-11.7702
▁ampleur	-11.7704
▁contiennent	-11.7706
▁transform	-11.7707
▁renvoi	-11.7709
Applaudissements	-11.7709
▁speaker)	-11.771
▁bureaucratique	-11.7712
▁sectoral	-11.7712
▁atmosphere	-11.7713
▁toxic	-11.7714
▁Delors	-11.7717
▁protégés	-11.7718
▁nécessitent	-11.7719
▁majority.	-11.7719
▁recognize	-11.7721
▁assistons	-11.7722
▁comitology	-11.7725
▁Christians	-11.7725
▁connue	-11.7725
▁player	-11.7726
▁conjunction	-11.7726
▁mid-term	-11.7726
▁nations.	-11.7729
▁compenser	-11.7729
▁occuper	-11.773
▁dire.	-11.7733
▁isolated	-11.7734
▁merit	-11.7735
▁channels	-11.7736
▁permission	-11.7738
▁émettre	-11.7738
ner	-11.7739
▁149)	-11.7739
▁secondary	-11.7741
▁exposés	-11.7741
▁children's	-11.7744
▁Thanks	-11.7746
▁pro	-11.7747
▁l’avenir.	-11.7747
▁commissaire.	-11.7748
▁améliorée	-11.7748
▁quotidien	-11.7749
▁fermeté	-11.7749
▁Malmström	-11.7749
▁atteintes	-11.7749
▁touché	-11.7749
▁indiquant	-11.775
▁adressé	-11.775
▁organized	-11.775
▁regulating	-11.7751
▁dedicated	-11.7755
▁légales	-11.7756
▁determining	-11.7762
▁Hier	-11.7762
▁forts	-11.7762
ma	-11.7763
▁nourriture	-11.7768
▁peser	-11.7773
▁offrant	-11.7774
▁transfers	-11.7774
▁complexity	-11.7775
▁morning.	-11.7775
▁l'orateur)	-11.7775
▁invested	-11.7777
▁plainte	-11.7778
▁mineurs	-11.778
▁supérieure	-11.7783
▁mondialisation.	-11.7783
▁côtes	-11.7784
▁remote	-11.7784
▁story	-11.7784
▁proximité	-11.7784
▁propriétaires	-11.7786
▁Nobel	-11.7786
▁quantity	-11.7786
▁assessed	-11.7787
▁sympathie	-11.7788
▁10,	-11.7791
▁faces	-11.7791
▁coupables	-11.7792
▁freedom.	-11.7795
▁PME.	-11.7796
▁Eurojust	-11.7796
▁commenter	-11.7797
▁suspend	-11.7799
▁discussions.	-11.78
▁author.	-11.78
▁licenciements	-11.7804
▁consensus.	-11.7805
▁driven	-11.781
▁éleveurs	-11.7811
▁d'Europe.	-11.7812
▁currency.	-11.7813
▁zero	-11.7813
▁gets	-11.7817
▁rapidité	-11.7822
▁PSE.	-11.7822
▁productivité	-11.7823
▁suivantes	-11.7824
▁affaire.	-11.7824
▁appropriés	-11.7826
▁suspendue	-11.783
▁annuels	-11.7831
▁Johannesburg	-11.7832
▁Annan	-11.7832
▁l'abolition	-11.7833
▁conclusion.	-11.7834
▁revêtent	-11.7834
▁Là	-11.7834
▁Members.	-11.7837
▁l'Alliance	-11.7838
▁unitaire	-11.7838
▁sol	-11.784
▁affairs.	-11.7841
▁souffrances	-11.7842
▁subsidiarity.	-11.7843
▁quo	-11.7843
▁disparities	-11.7844
▁community,	-11.7844
▁Rather	-11.7844
▁l'influence	-11.7845
▁chaos	-11.7845
▁homes	-11.7846
▁couvert	-11.7847
▁foodstuffs	-11.7847
▁manoeuvre	-11.7849
▁encourages	-11.7856
▁l’argent	-11.7856
▁normalement	-11.7859
▁légalement	-11.786
▁everywhere	-11.786
▁sexe	-11.7861
▁réglementaires	-11.7862
▁réclamer	-11.7864
▁user	-11.7867
▁d'insister	-11.7868
▁papier	-11.7869
▁beneficiaries	-11.787
▁souffrance	-11.787
▁avis.	-11.7871
▁plaide	-11.7872
▁initialement	-11.7873
▁hide	-11.7873
▁far.	-11.7874
▁pillars	-11.7877
▁strange	-11.7877
▁partisan	-11.7878
fondamentalement	-11.7879
▁empty	-11.788
▁Adjustment	-11.788
▁desquelles	-11.788
▁abordés	-11.7885
▁désarmement	-11.7892
▁traçabilité	-11.7892
▁continuité	-11.7892
▁Beijing	-11.7892
▁performances	-11.7892
▁90%	-11.7892
▁pity	-11.7893
▁symbolic	-11.7893
▁consult	-11.7894
▁affecte	-11.7894
▁ouverts	-11.7896
▁détaillées	-11.7896
▁vigilant	-11.7898
▁online	-11.7901
▁l'usage	-11.7902
▁Ceux-ci	-11.7904
▁anywhere	-11.7904
▁d'ajouter	-11.7904
▁Basque	-11.7906
▁America.	-11.7909
▁Council’s	-11.7913
▁twenty	-11.7916
▁Chancellor	-11.7916
▁Personnellement	-11.7916
▁déroule	-11.7917
▁flag	-11.7917
▁organization	-11.7918
▁jugé	-11.7918
▁130	-11.7918
▁supporters	-11.792
▁act.	-11.7921
▁autoriser	-11.7921
▁portes	-11.7923
▁venue	-11.7925
▁numéro	-11.7926
▁facilitation	-11.7928
▁alarming	-11.7928
▁controlling	-11.7929
▁trouble	-11.793
▁await	-11.7934
▁délits	-11.7936
▁presidency.	-11.7937
▁l'honneur	-11.794
▁l'intermédiaire	-11.794
▁expand	-11.7942
▁productions	-11.7943
▁sees	-11.7948
▁formidable	-11.7949
▁survival	-11.7952
▁advances	-11.7953
▁Certainly	-11.7953
▁n'aura	-11.7958
▁later,	-11.7961
▁sessions	-11.7961
▁exergue	-11.7964
▁s'était	-11.7964
▁punishment	-11.7968
▁urged	-11.797
▁shame	-11.7973
▁pousser	-11.7974
▁références	-11.7974
▁l'étranger	-11.7975
▁l'évidence	-11.7976
▁dégradation	-11.7976
▁religieux	-11.7976
▁generated	-11.7978
▁recital	-11.7981
▁évoluer	-11.7985
▁investment.	-11.7987
▁explicite	-11.7989
▁industrielles	-11.799
▁créent	-11.7992
▁susciter	-11.7995
▁requis	-11.7995
▁wrong.	-11.7995
▁récession	-11.8
▁suspect	-11.8001
▁comitologie	-11.8001
▁actuel.	-11.8001
▁years'	-11.8001
▁finlandaise	-11.8002
▁fournissent	-11.8003
▁Algeria	-11.8004
▁good.	-11.8005
▁announcement	-11.8005
▁shortage	-11.8012
▁demeurent	-11.8014
▁immédiat	-11.8017
▁peut-elle	-11.8018
▁Conference.	-11.8018
▁49	-11.8019
▁Freedom	-11.8019
▁execution	-11.802
▁Congress	-11.8025
▁distributed	-11.8025
▁remit	-11.8025
▁soulevée	-11.8028
▁Langen	-11.8028
▁chargés	-11.803
▁d'aboutir	-11.8036
▁apportent	-11.804
▁thinks	-11.804
▁Vienne	-11.8041
▁fédérale	-11.8042
▁biofuels	-11.8045
▁map	-11.8048
▁comprenons	-11.8049
▁banning	-11.8049
▁transférer	-11.8049
▁persistent	-11.805
▁douanière	-11.8051
▁offences	-11.8051
▁civilians	-11.8052
▁système.	-11.8057
▁biological	-11.806
▁separation	-11.8061
▁spectrum	-11.8061
▁integrating	-11.8061
▁causé	-11.8062
▁stopped	-11.8062
▁envisagé	-11.8062
▁voterai	-11.8062
▁attiré	-11.8063
▁contents	-11.8063
▁panel	-11.8065
▁néerlandaise	-11.8067
▁technology,	-11.8068
▁signale	-11.8069
▁prompt	-11.8069
▁establishes	-11.8072
▁agricoles.	-11.8073
▁sport.	-11.8074
▁illustre	-11.8076
▁sensibilité	-11.8077
▁bras	-11.8082
▁dangereuse	-11.8082
▁cross	-11.8086
▁era	-11.8087
▁ALDE.	-11.809
▁runs	-11.8092
▁Law	-11.8093
▁2012.	-11.8094
▁continuous	-11.8096
rs	-11.8097
▁implies	-11.8097
▁preservation	-11.8097
▁éventail	-11.8098
▁Bonino	-11.8098
▁simplifying	-11.8103
▁selling	-11.8104
▁territory.	-11.8106
▁voisin	-11.8107
▁injuste	-11.8108
▁specified	-11.8109
▁bottom	-11.8109
▁monétaires	-11.811
▁drinking	-11.8111
▁networks.	-11.8113
▁villages	-11.8113
▁confrontation	-11.8115
ique	-11.8115
▁belonging	-11.8116
▁tape	-11.8116
▁interests,	-11.8116
▁Copenhague.	-11.8118
▁claire.	-11.812
▁Slovak	-11.8121
▁philosophy	-11.8123
▁t	-11.8126
▁députée	-11.8131
▁réfugiés.	-11.8133
▁l’approche	-11.8134
▁relationships	-11.8136
▁exister	-11.8137
▁concentrated	-11.8137
▁instructions	-11.8139
▁analyser	-11.8139
eurs	-11.814
▁approches	-11.8142
▁brève	-11.8143
▁d'approuver	-11.8146
▁l'exigence	-11.8146
▁Suu	-11.8146
▁Freedoms	-11.8152
▁job.	-11.8156
▁unified	-11.8157
▁ciel	-11.8158
▁selection	-11.816
▁else.	-11.816
▁2011,	-11.8161
▁objective,	-11.8164
▁gains	-11.8164
▁holds	-11.8168
▁peut-il	-11.817
▁non-respect	-11.8171
▁réduisant	-11.8171
▁ressources.	-11.8176
▁diplomatiques	-11.8178
▁laissent	-11.8178
▁harmoniser	-11.818
▁Coelho	-11.8183
▁déséquilibres	-11.8183
▁genocide	-11.8184
▁Goals	-11.8185
▁précisé	-11.8186
▁more.	-11.8187
▁d'activité	-11.8191
▁dream	-11.8192
▁backed	-11.8192
▁cohésion,	-11.8193
▁Al	-11.8194
▁permettez	-11.8194
▁deliberately	-11.8196
▁troisièmement	-11.8198
▁origin.	-11.8199
▁simple.	-11.82
▁II.	-11.82
▁drop	-11.8203
▁decision,	-11.8203
▁translation	-11.8204
▁efficiency.	-11.8204
▁Ou	-11.8205
▁sortes	-11.8205
▁quarter	-11.8206
▁spectre	-11.8207
▁effectuées	-11.8208
▁reinforced	-11.8211
▁L'une	-11.8213
▁dure	-11.8219
▁spéciales	-11.8219
▁Où	-11.822
▁quiconque	-11.822
▁géographiques	-11.822
▁l'agriculture.	-11.8223
▁rejecting	-11.8223
▁intéressés	-11.8224
▁financés	-11.8225
▁cour	-11.8227
▁Balkan	-11.8227
article	-11.8228
▁cod	-11.8228
▁swift	-11.823
▁reassure	-11.8231
▁clonage	-11.8232
▁modulation	-11.8235
▁enhancing	-11.8235
▁alimentaires.	-11.8241
▁book	-11.8242
▁rural.	-11.8245
▁enthusiasm	-11.8247
▁conciliation.	-11.8247
▁UEN	-11.8248
▁fonder	-11.8252
02	-11.8256
▁lancée	-11.8256
▁l'écart	-11.8258
▁fulfilled	-11.8259
▁désignation	-11.826
am	-11.826
▁arabe	-11.826
▁conflit.	-11.826
▁threaten	-11.8264
▁vol	-11.8267
▁Bösch	-11.8269
▁telephone	-11.827
▁l'assurance	-11.827
▁east	-11.827
▁acquired	-11.8271
▁Florence	-11.8272
▁Rio	-11.8272
▁garantissent	-11.8274
▁dominant	-11.8274
▁trends	-11.8275
▁Working	-11.8284
▁Arctic	-11.8285
▁station	-11.8285
▁policière	-11.8286
▁identique	-11.8287
▁armées	-11.8288
▁hasard	-11.8289
▁mesurer	-11.8289
▁5%	-11.829
▁identifying	-11.8291
▁ties	-11.8292
▁university	-11.8294
▁Côte	-11.8294
▁démocraties	-11.8296
▁use.	-11.8297
ca	-11.8298
▁margin	-11.8298
▁médecins	-11.8301
▁cours.	-11.8306
▁Juncker	-11.8307
▁d'importantes	-11.8307
▁eligible	-11.8307
▁l'apprentissage	-11.8307
▁41	-11.8309
▁PESC	-11.8309
▁Mandelson	-11.8309
▁d’aide	-11.8312
▁frustration	-11.8313
▁situations.	-11.8316
▁d'harmonisation	-11.8319
▁exclure	-11.832
▁sadly	-11.8321
▁symbole	-11.8325
▁particulière.	-11.8325
▁bilatérales	-11.8327
-up	-11.8329
▁expenditure.	-11.8329
▁reconcile	-11.833
▁accepts	-11.833
▁l’accent	-11.8331
▁wishing	-11.8332
▁l'adaptation	-11.8332
▁propos.	-11.8332
▁donors	-11.8332
ine	-11.8333
▁productivity	-11.8333
▁Among	-11.8334
▁cattle	-11.8336
▁compréhensible	-11.8341
▁endroits	-11.8342
▁flottes	-11.8342
▁offertes	-11.8344
▁d'arriver	-11.8344
▁quasiment	-11.8345
▁intéressante	-11.8346
▁xénophobie	-11.8347
▁cessé	-11.8348
▁prestation	-11.8349
A	-11.835
▁charter	-11.8351
▁globalisation.	-11.8351
▁Muslim	-11.8354
▁proposent	-11.8355
▁imposition	-11.8357
▁terror	-11.8357
▁là-bas	-11.8359
▁minutes.	-11.8367
ance	-11.8369
▁famous	-11.8369
▁renouvellement	-11.8369
▁1994,	-11.8371
▁constituerait	-11.8376
▁responded	-11.8378
▁individuelle	-11.838
▁wide-ranging	-11.8381
▁l'actuelle	-11.8382
▁Ford	-11.8383
▁elle-même.	-11.8383
▁vigilance	-11.8385
▁belles	-11.8386
▁mainstreaming	-11.8386
▁handled	-11.8386
▁instrument.	-11.8388
▁complement	-11.8388
▁unilatérale	-11.8389
▁honnête	-11.8393
▁existante	-11.8394
▁favorisant	-11.8394
▁proviennent	-11.8395
▁xenophobia	-11.8397
▁qualifiés	-11.8397
▁confiance.	-11.8398
▁warrant	-11.8401
▁organisme	-11.8401
▁Asie	-11.8403
ments	-11.8404
▁interrompue	-11.8406
▁Byrne	-11.841
▁acteur	-11.841
▁Bank.	-11.8412
▁general.	-11.8413
▁s'adapter	-11.8413
▁attentive	-11.8416
▁macroeconomic	-11.8419
▁Climate	-11.8419
▁suspendre	-11.8423
land	-11.8424
▁girls	-11.8425
▁monopoles	-11.8435
▁Articles	-11.8436
▁journaux	-11.8438
▁speech.	-11.8438
▁autonome	-11.8439
▁élargir	-11.8441
▁postpone	-11.8441
▁éducation	-11.8441
▁danger.	-11.8442
▁approving	-11.8444
▁quality.	-11.8446
▁utile.	-11.8448
▁union.	-11.8448
▁elles-mêmes	-11.8448
▁Cuba.	-11.8452
▁mentionnées	-11.8455
▁12,	-11.8456
▁dioxyde	-11.8457
▁acheter	-11.8457
▁protège	-11.8459
▁avenir.	-11.846
▁summit.	-11.8461
▁"non"	-11.8461
▁vitale	-11.8462
▁abouti	-11.8462
▁EU'	-11.8467
▁basées	-11.8467
▁sauvegarder	-11.8469
▁comptent	-11.8469
▁l'importation	-11.847
▁Anyone	-11.847
▁tolérer	-11.8471
▁Dr	-11.8472
▁instability	-11.8473
▁présidence.	-11.8474
▁coeur	-11.8474
▁quantities	-11.8474
▁Merkel	-11.8475
▁assembly	-11.8477
▁Industrial	-11.8477
▁génocide	-11.8478
▁face.	-11.8482
▁combustibles	-11.8482
▁d'arrêt	-11.8482
▁Paragraph	-11.8482
▁l’ouverture	-11.8482
▁Venezuela	-11.8483
▁Caucase	-11.8486
▁spéculation	-11.8486
▁distances	-11.8487
▁défavorisées	-11.8489
▁matin.	-11.849
▁intégrées	-11.8491
▁eliminating	-11.8495
▁invitons	-11.8495
▁vocation	-11.8496
▁deprived	-11.8496
▁resort	-11.8496
▁provisoire	-11.8498
▁Summit.	-11.8499
▁cigarettes	-11.8501
▁bears	-11.8506
▁emerge	-11.8507
▁l’état	-11.8508
▁mentions	-11.8508
id	-11.8511
ou	-11.8511
▁mi-parcours	-11.8514
▁irrégularités	-11.8515
▁indirectly	-11.8515
▁misère	-11.8516
▁commencent	-11.8517
▁équivoque	-11.8517
▁détérioration	-11.852
▁tabling	-11.8521
▁tsunami	-11.8521
▁résolue	-11.8521
▁permets	-11.8521
▁ouvertes	-11.8521
▁tiré	-11.8521
▁signals	-11.8522
▁entraînera	-11.8524
▁s'avérer	-11.8524
▁définie	-11.8526
▁continueront	-11.8526
▁patents	-11.8526
▁interest,	-11.8529
▁web	-11.853
▁offensive	-11.853
▁d'émissions	-11.853
▁dépense	-11.8531
▁croit	-11.8533
▁marquer	-11.8538
▁collègues.	-11.854
▁intégrés	-11.8546
▁plaît	-11.8546
▁fulfilling	-11.8546
▁input	-11.8549
▁inequality	-11.855
▁élections.	-11.8551
▁touchant	-11.8551
▁seemed	-11.8554
▁purpose.	-11.8555
(	-11.8558
▁d’informations	-11.8559
▁soigneusement	-11.8559
▁Voici	-11.8559
▁inévitablement	-11.856
▁d'aucune	-11.8562
▁partial	-11.8563
▁socialist	-11.8565
▁ourselves.	-11.8566
▁Obama	-11.8567
▁carburant	-11.8568
▁anciennes	-11.8569
▁religions	-11.8571
eur	-11.8573
▁décisions.	-11.8575
▁Prize	-11.8576
▁pensé	-11.8577
▁jeu.	-11.858
▁planet	-11.8582
▁detrimental	-11.8583
▁Ici	-11.8584
▁Council'	-11.8584
▁Sierra	-11.8584
▁Belgrade	-11.8589
tra	-11.859
▁advocates	-11.8594
▁Federation	-11.8595
▁enregistrés	-11.8595
▁Guerre	-11.8597
▁hoping	-11.8597
▁decade	-11.86
▁dit.	-11.8601
▁waste.	-11.8601
gouvernementale.	-11.8601
▁workforce	-11.8602
▁reprend	-11.8603
▁livrer	-11.8604
▁religieuse	-11.8605
▁justifié	-11.8605
▁value.	-11.8607
▁institutionnels	-11.8608
▁religieuses	-11.8608
▁preserving	-11.861
▁subissent	-11.861
▁revealed	-11.8611
▁positively	-11.8612
▁underlined	-11.8613
▁réviser	-11.8615
▁diplomatie	-11.8615
▁profondes	-11.8622
▁avoided	-11.8625
▁bande	-11.8627
▁réaffirmer	-11.8627
▁Lulling	-11.8628
▁publish	-11.8628
▁famine	-11.8632
▁applaud	-11.8634
▁différentes.	-11.8634
▁wars	-11.8634
▁allocations	-11.864
▁l’OMC	-11.8641
▁mountain	-11.8641
▁machine	-11.8642
▁substantive	-11.8647
▁sensitivity	-11.8648
▁undermining	-11.8648
▁doctors	-11.8649
▁tire	-11.865
▁mondiales	-11.8651
▁distorsion	-11.8652
▁Process	-11.8654
▁welcome.	-11.8655
▁é	-11.8656
▁worker	-11.8656
▁nulle	-11.8657
▁publiquement	-11.8658
▁survenus	-11.8661
▁Chirac	-11.8661
▁poursuivi	-11.8662
▁39	-11.8663
▁task.	-11.8664
▁thoughts	-11.8667
▁céréales	-11.8667
▁approuvés	-11.8668
▁Afghan	-11.8669
▁arrêté	-11.8671
▁incomes	-11.8672
▁courageous	-11.8673
▁explanatory	-11.8674
▁ministerial	-11.8674
▁compensate	-11.8677
▁fault	-11.8678
pe	-11.8679
▁exempt	-11.868
▁d'hier	-11.868
▁Summit,	-11.868
▁d'activités	-11.8682
20	-11.8682
▁Cuba,	-11.8683
▁projet.	-11.8685
▁formation,	-11.8686
▁marchés.	-11.8689
▁expenses	-11.869
▁étendue	-11.8691
▁d'initiatives	-11.8692
▁intensifier	-11.8692
▁légiférer	-11.8698
▁depending	-11.8699
▁priorité.	-11.8699
▁application.	-11.87
▁copyright	-11.8706
▁suivants	-11.8706
▁caution	-11.8707
▁reviewed	-11.8707
▁attendu	-11.8709
▁applied.	-11.8709
ia	-11.871
▁nordique	-11.8711
▁knew	-11.8713
▁progrès.	-11.8714
▁crucial.	-11.8715
▁illegally	-11.8715
▁excellence	-11.8719
▁Policy.	-11.8719
▁capture	-11.8723
▁reply.	-11.8725
▁proves	-11.8726
▁bureaucratiques	-11.8728
▁Wogau	-11.8728
▁jouissent	-11.8729
▁officially	-11.8731
▁confronté	-11.8733
▁circonstances,	-11.8735
▁listed	-11.8736
▁ending	-11.8737
▁senior	-11.8738
▁fishery	-11.8739
▁organising	-11.8739
▁blanchiment	-11.8739
▁dear	-11.8739
▁airline	-11.8741
▁rejoint	-11.8742
▁witness	-11.8743
▁formed	-11.8744
▁d'avancer	-11.8745
▁recul	-11.8749
▁definite	-11.8751
▁continuity	-11.8752
▁qualification	-11.8757
▁Kazakhstan	-11.8758
▁safer	-11.8762
▁moderniser	-11.8762
▁derogation	-11.8764
▁teachers	-11.8765
▁employer	-11.8766
▁dispositifs	-11.8768
▁training.	-11.8768
▁n'avez	-11.8768
▁technique.	-11.8773
▁insecurity	-11.8773
▁expresses	-11.8774
▁favour.	-11.8774
▁électriques	-11.8775
▁College	-11.8778
▁summary	-11.8778
▁allez	-11.8778
▁d'entamer	-11.8778
▁neighbour	-11.878
▁rendant	-11.8782
▁Mexique	-11.8784
▁Guantánamo	-11.8784
▁Evans	-11.8784
interopérabilité	-11.8786
▁vue.	-11.8788
▁reçoit	-11.8791
▁craindre	-11.8791
▁satisfaisant	-11.8792
▁concours	-11.8794
▁mutually	-11.8795
▁reforming	-11.8796
▁impliqué	-11.8797
▁simultanément	-11.8798
▁rassurer	-11.8798
▁poursuites	-11.8804
▁suddenly	-11.8805
▁victims.	-11.8805
▁escape	-11.8808
▁properly.	-11.881
▁souplesse	-11.8811
▁adaptée	-11.8811
▁wave	-11.8812
[...]
