<s>	0
</s>	0
<unk>	0
<pad>	0
,	-3.24831
▁the	-3.42369
▁de	-3.6328
▁of	-4.10027
▁la	-4.12496
▁to	-4.17527
▁and	-4.33582
▁et	-4.41126
▁le	-4.55702
▁a	-4.58174
▁in	-4.58984
▁à	-4.6278
▁les	-4.63118
▁des	-4.65593
▁que	-4.82429
▁that	-4.82754
▁is	-4.86559
.	-5.03746
▁en	-5.04682
▁for	-5.26115
▁I	-5.27502
▁du	-5.29561
▁on	-5.32369
▁dans	-5.428
▁nous	-5.44179
▁pour	-5.44879
▁qui	-5.46577
▁be	-5.493
▁this	-5.52142
▁we	-5.53407
▁une	-5.58225
▁un	-5.62832
▁ce	-5.66146
▁est	-5.67013
▁are	-5.68056
▁have	-5.72655
▁-	-5.73422
▁pas	-5.74918
▁sur	-5.76122
▁au	-5.77586
▁not	-5.77898
▁it	-5.78505
▁as	-5.83496
▁with	-5.8433
▁which	-5.87569
▁ne	-5.91901
▁European	-5.92144
▁par	-5.92275
▁Commission	-5.97445
▁The	-6.01128
▁will	-6.03232
▁by	-6.04478
▁plus	-6.11818
▁has	-6.15977
▁je	-6.17298
s	-6.19537
▁Mr	-6.31918
▁Je	-6.37724
▁cette	-6.38545
▁aux	-6.39026
▁an	-6.43365
▁il	-6.44967
▁at	-6.47068
▁would	-6.47943
▁sont	-6.48025
▁also	-6.49287
▁should	-6.53825
▁from	-6.58659
▁avec	-6.59308
▁We	-6.60333
▁our	-6.61141
▁but	-6.61235
▁must	-6.62083
▁all	-6.62735
▁Nous	-6.64972
▁Il	-6.661
▁se	-6.68255
▁mais	-6.70379
▁been	-6.70389
▁Monsieur	-6.7136
▁être	-6.74463
▁	-6.75052
▁ces	-6.75699
▁pays	-6.78347
▁été	-6.80091
▁ont	-6.80704
▁It	-6.80978
▁can	-6.82967
▁La	-6.8353
▁President,	-6.84471
▁européenne	-6.85812
▁Le	-6.87296
▁was	-6.87479
▁Member	-6.88343
▁fait	-6.88476
▁you	-6.89292
▁more	-6.89659
▁vous	-6.90041
▁or	-6.90136
▁important	-6.91748
▁its	-6.92504
▁qu'il	-6.92836
▁comme	-6.93024
▁their	-6.95081
▁politique	-6.9512
▁Parlement	-6.95532
▁tout	-6.9555
▁rapport	-6.97048
▁like	-6.97674
▁do	-6.99003
▁Président,	-7.00232
▁there	-7.00287
▁question	-7.00464
▁États	-7.00806
▁very	-7.0125
▁l'Union	-7.0182
▁ou	-7.02633
:	-7.02933
▁également	-7.03469
▁This	-7.05152
▁In	-7.06155
▁these	-7.07177
▁they	-7.09335
▁Union	-7.09371
▁aussi	-7.09663
▁d'une	-7.13361
▁notre	-7.1507
▁Conseil	-7.16717
▁one	-7.17622
▁Parliament	-7.17698
▁who	-7.17891
▁si	-7.18837
▁faire	-7.19045
▁report	-7.193
▁point	-7.21604
▁leur	-7.21679
▁avons	-7.21695
▁me	-7.21836
▁what	-7.21978
?	-7.22
▁about	-7.22246
▁doit	-7.22648
▁M.	-7.23464
▁other	-7.23613
▁Council	-7.23711
▁need	-7.24061
▁membres	-7.24541
▁Europe	-7.24693
▁très	-7.2601
▁tous	-7.26125
▁so	-7.26285
▁Les	-7.26375
▁son	-7.27857
▁y	-7.28977
▁même	-7.29099
▁situation	-7.29285
▁my	-7.29388
▁d'un	-7.29797
▁only	-7.30383
▁EU	-7.30632
▁bien	-7.30643
▁En	-7.30913
▁States	-7.31223
▁new	-7.31785
▁no	-7.32464
▁européen	-7.34517
▁entre	-7.35134
▁because	-7.35543
▁if	-7.35929
▁us	-7.36888
▁Ce	-7.38077
▁part	-7.3844
▁devons	-7.38578
;	-7.40879
▁l'	-7.42265
▁droits	-7.43266
▁nos	-7.43289
▁am	-7.44833
▁time	-7.45282
▁people	-7.46605
▁such	-7.47806
▁up	-7.48822
▁countries	-7.50383
▁make	-7.50887
▁take	-7.51075
▁support	-7.51965
▁out	-7.52061
▁into	-7.5232
▁between	-7.53186
▁voudrais	-7.53563
▁those	-7.53812
▁contre	-7.53884
▁directive	-7.56664
▁donc	-7.58069
▁peut	-7.58776
▁now	-7.58813
▁possible	-7.59103
▁protection	-7.59155
▁vote	-7.6005
▁social	-7.6047
▁dont	-7.60753
▁when	-7.60791
▁therefore	-7.60872
▁non	-7.61813
▁some	-7.61981
▁C'est	-7.62272
▁any	-7.6298
▁being	-7.62984
▁sans	-7.64145
▁soit	-7.64374
▁proposition	-7.65247
▁political	-7.65685
▁deux	-7.67248
▁were	-7.67388
▁encore	-7.67448
▁cela	-7.68398
▁policy	-7.69499
▁than	-7.69564
▁rapporteur	-7.70122
▁made	-7.70504
▁ainsi	-7.70638
▁economic	-7.70769
▁ses	-7.70901
▁believe	-7.71082
▁c'est	-7.71194
▁commission	-7.72415
▁place	-7.73411
▁work	-7.73628
▁suis	-7.74667
▁faut	-7.75573
▁many	-7.76955
▁say	-7.77405
▁sa	-7.77461
▁position	-7.7772
▁against	-7.77829
▁n'est	-7.78237
▁développement	-7.78578
▁mesures	-7.78925
▁fact	-7.79447
▁public	-7.79898
▁programme	-7.80685
▁d'	-7.80858
▁first	-7.81322
▁cas	-7.81732
▁pense	-7.81932
▁leurs	-7.8214
▁budget	-7.82387
▁matière	-7.83346
▁That	-7.84251
▁cet	-7.84273
▁travail	-7.84404
▁marché	-7.84459
▁car	-7.84592
▁doivent	-7.84808
▁afin	-7.84857
▁sécurité	-7.85039
▁think	-7.85198
▁groupe	-7.86506
▁national	-7.86687
▁questions	-7.86815
▁just	-7.87092
▁déjà	-7.87813
▁sommes	-7.87865
▁proposal	-7.88024
▁international	-7.88035
▁way	-7.88073
's	-7.88154
▁où	-7.88578
▁Committee	-7.88919
▁rights	-7.8897
▁cadre	-7.89943
▁elle	-7.90011
▁manière	-7.90024
▁respect	-7.90395
▁human	-7.9135
▁dire	-7.91635
▁services	-7.92118
▁Madame	-7.92263
▁citoyens	-7.92625
▁concerne	-7.92853
▁mon	-7.93385
▁cannot	-7.93618
▁debate	-7.94387
▁politiques	-7.9542
▁does	-7.95454
▁order	-7.95536
▁droit	-7.95559
▁had	-7.95614
▁even	-7.96034
▁two	-7.96167
▁conditions	-7.96387
▁As	-7.96522
▁want	-7.96535
▁same	-7.96812
▁tant	-7.97564
▁could	-7.9824
▁niveau	-7.98286
▁them	-7.98578
▁débat	-7.99023
▁right	-7.99163
▁sera	-7.9949
▁most	-8.0007
ing	-8.02309
▁already	-8.02914
▁where	-8.0313
▁certain	-8.04179
▁–	-8.04862
▁financial	-8.05039
▁lors	-8.0536
▁measures	-8.05419
▁within	-8.05541
▁much	-8.05696
▁good	-8.06422
▁said	-8.06962
▁Mrs	-8.07028
▁still	-8.07115
▁personnes	-8.07262
▁how	-8.07395
▁development	-8.07804
▁toute	-8.08338
▁There	-8.08816
▁issue	-8.09591
▁common	-8.09713
▁both	-8.10097
▁your	-8.10581
▁Dans	-8.10769
▁see	-8.10928
▁parce	-8.11067
▁toutes	-8.11088
▁concernant	-8.11273
▁President	-8.11406
▁use	-8.11578
▁However,	-8.11622
▁clear	-8.11636
▁certains	-8.11747
▁sein	-8.11842
▁dit	-8.1215
▁fois	-8.12223
▁long	-8.12728
▁problème	-8.12969
▁here	-8.13247
▁particular	-8.13355
▁agreement	-8.13419
▁européenne.	-8.13419
▁under	-8.13533
▁Mme	-8.13666
▁On	-8.14059
▁well	-8.14592
'	-8.14913
▁hope	-8.15068
▁d'autres	-8.15242
▁over	-8.15569
▁ensure	-8.16003
▁moins	-8.16516
▁vue	-8.16887
▁too	-8.17088
▁action	-8.17276
▁able	-8.17376
▁institutions	-8.17401
▁efforts	-8.17569
▁coopération	-8.17719
▁his	-8.17994
▁système	-8.18429
▁seulement	-8.18602
▁view	-8.18844
▁économique	-8.1889
▁taken	-8.1906
▁mettre	-8.20231
▁future	-8.20526
▁why	-8.21003
▁market	-8.2123
▁pourquoi	-8.2151
▁put	-8.22156
▁base	-8.22188
▁own	-8.22237
▁mise	-8.22903
▁Community	-8.23675
▁.	-8.23896
▁number	-8.2416
▁may	-8.24765
▁nombre	-8.25368
▁plan	-8.25369
▁last	-8.25504
▁nom	-8.25847
▁means	-8.26317
▁Pour	-8.26623
▁problèmes	-8.26754
▁without	-8.26775
▁autres	-8.26871
e	-8.26909
▁avoir	-8.26912
▁compte	-8.27303
▁%	-8.27536
▁savoir	-8.27556
▁A	-8.27666
▁know	-8.27829
▁Mais	-8.28069
▁points	-8.28249
▁case	-8.28347
▁toujours	-8.28433
▁grande	-8.28479
▁temps	-8.28571
tte	-8.2858
▁through	-8.28673
▁information	-8.28876
▁If	-8.28944
▁energy	-8.28971
▁s'agit	-8.29025
▁lieu	-8.29241
▁gentlemen,	-8.29449
▁raison	-8.29855
▁cooperation	-8.30103
▁devrait	-8.30199
▁aujourd'hui	-8.30621
▁Si	-8.30774
▁secteur	-8.31219
▁avant	-8.31456
▁processus	-8.31527
▁notamment	-8.31717
▁relations	-8.31754
▁laquelle	-8.31886
▁particulier	-8.31944
▁À	-8.32003
▁Madam	-8.32141
▁particularly	-8.3222
▁he	-8.32263
▁beaucoup	-8.3236
▁however	-8.32643
▁l'UE	-8.33128
▁great	-8.33851
▁give	-8.33865
▁Commission.	-8.34103
▁Cela	-8.34325
▁prendre	-8.34342
▁ceux	-8.3457
▁demande	-8.34756
▁regard	-8.34783
▁solution	-8.34928
▁today	-8.35012
▁j'ai	-8.3524
▁importance	-8.35292
▁cours	-8.35566
▁citizens	-8.35619
▁faveur	-8.36068
▁rôle	-8.36133
▁then	-8.36217
▁domaine	-8.36849
▁years	-8.36955
▁before	-8.37065
▁transport	-8.37101
▁partie	-8.37132
▁gouvernement	-8.37186
▁given	-8.37278
▁continue	-8.37927
▁country	-8.38027
▁legal	-8.38216
▁l'Europe	-8.38327
▁Commission,	-8.38403
)	-8.3853
▁Commissioner	-8.38604
▁votre	-8.38705
▁mesure	-8.39033
▁soient	-8.39226
▁propositions	-8.39555
▁effet	-8.3957
▁qu'elle	-8.40163
▁necessary	-8.40423
▁end	-8.40868
▁moment	-8.41799
▁whether	-8.41807
▁dialogue	-8.41944
▁président	-8.42268
▁ladies	-8.42613
▁pouvons	-8.43024
▁qu’il	-8.43352
▁United	-8.43548
▁nouvelle	-8.43722
▁besoin	-8.43741
▁thank	-8.43923
▁problems	-8.44005
▁attention	-8.4451
▁résolution	-8.44752
▁Europe.	-8.45042
▁accord	-8.45112
▁behalf	-8.45311
▁since	-8.45352
▁soutien	-8.45459
▁programmes	-8.45635
▁far	-8.45965
▁security	-8.46082
▁serait	-8.46523
▁pouvoir	-8.46557
s.	-8.46629
▁était	-8.46655
▁system	-8.46753
▁n'a	-8.4683
▁set	-8.46854
▁traité	-8.47009
▁production	-8.47188
▁santé	-8.47249
▁large	-8.47497
▁nouveau	-8.47754
▁peuvent	-8.47876
▁next	-8.48347
▁world	-8.48352
▁amendements	-8.4865
▁peu	-8.48829
▁ils	-8.49734
▁l’Union	-8.49925
▁sujet	-8.50019
▁role	-8.50061
▁issues	-8.50073
▁further	-8.50081
▁objectifs	-8.50293
▁autre	-8.50794
▁favour	-8.50836
▁millions	-8.50971
▁depuis	-8.51327
▁femmes	-8.51558
▁Members	-8.52009
▁alors	-8.52453
▁l'on	-8.52485
▁:	-8.52699
▁terms	-8.52703
▁face	-8.52954
▁amendments	-8.53098
▁problem	-8.53116
▁commissaire	-8.53309
▁monde	-8.54026
▁area	-8.54134
▁décision	-8.54178
▁come	-8.54225
▁produits	-8.54637
▁ici	-8.55194
▁règlement	-8.55197
▁agree	-8.55435
▁different	-8.55512
▁again	-8.55779
▁process	-8.56107
▁areas	-8.56119
▁Commissioner,	-8.56331
▁help	-8.56391
▁crois	-8.56405
▁façon	-8.5642
▁What	-8.56481
▁Union.	-8.56519
▁nécessaire	-8.56632
▁jour	-8.56719
▁proposals	-8.56888
▁better	-8.56888
▁présent	-8.57253
▁Commissaire,	-8.57469
▁première	-8.57582
▁matter	-8.57611
▁But	-8.57614
▁stratégie	-8.5773
▁entreprises	-8.57821
▁De	-8.57831
▁européenne,	-8.58173
▁s	-8.58202
▁contrôle	-8.58426
▁principe	-8.58476
▁commune	-8.58648
▁trade	-8.58717
▁needs	-8.5879
▁adopted	-8.58991
▁House	-8.59195
▁Mesdames	-8.59493
▁ask	-8.59689
▁d’une	-8.60018
▁For	-8.60222
▁after	-8.60293
▁présidence	-8.60365
▁framework	-8.60437
▁present	-8.60578
▁wish	-8.60804
▁level	-8.60902
▁députés	-8.60939
▁règles	-8.61257
▁eu	-8.6146
▁quelques	-8.61736
▁bonne	-8.61936
▁going	-8.62284
▁mes	-8.62634
▁women	-8.62847
▁aid	-8.62915
▁crise	-8.63076
▁nouveaux	-8.63089
▁second	-8.63097
▁Par	-8.63367
▁après	-8.63446
▁towards	-8.63676
▁change	-8.63726
▁basis	-8.6376
▁resolution	-8.6376
!	-8.63929
▁few	-8.63942
▁done	-8.63955
que	-8.64229
▁régions	-8.6427
▁fonds	-8.64303
▁actions	-8.64326
▁européens	-8.64807
▁trois	-8.64859
▁l'homme	-8.64942
▁ni	-8.65085
▁vie	-8.65156
▁voted	-8.65198
▁working	-8.6563
▁lutte	-8.65736
▁garantir	-8.6586
▁sous	-8.65947
▁selon	-8.66228
▁three	-8.66329
▁something	-8.6634
▁positive	-8.66667
▁Présidente,	-8.66739
▁year	-8.66786
▁communication	-8.66935
▁projet	-8.67029
▁parties	-8.671
▁grand	-8.67219
▁Treaty	-8.67394
▁welcome	-8.67657
▁fin	-8.67685
▁remercier	-8.67827
▁result	-8.6785
▁lui	-8.67861
▁recherche	-8.67945
▁current	-8.67982
▁aspects	-8.68364
▁rules	-8.6837
▁nouvelles	-8.68541
▁J'ai	-8.68551
▁progress	-8.69023
▁clairement	-8.69168
▁sector	-8.6942
▁bon	-8.69515
▁health	-8.69633
▁including	-8.69803
▁nombreux	-8.69877
▁vers	-8.70666
▁législation	-8.7069
▁population	-8.71089
▁really	-8.7128
▁seront	-8.71404
▁provide	-8.71421
▁shall	-8.7164
▁million	-8.71709
dès	-8.71823
▁s'est	-8.7202
▁go	-8.72104
▁specific	-8.72171
▁voir	-8.72894
▁group	-8.73036
▁cha	-8.73076
▁did	-8.73247
▁nécessité	-8.73346
▁voté	-8.73348
▁qualité	-8.73474
nt	-8.73717
▁là	-8.73832
▁proposed	-8.74099
▁va	-8.74104
▁especially	-8.74277
▁during	-8.744
▁every	-8.74527
▁justice	-8.74811
▁pourrait	-8.74832
▁increase	-8.74874
▁opportunity	-8.74888
▁initiative	-8.74913
▁decision	-8.74939
▁d’un	-8.75173
▁négociations	-8.75209
▁plusieurs	-8.75326
▁(	-8.75603
▁whole	-8.75751
▁find	-8.75795
▁trop	-8.75881
▁principle	-8.76132
▁environmental	-8.76297
▁State	-8.76519
▁become	-8.76873
▁procédure	-8.77213
▁premier	-8.77517
▁autorités	-8.77617
▁greater	-8.77751
▁States.	-8.77801
▁clearly	-8.77893
▁visant	-8.78091
▁quite	-8.78296
▁000	-8.78451
▁œuvre	-8.78542
▁used	-8.7859
▁subject	-8.79143
▁ma	-8.79315
▁aucun	-8.79385
▁forward	-8.79465
▁surtout	-8.79471
▁force	-8.79613
▁rather	-8.7965
▁Ces	-8.79827
▁certaines	-8.79931
▁serious	-8.80001
▁Une	-8.80074
▁concerned	-8.8013
▁effective	-8.80349
▁maintenant	-8.80425
▁contribution	-8.80603
▁They	-8.80815
▁Europe,	-8.80834
▁least	-8.80996
s,	-8.81044
▁cause	-8.81127
▁Messieurs,	-8.81261
▁reste	-8.81451
▁l'environnement	-8.81563
▁discussion	-8.81876
▁Nations	-8.81886
▁chose	-8.82153
▁Group	-8.82245
▁global	-8.82306
▁course,	-8.82352
▁always	-8.82686
▁service	-8.82839
▁?	-8.82867
▁tiens	-8.82895
▁mois	-8.83742
▁call	-8.83759
▁down	-8.83806
▁Elle	-8.83809
▁These	-8.83996
▁voulons	-8.84222
▁it.	-8.84464
▁real	-8.84514
▁fundamental	-8.84617
▁No	-8.8475
▁account	-8.8478
▁ressources	-8.84796
▁making	-8.84798
▁avez	-8.85012
▁conséquent	-8.8512
▁once	-8.85145
▁course	-8.85234
▁law	-8.85285
▁Commission's	-8.85314
▁legislation	-8.85576
▁opinion	-8.85663
▁membre	-8.85794
▁major	-8.85986
▁Presidency	-8.86156
▁another	-8.86168
▁together	-8.86169
▁prix	-8.86265
▁reason	-8.86354
▁access	-8.86581
▁donner	-8.86683
▁taking	-8.86778
▁state	-8.86816
▁Et	-8.87068
y	-8.87111
"	-8.87134
▁general	-8.87334
▁small	-8.87646
▁employment	-8.87719
▁report.	-8.87747
▁third	-8.87778
▁difficult	-8.87954
▁At	-8.88072
▁deal	-8.88107
▁approach	-8.88295
▁democratic	-8.88317
▁based	-8.88352
▁research	-8.88363
▁get	-8.88366
▁Comme	-8.88408
▁achieve	-8.88412
▁regulation	-8.88571
▁essential	-8.88581
▁internal	-8.88601
▁various	-8.88648
▁qu'	-8.88742
▁donné	-8.88764
▁lorsque	-8.89349
▁main	-8.89414
▁davantage	-8.89447
▁excellent	-8.90182
▁membres.	-8.90214
▁soutenir	-8.90257
▁création	-8.90422
▁safety	-8.90464
▁each	-8.90615
▁responsibility	-8.9062
▁elles	-8.90922
▁responsabilité	-8.9098
▁instruments	-8.91245
▁juridique	-8.91371
▁constitue	-8.9151
▁strategy	-8.91722
▁1	-8.91896
▁mis	-8.92046
▁example,	-8.92243
▁société	-8.9229
▁impact	-8.92483
▁semble	-8.92609
▁comment	-8.9272
▁negotiations	-8.92867
▁implementation	-8.92992
▁while	-8.93067
▁l'a	-8.93083
▁violence	-8.93134
▁policies	-8.93156
▁allow	-8.93163
▁organisations	-8.93432
▁L'	-8.9376
▁économiques	-8.93795
▁souligner	-8.93965
▁réponse	-8.93972
▁sorte	-8.94207
▁État	-8.94223
▁termes	-8.94318
▁crisis	-8.94358
▁européen.	-8.94763
▁toutefois	-8.94829
▁souvent	-8.94866
▁look	-8.95299
▁avait	-8.95328
▁consider	-8.95427
▁yet	-8.95496
▁Au	-8.95516
▁région	-8.95653
▁qu'une	-8.95765
▁initiatives	-8.96097
▁Un	-8.96138
▁EUR	-8.96246
▁aura	-8.96254
▁industry	-8.96322
▁hand	-8.96397
▁free	-8.96457
▁itself	-8.96492
▁participation	-8.96546
▁having	-8.96558
▁actuellement	-8.9661
▁démocratie	-8.96752
▁type	-8.96845
▁propose	-8.96886
▁travailleurs	-8.97189
▁affaires	-8.97209
▁liberté	-8.9722
▁progrès	-8.97373
▁single	-8.97392
▁back	-8.97666
▁différents	-8.97679
▁aucune	-8.98219
▁resources	-8.98257
▁ait	-8.98359
▁importante	-8.98884
▁countries.	-8.98891
▁So	-8.98907
▁Convention	-8.98988
▁années	-8.99012
▁coordination	-8.99107
▁lequel	-8.99323
▁gestion	-8.99369
▁telle	-8.99568
▁dernier	-8.9967
▁croissance	-8.99831
▁nature	-8.9991
▁high	-9.00119
▁authorities	-9.00137
▁full	-9.00199
▁étant	-9.002
▁Toutefois	-9.00265
▁propos	-9.0036
▁concerns	-9.00808
▁compris	-9.00818
▁souhaite	-9.00893
▁mieux	-9.00922
▁possibilité	-9.00936
▁pris	-9.01005
▁sociale	-9.01018
▁instrument	-9.01021
▁peut-être	-9.01051
▁demander	-9.01556
▁government	-9.01644
▁existe	-9.01796
▁d'abord	-9.01888
▁final	-9.01959
▁best	-9.02144
▁celui	-9.02393
▁often	-9.02413
▁dernière	-9.02528
▁fully	-9.02864
▁simply	-9.02923
▁money	-9.02954
▁collègues	-9.03014
▁certainly	-9.0313
▁permettre	-9.0336
▁culture	-9.03396
▁rien	-9.03447
▁moyens	-9.03465
▁recent	-9.03498
▁décisions	-9.03548
▁européen,	-9.03576
▁avis	-9.03665
▁democracy	-9.03693
▁sûr	-9.03729
▁renforcer	-9.03877
▁regions	-9.03977
▁nombreuses	-9.04013
▁euro	-9.04097
▁exemple	-9.04164
▁domaines	-9.04351
▁agricultural	-9.04452
▁relation	-9.04478
▁terme	-9.04505
▁commerce	-9.04528
▁période	-9.04539
▁données	-9.04634
▁bring	-9.04692
▁créer	-9.04705
▁States,	-9.04733
▁devraient	-9.04744
▁communautaire	-9.04936
▁step	-9.0498
▁pêche	-9.05012
▁extremely	-9.05025
▁interests	-9.0514
▁discussions	-9.05198
▁quelque	-9.05259
▁freedom	-9.05487
▁deuxième	-9.05907
▁(DE)	-9.06029
▁food	-9.06062
▁aware	-9.06183
▁her	-9.06454
▁normes	-9.06484
▁create	-9.06509
▁d'être	-9.06526
▁Enfin	-9.06784
▁quality	-9.06887
▁tel	-9.06927
▁"	-9.07072
▁accords	-9.07185
▁trouver	-9.07253
▁groupes	-9.07876
▁majority	-9.07982
▁texte	-9.08001
▁résultats	-9.08206
▁policy.	-9.08243
▁reform	-9.08415
▁following	-9.08451
-	-9.08469
▁simplement	-9.08721
▁(EN)	-9.08759
▁growth	-9.08768
▁internationale	-9.08818
▁européennes	-9.08848
▁things	-9.08934
▁exemple,	-9.0906
▁majorité	-9.09067
▁France	-9.09144
▁accept	-9.0943
▁might	-9.09447
▁actually	-9.0956
▁developing	-9.09574
▁Parliament,	-9.09746
▁financement	-9.09858
▁qu'un	-9.09886
▁power	-9.09942
▁voie	-9.10046
▁involved	-9.10068
▁pu	-9.1008
▁celle	-9.10132
▁10	-9.10629
▁Government	-9.10724
▁Union,	-9.10768
▁unique	-9.11075
▁projets	-9.11163
▁devrions	-9.11185
▁écrit.	-9.11455
▁concurrence	-9.11478
▁solutions	-9.11525
▁juste	-9.11592
▁fight	-9.11612
▁local	-9.11842
▁d'accord	-9.1194
▁improve	-9.12059
▁application	-9.12122
▁20	-9.12137
▁consommateurs	-9.12266
▁sens	-9.12276
▁Let	-9.12585
▁products	-9.12621
▁amendment	-9.12782
▁Article	-9.12848
▁To	-9.13096
▁réforme	-9.13143
▁committee	-9.13182
▁Finally	-9.13327
▁report,	-9.13375
▁regional	-9.13405
▁objectif	-9.13523
▁currently	-9.13665
▁collègues,	-9.13729
▁form	-9.13835
▁concerning	-9.13848
▁decisions	-9.14072
▁companies	-9.14073
▁l'ensemble	-9.14359
▁Court	-9.14583
▁indeed	-9.14739
▁economy	-9.14884
▁document	-9.14956
▁Président	-9.14964
▁cependant	-9.15069
▁And	-9.15155
▁Lisbon	-9.15227
▁objectives	-9.15278
▁choses	-9.1559
▁You	-9.15642
▁society	-9.15645
▁climate	-9.1571
▁vraiment	-9.15749
▁dispositions	-9.15765
▁marchés	-9.15794
▁conclusions	-9.15802
▁concern	-9.15907
▁procedure	-9.16041
▁intérêts	-9.1617
ment	-9.16226
▁control	-9.16302
▁less	-9.16462
▁entendu	-9.16534
▁essentiel	-9.16674
▁example	-9.16715
▁environment	-9.16941
▁n'y	-9.16946
▁C’est	-9.17172
▁six	-9.17256
▁Vous	-9.17303
▁l'avenir	-9.17385
▁seule	-9.17408
▁understand	-9.17642
▁contexte	-9.17663
▁Assemblée	-9.17716
▁convient	-9.1804
▁Conseil,	-9.18041
▁due	-9.18053
▁forces	-9.18312
▁meeting	-9.18442
▁standards	-9.18448
▁quant	-9.18452
▁s'	-9.1849
▁l'accord	-9.18513
▁let	-9.18538
▁nécessaires	-9.18615
▁appropriate	-9.18688
▁plutôt	-9.18742
▁quand	-9.18768
▁principes	-9.18944
▁extrêmement	-9.19001
▁start	-9.19003
▁propre	-9.1906
▁'	-9.1913
▁open	-9.19139
▁ans	-9.1916
▁stabilité	-9.19162
▁key	-9.19204
ticulièrement	-9.19541
▁États-Unis	-9.19546
▁interest	-9.19638
▁funds	-9.19657
▁ailleurs	-9.19704
▁Cour	-9.19765
▁message	-9.19956
▁l'article	-9.19971
▁changement	-9.20055
▁With	-9.20057
▁n'ont	-9.20099
▁risk	-9.20109
▁rendre	-9.2011
▁général	-9.2036
▁font	-9.20474
▁dernières	-9.20546
▁responsible	-9.20984
▁children	-9.21048
▁15	-9.2121
▁jamais	-9.21304
▁relative	-9.21399
▁crucial	-9.21445
▁text	-9.2175
▁égard	-9.21871
ant	-9.21931
▁Parliament.	-9.22015
▁mentioned	-9.22019
▁compromis	-9.22113
▁them.	-9.22151
▁period	-9.2228
▁raisons	-9.22327
▁approche	-9.22452
▁Parliament's	-9.22713
▁regards	-9.22779
▁2	-9.22951
▁pays.	-9.2303
▁tels	-9.23048
▁c’est	-9.23093
▁objective	-9.23294
ed	-9.23516
▁volonté	-9.23575
▁possible.	-9.2362
▁suite	-9.23626
▁Cependant	-9.23652
▁réduire	-9.23689
▁competition	-9.23718
▁l'emploi	-9.23761
▁puisse	-9.23796
▁informations	-9.23885
▁joint	-9.24026
▁12	-9.24096
▁promotion	-9.2415
▁activités	-9.24229
▁doing	-9.24238
▁individual	-9.24496
▁countries,	-9.24596
▁risque	-9.24751
▁rapport.	-9.24782
▁membres,	-9.24815
▁members	-9.2482
▁feel	-9.24995
▁though	-9.25079
▁année	-9.25113
▁n’est	-9.25257
▁Council,	-9.25388
▁répondre	-9.25468
▁peace	-9.25482
▁states	-9.25607
▁devant	-9.25631
▁among	-9.25731
’s	-9.25863
▁chers	-9.26013
▁available	-9.26398
▁data	-9.26461
▁education	-9.26523
▁clair	-9.26659
▁peux	-9.26754
▁systèmes	-9.26837
▁conséquences	-9.26983
▁paix	-9.27032
▁aide	-9.2704
▁civil	-9.2711
▁collègue	-9.27173
▁moyen	-9.27206
▁lack	-9.27276
▁promote	-9.27368
▁doute	-9.27398
▁cases	-9.2751
▁writing.	-9.27597
▁Fonds	-9.2774
▁although	-9.27769
▁déclaration	-9.2782
▁simple	-9.27854
▁parler	-9.27907
▁discrimination	-9.28172
▁preuve	-9.28207
▁meilleure	-9.28381
▁l'aide	-9.28447
▁draft	-9.28645
▁appelle	-9.28769
▁efficace	-9.28851
▁congratulate	-9.28869
▁savons	-9.28958
▁legislative	-9.28998
▁significant	-9.2902
▁agreements	-9.29097
▁Tout	-9.29157
▁aim	-9.29197
▁results	-9.2921
▁titre	-9.29295
▁grâce	-9.29377
▁réalité	-9.29397
▁question.	-9.29651
▁My	-9.29691
▁enlargement	-9.297
▁longer	-9.29706
▁remercie	-9.29716
▁note	-9.29727
▁pendant	-9.2976
▁kind	-9.29787
▁thing	-9.29791
▁direction	-9.29859
▁commitment	-9.30082
▁sure	-9.30123
▁field	-9.30138
▁difficile	-9.30149
▁zone	-9.30258
▁principles	-9.30297
▁little	-9.30324
▁ago	-9.30445
▁perhaps	-9.30721
▁special	-9.30778
▁vu	-9.30797
▁strong	-9.30903
▁mean	-9.31025
▁prevent	-9.31258
▁gouvernements	-9.31289
▁Amendment	-9.31389
▁idea	-9.31841
▁sustainable	-9.31876
▁tax	-9.31896
▁différentes	-9.31969
▁include	-9.32037
▁effort	-9.32042
▁nuclear	-9.32164
▁;	-9.32181
▁rapidement	-9.32294
▁taux	-9.32348
▁all,	-9.3236
▁rapports	-9.32513
▁provided	-9.32519
▁féliciter	-9.32616
ons	-9.32635
▁telles	-9.32684
▁regarding	-9.32771
▁compromise	-9.32814
▁young	-9.32831
▁réduction	-9.32858
▁guarantee	-9.32923
▁lead	-9.32984
▁Turkey	-9.33182
▁3	-9.33255
▁transparence	-9.33306
▁aurait	-9.33361
▁forme	-9.33646
▁total	-9.33833
▁régime	-9.33932
▁5	-9.33948
▁véritable	-9.34044
▁life	-9.34055
▁seul	-9.34211
▁représente	-9.34242
▁sommet	-9.34273
▁others	-9.34403
▁workers	-9.34424
▁management	-9.34787
▁foreign	-9.34936
▁qu'à	-9.34966
▁critères	-9.34972
▁assurer	-9.35022
▁makes	-9.35039
▁nothing	-9.35178
▁ensemble	-9.3526
▁needed	-9.35346
▁date	-9.35362
▁assistance	-9.35474
▁above	-9.35528
▁ministre	-9.3553
▁Ils	-9.35558
▁labour	-9.3571
▁relatives	-9.35733
▁several	-9.35809
▁trouve	-9.36005
▁line	-9.3611
▁funding	-9.36293
▁comes	-9.36483
▁Our	-9.3654
▁signifie	-9.36541
▁intérieur	-9.36605
▁seen	-9.36609
▁publique	-9.36631
-in-Office	-9.36721
▁addition	-9.3676
se	-9.36784
▁agreed	-9.36812
r	-9.36817
▁aspect	-9.36966
▁remain	-9.3699
▁themselves	-9.36999
▁solidarité	-9.37047
▁jeunes	-9.37082
▁act	-9.37104
▁procédures	-9.37509
▁personne	-9.37569
▁dimension	-9.37618
▁formation	-9.37704
▁qu'en	-9.38037
▁Affairs	-9.38183
▁conclusion	-9.38257
▁this.	-9.38275
▁costs	-9.38276
▁enfants	-9.38368
▁Constitution	-9.38368
▁projects	-9.38825
▁confiance	-9.38952
▁tiers	-9.39006
a	-9.39021
▁reasons	-9.39027
▁play	-9.39199
▁uniquement	-9.393
▁certainement	-9.39372
▁governments	-9.39567
▁intervention	-9.39627
".	-9.39668
▁exercice	-9.40029
▁rappeler	-9.40093
▁adopté	-9.40161
▁promouvoir	-9.40161
ait	-9.40168
▁technical	-9.40283
▁réellement	-9.40302
▁construction	-9.40311
▁11	-9.40327
▁upon	-9.40409
▁months	-9.4048
▁l'amendement	-9.40548
▁priority	-9.40738
▁30	-9.4074
▁libre	-9.40822
▁seems	-9.40947
▁résultat	-9.41014
▁groups	-9.41164
▁valeurs	-9.41231
▁J'espère	-9.41335
▁outre,	-9.41335
▁démocratique	-9.4142
▁apply	-9.41467
▁prises	-9.41608
▁plans	-9.41635
▁pleased	-9.41706
▁pay	-9.4178
▁mention	-9.41889
▁prise	-9.41894
▁existing	-9.4201
▁Parlement.	-9.42046
▁benefit	-9.42132
▁true	-9.4214
▁consumers	-9.42227
▁Bien	-9.42254
▁One	-9.42263
▁propres	-9.42348
▁sanctions	-9.42368
▁consumer	-9.42478
t	-9.42587
▁s'il	-9.42638
▁veut	-9.42656
▁share	-9.42918
▁enough	-9.42939
▁move	-9.43016
▁tenir	-9.43041
▁activities	-9.43083
▁présente	-9.43252
▁améliorer	-9.43395
▁l'importance	-9.4343
▁25	-9.43496
▁mondiale	-9.43503
▁frontières	-9.43628
▁context	-9.43637
▁Secondly,	-9.43686
▁Union's	-9.43871
▁future.	-9.43883
▁words	-9.43975
▁grandes	-9.44043
▁Des	-9.4424
▁express	-9.44287
▁motion	-9.44501
▁agricole	-9.4468
▁l'industrie	-9.44696
▁documents	-9.44698
▁n'	-9.44755
▁perspective	-9.44824
▁rapporteurs	-9.45012
▁until	-9.45132
▁autant	-9.4515
▁financière	-9.45179
▁speak	-9.45335
▁durable	-9.45419
▁évidemment	-9.45426
▁vital	-9.45463
▁effect	-9.45616
▁dois	-9.45671
▁Turquie	-9.45676
▁parti	-9.45692
▁Kosovo	-9.45753
▁consensus	-9.45882
▁technologies	-9.45901
▁Communauté	-9.46049
▁Parlement,	-9.46176
▁basic	-9.46421
▁directives	-9.46616
▁voting	-9.46728
▁inter	-9.46732
▁petites	-9.46782
▁carried	-9.46879
▁active	-9.46886
▁adopt	-9.46997
▁protéger	-9.47155
▁achieved	-9.47251
▁response	-9.47264
particulièrement	-9.47325
▁never	-9.47355
▁vigueur	-9.47409
▁police	-9.47448
▁Minister	-9.47586
▁Directive	-9.47803
▁direct	-9.4783
▁military	-9.4785
▁manque	-9.47884
▁nationaux	-9.47891
▁concept	-9.47942
▁solidarity	-9.47945
▁cultural	-9.4803
▁qu'elles	-9.48033
▁provisions	-9.48057
er	-9.48092
▁l'économie	-9.4814
▁absolument	-9.48232
▁transparency	-9.48331
▁l'année	-9.48507
▁cohésion	-9.48746
▁relating	-9.48782
▁étaient	-9.4901
▁contraire	-9.49032
▁protect	-9.49224
▁reduce	-9.49293
▁region	-9.49314
▁changes	-9.49487
▁asked	-9.49489
▁encourage	-9.49722
▁victimes	-9.49775
▁zones	-9.49839
▁veiller	-9.49921
▁creation	-9.50043
▁show	-9.50099
▁rural	-9.50181
▁namely	-9.50355
▁Council.	-9.50396
▁sources	-9.50397
▁reports	-9.50401
▁matters	-9.50451
▁chance	-9.50662
▁d'avoir	-9.50832
▁Conseil.	-9.50849
▁minimum	-9.50856
▁respecter	-9.50904
▁saying	-9.50905
▁soon	-9.50988
▁éléments	-9.50992
▁début	-9.51035
▁investment	-9.51057
▁balance	-9.51079
▁close	-9.51089
▁held	-9.51166
▁accession	-9.51233
▁4	-9.51318
▁commun	-9.51345
▁equal	-9.51357
▁celles	-9.51615
▁increasing	-9.51668
▁market.	-9.51728
▁parmi	-9.51778
▁draw	-9.51787
▁agenda	-9.51794
▁thus	-9.51853
▁l'utilisation	-9.51854
▁meet	-9.51935
▁item	-9.52042
▁paragraphe	-9.52108
▁When	-9.52114
▁coûts	-9.52139
▁l’	-9.5217
▁policy,	-9.52254
▁présenter	-9.52392
d	-9.52479
▁obligations	-9.52486
▁integration	-9.52495
▁jusqu'à	-9.52538
▁capital	-9.5254
▁totalement	-9.52631
▁him	-9.52682
es	-9.52771
▁All	-9.5283
▁tenu	-9.52878
▁moi	-9.52881
▁throughout	-9.52924
▁business	-9.52949
▁tabled	-9.52953
▁centrale	-9.53007
▁d’autres	-9.53095
▁référence	-9.53212
▁quel	-9.533
▁develop	-9.53345
▁increased	-9.53368
▁Thank	-9.53371
▁défense	-9.53501
▁met	-9.53509
▁demandé	-9.53511
▁collaboration	-9.53668
▁continuer	-9.53692
▁guerre	-9.53804
▁ourselves	-9.54074
▁financières	-9.54154
▁réunion	-9.54186
▁budgetary	-9.54202
▁presented	-9.54229
▁élections	-9.54516
▁everyone	-9.54582
▁called	-9.54611
▁Russie	-9.54627
▁relevant	-9.54692
▁parvenir	-9.54718
▁l’Europe	-9.54757
▁l'objet	-9.54819
▁stability	-9.54864
▁everything	-9.54883
▁priorité	-9.54971
▁grands	-9.55201
▁voter	-9.55261
▁jobs	-9.5546
▁keep	-9.55646
▁pratique	-9.55669
▁rule	-9.55709
▁vrai	-9.55805
▁transports	-9.5586
▁précisément	-9.55902
▁urgent	-9.56192
▁values	-9.56324
▁capacité	-9.56357
▁project	-9.56407
▁tell	-9.56535
▁dépenses	-9.5669
▁qu'on	-9.56697
▁fishing	-9.56841
▁sense	-9.56845
▁occasion	-9.56859
▁traitement	-9.56914
▁mission	-9.56962
▁importants	-9.56992
▁external	-9.57112
▁lesquels	-9.57166
▁systems	-9.57184
▁time.	-9.57228
▁around	-9.57406
▁administrative	-9.5749
▁proposé	-9.57621
▁développer	-9.57737
▁answer	-9.57804
▁statement	-9.57902
▁priorités	-9.57921
▁(PL)	-9.58005
▁consultation	-9.58081
▁quatre	-9.58098
▁réformes	-9.58191
▁address	-9.58237
▁combat	-9.58252
▁mind	-9.58292
▁previous	-9.58525
▁pleinement	-9.58575
▁secteurs	-9.58608
▁permettant	-9.58626
▁l'heure	-9.58645
▁financiers	-9.58679
▁markets	-9.58707
▁using	-9.58729
▁she	-9.58747
▁gens	-9.58768
▁situation.	-9.58905
▁budgétaire	-9.59039
▁puissent	-9.59052
▁UN	-9.59099
▁eux	-9.59112
▁vos	-9.59386
▁accepter	-9.59398
▁amendement	-9.59407
▁partenaires	-9.5941
▁request	-9.59539
▁establish	-9.59587
▁years.	-9.5965
▁nationales	-9.59655
▁valeur	-9.59659
▁générale	-9.59674
▁off	-9.5968
▁considère	-9.59743
▁rights.	-9.5975
▁Notre	-9.59842
▁fondamentaux	-9.59848
▁travailler	-9.59864
▁condition	-9.59911
▁pourra	-9.60005
▁consequences	-9.60038
▁impossible	-9.60077
▁résoudre	-9.60114
▁decided	-9.60116
▁talking	-9.60138
▁présenté	-9.60247
▁peuple	-9.60296
▁across	-9.603
▁l'UE.	-9.605
▁Therefore,	-9.60594
▁financier	-9.60661
▁colleagues	-9.60789
▁temps,	-9.60802
▁prepared	-9.60903
▁renforcement	-9.60919
▁substances	-9.60997
▁value	-9.61094
▁travail.	-9.61156
▁moi,	-9.61168
▁expressed	-9.61312
▁regulations	-9.61396
▁four	-9.61468
▁important.	-9.61554
▁vient	-9.61635
▁produit	-9.61642
▁potential	-9.61673
▁demand	-9.61708
▁try	-9.62057
▁opportunities	-9.6208
▁personnel	-9.62154
▁l'occasion	-9.62213
▁d'action	-9.62314
▁Russia	-9.6251
▁C	-9.62544
▁monitoring	-9.62665
▁agriculture	-9.62689
▁adoption	-9.62744
▁road	-9.62903
▁quoi	-9.62939
▁50	-9.62964
▁session	-9.62979
▁pratiques	-9.63
▁côté	-9.6313
▁cinq	-9.63151
▁difficultés	-9.63155
▁félicite	-9.63173
▁statut	-9.63174
▁absolutely	-9.63208
▁perspectives	-9.63311
▁2000	-9.63382
▁pourraient	-9.63391
▁communauté	-9.63435
▁sociaux	-9.63466
▁attitude	-9.63488
▁enable	-9.63516
▁dû	-9.63571
▁l'élargissement	-9.63652
▁focus	-9.63675
▁partage	-9.63848
▁required	-9.63852
▁private	-9.63891
▁partenariat	-9.63954
▁l'objectif	-9.64211
▁illegal	-9.64235
▁rapport,	-9.64253
▁structure	-9.64353
▁loin	-9.64401
▁movement	-9.6445
▁travers	-9.64452
▁série	-9.64459
▁exigences	-9.6449
▁Chine	-9.64532
▁fellow	-9.64596
▁malheureusement	-9.64617
▁reached	-9.64633
▁pressure	-9.64678
▁requirements	-9.64695
▁Deuxièmement	-9.64861
▁semaine	-9.64891
▁Lisbonne	-9.65107
▁French	-9.65152
▁implement	-9.6527
▁besoins	-9.65382
▁D	-9.65413
▁times	-9.6543
▁talk	-9.6548
▁quelle	-9.6551
▁coming	-9.65548
▁job	-9.65625
▁conférence	-9.65681
▁permet	-9.65739
▁poursuivre	-9.65752
▁constituent	-9.65768
▁doubt	-9.65835
▁year.	-9.65889
▁ensuite	-9.65976
▁farmers	-9.66041
▁train	-9.66067
▁past	-9.66139
▁pauvreté	-9.6617
▁five	-9.66176
▁contribuer	-9.66241
▁stress	-9.66279
▁actuelle	-9.66355
▁permettra	-9.66375
▁central	-9.66378
▁commencer	-9.66426
▁publics	-9.66436
▁vis-à-vis	-9.66491
▁poverty	-9.66536
▁practice	-9.66553
▁short	-9.66604
▁reduction	-9.66706
▁possibilités	-9.66734
▁6	-9.66829
▁fisheries	-9.67017
▁positions	-9.67021
▁compétences	-9.67238
▁raised	-9.6734
▁permis	-9.67387
▁brought	-9.67426
▁hommes	-9.67454
▁2004	-9.67508
▁modèle	-9.6755
▁enfin	-9.67571
▁assez	-9.67607
▁fair	-9.67766
▁situations	-9.67772
▁circulation	-9.67776
▁lutter	-9.67789
▁review	-9.67973
▁outside	-9.6798
▁giving	-9.68037
▁jouer	-9.68082
▁included	-9.68166
▁fort	-9.68208
▁convention	-9.68209
▁task	-9.68217
▁d'euros	-9.68521
▁thanks	-9.68549
▁structural	-9.68656
▁prochaine	-9.68692
▁risques	-9.6887
▁effets	-9.69057
▁recently	-9.69107
▁directive.	-9.6912
ly	-9.69302
▁peine	-9.69321
▁l'un	-9.69324
▁experience	-9.69361
▁completely	-9.694
▁travaux	-9.69424
▁cohesion	-9.69429
▁reach	-9.69438
▁organisation	-9.69519
▁structures	-9.69548
▁level.	-9.69556
▁aides	-9.69654
▁considération	-9.69664
▁commercial	-9.6967
▁ayant	-9.69755
▁l'agriculture	-9.69796
▁derniers	-9.6988
▁representatives	-9.69883
▁took	-9.69945
▁représentants	-9.69967
▁day	-9.69988
▁additional	-9.69988
▁réglementation	-9.70031
▁énergétique	-9.70071
▁éviter	-9.70086
▁séance	-9.70107
▁engagement	-9.7018
▁influence	-9.70214
▁ministres	-9.70254
▁along	-9.70349
▁sais	-9.70401
▁China	-9.70406
▁ensuring	-9.70613
▁puisque	-9.70675
▁EU's	-9.70728
▁almost	-9.7075
▁Firstly	-9.70856
▁pression	-9.70888
▁plupart	-9.709
▁powers	-9.70975
▁milliards	-9.71036
▁supported	-9.71112
▁world.	-9.71143
▁l’UE	-9.71248
▁passer	-9.713
▁révision	-9.71351
▁source	-9.714
▁years,	-9.71413
▁apporter	-9.71499
▁L'Union	-9.71621
▁British	-9.71742
▁lesquelles	-9.71848
▁1999	-9.71881
▁cost	-9.71943
▁l'État	-9.71958
▁institution	-9.71973
▁procedures	-9.71988
▁d'ailleurs	-9.71998
▁possibility	-9.72014
▁amount	-9.72034
▁investissements	-9.72055
▁established	-9.72128
▁vont	-9.72145
▁Or	-9.72175
▁criteria	-9.72242
▁Furthermore	-9.72287
▁fonctionnement	-9.72301
▁work.	-9.72303
▁Party	-9.72353
▁natural	-9.72382
▁creating	-9.72394
▁crime	-9.72469
▁conflict	-9.72631
▁importantes	-9.72653
▁live	-9.72724
▁l'application	-9.72836
▁water	-9.7284
▁décidé	-9.72972
▁strengthen	-9.73106
▁effects	-9.73109
▁competitiveness	-9.73191
▁Development	-9.73199
▁either	-9.73205
▁troisième	-9.73235
▁priorities	-9.73239
▁International	-9.73243
▁term	-9.73342
▁comprendre	-9.73437
▁conclure	-9.73469
▁devoir	-9.73488
▁8	-9.73498
▁compétitivité	-9.7361
»	-9.73707
▁found	-9.73891
▁Europe's	-9.73922
▁déclaré	-9.73976
▁aujourd’hui	-9.7404
▁air	-9.7404
▁danger	-9.74063
▁choix	-9.74104
▁lot	-9.74141
▁mêmes	-9.74198
▁défis	-9.74211
▁Rights	-9.74219
▁responsables	-9.74344
▁près	-9.7436
▁«	-9.74409
▁practical	-9.74424
▁takes	-9.74454
▁réjouis	-9.74479
▁porte	-9.74484
▁training	-9.74499
▁conformément	-9.74514
▁light	-9.74643
▁stage	-9.74788
▁today.	-9.7484
▁package	-9.74859
▁nor	-9.75032
▁parliamentary	-9.75034
▁parole	-9.75154
▁l'adoption	-9.75215
▁chacun	-9.75235
▁you,	-9.75266
▁price	-9.75307
▁budgets	-9.75341
▁waste	-9.75358
▁proper	-9.75367
▁charge	-9.75482
▁phase	-9.75499
▁Of	-9.75529
▁l'ordre	-9.75535
▁heard	-9.75585
▁c'est-à-dire	-9.75669
▁constater	-9.75706
▁year,	-9.75755
▁unies	-9.75775
▁success	-9.75793
▁l'énergie	-9.7603
▁parlementaire	-9.76081
▁US	-9.76082
▁add	-9.76092
▁aider	-9.76108
▁remains	-9.76121
▁responsabilités	-9.76158
▁billion	-9.76164
▁war	-9.7619
▁Republic	-9.76205
▁received	-9.76243
▁offer	-9.7628
▁devra	-9.76366
▁extent	-9.76514
▁citizens.	-9.76584
▁begin	-9.7674
▁living	-9.76771
▁succès	-9.76803
▁soutiens	-9.76804
▁behind	-9.76958
▁2009	-9.76993
▁certaine	-9.77031
▁avoid	-9.77061
▁discuss	-9.77135
▁Permettez-moi	-9.77173
▁pensons	-9.77265
▁turn	-9.77444
▁spécifiques	-9.77514
▁liste	-9.77522
▁presidency	-9.77542
▁vise	-9.77555
▁18	-9.7756
▁expect	-9.77561
▁d’	-9.77614
▁2005	-9.77656
▁victims	-9.77771
▁adopter	-9.7779
▁grave	-9.77795
▁7	-9.77838
▁République	-9.77862
▁week	-9.7791
’	-9.77938
▁internationales	-9.783
▁effectivement	-9.78333
▁aimed	-9.78408
▁despite	-9.78424
▁d'entre	-9.78431
▁capable	-9.78532
▁Schengen	-9.78791
▁chômage	-9.78825
▁challenges	-9.78908
▁He	-9.7899
▁changements	-9.78992
▁mener	-9.79007
▁votes	-9.79016
'.	-9.79044
▁fournir	-9.79069
▁opposition	-9.79105
▁acceptable	-9.79112
▁s’agit	-9.79249
▁Central	-9.79332
▁humanitarian	-9.79346
▁veux	-9.79349
▁ever	-9.79363
▁donne	-9.7944
▁contribute	-9.7944
▁quickly	-9.79558
▁introduction	-9.7958
▁precisely	-9.79612
▁supplémentaires	-9.7962
▁discussed	-9.79633
▁désormais	-9.79659
▁l'égard	-9.79675
▁trying	-9.7973
▁montre	-9.79826
▁First	-9.80001
▁S	-9.80086
re	-9.80087
▁violations	-9.80118
▁souhaiterais	-9.80233
▁issue.	-9.80306
▁scope	-9.80318
▁remind	-9.80325
▁vision	-9.80337
▁(PT)	-9.80348
▁left	-9.80496
▁émissions	-9.8051
▁elections	-9.8051
▁décembre	-9.80515
▁27	-9.80618
▁approved	-9.80654
▁rights,	-9.80678
▁candidats	-9.80785
▁list	-9.80828
▁assessment	-9.80881
▁techniques	-9.80996
▁away	-9.81001
▁caractère	-9.81025
▁élément	-9.81211
▁constructive	-9.81508
▁honourable	-9.81524
▁December	-9.81536
▁area.	-9.81537
▁signal	-9.81551
▁carry	-9.81627
▁jours	-9.81645
▁récemment	-9.81687
▁surveillance	-9.8174
▁World	-9.81848
▁années,	-9.81851
▁accordance	-9.81875
▁Economic	-9.81909
▁9	-9.81935
▁shown	-9.81966
▁providing	-9.81991
▁l'Europe.	-9.82058
▁implemented	-9.82075
▁huge	-9.82118
▁Nos	-9.82141
▁mandat	-9.82244
▁court	-9.82293
▁reforms	-9.82428
▁loi	-9.82446
▁applied	-9.82461
▁2003	-9.82533
▁alimentaire	-9.82735
▁improving	-9.82847
▁civile	-9.82961
▁j’ai	-9.82999
▁confidence	-9.83055
▁quotas	-9.83061
▁monde.	-9.83069
▁Ireland	-9.83084
▁maintenir	-9.83101
▁events	-9.83178
▁européens.	-9.83208
▁personal	-9.83299
▁according	-9.83306
▁considered	-9.83315
▁EU.	-9.83319
▁sort	-9.83339
▁yeux	-9.83357
▁here.	-9.83378
▁reference	-9.83455
▁qu’elle	-9.83457
▁indispensable	-9.83464
▁Voilà	-9.83593
▁via	-9.83626
▁suffisamment	-9.83661
▁consiste	-9.83696
▁partners	-9.83819
▁people.	-9.83835
▁treatment	-9.83893
▁pollution	-9.83953
▁goes	-9.84
▁j'espère	-9.8407
▁vote.	-9.84082
▁libertés	-9.84126
▁instead	-9.84206
▁partir	-9.84278
▁Group.	-9.84427
▁demain	-9.84464
▁provides	-9.84538
▁old	-9.84624
▁immigration	-9.84676
▁malgré	-9.84705
▁process.	-9.84762
▁criminal	-9.84763
▁(FR)	-9.8479
▁longtemps	-9.84905
▁politique.	-9.84919
▁(IT)	-9.85031
▁capacity	-9.8506
▁biais	-9.85061
▁dix	-9.851
▁guidelines	-9.85217
▁l'Union.	-9.85264
▁rightly	-9.8544
▁connection	-9.85453
▁opinion,	-9.85466
▁stop	-9.85503
▁pose	-9.85553
▁relatif	-9.85619
▁rate	-9.85722
▁allowed	-9.85755
▁favorable	-9.85758
▁Now	-9.85814
▁model	-9.85874
▁men	-9.8588
▁n’a	-9.85936
▁passé	-9.85963
▁community	-9.8603
▁communautaires	-9.86111
▁allons	-9.86139
▁alternative	-9.86201
▁calls	-9.86221
▁prices	-9.86253
▁13	-9.8626
▁businesses	-9.86271
▁defence	-9.86376
▁implementing	-9.8641
▁Social	-9.86417
▁causes	-9.86426
▁emissions	-9.86455
▁sectors	-9.86464
▁maritime	-9.86533
▁agriculteurs	-9.86586
▁l'accès	-9.86617
▁care	-9.86678
▁committed	-9.86783
▁présence	-9.868
▁2002	-9.86824
▁content	-9.86881
▁atteindre	-9.86924
▁considerable	-9.86966
▁obstacles	-9.87037
▁institutional	-9.87047
▁animal	-9.8714
▁puis	-9.87175
▁former	-9.87218
▁independent	-9.87236
▁n'avons	-9.87264
▁us.	-9.87289
▁rapide	-9.87434
▁promoting	-9.87582
▁mondial	-9.87655
▁développement.	-9.877
▁déclarations	-9.87723
▁family	-9.87773
▁prévoit	-9.87918
▁terrorisme	-9.87927
à	-9.87954
▁reading	-9.87961
▁forte	-9.88029
▁specifically	-9.88152
▁unfortunately	-9.88165
▁dealing	-9.88303
▁territoire	-9.88324
▁souligné	-9.88366
▁obtenir	-9.88427
▁conflit	-9.88434
▁centre	-9.88439
▁point.	-9.88445
▁importe	-9.88445
▁libéralisation	-9.88581
▁fonction	-9.88616
▁d'autre	-9.88677
▁suivi	-9.88699
▁maximum	-9.88746
▁Conference	-9.88773
▁levels	-9.88809
▁Banque	-9.88829
▁regret	-9.88989
▁rapporteur.	-9.89015
▁stated	-9.89128
▁intention	-9.89192
▁sociales	-9.89205
▁parfois	-9.89277
▁per	-9.89293
▁prévention	-9.89298
▁actuel	-9.89333
▁adoptée	-9.89342
▁ligne	-9.89352
▁developed	-9.89377
▁forms	-9.89522
▁engagements	-9.89531
▁asylum	-9.89576
▁Human	-9.89581
▁benefits	-9.89581
▁beginning	-9.89582
▁country.	-9.89592
▁ans,	-9.89598
▁long-term	-9.89692
▁comptes	-9.89741
▁return	-9.89866
aient	-9.89886
▁receive	-9.89913
▁overall	-9.90044
▁mer	-9.90061
).	-9.90119
▁colleague	-9.90128
▁2020	-9.90137
▁veulent	-9.90296
▁l'égalité	-9.90355
▁lignes	-9.905
▁know,	-9.90516
▁affected	-9.90532
▁country,	-9.90587
▁reality	-9.90599
▁faisant	-9.90622
▁outre	-9.90679
▁scientific	-9.90709
▁goods	-9.90724
▁auquel	-9.90746
▁Sur	-9.90861
▁provision	-9.90881
▁responsable	-9.90953
▁restrictions	-9.91126
▁directement	-9.91149
▁Fund	-9.91158
▁liés	-9.91173
▁finally	-9.91224
▁strategic	-9.9135
▁death	-9.9137
▁meilleur	-9.91398
▁populations	-9.91551
▁nations	-9.91592
▁l’homme	-9.91629
▁emplois	-9.91728
▁mal	-9.91765
▁accès	-9.91813
▁citoyens.	-9.91975
▁bonnes	-9.92039
▁stand	-9.92091
▁producteurs	-9.92098
▁sociétés	-9.921
▁hard	-9.92154
▁referred	-9.92171
▁Présidence	-9.92172
▁événements	-9.92221
▁disposition	-9.92268
▁requires	-9.92381
▁pourrons	-9.92398
▁exchange	-9.92401
▁juridiques	-9.9241
▁difficulties	-9.92414
▁maintain	-9.92421
▁days	-9.925
▁paquet	-9.92522
▁crimes	-9.926
▁réaliser	-9.926
▁beyond	-9.92602
▁May	-9.92616
▁Irish	-9.92646
▁Justice	-9.92662
▁rester	-9.92703
▁définition	-9.9283
▁partnership	-9.9298
▁Regulation	-9.92996
▁profit	-9.93028
▁June	-9.93069
▁juin	-9.93219
▁Today	-9.93222
▁envers	-9.93243
▁table	-9.93305
▁created	-9.93312
▁Premièrement	-9.93319
▁industrial	-9.9332
▁reçu	-9.93337
▁devenir	-9.93374
▁innovation	-9.93401
▁monétaire	-9.9353
ions	-9.93613
▁principal	-9.9363
▁économique,	-9.93688
▁wanted	-9.93707
▁decide	-9.93772
▁déchets	-9.93866
n	-9.93978
▁budget.	-9.93983
▁debate.	-9.94044
▁100	-9.94055
▁suivre	-9.94059
▁ACP	-9.94127
▁reconnaissance	-9.94133
▁successful	-9.94254
▁intérêt	-9.94309
▁passe	-9.94347
▁closed.	-9.94551
▁claire	-9.94663
▁institutions.	-9.94683
▁conscience	-9.94702
▁directly	-9.94709
▁parle	-9.94744
▁efficiency	-9.9491
▁Merci	-9.94911
▁Balkans	-9.94931
▁entire	-9.94954
▁néanmoins	-9.94961
▁How	-9.9517
▁oil	-9.95209
▁évident	-9.95212
▁naturellement	-9.95231
▁status	-9.95243
▁Agreement	-9.95308
▁German	-9.9536
▁side	-9.95364
▁M	-9.95365
▁étrangères	-9.95403
▁words,	-9.95485
▁effectively	-9.9551
▁complete	-9.95563
/	-9.95699
▁l'efficacité	-9.958
▁l'intérêt	-9.9588
▁steps	-9.95996
▁challenge	-9.9613
▁half	-9.96139
▁débats	-9.96209
▁supporting	-9.96314
▁conciliation	-9.96318
▁closely	-9.9633
▁courage	-9.9634
▁2001	-9.96563
▁produce	-9.96582
▁voix	-9.96592
▁sitting	-9.96621
▁lorsqu'il	-9.96711
▁sait	-9.96729
▁clause	-9.9674
▁40	-9.96824
▁paragraph	-9.96939
▁intended	-9.96953
▁étrangère	-9.96988
▁sector.	-9.9701
▁conclude	-9.97094
▁shows	-9.97142
▁knowledge	-9.97193
▁publiques	-9.97297
▁haut	-9.97309
▁14	-9.97376
▁Elles	-9.97441
▁dossier	-9.97454
▁highly	-9.97503
▁permettez-moi	-9.97507
▁exprimer	-9.97549
▁mort	-9.97642
▁nucléaire	-9.97669
▁genuine	-9.97677
▁medium-sized	-9.97684
▁similar	-9.97732
▁animaux	-9.97749
▁réseaux	-9.97791
▁reconnaître	-9.9785
▁supply	-9.97952
▁genre	-9.97979
▁law.	-9.98048
▁contenu	-9.98071
▁setting	-9.98179
▁niveaux	-9.98189
▁refer	-9.98204
▁Internet	-9.98243
▁paid	-9.98305
▁Although	-9.98312
▁views	-9.9833
▁speech	-9.98367
▁délégation	-9.9843
▁double	-9.98433
▁speaking	-9.9844
▁principaux	-9.98553
▁calling	-9.98554
▁led	-9.98612
▁17	-9.98694
▁n'en	-9.98713
▁menace	-9.98715
▁establishing	-9.98715
▁increasingly	-9.98736
▁l'idée	-9.98766
▁financing	-9.98799
▁ratification	-9.98871
▁leave	-9.98932
▁augmentation	-9.98934
▁crédits	-9.9902
▁Selon	-9.99083
▁transition	-9.99091
▁gaz	-9.99096
▁comité	-9.99184
▁Unfortunately	-9.99202
▁défendre	-9.99226
▁WTO	-9.99269
▁types	-9.99452
▁agir	-9.99562
▁clos.	-9.99569
▁continent	-9.99578
▁Germany	-9.99592
▁services.	-9.99659
▁aller	-9.99679
▁myself	-9.9968
▁Rules	-9.99707
▁higher	-9.99724
▁positif	-9.99775
▁montrer	-9.99832
▁soumis	-9.99878
▁achieving	-9.99887
▁tâche	-9.99896
▁l'information	-9.99965
▁harmonisation	-9.99983
▁whom	-10.0001
▁gives	-10.0001
▁poser	-10.0012
▁obligation	-10.0016
▁technique	-10.0016
▁permanent	-10.002
▁respond	-10.0034
▁ban	-10.0034
▁discussing	-10.0043
▁join	-10.0046
▁modification	-10.005
▁l'attention	-10.0052
▁Royaume-Uni	-10.0057
▁caused	-10.0058
▁sérieux	-10.0061
▁tomorrow	-10.0062
",	-10.007
▁Ceci	-10.0077
▁early	-10.0081
▁market,	-10.0089
▁By	-10.0094
▁strengthening	-10.0097
▁event	-10.0099
▁candidate	-10.0104
▁urge	-10.0112
▁emphasise	-10.0112
▁Security	-10.0113
▁regime	-10.0114
▁media	-10.012
▁experts	-10.0121
▁salue	-10.0125
▁utiliser	-10.0125
▁distribution	-10.0126
▁16	-10.0129
▁represents	-10.0133
▁duty	-10.0135
▁reducing	-10.0135
▁terrorism	-10.0137
▁participer	-10.0141
▁etc.	-10.0141
▁pourtant	-10.0148
▁represent	-10.0149
▁préoccupations	-10.015
▁obviously	-10.0154
▁pouvoirs	-10.0156
▁corruption	-10.016
▁l'autre	-10.017
▁violation	-10.0172
▁graves	-10.0173
▁hear	-10.0175
▁tirer	-10.0175
▁Since	-10.0176
▁moyennes	-10.0176
▁peuples	-10.0177
▁union	-10.0183
▁accepted	-10.0186
▁code	-10.0193
▁gas	-10.0196
▁infrastructures	-10.0201
▁janvier	-10.0204
▁particulière	-10.0205
▁annual	-10.0207
▁efficient	-10.0211
▁aient	-10.0214
▁route	-10.0218
▁garantie	-10.0221
▁professionnelle	-10.0222
▁demands	-10.0231
▁poor	-10.0236
▁sufficient	-10.0236
▁contrôles	-10.0253
▁purpose	-10.0254
▁January	-10.0255
▁Néanmoins	-10.026
▁convinced	-10.0268
▁trafic	-10.0272
▁largement	-10.0284
▁looking	-10.0294
▁partis	-10.0309
▁follow	-10.0318
▁ambitious	-10.0327
▁Foreign	-10.0328
▁l'adhésion	-10.033
▁celle-ci	-10.0334
▁Moreover	-10.0342
▁consommation	-10.0347
▁pacte	-10.0363
responsibilities	-10.0378
▁administration	-10.0381
▁ways	-10.0387
▁nouvel	-10.039
▁development.	-10.0393
▁l'intégration	-10.0399
▁chez	-10.0409
▁firstly	-10.0418
▁constitutionnel	-10.0423
▁measure	-10.0436
▁combating	-10.0439
▁summit	-10.0447
▁equality	-10.045
▁infrastructure	-10.0461
▁unacceptable	-10.0463
▁monetary	-10.0466
▁utile	-10.0466
▁fondamental	-10.0466
▁pourront	-10.0469
▁remember	-10.047
▁1998	-10.0474
▁réseau	-10.0475
▁convergence	-10.0477
▁study	-10.0482
▁sometimes	-10.0487
▁connaissance	-10.0489
▁commitments	-10.0491
▁require	-10.0495
▁domaine.	-10.0496
▁recognise	-10.0498
▁traiter	-10.0499
▁known	-10.051
▁enterprises	-10.0513
▁II	-10.0521
▁figure	-10.0522
▁so-called	-10.0531
▁européens,	-10.0538
▁consideration	-10.0539
▁limit	-10.0546
▁parfaitement	-10.0546
▁limited	-10.0549
▁Mediterranean	-10.0549
▁(NL)	-10.0554
▁heureux	-10.0557
▁system.	-10.0569
▁contact	-10.0571
▁procès-verbal	-10.0586
▁élevé	-10.0588
▁comments	-10.059
▁oral	-10.0598
▁Green	-10.06
▁parlé	-10.0608
▁product	-10.0609
▁competitive	-10.0614
▁transparent	-10.0616
▁durant	-10.0623
▁Spanish	-10.0626
▁avaient	-10.0626
▁espérons	-10.063
▁becoming	-10.0631
▁comprehensive	-10.0632
▁party	-10.0633
▁programme.	-10.0635
▁concrete	-10.0644
▁réfugiés	-10.0645
▁introduce	-10.0648
▁d'énergie	-10.0649
▁l'UE,	-10.0651
▁compétence	-10.0654
▁Ainsi	-10.0658
▁correct	-10.0669
▁l'euro	-10.0673
▁border	-10.0678
▁pointed	-10.0686
▁Prodi	-10.0692
▁broad	-10.0694
▁ceci	-10.0694
▁Après	-10.0697
▁hold	-10.0698
▁dispose	-10.0699
▁défi	-10.0701
▁ai	-10.0715
▁arguments	-10.0715
▁aims	-10.0716
▁proposal.	-10.0718
▁constitution	-10.0729
▁économie	-10.0732
▁American	-10.0736
▁produced	-10.0737
▁statements	-10.0738
▁asking	-10.0744
▁Mon	-10.0748
▁history	-10.0751
▁member	-10.0752
▁parts	-10.0755
▁Nevertheless	-10.0759
▁spécifique	-10.076
▁recommandations	-10.076
▁rise	-10.0763
▁contributions	-10.0765
▁proposer	-10.0773
▁ten	-10.0777
▁Conférence	-10.0779
▁cross-border	-10.0779
▁soins	-10.0785
▁After	-10.0801
▁traite	-10.0806
▁seriously	-10.0813
▁britannique	-10.0817
▁unemployment	-10.082
▁fund	-10.0824
▁encourager	-10.0833
▁mécanisme	-10.0846
▁réalisation	-10.0852
▁recommendations	-10.0861
▁sensible	-10.0861
▁wants	-10.0864
▁Cet	-10.0868
▁procéder	-10.0876
▁Brussels	-10.0879
▁lecture	-10.0883
▁économies	-10.0884
▁définir	-10.0891
▁laisser	-10.0893
▁recours	-10.0895
▁expenditure	-10.0899
».	-10.09
▁opinions	-10.0904
▁budgétaires	-10.0907
▁Strasbourg	-10.0909
▁building	-10.091
▁Malheureusement	-10.0912
▁l'esprit	-10.0914
▁entirely	-10.0915
▁l'une	-10.0934
▁recognition	-10.094
▁d'améliorer	-10.094
▁devront	-10.0941
▁balanced	-10.0944
▁place.	-10.0945
▁raise	-10.0946
▁conclusion,	-10.095
▁anything	-10.0952
▁député	-10.0957
▁probably	-10.0958
▁East	-10.0959
▁useful	-10.0962
▁article	-10.0964
▁sujet.	-10.0972
▁l'éducation	-10.098
▁closer	-10.0986
▁analyse	-10.099
▁Indeed	-10.1013
▁l'ai	-10.1033
▁lives	-10.1036
▁communes	-10.1043
▁facing	-10.1059
▁venir	-10.1059
▁L’	-10.1065
▁name	-10.1071
▁cut	-10.1074
▁qu'au	-10.1076
▁souligne	-10.1078
▁spirit	-10.1087
▁establishment	-10.1088
▁liées	-10.1091
▁weeks	-10.1107
▁Luxembourg	-10.1108
▁risks	-10.1113
▁prochain	-10.1126
▁home	-10.113
▁contrary	-10.1131
près	-10.1147
▁forget	-10.1152
▁maintien	-10.1156
▁1997	-10.1161
▁semaines	-10.1167
▁Aujourd'hui	-10.117
▁B	-10.1173
▁exactly	-10.1177
▁impose	-10.1178
),	-10.1183
▁monnaie	-10.1186
▁d'Europe	-10.1198
▁Iraq	-10.12
▁Some	-10.1202
▁d'ici	-10.1206
▁bodies	-10.1209
▁Messieurs	-10.121
▁expression	-10.1214
▁added	-10.123
▁rest	-10.1233
▁représentent	-10.1234
▁au-delà	-10.1239
▁mécanismes	-10.124
▁presque	-10.1247
▁souhaitons	-10.125
▁developments	-10.1256
▁seraient	-10.1259
▁tard	-10.126
▁stocks	-10.1264
▁mars	-10.1268
▁threat	-10.1269
▁conflits	-10.1276
▁Greece	-10.1291
▁Belarus	-10.1297
▁méthode	-10.1298
▁authority	-10.1299
▁well.	-10.1304
▁actes	-10.1304
▁Environment	-10.1311
▁Commissaire	-10.1314
▁avions	-10.1316
▁faudra	-10.1317
▁l'initiative	-10.1318
▁milliers	-10.1318
▁faudrait	-10.132
▁delegation	-10.132
▁analysis	-10.1324
▁strongly	-10.133
▁reconstruction	-10.1334
▁properly	-10.1334
▁évaluation	-10.1341
▁compensation	-10.1341
▁Israel	-10.1342
▁attempt	-10.1347
▁visa	-10.1352
c	-10.1355
▁discuter	-10.1358
▁Palestinian	-10.1365
▁way.	-10.137
▁laid	-10.1372
▁bear	-10.1378
▁‘	-10.1379
▁l'Assemblée	-10.1384
▁negative	-10.1386
▁dealt	-10.1391
▁médias	-10.1394
▁direction.	-10.1397
▁problème.	-10.1398
▁demandons	-10.1401
▁word	-10.141
▁avantages	-10.1413
▁drawn	-10.1415
▁auxquels	-10.1421
▁21	-10.1426
▁Minutes	-10.1427
▁seek	-10.1441
▁Nord	-10.1442
▁l'homme.	-10.1448
▁differences	-10.1449
▁trust	-10.1451
▁applies	-10.1456
▁Bruxelles	-10.1456
▁thought	-10.1456
▁mai	-10.1464
▁outcome	-10.1473
▁improved	-10.1477
▁problem.	-10.1485
▁relationship	-10.1488
▁damage	-10.1497
▁instance	-10.1511
▁says	-10.153
▁s’est	-10.1531
▁happened	-10.1531
▁Ladies	-10.1534
▁uvre	-10.1539
▁d'État	-10.154
▁activity	-10.1541
▁chances	-10.1542
▁CO2	-10.1559
▁mot	-10.1559
▁press	-10.1568
▁principalement	-10.1573
▁mérite	-10.1577
▁pauvres	-10.1582
▁Bank	-10.1585
▁Italian	-10.1586
▁big	-10.1593
▁South	-10.1607
▁introduced	-10.1614
▁Amsterdam	-10.1619
▁leaders	-10.1623
▁putting	-10.164
▁Iran	-10.1641
▁patients	-10.1649
▁militaire	-10.1657
▁industries	-10.166
▁nationale	-10.1661
▁dangerous	-10.1672
▁cela,	-10.1678
▁l'ont	-10.168
▁!	-10.1687
▁flexibility	-10.169
▁vais	-10.1692
▁démocratiques	-10.1693
▁500	-10.1694
▁soutenu	-10.1696
▁parlons	-10.1696
▁travail,	-10.1697
▁prevention	-10.1697
▁future,	-10.1705
▁taxation	-10.1712
▁appel	-10.1712
▁l'intention	-10.1716
▁level,	-10.1716
▁happy	-10.1716
▁send	-10.1717
▁populaire	-10.172
▁liberalisation	-10.172
▁fera	-10.1723
▁pas.	-10.1735
▁submitted	-10.1738
▁Middle	-10.174
▁2007	-10.1747
z	-10.175
▁integrated	-10.1753
▁années.	-10.1756
▁conference	-10.1759
▁montant	-10.176
▁original	-10.176
▁unable	-10.178
▁faisons	-10.1783
▁modifier	-10.1785
▁sport	-10.1786
▁build	-10.1793
▁discours	-10.1794
▁enormous	-10.1795
▁implique	-10.1798
▁mutual	-10.1798
▁question,	-10.18
▁(A	-10.1801
▁earlier	-10.1805
▁prévu	-10.1808
▁probablement	-10.1819
▁yesterday	-10.182
▁considérable	-10.1822
▁destruction	-10.1823
▁humains	-10.1824
▁matter.	-10.1825
▁exist	-10.1831
▁Grèce	-10.1832
▁people,	-10.1832
▁borders	-10.1838
▁Prime	-10.1848
▁understanding	-10.1853
▁technology	-10.1854
▁mainly	-10.1862
▁économique.	-10.1863
▁fond	-10.1874
▁critical	-10.1874
▁entièrement	-10.19
▁Premier	-10.1907
▁opening	-10.1908
▁européennes.	-10.1912
▁d'information	-10.1918
▁version	-10.192
▁l’a	-10.1923
▁contains	-10.1928
▁seem	-10.193
▁lumière	-10.1937
▁protocole	-10.1938
▁prochaines	-10.1943
▁elements	-10.1955
▁Trade	-10.1966
▁l'encontre	-10.1969
▁estime	-10.1971
▁managed	-10.1979
▁merely	-10.1979
▁coût	-10.1989
▁company	-10.1993
▁1996	-10.1998
▁thinking	-10.1999
▁reduced	-10.1999
▁Even	-10.2001
▁simplification	-10.2011
▁alimentaires	-10.2016
▁reprises	-10.2021
▁thème	-10.2027
▁finance	-10.203
▁sensitive	-10.2031
▁leading	-10.2032
▁Russian	-10.2036
▁contient	-10.2037
▁l'action	-10.2043
▁décider	-10.2049
▁producers	-10.2053
▁MEPs	-10.2064
▁structurels	-10.2065
▁initial	-10.2067
▁état	-10.2067
▁growing	-10.2071
▁areas.	-10.2078
▁acteurs	-10.2078
▁parlements	-10.2081
▁fall	-10.2085
▁agricoles	-10.2087
▁questions.	-10.2091
▁animals	-10.2096
▁alone	-10.211
▁invite	-10.2112
▁definition	-10.2116
▁atteint	-10.2116
▁critique	-10.2117
▁organised	-10.212
▁prêts	-10.2127
▁normal	-10.213
▁longue	-10.2132
▁d'aide	-10.2136
▁laws	-10.2141
▁substance	-10.2142
▁regrettable	-10.2151
▁Amendments	-10.2152
▁septembre	-10.2154
▁wrong	-10.2159
▁assure	-10.2162
▁oublier	-10.2163
▁convaincu	-10.2167
▁19	-10.2168
▁thousands	-10.2168
▁low	-10.218
▁Health	-10.2184
▁ans.	-10.2186
▁Romania	-10.2188
▁Même	-10.2191
▁came	-10.2192
▁potentiel	-10.2205
▁armes	-10.2207
▁currency	-10.221
▁Turkish	-10.2213
▁climatique	-10.2214
▁considérer	-10.2228
▁n'ai	-10.2234
▁Traité	-10.2234
▁person	-10.2234
al	-10.2245
▁exprimé	-10.225
▁Comment	-10.2252
▁told	-10.2252
▁aborder	-10.2253
▁demandes	-10.2255
▁includes	-10.2256
▁24	-10.2264
▁60	-10.2265
▁body	-10.2267
▁fear	-10.2267
▁l'argent	-10.2267
▁Spain	-10.2269
▁pension	-10.2271
▁informed	-10.2271
é	-10.2281
▁renewable	-10.2292
▁substantial	-10.2293
▁issues.	-10.2297
▁efficaces	-10.2297
▁continuing	-10.2298
▁concentrer	-10.2299
▁UK	-10.2302
▁related	-10.2304
▁Many	-10.2306
▁formes	-10.2312
▁action.	-10.2312
▁représentant	-10.2314
▁immigrants	-10.2315
▁taxes	-10.2324
ès	-10.2329
▁Roumanie	-10.2333
▁soutient	-10.2333
▁délai	-10.2337
▁orientations	-10.236
▁totally	-10.2368
▁négociation	-10.2373
▁ought	-10.2377
▁disposer	-10.2378
▁failure	-10.2385
▁l'Europe,	-10.2393
▁crisis.	-10.2397
▁méthodes	-10.2403
▁Portugal	-10.2405
▁faire.	-10.2405
▁l'absence	-10.241
▁serve	-10.2411
▁crises	-10.242
▁supplémentaire	-10.2421
▁avenir	-10.2429
▁aujourd'hui.	-10.2433
▁institutions,	-10.2434
▁montré	-10.2438
▁sociale.	-10.2454
▁PME	-10.2454
▁mots	-10.2459
o	-10.2459
▁too.	-10.2462
▁(ES)	-10.2466
▁methods	-10.2467
▁worked	-10.2468
▁staff	-10.2475
▁tient	-10.2477
▁(The	-10.2484
▁September	-10.2484
▁bénéficier	-10.2488
▁ideas	-10.2503
▁maladies	-10.2515
▁modifications	-10.2517
▁complex	-10.2527
▁resolve	-10.253
▁stratégique	-10.2535
▁collective	-10.2535
▁desire	-10.2541
▁services,	-10.2542
▁Que	-10.2545
▁petits	-10.2546
▁elected	-10.2552
▁globale	-10.2553
▁limiter	-10.2567
▁extend	-10.2568
▁mondialisation	-10.257
▁signed	-10.2582
▁médicaments	-10.2585
▁communautaire.	-10.2586
▁mechanism	-10.2588
▁novembre	-10.2588
▁2006	-10.259
▁improvement	-10.2592
▁confrontés	-10.2593
▁1er	-10.2593
▁points.	-10.2595
▁idée	-10.2599
▁child	-10.2602
▁language	-10.2603
▁Africa	-10.2603
▁sens,	-10.2611
▁dis	-10.2612
▁Charter	-10.2613
▁attirer	-10.2614
▁voire	-10.2618
▁bringing	-10.2619
▁Depuis	-10.2624
▁satisfaction	-10.2625
▁Paper	-10.2632
▁celui-ci	-10.264
▁faits	-10.264
▁hier	-10.2641
▁adequate	-10.2646
▁diversité	-10.265
▁J’ai	-10.2658
▁agreement.	-10.2659
▁examine	-10.266
▁essentielle	-10.2674
▁Monetary	-10.2676
▁migration	-10.268
▁flexibilité	-10.268
▁read	-10.2686
▁gouvernance	-10.2688
▁s'en	-10.2693
▁them,	-10.2693
▁legislation.	-10.2697
▁législatif	-10.2699
▁actual	-10.2699
▁interventions	-10.27
▁so.	-10.2708
▁strict	-10.2709
▁traités	-10.271
▁P	-10.2712
▁occasions	-10.2718
▁van	-10.2727
▁Programme	-10.2728
▁way,	-10.2744
▁Alors	-10.275
▁limites	-10.275
▁involving	-10.2752
▁quelles	-10.2762
▁supports	-10.2771
▁établir	-10.2777
▁Structural	-10.2784
▁method	-10.2787
▁actuelle,	-10.2788
▁l'avis	-10.279
▁getting	-10.2792
▁highlight	-10.2793
▁accorder	-10.2794
▁November	-10.2797
▁revenir	-10.2797
▁Why	-10.2798
▁équilibre	-10.2812
▁disposons	-10.2813
▁House.	-10.2815
▁servir	-10.2817
▁Council's	-10.2818
▁guarantees	-10.2818
▁intend	-10.282
▁(RO)	-10.2824
▁range	-10.2828
▁grateful	-10.2843
▁decision-making	-10.2844
▁appliquer	-10.2846
▁penser	-10.2847
▁presse	-10.2849
▁easy	-10.2856
▁truly	-10.2856
▁accidents	-10.2861
▁mises	-10.2865
▁addressed	-10.2878
▁chefs	-10.2878
▁remarque	-10.2879
▁réelle	-10.2886
▁law,	-10.2887
▁immediate	-10.2887
▁faced	-10.2898
▁now,	-10.2899
▁garanties	-10.2902
▁Certains	-10.292
▁mechanisms	-10.2921
▁support.	-10.2923
V)	-10.2924
▁linked	-10.294
▁origin	-10.2942
▁relatifs	-10.2944
▁sentiment	-10.2963
▁society.	-10.2964
▁cover	-10.297
▁intentions	-10.2973
▁justement	-10.2974
▁mandate	-10.2981
▁recommandation	-10.2985
▁opposed	-10.2986
▁protecting	-10.2987
▁degree	-10.3005
▁official	-10.3007
▁véhicules	-10.3008
▁moi-même	-10.301
▁réalisé	-10.3018
▁exercise	-10.3022
▁burden	-10.3025
▁refugees	-10.3027
▁forced	-10.3034
▁rail	-10.3035
▁d'en	-10.3049
▁greatest	-10.3051
▁offre	-10.3053
▁futur	-10.3054
▁faciliter	-10.3054
▁figures	-10.3056
▁Kingdom	-10.306
▁véritablement	-10.3061
▁2008	-10.3063
▁secure	-10.3068
▁23	-10.3071
▁wishes	-10.3075
▁examiner	-10.3075
▁critiques	-10.3082
▁Europeans	-10.3084
▁minorités	-10.3087
▁minutes	-10.3088
▁discharge	-10.3091
▁sujets	-10.3093
▁débat.	-10.3099
▁(S	-10.31
▁remarques	-10.3102
▁networks	-10.3108
▁Summit	-10.311
▁adopting	-10.3112
▁happen	-10.3113
l	-10.3116
▁targets	-10.3117
▁practices	-10.3125
▁operation	-10.3127
▁estimons	-10.3127
▁arrive	-10.3132
▁sound	-10.3133
▁stable	-10.3138
▁faites	-10.3141
▁heures	-10.3143
▁oeuvre	-10.3148
▁America	-10.3156
▁départ	-10.3157
▁An	-10.3163
▁persons	-10.3163
▁evidence	-10.3164
▁speakers	-10.3165
▁October	-10.3166
▁seeking	-10.3171
▁moindre	-10.318
▁us,	-10.318
▁involvement	-10.3193
▁rappelle	-10.3194
▁African	-10.3196
▁fiscal	-10.32
▁faite	-10.32
▁commerciales	-10.3203
▁scientifiques	-10.3205
▁ability	-10.3221
▁l'amélioration	-10.3223
▁échanges	-10.3226
▁enter	-10.323
▁limite	-10.323
▁excessive	-10.3241
▁morning	-10.3243
▁coup	-10.3263
▁problems.	-10.3269
▁Pourquoi	-10.3271
▁fins	-10.3273
▁Lorsque	-10.3279
▁devait	-10.3283
▁consistent	-10.3287
▁matin	-10.3292
▁criminalité	-10.3297
▁politiques.	-10.3297
▁March	-10.3297
▁ready	-10.3302
▁lost	-10.3303
▁règlements	-10.3306
▁failed	-10.3307
▁faible	-10.3309
▁femme	-10.3313
▁mobilité	-10.3329
▁New	-10.3336
▁else	-10.3336
▁stade	-10.3338
▁starting	-10.3339
▁climat	-10.3349
▁champ	-10.3355
▁ajouter	-10.3355
▁defend	-10.3356
▁approuvé	-10.3357
▁flexible	-10.336
▁prend	-10.3361
▁idées	-10.3373
▁involve	-10.3374
▁humaine	-10.3377
▁concrètes	-10.3381
▁tackle	-10.3385
▁humanitaire	-10.3389
▁campagne	-10.3392
▁centres	-10.3397
▁Sud	-10.3407
▁finalement	-10.3407
▁soir	-10.341
▁economy.	-10.3417
▁petit	-10.3417
▁Kyoto	-10.3421
▁choice	-10.3424
▁option	-10.3425
▁Avec	-10.3426
▁200	-10.3426
▁fish	-10.3431
▁finances	-10.3433
▁comply	-10.3434
▁l'introduction	-10.3435
▁appeal	-10.344
▁regrette	-10.3442
▁conventions	-10.3443
▁Public	-10.3443
▁appear	-10.3444
▁l'avenir.	-10.3448
▁locales	-10.3448
▁explain	-10.3449
▁étape	-10.3455
▁reject	-10.3458
▁puissions	-10.346
▁shared	-10.3463
▁Affairs,	-10.3465
▁governance	-10.3466
▁efficacement	-10.3467
▁Thirdly,	-10.3469
i	-10.3472
▁d'éviter	-10.3477
▁Treaty.	-10.3481
▁designed	-10.3483
▁immediately	-10.3484
▁consommateurs.	-10.3485
▁extension	-10.3486
▁detailed	-10.3486
▁préparation	-10.3496
▁divers	-10.3505
▁(EL)	-10.3506
▁auront	-10.3508
▁compagnies	-10.3508
▁judiciaire	-10.3509
▁évidence	-10.351
▁obvious	-10.3512
▁sécurité.	-10.3512
▁dirigeants	-10.3516
▁insister	-10.3518
ordre	-10.3525
▁affaire	-10.3535
▁décharge	-10.3541
▁standard	-10.3542
▁j'aimerais	-10.3554
▁relever	-10.3556
▁l’on	-10.356
▁thereby	-10.356
▁obtenu	-10.3564
▁fondamentales	-10.3565
▁age	-10.3577
▁scientifique	-10.3579
▁region.	-10.3582
▁contacts	-10.3584
▁While	-10.3586
▁emploi	-10.3599
▁conduite	-10.3601
▁Ukraine	-10.3604
▁cooperation.	-10.3607
▁pied	-10.361
▁l'état	-10.3611
▁totale	-10.3612
▁ahead	-10.362
▁catastrophe	-10.3623
▁environment.	-10.3632
▁citizens,	-10.3637
▁monde,	-10.3642
▁Question	-10.3649
▁Swedish	-10.3652
▁Troisièmement	-10.3652
▁talks	-10.3655
▁judicial	-10.3658
▁Ministers	-10.3659
▁recommendation	-10.367
▁reply	-10.3671
▁sign	-10.3682
▁portant	-10.3682
▁États-Unis,	-10.3682
▁continues	-10.3684
▁naturally	-10.3688
▁payments	-10.3688
▁Nice	-10.3692
▁followed	-10.3693
▁indiqué	-10.3697
▁qu’une	-10.3697
▁export	-10.3712
▁l'évolution	-10.3713
▁devrons	-10.3721
▁Afghanistan	-10.3727
▁series	-10.3728
▁agences	-10.3729
▁j'	-10.373
▁chiffres	-10.3732
▁concerned.	-10.3732
▁22	-10.3734
▁North	-10.3741
▁contrôler	-10.3742
▁bilateral	-10.3742
▁empêcher	-10.3746
▁aurons	-10.3749
▁parlementaires	-10.3749
▁sociale,	-10.3759
▁commune.	-10.376
▁absence	-10.3765
▁euros	-10.3767
▁circumstances	-10.377
▁vertu	-10.3778
▁réserve	-10.378
▁2010	-10.3781
▁charges	-10.3784
▁Barroso	-10.3785
▁interesting	-10.3786
▁position.	-10.3788
▁recognised	-10.379
▁bases	-10.3794
▁bad	-10.3795
▁1995	-10.3797
▁emphasis	-10.38
▁element	-10.3802
▁d'application	-10.3809
▁sent	-10.381
▁différences	-10.3815
▁covered	-10.3816
▁advantage	-10.3817
▁combien	-10.3823
▁développement,	-10.3833
▁n’	-10.3833
▁proposing	-10.3834
▁rates	-10.3836
▁inacceptable	-10.3837
▁travel	-10.3837
▁suffit	-10.3838
▁l'opinion	-10.3844
▁presence	-10.3848
▁qu’	-10.3848
pplaudissements)	-10.385
▁soutenons	-10.3859
▁haute	-10.3864
▁fasse	-10.3866
▁Ma	-10.3867
▁réponses	-10.3869
▁essentiellement	-10.3869
▁diverses	-10.3873
▁accompli	-10.3879
▁Eastern	-10.3882
▁repeat	-10.3882
▁produire	-10.3892
▁soi	-10.3892
▁acts	-10.3893
▁affect	-10.3903
▁citoyen	-10.3908
▁2,	-10.3912
▁2000,	-10.3913
▁d’être	-10.3927
▁exactement	-10.3942
▁déterminer	-10.3944
▁later	-10.3951
▁durée	-10.3956
▁région.	-10.3957
▁crisis,	-10.3958
▁cultures	-10.396
▁solution.	-10.396
▁heart	-10.3962
▁Tous	-10.3969
▁favoriser	-10.3981
▁entreprises.	-10.3983
▁Van	-10.399
▁n'était	-10.3995
▁fondamentale	-10.4002
▁eaux	-10.4015
▁granted	-10.4019
▁attendre	-10.4031
▁plénière	-10.4033
▁network	-10.4036
▁Rule	-10.4038
▁resolutions	-10.4039
▁argument	-10.4047
▁seuls	-10.4051
▁l’environnement	-10.4061
▁lois	-10.4063
▁arrangements	-10.4066
▁House,	-10.4071
▁conduct	-10.4079
▁lancer	-10.4083
▁tourisme	-10.4083
▁monitor	-10.4089
▁Democrats	-10.4109
▁now.	-10.4111
▁run	-10.4112
▁controls	-10.4115
▁ground	-10.4115
▁Greek	-10.4116
tandis	-10.412
▁mentionné	-10.4124
▁existence	-10.4127
▁Pakistan	-10.4127
▁manner	-10.4127
▁massive	-10.4128
▁Agency	-10.4129
▁suppression	-10.4133
▁supervision	-10.4139
▁amongst	-10.4141
▁Only	-10.4143
▁extérieure	-10.4151
▁porter	-10.4156
▁one.	-10.4156
▁navires	-10.4159
▁Chamber	-10.4159
▁premières	-10.4164
▁then,	-10.4165
▁pourrions	-10.4165
▁worth	-10.4167
▁Such	-10.4167
▁applicable	-10.4167
▁gender	-10.4168
▁rendu	-10.4174
▁d'assurer	-10.4182
▁traffic	-10.4183
▁d'emplois	-10.4187
▁gave	-10.4188
▁distinction	-10.4188
▁test	-10.4189
▁ports	-10.4196
▁changer	-10.4198
▁meilleures	-10.4199
▁inform	-10.4201
▁General	-10.4212
▁ceux-ci	-10.422
▁weapons	-10.4233
▁certes	-10.4237
▁Assemblée,	-10.4242
▁trouvent	-10.4251
▁j'estime	-10.4252
▁subventions	-10.4254
▁immédiatement	-10.4255
▁neither	-10.4256
▁regulatory	-10.4256
▁destinés	-10.4258
▁restent	-10.4263
▁representative	-10.4269
▁profiter	-10.4275
▁evaluation	-10.4278
▁statistiques	-10.4279
▁l'immigration	-10.4279
▁anyone	-10.4281
▁comprends	-10.4282
▁1,	-10.4287
▁financer	-10.4292
▁professional	-10.4295
▁Lisbonne.	-10.4303
▁technologie	-10.4309
▁obtain	-10.4309
▁exploitation	-10.431
▁fermement	-10.4319
▁States'	-10.4321
▁Pact	-10.4322
▁avancer	-10.4326
▁Those	-10.4326
▁religious	-10.4329
▁rapid	-10.4329
▁retard	-10.4331
▁juillet	-10.4333
▁d'adopter	-10.4339
▁terme,	-10.4348
▁logique	-10.4349
▁terrorist	-10.4355
▁viens	-10.4361
▁utilisé	-10.4363
▁happening	-10.4364
▁whilst	-10.4373
▁disaster	-10.4389
▁banques	-10.4391
▁suffering	-10.4395
▁reasonable	-10.4396
▁nation	-10.4399
▁credit	-10.4399
▁impression	-10.44
▁concernés	-10.44
▁voisins	-10.4403
▁d'informations	-10.4408
▁commerciaux	-10.4408
▁préserver	-10.4418
▁lower	-10.4421
▁arms	-10.4424
▁Strategy	-10.4424
▁entry	-10.4428
▁savez,	-10.4431
▁fortement	-10.4439
▁Commission’s	-10.444
▁utilisés	-10.4444
▁membership	-10.4446
▁utilisation	-10.4446
▁election	-10.4447
▁80	-10.445
▁équitable	-10.4453
▁tonnes	-10.4456
▁français	-10.446
▁Socialist	-10.4462
▁binding	-10.4462
▁langues	-10.4462
▁31	-10.4474
▁tourism	-10.4475
▁Is	-10.4475
▁safe	-10.4479
▁target	-10.4481
▁treaty	-10.4484
▁From	-10.4485
▁pensions	-10.4488
▁public.	-10.4493
▁domestic	-10.4498
▁rejected	-10.4498
▁Yet	-10.4504
▁socialiste	-10.4509
▁parvenus	-10.451
▁meetings	-10.4512
▁réaction	-10.4512
▁planning	-10.4512
▁communications	-10.4514
▁chemin	-10.4516
▁d'origine	-10.452
▁options	-10.4525
▁economies	-10.4534
▁revenus	-10.4537
▁appears	-10.4537
▁Agriculture	-10.4541
▁goal	-10.4541
▁préparer	-10.4542
▁autres,	-10.4548
▁Bureau	-10.4553
▁environnement	-10.4566
▁plenary	-10.4566
▁retour	-10.4571
▁debates	-10.4576
▁l'élaboration	-10.458
▁measures.	-10.4581
▁accepté	-10.4583
▁Maastricht	-10.4585
▁Western	-10.4586
▁facilitate	-10.4588
▁octobre	-10.4588
ont	-10.4588
▁delighted	-10.4592
▁étude	-10.4595
▁spent	-10.4601
▁criticism	-10.4602
▁nucléaires	-10.4603
▁carefully	-10.4606
▁réflexion	-10.4607
pprovisionnement	-10.4608
▁families	-10.4614
▁d'urgence	-10.4627
▁expected	-10.4629
▁tests	-10.4632
▁progresser	-10.4638
▁change.	-10.464
▁constitutional	-10.4641
▁matières	-10.4642
▁income	-10.4649
▁Quelle	-10.4663
▁SMEs	-10.4663
▁lui-même	-10.4666
▁Cyprus	-10.4667
▁(Applause)	-10.4669
▁marché.	-10.4673
▁system,	-10.4673
▁attendons	-10.4676
▁langue	-10.4682
▁otherwise	-10.4685
▁minority	-10.4694
▁terroristes	-10.4696
▁justice.	-10.4696
▁inclusion	-10.4698
▁Legal	-10.47
▁Euro	-10.47
▁(Le	-10.4706
▁cycle	-10.4708
▁viande	-10.4711
▁peoples	-10.4711
▁improvements	-10.4711
▁adoptées	-10.472
▁réalisés	-10.4722
▁Livre	-10.4723
▁ouverte	-10.4724
▁visas	-10.4736
▁mauvaise	-10.4742
▁declaration	-10.4742
▁poids	-10.4743
▁voice	-10.4748
▁conclu	-10.4749
▁Lisbonne,	-10.4761
▁generally	-10.4763
▁dehors	-10.4768
▁J'estime	-10.4768
▁implications	-10.4769
▁parlement	-10.4774
▁participate	-10.4783
▁cent	-10.4784
▁dire,	-10.4789
▁moving	-10.4805
▁précédent	-10.4811
▁mobility	-10.4814
▁likely	-10.4821
▁internationaux	-10.4822
▁policies.	-10.4839
▁lines	-10.4842
▁encouraging	-10.4844
▁permettent	-10.4845
▁acquis	-10.4846
▁elle-même	-10.4847
▁lies	-10.4849
▁Do	-10.4849
▁m'a	-10.4859
▁familles	-10.4859
▁Suède	-10.4863
▁l'espace	-10.4867
▁vite	-10.4869
▁modern	-10.4869
▁interested	-10.4873
▁started	-10.4873
▁industry.	-10.4874
▁transfer	-10.4877
▁PPE	-10.4881
▁helping	-10.4881
▁proposes	-10.4883
▁L'Europe	-10.4884
▁auxquelles	-10.4885
▁règle	-10.4886
▁parents	-10.4888
▁signaler	-10.4889
▁credibility	-10.489
▁association	-10.489
▁militaires	-10.4892
▁population.	-10.4897
▁demonstrate	-10.4898
▁vaut	-10.4898
▁combattre	-10.4903
▁negotiating	-10.4905
▁committees	-10.4906
▁placed	-10.491
▁Stability	-10.4921
▁n'existe	-10.4928
▁revient	-10.493
in	-10.493
▁subsidies	-10.4936
▁today's	-10.4939
▁Funds	-10.4941
▁frais	-10.4943
▁principales	-10.4943
▁qu’un	-10.4944
▁reflect	-10.4947
▁calendrier	-10.495
▁competence	-10.4959
▁reprise	-10.4959
▁environ	-10.4963
▁bien-être	-10.4964
▁Czech	-10.4966
▁subsidiarity	-10.4969
▁allowing	-10.497
▁independence	-10.4971
▁Agenda	-10.4976
▁marchandises	-10.4976
▁People'	-10.4978
▁fighting	-10.498
▁payer	-10.4982
▁l'OMC	-10.4985
▁constituer	-10.4985
▁essentiels	-10.499
▁nécessaire.	-10.5002
▁area,	-10.5008
▁numerous	-10.501
▁notion	-10.5012
▁compliance	-10.5015
▁annuel	-10.5017
▁religion	-10.5018
▁%.	-10.5018
▁déposé	-10.5021
▁Berlin	-10.5026
▁poursuite	-10.5031
▁conséquence	-10.5035
▁lettre	-10.5038
▁Assemblée.	-10.5038
▁territory	-10.5039
▁easier	-10.5042
▁êtes	-10.5043
▁26	-10.5047
▁sides	-10.5054
▁office	-10.506
▁évoqué	-10.5069
▁Bulgarie	-10.5069
▁Roma	-10.5072
▁c'	-10.5074
▁solve	-10.508
▁contribué	-10.5082
...	-10.5085
▁approval	-10.5087
▁Policy	-10.5087
▁conviction	-10.509
▁Aussi	-10.509
▁Poland	-10.5091
▁Israël	-10.5095
▁disponibles	-10.5096
▁connu	-10.5097
▁imposed	-10.5097
▁link	-10.5104
▁diversity	-10.5106
▁relève	-10.5109
▁Sweden	-10.5111
▁égard.	-10.5113
▁firm	-10.5115
▁fiscale	-10.5118
▁all.	-10.5118
▁trafficking	-10.5118
▁customs	-10.5118
▁equally	-10.5121
▁espace	-10.5135
▁Pologne	-10.5137
▁transactions	-10.5138
▁separate	-10.5141
▁proportion	-10.5141
▁traditional	-10.5143
▁affairs	-10.5147
▁associations	-10.5147
▁limits	-10.515
▁exige	-10.515
▁safeguard	-10.5156
▁Europol	-10.5158
▁catastrophes	-10.5159
▁issue,	-10.5161
▁communautés	-10.5163
▁fail	-10.5167
▁l'impact	-10.5167
▁fraud	-10.5168
▁cœur	-10.5171
▁glad	-10.5173
ez	-10.5175
▁forthcoming	-10.5177
▁learn	-10.5177
▁vouloir	-10.518
▁endorse	-10.5184
▁terminer	-10.5184
▁peaceful	-10.5186
▁missions	-10.5187
▁portée	-10.5194
▁voluntary	-10.5204
▁disease	-10.5205
▁moitié	-10.5207
▁réfléchir	-10.5217
▁sens.	-10.5218
▁ECU	-10.5222
▁J'aimerais	-10.5241
▁ultimately	-10.5241
▁protection.	-10.5243
▁délais	-10.5245
▁famille	-10.5254
▁facile	-10.5255
▁accrue	-10.5256
▁vaste	-10.5269
▁Charte	-10.5271
▁vert	-10.5272
▁régionale	-10.5275
▁April	-10.5275
▁crédibilité	-10.5276
▁l'accent	-10.5278
▁correctement	-10.5279
▁land	-10.5282
▁entreprises,	-10.5286
▁bas	-10.5291
▁étroite	-10.5291
▁cohérence	-10.5299
▁Plus	-10.5302
▁souhaitent	-10.5303
▁terme.	-10.5304
▁acte	-10.5305
▁modernisation	-10.5306
▁democracy.	-10.531
▁politicians	-10.5311
▁consommateurs,	-10.5311
▁résolutions	-10.5315
▁associated	-10.532
▁l'échelle	-10.5322
▁personnellement	-10.5323
▁fixer	-10.5324
▁Another	-10.5329
en	-10.533
▁ambitieux	-10.5334
▁articles	-10.5336
▁recevoir	-10.5339
▁opérations	-10.5341
▁itself.	-10.5342
▁maladie	-10.5355
▁Éta	-10.5356
▁written	-10.5357
▁augmenter	-10.5358
▁attacks	-10.536
▁Action	-10.5369
▁PPE-DE	-10.5373
▁situation,	-10.5373
▁passagers	-10.5375
▁personally	-10.5383
▁concernent	-10.5386
▁Ne	-10.5387
▁l'innovation	-10.5388
▁d'obtenir	-10.5391
▁d'asile	-10.5394
▁cesse	-10.5395
ra	-10.5405
▁entreprise	-10.5406
▁According	-10.5407
▁paraît	-10.5407
▁conservation	-10.5409
▁grounds	-10.541
ent	-10.5413
▁réussi	-10.5416
▁d'aujourd'hui	-10.5416
▁tour	-10.5419
▁process,	-10.5421
▁2000.	-10.5428
▁supprimer	-10.5429
▁démocrates	-10.5435
▁payment	-10.5435
▁destinées	-10.5438
▁hours	-10.5443
▁Framework	-10.5446
▁Lastly	-10.5447
▁l'augmentation	-10.5449
▁Research	-10.5452
▁work,	-10.5457
▁subsidiarité	-10.5457
▁recovery	-10.5469
▁garder	-10.5472
▁régional	-10.5475
▁manage	-10.5486
▁refuse	-10.5487
▁terrain	-10.5488
▁constate	-10.5489
▁consommateur	-10.549
▁ordre	-10.5493
▁fonctionnaires	-10.5494
▁réserves	-10.5494
▁moment.	-10.5495
▁Sea	-10.5497
▁involves	-10.5498
▁tried	-10.5498
▁tendance	-10.5507
▁Quant	-10.5509
▁commissions	-10.551
▁functioning	-10.5513
▁complète	-10.5513
▁gain	-10.5517
▁contained	-10.5519
▁proposée	-10.552
▁demonstrated	-10.5525
▁préoccupation	-10.5541
▁agencies	-10.5548
▁quels	-10.5557
▁Portuguese	-10.5557
▁trading	-10.5559
▁case.	-10.5573
▁minute	-10.5575
▁études	-10.5582
ront	-10.5587
▁préciser	-10.5588
▁Financial	-10.5589
▁changed	-10.5589
▁factor	-10.559
▁lien	-10.5591
▁primarily	-10.5592
▁programmes.	-10.5594
▁connaître	-10.5598
▁communities	-10.5598
▁entendre	-10.5602
▁continued	-10.5608
▁transport.	-10.5612
▁transfert	-10.5618
▁Européens	-10.5631
▁28	-10.5637
▁moral	-10.5637
▁resolution.	-10.5642
▁d'emploi	-10.5644
▁Not	-10.5644
▁factors	-10.5649
▁Lors	-10.5653
▁Avant	-10.5657
▁consumption	-10.5661
▁fut	-10.5663
▁vivent	-10.5664
▁realise	-10.5673
▁requirement	-10.5682
▁round	-10.5683
▁jour.	-10.5684
▁cancer	-10.5689
▁parliaments	-10.5693
▁sérieusement	-10.5698
▁minorities	-10.57
▁commentaires	-10.57
▁resources.	-10.5704
▁capacités	-10.5704
▁l'évaluation	-10.5708
▁capables	-10.5717
▁historique	-10.5719
▁l'engagement	-10.5737
▁proposition.	-10.5738
▁dépit	-10.5744
▁hausse	-10.5745
▁renouvelables	-10.5752
▁heures.	-10.5752
▁late	-10.5754
▁relativement	-10.5762
▁floor	-10.5765
▁facteurs	-10.5769
▁...	-10.5771
▁tobacco	-10.5773
▁réussite	-10.5774
▁débattre	-10.5777
▁serons	-10.5781
▁internationale.	-10.5784
▁out.	-10.5785
▁knows	-10.5786
▁suggest	-10.5786
▁revêt	-10.5786
▁l'exercice	-10.5787
▁vivre	-10.5787
▁imposer	-10.5792
▁entitled	-10.5794
▁administratives	-10.5795
▁suggestions	-10.5797
▁Despite	-10.5801
▁appropriations	-10.5804
▁played	-10.5808
▁ouvert	-10.5809
▁européennes,	-10.5815
▁assume	-10.5818
▁voulu	-10.5819
▁précise	-10.5823
▁exception	-10.5827
▁Commissioners	-10.5829
▁C'	-10.583
▁welfare	-10.583
▁trouvé	-10.583
▁Chinese	-10.5832
▁permettrait	-10.5836
▁legitimate	-10.5837
▁d	-10.5837
▁apporté	-10.5843
▁d'autant	-10.5844
▁expérience	-10.5848
▁leadership	-10.5848
▁transit	-10.5859
▁vois	-10.5866
▁approve	-10.5867
▁petite	-10.5872
▁letter	-10.5876
▁législative	-10.5877
▁Vice-President	-10.5877
▁sexual	-10.5878
▁Baltic	-10.5886
▁firmly	-10.5891
▁réglementations	-10.5895
▁connaît	-10.5901
▁temporary	-10.5905
▁d'intérêt	-10.5908
▁Treaty,	-10.5926
▁nevertheless	-10.5927
▁pouvait	-10.5927
▁réunions	-10.5927
▁autour	-10.5933
▁context,	-10.5933
▁amounts	-10.5951
▁amélioration	-10.5955
▁proposés	-10.5958
▁banks	-10.5958
▁esprit	-10.596
▁delay	-10.5964
▁biens	-10.5965
▁établi	-10.5967
ation	-10.5973
▁Dutch	-10.5974
▁mass	-10.5984
▁paiement	-10.5986
▁Given	-10.5992
▁debt	-10.5998
▁fondée	-10.6002
▁2009.	-10.6005
▁development,	-10.6007
▁Auditors	-10.6015
▁got	-10.6017
▁d’abord	-10.6017
▁environnemental	-10.6023
▁terrible	-10.6023
▁spending	-10.6026
▁allows	-10.6032
▁closed	-10.6033
▁offrir	-10.6035
▁products.	-10.6041
▁tôt	-10.6042
▁unless	-10.6046
▁tenter	-10.6048
▁savez	-10.605
▁Perhaps	-10.6055
▁partner	-10.6058
▁l'organisation	-10.6058
▁compter	-10.6067
▁ones	-10.6072
▁L	-10.6074
▁régimes	-10.6079
▁top	-10.6084
▁pêcheurs	-10.6087
▁d'établir	-10.6088
▁l'emploi.	-10.6095
▁l'eau	-10.6099
▁campaign	-10.61
▁femmes.	-10.6102
▁l’ensemble	-10.6102
▁investments	-10.6103
▁confirm	-10.6104
▁législatives	-10.6107
▁(HU	-10.6108
▁présentée	-10.611
▁secondly	-10.6111
▁July	-10.6111
▁Sans	-10.6112
▁Ensuite	-10.6113
▁jeu	-10.6117
▁actuelles	-10.6118
▁prévenir	-10.6125
▁s’il	-10.6125
▁évolution	-10.6126
▁labelling	-10.6134
▁goals	-10.614
▁centrales	-10.6143
▁Italy	-10.6143
▁plein	-10.6144
▁conditions.	-10.615
▁defined	-10.615
▁awareness	-10.6154
▁complètement	-10.6154
▁allocated	-10.6157
▁Here	-10.616
▁port	-10.6164
▁speed	-10.6165
▁concernées	-10.6167
▁fraude	-10.6171
▁attack	-10.6173
▁l'approche	-10.6173
▁citizens'	-10.6177
▁done.	-10.6188
▁employees	-10.6193
▁précis	-10.62
▁procedure.	-10.62
▁conflicts	-10.6201
▁record	-10.6202
▁ethnic	-10.6206
▁l'avons	-10.6209
▁whatever	-10.621
▁commissaires	-10.6216
▁overcome	-10.6217
▁joue	-10.622
▁auraient	-10.6224
▁positifs	-10.6226
▁sea	-10.6228
▁technological	-10.6228
▁passage	-10.6233
▁interne	-10.6233
▁prepare	-10.6236
▁conscients	-10.6245
▁preparing	-10.6247
▁répartition	-10.6247
▁Transport	-10.6255
▁Copenhagen	-10.6255
▁principale	-10.6257
▁activité	-10.6268
▁compared	-10.6274
▁decisive	-10.6275
▁High	-10.6281
▁soumettre	-10.6281
▁favorables	-10.6281
▁organes	-10.6283
▁prove	-10.6284
▁effectiveness	-10.6289
vironnementales	-10.6293
▁again.	-10.6294
▁lose	-10.6295
▁detail	-10.6297
▁mode	-10.6301
▁visit	-10.6303
▁preventing	-10.6305
▁considering	-10.6306
▁différence	-10.6317
▁Head	-10.6327
▁Concernant	-10.6334
▁highest	-10.6334
▁obstacle	-10.6336
▁freedoms	-10.6336
▁treated	-10.6338
▁passed	-10.6348
▁Car	-10.6349
▁consolidation	-10.6349
▁jour,	-10.635
▁profits	-10.6352
▁énorme	-10.6355
▁undoubtedly	-10.6356
▁concentration	-10.6359
▁appreciate	-10.6369
▁offers	-10.6369
▁l'histoire	-10.6379
▁constantly	-10.638
▁textes	-10.6381
▁Barroso,	-10.6386
▁aliments	-10.6389
▁average	-10.639
▁cooperate	-10.6393
▁Energy	-10.6393
▁alternatives	-10.6395
▁tasks	-10.6403
▁prévue	-10.6405
▁facteur	-10.6405
▁paiements	-10.6412
▁international.	-10.6412
▁operate	-10.6413
▁l'obligation	-10.6417
▁s'ils	-10.6421
▁drugs	-10.6424
▁fruit	-10.6426
▁circonstances	-10.643
▁loss	-10.6432
▁drawing	-10.6435
▁remarquer	-10.6436
▁envisager	-10.6437
▁l'intérieur	-10.6443
▁emergency	-10.6445
▁perdre	-10.6445
▁gone	-10.6445
▁somewhat	-10.6449
▁spoke	-10.6462
▁programme-cadre	-10.6463
1	-10.6464
▁Gaza	-10.6471
▁electronic	-10.6473
▁division	-10.6475
▁J'	-10.6476
▁attend	-10.6478
▁montrent	-10.6482
▁partout	-10.6484
▁dignité	-10.6486
▁revision	-10.6487
▁applying	-10.6488
▁territorial	-10.649
▁Then	-10.6493
algré	-10.6497
▁Because	-10.6497
▁taxe	-10.6497
▁Market	-10.6499
▁concluded	-10.65
▁accident	-10.6509
▁revanche	-10.6509
▁mauvais	-10.6514
▁tentative	-10.6514
▁relates	-10.6516
▁États-Unis.	-10.6518
▁phénomène	-10.6519
▁prison	-10.652
▁référendum	-10.6524
▁concitoyens	-10.6524
▁Canada	-10.6533
▁constant	-10.6539
▁29	-10.6547
▁regions.	-10.6555
▁keeping	-10.6557
▁l'entrée	-10.6559
▁wonder	-10.656
▁Pourtant	-10.6575
▁referendum	-10.6575
▁introducing	-10.6582
▁Fundamental	-10.6584
▁2010.	-10.6588
▁contribue	-10.6597
▁seconde	-10.6599
▁operations	-10.6599
▁70	-10.6614
»,	-10.6616
▁tradition	-10.6624
▁aérien	-10.6626
▁prennent	-10.6636
▁intervenir	-10.6639
▁avril	-10.6642
▁respecte	-10.6646
▁please	-10.6649
▁plaisir	-10.6654
▁dépend	-10.6654
▁volume	-10.6656
▁Budgets	-10.6659
▁qualifications	-10.666
▁directrices	-10.6665
▁citizen	-10.6666
▁d’accord	-10.6668
▁pursue	-10.6671
▁joué	-10.6672
▁orateurs	-10.6673
▁eux-mêmes	-10.6674
▁historic	-10.6679
▁ministers	-10.668
▁l'ouverture	-10.6691
▁croire	-10.6697
▁actuels	-10.6707
▁Bulgaria	-10.6708
▁officials	-10.6709
▁fonctionne	-10.6717
▁démocratie.	-10.6718
▁celles-ci	-10.6725
▁clé	-10.6729
▁forum	-10.6729
▁vulnerable	-10.6733
5	-10.6735
▁extended	-10.6739
▁operating	-10.6746
▁culturelle	-10.6746
▁difficiles	-10.6748
▁lancé	-10.6751
▁guaranteed	-10.6755
▁fulfil	-10.6756
▁détermination	-10.6757
▁meilleurs	-10.6763
▁continuent	-10.6765
▁resolution,	-10.6766
▁formuler	-10.6767
▁2006,	-10.6768
considérablement	-10.6768
▁Chypre	-10.6769
▁traditions	-10.6772
▁créé	-10.6775
▁citer	-10.6781
▁organismes	-10.6782
▁clarify	-10.6782
▁Israeli	-10.6785
▁inquiétudes	-10.6787
▁progressive	-10.6788
6	-10.6792
▁travaillé	-10.6795
▁path	-10.6804
▁complexe	-10.6809
▁requested	-10.6811
▁?uvre	-10.6812
▁exists	-10.6814
▁cas.	-10.682
▁entrer	-10.6824
▁planned	-10.6832
▁difference	-10.6834
▁installations	-10.6837
▁vehicles	-10.6838
▁month	-10.6845
▁n’ont	-10.6846
▁chef	-10.6847
▁willing	-10.6848
▁employment.	-10.6849
▁languages	-10.6851
▁mentionner	-10.6853
▁intends	-10.6858
▁tabac	-10.6862
▁présidents	-10.6864
▁submit	-10.6865
▁propriété	-10.687
▁proposées	-10.6874
▁300	-10.6875
▁secret	-10.6875
transfrontalière	-10.6877
▁statistics	-10.6878
▁there.	-10.688
▁spoken	-10.6881
▁ayons	-10.6882
▁pétrole	-10.6884
▁you.	-10.6884
▁NATO	-10.6888
▁construire	-10.6888
▁latter	-10.6893
▁individuals	-10.6894
▁maintaining	-10.6896
▁réel	-10.6899
▁textile	-10.6901
▁politics	-10.6903
▁scheme	-10.6905
▁places	-10.6913
▁operational	-10.6914
▁space	-10.6916
▁security.	-10.6919
▁semblent	-10.6921
▁ferme	-10.6921
▁Consumer	-10.6923
▁claires	-10.6924
▁remarks	-10.693
▁proceed	-10.6934
terinstitutional	-10.6941
▁tâches	-10.6942
▁largely	-10.695
▁largest	-10.6954
▁rend	-10.6959
▁stronger	-10.696
▁élevés	-10.6966
▁raisonnable	-10.6966
▁attention.	-10.6971
le	-10.6972
▁touche	-10.6973
▁hors	-10.6973
▁material	-10.6976
▁considéré	-10.6987
▁happens	-10.6989
▁sites	-10.6991
▁urgently	-10.6995
▁operators	-10.7005
▁introduit	-10.7007
▁insist	-10.7012
▁matière.	-10.7016
▁gérer	-10.7018
▁majeure	-10.7021
▁février	-10.7022
▁tiers.	-10.7024
▁d'y	-10.7026
▁Organisation	-10.703
▁l'origine	-10.7034
▁ago.	-10.7038
▁announced	-10.7038
▁precise	-10.7041
▁finding	-10.7041
▁front	-10.7055
▁énergies	-10.7056
▁determined	-10.706
▁visite	-10.7062
▁negotiations.	-10.7063
▁prévoir	-10.7069
▁diseases	-10.707
▁marge	-10.7074
▁2007,	-10.7076
▁d'Amsterdam	-10.7084
▁Pays-Bas	-10.7084
▁expliquer	-10.7086
▁sept	-10.7087
▁Group,	-10.7087
▁Rome	-10.7095
▁jobs.	-10.7096
▁règlement.	-10.7099
▁torture	-10.7101
▁fais	-10.7106
▁importance.	-10.7112
▁importations	-10.7115
▁arriver	-10.7116
▁premiers	-10.7121
▁considérons	-10.7123
▁suppose	-10.7127
▁menées	-10.713
▁noted	-10.713
▁homme	-10.7131
▁insurance	-10.7132
▁temps.	-10.7134
▁February	-10.7136
▁Instead	-10.7139
▁améliorations	-10.7142
▁livre	-10.7149
▁stratégies	-10.7151
▁parties.	-10.7154
▁Employment	-10.7155
▁dependent	-10.7157
▁considérables	-10.7159
▁ressortissants	-10.7167
▁described	-10.7168
▁aurions	-10.7168
▁CAP	-10.7178
▁reconnu	-10.7182
▁commencé	-10.7186
▁fuel	-10.7199
▁brings	-10.7199
▁ressort	-10.7201
▁innovative	-10.7204
▁liée	-10.7205
▁perfectly	-10.7205
▁tous.	-10.7206
▁globalisation	-10.7207
▁observations	-10.7217
▁D'un	-10.7217
▁Constitutional	-10.7223
▁irlandais	-10.7223
▁laisse	-10.7226
▁diminution	-10.7226
▁restructuration	-10.7229
▁debating	-10.7231
▁exclusion	-10.7236
▁industrielle	-10.7243
▁condemn	-10.7257
▁Dur	-10.7257
▁d'adhésion	-10.726
▁amending	-10.7269
▁India	-10.7275
▁kept	-10.7277
▁répète	-10.7281
▁approach.	-10.7285
▁confirmed	-10.7288
▁villes	-10.729
▁L'UE	-10.7292
▁Austria	-10.7294
▁farming	-10.7295
▁signé	-10.7296
▁perdu	-10.7297
▁scale	-10.7297
▁travaillent	-10.7298
▁bientôt	-10.7298
▁incombe	-10.7303
7	-10.7304
▁universal	-10.7307
▁pêche.	-10.7309
▁seven	-10.7309
▁communs	-10.731
▁ONG	-10.7316
▁studies	-10.7319
▁activement	-10.7323
▁communautaire,	-10.7323
▁sincèrement	-10.7324
▁Protection	-10.7327
▁hands	-10.7329
▁coordinated	-10.7335
▁ajoutée	-10.7337
▁d'avis	-10.7361
▁resolved	-10.7363
▁généralement	-10.7367
▁latest	-10.7369
▁présents	-10.737
▁represented	-10.7371
▁menée	-10.7374
▁define	-10.7378
▁transposition	-10.7379
▁d'utiliser	-10.7379
▁denrées	-10.7381
▁tool	-10.7382
▁visent	-10.7388
▁dangers	-10.739
▁l'Organisation	-10.7392
▁existent	-10.7394
▁conseil	-10.7395
▁2008,	-10.7395
▁waiting	-10.7395
▁sortir	-10.7395
▁abuse	-10.7397
▁viennent	-10.7403
▁l'existence	-10.7405
▁genuinely	-10.7406
▁forward.	-10.7407
▁Commission'	-10.7409
▁possibles	-10.7412
▁USA	-10.7416
▁clauses	-10.742
▁centaines	-10.7423
▁codecision	-10.7425
▁conséquence,	-10.7435
▁transport,	-10.7437
4	-10.7439
▁acknowledge	-10.744
▁agenda.	-10.7446
▁examples	-10.7447
▁2007.	-10.7448
▁erreur	-10.7452
▁Fisheries	-10.7454
▁réagir	-10.7454
▁property	-10.7458
▁codécision	-10.7463
▁l’aide	-10.7465
▁passengers	-10.7465
▁régler	-10.7467
▁proved	-10.7468
▁déficit	-10.7475
▁garde	-10.748
▁offered	-10.7482
▁adéquate	-10.7483
▁consultations	-10.7485
▁santé.	-10.7486
▁enfin,	-10.749
▁assess	-10.7491
▁Croatia	-10.7492
▁women.	-10.7492
▁Irlande	-10.7492
▁confusion	-10.7497
▁actively	-10.7504
▁NGOs	-10.7506
▁reconnaît	-10.7506
▁conduit	-10.7507
▁autrement	-10.7509
▁repose	-10.7511
▁l'an	-10.7518
▁baisse	-10.752
▁performance	-10.7522
▁commune,	-10.7523
▁holding	-10.7528
▁est-il	-10.753
▁rules.	-10.7538
▁careful	-10.7542
▁contradiction	-10.7545
▁Alliance	-10.7546
▁prête	-10.7547
▁naturelles	-10.7548
▁souveraineté	-10.7549
▁accroître	-10.755
▁re	-10.7551
▁provenance	-10.7557
2	-10.756
▁fishermen	-10.7565
▁felt	-10.7569
▁believes	-10.7572
▁d'atteindre	-10.7578
▁signature	-10.7581
▁détails	-10.7581
▁ongoing	-10.7584
▁qu'a	-10.7586
▁l'établissement	-10.7587
▁répercussions	-10.7588
▁d'argent	-10.7594
▁blanc	-10.7594
▁invest	-10.7596
▁qualified	-10.7599
▁protected	-10.76
▁cohérente	-10.7602
▁life.	-10.7611
▁PAC	-10.7614
▁proposals.	-10.7616
▁Assembly	-10.7621
▁durable.	-10.7621
▁comprend	-10.7625
▁extra	-10.7627
▁résolution.	-10.763
▁disposent	-10.7632
▁information.	-10.7633
▁viable	-10.7637
▁compatible	-10.7638
▁j'en	-10.7641
▁briefly	-10.7644
▁leader	-10.7645
▁medical	-10.765
▁tchèque	-10.7654
▁pouvez	-10.7668
▁politically	-10.7668
▁ambitions	-10.768
▁vivement	-10.7683
▁2010,	-10.7689
▁organisé	-10.7691
▁united	-10.7691
▁récente	-10.7692
▁transfrontalier	-10.7694
▁composition	-10.7694
▁significantly	-10.7698
▁l'époque	-10.7704
▁Hungarian	-10.7705
▁man	-10.7709
▁saluer	-10.7709
▁published	-10.7713
▁seeing	-10.7724
3	-10.7724
▁provenant	-10.7725
▁tellement	-10.7731
▁Doha	-10.7733
▁barriers	-10.7736
▁ensemble.	-10.774
▁image	-10.774
▁régionales	-10.7744
▁evening	-10.7744
▁répéter	-10.7746
▁préalable	-10.7749
▁strategy.	-10.7751
▁choose	-10.7752
▁aid.	-10.7753
▁abordé	-10.7756
▁apporte	-10.7758
▁basis.	-10.7759
▁referring	-10.7759
▁Zimbabwe	-10.7762
▁adhésion	-10.7764
▁shadow	-10.7766
▁formulation	-10.7766
▁publicité	-10.777
▁dignity	-10.7773
▁perte	-10.7774
▁migrants	-10.7775
▁degré	-10.7776
▁Parliament’s	-10.7777
▁oppose	-10.7778
▁problèmes.	-10.7778
▁Latin	-10.7781
▁driving	-10.7781
▁valuable	-10.7782
▁mois.	-10.7785
▁resulting	-10.779
▁electricity	-10.7791
▁board	-10.7799
▁l'Irlande	-10.7799
▁extérieures	-10.7804
▁basée	-10.7805
▁obligatoire	-10.781
▁nationaux.	-10.7812
▁suggestion	-10.7813
▁justified	-10.7815
▁soyons	-10.7818
▁Portugal,	-10.7822
▁socialistes	-10.7825
▁White	-10.7829
▁reprendre	-10.7834
▁production.	-10.7835
▁accounts	-10.7835
▁Last	-10.7836
▁êtres	-10.7841
▁Report	-10.7844
▁adopte	-10.7844
▁primary	-10.7847
▁cela.	-10.7847
▁stabilisation	-10.7849
▁3,	-10.785
▁conforme	-10.785
▁siècle	-10.7853
▁l’accord	-10.7857
ntergovernmental	-10.7859
▁moyenne	-10.786
▁Solana	-10.7862
▁fixé	-10.7865
▁leads	-10.7866
▁wait	-10.7866
▁commerciale	-10.787
▁2004.	-10.7872
▁Food	-10.7873
▁remove	-10.7877
▁pilier	-10.7878
▁réduit	-10.7885
▁avancées	-10.7888
▁More	-10.7888
▁penalty	-10.7888
▁undertaken	-10.7889
▁dangereux	-10.7895
▁partenaire	-10.7895
▁legally	-10.7896
▁Dublin	-10.7897
▁strategies	-10.7898
▁Quand	-10.79
▁ambition	-10.7901
▁Rapport	-10.7904
▁suffer	-10.7904
▁l'impression	-10.7908
▁absolute	-10.7912
▁brief	-10.7914
▁People	-10.7915
▁bout	-10.7916
▁étroitement	-10.7919
▁comporte	-10.7922
▁conserver	-10.7922
▁near	-10.7925
▁(vote)	-10.7926
▁Comité	-10.7926
▁Once	-10.7928
▁euro.	-10.793
▁devient	-10.794
▁majeur	-10.7943
▁daily	-10.7944
▁importante.	-10.7944
▁année.	-10.7946
▁coherent	-10.7949
▁fine	-10.7951
▁2008.	-10.7955
▁introduire	-10.7962
▁résolution,	-10.7964
▁Before	-10.7966
▁changing	-10.7968
▁works	-10.7973
▁90	-10.7974
▁region,	-10.7983
▁mondiale.	-10.7983
environnementaux	-10.7988
▁amendments.	-10.7993
▁remettre	-10.7997
▁identify	-10.7998
▁française	-10.8
▁pratiquement	-10.8001
▁n°	-10.8001
▁Northern	-10.8002
▁présentation	-10.8004
▁n'ait	-10.8008
▁industrie	-10.8008
▁capitaux	-10.8009
▁comportement	-10.8014
▁playing	-10.8015
▁Internal	-10.8018
▁imports	-10.802
▁saw	-10.8021
▁enfants.	-10.8024
▁paroles	-10.8029
▁someone	-10.8029
▁engage	-10.8031
▁neighbouring	-10.8043
▁regular	-10.8045
▁whole.	-10.805
▁postes	-10.8053
▁becomes	-10.8053
environnementale	-10.8056
▁initiative.	-10.8059
▁prévues	-10.8059
▁unfair	-10.8063
▁claim	-10.8063
▁agit	-10.8064
▁PSE	-10.8064
▁organisée	-10.8071
▁authorities.	-10.8071
▁efficace.	-10.8074
▁duquel	-10.8078
▁Thursday	-10.8078
▁exportations	-10.8078
▁nécessaires.	-10.808
▁prospérité	-10.8081
▁assumer	-10.8081
▁ville	-10.8083
▁bons	-10.8084
▁constitute	-10.81
▁derrière	-10.8109
▁grant	-10.8114
▁connaissons	-10.8117
▁ferroviaire	-10.8123
▁reflète	-10.8126
▁understood	-10.8126
▁l'interdiction	-10.8132
▁sécurité,	-10.8138
▁essayer	-10.8143
▁intérieur.	-10.8145
▁Cooperation	-10.8149
▁details	-10.8151
▁entend	-10.8152
▁tenue	-10.8154
▁considers	-10.8158
▁inclure	-10.8159
▁accordée	-10.8164
▁mouvement	-10.8168
▁d'agir	-10.817
▁Rights,	-10.8172
▁liens	-10.8186
▁conception	-10.8194
▁stock	-10.8205
▁objectives.	-10.8208
▁VAT	-10.8208
▁américain	-10.821
honorable	-10.821
▁century	-10.8213
▁enjoy	-10.8214
▁actuelle.	-10.8214
▁p.m.	-10.8216
▁markets.	-10.8218
▁duties	-10.822
▁wider	-10.8221
▁Russie.	-10.8223
▁addressing	-10.8229
▁privé	-10.823
▁spécial	-10.823
▁Commissioner.	-10.8232
▁Palestine	-10.8233
▁Cuba	-10.8249
▁dumping	-10.825
▁non-	-10.825
▁l'ONU	-10.8254
▁Kosovo.	-10.8258
▁brièvement	-10.8259
▁highlighted	-10.8261
▁mutuelle	-10.8262
▁Méditerranée	-10.8263
▁formal	-10.8267
▁listen	-10.8269
▁entier	-10.8278
▁concentrate	-10.8278
▁réside	-10.8286
▁room	-10.8287
▁Regional	-10.8293
▁sufficiently	-10.8293
▁crédit	-10.8294
▁Patten	-10.8298
▁l'Agence	-10.8299
▁Quel	-10.8299
▁S'il	-10.83
▁urban	-10.8305
d'investissement	-10.8305
▁together.	-10.8308
▁pleine	-10.8313
▁legislation,	-10.8318
▁démarche	-10.8321
▁possibly	-10.8323
▁Non	-10.8325
▁routes	-10.8326
▁accessible	-10.8328
▁obliged	-10.8328
▁prêt	-10.8329
▁meant	-10.8332
▁External	-10.8333
▁Without	-10.8333
▁Donc	-10.8334
▁thanking	-10.8336
▁futures	-10.8337
▁lié	-10.8338
▁Are	-10.8338
▁proceedings	-10.8339
▁permettront	-10.8342
▁expectations	-10.8342
▁pêche,	-10.8356
▁intégrée	-10.8358
▁transitional	-10.8362
▁exercer	-10.8363
▁extensive	-10.8368
▁susceptibles	-10.8371
▁flux	-10.8374
▁function	-10.8378
▁determination	-10.8381
▁Austrian	-10.8383
▁voit	-10.8383
▁preparation	-10.8387
▁Can	-10.839
▁directe	-10.8393
▁Consequently,	-10.8394
▁sets	-10.8397
▁moreover	-10.8398
▁correspond	-10.8399
▁Moyen-Orient	-10.842
▁problem,	-10.8421
▁assist	-10.8423
▁milk	-10.8426
▁necessary.	-10.8427
▁caractéristique	-10.8435
▁partly	-10.8445
▁appropriée	-10.8446
▁approprié	-10.8447
▁utilisées	-10.8448
▁mené	-10.8449
▁standards.	-10.8459
▁multilateral	-10.8464
▁participants	-10.8469
▁apart	-10.8478
▁honour	-10.848
▁counter	-10.8481
▁Thus	-10.8482
▁advance	-10.8484
▁Ashton	-10.8487
▁affects	-10.8493
8	-10.8494
▁succeed	-10.8496
▁National	-10.8497
▁britanniques	-10.8502
▁orientale	-10.8503
▁chiffre	-10.8504
▁choisi	-10.8508
▁choisir	-10.851
▁observe	-10.8511
▁bénéfices	-10.8513
▁élargissement	-10.8514
▁processes	-10.8518
▁informer	-10.8519
▁attempts	-10.8519
▁pillar	-10.852
▁force.	-10.8523
▁destiné	-10.8534
▁exceptions	-10.854
▁paper	-10.854
▁speaker	-10.8555
▁fields	-10.8561
▁agency	-10.8562
▁exemples	-10.8565
▁enquête	-10.8566
▁essentielles	-10.8567
▁observation	-10.8569
▁proche	-10.8574
▁fruits	-10.8578
▁culturel	-10.8579
▁quantité	-10.858
▁State.	-10.8581
▁Treaties	-10.8582
▁suggested	-10.8583
▁habitants	-10.8585
▁gros	-10.8586
▁démocratique.	-10.8591
▁privée	-10.8592
▁applications	-10.8593
▁greatly	-10.8595
▁uniform	-10.8597
▁contribuera	-10.8598
▁(SK)	-10.8599
▁(CS)	-10.8603
▁intéressant	-10.8608
▁publication	-10.861
▁section	-10.8613
▁carrying	-10.8613
▁tête	-10.8614
▁libéraux	-10.8615
▁Ombudsman	-10.8618
▁part.	-10.8621
▁qu’elles	-10.8622
▁2006.	-10.8629
▁Having	-10.8632
▁mobilisation	-10.8638
▁equipment	-10.8639
▁domaine,	-10.865
▁paix.	-10.8652
▁demain,	-10.8653
▁somme	-10.8655
▁deliver	-10.8655
gouvernementale	-10.8661
',	-10.8665
▁mettent	-10.8666
▁others.	-10.867
▁Russie,	-10.8671
▁élaborer	-10.8671
▁connaissances	-10.8677
▁guaranteeing	-10.8685
▁frontière	-10.8687
▁tragic	-10.8687
▁l'Afrique	-10.8688
▁usage	-10.8699
▁humain	-10.8702
▁difficulty	-10.8707
▁Grande-Bretagne	-10.8708
▁thèmes	-10.8712
▁health.	-10.8712
▁learning	-10.8713
▁terrorism.	-10.8714
▁Serbia	-10.8715
▁Centre	-10.8716
▁anciens	-10.8716
▁4,	-10.8723
▁détail	-10.8725
▁terre	-10.8727
▁participé	-10.8735
▁satisfaire	-10.8735
▁seeks	-10.8744
▁Verheugen	-10.8745
▁science	-10.8745
▁opérateurs	-10.8746
▁détriment	-10.8756
▁transatlantique	-10.8756
▁West	-10.8759
▁Afrique	-10.876
▁libre-échange	-10.876
▁qu'aucun	-10.8763
▁realistic	-10.8765
▁competent	-10.8766
▁prosperity	-10.8769
▁spite	-10.8771
▁materials	-10.8772
▁J’espère	-10.8775
▁existantes	-10.878
▁indicated	-10.878
▁competition.	-10.8783
▁énergétiques	-10.8785
▁poorest	-10.8785
▁dynamique	-10.8788
▁surely	-10.8794
▁L'ord	-10.8795
▁Common	-10.8799
▁crains	-10.8799
▁35	-10.88
▁déclarer	-10.88
▁donnée	-10.8803
▁television	-10.8803
▁violence.	-10.8803
▁exclusivement	-10.881
▁Danish	-10.8814
▁rejeter	-10.882
▁release	-10.8823
▁catégorie	-10.8827
▁helped	-10.8828
▁links	-10.8829
▁technologique	-10.883
▁regulation.	-10.8831
▁suffered	-10.8833
▁definitely	-10.8834
▁chapitre	-10.8836
▁objections	-10.8839
▁l'examen	-10.8842
▁jusqu’	-10.8845
▁1999.	-10.8845
▁profondément	-10.8847
▁l'exploitation	-10.8847
▁Safety	-10.8848
▁déclare	-10.885
▁signe	-10.8853
▁Schulz	-10.8857
▁negotiation	-10.8857
▁contain	-10.886
▁dossiers	-10.886
▁adapt	-10.8864
▁Belgian	-10.8866
▁l'OTAN	-10.8867
▁example.	-10.8872
▁quota	-10.8873
▁vente	-10.888
▁l’article	-10.8882
▁whereby	-10.8882
▁contrats	-10.8887
▁Union’s	-10.889
▁revenu	-10.8891
▁20%	-10.8891
▁southern	-10.8892
▁truth	-10.8904
▁l'exécution	-10.8907
▁amis	-10.891
▁compulsory	-10.8911
on	-10.8912
▁premièrement	-10.892
▁l’avenir	-10.8923
▁running	-10.8925
▁d'apporter	-10.8926
▁contracts	-10.8926
▁respected	-10.8927
▁answers	-10.8929
▁Sommet	-10.8936
▁locaux	-10.8939
▁unique.	-10.8941
▁avancée	-10.8942
▁diplomatic	-10.8945
▁significative	-10.8946
▁built	-10.895
▁trait	-10.8954
▁quinze	-10.8955
▁respectent	-10.8957
▁examen	-10.8959
▁constaté	-10.8959
▁drug	-10.8962
▁requests	-10.8962
▁échange	-10.8963
▁Subject	-10.897
▁wide	-10.897
▁Democrats)	-10.8974
▁went	-10.8975
▁ignore	-10.8976
▁chosen	-10.8978
▁chercher	-10.8982
▁2005.	-10.8982
▁l’industrie	-10.899
e.	-10.8993
▁strengthened	-10.8993
▁trouvons	-10.8994
▁(Christian	-10.8995
▁d'accès	-10.8995
▁aviation	-10.8999
▁demeure	-10.9005
▁spread	-10.9008
▁satisfied	-10.9008
▁médiateur	-10.9008
▁oui	-10.9009
▁purely	-10.901
▁launched	-10.901
▁enlargement.	-10.9012
▁amended	-10.9013
’.	-10.9021
▁efficacité	-10.9024
▁silence	-10.9026
▁previously	-10.9032
▁excellente	-10.9033
▁nécessite	-10.9034
▁confirmer	-10.9037
▁Qui	-10.9039
▁adoptés	-10.9045
▁disant	-10.9047
▁L'objectif	-10.9049
▁automobile	-10.905
▁J'en	-10.905
▁entière	-10.9052
▁refus	-10.9057
▁parliament	-10.9062
▁soulevé	-10.9063
▁passé,	-10.9064
▁solely	-10.9079
▁qu’en	-10.908
▁significance	-10.9094
▁sorry	-10.9095
▁générales	-10.9098
▁modes	-10.9099
▁convenu	-10.9106
▁coopérer	-10.9106
▁months.	-10.911
▁issued	-10.9111
▁paix,	-10.9115
▁ravi	-10.9115
▁deals	-10.9115
▁administrations	-10.9117
▁terrorisme.	-10.9118
▁l'indépendance	-10.9119
▁Liberal	-10.912
▁transformation	-10.9121
▁convaincre	-10.9124
▁conduire	-10.9124
▁Convention.	-10.9126
▁determine	-10.9127
▁Polish	-10.9129
▁conducted	-10.9129
▁systems.	-10.9131
▁courant	-10.9132
▁chargé	-10.9136
▁véritables	-10.9137
▁deficit	-10.9137
▁concrète	-10.9138
▁Fischler	-10.9144
▁enough.	-10.9146
▁capitale	-10.9149
▁Budget	-10.915
▁a-t-il	-10.915
▁pressions	-10.9152
▁Saddam	-10.9158
▁practice.	-10.9162
▁Will	-10.9162
▁faibles	-10.9163
▁crise.	-10.9163
▁attentes	-10.9164
▁bénéficient	-10.9167
▁l’importance	-10.9168
▁Santer	-10.917
▁investigation	-10.9175
▁concurrence.	-10.9176
▁Where	-10.9178
▁autres.	-10.9179
▁remplacer	-10.9179
▁taille	-10.9182
▁depend	-10.9182
▁levée	-10.9182
▁restructuring	-10.9183
▁foremost	-10.9184
▁Peut-être	-10.9184
▁huit	-10.9184
▁producing	-10.9184
▁freedom,	-10.9188
▁suivante:	-10.9191
▁themselves.	-10.9191
▁up.	-10.9193
▁meat	-10.9199
▁existants	-10.9202
▁pertes	-10.9203
▁essentially	-10.9204
▁déposés	-10.9207
▁behaviour	-10.9207
▁venir.	-10.9208
▁acting	-10.9209
▁civiles	-10.921
▁day,	-10.921
▁évaluer	-10.9214
▁hundreds	-10.9218
▁made.	-10.9218
▁debated	-10.9222
▁discuté	-10.9226
▁souhait	-10.9228
▁apparaît	-10.9234
▁governing	-10.9235
▁extending	-10.9235
▁climatique.	-10.924
▁Does	-10.924
▁posé	-10.9249
▁l'équilibre	-10.9249
▁Policy,	-10.9252
▁humaines	-10.9252
▁continuera	-10.9254
▁salaires	-10.926
▁school	-10.926
▁proof	-10.9261
▁tomorrow.	-10.9261
▁justification	-10.9262
▁enforcement	-10.9267
▁représentation	-10.927
▁retirer	-10.9272
▁sud	-10.9278
▁deserves	-10.9278
▁règlement,	-10.9279
▁Home	-10.9279
▁enfants,	-10.9281
▁identified	-10.9281
▁vie.	-10.9283
▁welcomed	-10.9283
▁radical	-10.9283
▁écrit	-10.9284
▁définitive	-10.9286
institutionnelle	-10.9287
▁Culture	-10.9291
▁TVA	-10.9296
▁relance	-10.9302
▁(LT	-10.9303
▁fer	-10.9312
▁solide	-10.9314
▁numbers	-10.9315
▁clarification	-10.9315
▁imagine	-10.9316
▁m'	-10.932
▁enhance	-10.9321
▁envisage	-10.933
▁UE	-10.9332
▁mains	-10.9342
▁d'association	-10.9342
9	-10.9345
▁responsibility.	-10.9351
▁Both	-10.9356
▁Growth	-10.9356
▁tenant	-10.9357
▁demain.	-10.9358
0	-10.9359
▁enabling	-10.9362
ce	-10.9363
▁territoires	-10.9368
▁Georgia	-10.9369
▁rejet	-10.9371
m	-10.9372
▁identity	-10.9373
▁eight	-10.9374
▁revoir	-10.9376
▁sustainability	-10.9379
▁Finland	-10.9381
▁Serbie	-10.9384
▁prior	-10.9387
▁télévision	-10.9391
▁E	-10.9392
▁milieu	-10.9394
▁extreme	-10.9396
▁législations	-10.9398
▁said.	-10.9399
▁bit	-10.9408
▁Tel	-10.941
▁heavy	-10.9412
▁distance	-10.9413
▁télécommun	-10.9414
▁speeches	-10.9418
▁(FI	-10.942
▁possibilities	-10.9425
▁l'opposition	-10.9425
▁électeurs	-10.9427
▁renforcée	-10.9429
▁interests.	-10.943
▁gouvernementale	-10.9431
▁discipline	-10.9433
▁discutons	-10.9435
▁sum	-10.944
▁consacré	-10.944
▁voitures	-10.9445
▁children.	-10.9445
▁Stockholm	-10.9447
▁recall	-10.9451
▁remaining	-10.9453
▁gap	-10.9454
▁l'Allemagne	-10.9455
▁head	-10.9455
▁compréhension	-10.9456
▁worst	-10.9456
▁intégration	-10.9461
it	-10.9464
▁cooperation,	-10.9473
▁demanding	-10.9479
▁chairman	-10.9479
▁stands	-10.9483
▁l'activité	-10.9485
▁connaissent	-10.9485
▁Barcelona	-10.9493
▁cars	-10.9493
▁willingness	-10.95
▁healthy	-10.9501
▁refers	-10.9501
▁Asia	-10.9501
▁commence	-10.9501
▁progress.	-10.9502
▁surmonter	-10.9504
▁aériennes	-10.9508
▁intégrer	-10.9508
▁Toutes	-10.9509
▁l’adhésion	-10.951
▁core	-10.9511
▁interdiction	-10.9512
▁publique.	-10.9517
▁disposal	-10.9518
▁spend	-10.9522
▁interpretation	-10.9523
▁scène	-10.9524
▁débattons	-10.9524
▁bilan	-10.9524
▁focused	-10.9524
▁geographical	-10.9525
▁régulièrement	-10.9529
▁répondu	-10.9534
▁hearing	-10.9534
▁depends	-10.9537
▁do.	-10.9542
▁1.	-10.9542
▁problématique	-10.9545
▁prononcer	-10.9546
▁respect.	-10.9547
▁paying	-10.9548
▁stressed	-10.9548
▁news	-10.955
▁granting	-10.955
▁exports	-10.9553
▁Bosnia	-10.9554
▁exemple.	-10.9557
▁replace	-10.9557
▁nationales.	-10.9558
▁négocier	-10.9559
▁Finlande	-10.956
▁saisir	-10.9562
▁effectué	-10.9567
▁resources,	-10.9568
▁Brok	-10.9571
▁Turquie.	-10.9576
▁opened	-10.9582
▁consumers.	-10.9583
▁plant	-10.9595
▁s'assurer	-10.9596
▁involved.	-10.9596
▁internes	-10.9596
▁clarté	-10.9597
purement	-10.96
tergovernmental	-10.9604
▁hauteur	-10.9604
▁crée	-10.9604
▁présentent	-10.9605
▁harmful	-10.9607
▁satisfactory	-10.9613
▁Tampere	-10.9613
▁menaces	-10.9622
▁camps	-10.9625
▁suitable	-10.9625
▁facts	-10.9626
▁venu	-10.9627
▁prime	-10.9629
▁dommages	-10.9631
▁vérifier	-10.9631
▁annoncé	-10.9632
▁motifs	-10.9633
▁Under	-10.9633
▁Just	-10.9639
▁Protocol	-10.9641
▁rappelé	-10.965
▁rédigé	-10.9655
▁riches	-10.9657
▁Nor	-10.9659
▁marketing	-10.966
▁intérieures	-10.9661
▁prisonniers	-10.9663
▁clarifier	-10.9666
▁strictes	-10.9667
▁savent	-10.9668
▁indique	-10.967
▁affirmer	-10.967
▁declared	-10.9673
▁destinée	-10.9674
▁démontré	-10.9675
▁institutionnel	-10.9678
▁Presidency.	-10.9685
▁erreurs	-10.9686
▁patrimoine	-10.9686
▁feeling	-10.969
▁contributed	-10.9691
▁sugar	-10.9692
▁mondial.	-10.9692
▁appartient	-10.9699
▁entered	-10.9706
▁civils	-10.9712
▁disasters	-10.9715
▁énergie	-10.9716
▁reflected	-10.9721
▁nettement	-10.9725
▁agents	-10.973
▁d'intégration	-10.9735
▁Bosnie	-10.9735
▁formulées	-10.9742
▁successfully	-10.9742
▁d’action	-10.9744
▁indépendants	-10.9746
▁intellectual	-10.9749
▁carbon	-10.9749
▁Certes	-10.9751
▁sert	-10.9752
▁poste	-10.9752
▁fonctionner	-10.9752
▁Roms	-10.9753
▁Christian	-10.9759
▁prenne	-10.9762
▁suspension	-10.9763
▁check	-10.9766
▁President.	-10.9768
▁thorough	-10.9777
▁passenger	-10.9777
▁Turquie,	-10.9777
▁agreements.	-10.9779
▁increases	-10.978
▁worse	-10.9783
▁succeeded	-10.9785
▁experienced	-10.9786
▁W	-10.9787
▁pacifique	-10.9791
▁d’euros	-10.9796
▁deep	-10.9801
▁products,	-10.9803
▁2003.	-10.9804
▁adresser	-10.9806
▁historical	-10.981
▁c'était	-10.981
▁biggest	-10.981
▁presenting	-10.9813
▁affecting	-10.9816
▁launch	-10.9817
▁supposed	-10.9821
▁1992	-10.9832
▁attendent	-10.9834
▁hopes	-10.9834
▁commis	-10.9839
▁i.e.	-10.9842
▁jeudi	-10.9843
▁favourable	-10.9849
▁concessions	-10.9851
▁timetable	-10.9852
▁rich	-10.9855
▁l'intervention	-10.9858
▁s'agissait	-10.9874
▁eastern	-10.9874
▁engagés	-10.9878
▁dirais	-10.988
▁suivant	-10.9882
▁corps	-10.9883
▁tensions	-10.9886
▁MM.	-10.9886
▁plants	-10.9889
▁Croatie	-10.989
▁recourir	-10.9896
▁easily	-10.9896
▁remerciements	-10.9899
▁faute	-10.9899
▁funds.	-10.9901
▁BSE	-10.9903
▁rapporteur's	-10.9909
▁prie	-10.9914
▁constitutes	-10.9916
▁reliable	-10.9918
▁accomplis	-10.992
▁Rural	-10.9923
▁utilisée	-10.9924
▁population,	-10.9926
▁remplir	-10.9932
▁tools	-10.9932
▁affirmé	-10.9934
▁sovereignty	-10.9935
▁possède	-10.9936
▁ici.	-10.9938
▁whereas	-10.9941
▁regarded	-10.9943
▁green	-10.9945
▁skills	-10.9946
▁futurs	-10.9949
▁l'autorité	-10.995
▁vague	-10.995
▁outil	-10.9952
▁l’État	-10.9952
▁prospects	-10.9952
▁espérer	-10.9955
▁prisoners	-10.9957
▁topic	-10.9958
▁écologique	-10.9963
▁reiterate	-10.9964
▁background	-10.9965
▁powerful	-10.9966
▁wine	-10.9967
▁Hungary	-10.9967
▁privés	-10.9969
▁Russia,	-10.9972
▁approuver	-10.9975
▁reaching	-10.9978
▁l’Europe.	-10.9984
▁(La	-10.9987
▁Allemagne	-10.9989
▁complicated	-10.9995
▁openness	-10.9995
▁disent	-10.9999
▁d'appliquer	-10.9999
▁Parliamentary	-11.0004
▁professionnels	-11.0005
▁légitimité	-11.0006
▁Belgium	-11.0006
▁400	-11.0007
▁satisfait	-11.0007
▁refuser	-11.0011
▁précédente	-11.0013
▁l’élargissement	-11.0015
▁électronique	-11.0017
▁régionaux	-11.0018
▁facilement	-11.0024
▁retraite	-11.0033
▁ratified	-11.0039
▁considérée	-11.0039
▁marque	-11.0039
▁vessels	-11.0045
▁football	-11.0046
▁souci	-11.0051
▁retain	-11.0055
▁opposite	-11.0055
▁méritent	-11.0056
▁promised	-11.0056
▁devenu	-11.0057
▁liberté,	-11.0058
▁utmost	-11.0059
▁terrorism,	-11.006
▁gauche	-11.0063
▁rencontre	-11.0063
▁Association	-11.0066
▁safety.	-11.0067
▁5,	-11.0068
▁prétexte	-11.007
▁PIB	-11.0072
▁difficulté	-11.0077
▁illégale	-11.0078
▁doubts	-11.008
▁deeply	-11.0087
▁l'union	-11.0087
▁demandent	-11.0087
▁site	-11.0092
▁greenhouse	-11.0092
▁général.	-11.0093
▁things,	-11.0094
▁modified	-11.0095
▁advantages	-11.0096
▁sake	-11.0098
▁société.	-11.0103
▁mines	-11.0105
▁committee.	-11.0112
▁right.	-11.0115
▁consequence	-11.0115
▁proud	-11.0115
▁lire	-11.0118
▁2.	-11.0119
▁abus	-11.0119
▁chimiques	-11.0125
▁voudrions	-11.013
▁supplementary	-11.013
▁incorporated	-11.0131
▁marine	-11.0133
▁claims	-11.0136
▁country's	-11.0136
▁pire	-11.0138
▁l’heure	-11.0148
▁Britain	-11.015
▁d'examiner	-11.0152
▁mettant	-11.0158
▁medicines	-11.016
▁soumise	-11.0161
▁convaincue	-11.0162
▁structurelles	-11.0162
▁dépendance	-11.0164
▁époque	-11.0164
▁Partnership	-11.0171
▁tenus	-11.0173
▁Constitution.	-11.0173
▁fixés	-11.0174
▁Joint	-11.0175
▁intensive	-11.0177
▁lacunes	-11.0177
▁tangible	-11.0181
▁navigation	-11.0183
▁forêts	-11.0189
▁instamment	-11.0191
▁chose.	-11.0199
▁Galileo	-11.0199
▁procès	-11.0206
▁élaboré	-11.0214
▁titre,	-11.0215
▁Russia.	-11.0222
▁generation	-11.0223
▁restore	-11.0229
▁complet	-11.0229
▁garantissant	-11.0236
▁présentés	-11.0237
▁GDP	-11.0239
▁vice-président	-11.0239
▁Netherlands	-11.024
▁dialogue.	-11.0241
▁clairs	-11.0241
administration	-11.0245
▁justifier	-11.0246
▁d’avoir	-11.0247
▁russe	-11.0248
▁entraîne	-11.0255
▁1990	-11.0256
▁Hamas	-11.0261
▁2002.	-11.0262
▁dynamic	-11.0264
▁transmission	-11.0264
▁l’UE.	-11.0264
▁sales	-11.0266
▁women's	-11.0269
▁minorité	-11.0269
▁pétitions	-11.0271
▁2013	-11.0272
▁opportun	-11.0282
▁engagée	-11.0282
▁l'Ukraine	-11.0283
▁concrets	-11.0284
▁cuts	-11.0285
▁applicant	-11.0287
▁limitation	-11.0288
▁atteinte	-11.029
▁texts	-11.0291
▁secteur.	-11.0292
▁motions	-11.0292
▁l'expérience	-11.0295
▁chaleureusement	-11.0297
▁expériences	-11.0299
▁term.	-11.0302
▁rapporteure	-11.0303
▁terrorisme,	-11.0307
▁completed	-11.0309
▁matters.	-11.0313
▁passé.	-11.0314
▁Corée	-11.0315
▁jusqu'	-11.0324
▁subject.	-11.0324
▁Géorgie	-11.0325
▁dispute	-11.0327
▁save	-11.0327
▁smaller	-11.0327
▁chaîne	-11.0328
▁pouvant	-11.0331
▁size	-11.0335
▁threats	-11.0338
▁groups,	-11.0344
▁l'avez	-11.0345
▁eliminate	-11.0347
▁EU’s	-11.0359
▁mobile	-11.0363
▁groups.	-11.0368
▁tragedy	-11.037
▁Bush	-11.037
▁raising	-11.037
▁users	-11.0372
▁rurales	-11.0373
▁accordé	-11.0373
▁success.	-11.0373
▁l’année	-11.0374
▁piece	-11.0379
▁retrait	-11.038
▁preuves	-11.0383
▁simplifier	-11.0383
▁prochains	-11.0383
▁lay	-11.0383
▁emphasised	-11.0384
▁vingt	-11.0386
▁extraordinaire	-11.0387
▁âgées	-11.0389
▁répond	-11.0389
▁leaving	-11.0389
▁commit	-11.0392
▁(Parliament	-11.0393
▁unanimously	-11.0398
▁contribuent	-11.0398
▁reaction	-11.0398
▁budgétaire,	-11.0404
▁beings	-11.041
▁l'excellent	-11.041
▁schemes	-11.0415
▁l'harmonisation	-11.0422
▁manifestement	-11.0422
▁recettes	-11.0428
▁juridique.	-11.0431
▁bureaucratie	-11.0433
▁Civil	-11.0438
▁maintained	-11.044
▁l'unanimité	-11.0442
▁species	-11.0449
▁violent	-11.0453
▁heading	-11.0454
▁vast	-11.0455
▁pensent	-11.0456
▁authorities,	-11.0463
▁l’économie	-11.0464
▁organise	-11.0466
▁applicables	-11.0467
▁allemande	-11.0469
▁seuil	-11.047
▁himself	-11.0471
▁prospect	-11.0473
▁voulais	-11.0478
▁voisinage	-11.0483
▁advertising	-11.0483
▁ordinary	-11.0484
▁négociations.	-11.0488
▁peur	-11.0501
▁racisme	-11.0504
▁équilibré	-11.0506
▁postal	-11.0507
▁contribuables	-11.0509
▁showing	-11.0511
▁élus	-11.0512
▁visible	-11.0521
▁gagner	-11.0523
▁Europe’s	-11.0523
▁indiquer	-11.053
▁electoral	-11.0536
▁démontre	-11.0536
▁Industry	-11.0541
▁portent	-11.0541
▁considérations	-11.0543
▁Over	-11.0547
▁Chaque	-11.0547
▁2020.	-11.0549
▁creates	-11.0552
▁programmes,	-11.0557
▁purposes	-11.0557
▁crime.	-11.0562
▁équilibrée	-11.0562
▁repris	-11.0563
▁allocation	-11.0567
rait	-11.0568
▁Procedure	-11.0568
▁neighbours	-11.0568
▁l’égalité	-11.057
▁den	-11.057
▁strength	-11.0571
▁considerably	-11.0575
▁rapidly	-11.0577
▁personnes.	-11.058
▁achievement	-11.058
▁Hongrie	-11.0581
▁von	-11.0581
▁clarity	-11.0587
▁cite	-11.0587
▁l’égard	-11.0588
▁qu'avec	-11.0588
▁armed	-11.0588
▁pencher	-11.059
▁necessarily	-11.0593
▁negotiated	-11.0593
▁croissante	-11.0597
▁instances	-11.0605
▁afraid	-11.0609
▁Quoi	-11.0609
▁money.	-11.0613
▁pesticides	-11.0615
▁abolition	-11.0619
▁Députés	-11.0621
▁import	-11.0627
▁facilities	-11.0628
▁Well	-11.0633
▁rejeté	-11.0633
▁voies	-11.0635
▁Telle	-11.0639
▁results.	-11.0641
▁Son	-11.0645
▁accord.	-11.0645
▁Follow	-11.0645
▁merci	-11.0647
▁investir	-11.0648
▁borders.	-11.0649
▁manufacturers	-11.0651
▁droit.	-11.0652
▁écoles	-11.0656
▁importantly	-11.0656
▁advice	-11.0657
▁surprised	-11.0658
▁engager	-11.066
▁exiger	-11.0663
▁Grâce	-11.0663
▁concrètement	-11.0664
▁drogue	-11.0666
▁évoquer	-11.0667
▁Belgique	-11.0669
▁inadequate	-11.0669
▁d'aider	-11.0671
▁continent.	-11.0675
▁reflects	-11.0677
▁players	-11.0678
▁réductions	-11.068
▁légitime	-11.0681
▁fallait	-11.0682
▁d'écus	-11.0686
▁clés	-11.0686
▁aujourd'	-11.0686
▁sought	-11.0687
▁recommande	-11.0687
▁d’entre	-11.0688
▁encouraged	-11.069
▁admit	-11.0697
▁d'augmenter	-11.0698
▁view.	-11.0699
▁d'amendements	-11.0703
▁puisqu'il	-11.0704
▁inflation	-11.0705
▁targeted	-11.0706
▁exprimées	-11.0706
▁messages	-11.0706
▁needed.	-11.0709
▁siège	-11.0715
▁stratégiques	-11.0716
▁world's	-11.0717
▁leçons	-11.0718
▁destination	-11.0722
▁justify	-11.0724
▁Déclaration	-11.0727
▁opinion.	-11.0728
▁drafting	-11.0729
▁welcomes	-11.0734
▁feed	-11.0734
▁pass	-11.0738
▁offering	-11.0742
▁representation	-11.0749
▁break	-11.075
▁d'encourager	-11.0751
▁repeatedly	-11.0751
▁unnecessary	-11.0752
▁exceptional	-11.0756
▁étions	-11.0756
▁fonctions	-11.076
▁voyons	-11.0761
▁beef	-11.0763
▁energy.	-11.0765
▁discussion.	-11.0767
▁analyses	-11.0767
▁unies,	-11.077
▁savings	-11.0772
▁fondamentaux.	-11.0779
▁nationaux,	-11.0783
▁hui	-11.0785
▁expressing	-11.0785
▁guère	-11.0786
▁prenons	-11.0792
▁trade.	-11.0794
▁campagnes	-11.0795
▁présentées	-11.0799
▁field.	-11.08
▁fil	-11.0803
▁nearly	-11.0804
▁fairly	-11.0807
▁tenté	-11.081
▁sûreté	-11.081
▁schools	-11.0811
▁l'exclusion	-11.0822
▁appris	-11.0827
▁Congo	-11.0828
▁aside	-11.083
▁s'applique	-11.0833
▁quelconque	-11.0833
▁l’objet	-11.0833
▁phenomenon	-11.0834
▁l’un	-11.0836
▁correctly	-11.0837
▁consacrer	-11.0839
▁initiale	-11.084
▁carte	-11.0842
▁stimuler	-11.0845
▁orientation	-11.0848
▁net	-11.0856
▁past.	-11.086
▁observer	-11.0864
▁volontaire	-11.0867
▁ouvrir	-11.087
▁amend	-11.0875
▁dollars	-11.0875
-il	-11.0876
▁feront	-11.0878
▁couvrir	-11.0878
▁broader	-11.0883
▁waters	-11.0885
▁underline	-11.0886
▁cities	-11.0888
▁positives	-11.0891
▁bearing	-11.0895
▁Arab	-11.0895
▁raison,	-11.09
▁défaut	-11.0902
▁turned	-11.0902
▁couple	-11.0904
▁retire	-11.0906
▁friends	-11.0907
▁l'est	-11.0914
▁appliquées	-11.0914
▁tente	-11.0914
▁allemand	-11.0915
▁Therefore	-11.0916
▁existant	-11.0916
▁exclusive	-11.0919
▁other.	-11.0922
▁L’Union	-11.0922
▁appelé	-11.0924
▁educational	-11.0926
▁indication	-11.0934
▁decision.	-11.0938
▁activities.	-11.0953
▁Presidents	-11.0956
▁resulted	-11.0957
▁50%	-11.0958
▁américaine	-11.0964
▁relate	-11.0964
▁Denmark	-11.0965
▁progressivement	-11.0967
▁obtained	-11.0968
▁hardly	-11.0972
▁combined	-11.0972
▁voient	-11.0975
▁susceptible	-11.098
▁critère	-11.0982
▁Time	-11.0991
▁confirmé	-11.0996
▁negotiate	-11.0996
▁Free	-11.0998
▁intervene	-11.0999
▁coordonner	-11.1002
▁développements	-11.1006
▁island	-11.1008
▁d'égalité	-11.1009
▁suivante	-11.1011
▁environmentally	-11.1016
▁boost	-11.1022
▁fewer	-11.1022
▁accorde	-11.1023
▁budgétaire.	-11.1026
▁mistake	-11.1027
▁génération	-11.1028
▁V	-11.1028
▁ECB	-11.1028
▁catégories	-11.1033
able	-11.1035
▁wealth	-11.1038
▁below	-11.104
▁clear.	-11.1045
▁unies.	-11.1051
▁considérant	-11.1051
▁worrying	-11.1051
▁l'instant	-11.1052
▁d'évaluation	-11.1058
▁hit	-11.1064
▁label	-11.1065
▁preserve	-11.1067
▁profonde	-11.107
▁d'introduire	-11.1073
▁nationals	-11.1074
▁unacceptable.	-11.1074
▁l’énergie	-11.1075
▁l'énergie,	-11.1075
▁undermine	-11.1075
▁competences	-11.1079
▁1993	-11.1082
▁cher	-11.1083
▁promise	-11.1085
▁pleasure	-11.1087
▁jointly	-11.1096
▁l’occasion	-11.1097
▁différente	-11.1097
▁warmly	-11.1098
▁s'avère	-11.1098
▁vulnérables	-11.1099
▁production,	-11.11
▁augmenté	-11.1102
▁BCE	-11.1105
▁fiscales	-11.1105
▁prendra	-11.111
▁travailleurs.	-11.1111
▁tribunal	-11.1113
▁spécifiquement	-11.1119
▁heureuse	-11.1119
est	-11.1119
▁dites	-11.1122
▁d'expression	-11.1124
▁bureaucratic	-11.1124
rcialisation	-11.1126
▁partager	-11.1129
▁précédemment	-11.113
▁Barcelone	-11.1137
▁physical	-11.1139
▁argent	-11.1141
▁l'enseignement	-11.1143
▁information,	-11.1144
▁modalités	-11.1147
▁communautaires.	-11.115
▁restrictive	-11.1154
▁Blair	-11.1157
▁tackling	-11.1158
▁espèces	-11.116
▁reservations	-11.1161
▁Japan	-11.1163
▁privatisation	-11.1164
▁h	-11.1165
▁partageons	-11.1166
▁inquiétude	-11.1173
▁workers.	-11.1175
▁fassent	-11.118
▁jouent	-11.1183
▁CE	-11.1186
▁Yes	-11.1187
▁text.	-11.1192
▁tiendra	-11.1196
▁growth.	-11.1196
▁affirme	-11.1197
▁incentives	-11.1198
▁150	-11.1198
▁libération	-11.1201
▁qu'aux	-11.1202
▁EC	-11.1202
▁discrimination.	-11.1208
▁d'États	-11.1215
▁minimales	-11.1215
▁constamment	-11.1217
▁charte	-11.1223
▁Madrid	-11.1223
▁demonstrates	-11.1224
▁transatlantic	-11.1225
▁processus.	-11.1226
▁Kinnock	-11.1226
▁worldwide	-11.1229
▁lie	-11.123
▁manner.	-11.1233
▁dernier.	-11.1233
▁économiques.	-11.1235
▁montants	-11.1235
▁finale	-11.1238
▁aspirations	-11.1241
▁healthcare	-11.1241
▁deserve	-11.1242
▁publié	-11.1247
▁sûre	-11.1247
▁autorité	-11.1248
▁temporaire	-11.1248
▁collecte	-11.1249
▁lasting	-11.1252
▁undertakings	-11.1254
▁none	-11.1255
▁assurance	-11.1256
▁reality.	-11.1257
▁elections.	-11.126
▁drogues	-11.1271
▁transmettre	-11.1274
▁Parmi	-11.1275
▁citoyenneté	-11.1279
▁suit	-11.1283
▁explanation	-11.1286
▁wording	-11.1287
▁declarations	-11.1288
▁jobs,	-11.1289
▁climatique,	-11.129
▁fourni	-11.1291
▁digital	-11.1292
▁concepts	-11.1293
▁Islamic	-11.1294
▁became	-11.1294
▁R	-11.1296
▁courts	-11.1298
▁red	-11.1299
▁choses.	-11.1299
▁cherche	-11.1301
▁positive.	-11.1307
▁puissance	-11.1309
▁l'Espagne	-11.131
▁juge	-11.131
▁Clearly	-11.1312
▁garantit	-11.1313
▁considerations	-11.1316
▁souhaité	-11.1317
▁espagnole	-11.1318
▁reconnaissant	-11.1319
▁écrites	-11.1319
▁actif	-11.132
▁Commissaire.	-11.1327
▁everybody	-11.1327
▁histoire	-11.1328
▁DG	-11.1329
▁fresh	-11.1337
▁instaurer	-11.1339
▁Danemark	-11.134
▁bound	-11.134
▁respects	-11.1342
▁civilian	-11.1346
▁appliquée	-11.1348
▁2012	-11.1351
▁candidat	-11.1358
▁(article	-11.1363
▁mark	-11.1363
▁Monti	-11.1363
▁reading.	-11.1365
▁outstanding	-11.1365
▁companies.	-11.137
▁jeunesse	-11.1372
▁firms	-11.1372
▁arrest	-11.1375
▁certainty	-11.138
▁contrairement	-11.138
▁demandeurs	-11.138
▁regulate	-11.1382
▁l'affaire	-11.1391
▁disabled	-11.1392
▁inspections	-11.1393
▁engagé	-11.1398
▁libres	-11.1399
▁Parti	-11.14
▁importants.	-11.14
▁sensibles	-11.14
▁honest	-11.1402
▁planification	-11.1402
▁bénéficiaires	-11.1403
▁domaines.	-11.1404
▁devienne	-11.1407
▁credible	-11.141
▁rétablir	-11.1411
▁restriction	-11.1413
▁politiquement	-11.1417
▁2011	-11.142
▁D'autre	-11.1422
▁belief	-11.1427
▁quatrième	-11.1428
▁sauvegarde	-11.1428
▁d'ordre	-11.1429
▁workers,	-11.143
▁widespread	-11.1436
▁indicate	-11.1438
▁falls	-11.1439
▁pénale	-11.1442
▁societies	-11.1442
▁meaning	-11.1442
▁lecture.	-11.1443
▁yes	-11.1452
▁nord	-11.1452
▁receiving	-11.1456
▁l'octroi	-11.1456
▁project.	-11.1456
▁librement	-11.1462
▁kinds	-11.1466
▁legitimacy	-11.1468
▁posent	-11.1469
▁phrase	-11.1473
h	-11.1474
▁Convention,	-11.1477
▁pénal	-11.1478
▁employers	-11.148
▁espère	-11.1484
▁d'amendement	-11.149
institutionnel	-11.1492
▁indications	-11.1494
▁dirai	-11.1495
▁Afin	-11.15
▁She	-11.1501
▁préjudice	-11.1503
▁causing	-11.1506
▁covers	-11.1511
▁weak	-11.1511
▁recommend	-11.1512
▁interest.	-11.1514
▁énergétique.	-11.1517
▁ALDE	-11.1518
▁attaques	-11.152
▁regardless	-11.152
▁souhaitable	-11.1521
▁naturel	-11.1525
▁eyes	-11.1526
▁intérieure	-11.1528
▁Plan	-11.153
▁rapprocher	-11.1531
▁revised	-11.1531
▁flotte	-11.1532
▁reinforce	-11.1532
▁outils	-11.1534
▁G20	-11.1537
▁actions.	-11.1539
▁réalité.	-11.1545
▁heritage	-11.155
▁ethical	-11.155
▁agence	-11.1551
▁discriminations	-11.1551
▁moteur	-11.1551
▁réponse.	-11.1554
▁preparations	-11.1556
▁larger	-11.1558
▁railway	-11.1563
▁Japon	-11.1569
▁donnent	-11.1571
▁arise	-11.1576
▁day.	-11.1577
▁withdraw	-11.158
▁représenter	-11.1581
▁n'importe	-11.1589
▁raw	-11.1589
▁euro,	-11.1593
▁coordinate	-11.1593
rai	-11.1593
▁T	-11.1594
▁Obviously	-11.1595
▁satellite	-11.1601
▁listened	-11.1603
▁economically	-11.1604
▁périodes	-11.1605
▁légale	-11.1606
▁comparable	-11.1608
▁stage.	-11.1608
▁l’amendement	-11.1608
ecommunications	-11.1612
▁permette	-11.1614
▁lessons	-11.1615
▁milliard	-11.1616
▁durabilité	-11.1621
▁subjects	-11.1621
▁hence	-11.1621
▁ecological	-11.1627
▁Compte	-11.1628
▁latine	-11.1628
▁incidents	-11.1629
▁declare	-11.1631
▁dette	-11.1638
▁voilà	-11.164
▁diffusion	-11.164
▁Communauté.	-11.1643
▁shape	-11.1644
▁bank	-11.1645
▁renforce	-11.1646
▁examined	-11.1648
▁Oui	-11.1648
▁health,	-11.165
▁deuxièmement	-11.1652
-related	-11.1653
▁soulever	-11.1653
▁extraordinary	-11.1653
▁Office	-11.1654
▁engaged	-11.1654
▁intégré	-11.1658
▁clean	-11.1659
▁Slovakia	-11.1665
▁unfortunate	-11.1671
▁attentivement	-11.1673
▁Copenhague	-11.1673
▁inutile	-11.1674
▁soutien.	-11.1677
▁eye	-11.168
▁réglementaire	-11.1684
▁complaints	-11.1684
▁l'instar	-11.1685
▁gradually	-11.1686
▁patent	-11.1687
▁lorsqu'elle	-11.1692
▁push	-11.1694
▁Parliament'	-11.1695
▁procédure.	-11.1698
▁supérieur	-11.1703
▁journalistes	-11.1703
▁l’objectif	-11.1705
▁processing	-11.1705
▁turning	-11.1705
▁Frattini	-11.1707
▁présidente	-11.171
▁foundations	-11.1713
▁pauvreté.	-11.1714
▁forest	-11.1716
▁suffisante	-11.1717
▁airlines	-11.1721
▁doter	-11.1723
▁shares	-11.1725
▁period.	-11.1728
▁d'accorder	-11.173
▁Turkey.	-11.1732
▁informé	-11.1732
▁formule	-11.1733
▁basically	-11.1737
▁achieved.	-11.1745
▁appropriées	-11.1746
▁excluded	-11.1751
▁45	-11.1752
▁appliqué	-11.1753
▁undertake	-11.1754
▁membre.	-11.1755
▁Representative	-11.1759
▁civilisation	-11.1762
▁anti-	-11.1763
▁tribute	-11.1764
▁settlement	-11.1771
▁vérité	-11.1774
▁d'immigration	-11.1776
▁aboutir	-11.1777
▁prefer	-11.1778
▁conscient	-11.1784
▁question:	-11.1784
▁demographic	-11.1786
▁collaborer	-11.1787
▁unanimous	-11.1795
▁culture.	-11.1797
▁enhanced	-11.1799
▁75	-11.18
▁doutes	-11.1801
▁REACH	-11.1802
▁devenue	-11.1802
▁million.	-11.1803
▁conseils	-11.1806
▁sexuelle	-11.1806
▁expansion	-11.1807
an	-11.1808
▁défini	-11.1814
▁commun.	-11.1814
▁sovereign	-11.1815
▁congratulations	-11.1823
▁suspended	-11.1823
▁incapable	-11.1824
▁afternoon	-11.1825
▁hommage	-11.1828
▁Second	-11.1833
▁Authority	-11.1834
▁manifestations	-11.1835
▁proposons	-11.1835
▁élu	-11.1837
▁lecture,	-11.1838
▁judiciaires	-11.1841
▁pourcentage	-11.1843
▁mouvements	-11.1844
▁consolider	-11.1846
▁Nonetheless	-11.1848
▁récents	-11.1851
s'	-11.1852
▁tomorrow,	-11.1852
▁sociales,	-11.1853
▁génétiquement	-11.1855
▁stay	-11.1868
▁Union'	-11.1871
▁expense	-11.1872
▁puts	-11.1877
▁récentes	-11.188
▁Italie	-11.1884
▁retards	-11.1887
▁nomination	-11.1888
▁explained	-11.1891
▁adaptation	-11.1894
▁abstained	-11.1894
▁éventuellement	-11.1895
▁nonetheless	-11.1895
▁l'exemple	-11.1895
▁spécialement	-11.1901
▁posée	-11.1903
▁modèles	-11.1905
▁afford	-11.1913
▁Leur	-11.1913
-based	-11.1916
▁candidates	-11.1917
▁H	-11.1918
▁s'agisse	-11.192
▁presentation	-11.1921
▁insiste	-11.1922
▁m	-11.1926
▁circonscription	-11.1927
▁impliquant	-11.1927
▁protocol	-11.1928
▁widely	-11.193
▁Paris	-11.1932
▁Moldova	-11.1933
▁démocratisation	-11.1933
▁fermeture	-11.1936
▁confirme	-11.1937
▁social.	-11.1941
▁vivant	-11.1943
▁circumstances,	-11.1947
▁d'initiative	-11.1951
▁tentatives	-11.1955
▁condamner	-11.1958
▁students	-11.1959
▁l’adoption	-11.196
▁simples	-11.1961
▁Milosevic	-11.1964
▁tend	-11.1969
▁sending	-11.197
▁looked	-11.1976
▁informal	-11.1979
▁d'aborder	-11.198
▁remédier	-11.1984
▁nature.	-11.1984
▁checks	-11.1987
▁carbone	-11.1988
▁removed	-11.199
▁promesses	-11.1992
▁immense	-11.1995
▁rapprochement	-11.1995
▁ad	-11.1998
▁l'échange	-11.2
▁approfondie	-11.2007
▁integration.	-11.2009
▁approach,	-11.2009
▁severe	-11.2011
▁qualité.	-11.2012
▁établissant	-11.2013
▁past,	-11.2019
▁Labour	-11.202
▁drafted	-11.2022
▁côtés	-11.2022
▁réels	-11.2026
▁d'élaborer	-11.2026
▁SIS	-11.2029
▁3.	-11.2033
▁nobody	-11.2033
▁renforcé	-11.2034
▁bienvenue	-11.2036
▁Investment	-11.2037
▁l'internet	-11.2038
▁difficile.	-11.2038
▁solutions.	-11.2038
▁permanente	-11.2041
▁reasons.	-11.2041
isation	-11.2048
▁l'instrument	-11.2053
▁sincerely	-11.2053
▁gratitude	-11.2056
▁noon.	-11.2058
▁deadline	-11.206
▁limité	-11.206
▁auparavant	-11.2062
▁Timor	-11.2062
▁souffrent	-11.2063
▁allant	-11.2064
▁decades	-11.2067
▁seules	-11.2068
▁urgence	-11.2073
▁arising	-11.2073
▁buy	-11.2073
▁négatif	-11.2081
▁qualifiée	-11.2082
▁convaincus	-11.2084
▁rendent	-11.2086
▁opposés	-11.2089
▁Community.	-11.2092
▁moved	-11.2098
▁dangereuses	-11.2099
▁bureaucracy	-11.2102
▁coalition	-11.2104
▁relations.	-11.2108
▁moderne	-11.211
▁générations	-11.2112
▁soutiennent	-11.2113
▁limitée	-11.2115
▁city	-11.2116
▁bénéfice	-11.2122
▁post	-11.2122
▁summer	-11.2123
▁également.	-11.2125
ais	-11.2127
▁category	-11.213
▁repeated	-11.2131
▁control.	-11.2132
▁avantage	-11.2132
▁envoyer	-11.2134
▁imposées	-11.214
▁sinon	-11.2141
▁impliqués	-11.2143
▁compromis.	-11.2143
▁aéroports	-11.2155
▁plaintes	-11.2157
▁youth	-11.2158
▁poverty.	-11.2158
▁déployés	-11.2159
▁lever	-11.216
▁devaient	-11.2162
▁remarquable	-11.2162
▁a.m.	-11.2165
▁partant	-11.2165
▁Parallèlement	-11.2167
▁accompanied	-11.2167
▁bureau	-11.2169
▁nécessairement	-11.2171
▁Toute	-11.2171
▁laissé	-11.2173
iez	-11.2173
▁bénéficie	-11.2174
▁Soviet	-11.2174
▁adopted.	-11.2176
▁Swoboda	-11.2177
▁projects.	-11.2178
▁heure	-11.2179
▁justifie	-11.2182
▁stance	-11.2182
▁began	-11.2182
▁banking	-11.2184
▁retrouver	-11.2185
▁congratulating	-11.2187
▁criminels	-11.2188
▁permit	-11.2188
▁recherches	-11.219
▁opportunités	-11.2191
▁admettre	-11.2194
▁trend	-11.2197
▁extérieur	-11.2201
▁organiser	-11.2204
▁talked	-11.2206
us	-11.2209
▁medium	-11.2209
▁delays	-11.2214
▁insisté	-11.2215
▁familiar	-11.2219
▁contraintes	-11.2222
is	-11.2222
▁venons	-11.2223
▁reçoivent	-11.2223
▁promis	-11.2224
▁respective	-11.2225
▁belong	-11.2228
▁6,	-11.2237
▁fiscalité	-11.224
▁approximately	-11.2242
▁Mes	-11.2244
▁bref	-11.2245
▁Traités	-11.2246
▁licences	-11.2249
▁exclusively	-11.2249
▁l'attitude	-11.225
th	-11.2251
▁alongside	-11.2253
▁mainte	-11.2253
▁Du	-11.2253
▁utiles	-11.2255
▁l’utilisation	-11.2256
▁enlarged	-11.2256
▁jusqu'ici	-11.2258
▁résistance	-11.2264
▁Américains	-11.2267
▁assisté	-11.2269
▁collection	-11.2273
▁Their	-11.2276
▁2007-2013	-11.228
▁Great	-11.2283
▁national.	-11.2284
▁inacceptable.	-11.2286
▁Slovaquie	-11.2287
▁transformer	-11.2288
▁belge	-11.2289
▁Helsinki	-11.2294
▁urgency	-11.2296
▁exact	-11.2297
▁lancement	-11.2297
▁picture	-11.2297
▁account.	-11.2301
▁promises	-11.2304
▁frequently	-11.2308
▁financière.	-11.231
▁couvre	-11.2312
relatively	-11.2317
▁parvenu	-11.2323
▁minister	-11.2323
▁géographique	-11.2325
▁divergences	-11.2325
▁décision.	-11.2327
▁examiné	-11.2328
▁étrangers	-11.2329
▁accepte	-11.2333
▁simplify	-11.2334
▁percentage	-11.2337
▁apparent	-11.2337
▁defending	-11.2339
▁deviennent	-11.2339
▁camp	-11.2342
▁stake	-11.2342
▁répression	-11.2345
▁costs.	-11.2348
▁élevées	-11.235
▁constatons	-11.235
▁conclus	-11.236
▁2001.	-11.236
▁financières.	-11.2361
▁irlandaise	-11.2363
▁warning	-11.2364
▁Like	-11.2372
▁d’État	-11.2374
▁acceptable.	-11.2376
▁strictly	-11.2381
▁beneficial	-11.2384
▁îles	-11.2384
▁croissant	-11.2384
▁Most	-11.2386
▁nuit	-11.2388
▁inclus	-11.2391
▁dégâts	-11.2391
▁count	-11.2396
▁Any	-11.2397
▁another.	-11.2398
▁dégager	-11.24
▁Strasbourg.	-11.2401
▁veille	-11.2404
▁prévus	-11.2404
▁elsewhere	-11.2405
▁northern	-11.2407
▁Etats	-11.241
▁respecting	-11.2416
▁Hussein	-11.2419
▁condemned	-11.2421
▁s'agissant	-11.2421
▁Every	-11.2421
▁stations	-11.2421
▁liability	-11.2426
▁periods	-11.2431
▁suffisant	-11.2432
▁commission.	-11.2435
▁absolue	-11.2435
▁regulated	-11.2441
▁rejection	-11.2441
▁printemps	-11.2447
▁brevets	-11.2447
▁army	-11.2454
▁restricted	-11.2455
e,	-11.246
▁secrétaire	-11.2462
▁Palestiniens	-11.2466
▁Geneva	-11.2468
▁well,	-11.2473
▁auteurs	-11.2475
▁penalties	-11.2476
▁informés	-11.248
▁buildings	-11.2482
▁solidarity.	-11.2483
▁tenons	-11.2483
▁S'agissant	-11.2483
▁Est-ce	-11.2483
▁l'approbation	-11.2484
▁excuse	-11.2488
▁unemployed	-11.2489
▁indicators	-11.2489
▁trans-European	-11.249
▁sharing	-11.249
▁efforts.	-11.2494
▁entraîner	-11.2494
▁Act	-11.2497
▁financed	-11.2498
▁unity	-11.25
▁recherche.	-11.2501
▁réaliste	-11.2502
▁pratique.	-11.2503
▁force,	-11.2508
▁freely	-11.2512
▁suédoise	-11.2512
▁figurent	-11.2515
▁suédois	-11.2518
▁Otherwise	-11.2518
▁troupes	-11.2519
▁immédiate	-11.2525
▁certification	-11.2525
▁agrees	-11.2525
▁radio	-11.2529
▁ultrapériphéri	-11.2532
▁strike	-11.2543
▁requiert	-11.2546
▁pact	-11.2547
▁expertise	-11.255
▁lait	-11.2552
▁l'Agenda	-11.2554
▁bord	-11.2554
▁Lithuania	-11.2559
▁différent	-11.2559
▁cruciale	-11.2564
▁fourth	-11.2566
▁deaths	-11.2567
▁Poettering	-11.2567
▁underlying	-11.2568
▁tragédie	-11.2575
▁Cohesion	-11.2581
▁coopération.	-11.2583
▁salariés	-11.2584
▁signalé	-11.2586
▁électorale	-11.2587
▁Irak	-11.2589
▁emerging	-11.2595
▁embargo	-11.2595
▁utilisant	-11.2596
▁ferons	-11.2596
▁morts	-11.2604
▁entraîné	-11.2604
▁particulier.	-11.2613
▁occurred	-11.2616
▁directed	-11.2617
▁éliminer	-11.2617
▁mere	-11.2618
▁treat	-11.2623
▁revenue	-11.2625
▁Baltique	-11.2626
▁passant	-11.2626
▁procurement	-11.2631
▁Information	-11.2632
▁voyage	-11.2632
▁principle.	-11.2632
▁neuf	-11.2632
ness	-11.2633
▁ships	-11.2634
▁risquent	-11.2637
▁l'Est	-11.2638
▁Finnish	-11.2638
▁suggère	-11.2638
▁demandant	-11.2643
▁standing	-11.2644
▁struggle	-11.2645
▁s'engager	-11.2649
-t-il	-11.2652
lusieurs	-11.2652
▁systems,	-11.2658
▁parallèlement	-11.266
▁chemical	-11.2665
▁primordial	-11.2665
▁objectifs.	-11.2668
▁italien	-11.2668
▁relèvent	-11.2669
-t-elle	-11.2675
▁Africa.	-11.2675
▁quelqu'un	-11.2681
▁indispensables	-11.2681
▁soumises	-11.2689
▁opportunité	-11.2699
▁Control	-11.2702
▁multinationales	-11.2704
▁communication.	-11.2706
▁alcohol	-11.2706
▁climatiques	-11.2707
▁j’espère	-11.2709
▁citizenship	-11.2709
▁sauf	-11.271
▁surveiller	-11.2712
▁éventuelle	-11.2714
▁occupation	-11.2717
▁restrict	-11.2718
▁l’emploi	-11.2721
▁dizaines	-11.2727
▁states.	-11.2727
▁Macedonia	-11.273
▁disons	-11.2733
▁étudiants	-11.2735
▁organe	-11.2736
▁rare	-11.2738
▁decisions.	-11.2739
▁pursuan	-11.2741
▁undertaking	-11.2743
▁efficace,	-11.2752
▁Sa	-11.2752
▁Single	-11.2752
▁d'après	-11.2752
▁connected	-11.2752
▁l’ordre	-11.2753
▁Service	-11.2757
▁diversification	-11.2759
▁competition,	-11.2765
▁1998.	-11.277
▁travaille	-11.2776
▁Services	-11.2784
▁Your	-11.2785
▁droite	-11.2785
udgetary	-11.279
▁présent.	-11.2795
▁d'accroître	-11.2795
▁après-midi	-11.2796
▁battle	-11.2799
▁objectif.	-11.2802
▁d'élargissement	-11.2803
▁uncertainty	-11.2804
▁listening	-11.2808
▁concret	-11.2811
▁raises	-11.2811
▁d'intervention	-11.2812
es.	-11.2812
▁fourniture	-11.282
▁Traité.	-11.2823
▁rejoindre	-11.2823
▁l’application	-11.2824
▁Barnier	-11.2828
▁compléter	-11.2829
▁nationales,	-11.283
▁Laeken	-11.2832
▁basé	-11.2836
▁d'euros.	-11.2837
▁prevented	-11.2839
▁10%	-11.284
▁n'avait	-11.284
▁Verts	-11.2843
▁débattu	-11.2844
▁bâtiments	-11.2846
▁culturelles	-11.2852
▁surprise	-11.2853
▁8,	-11.2854
▁pièces	-11.2854
▁diminuer	-11.2856
▁Washington	-11.286
▁directeur	-11.2861
▁amendements.	-11.2863
▁journalists	-11.2865
▁tribunaux	-11.2867
▁d'éducation	-11.2869
▁fondé	-11.2869
▁solid	-11.2871
▁mène	-11.2872
▁contract	-11.2873
▁manifeste	-11.2873
▁noise	-11.2874
▁Albania	-11.2875
▁criteria.	-11.2876
▁finir	-11.2878
▁defining	-11.2882
▁elderly	-11.2883
▁losses	-11.2885
▁Declaration	-11.2891
▁séjour	-11.2891
▁Two	-11.2896
▁récent	-11.2897
▁enquêtes	-11.2897
▁législatifs	-11.2899
▁longues	-11.2899
▁treaties	-11.2899
▁yourself	-11.2903
▁plan.	-11.2909
▁inégalités	-11.2909
▁sérieuse	-11.291
▁exploitations	-11.2911
▁jeune	-11.2911
▁values.	-11.2912
▁priority.	-11.2917
▁reserve	-11.2919
▁écouté	-11.2919
▁modifié	-11.2922
▁clearer	-11.2923
▁Michel	-11.2924
▁liberal	-11.2925
▁Defence	-11.2926
▁consequently	-11.2926
▁emission	-11.2934
▁Socialists	-11.2934
▁libéral	-11.2939
▁serais	-11.2942
▁indépendante	-11.2942
▁OLAF	-11.2948
▁similaires	-11.2954
▁rencontré	-11.296
▁adéquat	-11.2962
▁l'inclusion	-11.2962
▁vehicle	-11.2963
▁register	-11.2965
▁rejette	-11.2966
▁wage	-11.2969
▁equivalent	-11.297
▁York	-11.2971
▁félicitations	-11.2971
▁agreements,	-11.2973
▁veto	-11.2974
▁indépendant	-11.2975
▁dossier.	-11.2976
▁quote	-11.2986
▁harmonised	-11.2987
▁organisations.	-11.2987
▁team	-11.2987
▁worthy	-11.2988
▁contributing	-11.2992
▁faith	-11.2995
▁Palestinians	-11.2996
▁italienne	-11.2997
▁pure	-11.2997
▁fleet	-11.2997
▁either.	-11.2998
▁culturels	-11.2998
▁showed	-11.2998
▁Allow	-11.2999
▁divided	-11.3001
▁plays	-11.3002
▁m'ont	-11.3004
▁complémentaires	-11.3007
▁systématique	-11.3009
▁Regarding	-11.3014
▁cesser	-11.3014
▁friendly	-11.3016
▁order.	-11.3019
▁particuliers	-11.302
▁highlights	-11.302
▁essayé	-11.3021
▁planète	-11.3023
▁comprennent	-11.3024
▁cinquième	-11.3024
▁prenant	-11.3027
▁imposing	-11.3028
▁night	-11.3029
▁parallel	-11.3031
▁nationale.	-11.3032
▁London	-11.3038
▁Danube	-11.3038
▁accélérer	-11.3038
▁end.	-11.304
▁7,	-11.3042
▁porté	-11.3045
▁troops	-11.3046
▁sucre	-11.3047
▁tiennent	-11.305
-Mediterranean	-11.305
▁procedural	-11.3057
▁démocratique,	-11.3057
▁door	-11.3058
▁Criminal	-11.3058
▁exprimée	-11.3058
▁friend	-11.3058
▁Cher	-11.3058
▁characteristics	-11.3061
▁compete	-11.3066
▁industriels	-11.3068
▁Education	-11.3068
▁pursued	-11.3069
▁slightly	-11.3073
▁fournit	-11.3074
▁américains	-11.3074
▁weight	-11.3076
▁Italy,	-11.3079
▁restera	-11.3082
▁combler	-11.3087
▁(debate)	-11.3088
▁insufficient	-11.3092
▁fondement	-11.3092
▁Year	-11.3093
▁finally,	-11.3094
▁besoin.	-11.3097
▁nous-mêmes	-11.3098
▁publique,	-11.3098
▁renoncer	-11.3107
▁.-	-11.3107
▁bilatéraux	-11.3112
▁Président.	-11.3113
▁borne	-11.3115
▁(débat)	-11.3117
▁hautement	-11.312
▁entrepris	-11.3123
▁incident	-11.3124
▁estimated	-11.3125
▁Americans	-11.3131
▁devions	-11.3132
▁short-term	-11.3132
▁1994	-11.3134
▁salaire	-11.3142
▁souhaiter	-11.3143
▁publics.	-11.3145
▁contamination	-11.3146
▁interim	-11.3147
▁coherence	-11.315
▁signing	-11.3151
▁rythme	-11.3155
▁blame	-11.3156
▁consistant	-11.3159
▁décennies	-11.3161
▁preventive	-11.3163
▁Palacio	-11.3165
▁l'exportation	-11.3165
▁soutenue	-11.317
▁devez	-11.317
▁précédents	-11.3171
▁l’esprit	-11.3173
▁replaced	-11.3173
▁i	-11.3173
▁aborde	-11.318
▁l'entreprise	-11.318
▁peace.	-11.3185
▁rising	-11.3187
▁killed	-11.3188
▁textiles	-11.319
▁timely	-11.3192
▁surrounding	-11.3193
▁promoted	-11.3194
▁essence	-11.3196
▁correcte	-11.3201
▁transparence.	-11.3202
▁sûrs	-11.3202
▁l'Irak	-11.3203
▁joining	-11.3206
▁Korea	-11.3211
▁convince	-11.3214
▁group.	-11.3214
▁keen	-11.3214
▁Solidarity	-11.3214
▁productive	-11.3215
▁necessity	-11.3218
▁d'enfants	-11.3219
▁Morocco	-11.3226
▁notably	-11.3226
ur	-11.3229
▁coastal	-11.323
▁l'Inde	-11.3233
▁espoir	-11.3237
▁indépendamment	-11.3237
▁implemented.	-11.3239
▁EMU	-11.3241
▁eux.	-11.3243
▁preliminary	-11.3244
▁systematic	-11.3245
▁l'acquis	-11.3245
▁constructif	-11.3245
▁harm	-11.3247
▁envoyé	-11.3249
▁censure	-11.3256
▁exemption	-11.3257
▁evident	-11.3262
▁expert	-11.3264
▁participent	-11.3265
▁concern.	-11.3267
▁concurrence,	-11.3267
▁subsequently	-11.3268
▁transparente	-11.3268
▁biodiversity	-11.3271
▁précises	-11.3272
▁entamer	-11.3272
▁subsequent	-11.3274
▁refused	-11.3274
▁vigueur.	-11.3275
ritten	-11.3276
▁follow-up	-11.3279
ive	-11.3281
▁managing	-11.3282
▁employés	-11.3285
▁généraux	-11.3286
▁Espagne	-11.3286
▁disagree	-11.3288
▁Please	-11.3297
▁respectant	-11.3298
▁succès.	-11.3299
▁effect.	-11.3299
▁palestinien	-11.33
▁croyons	-11.3305
▁Hong	-11.3305
▁intelligent	-11.3305
▁dramatic	-11.3309
▁l'essentiel	-11.3309
▁changé	-11.3313
▁désir	-11.332
▁Bolkestein	-11.332
u	-11.3324
▁l'instauration	-11.3328
▁peace,	-11.3331
▁conformité	-11.3332
▁expliqué	-11.3335
▁alimentaire.	-11.3338
▁sections	-11.3347
▁disappointed	-11.3354
▁integrate	-11.3357
▁voterons	-11.3363
▁nucléaire.	-11.3367
▁regard.	-11.3368
▁procedures.	-11.3369
▁terms.	-11.3372
▁l’intérêt	-11.3373
outermost	-11.3374
▁su	-11.3375
▁representing	-11.3378
▁GUE/NGL	-11.3378
▁rules,	-11.338
▁airports	-11.338
▁Deux	-11.3381
▁acceptance	-11.3382
▁syndicats	-11.3383
▁advocate	-11.3384
▁d'entreprises	-11.3384
▁joined	-11.3385
▁48	-11.3385
▁utilise	-11.3386
▁utilisateurs	-11.3388
▁humanitaires	-11.3389
▁sauver	-11.3389
▁patient	-11.339
▁motor	-11.3397
▁l'Amérique	-11.3398
▁règne	-11.3402
▁j'avais	-11.3412
▁Ceux	-11.3413
▁financiers.	-11.3413
▁Africa,	-11.3415
▁énergétique,	-11.3416
▁d'armes	-11.3417
▁Affaire	-11.3419
▁terres	-11.342
▁accomplir	-11.3422
▁Balkans.	-11.3424
▁ratify	-11.3424
▁Sakharov	-11.3424
▁losing	-11.3427
▁prouve	-11.3428
▁utilisent	-11.3436
▁ferait	-11.3439
▁logical	-11.3439
▁biodiversité	-11.3439
▁imported	-11.344
▁Lituanie	-11.3447
▁failing	-11.3449
▁unions	-11.3453
▁événement	-11.3453
▁slow	-11.3454
▁experiencing	-11.3455
▁fortes	-11.3457
▁échelle	-11.3458
▁allusion	-11.346
l'administration	-11.3462
▁Iraqi	-11.3463
▁touchés	-11.3463
▁compromise.	-11.3464
▁matériel	-11.3465
▁d'entendre	-11.3465
▁réformer	-11.3466
▁impetus	-11.347
▁ruling	-11.3474
▁refusé	-11.3481
▁drivers	-11.3481
▁orale	-11.349
▁authorisation	-11.3491
▁terrorists	-11.3493
▁reflection	-11.3494
▁further.	-11.3495
▁longtemps.	-11.3506
▁items	-11.351
▁l’Union.	-11.351
▁Maroc	-11.3511
▁sphere	-11.3513
▁multiples	-11.3523
▁entrée	-11.3526
▁thousand	-11.3527
▁préoccupe	-11.353
▁jugement	-11.3531
▁d’autre	-11.3532
▁react	-11.3533
▁grow	-11.3534
▁Women	-11.3536
▁hoped	-11.3536
▁Chine.	-11.3536
▁aircraft	-11.3539
▁Frontex	-11.3539
▁banque	-11.3543
▁chapter	-11.3543
ary	-11.3543
▁fermer	-11.3546
▁comparison	-11.3547
▁shortcomings	-11.3552
▁judgment	-11.3552
▁journée	-11.3553
▁considérés	-11.3555
▁genetically	-11.3555
▁resumed	-11.3556
▁safeguarding	-11.3566
▁observed	-11.3569
▁privées	-11.3569
▁III	-11.3571
▁framework.	-11.3571
▁émis	-11.3576
▁compétentes	-11.3577
▁outset	-11.358
▁norme	-11.358
▁assurément	-11.3583
▁Objective	-11.3587
▁eventually	-11.3589
▁Communist	-11.3591
▁déplore	-11.3595
▁Outre	-11.3595
▁covering	-11.3601
▁turc	-11.3601
▁craintes	-11.3606
▁Democratic	-11.3607
▁contenter	-11.3611
▁J	-11.3613
▁supporter	-11.3625
▁hoc	-11.3625
▁officielle	-11.3625
▁notes	-11.3625
▁fournisseurs	-11.3627
▁intellectuelle	-11.3627
▁drive	-11.3631
▁prends	-11.3633
▁Eurostat	-11.3635
▁San	-11.3635
▁d'imposer	-11.3636
▁infringement	-11.3636
▁maintenance	-11.3643
▁confident	-11.3643
▁foundation	-11.3643
▁vitesse	-11.3645
▁régions.	-11.3651
▁trial	-11.3652
▁this:	-11.3654
▁partisans	-11.3656
▁profite	-11.3656
raient	-11.3658
▁aspects.	-11.366
▁accusations	-11.366
▁pouvons-nous	-11.3662
▁chute	-11.3666
▁Certaines	-11.3668
▁structurelle	-11.3668
▁énormes	-11.367
▁fiscaux	-11.3674
▁démontrer	-11.3674
▁prioritaires	-11.3676
▁inside	-11.3678
▁spéciale	-11.3679
▁mentioned.	-11.3679
▁plafond	-11.3683
▁barrières	-11.3684
▁effectuer	-11.3684
ic	-11.3687
▁Verts/ALE	-11.3687
▁communiste	-11.3691
▁basis,	-11.3694
▁sectors.	-11.3698
▁week.	-11.3698
▁fails	-11.3704
▁Yugoslavia	-11.3705
▁priorities.	-11.3705
▁present.	-11.3706
▁4.	-11.3713
▁objective.	-11.3713
▁Similarly	-11.3715
▁victim	-11.3718
▁produisent	-11.372
▁l’intégration	-11.3722
▁énormément	-11.3722
▁Forum	-11.3723
▁concrétiser	-11.3723
▁reform.	-11.3728
▁J'appelle	-11.3731
▁d'aller	-11.3731
▁l'espère	-11.3731
▁nine	-11.3733
▁power.	-11.3735
▁Women's	-11.3737
▁n’avons	-11.3737
▁élargie	-11.374
▁importantes.	-11.3742
▁80%	-11.3746
▁permitted	-11.3746
▁continuation	-11.3747
▁marked	-11.3747
▁licence	-11.3748
▁Tant	-11.3748
▁crime,	-11.3749
▁fragile	-11.3753
▁prudence	-11.3754
▁Natura	-11.3754
▁violences	-11.3755
▁considèrent	-11.3756
▁action,	-11.3757
▁incorporate	-11.3759
▁blood	-11.3759
▁rely	-11.376
▁Ms	-11.3763
▁Citizens'	-11.3763
▁l’idée	-11.377
▁détention	-11.3771
systématiquement	-11.3776
▁controversial	-11.3778
▁stockage	-11.3779
▁polonais	-11.3788
▁campaigns	-11.3789
▁Cotonou	-11.3794
▁d'impact	-11.3794
▁usual	-11.3794
▁lieux	-11.3795
▁opposé	-11.3796
▁profession	-11.3796
▁600	-11.3799
▁horizontal	-11.3802
▁programmation	-11.3802
▁loans	-11.3803
▁condamnation	-11.3808
▁looks	-11.3809
▁follows	-11.381
▁modifiant	-11.381
▁d'évaluer	-11.381
▁funds,	-11.3811
▁threshold	-11.3811
▁forests	-11.3811
▁d'accepter	-11.3818
▁freight	-11.3818
▁vin	-11.3818
▁threatened	-11.382
▁about.	-11.3823
▁l'Iran	-11.3826
▁advanced	-11.3827
▁assurances	-11.3828
▁fixe	-11.3829
▁racism	-11.383
▁supervisory	-11.3842
▁indicateurs	-11.3843
▁chargée	-11.3848
▁participating	-11.385
▁préservation	-11.385
▁supplies	-11.3851
▁jusqu'au	-11.3851
▁Burma	-11.3852
▁neighbourhood	-11.3853
▁appeler	-11.3853
▁rechercher	-11.3861
g	-11.3864
▁reported	-11.3865
▁Personne	-11.3866
▁voulez	-11.3866
▁dépendent	-11.3866
▁explicitement	-11.3867
▁établit	-11.3868
▁protest	-11.3869
▁judge	-11.3872
▁tolérance	-11.3872
▁d'actions	-11.3877
▁volet	-11.3881
▁l'issue	-11.3882
▁dimensions	-11.3884
▁moments	-11.3887
▁containing	-11.3888
▁begun	-11.3892
▁contrast	-11.3895
▁resolving	-11.3898
▁accepting	-11.3898
▁consulted	-11.3899
▁anniversary	-11.3899
▁fallu	-11.3902
▁older	-11.3903
▁part-session	-11.3905
▁partners.	-11.3906
▁lu	-11.3912
▁gained	-11.3916
▁compétitive	-11.3918
▁popular	-11.3921
▁warm	-11.3922
▁assemblée	-11.3923
▁contenues	-11.3925
▁classification	-11.3926
▁inspection	-11.3926
▁Community's	-11.3926
▁communiquer	-11.3928
▁l'alimentation	-11.3931
▁hundred	-11.3932
▁pursuing	-11.3938
▁l'extérieur	-11.3941
▁G	-11.3941
▁Genève	-11.3941
▁race	-11.3944
▁investigations	-11.3944
▁rigueur	-11.3947
▁l'occurrence	-11.3947
▁employeurs	-11.3951
▁anniversaire	-11.3953
▁l’accès	-11.3955
▁government.	-11.3955
▁l'élimination	-11.3955
▁regularly	-11.3956
▁funded	-11.3959
▁intense	-11.396
▁hélas	-11.3961
▁Rien	-11.3963
▁interdit	-11.3967
▁substantielle	-11.3968
▁prisons	-11.3971
▁disponible	-11.3971
▁sale	-11.3971
▁bateaux	-11.3979
▁France.	-11.3987
▁Présidente	-11.3991
▁marche	-11.3993
▁appels	-11.3993
▁block	-11.3993
▁War	-11.3995
▁albeit	-11.3995
▁définis	-11.3996
▁travaillons	-11.3996
▁objet	-11.4
▁helps	-11.4001
▁l'Italie	-11.4004
▁Belarus.	-11.4012
▁residence	-11.4012
▁respecté	-11.4013
▁qu'est	-11.4014
és	-11.4016
▁1997.	-11.4019
▁pilot	-11.4021
▁offices	-11.4023
▁rubrique	-11.403
▁Tribunal	-11.4037
▁Atlantic	-11.4037
▁néerlandais	-11.4038
▁investisseurs	-11.4039
▁Statute	-11.4039
▁point:	-11.4041
▁feuille	-11.4045
▁estimé	-11.4045
▁appelons	-11.4046
▁unanimity	-11.4047
▁visited	-11.4048
▁l'ampleur	-11.4052
▁appointment	-11.4052
▁arrêter	-11.4052
▁l'assistance	-11.4053
▁state.	-11.4054
▁entrepreneurs	-11.4056
▁expensive	-11.4056
▁withdrawal	-11.4057
▁spring	-11.4057
▁invitation	-11.4058
▁Liberals	-11.4058
▁lorsqu’il	-11.406
▁L'accord	-11.406
▁noter	-11.4061
▁Tibet	-11.4063
▁invited	-11.4063
▁exchanges	-11.4064
▁taken.	-11.4064
▁China.	-11.4067
▁territoriale	-11.4069
▁régulation	-11.4074
▁answer.	-11.4075
▁globalement	-11.4075
▁date.	-11.4075
▁gross	-11.4081
▁fast	-11.4086
▁coexistence	-11.4086
▁encourageant	-11.4087
▁customer	-11.409
▁votes.	-11.4093
▁majeurs	-11.4094
▁inviter	-11.4094
▁poisson	-11.4096
▁arrivé	-11.4106
▁professions	-11.4108
▁concludes	-11.4108
▁tension	-11.4109
▁Hence	-11.411
▁available.	-11.4114
▁donnera	-11.4116
▁integrity	-11.4119
▁profondeur	-11.4119
▁personnelle	-11.4122
▁role.	-11.4124
▁juridiquement	-11.4126
▁chemins	-11.4126
▁Could	-11.4126
▁expressément	-11.4126
▁victime	-11.4126
▁document.	-11.4128
▁concernés.	-11.413
▁furthermore	-11.4134
▁choices	-11.4136
▁notice	-11.4137
▁exposé	-11.4138
▁Who	-11.4138
▁Bruxelles.	-11.4139
▁ratifié	-11.414
▁variety	-11.4142
▁reductions	-11.4143
▁préférable	-11.4145
▁technologies.	-11.4146
▁effective.	-11.4147
▁résulte	-11.4148
▁augmente	-11.4148
ar	-11.4149
▁l’homme.	-11.415
▁service.	-11.4151
▁observers	-11.4156
▁œuvre.	-11.4156
▁female	-11.4159
▁sad	-11.4161
▁sentence	-11.4163
▁except	-11.4166
▁(Rule	-11.4167
▁l'extension	-11.4168
▁apportée	-11.4168
▁d'accords	-11.4178
▁32	-11.4178
▁saluons	-11.4184
▁présentant	-11.4184
▁proches	-11.4187
▁D'autres	-11.4187
▁douze	-11.4192
▁Chairman	-11.4192
▁l’agriculture	-11.4194
▁chain	-11.4196
▁issus	-11.42
▁vues	-11.4205
▁obtenus	-11.4207
p	-11.4209
▁house	-11.4209
▁m'en	-11.4211
▁liked	-11.4214
▁résolu	-11.4217
▁territories	-11.4219
▁controlled	-11.4219
▁pretext	-11.4226
▁breach	-11.4227
▁housing	-11.4227
▁transparency.	-11.423
▁woman	-11.4236
▁complémentaire	-11.4238
▁compétente	-11.4242
▁signs	-11.4244
▁amendment.	-11.4245
▁conjointement	-11.4246
▁approuve	-11.4254
▁Celle-ci	-11.4258
▁third-country	-11.4258
▁categories	-11.426
▁d'entreprise	-11.4261
▁prouver	-11.4263
▁voudrait	-11.4264
▁decent	-11.4265
▁argue	-11.4265
▁étendre	-11.4267
▁maritimes	-11.4267
▁borders,	-11.427
▁traduire	-11.4275
▁délégations	-11.4275
▁consent	-11.4277
▁regarder	-11.4279
▁ferai	-11.4279
▁dépasse	-11.428
▁s'attaquer	-11.4282
▁incentive	-11.4282
▁(CE)	-11.4284
▁organic	-11.4284
▁valid	-11.4284
▁guide	-11.4285
▁saurait	-11.4285
▁complexes	-11.4286
▁définies	-11.4287
▁effectively.	-11.4288
▁usually	-11.4292
▁commend	-11.4298
stitutionnelles	-11.43
▁directive-cadre	-11.4302
▁frontières.	-11.4304
▁envisaged	-11.4304
▁provoqué	-11.4305
▁uniforme	-11.4305
▁gradual	-11.4308
▁signer	-11.4314
▁recognises	-11.4318
▁oblige	-11.4319
▁l’Assemblée	-11.432
▁prix.	-11.4322
▁search	-11.4327
▁l'espoir	-11.4327
▁l’éducation	-11.4328
▁lives.	-11.4329
▁learned	-11.4329
▁c’est-à-dire	-11.4334
▁adoptant	-11.4338
▁poissons	-11.4341
▁Decision	-11.4343
▁research.	-11.4346
▁Reform	-11.4347
▁English	-11.435
▁vivons	-11.435
▁Millennium	-11.4351
▁closing	-11.4352
▁invité	-11.4353
▁refugee	-11.4355
▁placer	-11.4357
▁1%	-11.4361
▁Objet:	-11.4364
▁things.	-11.4364
▁l'énergie.	-11.4364
▁Directive.	-11.4366
▁rapidement.	-11.4367
▁grandement	-11.4368
▁l'analyse	-11.4368
▁fixed	-11.4369
▁suggests	-11.4373
▁fifteen	-11.4373
▁n'aurait	-11.4375
▁Mugabe	-11.4375
▁mandatory	-11.4379
▁EIB	-11.4385
▁reconciliation	-11.4388
▁parole.	-11.4391
▁soulève	-11.4391
▁crops	-11.4392
▁proven	-11.4393
▁desirable	-11.4396
▁Petitions	-11.4397
▁législation.	-11.4404
▁handicapées	-11.4406
▁mondiaux	-11.4407
▁Rights.	-11.4412
▁stringent	-11.4412
▁40%	-11.4413
▁prouvé	-11.4414
▁reports.	-11.4416
▁similaire	-11.4417
▁monétaire,	-11.4417
▁exprimés	-11.4419
▁ouverture	-11.4421
▁agriculture.	-11.4422
▁l’une	-11.4422
▁régionale,	-11.4422
es,	-11.4423
▁confrontée	-11.4424
▁unilateral	-11.4433
▁portugaise	-11.4433
▁civile.	-11.4436
▁elections,	-11.4438
▁commentaire	-11.4439
▁servent	-11.4441
▁abandon	-11.4443
▁Maintenant	-11.4443
▁significatif	-11.4443
▁Affairs.	-11.4446
▁l'étiquetage	-11.4447
▁universel	-11.4448
▁accounting	-11.4452
▁Watson	-11.4452
▁Other	-11.4452
▁d'exprimer	-11.4452
▁juger	-11.4452
▁faisait	-11.4457
▁d'échange	-11.4458
▁comités	-11.446
▁grec	-11.4461
▁résultats.	-11.4461
▁procédé	-11.4461
▁achievements	-11.4461
▁reporting	-11.4464
▁30%	-11.4465
n-discrimination	-11.4473
▁community.	-11.4476
▁occur	-11.4476
▁hopefully	-11.4478
▁développés	-11.4478
▁assessments	-11.4479
▁entering	-11.4482
▁virtually	-11.4486
▁minimal	-11.4486
▁renewed	-11.4487
▁l'aspect	-11.4488
▁rédaction	-11.4489
▁sports	-11.449
▁établies	-11.4496
▁stipule	-11.4496
▁Monday	-11.4499
▁Ministre	-11.4499
▁indépendance	-11.45
▁acted	-11.4505
▁Penda	-11.4507
▁fears	-11.4507
▁judicieux	-11.4507
▁resistance	-11.4507
▁masse	-11.4512
▁financière,	-11.4516
▁Sarkozy	-11.4516
▁l'autre.	-11.452
▁légitimes	-11.452
▁evaluate	-11.4524
▁sincere	-11.4524
▁Above	-11.4529
▁l'effet	-11.453
▁ageing	-11.4531
▁négatives	-11.454
▁égalité	-11.4543
▁négatifs	-11.4543
▁education.	-11.4545
▁requirements.	-11.4549
▁probable	-11.4552
▁fait.	-11.4553
▁Naturally	-11.4555
▁organizations	-11.4556
▁250	-11.4558
▁foi	-11.456
▁prostitution	-11.4561
non-governmental	-11.4562
▁needs.	-11.4565
▁host	-11.4566
▁focusing	-11.4575
▁Nigeria	-11.4577
▁dernière.	-11.4577
▁fondamentaux,	-11.4578
▁examining	-11.458
▁me.	-11.4582
▁disposé	-11.4584
▁destroy	-11.4587
▁décisif	-11.4589
▁routier	-11.4589
▁l'agenda	-11.459
▁coordonnée	-11.4591
▁objection	-11.4592
▁continuerons	-11.4592
▁Y	-11.4592
▁législature	-11.4599
▁dates	-11.46
▁helpful	-11.4602
▁agricole.	-11.4603
▁agi	-11.4603
▁particular.	-11.4603
les	-11.4604
▁stages	-11.4608
▁favorablement	-11.4608
▁page	-11.4608
▁l’immigration	-11.4615
Votre	-11.4617
▁entreprendre	-11.4621
▁réjouissons	-11.4621
▁roads	-11.4621
▁(EC)	-11.4624
▁l’UE,	-11.4637
▁humaine.	-11.4639
▁apparently	-11.4642
▁ça	-11.4642
▁ECHO	-11.4646
▁désire	-11.4649
▁contenant	-11.4649
▁Beaucoup	-11.4649
▁feu	-11.4655
▁leaves	-11.4657
▁témoigne	-11.4658
▁tough	-11.466
▁prochaine.	-11.4662
▁mobiliser	-11.4663
▁damaging	-11.4667
▁experiences	-11.4668
▁Posselt	-11.4668
'après	-11.4672
▁rares	-11.4676
▁soin	-11.4677
▁animale	-11.4678
▁électroniques	-11.4679
▁détaillée	-11.468
▁denied	-11.4681
▁lacking	-11.4682
▁examination	-11.4683
▁l’efficacité	-11.4684
▁ethniques	-11.4685
▁initially	-11.4687
rons	-11.4689
▁entamé	-11.4692
▁Procedure.	-11.4693
▁audit	-11.4693
▁emerged	-11.4693
▁L'amendement	-11.4695
▁disputes	-11.4696
▁étapes	-11.4696
▁alone.	-11.4698
▁gravité	-11.4699
▁américaines	-11.47
▁constante	-11.47
▁devoted	-11.4702
▁president	-11.4702
▁perception	-11.4702
▁disposés	-11.4702
▁obligatoires	-11.4707
▁conservateurs	-11.4708
▁socio-economic	-11.471
▁strictement	-11.4712
▁partenariats	-11.4715
▁l’Europe,	-11.4718
ques	-11.4718
▁founded	-11.4721
▁intégrante	-11.4721
▁chrétiens	-11.4727
▁completion	-11.4728
▁examinons	-11.4729
▁shortly	-11.4729
▁d'émission	-11.4731
▁vies	-11.4733
▁universities	-11.4733
▁Code	-11.4737
▁approaches	-11.4739
▁die	-11.4741
▁employed	-11.4743
▁movements	-11.4743
▁registration	-11.4743
▁65	-11.4744
▁exigence	-11.4745
▁occupe	-11.4745
▁conflict.	-11.4746
▁actifs	-11.4752
▁quantités	-11.4755
▁poursuit	-11.4756
▁enables	-11.476
▁disparités	-11.4761
▁exploit	-11.4763
▁faux	-11.4765
▁colleagues,	-11.4766
▁concertation	-11.4767
▁partiellement	-11.4767
▁responsabilité.	-11.4768
▁suscite	-11.4768
▁tolerance	-11.4769
▁business.	-11.477
▁indirect	-11.4771
me	-11.4772
▁handling	-11.4772
▁traduit	-11.4775
▁individus	-11.4776
▁sympathy	-11.4777
▁sole	-11.4777
▁forgotten	-11.4779
▁levels.	-11.478
▁far-reaching	-11.478
▁l'âge	-11.4781
▁resource	-11.4785
▁d'Amérique	-11.4787
▁piliers	-11.4791
▁richesse	-11.4793
▁totalité	-11.4794
▁coal	-11.4796
▁démographique	-11.4798
▁l'effort	-11.4798
▁locale	-11.48
▁Iraq.	-11.4801
▁encouragement	-11.4802
▁disait	-11.4805
▁fire	-11.4805
▁danois	-11.4805
▁directs	-11.4806
▁réglementer	-11.4813
▁acknowledged	-11.4814
▁ignorer	-11.4816
▁déficits	-11.4818
▁minor	-11.4818
▁explanations	-11.4818
▁harmonise	-11.4819
▁outlined	-11.4822
▁évaluations	-11.4824
▁entier.	-11.4825
▁universités	-11.4826
▁finish	-11.4832
▁fossé	-11.4838
▁d'eau	-11.484
▁échec	-11.484
as	-11.484
▁explications	-11.4843
▁serai	-11.4846
▁prévisions	-11.4847
▁d'efficacité	-11.4849
▁impératif	-11.485
▁n'étaient	-11.4851
▁joindre	-11.4851
▁registre	-11.4853
▁approuvée	-11.4856
▁décrit	-11.4856
▁chemicals	-11.4857
▁innovations	-11.4857
▁d'importance	-11.4858
▁d'experts	-11.4858
▁L'un	-11.4859
▁constitué	-11.486
▁intervenants	-11.4865
▁espagnol	-11.4865
▁personnelles	-11.4867
▁fifth	-11.4867
▁rigorous	-11.4867
▁cope	-11.4868
▁black	-11.4873
▁immigrés	-11.4876
▁l’intention	-11.4877
▁considération.	-11.4878
▁regulations.	-11.4881
▁farms	-11.4885
▁consistency	-11.4885
▁propositions.	-11.4892
▁falling	-11.4896
▁compagnie	-11.4902
▁échéant	-11.4902
▁endorsed	-11.4904
▁Whilst	-11.4904
▁USD	-11.4904
▁inscrit	-11.4906
▁shift	-11.4906
▁paragraphes	-11.4907
▁PHARE	-11.4911
▁touch	-11.4913
▁testing	-11.4914
▁August	-11.492
▁Aujourd’hui	-11.4922
▁donnant	-11.4922
▁142)	-11.4923
▁sums	-11.4925
▁rencontrer	-11.4931
▁mine	-11.4935
▁meets	-11.4938
▁Martin	-11.4942
▁animaux.	-11.4945
▁est-elle	-11.4948
▁workers'	-11.4949
▁solidarité.	-11.4951
▁soil	-11.4952
▁delegations	-11.4956
▁d'empêcher	-11.4958
▁cutting	-11.4958
age	-11.4959
▁95	-11.4959
ée	-11.4961
▁étudier	-11.4962
▁l’autre	-11.4964
▁incendies	-11.4966
▁struck	-11.4966
▁tourisme,	-11.4966
▁abuses	-11.4967
▁traité.	-11.497
▁Aucun	-11.4972
▁sociaux.	-11.4976
▁russes	-11.4978
ciaux-démocrates	-11.4978
▁sérieux.	-11.4989
▁meantime	-11.4992
▁l’attention	-11.4993
▁substantially	-11.4994
▁présentera	-11.4995
▁classe	-11.4998
▁aériens	-11.4999
▁Vu	-11.4999
▁Londres	-11.5001
▁réussir	-11.5001
▁fit	-11.5001
▁statute	-11.5002
▁mille	-11.5002
▁precautionary	-11.5002
▁eau	-11.5003
▁accused	-11.5003
▁marqué	-11.5006
▁digne	-11.5006
▁features	-11.5007
▁adapter	-11.5009
▁physique	-11.5011
▁viabilité	-11.5011
▁qu'après	-11.5012
▁monétaire.	-11.5013
▁stricte	-11.5016
▁adéquates	-11.5017
▁Left	-11.5019
▁Tunisia	-11.5019
▁length	-11.5027
▁complexité	-11.5031
▁sang	-11.5031
▁palestinienne	-11.5032
▁innocent	-11.5033
▁sit	-11.5035
▁sight	-11.5037
▁croissance.	-11.5038
▁interdire	-11.5039
▁initiatives.	-11.5039
▁serre	-11.504
▁subi	-11.5044
▁Liberties	-11.5047
▁fabricants	-11.5052
▁banned	-11.5055
▁ouvre	-11.5055
▁apportées	-11.5056
▁investigate	-11.5056
▁voie.	-11.5061
▁appointed	-11.5065
▁explicitly	-11.5066
▁Traité,	-11.5066
▁demi	-11.5073
▁décès	-11.5074
▁financements	-11.508
▁liaison	-11.5084
▁respected.	-11.5086
▁formulé	-11.5091
▁Costa	-11.5093
▁fundamentally	-11.5094
▁certitude	-11.5096
▁mistakes	-11.5096
▁enabled	-11.5097
▁flows	-11.5099
▁guise	-11.5101
▁fought	-11.5102
▁positif.	-11.5102
▁surface	-11.5108
▁document,	-11.5109
▁ethnique	-11.511
▁statistical	-11.511
▁touchent	-11.5112
▁remis	-11.5114
▁5.	-11.5115
▁attentats	-11.5116
▁d’Europe	-11.5118
▁Brazil	-11.5119
▁vocational	-11.512
▁chinois	-11.512
▁inhabitants	-11.5122
▁organisations,	-11.5123
▁passée	-11.5127
▁paragraphs	-11.5127
▁exigent	-11.5133
▁railways	-11.5134
▁Ireland.	-11.5136
▁2011.	-11.514
▁fictifs	-11.5146
▁executive	-11.5146
▁voici	-11.5147
▁corriger	-11.5153
▁CIG	-11.5156
▁wages	-11.5156
▁East.	-11.5157
▁n’en	-11.5157
▁corresponding	-11.5162
▁réconciliation	-11.5165
▁s'exprimer	-11.5165
▁dérogation	-11.5165
▁immigration.	-11.5166
▁identification	-11.5167
▁explique	-11.5171
▁adhérer	-11.5174
▁deny	-11.5175
▁écologiques	-11.5175
▁Chechnya	-11.5177
ne	-11.5178
▁structurels.	-11.518
▁actuellement.	-11.518
▁l’encontre	-11.5184
▁alliance	-11.5184
▁capital.	-11.5186
▁sociales.	-11.5186
▁result.	-11.5189
▁Naturellement	-11.5193
▁arrangement	-11.5193
▁ceiling	-11.5193
▁Malta	-11.5194
▁d'environnement	-11.5196
▁empêche	-11.5197
▁enshrined	-11.5202
▁perspective.	-11.5207
▁numérique	-11.5207
▁ideal	-11.521
▁adverse	-11.521
▁BEI	-11.5211
▁victoire	-11.5217
▁présentes	-11.5217
▁flow	-11.522
▁sensibilisation	-11.522
▁d'assistance	-11.522
▁disadvantaged	-11.5221
▁Wallström	-11.5222
▁investors	-11.5223
▁limitations	-11.5225
▁réjouir	-11.5226
▁names	-11.5226
▁Sudan	-11.523
▁consistently	-11.5232
▁s’	-11.5232
▁dictature	-11.5237
▁criterion	-11.5239
▁closure	-11.5241
▁mentionne	-11.5242
▁l'OMC.	-11.5243
▁Malte	-11.5247
▁Globalisation	-11.5248
▁Would	-11.5248
▁prononcé	-11.5249
▁wherever	-11.5249
▁Communautés	-11.5251
▁loin.	-11.5254
▁Erasmus	-11.5257
▁1996.	-11.5259
▁quickly.	-11.5259
▁enterprises.	-11.5262
▁Greens	-11.5264
l'investissement	-11.5265
▁120	-11.5265
▁charbon	-11.5265
▁emissions.	-11.5266
▁l'ancienne	-11.5266
▁brutal	-11.5267
▁prices.	-11.5267
▁tort	-11.5269
▁désaccord	-11.5274
▁functions	-11.5275
▁créant	-11.5276
▁prioritaire	-11.528
▁down.	-11.5285
▁Jusqu'	-11.5286
▁cohesion.	-11.5289
▁providers	-11.5289
▁l'ESB	-11.5291
▁decline	-11.5293
▁instant	-11.5295
European	-11.5295
ist	-11.5297
▁relancer	-11.5302
▁séparation	-11.5303
▁lifelong	-11.5304
▁précaution	-11.5305
▁consolidate	-11.5306
ications	-11.5308
▁democratisation	-11.5312
▁storage	-11.5313
▁texte.	-11.5316
▁compromises	-11.5316
▁équipements	-11.5316
▁laying	-11.5319
▁gravement	-11.532
▁fixation	-11.5322
▁transeuropéens	-11.5325
▁bel	-11.5326
▁sensiblement	-11.5328
▁perfect	-11.5329
▁développé	-11.533
▁participe	-11.533
▁croissance,	-11.533
▁unemployment.	-11.5331
▁OSCE	-11.5332
▁faim	-11.5333
▁unit	-11.5334
▁adequately	-11.5334
▁consciente	-11.5334
▁d'organiser	-11.534
▁brevet	-11.5341
▁models	-11.5341
▁presents	-11.5342
▁missing	-11.5342
▁endeavour	-11.5347
▁actors	-11.5347
▁Sri	-11.535
▁comparaison	-11.5352
▁heads	-11.5352
▁d'ajustement	-11.5352
▁chômeurs	-11.5353
▁Birmanie	-11.536
▁Brussels.	-11.5361
▁infractions	-11.5362
▁straight	-11.5366
▁removal	-11.5368
▁d’ici	-11.5368
▁programming	-11.5369
▁1989	-11.5369
▁badly	-11.5371
▁morale	-11.5372
▁fate	-11.5374
medicinal	-11.5376
▁exploiter	-11.5378
▁birth	-11.5379
▁sérieuses	-11.5379
▁detriment	-11.5381
▁individuels	-11.5382
▁9,	-11.5383
▁interprétation	-11.5384
▁commerce.	-11.5385
▁démantèlement	-11.5388
▁chercheurs	-11.539
▁structurels,	-11.5395
▁F	-11.5398
▁recommended	-11.5399
▁unemployment,	-11.54
or	-11.54
▁efficiently	-11.5401
▁however.	-11.5403
▁communautaires,	-11.5404
▁exprime	-11.5404
▁compte.	-11.5404
▁Face	-11.5405
▁suscité	-11.5405
▁Lomé	-11.5407
▁scrutiny	-11.5407
▁bois	-11.5408
▁intérieures,	-11.5408
▁avancé	-11.5408
▁rémunération	-11.5414
▁traitements	-11.5418
▁devise	-11.5422
▁d'exercer	-11.5424
▁d'instaurer	-11.5424
▁Romanian	-11.5428
▁socially	-11.543
▁l’ai	-11.543
▁catch	-11.5431
▁presidential	-11.5434
▁écrite	-11.5434
▁false	-11.5435
▁hémicycle	-11.5435
▁disastrous	-11.5435
▁traitées	-11.5436
▁soldats	-11.5438
▁remise	-11.5438
▁backing	-11.544
-nous	-11.5441
▁fires	-11.5442
▁vols	-11.5444
▁Corbett	-11.5444
▁rédiger	-11.5445
▁System	-11.5445
▁réclame	-11.5447
▁incompatible	-11.5448
▁management.	-11.5449
▁réunir	-11.5452
▁preparatory	-11.5452
▁Ferrero-Waldner	-11.5452
▁Iranian	-11.5456
▁thing.	-11.5457
▁generations	-11.5458
▁answered	-11.5461
▁Syria	-11.5463
▁assets	-11.5463
▁condamné	-11.5465
▁assuré	-11.5467
▁aérienne	-11.5468
▁subsidiarité.	-11.5468
▁Jarzembowski	-11.5473
▁officiellement	-11.5473
▁instruments.	-11.5475
▁700	-11.548
▁transferred	-11.5481
▁Autrement	-11.5481
▁résolument	-11.5482
▁l'Autriche	-11.5482
▁Brésil	-11.5482
▁Special	-11.5484
▁jurisdiction	-11.5484
▁cur	-11.5492
▁'the	-11.5499
▁error	-11.55
▁hongroise	-11.55
▁lundi	-11.5501
▁constituera	-11.5502
▁37	-11.5508
▁satisfaisante	-11.5509
▁win	-11.551
▁conviendrait	-11.5521
▁démarches	-11.5523
▁vaccination	-11.5524
▁transnational	-11.5527
▁context.	-11.5529
▁dispositif	-11.5529
▁pressing	-11.5532
▁war.	-11.5532
▁actives	-11.5533
▁Lisbon.	-11.5533
▁multiannual	-11.5537
▁Jacques	-11.5537
▁Youth	-11.5539
▁safeguards	-11.5543
▁pain	-11.5543
▁circumstances.	-11.5544
▁crédible	-11.5544
▁cheap	-11.5546
▁encore.	-11.5548
▁posées	-11.5549
▁signes	-11.555
▁destroyed	-11.555
▁Procedure,	-11.5551
▁historiques	-11.5551
▁ratifier	-11.5553
▁funding.	-11.5553
▁jeux	-11.5553
▁Government.	-11.5556
▁inevitably	-11.5556
▁pouvaient	-11.5556
▁représentante	-11.5556
▁Quatrièmement	-11.5557
▁durables	-11.5558
▁chômage.	-11.5558
▁dénoncer	-11.5559
▁Friday	-11.556
▁Européens,	-11.5561
▁dead	-11.5563
▁Everyone	-11.5566
▁l'expression	-11.5566
▁évolutions	-11.5566
▁impliquées	-11.5569
▁regimes	-11.5569
▁extrême	-11.5571
▁cellules	-11.5572
▁d’ailleurs	-11.5575
▁absent	-11.5577
▁décide	-11.5578
▁produits.	-11.5579
▁potentially	-11.558
▁south	-11.5585
▁forestry	-11.5585
▁reproductive	-11.5585
▁tard.	-11.5587
▁solved	-11.5589
▁d’améliorer	-11.5594
▁matters,	-11.5595
▁prochainement	-11.5596
▁stricter	-11.5599
▁explication	-11.5601
▁N	-11.5601
▁préférence	-11.5602
▁ventes	-11.5602
▁apparemment	-11.5604
▁manifestation	-11.5604
▁Reding	-11.5604
▁year's	-11.5608
▁pourrais	-11.5612
▁blind	-11.5618
▁bovine	-11.5619
▁suffisantes	-11.5619
▁Secretary	-11.562
▁convictions	-11.5625
▁Ecofin	-11.5626
▁documents.	-11.5628
▁j'étais	-11.5632
▁codes	-11.5634
▁customers	-11.5634
il	-11.5635
▁fabrication	-11.5635
▁IGC	-11.5638
▁marks	-11.5638
▁particulières	-11.5641
▁l’ont	-11.5641
▁l'opportunité	-11.5642
▁d'intervenir	-11.5642
▁attractive	-11.5647
▁aujourd’hui.	-11.5648
▁valable	-11.5651
▁Barón	-11.5652
▁ministère	-11.5652
▁course.	-11.5652
▁Internet.	-11.5654
▁mette	-11.5655
▁accru	-11.5658
▁vraie	-11.5659
▁internationally	-11.5664
▁Deuxième	-11.5668
▁J'invite	-11.5669
▁arrived	-11.5669
▁sell	-11.5671
▁Tunisie	-11.5672
▁réduite	-11.5672
▁péril	-11.5673
▁Lebanon	-11.5674
▁serves	-11.5674
▁sanctions.	-11.568
▁inclusive	-11.568
▁Federal	-11.568
▁feature	-11.5681
▁financier.	-11.5688
▁l	-11.5689
▁airport	-11.569
▁training,	-11.5691
▁detention	-11.5691
▁originally	-11.5693
▁Institute	-11.5694
▁observateurs	-11.5697
▁révolution	-11.5697
▁attitudes	-11.5698
▁candidats.	-11.5701
▁mercredi	-11.5703
▁Pack	-11.5703
’,	-11.5708
▁brut	-11.5708
▁tableau	-11.5709
▁contraignant	-11.571
▁promesse	-11.5711
▁stick	-11.5715
▁contrat	-11.5715
▁draftsman	-11.5719
▁livres	-11.5725
▁transferts	-11.5726
▁associés	-11.5728
▁quitter	-11.5728
▁s'inscrit	-11.5729
▁western	-11.5729
▁apprendre	-11.573
▁qu’on	-11.573
▁died	-11.5733
▁subir	-11.5734
▁découlant	-11.5738
▁définit	-11.5739
▁félicitons	-11.5739
▁Slovenia	-11.5741
▁l'appel	-11.5741
▁Europe'	-11.5742
▁classes	-11.5744
▁sold	-11.5746
▁required.	-11.5747
▁characterised	-11.5748
▁Fourthly	-11.5749
▁55	-11.575
▁murder	-11.575
▁recyclage	-11.5751
▁satisfaits	-11.5755
▁XXIe	-11.5758
▁l'urgence	-11.5759
▁Portugal.	-11.576
▁relief	-11.5761
▁adapted	-11.5763
▁autorisés	-11.5765
▁personnel.	-11.5766
▁Celui-ci	-11.5767
▁desquels	-11.5767
▁immigration,	-11.5768
▁His	-11.5768
▁countries'	-11.5768
▁réactions	-11.5769
▁l'euro.	-11.577
▁bloc	-11.5771
▁réelles	-11.5773
▁parliamentarian	-11.5775
▁détenus	-11.5775
▁linguistic	-11.5777
▁facto	-11.5777
▁rendue	-11.5784
▁d'assurance	-11.5786
▁appreciation	-11.5787
▁tendances	-11.5787
▁contrôle.	-11.5789
▁d'ore	-11.5791
▁happen.	-11.5791
▁suivie	-11.5793
▁dur	-11.5795
▁attach	-11.5796
▁concitoyens.	-11.5796
▁mort.	-11.5797
▁generate	-11.5797
▁scientists	-11.58
▁prévoyant	-11.5804
▁Actuellement	-11.5806
▁own-initiative	-11.5806
▁soi-disant	-11.5806
▁systematically	-11.5806
▁discriminatoire	-11.5807
▁assessing	-11.5807
▁réalisées	-11.5808
▁d’adhésion	-11.5809
▁plénière.	-11.581
▁ravie	-11.5811
▁décisive	-11.5812
▁businesses.	-11.5814
▁incidence	-11.582
▁est-ce	-11.5821
▁remained	-11.5826
▁rating	-11.5829
▁responses	-11.5831
▁pharmaceutical	-11.5835
▁d'inclure	-11.5835
▁clients	-11.5836
▁Tchétchénie	-11.5838
▁practically	-11.584
▁naissance	-11.5843
▁object	-11.5843
▁établis	-11.5844
▁irrespective	-11.5845
▁c	-11.5845
▁appuyer	-11.5847
▁humains.	-11.5848
▁autonomy	-11.5849
▁diplomatique	-11.585
▁préparé	-11.5854
▁stating	-11.5855
▁large-scale	-11.5855
▁broadly	-11.5858
▁regime.	-11.5859
▁immunity	-11.5859
▁telling	-11.5861
▁stakeholders	-11.5864
▁high-quality	-11.5865
▁vieux	-11.5865
▁disposée	-11.5872
▁concilier	-11.5876
▁whatsoever	-11.5879
▁images	-11.5879
▁impôts	-11.588
▁collapse	-11.5881
▁surpris	-11.5881
▁G8	-11.5882
▁hazardous	-11.5884
▁2013.	-11.5885
▁logement	-11.5887
▁times.	-11.5887
▁absurd	-11.5888
▁intervention.	-11.5889
▁vote:	-11.5891
▁tourner	-11.5895
▁partagent	-11.5896
▁deciding	-11.5897
▁disponibilité	-11.5898
▁d'animaux	-11.5899
▁annuelle	-11.5899
▁dommage	-11.5902
▁stimulate	-11.5902
▁vieillissement	-11.5904
▁L’Europe	-11.5904
▁bancaire	-11.5905
▁description	-11.5905
▁design	-11.5906
▁semestre	-11.5909
▁Wednesday	-11.591
▁PNR	-11.5914
▁définitif	-11.5914
▁MEP	-11.5915
▁formulée	-11.5916
▁technologiques	-11.5918
▁imperative	-11.5918
▁34	-11.5922
▁traditionnelle	-11.5923
▁motif	-11.5923
placing	-11.5923
▁card	-11.5925
▁estiment	-11.5926
▁inciter	-11.5929
▁attaque	-11.5933
▁him.	-11.5937
▁d'enquête	-11.5939
▁crainte	-11.5939
▁seriously.	-11.594
▁heureusement	-11.5947
▁emplois.	-11.5948
▁virus	-11.5949
▁attached	-11.5951
▁congé	-11.5951
▁absurde	-11.5953
▁refusal	-11.5954
▁dépasser	-11.5954
▁compare	-11.5955
▁hour	-11.5962
▁risk.	-11.5963
▁partnerships	-11.5963
▁négative	-11.5965
▁genres	-11.5971
▁conformer	-11.5973
▁l'ancien	-11.5973
▁complied	-11.5973
DA)	-11.5975
▁Also,	-11.5975
▁unanime	-11.5981
▁Afghanistan.	-11.5983
▁cohésion.	-11.5985
▁attendant	-11.5985
▁Libya	-11.5987
▁parviendrons	-11.5988
▁bureaux	-11.5988
▁Oomen-Ruijten	-11.5988
▁deviendra	-11.5991
▁pourparlers	-11.5998
▁autrichienne	-11.5998
▁exposed	-11.5998
▁définitivement	-11.6
▁exist.	-11.6
▁maximale	-11.6002
▁bénéficié	-11.6003
▁sentir	-11.6006
▁offrent	-11.6007
▁delivered	-11.601
▁persuade	-11.6018
▁inquiry	-11.6018
▁l'armée	-11.6018
▁TACIS	-11.6018
▁courte	-11.6021
▁farm	-11.6022
▁fixées	-11.6023
▁proactive	-11.6024
▁d'efforts	-11.6026
▁signatures	-11.6027
▁vendredi	-11.6032
▁travelling	-11.6033
▁d’intérêt	-11.6034
▁jeter	-11.6035
▁potentiels	-11.6035
▁amener	-11.6037
▁MEDA	-11.6037
▁track	-11.6038
▁Fund,	-11.6041
▁possèdent	-11.6048
▁conversion	-11.6053
▁800	-11.6057
▁component	-11.6058
▁abord	-11.6059
▁l'être	-11.6059
▁middle	-11.606
▁affronter	-11.6062
▁Third	-11.6062
▁puissances	-11.6067
▁pierre	-11.6068
▁Böge	-11.6068
▁disparition	-11.607
▁consulter	-11.6078
▁sanitaires	-11.6082
▁voters	-11.6083
▁guilty	-11.6083
▁identité	-11.6085
▁Syrie	-11.6088
▁démocratiques.	-11.6088
▁initiated	-11.6089
▁released	-11.609
▁monitored	-11.6092
▁in-depth	-11.6092
▁inclut	-11.6092
▁rendus	-11.6095
▁touchées	-11.6096
▁accurate	-11.6097
ecretary-General	-11.6099
▁tackled	-11.6101
▁wished	-11.6108
▁confirmation	-11.6109
▁notification	-11.611
▁méditerranéenne	-11.6111
▁Fund.	-11.6112
▁portugais	-11.6115
▁consideration.	-11.6116
▁table.	-11.6116
▁base.	-11.6116
▁cases.	-11.6119
▁Annex	-11.612
▁opération	-11.6123
▁contenus	-11.6124
▁concert	-11.6126
ers	-11.6126
▁delicate	-11.6133
▁travaillant	-11.6134
▁democratically	-11.6135
▁reserves	-11.6136
▁onto	-11.6141
▁obligés	-11.6141
▁souffre	-11.6141
▁assistance.	-11.6142
▁Kurdish	-11.6143
▁coordinating	-11.6143
▁Macédoine	-11.6143
▁protectionnisme	-11.6144
te	-11.6145
▁references	-11.615
▁a-t-elle	-11.615
▁Black	-11.6153
▁déposer	-11.6155
▁combine	-11.6158
▁clandestine	-11.6161
▁OGM	-11.6164
▁fallen	-11.6181
▁saving	-11.6182
▁mental	-11.6183
▁nullement	-11.6184
▁n’ai	-11.6184
▁formally	-11.6185
▁ones.	-11.6187
▁Médiateur	-11.6187
▁Re	-11.6189
▁données.	-11.619
▁ambitieuse	-11.6191
▁cofinancement	-11.6191
▁soldiers	-11.6193
▁venez	-11.6193
▁effectués	-11.6194
▁précédentes	-11.6198
▁simplified	-11.62
▁résumé	-11.6201
▁ideological	-11.6202
▁traditionnelles	-11.6203
▁title	-11.6205
▁ensured	-11.6213
▁won	-11.6217
▁lesson	-11.6218
▁thirdly	-11.622
▁corruption.	-11.6224
▁sanction	-11.6227
▁reminded	-11.623
▁repercussions	-11.623
▁d'emplois.	-11.6231
▁l'arrêt	-11.6232
▁reconnais	-11.6232
▁valoir	-11.6234
▁arrivés	-11.6236
▁impliquer	-11.6237
▁terroriste	-11.6239
▁concerns.	-11.624
▁Moldavie	-11.6241
▁transporteurs	-11.6244
▁technology.	-11.6247
▁enjeux	-11.6252
▁voulait	-11.6254
▁scheduled	-11.6254
▁alloués	-11.6255
▁authorised	-11.6256
▁used.	-11.6262
▁notation	-11.6264
▁d'offrir	-11.6264
▁exemptions	-11.6266
▁commises	-11.6267
▁writing	-11.6271
▁twice	-11.6271
▁contributes	-11.6272
▁survie	-11.6272
▁maintenant.	-11.6276
▁criminals	-11.6276
▁directes	-11.6278
▁appui	-11.6281
▁rapides	-11.6282
▁better.	-11.6288
▁inadmissible	-11.629
▁mépris	-11.6291
▁concernées.	-11.6296
▁l'image	-11.6297
▁divisions	-11.6298
▁bien.	-11.6298
▁mémoire	-11.6301
▁assured	-11.6304
▁everyday	-11.6305
▁package.	-11.6305
▁avoiding	-11.6306
▁obtaining	-11.6306
▁équipe	-11.6307
▁rien.	-11.6308
▁ship	-11.6308
▁Scotland	-11.6309
▁décisionnel	-11.6311
▁intelligence	-11.6313
▁chacune	-11.6314
▁contradictions	-11.6315
▁unprecedented	-11.6315
▁émanant	-11.6315
▁fuels	-11.6319
▁Suisse	-11.6319
▁33	-11.6322
▁précieux	-11.6323
▁dependence	-11.6323
▁innovation.	-11.6326
▁reposer	-11.6327
▁pensée	-11.6327
▁mother	-11.6329
▁addresses	-11.6335
▁accountability	-11.6345
▁l'exception	-11.6345
▁shipping	-11.6345
▁qu’au	-11.6346
▁Ukraine.	-11.6346
▁l'unité	-11.6348
▁autorisé	-11.6352
▁soulevées	-11.6356
▁audiovisual	-11.6356
▁logic	-11.6361
▁openly	-11.6362
▁députés.	-11.6363
▁prévoient	-11.6365
▁rang	-11.6372
▁privacy	-11.6374
▁parvenons	-11.6376
▁libérer	-11.6377
▁d'où	-11.6378
▁42	-11.6378
▁d’énergie	-11.6384
▁répondent	-11.6384
▁surplus	-11.6384
▁consequences.	-11.6386
▁biocarburants	-11.6387
▁sévères	-11.6387
▁urgente	-11.6395
▁reforms.	-11.6395
▁tienne	-11.6399
▁43	-11.6401
▁foster	-11.6403
▁Berlusconi	-11.6406
▁l’initiative	-11.6408
▁écouter	-11.641
▁révélé	-11.6415
▁deficits	-11.6416
▁David	-11.6418
▁avéré	-11.6419
▁tragique	-11.6419
▁occidentaux	-11.642
▁nul	-11.6422
▁bruit	-11.6423
▁billion.	-11.6424
▁automatically	-11.6426
▁3%	-11.6428
▁Turkey's	-11.643
▁supranational	-11.6433
▁dérogations	-11.6433
▁grecque	-11.6436
▁profitable	-11.6437
▁ownership	-11.6437
▁établissements	-11.644
▁consacrée	-11.6442
▁demanded	-11.6444
▁l'air	-11.6446
▁d'approvisionne	-11.6447
▁pace	-11.6447
▁Vitorino	-11.6447
▁reporter	-11.645
▁e	-11.645
▁uses	-11.6456
▁d'aides	-11.6457
▁Slovénie	-11.6458
▁arises	-11.6458
▁facilitating	-11.646
▁inondations	-11.6464
▁provoquer	-11.6466
▁Taiwan	-11.6468
▁21st	-11.647
▁réalisée	-11.6474
▁entendons	-11.6477
▁d'exécution	-11.6477
▁dûment	-11.6478
▁criticised	-11.6479
▁passing	-11.6479
▁heavily	-11.648
▁subjected	-11.6485
▁investissement	-11.6485
▁sentiments	-11.6488
▁mentionnés	-11.649
▁abandonner	-11.6496
▁concentre	-11.65
onformément	-11.65
▁décision-cadre	-11.65
▁vous-même	-11.6501
▁Aucune	-11.6506
▁budgets.	-11.6506
▁élevée	-11.6507
▁clair.	-11.6507
▁Asian	-11.6509
▁wholeheartedly	-11.651
▁conjointe	-11.6511
▁Should	-11.6512
▁Moyen-Orient.	-11.6513
▁36	-11.6514
▁préconise	-11.6518
▁fiables	-11.6521
▁José	-11.6522
▁établie	-11.6524
▁arrested	-11.6525
▁venir,	-11.6527
▁faille	-11.6528
▁amélioré	-11.6531
▁d'intégrer	-11.6533
▁60%	-11.6533
▁governments.	-11.6537
▁permanence	-11.6542
▁cherchent	-11.6542
▁Through	-11.6543
▁Baroness	-11.6543
▁honorables	-11.6545
▁consacrés	-11.6551
▁monopoly	-11.6552
▁irregularities	-11.6552
▁Erika	-11.6553
▁remarkable	-11.6554
▁stability.	-11.6558
ées	-11.656
▁contraire.	-11.6563
▁Egypt	-11.6563
▁traduction	-11.6563
▁difficilement	-11.6567
▁institution.	-11.6567
▁diverse	-11.657
▁p.m.)	-11.657
▁parvenue	-11.6576
▁réflexions	-11.6578
▁radioactive	-11.658
▁calcul	-11.6589
▁tentent	-11.6591
▁abolish	-11.6591
▁identifier	-11.6592
▁cohérent	-11.6592
▁soviétique	-11.6593
▁film	-11.6593
▁ended	-11.6594
▁Liikanen	-11.6595
▁résultant	-11.6595
▁soutiendra	-11.6597
▁raison.	-11.6599
▁ferroviaires	-11.6599
▁autre.	-11.6605
▁Nord.	-11.6605
▁wake	-11.6605
▁John	-11.6606
▁victimes.	-11.6608
▁phénomènes	-11.6612
▁imposé	-11.6615
▁inférieur	-11.6623
▁atteints	-11.6623
▁prêter	-11.6624
▁remplacement	-11.6628
▁Ukraine,	-11.663
▁l'humanité	-11.6632
▁indicates	-11.6634
▁root	-11.6636
▁inequalities	-11.6637
▁professionals	-11.6637
▁trente	-11.6638
▁l’avis	-11.6638
▁d'ouvrir	-11.6638
▁volontiers	-11.6638
▁d'accueil	-11.6638
▁spécifiques.	-11.6639
▁Lamy	-11.6639
▁Tourism	-11.6641
▁sexes	-11.6645
▁d’origine	-11.6645
▁PPE-DE.	-11.6645
▁régissant	-11.6648
▁producer	-11.6651
▁serions	-11.6651
▁estimations	-11.6652
ity	-11.6655
▁internationaux.	-11.6656
▁federal	-11.6657
▁worried	-11.6658
▁Rehn	-11.6658
▁Harbour	-11.6658
▁requête	-11.6658
▁implementation.	-11.666
▁Iran.	-11.6661
▁lists	-11.6662
Parce	-11.6665
▁responding	-11.6666
▁l'électricité	-11.6668
▁ultimate	-11.6669
▁consists	-11.667
▁déterminée	-11.6673
▁Greens/	-11.6679
▁self-employed	-11.668
▁défenseurs	-11.6682
▁K	-11.6685
▁Socrates	-11.6692
▁flights	-11.6694
▁obligations.	-11.6695
▁m'est	-11.6697
▁modifiés	-11.6699
▁Latvia	-11.67
▁facility	-11.6701
▁irresponsible	-11.6701
▁pluriannuel	-11.6703
▁constraints	-11.6705
▁souvenir	-11.6706
▁vit	-11.6707
▁Switzerland	-11.6708
▁l’information	-11.6712
▁qu'aujourd'hui	-11.6712
▁exclude	-11.672
▁frappé	-11.6721
▁quick	-11.6721
▁integral	-11.6723
▁l'appui	-11.6723
▁corporate	-11.6723
▁moratoire	-11.6723
▁'no'	-11.6724
▁espoirs	-11.6724
▁favorise	-11.6724
▁adjustment	-11.6726
▁pertinentes	-11.6731
▁connais	-11.6732
▁creative	-11.6732
▁lourds	-11.6733
▁El	-11.6735
▁rational	-11.6738
▁continuons	-11.6738
ys	-11.674
investissements	-11.6742
▁coûte	-11.6742
▁devote	-11.6744
▁fonde	-11.6745
▁concerné	-11.6746
▁posed	-11.675
▁towns	-11.6751
▁couverture	-11.6752
▁stresses	-11.6752
▁renforçant	-11.6755
▁mauvaises	-11.6759
▁s'appliquer	-11.6759
▁négocié	-11.6761
▁listes	-11.6762
▁hunger	-11.6766
▁solving	-11.6766
▁prerequisite	-11.6773
▁imaginer	-11.6773
▁investing	-11.6776
▁soutenant	-11.6776
▁l'échec	-11.6777
▁publiques.	-11.6777
▁essential.	-11.6778
ai	-11.6778
▁attempting	-11.6781
▁emphasize	-11.6784
▁Democrat	-11.6786
▁C'était	-11.6787
▁d'utilisation	-11.6787
ion	-11.679
▁j'aurais	-11.6791
▁game	-11.6794
▁vide	-11.6797
▁mur	-11.6798
▁tuna	-11.6798
▁externes	-11.6799
▁familiale	-11.6807
▁placé	-11.6808
▁strive	-11.6808
▁criteria,	-11.6808
▁Sharon	-11.6809
▁impatience	-11.6809
▁governed	-11.6809
▁emphasises	-11.6811
▁multinational	-11.6812
▁dollar	-11.6819
▁renouvelables.	-11.6828
▁generous	-11.6829
▁vérification	-11.6833
▁résolus	-11.6833
▁distorsions	-11.6834
▁recorded	-11.6836
▁north	-11.6837
▁jours.	-11.684
▁réchauffement	-11.6841
▁Questions	-11.6841
▁turque	-11.6843
▁demonstration	-11.6845
▁figurer	-11.6846
▁Amérique	-11.6847
▁dictatorship	-11.6848
▁errors	-11.6849
▁enceinte	-11.685
▁enfant	-11.6851
▁l'annexe	-11.6852
▁coins	-11.6854
▁normally	-11.6855
▁exhaustive	-11.686
▁impossible.	-11.6861
▁criticisms	-11.6862
▁appalling	-11.6862
▁Apart	-11.6863
▁l'aviation	-11.6863
▁pages	-11.6865
▁assistants	-11.6867
▁tomber	-11.687
▁Lisbon,	-11.687
▁unie	-11.6874
▁enforce	-11.6875
▁transitoire	-11.6876
▁Democracy	-11.6878
▁2015	-11.6885
▁findings	-11.6887
▁quantitative	-11.6887
▁etc.,	-11.6888
▁dé	-11.6888
▁Jean	-11.689
▁bénéfique	-11.6891
▁saine	-11.6893
▁routière	-11.6893
▁industriel	-11.6896
▁witnessed	-11.6896
ising	-11.6904
▁mesures.	-11.6905
▁match	-11.6906
ons-nous	-11.6907
▁l'offre	-11.6907
▁ELDR	-11.6908
▁situe	-11.6909
▁describe	-11.691
▁d'intérêts	-11.6911
▁dépens	-11.6913
▁cause.	-11.6913
▁précision	-11.6914
▁défend	-11.6914
▁fusion	-11.6915
▁Mann	-11.6916
▁believed	-11.6917
▁sustained	-11.6918
▁réservé	-11.6918
▁proposant	-11.6921
▁anti	-11.6923
▁data.	-11.6924
▁causés	-11.6926
▁recognising	-11.6928
▁(SL)	-11.6928
▁livestock	-11.6928
▁GMOs	-11.6929
▁combination	-11.6929
▁estimates	-11.6932
▁served	-11.6933
▁considérées	-11.6934
▁returned	-11.6934
▁class	-11.6934
▁aidera	-11.6936
▁criticise	-11.6938
▁m’a	-11.6938
▁removing	-11.6938
▁(démocrates	-11.6938
▁character	-11.6939
▁septième	-11.6939
▁modernes	-11.6942
▁adding	-11.6944
s"	-11.6945
▁linguistique	-11.6947
▁wise	-11.6948
▁born	-11.6948
▁équitables	-11.6948
f	-11.6949
▁interference	-11.695
▁conclusions.	-11.6954
▁bananes	-11.6958
▁prestations	-11.6959
▁gouvernement.	-11.6959
▁wonderful	-11.6959
▁seat	-11.696
▁IV	-11.696
▁Libye	-11.6962
▁l'UEM	-11.6963
▁possession	-11.6971
▁financement.	-11.6974
▁thoroughly	-11.6974
▁accessibles	-11.6979
▁cast	-11.698
▁occidentale	-11.698
▁biologique	-11.6982
▁fréquemment	-11.6982
▁general,	-11.6983
▁d'Afrique	-11.6984
▁Mexico	-11.6984
▁strikes	-11.6986
▁availability	-11.6993
▁l'échelon	-11.6993
▁semble-t-il	-11.6997
▁Pas	-11.6997
▁tonight	-11.7
▁légal	-11.7
▁lieu.	-11.7001
st	-11.7002
▁researchers	-11.7004
▁apparaître	-11.7006
▁Nordic	-11.7009
▁ouvertement	-11.701
▁lance	-11.701
▁taxpayers	-11.7015
▁verte	-11.7019
▁Olympic	-11.7023
▁victory	-11.7028
▁procedures,	-11.7029
▁retirement	-11.703
▁tarifs	-11.7034
▁conformes	-11.7037
▁approbation	-11.7037
▁apportera	-11.7038
▁groupe.	-11.704
▁tunnel	-11.7041
▁Resolution	-11.7042
▁verts	-11.7043
▁principles.	-11.7046
▁doive	-11.7049
▁couverts	-11.7049
▁unlike	-11.7049
ment,	-11.7051
▁ignored	-11.7052
▁response.	-11.7052
▁internet	-11.7053
▁reports,	-11.7053
▁accéder	-11.7057
▁l’absence	-11.7059
▁whenever	-11.7061
▁Bank,	-11.7064
▁desired	-11.7065
▁suivants:	-11.7067
▁préparatifs	-11.707
▁Each	-11.707
▁Peace	-11.707
▁recycling	-11.7072
▁économiquement	-11.7073
▁secrétariat	-11.7073
▁satisfy	-11.7078
▁continue.	-11.7078
▁conducteurs	-11.7081
▁Against	-11.7081
x	-11.7082
▁d'Israël	-11.7082
▁illégal	-11.7087
▁11,	-11.7088
▁d’information	-11.709
▁vendre	-11.7093
▁stem	-11.7093
▁attaquer	-11.7101
▁Kong	-11.7104
▁déterminant	-11.7105
▁follows:	-11.7105
▁Vienna	-11.7107
▁Agreement.	-11.7109
▁consentis	-11.7109
▁d'objectifs	-11.7109
▁history.	-11.7111
▁pertinent	-11.7113
▁Medina	-11.7114
▁lowest	-11.7115
▁Barrot	-11.7116
▁ami	-11.712
▁profound	-11.7125
▁sachant	-11.7126
▁enjoyed	-11.7128
▁d'instruments	-11.7129
▁enterprise	-11.7136
▁qualitative	-11.7136
▁réduits	-11.7137
▁burdens	-11.7138
▁publier	-11.714
▁moratorium	-11.714
▁inappropriate	-11.7141
▁exceptionnelle	-11.7146
▁découle	-11.7146
▁pénales	-11.7148
▁rejoins	-11.7149
▁location	-11.7153
▁contraints	-11.7155
▁développe	-11.716
▁quotidienne	-11.7161
▁suggéré	-11.7162
▁efficaces.	-11.7163
▁d'affaires	-11.7163
▁pointing	-11.7164
▁siècle.	-11.7166
▁caught	-11.717
▁Neighbourhood	-11.717
▁securing	-11.7181
▁century.	-11.7182
▁s’en	-11.7183
▁synergies	-11.7184
▁pauvres.	-11.7189
▁38	-11.7191
▁réalités	-11.7192
▁ressource	-11.7192
▁l'Autorité	-11.7192
▁route.	-11.7195
▁priorités.	-11.7197
▁africaine	-11.7198
▁riche	-11.7205
▁claimed	-11.7206
▁Relations	-11.7207
▁islands	-11.7209
▁guerre.	-11.7211
▁resolution)	-11.7212
▁grants	-11.7212
▁model.	-11.7213
▁(BG)	-11.7215
▁d'envisager	-11.7215
▁implication	-11.7215
▁seekers	-11.7215
▁souhaits	-11.7216
▁genetic	-11.7218
▁topics	-11.7226
▁allait	-11.7227
▁activity.	-11.7228
▁maison	-11.7228
▁town	-11.723
▁normalisation	-11.723
▁differ	-11.7231
▁limiting	-11.7232
▁essayons	-11.7233
▁d’en	-11.7235
▁préoccupés	-11.7236
▁l'intégrité	-11.7237
▁Quite	-11.7237
▁s'impose	-11.7239
▁avance	-11.724
▁posts	-11.7241
▁confirms	-11.7242
▁révèle	-11.7245
▁parlent	-11.7245
▁pair	-11.7246
▁solides	-11.7248
▁humanity	-11.7249
▁brefs	-11.7249
▁unité	-11.725
▁constituency	-11.7252
▁bus	-11.7252
▁appeared	-11.7253
▁remboursement	-11.7256
▁contribution.	-11.7262
▁AIDS	-11.7263
▁fournis	-11.7265
▁facilité	-11.7266
▁close.	-11.7269
▁parallèle	-11.7273
▁nationale,	-11.7273
▁topical	-11.7276
▁retrouve	-11.7278
▁affectés	-11.7279
▁bataille	-11.7283
▁troubles	-11.7284
▁correction	-11.7286
▁transmis	-11.7286
▁africains	-11.7286
▁indiquent	-11.7289
▁Mercosur	-11.7291
▁sélection	-11.7291
▁repression	-11.7291
▁Eh	-11.7292
▁philosophie	-11.7293
▁Chacun	-11.7294
▁manifester	-11.7296
▁patience	-11.7297
▁demanderai	-11.7301
▁majeures	-11.7301
▁soir.	-11.7302
▁fournies	-11.7304
▁fièvre	-11.7305
▁occupied	-11.7305
▁banana	-11.7305
▁maybe	-11.7306
▁Small	-11.7306
▁d'ouverture	-11.7308
▁Royaume-Uni.	-11.7313
▁earmarked	-11.7316
▁l'orientation	-11.7317
▁frankly	-11.7317
▁adressée	-11.7321
▁d'attention	-11.7322
▁dairy	-11.7327
▁défense.	-11.7329
▁threatening	-11.733
▁Crespo	-11.7331
▁fondements	-11.7337
▁condamne	-11.7337
▁manufacturing	-11.7339
▁élan	-11.7344
▁défendu	-11.7348
▁farmers.	-11.735
▁jeunes.	-11.7353
▁mind.	-11.7356
▁reflètent	-11.7356
▁focuses	-11.7358
▁monopole	-11.7358
▁directives.	-11.7359
▁guerres	-11.736
▁definitive	-11.7361
▁fin.	-11.7361
▁billets	-11.7361
▁70%	-11.7362
-General	-11.7362
▁proprement	-11.7364
▁août	-11.7365
▁Bangemann	-11.7365
▁25%	-11.7366
▁administratifs	-11.7367
▁parviennent	-11.7368
▁sixième	-11.737
▁prochain.	-11.7374
▁préférences	-11.7375
▁pollution.	-11.7377
▁âge	-11.7379
▁Sud.	-11.7379
▁n'aient	-11.738
▁speculation	-11.7388
▁avancés	-11.7392
▁incapables	-11.7393
▁douane	-11.7394
▁handicap	-11.7396
▁aiming	-11.7399
▁challenges.	-11.7403
▁créée	-11.7403
▁jouets	-11.7404
▁Robert	-11.7407
▁Until	-11.7407
▁Sahara	-11.7408
▁dire.	-11.7409
▁assister	-11.7414
▁opérationnel	-11.7414
▁explicit	-11.7415
▁reverse	-11.7416
▁requiring	-11.7418
▁concluding	-11.7418
▁ground.	-11.7421
▁uphold	-11.7421
▁traitée	-11.7422
▁Communication	-11.7422
▁persecution	-11.7423
▁Netherlands,	-11.7426
▁dépenser	-11.7428
▁computer	-11.7429
▁parlementaire.	-11.7429
▁modifiée	-11.743
▁preference	-11.7431
▁référendums	-11.7433
▁transports.	-11.7434
▁évidente	-11.7439
▁d'étendre	-11.7441
▁rural,	-11.7443
▁prétend	-11.7448
▁feels	-11.7448
▁sanitaire	-11.7451
▁tremendous	-11.7452
▁ensures	-11.7453
▁accueillir	-11.7456
▁moves	-11.7456
▁carburants	-11.7458
▁leçon	-11.7458
▁illégaux	-11.7461
▁pragmatic	-11.7464
▁approfondi	-11.7464
▁Estonia	-11.7464
▁préféré	-11.7466
▁reconnaissons	-11.7469
▁Lettonie	-11.7469
▁surcroît	-11.7476
▁garanti	-11.7478
▁Aux	-11.7478
▁jurisprudence	-11.7481
▁Schengen.	-11.7482
▁wind	-11.7483
▁faut-il	-11.7484
▁optique	-11.7485
▁Neither	-11.7487
▁concevoir	-11.7487
▁clear:	-11.7488
▁fragmentation	-11.7492
▁convey	-11.7496
fondamentalement	-11.7496
▁communicate	-11.7498
▁initiate	-11.7498
▁44	-11.7498
▁teneur	-11.7501
▁ex	-11.7502
▁là.	-11.7503
▁province	-11.7506
ère	-11.751
▁minds	-11.7511
▁Euratom	-11.7514
▁prépare	-11.7517
▁war,	-11.7517
▁égal	-11.7518
▁retraités	-11.7519
▁parlementaires,	-11.7519
▁oriental	-11.7521
▁overwhelming	-11.7521
▁d’adopter	-11.7522
▁voulions	-11.7522
▁preferred	-11.7522
▁displaced	-11.7522
▁promotes	-11.7522
▁restaurer	-11.7524
▁langage	-11.7527
▁deadlines	-11.7528
▁registered	-11.7528
▁remark	-11.7532
▁exert	-11.7532
▁commissaire.	-11.7533
▁adressées	-11.7533
▁Hague	-11.7539
▁Yesterday	-11.7545
▁Fédération	-11.7545
▁trains	-11.7549
▁clubs	-11.755
▁abroad	-11.755
▁naturelle	-11.7557
▁faiblesse	-11.756
▁Members.	-11.756
▁réexamen	-11.7562
▁intérimaire	-11.7566
▁ancien	-11.7566
▁Conciliation	-11.7568
▁l'autorisation	-11.7568
▁majority.	-11.757
▁donateurs	-11.7572
▁fondées	-11.758
▁hongrois	-11.758
▁durement	-11.7581
▁passent	-11.7583
▁triste	-11.7584
▁Party,	-11.7585
▁respectés	-11.7587
▁origine	-11.759
▁réfère	-11.759
▁critiquer	-11.759
-chrétiens)	-11.7592
▁more.	-11.7594
▁consommateur.	-11.7597
▁fonctionnent	-11.7598
▁praise	-11.7598
▁elimination	-11.7603
▁l’amélioration	-11.7603
▁progression	-11.7608
▁Strategy.	-11.761
▁modest	-11.7614
▁floods	-11.7614
▁demonstrating	-11.7615
▁mobilise	-11.7617
▁rassembler	-11.7619
▁realised	-11.7624
▁prétendre	-11.7627
▁constat	-11.763
▁tariff	-11.7631
▁rétablissement	-11.7632
▁nations.	-11.7632
▁l'étude	-11.7633
année	-11.7633
▁beau	-11.7634
▁discussions.	-11.7638
▁D'abord	-11.7638
▁d'énormes	-11.7638
▁East,	-11.7641
▁freedom.	-11.7642
▁far.	-11.7643
▁Day	-11.7645
▁mettons	-11.7646
▁automatiquement	-11.7651
▁assurant	-11.7651
▁persuadé	-11.7652
▁autumn	-11.7656
▁expressly	-11.7656
▁d'innovation	-11.7661
▁requises	-11.7664
▁contiennent	-11.7665
▁speaker)	-11.7668
▁israélien	-11.7669
▁divide	-11.7669
▁sectoral	-11.767
▁ampleur	-11.767
▁poorer	-11.7672
-elle	-11.7672
▁donor	-11.7672
▁dramatique	-11.7673
▁lobby	-11.7674
▁nécessitent	-11.7677
▁Thanks	-11.7677
▁faces	-11.7678
▁atmosphere	-11.7679
▁assistons	-11.768
▁Christians	-11.768
▁forts	-11.7681
▁protégés	-11.7682
▁recognize	-11.7683
▁conjunction	-11.7685
▁mid-term	-11.7685
▁l’avenir.	-11.7686
▁consensus.	-11.7686
▁compenser	-11.7687
▁bureaucratique	-11.7689
▁comitology	-11.7691
▁atteintes	-11.7694
▁connue	-11.7694
▁permission	-11.7697
▁émettre	-11.7697
▁149)	-11.7698
▁player	-11.7698
▁secondary	-11.7699
▁channels	-11.7699
▁morning.	-11.77
▁isolated	-11.77
▁exposés	-11.7701
▁children's	-11.7701
▁good.	-11.7705
▁mondialisation.	-11.7706
▁ré	-11.7706
▁steel	-11.7708
Applaudissements	-11.7708
▁indiquant	-11.7708
▁organized	-11.7709
▁regulating	-11.7709
▁conclusion.	-11.771
▁touché	-11.7713
▁dedicated	-11.7714
▁adressé	-11.7715
▁Malmström	-11.7715
▁fermeté	-11.7715
▁avis.	-11.7715
▁légales	-11.7715
▁PME.	-11.7718
▁améliorée	-11.7719
▁gets	-11.7719
▁quotidien	-11.772
▁Hier	-11.772
▁determining	-11.7723
▁transfers	-11.7724
▁d'Europe.	-11.7728
▁peser	-11.7732
▁offrant	-11.7732
▁dual	-11.7733
▁l'orateur)	-11.7734
▁invested	-11.7735
▁currency.	-11.7735
▁interpreted	-11.7739
▁remote	-11.7743
▁propriétaires	-11.7743
▁Nobel	-11.7744
▁mineurs	-11.7744
▁commenter	-11.7745
▁côtes	-11.7747
▁plainte	-11.7748
▁13,	-11.7749
▁affaire.	-11.775
▁author.	-11.775
▁proximité	-11.775
▁story	-11.7751
▁quantity	-11.7752
▁assessed	-11.7753
▁supérieure	-11.7754
▁coupables	-11.7754
▁10,	-11.7756
▁PSE.	-11.7759
▁Eurojust	-11.7762
▁l'institution	-11.7763
▁enregistré	-11.7766
▁sees	-11.7767
▁driven	-11.7768
▁éleveurs	-11.7769
▁prolonger	-11.7771
▁affairs.	-11.7771
▁subsidiarity.	-11.7773
▁González	-11.7774
▁6.	-11.7774
▁condemnation	-11.7775
▁zero	-11.7776
▁système.	-11.7779
▁appropriés	-11.7782
▁suivantes	-11.7783
▁annuels	-11.7783
▁productions	-11.7785
▁encourages	-11.7785
▁dioxide	-11.7786
▁détruire	-11.7786
▁productivité	-11.7789
▁act.	-11.7791
▁l'abolition	-11.7792
▁revêtent	-11.7793
▁Là	-11.7793
▁souffrances	-11.7794
▁homes	-11.7794
▁l'Alliance	-11.7796
▁Johannesburg	-11.7798
▁Annan	-11.7798
▁chaos	-11.78
▁unitaire	-11.7801
▁Rather	-11.7803
▁l'influence	-11.7804
▁cru	-11.7807
▁disparities	-11.781
▁community,	-11.7812
▁pluralisme	-11.7813
▁foodstuffs	-11.7814
▁réclamer	-11.7817
▁légalement	-11.7818
▁l’argent	-11.7819
▁manoeuvre	-11.7821
▁réglementaires	-11.7822
▁perform	-11.7825
▁symbol	-11.7826
▁everywhere	-11.7826
▁d'insister	-11.7827
▁7.	-11.7829
▁merit	-11.7829
▁sexe	-11.783
▁America.	-11.7831
▁hide	-11.7832
▁couvert	-11.7832
▁pillars	-11.7835
▁beneficiaries	-11.7836
▁presidency.	-11.7838
▁Adjustment	-11.7839
▁desquelles	-11.7839
▁abordés	-11.7841
▁plaide	-11.7841
▁souffrance	-11.7843
▁papier	-11.7844
▁split	-11.7845
▁ouverts	-11.7847
▁arrêt	-11.7847
▁partisan	-11.7849
▁90%	-11.7851
▁symbolic	-11.7851
▁thinks	-11.7852
▁affecte	-11.7856
▁supporters	-11.7857
▁détaillées	-11.7857
▁continuité	-11.7858
▁traçabilité	-11.7858
▁désarmement	-11.7858
ir	-11.7858
▁Beijing	-11.7858
▁l'usage	-11.7861
▁Ceux-ci	-11.7863
▁d'ajouter	-11.7863
▁Council’s	-11.7869
▁anywhere	-11.787
▁Basque	-11.7871
▁portes	-11.7871
▁investment.	-11.7871
▁twenty	-11.7875
▁Personnellement	-11.7875
▁Chancellor	-11.7875
▁déroule	-11.7875
▁vigilant	-11.7876
▁autoriser	-11.7878
▁jugé	-11.7881
▁sol	-11.7886
▁venue	-11.7887
▁facilitation	-11.7887
▁controlling	-11.7887
▁flag	-11.7888
▁organization	-11.7889
▁numéro	-11.789
▁arrière	-11.7893
▁sessions	-11.7894
▁alarming	-11.7895
▁await	-11.7896
▁l'intermédiaire	-11.7899
▁l'honneur	-11.7899
▁références	-11.7899
▁délits	-11.79
▁expand	-11.7906
▁redistribution	-11.7906
▁actuel.	-11.7908
▁wrong.	-11.7908
▁advances	-11.7909
▁n'aura	-11.791
▁Certainly	-11.7911
▁trouble	-11.7917
▁survival	-11.7918
▁Conference.	-11.792
▁exergue	-11.7923
▁s'était	-11.7923
▁later,	-11.7923
▁motivation	-11.7924
▁urged	-11.7927
▁sex	-11.7928
▁apprécié	-11.7929
▁quo	-11.7929
▁l'évidence	-11.7935
▁generated	-11.7936
▁nourriture	-11.794
▁l'étranger	-11.7942
▁punishment	-11.7942
▁religieux	-11.7943
▁industrielles	-11.7944
▁évoluer	-11.7949
▁susciter	-11.795
▁créent	-11.7951
▁years'	-11.7951
▁fournissent	-11.7962
▁récession	-11.7967
▁comitologie	-11.7967
▁occuper	-11.7968
▁announcement	-11.7969
▁Algeria	-11.7971
▁shortage	-11.7976
▁peut-elle	-11.7976
▁contents	-11.7977
▁lourde	-11.7978
▁chargés	-11.7981
▁execution	-11.7983
▁Freedom	-11.7984
▁recital	-11.7986
▁publicly	-11.7987
▁agricoles.	-11.7988
▁immédiat	-11.799
▁Congress	-11.7991
▁distributed	-11.7992
▁sport.	-11.7992
▁use.	-11.7995
▁soulevée	-11.7996
▁ressources.	-11.7996
▁apportent	-11.7998
▁requis	-11.7999
▁»	-11.8003
▁Vienne	-11.8007
▁civilians	-11.8007
▁comprenons	-11.8007
▁transférer	-11.8007
▁banning	-11.8007
▁biofuels	-11.8011
▁cité	-11.8011
▁persistent	-11.8016
▁fédérale	-11.8016
▁Delors	-11.8017
▁biological	-11.8019
▁separation	-11.8019
▁spectrum	-11.8019
▁integrating	-11.8019
▁map	-11.8021
▁douanière	-11.8022
▁establishes	-11.8028
▁signale	-11.8028
▁Oostlander	-11.8028
▁stopped	-11.8028
▁claire.	-11.8028
▁voterai	-11.803
▁ALDE.	-11.8033
▁technology,	-11.8033
▁networks.	-11.8034
▁2012.	-11.8035
▁territory.	-11.8036
▁prompt	-11.8036
▁runs	-11.8037
▁causé	-11.804
▁néerlandaise	-11.804
▁illustre	-11.8043
▁job.	-11.8047
▁réfugiés.	-11.8048
▁era	-11.8051
▁cours.	-11.8053
▁dangereuse	-11.8054
▁continuous	-11.8055
▁implies	-11.8056
▁preservation	-11.8056
▁monétaires	-11.8057
▁éventail	-11.8057
▁simplifying	-11.8062
▁Copenhague.	-11.8062
▁réagi	-11.8064
▁simple.	-11.8065
▁Bonino	-11.8065
▁bottom	-11.8068
▁(L	-11.8069
▁drinking	-11.8069
▁interests,	-11.807
▁villages	-11.8074
▁belonging	-11.8074
▁envisagé	-11.8074
▁else.	-11.8081
▁voisin	-11.8081
▁tape	-11.8082
▁relationships	-11.8082
▁Slovak	-11.8085
▁confrontation	-11.8088
▁philosophy	-11.8089
▁l’approche	-11.8093
▁concentrated	-11.8095
▁analyser	-11.8096
▁suspend	-11.8097
▁sortes	-11.8099
▁Mulder	-11.8101
▁holds	-11.8103
▁Freedoms	-11.8104
▁d'approuver	-11.8105
▁l'exigence	-11.8105
▁Suu	-11.8105
▁II.	-11.811
▁cross	-11.8111
▁gains	-11.8112
▁unified	-11.8112
▁efficiency.	-11.8113
▁brève	-11.8115
▁2011,	-11.8116
▁profond	-11.8118
▁l'agriculture.	-11.8118
▁selection	-11.8118
▁origin.	-11.8122
▁exister	-11.8124
▁laissent	-11.8126
▁rural.	-11.8127
▁peut-il	-11.8127
▁non-respect	-11.8129
▁réduisant	-11.8129
▁harmoniser	-11.8129
▁remedy	-11.8135
▁déséquilibres	-11.8135
▁objective,	-11.8136
▁diplomatiques	-11.8136
▁injuste	-11.8141
▁Goals	-11.8142
▁transform	-11.8143
▁backed	-11.8146
▁explicite	-11.8148
▁empty	-11.8148
▁genocide	-11.8151
▁troisièmement	-11.8153
▁formula	-11.8154
▁deliberately	-11.8154
▁précisé	-11.8156
▁alimentaires.	-11.8157
▁conciliation.	-11.8157
▁decision,	-11.8158
▁situations.	-11.816
▁d'activité	-11.8162
▁propos.	-11.8163
▁cohésion,	-11.8163
▁conflit.	-11.8165
▁drop	-11.8166
▁spectre	-11.8166
▁quarter	-11.817
▁L'une	-11.8171
▁[	-11.8176
▁reinforced	-11.8177
▁quiconque	-11.8178
▁géographiques	-11.8179
▁Où	-11.8179
▁rejecting	-11.818
▁intéressés	-11.8188
▁swift	-11.8189
▁reassure	-11.819
▁Balkan	-11.8191
▁enhancing	-11.8194
▁rid	-11.8195
article	-11.8196
▁consult	-11.8199
▁modulation	-11.8201
▁démocraties	-11.8201
▁fonder	-11.8204
▁renvoi	-11.8208
▁massacre	-11.821
▁UEN	-11.8213
▁enthusiasm	-11.8213
▁désignation	-11.8223
▁lancée	-11.8224
▁instrument.	-11.8225
▁threaten	-11.8226
▁east	-11.8228
▁acquired	-11.8229
▁arabe	-11.8231
▁general.	-11.8232
▁garantissent	-11.8233
▁trends	-11.8235
▁translation	-11.8236
▁particulière.	-11.8236
▁accepts	-11.8238
▁Florence	-11.8238
▁Rio	-11.8238
▁telephone	-11.824
▁cod	-11.8241
▁Working	-11.8243
▁expenditure.	-11.8243
▁dominant	-11.8244
▁ties	-11.8245
▁hasard	-11.8247
▁identifying	-11.8249
▁armées	-11.825
▁Arctic	-11.8251
▁face.	-11.8251
▁pousser	-11.8252
▁Côte	-11.8253
▁5%	-11.8254
ise	-11.8257
▁identique	-11.8258
▁présidence.	-11.8258
▁policière	-11.8259
▁mesurer	-11.8265
▁médecins	-11.8265
▁d'importantes	-11.8265
▁eligible	-11.8265
▁l'apprentissage	-11.8265
▁vol	-11.8266
▁confiance.	-11.8271
▁Mandelson	-11.8275
▁PESC	-11.8276
▁d'harmonisation	-11.8278
▁fier	-11.8278
▁exclure	-11.8278
▁sadly	-11.8279
▁wishing	-11.8285
▁globalisation.	-11.8285
▁minutes.	-11.8286
▁frustration	-11.8287
▁symbole	-11.8288
▁quality.	-11.8289
▁reconcile	-11.8289
▁donors	-11.829
▁l’accent	-11.829
▁l'adaptation	-11.829
▁bilatérales	-11.8291
▁déposée	-11.8292
▁margin	-11.8295
▁dit.	-11.8296
1)	-11.8297
▁offertes	-11.8298
▁productivity	-11.8299
▁Rothley	-11.8301
▁cattle	-11.8302
▁d'arriver	-11.8303
▁quasiment	-11.8304
▁endroits	-11.8304
▁cessé	-11.8306
▁proposent	-11.8308
▁licenciements	-11.8309
▁elle-même.	-11.8312
▁l'assurance	-11.8312
▁charter	-11.8312
▁rapidité	-11.8313
▁O	-11.8313
▁xénophobie	-11.8314
▁intéressante	-11.8316
▁1994,	-11.8317
▁compréhensible	-11.8321
▁terror	-11.8325
▁là-bas	-11.8326
▁famous	-11.8328
▁renouvellement	-11.8328
▁prestation	-11.8328
▁Bank.	-11.8329
▁constituerait	-11.8333
▁responded	-11.8335
▁strange	-11.8336
▁danger.	-11.8338
▁belles	-11.834
▁wide-ranging	-11.834
▁l'actuelle	-11.834
▁speech.	-11.8347
▁Muslim	-11.8347
▁complement	-11.8351
▁vigilance	-11.8351
▁handled	-11.8352
▁toxic	-11.8352
▁46	-11.8352
▁mainstreaming	-11.8352
▁favorisant	-11.8353
▁Articles	-11.8353
▁proviennent	-11.8354
▁qualifiés	-11.8358
▁union.	-11.8358
▁unilatérale	-11.8359
▁utile.	-11.8359
▁existante	-11.8364
▁xenophobia	-11.8364
▁honnête	-11.8365
▁Ou	-11.8365
ement	-11.8368
-0	-11.8371
▁collègues.	-11.8371
▁s'adapter	-11.8371
▁summit.	-11.8373
▁Among	-11.8375
▁Byrne	-11.8376
▁complexity	-11.8377
▁macroeconomic	-11.8378
▁Climate	-11.8378
▁avenir.	-11.8379
▁girls	-11.8381
▁suspendre	-11.8382
▁sympathie	-11.8387
▁yougoslave	-11.8388
▁Cuba.	-11.839
▁normalement	-11.8391
▁online	-11.8393
▁monopoles	-11.8394
▁12,	-11.8395
▁élargir	-11.8398
▁postpone	-11.84
▁remit	-11.8402
▁décisions.	-11.8402
▁mentionnées	-11.8402
▁approving	-11.8403
▁journaux	-11.8404
▁EU'	-11.8404
▁matin.	-11.8413
▁130	-11.8414
▁elles-mêmes	-11.8415
▁dioxyde	-11.8416
▁abouti	-11.8416
▁Summit.	-11.8416
▁protège	-11.8416
▁basées	-11.8416
▁initialement	-11.8417
▁comptent	-11.842
▁suspendue	-11.842
▁sauvegarder	-11.8424
▁mentions	-11.8425
▁dégradation	-11.8427
▁acteur	-11.8427
▁"non"	-11.8428
▁l'importation	-11.8428
▁Anyone	-11.8428
▁dream	-11.843
▁élections.	-11.8433
▁combustibles	-11.8438
▁tolérer	-11.8439
▁individuelle	-11.844
▁instability	-11.844
▁coeur	-11.844
▁quantities	-11.844
▁Paragraph	-11.8441
▁l’ouverture	-11.8441
▁d'arrêt	-11.8441
▁Merkel	-11.8441
▁Industrial	-11.8442
▁assembly	-11.8443
▁bears	-11.8444
▁distances	-11.8444
▁finlandaise	-11.8447
▁intégrées	-11.8447
▁welcome.	-11.8447
▁ourselves.	-11.8448
▁autonome	-11.8449
▁Venezuela	-11.845
▁permets	-11.8453
▁Caucase	-11.8453
▁génocide	-11.8453
▁eliminating	-11.8454
▁invitons	-11.8454
▁vocation	-11.8454
▁deprived	-11.8454
▁défavorisées	-11.8456
▁Asie	-11.8457
▁performances	-11.846
▁Law	-11.846
▁signals	-11.8462
▁vitale	-11.8465
▁cigarettes	-11.8465
▁purpose.	-11.8465
▁l’état	-11.8466
▁Committee.	-11.8467
▁resort	-11.8468
▁ouvertes	-11.8469
▁approches	-11.8469
▁projet.	-11.8471
▁commencent	-11.8475
▁emerge	-11.8479
▁détérioration	-11.8479
▁tabling	-11.8479
▁mi-parcours	-11.848
▁irrégularités	-11.8481
▁indirectly	-11.8481
▁entraînera	-11.8481
▁misère	-11.8482
▁s'avérer	-11.8483
▁continueront	-11.8483
▁patents	-11.8484
▁tiré	-11.8486
▁d'émissions	-11.8491
▁résolue	-11.8491
▁équivoque	-11.8491
▁vue.	-11.8493
▁value.	-11.8494
▁waste.	-11.8494
▁marquer	-11.8495
▁définie	-11.8495
▁différentes.	-11.8497
▁interest,	-11.8502
▁spéculation	-11.8502
▁intégrés	-11.8504
▁fulfilling	-11.8505
▁formidable	-11.8508
▁touchant	-11.8509
▁marchés.	-11.8511
▁jeu.	-11.8511
▁seemed	-11.8511
▁provisoire	-11.8513
▁Ici	-11.8516
▁inequality	-11.8517
▁soigneusement	-11.8517
▁Voici	-11.8517
▁Council'	-11.8518
▁religions	-11.8518
▁inévitablement	-11.8518
▁input	-11.8519
▁d'aucune	-11.8521
▁Obama	-11.8526
▁socialist	-11.8527
▁partial	-11.8529
gouvernementale.	-11.8534
▁pensé	-11.8537
▁carburant	-11.854
▁favour.	-11.854
▁sensibilité	-11.8541
▁enregistrés	-11.8542
▁detrimental	-11.8542
▁book	-11.8543
▁Sierra	-11.8543
▁progrès.	-11.8543
▁application.	-11.8545
▁advocates	-11.8545
▁institutionnels	-11.8545
▁planet	-11.8548
▁warrant	-11.8553
▁task.	-11.8555
▁Belgrade	-11.8555
▁web	-11.8555
▁pity	-11.8556
▁Guerre	-11.8556
▁hoping	-11.8556
▁Federation	-11.8561
▁reprend	-11.8562
▁preserving	-11.8568
▁subissent	-11.8569
▁wars	-11.8569
▁crucial.	-11.8569
▁mondiales	-11.8569
▁revealed	-11.8569
▁religieuses	-11.857
▁réviser	-11.857
▁positively	-11.8573
▁religieuse	-11.8576
▁profondes	-11.858
▁priorité.	-11.8581
▁réaffirmer	-11.8583
▁panel	-11.8584
▁justifié	-11.8587
▁bande	-11.859
▁avoided	-11.859
▁d'aboutir	-11.8594
▁Lulling	-11.8594
▁substantive	-11.8606
▁famine	-11.8606
▁undermining	-11.8607
▁l’OMC	-11.8607
▁attiré	-11.8607
▁applied.	-11.8608
▁doctors	-11.8612
▁machine	-11.8614
▁distorsion	-11.8615
▁éducation	-11.8616
▁approuvés	-11.8618
▁survenus	-11.8618
▁Chirac	-11.862
▁incomes	-11.8621
▁Summit,	-11.8621
▁publiquement	-11.8623
▁selling	-11.8626
▁poursuivi	-11.8632
▁courageous	-11.8632
▁explanatory	-11.8633
▁ministerial	-11.8633
▁Prize	-11.8633
▁céréales	-11.8633
▁Afghan	-11.8634
▁compensate	-11.8635
▁d'activités	-11.8635
▁Dr	-11.8638
▁Process	-11.8639
ci	-11.8639
▁d'initiatives	-11.8641
▁Cuba,	-11.8646
▁d'hier	-11.8646
▁Policy.	-11.8647
▁reply.	-11.8648
▁expenses	-11.8649
▁permettez	-11.865
▁intensifier	-11.8651
▁user	-11.8652
▁depending	-11.8652
▁fault	-11.8654
▁formation,	-11.8654
▁fonds.	-11.8654
ism	-11.866
▁étendue	-11.8661
▁Langen	-11.8662
▁légiférer	-11.8662
▁training.	-11.8662
▁suivants	-11.8663
▁demande.	-11.8665
▁49	-11.867
▁reviewed	-11.8671
▁députée	-11.8671
▁knew	-11.8672
▁copyright	-11.8672
▁demeurent	-11.8672
▁proves	-11.8674
▁bureaucratiques	-11.8674
▁ending	-11.8677
▁illegally	-11.8679
▁technique.	-11.8681
▁nordique	-11.8683
▁before.	-11.8685
▁excellence	-11.8685
ment.	-11.8687
▁jouissent	-11.8687
▁officially	-11.8688
▁capture	-11.8689
▁listed	-11.8689
▁livrer	-11.8691
▁financés	-11.8693
▁Wogau	-11.8694
▁fishery	-11.8698
▁organising	-11.8698
▁blanchiment	-11.8698
▁ciel	-11.8698
▁circonstances,	-11.8698
▁victims.	-11.87
▁witness	-11.8703
▁coordination.	-11.8704
▁confronté	-11.8705
▁d'avancer	-11.8712
▁definite	-11.8714
▁airline	-11.8714
▁moderniser	-11.8718
▁dispositifs	-11.8721
▁properly.	-11.8724
▁Kazakhstan	-11.8725
▁safer	-11.8726
▁insecurity	-11.8728
▁expresses	-11.8728
▁qualification	-11.8728
▁teachers	-11.8729
▁derogation	-11.8734
▁summary	-11.8737
▁d'entamer	-11.8737
▁électriques	-11.8738
interopérabilité	-11.8739
▁rendant	-11.874
▁employer	-11.8741
▁mountain	-11.8747
▁reçoit	-11.875
▁craindre	-11.875
▁specified	-11.875
▁Guantánamo	-11.8751
▁Mexique	-11.8751
▁reforming	-11.8751
▁concours	-11.8752
▁n'avez	-11.8752
▁purposes.	-11.8753
▁mutually	-11.8753
▁decade	-11.8753
▁élevé.	-11.8756
▁instructions	-11.8756
▁neighbour	-11.8761
▁suddenly	-11.8763
▁simultanément	-11.8764
▁session.	-11.8765
▁satisfaisant	-11.8765
▁station	-11.877
▁escape	-11.877
▁impliqué	-11.8772
▁croit	-11.8776
▁Section	-11.8776
▁souplesse	-11.8777
▁venant	-11.8778
▁learnt	-11.8779
▁adaptée	-11.8781
▁Se	-11.8781
▁cour	-11.8785
▁dear	-11.8788
▁isolation	-11.8789
▁sols	-11.8789
▁infringements	-11.8789
▁lendemain	-11.879
▁noticed	-11.879
▁broken	-11.879
▁administratif	-11.8791
▁exempt	-11.8796
▁flight	-11.8797
▁distinct	-11.8798
▁progressé	-11.8799
▁chair	-11.8801
▁spéciales	-11.8802
▁knowledge-based	-11.8803
▁consulté	-11.8815
▁Haiti	-11.8815
▁pursuit	-11.8815
▁Progress	-11.8816
▁Autriche	-11.8817
▁faster	-11.8818
▁terrain.	-11.8818
▁comments.	-11.882
▁acceptée	-11.8823
▁sincères	-11.8824
▁wave	-11.8826
▁lui-même.	-11.8827
▁refrain	-11.8827
▁dure	-11.8828
▁Concerning	-11.8829
▁d’aide	-11.8829
▁clonage	-11.883
▁sources.	-11.8831
▁tourist	-11.8831
▁December.	-11.8831
▁broadcasting	-11.8831
▁issuing	-11.8834
▁contraignante	-11.8834
▁roots	-11.8837
▁opportunities.	-11.8838
▁practices.	-11.8838
▁halt	-11.8839
▁d'accélérer	-11.8842
▁signification	-11.8843
▁qu'ont	-11.8844
▁attended	-11.8846
▁organisme	-11.8847
▁powers.	-11.8847
▁newspaper	-11.8849
▁emploi.	-11.885
▁déterminé	-11.885
▁offerte	-11.8852
▁Velzen	-11.8852
▁vastes	-11.8854
▁Congrès	-11.8855
▁introduites	-11.8855
▁Encore	-11.8855
▁Soudan	-11.8856
▁smoking	-11.8856
▁Biélorussie	-11.8857
▁OECD	-11.8857
▁opérationnelle	-11.8857
▁l'écart	-11.8857
▁terminerai	-11.886
ally	-11.8861
▁much.	-11.8863
▁capital,	-11.8863
▁this?	-11.8864
▁flottes	-11.8865
▁abordée	-11.8865
▁attentive	-11.8867
▁l'identité	-11.8868
▁Ukrainian	-11.8869
▁l'implication	-11.887
▁zéro	-11.8872
▁raisonnables	-11.8877
▁effectuées	-11.8877
▁tsunami	-11.8879
▁imposition	-11.888
▁tendency	-11.8881
▁l’opinion	-11.8881
▁figurant	-11.8881
▁Bösch	-11.8883
▁Coelho	-11.8883
▁CFSP	-11.8883
▁breaches	-11.8883
▁elsewhere.	-11.8885
▁compétitivité.	-11.8887
▁interrompue	-11.889
▁stabilité.	-11.8892
▁Business	-11.8893
[...]
