<s>	0
</s>	0
<unk>	0
<pad>	0
,	-3.33771
.	-3.74209
s	-4.1369
▁de	-4.14573
e	-4.82841
▁	-4.84043
▁a	-4.88117
▁la	-4.95947
▁en	-5.06197
▁in	-5.11684
a	-5.2897
i	-5.32996
en	-5.35913
t	-5.3677
▁the	-5.38523
▁i	-5.47474
n	-5.60069
▁que	-5.64106
r	-5.71168
▁to	-5.78243
▁die	-5.81676
▁di	-5.85415
▁der	-5.88164
▁van	-5.90234
▁un	-5.90935
▁of	-5.98346
o	-5.98471
▁-	-5.99157
▁et	-6.00838
u	-6.00896
▁at	-6.03536
▁le	-6.04005
▁for	-6.09604
▁att	-6.10105
er	-6.1293
▁is	-6.16287
▁e	-6.1855
▁se	-6.20009
▁den	-6.22381
▁som	-6.2275
▁er	-6.23398
▁het	-6.24764
▁om	-6.26683
▁and	-6.26872
m	-6.27378
d	-6.28488
▁el	-6.28737
▁og	-6.30764
▁det	-6.3144
▁y	-6.32657
▁des	-6.36294
▁och	-6.365
▁und	-6.37345
▁del	-6.42618
▁v	-6.46034
▁che	-6.48488
▁na	-6.5203
▁af	-6.55677
▁vi	-6.58283
▁o	-6.58547
▁les	-6.58896
▁à	-6.60019
▁be	-6.60869
▁på	-6.61975
es	-6.62178
▁för	-6.62371
▁los	-6.62658
▁να	-6.6395
▁il	-6.64337
▁και	-6.6472
▁med	-6.64976
re	-6.66406
y	-6.67687
▁on	-6.6802
▁een	-6.69351
▁je	-6.6936
▁te	-6.69579
▁har	-6.69984
▁dat	-6.7034
-	-6.7172
▁I	-6.74558
▁con	-6.75877
▁ne	-6.78761
:	-6.79251
▁av	-6.79703
te	-6.79707
▁es	-6.80011
▁that	-6.80277
▁per	-6.80575
▁ir	-6.80879
▁una	-6.81046
de	-6.82298
l	-6.84013
▁til	-6.85052
ς	-6.8672
▁op	-6.88236
ne	-6.88859
▁s	-6.89027
▁al	-6.89139
▁της	-6.92201
▁z	-6.92868
▁no	-6.97498
▁we	-6.9785
▁är	-6.99104
le	-7.00349
▁zu	-7.00565
▁την	-7.01631
▁za	-7.03075
▁do	-7.04175
▁da	-7.04758
to	-7.06828
?	-7.08776
▁si	-7.0895
▁на	-7.09168
▁voor	-7.09437
ti	-7.10332
▁du	-7.11576
ing	-7.11838
▁las	-7.12489
▁w	-7.14819
▁su	-7.17748
▁ha	-7.1807
na	-7.20336
ta	-7.20364
et	-7.22413
k	-7.231
▁De	-7.23624
▁kan	-7.24194
▁το	-7.24673
z	-7.25524
▁par	-7.26108
j	-7.27249
ar	-7.27557
ch	-7.28323
é	-7.28825
▁till	-7.29102
as	-7.30093
no	-7.30311
▁an	-7.30321
▁για	-7.32148
▁è	-7.33698
▁sa	-7.34749
▁qui	-7.35182
▁over	-7.35963
▁ce	-7.36167
▁para	-7.37316
▁η	-7.37386
st	-7.37455
▁Det	-7.37514
▁non	-7.37569
s.	-7.38553
▁por	-7.38849
▁po	-7.39227
▁von	-7.39586
▁dans	-7.40096
▁met	-7.40149
▁των	-7.40203
▁ja	-7.40636
▁pour	-7.40672
▁nous	-7.41364
▁by	-7.41384
▁az	-7.4146
▁della	-7.42012
▁του	-7.4227
li	-7.42334
▁La	-7.42399
▁für	-7.42806
da	-7.4514
ed	-7.455
▁pas	-7.45636
▁ikke	-7.45669
▁this	-7.47172
▁so	-7.47887
▁A	-7.47913
;	-7.48824
▁που	-7.49664
▁"	-7.50574
▁Europa	-7.50599
▁inte	-7.50821
▁EU	-7.52297
▁lo	-7.52892
ni	-7.53317
▁au	-7.53674
▁est	-7.53957
▁have	-7.54778
v	-7.54875
an	-7.55137
▁že	-7.55267
h	-7.55378
▁és	-7.55606
▁aan	-7.569
▁In	-7.57136
▁zijn	-7.57573
al	-7.57612
ra	-7.57715
▁une	-7.57775
b	-7.58672
os	-7.59196
▁με	-7.59431
▁are	-7.59526
em	-7.59965
▁niet	-7.60108
▁Vi	-7.60133
▁sur	-7.60955
▁not	-7.6099
▁k	-7.61128
▁l'	-7.61297
▁re	-7.61453
ly	-7.61891
ga	-7.62596
▁auf	-7.6326
la	-7.63291
▁nicht	-7.64651
c	-7.64979
▁das	-7.6524
▁u	-7.65624
do	-7.65857
▁ver	-7.65937
se	-7.66085
▁dass	-7.66276
▁wir	-7.6655
mi	-7.66883
▁alle	-7.66916
▁it	-7.66942
▁im	-7.67372
ci	-7.67481
)	-7.69163
▁nu	-7.69419
▁ge	-7.69998
▁ett	-7.70622
▁θα	-7.70769
▁în	-7.71048
▁ist	-7.71052
ma	-7.71747
▁men	-7.72181
▁als	-7.72522
▁ka	-7.73107
om	-7.73166
▁ma	-7.73469
í	-7.73648
▁vil	-7.73974
▁man	-7.74173
me	-7.74987
▁me	-7.75061
▁ότι	-7.75343
▁είναι	-7.761
▁и	-7.76205
▁eine	-7.76428
it	-7.76465
▁да	-7.7716
ie	-7.7717
ja	-7.77685
▁dem	-7.78104
lo	-7.78894
ul	-7.79197
▁as	-7.80279
▁alla	-7.80524
▁European	-7.80996
▁ich	-7.8137
▁mit	-7.81495
▁with	-7.81549
▁pro	-7.82143
▁En	-7.82333
▁hogy	-7.8354
▁este	-7.83674
▁από	-7.83968
at	-7.84219
á	-7.84726
▁which	-7.84761
▁ik	-7.85072
▁ki	-7.85316
ce	-7.85884
▁(	-7.86775
▁за	-7.86829
▁pa	-7.86916
us	-7.87165
▁τη	-7.87478
is	-7.87902
▁Commission	-7.89307
g	-7.89393
be	-7.89689
▁worden	-7.90092
▁jeg	-7.90306
▁σε	-7.90333
ă	-7.90504
▁dit	-7.91723
je	-7.92148
ge	-7.92505
▁pre	-7.92518
ho	-7.93355
▁will	-7.93641
ą	-7.93785
▁The	-7.93798
▁τα	-7.94976
▁Je	-7.96036
en.	-7.96218
▁ein	-7.97464
nt	-7.97975
in	-7.98038
ten	-7.98715
el	-7.99236
▁sig	-7.99722
e,	-7.99841
▁dei	-8.00138
ek	-8.00171
ej	-8.0026
va	-8.01088
▁ook	-8.01282
▁jag	-8.01963
▁We	-8.02789
▁auch	-8.03327
▁τις	-8.03494
ver	-8.03662
p	-8.03745
▁var	-8.03997
▁S	-8.04273
▁Jag	-8.04832
f	-8.04996
▁Il	-8.05666
▁plus	-8.06465
▁Es	-8.07037
▁в	-8.07349
▁Herr	-8.0742
▁så	-8.07565
▁Parlamento	-8.07578
▁στην	-8.08051
ų	-8.08068
ment	-8.0847
▁kad	-8.08752
▁delle	-8.08945
▁ar	-8.09309
▁Jeg	-8.09443
▁Union	-8.09883
▁skal	-8.09977
▁was	-8.11243
▁Parlement	-8.11789
▁od	-8.11997
ā	-8.12473
ν	-8.1346
▁hebben	-8.13993
▁has	-8.14049
id	-8.14051
▁Ik	-8.14104
▁más	-8.14516
▁deze	-8.1476
▁–	-8.14941
are	-8.1535
▁Europese	-8.15365
en,	-8.15651
ή	-8.16159
▁Le	-8.1636
▁sobre	-8.1637
ά	-8.16772
▁kommer	-8.16899
▁nie	-8.1732
vi	-8.17354
▁mi	-8.17511
▁δεν	-8.17527
▁all	-8.17981
▁heeft	-8.18594
den	-8.18763
mente	-8.19516
▁sono	-8.19635
▁să	-8.19639
ve	-8.19716
ov	-8.19835
ant	-8.1984
▁sich	-8.20185
mo	-8.20561
▁um	-8.20595
ation	-8.20696
▁under	-8.2077
▁Die	-8.2144
та	-8.21898
▁fra	-8.21908
der	-8.21934
ž	-8.22133
▁Ich	-8.22768
▁Presidente,	-8.23134
nie	-8.23624
ę	-8.24056
▁οι	-8.24211
▁wij	-8.24427
▁moeten	-8.24569
▁Commissie	-8.25024
▁über	-8.2503
ok	-8.25064
▁como	-8.25675
▁detta	-8.26153
▁Mr	-8.26399
ka	-8.2652
α	-8.26553
gi	-8.26823
il	-8.27442
e.	-8.27534
▁d'	-8.28054
ik	-8.28061
"	-8.28097
ει	-8.28278
▁Parlament	-8.28421
▁Het	-8.28787
ot	-8.28837
▁от	-8.29257
▁V	-8.29495
▁også	-8.29621
!	-8.29868
▁eller	-8.30534
i,	-8.30785
▁pri	-8.31233
▁also	-8.31238
ou	-8.31632
jo	-8.31706
'	-8.32256
▁şi	-8.32305
▁questo	-8.32903
ó	-8.32906
▁nel	-8.33375
di	-8.33593
η	-8.33729
š	-8.34248
▁ni	-8.34331
▁Europäische	-8.34879
▁wie	-8.34991
и	-8.35213
ia	-8.35624
▁bi	-8.35667
né	-8.35945
▁cette	-8.35956
▁più	-8.36287
▁aux	-8.36405
▁tot	-8.36602
ών	-8.36812
▁Comisión	-8.36832
▁come	-8.3687
▁co	-8.36876
▁vor	-8.37358
▁måste	-8.37373
on	-8.37383
▁τους	-8.37529
ung	-8.37727
▁E	-8.37771
▁gli	-8.37851
ai	-8.37869
ο	-8.37898
nde	-8.37959
▁door	-8.38059
t.	-8.38332
▁maar	-8.38337
ό	-8.38381
ú	-8.38413
▁tra	-8.38673
am	-8.38789
▁τον	-8.39566
▁Kommission	-8.39614
▁ko	-8.39874
▁ad	-8.40136
ent	-8.40567
▁aby	-8.4065
ro	-8.40727
▁han	-8.41542
▁πρέπει	-8.41566
▁ci	-8.41613
▁sie	-8.41667
ndo	-8.41676
▁werden	-8.42408
ter	-8.42507
go	-8.43465
т	-8.43822
w	-8.43926
▁%	-8.44214
ba	-8.44518
▁entre	-8.44694
▁się	-8.44742
▁would	-8.45087
▁am	-8.45136
t,	-8.457
▁sont	-8.4588
a,	-8.46015
▁uit	-8.46172
▁rapport	-8.46294
▁iz	-8.47231
▁се	-8.47452
▁ri	-8.47455
▁son	-8.47464
ck	-8.475
▁bo	-8.47656
▁social	-8.47891
▁Den	-8.48106
▁d'un	-8.48433
▁στο	-8.48655
▁ob	-8.48819
▁wordt	-8.48833
▁ont	-8.49483
▁parte	-8.49607
si	-8.49706
▁esta	-8.49871
gen	-8.50142
▁K	-8.50259
or	-8.50315
▁should	-8.50728
tu	-8.51129
▁sin	-8.51511
ri	-8.51589
▁europea	-8.51796
▁bij	-8.51816
▁anche	-8.51895
mu	-8.52141
vo	-8.52223
▁denne	-8.52231
▁że	-8.52368
ní	-8.52372
▁pe	-8.52837
▁daß	-8.53081
ut	-8.53086
▁kunnen	-8.53954
ir	-8.54059
▁mis	-8.54177
▁G	-8.54214
▁Euroopa	-8.54467
▁uz	-8.54495
ki	-8.54583
▁ved	-8.54781
za	-8.54825
▁To	-8.5491
▁El	-8.55131
zione	-8.55332
▁from	-8.555
▁va	-8.55634
▁avec	-8.56632
ks	-8.56959
▁care	-8.57002
im	-8.57055
ca	-8.57094
▁från	-8.57124
▁but	-8.57282
▁euro	-8.57368
▁ta	-8.5783
▁zur	-8.5791
▁dette	-8.58039
▁kas	-8.58052
те	-8.58375
▁our	-8.58378
▁cu	-8.58667
▁must	-8.58905
▁important	-8.58988
č	-8.59514
▁Kommissionen	-8.59585
▁moet	-8.59595
i.	-8.59612
zi	-8.59703
▁с	-8.60536
▁dan	-8.60568
▁е	-8.60629
▁skulle	-8.60734
▁Commissione	-8.60836
▁bei	-8.61308
ι	-8.61792
▁or	-8.62332
▁Nous	-8.62463
▁αυτό	-8.62657
▁nem	-8.63587
▁Unión	-8.63656
ud	-8.63833
▁us	-8.64327
▁være	-8.64389
ku	-8.64469
▁l’	-8.64677
ě	-8.65124
▁importante	-8.65127
а	-8.65261
▁sind	-8.65329
▁Wir	-8.65598
▁mais	-8.65636
ben	-8.65668
▁hier	-8.65698
ste	-8.65959
▁también	-8.66064
▁ces	-8.66191
▁ser	-8.66781
▁pays	-8.66781
▁nos	-8.66819
▁ο	-8.66928
▁vill	-8.66942
▁can	-8.67418
▁T	-8.67499
▁μια	-8.67635
▁Der	-8.67727
▁Be	-8.67883
ad	-8.67935
ere	-8.68062
ig	-8.68874
▁plan	-8.68912
▁ud	-8.69057
ny	-8.69073
▁Monsieur	-8.69263
▁been	-8.69484
tion	-8.69617
▁Sie	-8.69706
▁être	-8.69812
▁meg	-8.69918
ko	-8.6999
▁pentru	-8.70063
▁einer	-8.7038
▁diese	-8.70647
ur	-8.70794
▁essere	-8.70995
▁O	-8.71208
▁Se	-8.71343
ts	-8.71411
▁W	-8.71504
er,	-8.71591
ju	-8.7162
▁aus	-8.71638
ές	-8.72012
▁1	-8.7264
▁fait	-8.72693
▁Si	-8.72733
▁No	-8.72882
▁C	-8.72908
▁ze	-8.72921
▁more	-8.73071
ban	-8.73187
▁zal	-8.73452
nia	-8.73525
▁į	-8.73773
sta	-8.73913
ción	-8.74046
/	-8.74091
▁min	-8.74097
▁Unie	-8.74151
co	-8.74239
a.	-8.74458
mos	-8.74459
▁Er	-8.74508
то	-8.74631
▁också	-8.74669
▁tak	-8.74684
ω	-8.74801
▁vy	-8.74883
u,	-8.75007
υ	-8.75201
ć	-8.75347
▁informe	-8.75464
bo	-8.75579
ów	-8.75915
▁nog	-8.76194
▁Ma	-8.76334
▁că	-8.76369
▁Eiropas	-8.76377
▁și	-8.7639
▁ale	-8.76436
ele	-8.76502
м	-8.76748
ska	-8.76892
▁situation	-8.77271
▁по	-8.77351
▁It	-8.77559
▁you	-8.77626
▁her	-8.77636
▁européenne	-8.77756
▁dal	-8.78045
▁efter	-8.78207
▁été	-8.7822
▁P	-8.78244
▁Europos	-8.78283
▁question	-8.78532
ons	-8.78537
és	-8.78546
bi	-8.78574
nak	-8.79026
▁jest	-8.79271
▁Stati	-8.79437
▁че	-8.79475
▁ei	-8.79519
▁sociale	-8.79632
▁cui	-8.79633
▁andere	-8.79877
▁haben	-8.79958
▁tre	-8.80187
ali	-8.80473
▁Estados	-8.80635
ý	-8.8064
ate	-8.80777
▁ten	-8.81043
he	-8.81116
ze	-8.81349
▁wil	-8.81474
▁President,	-8.81747
▁ve	-8.82218
▁mod	-8.82238
▁mot	-8.8233
▁Na	-8.82394
▁F	-8.82416
▁hat	-8.82454
▁comme	-8.82524
▁Voorzitter,	-8.82604
▁m	-8.82836
▁wird	-8.82983
▁Member	-8.8322
▁bien	-8.8323
men	-8.83308
ami	-8.8333
▁kell	-8.83429
▁sus	-8.83511
▁budget	-8.83805
▁ut	-8.8389
du	-8.84281
ning	-8.84503
uje	-8.84668
▁jo	-8.84702
▁politique	-8.84719
▁einen	-8.85008
▁problem	-8.85161
erna	-8.85271
▁os	-8.85454
erne	-8.85842
▁zo	-8.86268
▁mycket	-8.86393
▁ho	-8.86414
▁vous	-8.86438
▁när	-8.866
о	-8.86701
ado	-8.86744
ist	-8.869
▁Por	-8.86936
val	-8.86939
▁Po	-8.87165
▁UE	-8.87245
▁iš	-8.87245
▁dieser	-8.87256
▁не	-8.87351
▁dé	-8.87508
▁vores	-8.88069
ego	-8.88129
ων	-8.88222
cu	-8.88303
▁relazione	-8.88439
▁Z	-8.88505
▁B	-8.88612
▁möchte	-8.88832
▁tout	-8.88897
▁denna	-8.89002
ven	-8.89035
▁pat	-8.89455
▁like	-8.89488
▁qu'il	-8.89492
▁mig	-8.89666
▁noch	-8.89667
ación	-8.89841
▁sia	-8.90129
ουν	-8.90303
▁onze	-8.90316
▁Bericht	-8.9046
ato	-8.90518
▁upp	-8.90555
▁degli	-8.91051
▁zou	-8.91056
ych	-8.91115
▁dar	-8.91118
nek	-8.912
ken	-8.91212
▁naar	-8.91368
▁h	-8.91404
▁meget	-8.91502
ů	-8.9161
es,	-8.91704
▁få	-8.91808
ke	-8.92094
▁ou	-8.92226
▁For	-8.92289
▁tale	-8.92306
ä	-8.92406
▁Conseil	-8.92607
sch	-8.92624
▁nach	-8.92687
▁l'Union	-8.92755
▁questa	-8.92811
ih	-8.92871
▁Consejo	-8.93001
▁hun	-8.93058
▁ons	-8.93107
▁meer	-8.93113
▁μας	-8.93208
▁mer	-8.93526
sti	-8.9424
▁ap	-8.94249
▁kommissionen	-8.94274
▁mai	-8.944
ουμε	-8.94419
▁modo	-8.94459
ých	-8.94485
▁στη	-8.94494
▁their	-8.94506
▁Hr.	-8.94543
▁verslag	-8.94624
ati	-8.94876
ně	-8.94969
▁Ne	-8.95035
▁sein	-8.95323
▁geen	-8.955
▁land	-8.96009
▁vara	-8.96042
▁Raad	-8.9607
▁its	-8.96141
▁Parliament	-8.96242
▁M	-8.96424
ни	-8.96428
ach	-8.96661
▁zich	-8.96817
▁Men	-8.97017
▁États	-8.97076
▁Council	-8.97103
er.	-8.97142
ende	-8.9721
po	-8.9733
▁ning	-8.97511
▁ένα	-8.97629
▁pod	-8.97637
▁sta	-8.97672
▁dag	-8.97934
op	-8.98093
▁Président,	-8.98173
's	-8.98185
ī	-8.98213
▁ca	-8.98284
ande	-8.98464
▁very	-8.98537
ger	-8.98564
est	-8.98573
▁nella	-8.98578
▁there	-8.98833
▁politica	-8.98847
iz	-8.99029
▁one	-8.99107
▁An	-8.99343
▁également	-8.99581
ers	-8.9968
land	-8.99689
lt	-9.00086
ē	-9.00326
▁10	-9.00337
ak	-9.00416
▁Europe	-9.00519
на	-9.00675
▁debate	-9.00698
▁li	-9.0078
▁20	-9.00806
▁disse	-9.00847
▁jak	-9.00875
vis	-9.00927
▁kon	-9.01042
▁my	-9.0112
ť	-9.01269
▁Das	-9.013
▁he	-9.01542
▁transport	-9.01632
gu	-9.01651
▁fin	-9.01668
▁hr.	-9.01733
▁need	-9.01758
▁Mi	-9.01883
ha	-9.02016
nu	-9.02104
▁base	-9.02254
▁contra	-9.02488
▁(DE)	-9.02616
▁durch	-9.02741
▁This	-9.02795
lig	-9.02884
я	-9.03038
▁p	-9.03244
▁andra	-9.03244
▁Ver	-9.03303
▁dell'	-9.03386
▁europeo	-9.03514
▁Señor	-9.03518
▁Signor	-9.03775
▁dėl	-9.04002
kt	-9.04014
▁uns	-9.04175
▁diesem	-9.04198
▁ben	-9.04204
ega	-9.04338
▁point	-9.0434
▁up	-9.04553
но	-9.04677
εί	-9.04715
▁ind	-9.04719
▁Europeiska	-9.04749
▁rapporteur	-9.04876
▁paesi	-9.04948
sk	-9.05075
▁aussi	-9.05279
ligt	-9.05354
▁sector	-9.05432
▁ES	-9.05521
o,	-9.05527
▁Re	-9.05565
ύ	-9.05656
▁just	-9.05676
▁nur	-9.05742
▁över	-9.05807
н	-9.05818
ty	-9.05895
▁report	-9.05974
”	-9.06087
▁už	-9.06105
▁wat	-9.06168
▁hvor	-9.06176
pa	-9.06207
▁Consiglio	-9.06216
▁EU-	-9.06244
▁quanto	-9.06399
▁see	-9.06451
▁faire	-9.0652
des	-9.06524
▁these	-9.06524
len	-9.06545
▁ai	-9.06784
ol	-9.07067
▁fi	-9.07237
▁países	-9.07395
▁d	-9.0771
▁part	-9.07719
▁må	-9.07851
ties	-9.07944
so	-9.07986
▁who	-9.0802
▁ter	-9.0804
▁Europea	-9.08255
▁gäller	-9.08258
▁yra	-9.08277
▁στις	-9.08473
▁(EN)	-9.08628
▁år	-9.08926
▁lidstaten	-9.09075
▁public	-9.09149
▁H	-9.0918
▁dessa	-9.09292
tud	-9.09304
án	-9.09348
▁müssen	-9.09477
▁egy	-9.09508
able	-9.09619
ili	-9.09647
▁time	-9.09712
с	-9.09734
▁aber	-9.09736
▁política	-9.09836
azione	-9.09839
iti	-9.10022
od	-9.10047
▁Mijnheer	-9.10139
▁wenn	-9.10414
▁zum	-9.10706
▁fa	-9.10742
▁gerne	-9.10774
▁sulla	-9.11012
ες	-9.11029
σ	-9.11128
▁miembros	-9.11214
zu	-9.11226
wi	-9.11289
ji	-9.1132
▁δια	-9.11438
▁they	-9.11447
▁mere	-9.11462
▁ska	-9.11486
tro	-9.11498
u.	-9.11512
▁Me	-9.11691
un	-9.11769
▁Un	-9.12029
lor	-9.12062
▁f	-9.12146
▁t	-9.12225
ens	-9.12237
▁din	-9.12512
▁pero	-9.12519
▁So	-9.12576
▁Επιτροπή	-9.12674
▁arī	-9.12689
▁sehr	-9.12828
▁οποία	-9.1284
▁problema	-9.13065
▁about	-9.13097
▁oss	-9.13107
ής	-9.1313
um	-9.13148
▁notre	-9.13693
▁formand,	-9.13737
▁oder	-9.1383
es.	-9.13972
tal	-9.14232
ού	-9.14288
▁tai	-9.14345
▁sul	-9.14429
ő	-9.14491
ε	-9.14557
mer	-9.14584
imo	-9.14612
▁M.	-9.14716
▁vid	-9.14779
nej	-9.14836
ās	-9.14962
ske	-9.15096
ky	-9.15101
▁tanto	-9.15312
ry	-9.15352
▁hanno	-9.15408
▁werden.	-9.15428
▁Az	-9.1548
▁tutti	-9.15573
enia	-9.15704
iamo	-9.15822
▁här	-9.15876
▁ga	-9.15921
ите	-9.15952
▁Wij	-9.16221
κ	-9.16226
▁program	-9.16433
▁U	-9.16457
ės	-9.16596
▁ktoré	-9.1668
▁έχει	-9.16745
▁other	-9.16948
▁solo	-9.17013
▁Mitgliedstaaten	-9.1706
ec	-9.1716
del	-9.17261
▁reform	-9.17456
▁veel	-9.17486
ott	-9.17489
▁stor	-9.17577
ade	-9.17655
▁Parlamentet	-9.17721
▁ex	-9.17786
▁leur	-9.1783
▁même	-9.17847
▁D	-9.17868
▁landen	-9.18033
x	-9.18152
ng	-9.1832
▁bet	-9.18523
io	-9.18648
▁what	-9.18662
▁2	-9.18669
▁nei	-9.18715
▁now	-9.1876
τα	-9.19065
▁Europees	-9.1913
ée	-9.19138
▁muy	-9.1928
▁internationale	-9.19341
▁doit	-9.19358
▁avons	-9.19394
▁membres	-9.19526
▁κατά	-9.19747
▁mo	-9.2012
lu	-9.20296
▁States	-9.20296
ità	-9.20309
▁5	-9.20387
▁loro	-9.20523
nih	-9.20666
tra	-9.20695
▁dire	-9.20779
ide	-9.20858
vad	-9.20899
į	-9.21191
▁även	-9.21224
▁αλλά	-9.2124
amente	-9.21642
▁people	-9.21646
▁000	-9.21702
▁ré	-9.21749
▁Les	-9.21837
▁kā	-9.21995
▁tous	-9.22112
▁punto	-9.22195
φ	-9.22253
▁membri	-9.22317
▁far	-9.22361
▁επι	-9.22372
▁parlament	-9.22622
ata	-9.22642
per	-9.22708
▁fram	-9.2294
ez	-9.232
▁todos	-9.23398
▁Πρόεδρε,	-9.23412
ais	-9.2346
▁vote	-9.23512
▁très	-9.23533
fi	-9.23631
▁onder	-9.23678
ige	-9.23819
▁politik	-9.24027
▁19	-9.24082
▁Per	-9.24285
kom	-9.24297
▁αυτή	-9.24468
▁out	-9.2449
▁está	-9.24575
▁caso	-9.24594
rá	-9.24646
che	-9.24662
▁grund	-9.24916
▁εν	-9.24923
▁ra	-9.24926
ym	-9.25014
▁Europeo	-9.25172
▁new	-9.25196
tar	-9.25286
ada	-9.25322
▁todo	-9.25391
▁15	-9.25419
▁car	-9.25608
▁respect	-9.25813
▁finns	-9.25819
▁system	-9.25887
▁mijn	-9.26213
▁sistema	-9.26277
χ	-9.26296
▁göra	-9.26505
▁Ha	-9.26611
▁war	-9.26627
▁tegen	-9.26662
▁lai	-9.26696
ului	-9.26757
▁européen	-9.26893
▁inom	-9.26934
är	-9.26978
▁forma	-9.2698
▁countries	-9.27006
▁deres	-9.27031
▁skall	-9.27096
tes	-9.271
▁l'a	-9.27101
ag	-9.27161
cie	-9.27445
▁end	-9.27799
ire	-9.27817
ná	-9.27851
nud	-9.27907
▁kun	-9.27919
ement	-9.28041
▁tal	-9.28099
▁only	-9.28102
▁ako	-9.28145
▁ab	-9.28279
▁mēs	-9.28309
nes	-9.28344
▁señor	-9.28408
▁helt	-9.28559
5	-9.28594
не	-9.28656
ál	-9.28757
▁inter	-9.28977
▁fel	-9.28981
▁πολύ	-9.28984
▁Dat	-9.29148
enie	-9.29155
▁sme	-9.29213
▁12	-9.29476
y,	-9.29479
▁Som	-9.295
con	-9.29541
▁bør	-9.29711
▁6	-9.29749
λ	-9.29792
▁vol	-9.30046
▁sch	-9.30151
▁debat	-9.30252
▁support	-9.30395
ου	-9.30429
ando	-9.30456
het	-9.30653
▁muss	-9.30742
▁zullen	-9.30929
▁(FR)	-9.30969
▁kui	-9.31041
▁får	-9.31133
eg	-9.31143
▁willen	-9.31166
▁utan	-9.31233
▁fatto	-9.31259
▁tik	-9.31309
ва	-9.31434
iem	-9.31436
▁tas	-9.31447
▁national	-9.31618
▁μου	-9.31654
sel	-9.31793
▁Mo	-9.31802
ici	-9.31903
▁Presidente	-9.32004
▁einem	-9.32044
θ	-9.32119
▁genom	-9.32234
▁nationale	-9.32338
▁unter	-9.32439
▁pie	-9.32475
ting	-9.32565
au	-9.32681
▁niveau	-9.32768
▁eftersom	-9.32843
▁heer	-9.33104
▁partner	-9.33139
▁Frau	-9.3318
õ	-9.33235
sse	-9.33314
▁form	-9.33417
ring	-9.33521
▁εκ	-9.33532
▁because	-9.3375
les	-9.33886
ff	-9.33915
▁L'	-9.33918
▁work	-9.33931
▁ist,	-9.34217
▁bör	-9.34291
ite	-9.34309
ido	-9.34474
ina	-9.3458
tas	-9.34655
▁if	-9.34685
▁ya	-9.34701
▁molto	-9.34753
ných	-9.3482
ett	-9.34821
▁zij	-9.34936
▁lugar	-9.35146
ία	-9.35154
▁mes	-9.35205
▁'	-9.35307
▁devons	-9.35402
▁directive	-9.35502
dy	-9.35572
pe	-9.35575
zioni	-9.35637
▁parti	-9.35666
▁instrument	-9.35673
▁take	-9.35673
▁které	-9.35781
▁bara	-9.359
▁mening	-9.359
▁mellem	-9.3591
▁punkt	-9.36099
▁wy	-9.36447
▁lavoro	-9.3652
we	-9.36578
red	-9.36596
▁tid	-9.3667
▁ed	-9.36741
▁want	-9.36778
▁επίσης	-9.36922
δ	-9.36955
▁stato	-9.36957
▁αν	-9.36974
▁pi	-9.37047
▁place	-9.37084
ab	-9.37099
ją	-9.37124
▁proti	-9.37212
▁dalla	-9.37233
▁werden,	-9.37257
▁europæiske	-9.37333
▁projekt	-9.37348
hr	-9.37382
sten	-9.37394
man	-9.37474
▁Rådet	-9.37514
lse	-9.37613
ām	-9.37656
ll	-9.37719
▁even	-9.37731
nych	-9.37766
μ	-9.37845
▁give	-9.37863
▁støtte	-9.37986
▁gøre	-9.38124
▁waar	-9.38171
▁dieses	-9.38253
pi	-9.38274
▁energi	-9.38386
hed	-9.38413
▁materia	-9.38462
ine	-9.38513
ü	-9.38532
▁echter	-9.38584
I	-9.38717
heid	-9.38751
ale	-9.38821
▁3	-9.38942
gt	-9.39053
ме	-9.39058
▁κ.	-9.39066
▁Al	-9.392
▁such	-9.39207
▁blev	-9.39283
nce	-9.39295
my	-9.39308
▁nieuwe	-9.39322
met	-9.39459
ano	-9.39539
sz	-9.39603
▁heb	-9.3961
dos	-9.39782
iť	-9.39847
▁bude	-9.39898
▁droits	-9.39928
A	-9.39955
▁Da	-9.39963
th	-9.40051
iv	-9.40092
▁För	-9.40097
ί	-9.40189
ita	-9.40521
▁L	-9.40548
ši	-9.40577
kon	-9.40607
ac	-9.40625
αν	-9.4064
nd	-9.40657
ét	-9.40926
2	-9.40942
▁crisis	-9.40982
▁unsere	-9.41079
▁nad	-9.41176
ische	-9.41186
vol	-9.41205
que	-9.41205
ώ	-9.41232
▁zoals	-9.41263
▁nav	-9.41277
▁proces	-9.41294
▁στον	-9.41313
mine	-9.41352
wa	-9.41426
hi	-9.41574
▁roz	-9.4165
▁general	-9.41663
▁Európai	-9.41718
▁απο	-9.4176
▁momento	-9.41767
▁mellan	-9.41791
▁alleen	-9.41876
▁mums	-9.41885
idad	-9.4194
▁aj	-9.41942
ciones	-9.4204
ber	-9.42144
ého	-9.42174
▁vo	-9.42237
6	-9.42258
▁při	-9.42379
г	-9.42504
▁σχετικά	-9.42513
▁global	-9.4257
▁wel	-9.42728
mise	-9.42736
▁fråga	-9.42853
▁Rat	-9.42872
stand	-9.42922
▁diritti	-9.42935
▁debe	-9.42941
▁στα	-9.42943
zen	-9.42984
bre	-9.43096
for	-9.43166
▁travail	-9.43193
▁mon	-9.43377
▁protection	-9.43378
▁mehr	-9.43469
▁moment	-9.4353
cz	-9.43595
β	-9.43732
▁prze	-9.43935
▁Ge	-9.43957
▁R	-9.44007
unk	-9.44206
▁selle	-9.44207
▁human	-9.44213
lige	-9.44247
end	-9.44303
▁forslag	-9.44354
▁Do	-9.44358
▁συν	-9.44438
▁ihre	-9.44478
pen	-9.44723
▁contre	-9.4473
▁tussen	-9.44822
▁α	-9.44995
▁ή	-9.44999
▁bez	-9.45004
▁policy	-9.45039
▁make	-9.45068
gli	-9.4515
ρ	-9.45189
tori	-9.45282
▁sú	-9.45315
▁όπως	-9.4559
е	-9.45591
▁anser	-9.45613
ţi	-9.45633
▁ως	-9.45766
ity	-9.45788
▁selv	-9.45802
▁perché	-9.45815
▁tudi	-9.45819
▁Ce	-9.45912
▁jaar	-9.45995
ic	-9.46091
▁position	-9.46116
ła	-9.46229
▁hecho	-9.46265
▁abbiamo	-9.4628
nte	-9.46336
л	-9.46336
▁това	-9.46364
▁economic	-9.4642
ли	-9.46536
▁uno	-9.46628
▁tu	-9.46632
▁civil	-9.46674
▁had	-9.4673
▁(PL)	-9.46753
ül	-9.4689
▁information	-9.46996
▁gran	-9.47003
ler	-9.47006
led	-9.47095
▁hvis	-9.47289
pri	-9.47308
das	-9.47323
by	-9.47443
▁kar	-9.47515
för	-9.47559
či	-9.47601
▁deve	-9.47638
▁cas	-9.47654
o.	-9.47672
▁där	-9.47687
▁προ	-9.47694
ru	-9.47986
▁εξ	-9.48159
▁Η	-9.48258
▁prima	-9.48313
▁kot	-9.48446
▁puede	-9.48563
▁Za	-9.4864
▁particular	-9.48645
▁talman!	-9.48686
▁7	-9.48727
".	-9.48748
▁possible	-9.48781
tel	-9.48839
▁ny	-9.48859
▁andre	-9.48876
▁international	-9.48922
▁d’	-9.48934
ering	-9.48952
▁Non	-9.49003
▁ch	-9.4902
▁Aus	-9.49036
ica	-9.49133
▁integr	-9.4919
▁8	-9.49243
ft	-9.49323
▁sem	-9.49338
par	-9.4935
▁toe	-9.49366
mis	-9.49408
▁из	-9.49444
▁ville	-9.49547
▁b	-9.49572
ile	-9.49601
▁kann	-9.49669
ité	-9.49678
fer	-9.49739
▁Ho	-9.4975
▁Om	-9.4981
▁Man	-9.50024
▁ke	-9.50033
▁ще	-9.50161
stat	-9.50182
▁acuerdo	-9.50204
▁Ka	-9.50208
▁Con	-9.50327
cy	-9.50347
▁30	-9.50401
▁between	-9.5048
▁sätt	-9.50537
▁Το	-9.50743
vin	-9.50769
qu	-9.50935
▁into	-9.51044
▁vad	-9.51076
▁hacer	-9.51149
▁voudrais	-9.51165
▁Komisija	-9.51178
min	-9.51324
▁those	-9.51359
tos	-9.5142
▁αφορά	-9.51499
в	-9.51579
liga	-9.51667
ł	-9.51714
tor	-9.51719
leg	-9.51756
▁proposta	-9.51761
▁cela	-9.51981
▁peut	-9.52182
▁mu	-9.52522
ен	-9.52591
π	-9.52596
▁grande	-9.52621
▁kunne	-9.52632
ра	-9.52775
▁commission	-9.52818
var	-9.52926
▁fru	-9.52931
sp	-9.52989
д	-9.53138
té	-9.53167
▁jako	-9.53446
▁Κύριε	-9.53545
▁mål	-9.53594
▁bliver	-9.53837
▁c	-9.53885
ner	-9.53943
▁werk	-9.54058
εται	-9.54089
▁Detta	-9.54116
▁développement	-9.54155
▁bank	-9.54226
sko	-9.54267
ost	-9.54268
bu	-9.54373
▁propuesta	-9.54431
▁Dit	-9.54501
▁Li	-9.54528
▁Präsident,	-9.54557
▁svar	-9.54607
ovat	-9.54674
ion	-9.54715
ling	-9.54779
▁tem	-9.54782
vers	-9.54889
ė	-9.54913
▁än	-9.55037
ida	-9.55248
ím	-9.55288
rà	-9.55453
▁any	-9.55476
▁dos	-9.55536
▁Fru	-9.55556
▁proposition	-9.55556
▁derechos	-9.55559
▁sviluppo	-9.5556
▁most	-9.55569
nos	-9.55766
▁25	-9.55825
▁nombre	-9.55873
▁nye	-9.55988
▁donc	-9.56034
▁έχουν	-9.56056
ovať	-9.56083
ski	-9.56214
▁dell'Unione	-9.56281
arna	-9.56287
▁Als	-9.56316
▁when	-9.56368
pon	-9.56394
ren	-9.56441
uk	-9.56646
ées	-9.56688
▁går	-9.56717
▁šo	-9.56742
ισ	-9.56958
ito	-9.5701
▁dla	-9.5701
▁procent	-9.57038
▁fælles	-9.57106
▁keine	-9.57187
tte	-9.57211
▁way	-9.57395
▁Nu	-9.57404
ούν	-9.57474
▁trabajo	-9.57576
▁kunna	-9.57602
ante	-9.5767
▁dont	-9.57712
ení	-9.57723
▁programma	-9.57738
▁klar	-9.57808
politik	-9.57844
▁therefore	-9.58036
ía	-9.58048
▁Euro	-9.58065
ding	-9.58101
▁Di	-9.58225
).	-9.58237
ře	-9.58285
▁imp	-9.58291
▁oblasti	-9.58318
▁tiene	-9.58361
ila	-9.58371
▁via	-9.58403
▁Pa	-9.58416
▁programme	-9.58491
▁ru	-9.58539
▁being	-9.58546
▁habe	-9.58613
▁go	-9.58689
▁pu	-9.58735
rea	-9.58766
▁pred	-9.58831
era	-9.58833
nk	-9.58983
▁tym	-9.58983
▁decir	-9.59017
▁rights	-9.59054
▁forbindelse	-9.59146
▁allt	-9.59213
▁omdat	-9.59216
▁därför	-9.5927
▁political	-9.59302
▁vilket	-9.5931
ran	-9.59339
▁derfor	-9.59341
lich	-9.59364
ein	-9.59433
ς.	-9.59528
▁noi	-9.59541
▁inden	-9.5963
έ	-9.5977
▁EUR	-9.59787
▁«	-9.59793
▁C'est	-9.59882
▁Europa.	-9.59936
▁g	-9.59972
▁cittadini	-9.59984
ei	-9.60013
▁tema	-9.60109
οι	-9.60162
▁parlamentet	-9.60222
▁rådet	-9.6023
▁förslag	-9.60311
▁zwischen	-9.60324
▁προς	-9.6037
ių	-9.60371
stre	-9.60379
tie	-9.60381
▁porque	-9.6041
▁mange	-9.60431
osti	-9.60513
▁than	-9.60533
▁sans	-9.60656
▁EU's	-9.60676
bar	-9.60706
át	-9.60737
▁vai	-9.6074
▁2008	-9.60871
▁ανα	-9.60889
▁mio	-9.6093
▁naj	-9.60933
3	-9.61088
▁USA	-9.6111
mp	-9.61227
▁diesen	-9.61251
▁Sin	-9.61311
▁dann	-9.61378
ted	-9.6138
▁believe	-9.6138
▁soit	-9.61387
ým	-9.61396
▁mij	-9.61432
▁On	-9.61463
area	-9.61484
▁9	-9.61492
▁които	-9.61496
▁un'	-9.61575
pro	-9.61585
▁ήθελα	-9.61781
▁Sch	-9.61878
▁fact	-9.61945
▁made	-9.62006
▁Europæiske	-9.62104
ono	-9.62115
▁europäischen	-9.62275
▁hay	-9.62306
▁haar	-9.62405
▁gaat	-9.62407
▁ancora	-9.62418
cht	-9.62605
),	-9.62643
▁трябва	-9.62643
▁encore	-9.6272
▁vis	-9.62959
▁staat	-9.62961
τ	-9.6298
ischen	-9.63007
O	-9.63085
▁regional	-9.63085
lé	-9.63178
▁Entwicklung	-9.63186
ap	-9.63365
amos	-9.63519
▁však	-9.63531
▁būti	-9.63648
let	-9.63682
▁europeiska	-9.63694
tų	-9.63836
▁blevet	-9.63977
▁Ta	-9.63991
▁contro	-9.64069
▁tun	-9.64073
endo	-9.64079
▁Pro	-9.64132
▁до	-9.64233
▁primer	-9.6424
vé	-9.64271
▁έκθεση	-9.64432
▁når	-9.6444
▁può	-9.6448
▁4	-9.64519
▁control	-9.64697
handel	-9.64701
▁faut	-9.64762
▁hemos	-9.64841
▁wird.	-9.64846
▁say	-9.64894
ungen	-9.65016
▁11	-9.65023
▁pense	-9.65034
▁futuro	-9.65047
▁lahko	-9.65131
▁13	-9.65141
▁trans	-9.65208
L	-9.65231
γ	-9.65239
▁sz	-9.65413
▁še	-9.65434
▁medlemsstaterna	-9.65703
▁nes	-9.65776
tre	-9.65779
▁deux	-9.65907
ż	-9.65941
▁embargo	-9.66024
▁Med	-9.66037
▁anderen	-9.66172
tă	-9.66197
ico	-9.66246
▁Lo	-9.66251
▁artikel	-9.66287
▁voorstel	-9.6631
▁eerste	-9.6635
igen	-9.66371
sid	-9.66401
▁maken	-9.66517
iert	-9.66538
▁nya	-9.6657
▁basis	-9.66572
gy	-9.66629
▁were	-9.66666
▁ainsi	-9.66821
▁goed	-9.66867
kel	-9.66899
▁kaip	-9.66908
▁ju	-9.66915
ný	-9.66959
af	-9.66968
▁са	-9.67015
▁desarrollo	-9.67031
▁gibt	-9.67031
▁2010	-9.67053
V	-9.67066
▁betänkande	-9.67095
ait	-9.67154
▁vår	-9.67177
av	-9.67308
vor	-9.6731
▁Te	-9.67329
▁st	-9.67425
▁ger	-9.67467
▁hele	-9.67514
▁zeer	-9.67644
▁tror	-9.67647
▁Frage	-9.67713
▁region	-9.67923
▁débat	-9.67928
▁Vor	-9.6804
▁regering	-9.68062
one	-9.68086
▁due	-9.68092
usi	-9.68194
▁s'	-9.68202
▁Parlaments	-9.6821
ování	-9.68232
▁musí	-9.68294
▁våra	-9.68306
▁18	-9.68338
00	-9.68369
▁c'est	-9.68447
▁fri	-9.68528
▁damit	-9.68564
▁matière	-9.68576
7	-9.68666
▁inform	-9.68773
▁blive	-9.68821
▁cuestión	-9.68825
ani	-9.68828
vá	-9.68836
und	-9.69023
▁market	-9.69024
▁tutto	-9.69157
else	-9.69163
▁vez	-9.69184
ría	-9.69206
▁questione	-9.69219
ron	-9.69232
▁fall	-9.69257
ονται	-9.69316
īt	-9.69358
▁N	-9.6938
▁stand	-9.69402
d.	-9.69497
▁all'	-9.69527
nje	-9.69579
▁taip	-9.69629
bra	-9.69666
▁ΕΕ	-9.69679
▁като	-9.69686
ību	-9.69722
▁belang	-9.69785
▁európai	-9.69863
▁eines	-9.69866
▁hensyn	-9.69874
▁27	-9.6988
▁μέλη	-9.69924
▁gegen	-9.69936
prav	-9.6996
▁tā	-9.7003
▁2007	-9.70058
ah	-9.70087
B	-9.701
▁Επιτροπής	-9.70129
mist	-9.70131
▁services	-9.70157
▁roku	-9.70158
▁vers	-9.70212
▁commissione	-9.70263
com	-9.70336
▁EU.	-9.70436
igt	-9.70442
ρα	-9.70571
▁some	-9.70572
▁sécurité	-9.70671
ré	-9.709
rne	-9.70901
▁(PT)	-9.70931
eren	-9.70941
lle	-9.70951
mas	-9.70986
▁resolution	-9.71006
▁già	-9.71038
▁seda	-9.71079
ise	-9.71084
kar	-9.71091
▁steun	-9.71161
ub	-9.71173
▁plaats	-9.71209
▁κράτη	-9.71215
▁Sa	-9.7122
▁mich	-9.71246
▁l	-9.71295
▁sua	-9.71326
▁dokument	-9.7134
▁sicurezza	-9.71371
▁direktiv	-9.71381
▁many	-9.71409
▁står	-9.71516
▁Κοινοβούλιο	-9.71529
▁sino	-9.71542
▁2000	-9.71558
▁duidelijk	-9.71573
▁hand	-9.71595
▁Kosovo	-9.71661
▁oraz	-9.71706
y.	-9.71887
▁sp	-9.71935
stru	-9.71949
▁legal	-9.71983
▁μία	-9.72011
▁grote	-9.72051
ker	-9.72081
▁beleid	-9.72122
▁åtgärder	-9.72125
qui	-9.72228
▁Ab	-9.72251
1	-9.72277
▁fond	-9.72284
ít	-9.72332
▁development	-9.72368
▁2009	-9.72459
▁unionen	-9.72561
D	-9.72581
tto	-9.72593
▁ciudadanos	-9.72602
▁proposal	-9.72609
U	-9.72683
æ	-9.72746
▁są	-9.72934
▁tratta	-9.72943
lik	-9.72979
▁če	-9.72991
▁vý	-9.73002
▁marché	-9.73063
že	-9.73124
▁hvad	-9.7314
▁val	-9.7321
F	-9.73218
й	-9.73333
▁esto	-9.73337
▁fundamental	-9.73368
ies	-9.73402
med	-9.7341
ούμε	-9.73524
▁ist.	-9.73584
ň	-9.73585
▁które	-9.7359
▁Parlamentu	-9.73631
▁concerne	-9.73675
▁against	-9.7371
▁suis	-9.73766
▁process	-9.73842
gal	-9.73945
▁haben,	-9.7398
▁gaan	-9.74002
▁As	-9.74012
▁fare	-9.74031
к	-9.74117
line	-9.74182
▁przez	-9.74213
▁przy	-9.74238
▁é	-9.74249
▁wird,	-9.74364
s-	-9.74417
iu	-9.74434
▁(IT)	-9.74464
▁respecto	-9.74481
▁sikre	-9.74487
▁vista	-9.74567
▁politisk	-9.74598
▁altri	-9.74657
▁ganz	-9.74788
ria	-9.7479
▁real	-9.74825
▁mensen	-9.74942
▁jedoch	-9.75045
▁pan	-9.75121
▁situación	-9.75141
▁mesures	-9.75226
▁Θα	-9.75296
▁μπορεί	-9.75399
▁Sr.	-9.75491
▁sondern	-9.75504
▁μόνο	-9.7553
▁50	-9.75609
▁medlemsstaterne	-9.75644
fic	-9.75648
▁rol	-9.75702
▁era	-9.75729
▁sido	-9.75752
▁same	-9.75766
ική	-9.75786
▁nogle	-9.7583
ți	-9.75848
▁medidas	-9.75861
▁n'est	-9.75895
▁turi	-9.75922
▁gjort	-9.75933
▁Ro	-9.75966
sol	-9.76001
ania	-9.76073
▁første	-9.7613
▁stat	-9.76204
▁Bo	-9.76206
▁situazione	-9.76265
▁Menschen	-9.76286
▁mercato	-9.76359
▁ret	-9.76417
▁central	-9.7648
nou	-9.76489
▁ro	-9.76529
▁mag	-9.76537
▁issue	-9.76552
▁favore	-9.76581
▁Ja	-9.76607
▁energie	-9.76696
▁oma	-9.76721
as,	-9.76732
▁tant	-9.76793
▁estos	-9.76824
nosti	-9.76838
▁stöd	-9.76897
▁mir	-9.76974
ance	-9.76984
▁dobbiamo	-9.7706
▁first	-9.77097
▁Bizottság	-9.77238
τε	-9.77256
gang	-9.77301
▁tiempo	-9.77315
▁tro	-9.77329
▁citoyens	-9.77359
▁Diese	-9.7738
▁samt	-9.77416
▁mille	-9.77509
▁Evropské	-9.77521
▁amely	-9.77567
et.	-9.77597
lar	-9.77738
▁stabil	-9.77778
▁υπο	-9.77796
tek	-9.77899
pp	-9.77964
▁livello	-9.78117
▁acest	-9.78128
▁comune	-9.78133
▁κατα	-9.78137
▁pos	-9.78202
▁pris	-9.78223
ved	-9.78362
▁raz	-9.78372
ex	-9.78378
▁stellen	-9.78412
▁Herrn	-9.78522
▁Maßnahmen	-9.78523
▁ontwikkeling	-9.7856
▁Ευρωπαϊκή	-9.78561
ados	-9.78568
pre	-9.78607
▁jsou	-9.78647
▁certain	-9.78677
▁questions	-9.78805
▁seguridad	-9.78805
▁14	-9.78837
▁fine	-9.78853
▁trata	-9.7887
iga	-9.78926
▁συμ	-9.78949
▁första	-9.78991
▁rätt	-9.79023
▁Ein	-9.79056
nti	-9.79064
ēt	-9.79074
▁J	-9.79091
▁That	-9.79102
ség	-9.79143
▁trebuie	-9.7915
▁final	-9.79286
recht	-9.79305
▁l'UE	-9.79365
▁sige	-9.79419
▁nuestra	-9.79467
vu	-9.79482
▁d'a	-9.79537
▁state	-9.79659
ert	-9.79669
▁jau	-9.79683
ster	-9.79688
▁μεταξύ	-9.79823
▁favor	-9.79824
▁vom	-9.799
▁particolare	-9.79932
▁sunt	-9.8014
▁groupe	-9.80225
▁nostro	-9.80286
▁beslut	-9.80346
kal	-9.80357
▁recht	-9.80359
▁ansvar	-9.80392
ive	-9.80453
et,	-9.80472
▁tr	-9.80492
ori	-9.80508
▁leg	-9.80536
▁hur	-9.8054
▁paese	-9.80582
▁många	-9.80639
sto	-9.80646
▁azt	-9.80695
▁heute	-9.80852
▁bra	-9.80896
▁think	-9.80928
las	-9.8094
▁Recht	-9.80951
emos	-9.80999
ht	-9.8112
N	-9.81155
▁οποίο	-9.81155
▁Par	-9.8116
▁σας	-9.81206
▁sollte	-9.81351
▁settore	-9.81369
ži	-9.81376
▁sollten	-9.81435
ct	-9.81448
▁EU:s	-9.81462
ui	-9.8149
elt	-9.81583
nega	-9.81609
▁leurs	-9.81664
▁În	-9.81685
cer	-9.81698
dan	-9.81729
vel	-9.81732
ните	-9.81757
▁organ	-9.81765
▁mercado	-9.8178
▁ste	-9.81848
▁χώρες	-9.8185
▁good	-9.81893
▁know	-9.81952
stan	-9.82147
▁acc	-9.8216
▁cuando	-9.82188
▁doivent	-9.82193
▁gebied	-9.82194
▁EÚ	-9.82225
ле	-9.82226
M	-9.82232
vien	-9.82258
▁prav	-9.82267
▁name	-9.82318
ság	-9.82322
▁quindi	-9.82417
fe	-9.82448
▁aantal	-9.82452
duc	-9.82491
▁fordi	-9.82529
▁vigtigt	-9.82548
▁arbejde	-9.82565
▁sowie	-9.82626
▁afin	-9.82638
▁risk	-9.82701
▁fo	-9.82729
▁anni	-9.8274
▁gruppo	-9.82827
▁Committee	-9.82841
▁ello	-9.82854
▁sagen	-9.82864
▁import	-9.8294
ace	-9.82971
▁16	-9.82972
▁consider	-9.83002
▁two	-9.83021
τη	-9.83022
ια	-9.83069
▁droit	-9.83071
ło	-9.83161
▁både	-9.83247
▁E'	-9.83254
▁así	-9.83262
age	-9.8327
▁2020	-9.83272
▁cet	-9.83318
port	-9.83344
▁17	-9.8336
▁questi	-9.83494
▁face	-9.83511
isation	-9.83547
▁continue	-9.83606
▁ole	-9.83648
▁están	-9.83717
▁order	-9.8374
▁accord	-9.83753
▁tego	-9.83757
▁säga	-9.83788
▁zeggen	-9.8384
▁present	-9.83888
4	-9.83897
ри	-9.83924
los	-9.8395
▁2006	-9.84027
▁sommes	-9.84068
▁ønsker	-9.84109
ningen	-9.84112
▁sub	-9.8415
▁déjà	-9.84187
▁vraag	-9.84202
ér	-9.8422
▁durante	-9.84223
▁vastu	-9.84239
▁länder	-9.84341
ст	-9.84352
▁alt	-9.84426
ły	-9.84537
▁ahora	-9.84597
▁Op	-9.84609
▁principio	-9.84744
▁cadre	-9.84844
▁tri	-9.84869
▁manière	-9.84936
▁Европейския	-9.84946
▁much	-9.84956
▁Dem	-9.85023
▁burgers	-9.85085
nza	-9.85229
▁où	-9.85298
▁Su	-9.85347
ind	-9.85375
▁tam	-9.85392
▁Ένωση	-9.85419
▁särskilt	-9.85432
▁tekst	-9.85458
nem	-9.85473
▁frem	-9.85489
ár	-9.85513
pl	-9.8553
▁Ko	-9.85552
▁well	-9.85602
▁tijd	-9.85621
▁πολιτική	-9.85637
▁positive	-9.85677
pt	-9.85684
▁économique	-9.85737
▁können	-9.85763
K	-9.85763
▁klart	-9.85856
rsi	-9.85865
▁strategi	-9.85937
▁suo	-9.8595
è	-9.85958
▁ændringsforslag	-9.85977
▁institutions	-9.86023
▁bin	-9.86043
▁President	-9.86128
ging	-9.86135
▁interes	-9.86153
▁uden	-9.86179
▁τομέα	-9.862
▁ali	-9.86277
▁medlemsstater	-9.8639
iska	-9.86392
▁elle	-9.86405
▁país	-9.86472
kov	-9.86504
pos	-9.86542
cur	-9.86567
▁būtų	-9.86592
S	-9.86597
▁tej	-9.86599
▁immer	-9.86616
▁Ni	-9.86654
▁kom	-9.86656
▁daar	-9.86661
▁ciò	-9.86667
▁posible	-9.8667
dz	-9.86724
ίες	-9.86773
cio	-9.86777
hu	-9.86805
▁sui	-9.86824
szt	-9.86863
atie	-9.87044
▁economische	-9.87062
ations	-9.87081
ces	-9.8711
umu	-9.87143
▁pani	-9.873
▁ήταν	-9.87326
▁sera	-9.87342
▁handel	-9.87358
▁personas	-9.87408
▁været	-9.87452
ла	-9.87578
▁mal	-9.87603
▁tako	-9.87621
▁right	-9.87654
▁1999	-9.87664
ят	-9.8767
▁where	-9.87684
fa	-9.87691
▁något	-9.87822
▁belangrijk	-9.87856
▁frågor	-9.87936
ör	-9.87955
▁bereits	-9.87956
▁má	-9.87967
tag	-9.88004
mar	-9.88007
▁politiques	-9.88009
σι	-9.8803
▁προσ	-9.88032
▁utveckling	-9.88075
▁eigen	-9.88085
ка	-9.88099
▁conditions	-9.88148
▁Nie	-9.88188
▁country	-9.88238
▁Vorschlag	-9.88239
mento	-9.88303
▁nostra	-9.88354
▁future	-9.88367
ld	-9.88368
ης	-9.88404
▁procedure	-9.88406
▁politieke	-9.88458
▁hi	-9.88469
▁viktigt	-9.88641
mit	-9.88696
▁com	-9.88801
▁finans	-9.88813
ś	-9.8889
dig	-9.88932
alt	-9.88962
▁või	-9.89017
ση	-9.8902
▁years	-9.89048
▁ingen	-9.89052
▁element	-9.89058
▁pra	-9.89064
▁refer	-9.89068
",	-9.89108
▁Madame	-9.89174
▁ez	-9.89304
āk	-9.89353
▁quali	-9.89399
▁See	-9.89435
▁heel	-9.8944
▁Ευρώπη	-9.89455
E	-9.89455
tet	-9.89457
takse	-9.89503
▁senza	-9.89538
▁при	-9.89559
▁pret	-9.89568
▁maatregelen	-9.89694
▁vilja	-9.89716
▁still	-9.89742
▁mest	-9.89763
▁stata	-9.89803
▁spo	-9.89803
▁π	-9.8984
▁compte	-9.89844
gel	-9.89939
lag	-9.89974
▁vue	-9.90023
nost	-9.90161
▁He	-9.9021
▁noget	-9.90235
ünk	-9.90249
ef	-9.90274
iva	-9.90281
▁europea.	-9.90321
▁view	-9.90328
iteit	-9.9039
én	-9.90518
▁kontrol	-9.90624
por	-9.90627
▁god	-9.9065
▁cannot	-9.90767
uri	-9.90786
tur	-9.90862
ino	-9.90941
C	-9.90956
aire	-9.90971
▁twee	-9.90981
ξ	-9.91002
▁zijn.	-9.9102
ord	-9.91066
ти	-9.91073
▁čo	-9.91086
ą,	-9.91136
car	-9.91238
▁limit	-9.91247
▁here	-9.91251
▁Zeit	-9.91251
▁savo	-9.914
▁hope	-9.9142
▁side	-9.91438
▁riguarda	-9.91444
ať	-9.915
▁membre	-9.91511
▁gör	-9.91535
ľ	-9.91633
▁Y	-9.91635
▁tempo	-9.91656
▁bli	-9.91721
▁pán	-9.91728
▁citizens	-9.91835
▁mayor	-9.9184
▁gi	-9.91899
ος	-9.92022
▁tar	-9.92187
▁wo	-9.92228
▁tipo	-9.92269
▁lande	-9.92274
mmer	-9.92369
stra	-9.92421
▁res	-9.92573
▁ses	-9.92609
▁pot	-9.92703
▁probleem	-9.92735
▁Európsk	-9.92735
jas	-9.92757
▁udvikling	-9.9279
▁mismo	-9.92794
ern	-9.92798
nden	-9.92845
tten	-9.92869
▁ändringsförslag	-9.92985
▁Europa,	-9.93014
▁Α	-9.93062
▁rad	-9.93089
▁ba	-9.93111
▁hoe	-9.93151
res	-9.93192
▁kuri	-9.93208
▁jour	-9.93268
nim	-9.93333
▁clear	-9.93346
▁gang	-9.93353
ния	-9.93359
spe	-9.9342
▁nodig	-9.93516
▁quale	-9.93529
use	-9.93532
▁2004	-9.93581
▁sektor	-9.93612
▁meine	-9.93628
▁Mar	-9.93649
▁soutien	-9.93651
▁Los	-9.93718
▁ekonomiska	-9.93764
▁opinion	-9.93789
cia	-9.93798
▁Ο	-9.93821
▁tan	-9.93838
ente	-9.93871
ăm	-9.93898
isk	-9.93979
isme	-9.94056
▁otros	-9.94061
▁weil	-9.94086
▁nivel	-9.94114
encia	-9.94126
▁lang	-9.94143
▁Lissabon	-9.9417
▁gå	-9.94191
▁Bürger	-9.94192
▁act	-9.94259
scri	-9.94325
▁measures	-9.94327
▁sina	-9.94531
▁allerede	-9.94534
▁Kommissionens	-9.94601
▁standard	-9.94618
vat	-9.94618
▁σημαντικό	-9.94664
▁temps	-9.94814
nen	-9.9487
▁At	-9.94896
▁effet	-9.95018
▁2003	-9.95095
▁them	-9.95097
nego	-9.95208
vil	-9.95251
▁Israel	-9.95284
▁buvo	-9.95287
▁pār	-9.95356
ības	-9.95423
ám	-9.95471
▁Συμβούλιο	-9.95477
▁redan	-9.95532
lad	-9.95548
▁také	-9.95577
▁meie	-9.95602
▁sk	-9.95648
▁rättigheter	-9.95655
jem	-9.95668
R	-9.957
з	-9.95732
ήσει	-9.95739
▁desde	-9.95758
▁does	-9.95772
▁brug	-9.95776
▁situatie	-9.95792
▁action	-9.95836
▁aspekt	-9.9584
sam	-9.95843
▁markt	-9.95901
▁sind,	-9.95931
▁argument	-9.95934
▁sea	-9.95944
▁Οι	-9.95964
sed	-9.95965
р	-9.95966
▁väga	-9.95996
▁darauf	-9.96033
▁2002	-9.96037
rie	-9.9606
▁več	-9.96179
▁interne	-9.96203
▁Arbeit	-9.96207
dre	-9.96223
▁problème	-9.96253
▁nuestro	-9.96256
▁labai	-9.96265
ß	-9.96272
ingen	-9.96309
▁d’un	-9.9636
▁could	-9.96395
▁direttiva	-9.96409
▁smo	-9.96441
▁lors	-9.96451
▁oggi	-9.96454
▁kultur	-9.96483
▁apie	-9.9649
▁text	-9.96569
▁Schengen	-9.96577
▁too	-9.96586
▁feit	-9.96603
▁said	-9.96647
▁hij	-9.96677
▁China	-9.96705
▁cuenta	-9.9676
▁Αυτό	-9.9684
▁Problem	-9.96869
ast	-9.9687
ért	-9.96882
ικό	-9.96914
ové	-9.96938
ίας	-9.97086
ří	-9.97106
▁significa	-9.97122
▁put	-9.97125
▁mevrouw	-9.97153
▁his	-9.97208
▁Ra	-9.973
å	-9.97302
▁lu	-9.97309
▁diritto	-9.97314
tions	-9.97384
▁l’a	-9.97431
▁ban	-9.9745
▁Daarom	-9.97458
▁επί	-9.97479
▁agreement	-9.97482
lichen	-9.97562
▁specific	-9.97579
▁today	-9.976
▁Im	-9.97613
uta	-9.97629
▁endnu	-9.97634
ala	-9.9765
tele	-9.97744
”.	-9.9777
ać	-9.97816
ug	-9.97832
▁být	-9.97956
gra	-9.98051
▁così	-9.98099
ique	-9.98162
iske	-9.98288
cul	-9.98322
ère	-9.98407
ns	-9.98431
▁Wie	-9.98437
fin	-9.98473
▁nende	-9.98476
▁Evropsk	-9.98524
▁auto	-9.98541
▁Portugal	-9.98557
▁pré	-9.98619
tik	-9.98652
plan	-9.98654
▁této	-9.9879
▁años	-9.98833
▁δ	-9.98908
▁olyan	-9.98959
▁θέμα	-9.98991
tta	-9.99027
nas	-9.9905
sche	-9.99051
▁rok	-9.99055
▁unserer	-9.99059
dom	-9.99072
▁financial	-9.99076
▁spørgsmål	-9.99082
▁tiek	-9.99111
▁debemos	-9.99129
οί	-9.99177
▁hoy	-9.9919
▁motivo	-9.99198
▁sådan	-9.992
▁already	-9.99234
μα	-9.99274
▁last	-9.99419
▁nacional	-9.99452
ene	-9.99485
▁Ar	-9.99524
▁2005	-9.99562
spolitik	-9.99619
▁special	-9.99713
▁måde	-9.9974
▁personnes	-9.99832
lla	-9.99853
▁wurde	-9.99926
▁ur	-9.99947
▁europei	-9.99963
▁stati	-9.99969
▁belangrijke	-9.99975
lang	-10.0002
▁long	-10.0002
her	-10.0003
▁dafür	-10.0003
▁opera	-10.0004
gar	-10.0007
ре	-10.0012
▁komen	-10.0012
sty	-10.0022
▁rispetto	-10.0026
▁existe	-10.0027
ούς	-10.0027
▁communautaire	-10.004
G	-10.0048
▁l'Europe	-10.0048
ssa	-10.0052
bil	-10.0053
ev	-10.0059
rod	-10.0062
▁nelle	-10.0065
▁tener	-10.0067
▁økonomiske	-10.0068
ách	-10.0069
▁agli	-10.0069
▁Bereich	-10.0069
as.	-10.0078
▁mindre	-10.0082
amento	-10.0085
▁ejemplo	-10.0092
eur	-10.0098
▁mogelijk	-10.0098
▁damer	-10.0103
▁proceso	-10.0105
elijke	-10.0106
▁Ευρωπαϊκής	-10.0107
▁Politik	-10.0112
▁tenemos	-10.0112
▁čas	-10.0114
▁visa	-10.0115
▁sarà	-10.0116
▁gan	-10.0117
dra	-10.0118
▁40	-10.0118
em,	-10.0121
▁tali	-10.0128
▁potreb	-10.0129
▁lid	-10.0131
▁Grupo	-10.0135
▁mūsu	-10.0139
▁tejto	-10.014
T	-10.014
▁zorgen	-10.0141
ret	-10.0144
▁ELi	-10.0148
▁üle	-10.0148
▁vorrei	-10.0148
ame	-10.015
▁total	-10.0153
oje	-10.0154
▁presente	-10.0154
▁czy	-10.0156
▁sou	-10.016
▁politiska	-10.0161
aux	-10.0163
▁formand!	-10.0164
▁två	-10.017
▁godt	-10.0172
▁problemen	-10.0176
▁kort	-10.0183
nú	-10.0184
▁n'a	-10.019
▁discussione	-10.0192
▁hat,	-10.0201
▁taken	-10.0205
▁demande	-10.0205
▁ú	-10.0213
▁betreft	-10.0214
▁ponente	-10.0225
▁Kommissar	-10.0226
▁possibile	-10.0226
▁mennesker	-10.0234
sak	-10.0235
▁geht	-10.0244
▁καθώς	-10.0246
▁mida	-10.025
▁dialog	-10.0255
▁ak	-10.0257
vent	-10.0262
▁frågan	-10.0263
ario	-10.0264
ж	-10.0265
▁año	-10.0265
▁Δε	-10.0265
eket	-10.0271
▁jetzt	-10.0272
▁Ri	-10.0274
ijos	-10.0278
▁causa	-10.028
▁beslutning	-10.0281
▁Este	-10.0284
▁mine	-10.0285
▁kol	-10.0287
▁né	-10.0288
▁result	-10.0289
▁geven	-10.0289
▁Ez	-10.029
▁year	-10.0291
iai	-10.0292
ust	-10.0295
ους	-10.0307
kor	-10.0308
▁práv	-10.0309
▁demokrati	-10.0317
▁några	-10.0321
▁within	-10.0322
▁bio	-10.0328
▁2001	-10.0336
▁bil	-10.0337
▁På	-10.0338
▁regionale	-10.0339
ede	-10.0339
▁vert	-10.0344
▁misure	-10.0346
▁dicho	-10.035
and	-10.0351
▁uw	-10.0354
▁bilancio	-10.0358
’s	-10.0359
▁ven	-10.0371
▁kolleger	-10.0372
▁ned	-10.0373
▁sólo	-10.0373
▁ora	-10.0374
itet	-10.0374
▁centrale	-10.0386
▁adopt	-10.0387
ime	-10.0392
okat	-10.0394
▁zouden	-10.0394
▁Et	-10.0394
▁allen	-10.0397
▁struktur	-10.0408
▁doen	-10.0412
»	-10.0416
▁sind.	-10.0418
rán	-10.0423
ū	-10.0425
kaz	-10.043
▁παρα	-10.0432
▁alcuni	-10.0433
▁use	-10.0447
νο	-10.0447
mand	-10.0453
bb	-10.0454
form	-10.0454
▁samenwerking	-10.0458
▁tur	-10.0459
sku	-10.0459
▁set	-10.0459
▁sammen	-10.0465
ného	-10.0466
▁Zu	-10.0469
▁bis	-10.0472
▁devono	-10.0473
ευ	-10.0473
▁particulier	-10.0474
▁naše	-10.0476
▁Esto	-10.048
▁toho	-10.048
▁richtlijn	-10.0487
▁musíme	-10.0488
▁dus	-10.0488
elor	-10.0488
uma	-10.0489
▁Land	-10.049
nci	-10.0491
▁waren	-10.0492
ras	-10.0497
▁dazu	-10.0509
▁(ES)	-10.0512
ować	-10.0515
▁tento	-10.0515
▁vet	-10.0516
▁ide	-10.0522
▁how	-10.0522
aal	-10.0535
▁fois	-10.0538
▁politiske	-10.0542
▁processo	-10.0544
▁Co	-10.0548
pra	-10.0548
▁τρόπο	-10.0552
log	-10.0552
▁vie	-10.0554
ną	-10.0556
▁siano	-10.0556
▁sulle	-10.0557
▁herr	-10.0557
▁jih	-10.0562
▁Wenn	-10.0563
▁folk	-10.0567
ian	-10.0571
▁jsem	-10.0572
chen	-10.0573
▁σ	-10.0574
▁πιο	-10.0583
▁your	-10.0586
▁κ	-10.0591
▁praw	-10.0596
▁onorevoli	-10.0598
▁estas	-10.0609
▁einige	-10.0613
▁jog	-10.0614
▁Internet	-10.0616
ата	-10.0617
▁wieder	-10.0618
ær	-10.0624
▁regard	-10.0624
▁Wat	-10.0624
ismo	-10.0627
▁toute	-10.0632
▁common	-10.0636
▁Van	-10.0639
ší	-10.064
▁fast	-10.0643
ρε	-10.0645
▁jelentés	-10.065
P	-10.0651
▁gas	-10.0652
▁sedan	-10.0654
nym	-10.0665
▁Europas	-10.0665
eld	-10.0672
▁αυτά	-10.0677
▁absolut	-10.0678
ák	-10.0683
▁ihrer	-10.0683
▁Rahmen	-10.0686
▁bus	-10.0689
▁grad	-10.0695
▁Ziel	-10.0696
▁hace	-10.0701
zy	-10.0702
▁able	-10.0708
▁(RO)	-10.0711
▁sujet	-10.0713
▁(NL)	-10.0716
▁си	-10.0723
▁således	-10.0724
▁level	-10.0727
▁milieu	-10.0733
▁both	-10.0734
imi	-10.0737
▁Dans	-10.074
ndet	-10.0745
▁acord	-10.0748
▁serie	-10.0749
ob	-10.0754
▁There	-10.0758
▁επ	-10.0771
▁ktorý	-10.0775
▁parce	-10.0777
liche	-10.0786
▁Komise	-10.079
▁ensure	-10.0794
▁cooperation	-10.0797
ier	-10.0798
▁forhold	-10.08
θε	-10.08
▁muligt	-10.08
▁stadig	-10.0806
▁course	-10.0807
▁bych	-10.0812
▁Ca	-10.0816
▁nom	-10.0817
▁100	-10.0827
▁mise	-10.0828
▁ord	-10.0831
▁bas	-10.0834
▁concernant	-10.0837
▁thank	-10.0838
’	-10.0839
▁case	-10.084
ości	-10.0853
ujú	-10.0855
▁quando	-10.0858
▁col	-10.086
▁politika	-10.0868
▁Derfor	-10.0869
juk	-10.0873
vid	-10.0873
▁denn	-10.0876
▁nuestros	-10.0879
ntes	-10.088
▁mucho	-10.0887
▁Auf	-10.0891
pu	-10.0891
▁kai	-10.0895
▁pesca	-10.0895
▁fost	-10.0895
ικά	-10.0898
▁haben.	-10.09
mal	-10.0903
-Parlamentet	-10.0907
▁wereld	-10.0908
▁domaine	-10.0915
gro	-10.0924
▁problemi	-10.0928
▁vz	-10.093
cen	-10.0938
ви	-10.0941
▁können.	-10.0942
▁unie	-10.0942
anie	-10.0943
▁aasta	-10.0946
▁gemensamma	-10.095
▁comment	-10.095
ard	-10.095
vet	-10.0954
х	-10.0956
og	-10.0956
▁tega	-10.0957
▁financiële	-10.0964
rse	-10.0964
▁creo	-10.0965
us,	-10.097
▁dr	-10.0971
▁όμως	-10.0978
▁který	-10.0978
zo	-10.0979
▁olika	-10.0981
▁év	-10.0981
▁However,	-10.0982
▁apoyo	-10.0983
eerd	-10.0984
▁členských	-10.0986
▁sempre	-10.0989
tig	-10.0992
▁coopération	-10.0993
▁model	-10.0996
nju	-10.0997
▁hvilket	-10.0997
ija	-10.0999
inių	-10.1
sion	-10.1001
▁d'autres	-10.1003
▁mūsų	-10.1007
▁autres	-10.1007
▁own	-10.1018
▁která	-10.1025
fall	-10.1027
▁Community	-10.103
▁držav	-10.1033
▁toutes	-10.1038
▁ti	-10.104
▁anti	-10.104
▁world	-10.1041
▁bodo	-10.1044
▁όσον	-10.1044
▁Gu	-10.1052
remo	-10.1061
8	-10.1061
▁στους	-10.1065
änd	-10.1068
▁pře	-10.107
▁start	-10.1073
▁kwestie	-10.1083
▁sal	-10.1084
▁actual	-10.1086
▁kompromis	-10.1088
▁hen	-10.1088
▁pr	-10.1093
▁Deze	-10.1094
lä	-10.1097
▁donne	-10.1099
zet	-10.1101
gan	-10.1101
▁σήμερα	-10.1102
▁vissa	-10.1105
▁certains	-10.1107
το	-10.1109
▁secondo	-10.1114
▁sam	-10.112
▁efforts	-10.1124
▁prac	-10.1124
tura	-10.1126
▁signor	-10.1126
eb	-10.1127
▁Mme	-10.113
▁net	-10.1137
ism	-10.114
amo	-10.1141
▁περι	-10.1142
▁gen	-10.1146
til	-10.1147
imas	-10.1148
▁proprio	-10.1148
▁steeds	-10.115
▁Mit	-10.1151
▁change	-10.1158
▁humanos	-10.1159
▁l'Unione	-10.116
▁behov	-10.1163
imą	-10.1168
parlamentet	-10.1168
▁kommissionens	-10.1171
ната	-10.1172
▁binnen	-10.1173
eli	-10.1177
▁problemas	-10.1178
σε	-10.1179
▁politici	-10.118
ini	-10.1183
▁monde	-10.1187
▁since	-10.1198
mor	-10.1199
ában	-10.12
ningar	-10.1203
▁volta	-10.1206
▁arbete	-10.1207
▁бъде	-10.1211
▁muß	-10.1214
▁neuen	-10.122
šu	-10.1226
foranstaltninger	-10.1232
▁Rady	-10.124
slag	-10.1246
▁moins	-10.1254
▁ram	-10.1255
ą.	-10.1258
schaft	-10.1258
▁insbesondere	-10.1259
▁example	-10.1263
▁również	-10.1267
▁collega	-10.127
aciones	-10.1276
▁tom	-10.1277
ute	-10.1278
▁houden	-10.1282
▁energia	-10.1287
▁Mrs	-10.129
▁résolution	-10.1292
▁о	-10.1296
▁necesario	-10.1299
▁globale	-10.1299
▁système	-10.13
▁neue	-10.1301
▁mina	-10.1305
ions	-10.1309
▁sens	-10.1311
▁würde	-10.1313
▁strategie	-10.132
▁krav	-10.132
ηθεί	-10.1338
▁αυτές	-10.1339
art	-10.1339
iendo	-10.1343
▁ogni	-10.1343
dere	-10.1345
▁kop	-10.1352
▁Ten	-10.1353
▁Unió	-10.1353
▁cada	-10.1354
▁πλαίσιο	-10.1356
че	-10.1358
▁andet	-10.1358
▁nostri	-10.1359
▁waarin	-10.1359
▁aujourd'hui	-10.1362
▁betrekking	-10.1363
▁raison	-10.1364
▁II	-10.1364
ová	-10.1366
sso	-10.1368
▁doch	-10.1372
tí	-10.1375
κα	-10.1383
▁människor	-10.1384
heden	-10.1387
omis	-10.1387
▁ayuda	-10.1389
▁Комисията	-10.1391
▁Kon	-10.1391
▁president	-10.1392
▁Her	-10.1393
▁ļoti	-10.1401
ată	-10.1401
cí	-10.1401
▁seulement	-10.1402
akt	-10.1403
▁jā	-10.1404
▁estamos	-10.1407
▁EU,	-10.1413
lus	-10.1414
▁todas	-10.1415
▁Am	-10.1416
▁Länder	-10.1417
yti	-10.142
pan	-10.1421
▁wäre	-10.1422
▁number	-10.1428
▁situationen	-10.143
▁ty	-10.143
fri	-10.1431
ction	-10.1434
ser	-10.1435
▁samarbejde	-10.1437
▁návrh	-10.1438
▁commune	-10.1439
ør	-10.144
у	-10.1441
▁law	-10.1442
▁présent	-10.1444
нето	-10.1445
λη	-10.1445
▁help	-10.1445
▁Mittel	-10.1448
▁cooperación	-10.1454
▁contrôle	-10.1455
▁siamo	-10.1456
▁Panie	-10.1456
▁jsme	-10.1458
▁personal	-10.1459
▁Fall	-10.1462
ről	-10.1464
▁kader	-10.1465
▁document	-10.1467
▁små	-10.1468
▁mar	-10.1475
▁sitt	-10.1479
▁samme	-10.148
▁test	-10.1481
▁marco	-10.1482
ima	-10.1488
▁store	-10.149
▁Commissario	-10.149
adas	-10.1503
▁möjligt	-10.1506
▁main	-10.1508
▁Ob	-10.1509
nut	-10.151
▁gør	-10.1513
fo	-10.1516
▁mener	-10.1516
▁tage	-10.1525
▁пре	-10.1525
▁veľmi	-10.1526
mat	-10.1527
▁Komisijos	-10.1531
umo	-10.1535
▁export	-10.1546
jos	-10.1547
▁betänkandet	-10.155
ním	-10.1551
▁Präsident!	-10.1552
ti,	-10.1554
▁behöver	-10.1555
▁efficace	-10.1556
▁а	-10.1559
▁framför	-10.1566
▁forskellige	-10.1569
▁Grund	-10.1574
ът	-10.1577
▁daudz	-10.1581
▁points	-10.1584
▁В	-10.1589
ήσουμε	-10.1597
itu	-10.1598
▁programa	-10.1611
▁sak	-10.1613
▁zwei	-10.1614
▁Ru	-10.1617
▁medio	-10.1617
ô	-10.1624
jú	-10.1626
▁aktiv	-10.1629
▁Commissioner	-10.1631
▁large	-10.1633
▁φ	-10.1634
rar	-10.1634
ari	-10.1635
ble	-10.1637
▁problèmes	-10.1639
ké	-10.1641
ρι	-10.1643
▁slut	-10.1643
▁cosa	-10.1647
▁předsedající,	-10.1648
▁mondiale	-10.1649
▁lige	-10.1651
ορ	-10.1653
▁ώστε	-10.1656
ins	-10.1657
hoz	-10.1659
▁européenne.	-10.1662
▁wichtig	-10.1666
▁fremme	-10.1676
▁zonder	-10.1679
à	-10.1679
▁Dette	-10.168
▁regler	-10.1686
▁traité	-10.1693
▁sau	-10.1698
dem	-10.1705
hal	-10.1706
isering	-10.1709
▁Mon	-10.1711
▁αποτελεί	-10.1712
▁Au	-10.1714
▁Elnök	-10.1714
▁moramo	-10.1714
▁cer	-10.1716
rci	-10.172
▁Iran	-10.1731
▁před	-10.1733
kat	-10.1735
▁compar	-10.1735
▁mettre	-10.1739
▁tredje	-10.1739
θεί	-10.1741
▁CO2	-10.1752
ról	-10.1752
▁Ihnen	-10.1753
▁cooperazione	-10.1753
▁nä	-10.1754
▁δι	-10.1763
▁règlement	-10.1765
lá	-10.1768
elle	-10.1769
▁έχουμε	-10.1771
▁deras	-10.1777
▁hela	-10.1779
▁pl	-10.1779
▁Liidu	-10.178
▁Π	-10.1782
▁nå	-10.1786
▁open	-10.1796
▁progress	-10.1798
▁någon	-10.1801
ιών	-10.1806
rov	-10.1806
▁Κοινοβουλίου	-10.1809
▁why	-10.1812
▁især	-10.1816
ικές	-10.1817
kre	-10.1817
och	-10.1823
▁quiero	-10.1826
ront	-10.1829
os,	-10.183
▁energy	-10.1833
▁solution	-10.1835
▁mulighed	-10.1838
σεων	-10.1846
τρ	-10.1847
▁skapa	-10.1849
▁у	-10.185
▁Nach	-10.1851
▁Een	-10.1853
▁съюз	-10.1855
▁président	-10.1859
▁prie	-10.186
nio	-10.1864
liv	-10.1867
▁Zusammenarbeit	-10.1868
dal	-10.1871
▁Welt	-10.1871
ros	-10.1876
ży	-10.1879
ep	-10.1882
rna	-10.1891
ssen	-10.1897
▁partie	-10.1897
▁fred	-10.1899
elijk	-10.1901
ví	-10.1902
▁β	-10.1904
uit	-10.1908
aus	-10.1908
▁pirmininke	-10.1915
▁vooral	-10.1916
▁λόγω	-10.1918
ne,	-10.1918
▁ámbito	-10.1918
ult	-10.1918
▁goede	-10.192
▁Είναι	-10.1921
▁gebruik	-10.1924
zna	-10.1926
ské	-10.1926
dar	-10.1928
eva	-10.193
chi	-10.1932
sión	-10.1933
▁mänskliga	-10.1933
▁persone	-10.1934
vie	-10.1934
ко	-10.1936
▁Tratado	-10.1941
▁denk	-10.1942
▁population	-10.1943
▁algunos	-10.1944
▁Jahr	-10.1945
б	-10.1946
tive	-10.1948
miseks	-10.195
▁effektiv	-10.1951
▁vita	-10.1953
▁area	-10.1953
▁väl	-10.1955
zia	-10.1959
ov,	-10.1962
▁γεγονός	-10.1963
▁St	-10.1964
άρ	-10.1967
▁Hvis	-10.197
▁problém	-10.1971
▁pourquoi	-10.1978
▁Barroso	-10.1981
▁hat.	-10.1982
▁secteur	-10.1982
▁second	-10.1986
ving	-10.1989
▁extra	-10.199
▁menos	-10.1991
▁post	-10.1992
ure	-10.1994
αμε	-10.1998
▁gouvernement	-10.2001
▁avant	-10.2003
▁Verdrag	-10.2004
dag	-10.2005
lem	-10.2007
λι	-10.2008
▁quello	-10.2016
wo	-10.2019
▁nuo	-10.2032
▁ese	-10.2033
▁ohne	-10.2034
▁manier	-10.2037
▁tienen	-10.2039
mission	-10.204
ne.	-10.2042
▁treba	-10.2042
στ	-10.2049
▁ε	-10.2055
▁betænkning	-10.2059
udi	-10.2065
▁tras	-10.2066
▁inzake	-10.2067
▁Unterstützung	-10.2069
uni	-10.2071
φορ	-10.2072
▁roll	-10.2073
▁Unii	-10.2074
heit	-10.2078
▁protección	-10.2084
▁rest	-10.2084
▁wollen	-10.2084
gre	-10.2087
▁zien	-10.2088
▁lieu	-10.2092
▁mundo	-10.2093
▁sprawie	-10.2094
▁européens	-10.2096
rat	-10.2097
▁vandaag	-10.2098
▁allem	-10.2099
tat	-10.21
▁arra	-10.21
▁ange	-10.2101
uoti	-10.2105
▁mijnheer	-10.2107
▁qué	-10.2111
▁nogen	-10.2112
▁libre	-10.2115
oli	-10.2116
▁sidste	-10.2116
šanu	-10.2117
▁mejor	-10.2121
▁House	-10.2121
▁seine	-10.2122
▁αντι	-10.2124
▁Ένωσης	-10.2124
▁Europejskiej	-10.2128
▁soll	-10.2129
▁vēl	-10.2131
▁δύο	-10.2138
▁may	-10.2141
▁deben	-10.2145
▁str	-10.2147
▁red	-10.2149
▁means	-10.215
εύ	-10.2151
▁då	-10.2151
nom	-10.2151
▁pouvoir	-10.2155
az	-10.2155
▁dra	-10.2159
pla	-10.2159
ont	-10.2159
▁garantire	-10.2164
▁luogo	-10.2166
▁mint	-10.2168
cra	-10.217
▁necessario	-10.2173
▁sto	-10.2178
▁innebär	-10.2179
ű	-10.2182
▁tutte	-10.2183
▁dog	-10.2183
▁queste	-10.2183
▁nuevo	-10.2184
▁nemlig	-10.2187
▁contribu	-10.2188
λε	-10.2201
inti	-10.2209
▁tweede	-10.2217
▁23	-10.2221
▁cel	-10.2228
▁inoltre	-10.2229
▁empresas	-10.223
▁umani	-10.223
▁gezegd	-10.2231
br	-10.2231
kl	-10.2234
▁Tak	-10.2234
▁Ba	-10.2234
▁savoir	-10.2235
▁új	-10.2238
zie	-10.2241
▁tomto	-10.2242
▁igen	-10.2245
▁gennem	-10.2253
▁но	-10.2254
▁υπάρχει	-10.2256
▁miljö	-10.2258
▁without	-10.2264
inės	-10.2272
▁mor	-10.2272
▁Mais	-10.2273
mb	-10.2275
▁ker	-10.2276
▁Teil	-10.2279
▁weg	-10.2279
niu	-10.2279
ika	-10.228
▁Pour	-10.2281
aj	-10.2283
▁utskottet	-10.2285
▁werd	-10.2286
▁great	-10.2294
▁hoop	-10.2306
▁När	-10.2307
▁person	-10.2308
▁ji	-10.2311
▁sil	-10.2313
▁Fa	-10.2314
▁Regierung	-10.2317
dro	-10.2319
▁best	-10.2323
▁bu	-10.2326
▁mora	-10.2328
▁hos	-10.2329
▁όχι	-10.2329
▁geval	-10.233
▁importance	-10.233
▁Ci	-10.233
νομ	-10.2333
▁tikai	-10.2333
ië	-10.2336
▁onderzoek	-10.2338
▁opinión	-10.234
▁grave	-10.2341
ло	-10.2343
▁chi	-10.2344
▁αυτήν	-10.2346
▁ani	-10.235
▁1998	-10.2351
ges	-10.2358
οντας	-10.236
▁él	-10.2361
▁Gospod	-10.2362
▁много	-10.2363
▁enorme	-10.2365
sbe	-10.237
▁līdz	-10.2385
▁poco	-10.2387
▁ans	-10.2392
▁amendement	-10.2395
eret	-10.2395
▁wurden	-10.2395
ικών	-10.2397
▁πρόταση	-10.2402
ве	-10.2402
▁sagt	-10.2403
▁zaken	-10.2404
▁aceast	-10.2407
▁denen	-10.241
▁processus	-10.2411
mie	-10.2416
▁len	-10.242
▁države	-10.2422
zza	-10.2423
▁Amsterdam	-10.2429
bud	-10.2429
ja,	-10.243
▁šajā	-10.2432
▁let	-10.2439
▁dock	-10.244
▁verkligen	-10.2441
▁συζήτηση	-10.2444
▁nosotros	-10.2444
▁soprattutto	-10.2446
▁ante	-10.2447
▁d’a	-10.2448
gri	-10.2448
▁industri	-10.2448
H	-10.2449
▁avoir	-10.245
▁morgen	-10.2451
▁még	-10.2461
▁defini	-10.2462
▁relations	-10.2463
▁alles	-10.2464
▁zá	-10.2465
ür	-10.2466
▁eens	-10.247
▁Minister	-10.2477
▁s'agit	-10.2477
▁stratégie	-10.2478
▁Tai	-10.2483
▁fontos	-10.2483
▁status	-10.2487
▁inför	-10.249
▁quadro	-10.2491
▁¿	-10.2492
▁worden.	-10.2496
▁gali	-10.2497
▁lovgivning	-10.2498
na.	-10.2499
fra	-10.25
▁Tu	-10.25
▁cre	-10.2501
aires	-10.2501
raz	-10.2502
▁företag	-10.2503
▁Dies	-10.2504
▁however	-10.2507
▁handels	-10.2507
▁jej	-10.2509
▁podemos	-10.251
▁production	-10.2512
▁toujours	-10.2513
▁към	-10.2513
ams	-10.2516
▁proposte	-10.2517
▁through	-10.2524
▁otro	-10.2527
▁οποίες	-10.253
▁toekomst	-10.2533
▁correct	-10.2533
▁cause	-10.2541
▁kr	-10.2541
▁governo	-10.2542
▁21	-10.2549
▁rámci	-10.2549
▁απ	-10.255
▁1.	-10.2551
▁spa	-10.2554
▁europæisk	-10.2558
▁viel	-10.256
▁välja	-10.2561
get	-10.2564
klar	-10.257
drag	-10.2571
▁Stato	-10.2575
stellen	-10.258
▁także	-10.2582
over	-10.2589
ich	-10.2595
▁vragen	-10.2596
▁Evropske	-10.2596
▁Sono	-10.2596
▁molti	-10.2598
▁Russia	-10.2598
▁period	-10.2605
▁común	-10.2606
▁deel	-10.2608
▁weten	-10.2613
czy	-10.2615
▁nemen	-10.2621
▁type	-10.2627
▁про	-10.2628
auf	-10.2632
▁bijzonder	-10.2634
▁respekt	-10.2634
▁devrait	-10.264
▁l'on	-10.2642
hat	-10.2643
▁lui	-10.2649
▁gentlemen,	-10.2649
▁internazionale	-10.2653
ék	-10.2654
▁crise	-10.266
▁hasta	-10.266
▁Tur	-10.2663
▁Presidenta	-10.2665
ira	-10.2668
▁Namen	-10.267
▁vel	-10.2673
▁blijven	-10.2673
sin	-10.2676
▁f.eks.	-10.2683
ují	-10.2683
▁Sicherheit	-10.2684
▁hans	-10.2685
kri	-10.269
all	-10.2696
halten	-10.2696
▁(EL)	-10.2696
▁bon	-10.2701
▁principe	-10.2704
ká	-10.2704
▁nebo	-10.2705
▁laten	-10.2708
oms	-10.2716
▁24	-10.2718
▁åt	-10.2718
▁debería	-10.2719
ás	-10.2721
ieren	-10.2721
pad	-10.2722
▁dopo	-10.2723
▁Richtlinie	-10.2726
▁risoluzione	-10.2726
▁normal	-10.2729
▁difficile	-10.2732
▁compromis	-10.2736
ează	-10.2739
▁Irak	-10.2746
ének	-10.2747
▁tõ	-10.2753
▁beaucoup	-10.2759
▁õigus	-10.2762
▁Ze	-10.2764
test	-10.2764
▁eso	-10.2768
▁comunitario	-10.2768
▁større	-10.2772
▁privind	-10.2772
iet	-10.2776
▁Ε	-10.2777
▁agenda	-10.2779
▁való	-10.278
▁boj	-10.2783
▁παρά	-10.2783
▁Mevrouw	-10.2784
▁θέση	-10.2785
ма	-10.2785
isti	-10.2793
ni,	-10.2793
▁minister	-10.2794
▁europea,	-10.2795
▁nam	-10.2796
▁objetivo	-10.28
▁entreprises	-10.2802
▁pueden	-10.2803
oma	-10.2807
▁cours	-10.2807
jí	-10.2807
▁voorstellen	-10.2808
▁komisjoni	-10.281
▁cele	-10.2812
ø	-10.2812
▁doel	-10.2815
▁Pe	-10.2819
▁Därför	-10.282
▁pol	-10.2821
▁programmes	-10.2823
▁Unternehmen	-10.2825
ice	-10.2825
gg	-10.2826
▁tie	-10.2826
▁Madam	-10.2827
▁talman,	-10.2828
▁onorevole	-10.2834
tter	-10.2836
▁mondo	-10.2837
▁namelijk	-10.2842
net	-10.2845
▁mener,	-10.2847
fen	-10.2847
ετ	-10.2849
▁sistem	-10.285
▁attiecībā	-10.2851
▁krijgen	-10.2852
▁parece	-10.2852
▁notamment	-10.2852
▁If	-10.2857
▁información	-10.2863
plo	-10.2864
▁internet	-10.2866
enti	-10.2867
▁toda	-10.2867
▁több	-10.2869
bin	-10.287
håll	-10.2877
▁mesure	-10.2878
ζ	-10.2878
▁conven	-10.2879
jam	-10.2879
▁Meinung	-10.288
▁vagy	-10.2881
ācijas	-10.2882
▁different	-10.2883
▁fonds	-10.2884
по	-10.2886
▁europeos	-10.2891
▁particularly	-10.2892
▁mensenrechten	-10.2894
kan	-10.2896
▁laquelle	-10.2896
ats	-10.2898
▁politiche	-10.2899
▁Probleme	-10.2899
gue	-10.29
stri	-10.29
▁Pri	-10.2905
▁mee	-10.2909
▁manera	-10.2909
▁Jahren	-10.2912
▁zelo	-10.2912
▁dovrebbe	-10.2913
▁dialogue	-10.2919
▁idea	-10.292
▁aller	-10.2921
▁oli	-10.2924
ön	-10.2931
▁bidrag	-10.2933
▁autre	-10.2937
ables	-10.294
ete	-10.2941
▁À	-10.2946
▁stora	-10.2951
fre	-10.2957
ч	-10.2958
ása	-10.296
▁sport	-10.2961
▁konflikt	-10.2965
▁nii	-10.2965
▁által	-10.297
▁ami	-10.2972
▁democratic	-10.2974
▁τόσο	-10.2974
svar	-10.2977
stu	-10.2978
▁orient	-10.2982
att	-10.299
▁kes	-10.2997
ijo	-10.3
▁première	-10.3003
▁dell’	-10.3008
▁europäische	-10.301
▁punt	-10.301
▁before	-10.3011
▁ezt	-10.3021
ării	-10.3022
▁prendre	-10.3023
▁And	-10.3023
ovi	-10.3023
▁offer	-10.3026
▁jeho	-10.3028
▁antes	-10.3029
▁resolución	-10.3029
ista	-10.3032
▁relación	-10.3037
▁necessary	-10.3038
træ	-10.3039
▁ceux	-10.304
▁otras	-10.3042
oc	-10.3044
▁Cela	-10.3045
▁capital	-10.3054
▁ακόμη	-10.3056
ette	-10.3057
▁favour	-10.306
▁Group	-10.306
▁accept	-10.306
wie	-10.3064
▁health	-10.3068
▁normas	-10.3069
▁regeringen	-10.307
▁Ευρωπαϊκό	-10.3071
▁fe	-10.3078
▁middelen	-10.3082
rze	-10.3084
▁möglich	-10.3085
▁wirklich	-10.3092
▁mia	-10.3094
cas	-10.3097
▁initiativ	-10.31
▁Συμβουλίου	-10.3101
▁vairāk	-10.3101
▁stort	-10.3102
cent	-10.3104
▁autor	-10.3105
▁Estado	-10.3106
organ	-10.311
▁derecho	-10.3111
uto	-10.3112
▁τώρα	-10.3114
▁angår	-10.3114
▁fortfarande	-10.3115
aria	-10.3117
▁propuestas	-10.3119
▁attention	-10.3122
sime	-10.3124
▁arbets	-10.3124
▁teh	-10.3125
▁sostegno	-10.3125
▁členské	-10.3125
▁norme	-10.3126
▁schon	-10.3128
▁nej	-10.3136
▁rôle	-10.3137
▁posizione	-10.3138
▁práva	-10.3138
▁flere	-10.3139
▁volgen	-10.3148
▁full	-10.3149
▁Esta	-10.3158
system	-10.3159
ums	-10.3162
▁verschillende	-10.3162
▁décision	-10.3163
да	-10.3165
▁Union.	-10.3166
▁parlamentu	-10.3167
▁imidlertid	-10.3168
ják	-10.3168
▁ry	-10.3168
ným	-10.317
▁ligger	-10.3171
elser	-10.3177
▁direct	-10.3178
▁señora	-10.318
▁aquí	-10.3183
iste	-10.3191
venir	-10.3197
▁nécessaire	-10.3202
▁wish	-10.3208
▁propos	-10.3208
▁zelf	-10.3208
erà	-10.3214
▁given	-10.3215
▁fue	-10.3215
▁töö	-10.3218
υς	-10.3219
ight	-10.3219
▁Señora	-10.3221
▁issues	-10.3222
▁giver	-10.3224
▁Gobierno	-10.3224
▁mind	-10.3228
▁enige	-10.3228
▁amelyek	-10.3232
▁aid	-10.3232
▁viele	-10.3234
▁millones	-10.3236
▁PPE-DE	-10.3237
că	-10.3238
nja	-10.3241
▁vse	-10.3251
▁amendementen	-10.3252
▁orden	-10.3263
▁integration	-10.3264
▁съ	-10.3266
▁otra	-10.3266
▁bonne	-10.3266
ton	-10.3271
▁security	-10.3272
▁μιας	-10.3272
▁blot	-10.3273
▁hoppas	-10.3277
▁faveur	-10.3279
gna	-10.3279
▁emendamenti	-10.328
▁60	-10.328
▁ktorá	-10.3283
vě	-10.3283
det	-10.3283
up	-10.3289
▁servizi	-10.329
▁fondamentale	-10.3294
ij	-10.3295
▁selbst	-10.3297
▁pla	-10.3305
▁Európske	-10.3305
▁problems	-10.3309
mě	-10.3313
kla	-10.3314
▁pomoc	-10.3326
nel	-10.3327
▁haya	-10.3328
van	-10.3331
▁όλα	-10.3333
yb	-10.3337
▁kur	-10.3339
▁Pre	-10.334
ība	-10.3341
▁nome	-10.3343
▁Vorrei	-10.3343
▁Jo	-10.3346
▁terrorist	-10.3346
▁Presidencia	-10.335
▁l'in	-10.335
▁което	-10.3351
▁También	-10.3354
▁1,	-10.3357
▁servicios	-10.3362
▁daarom	-10.3364
▁Thema	-10.3365
▁22	-10.3366
▁exist	-10.3371
▁meno	-10.3374
▁garantizar	-10.3374
jų	-10.3375
▁usted	-10.3384
▁mobil	-10.3387
▁besoin	-10.3387
▁force	-10.3388
▁Deres	-10.3388
rg	-10.3389
▁glaube	-10.339
▁minden	-10.339
▁skabe	-10.3391
▁vårt	-10.3393
▁WTO	-10.3394
▁provide	-10.3396
▁politiky	-10.3397
▁zwar	-10.3398
ana	-10.3399
▁Pero	-10.3406
gr	-10.3406
▁państw	-10.3406
ib	-10.3407
▁Kollegen	-10.3407
▁media	-10.3407
▁j'ai	-10.341
▁enmiendas	-10.3414
▁weiter	-10.3415
▁pal	-10.3416
▁Κ	-10.3422
мо	-10.3423
▁medzi	-10.3428
stav	-10.3429
ierung	-10.3429
▁gracias	-10.343
▁Verenigd	-10.3431
αλ	-10.3434
▁sted	-10.3434
▁1997	-10.3439
▁lov	-10.3442
▁pouvons	-10.3458
tà	-10.3461
▁altre	-10.3461
▁motiv	-10.3463
▁komme	-10.3469
▁sotto	-10.3472
▁commissaire	-10.3472
▁matter	-10.3472
ated	-10.3474
ambi	-10.3475
▁direktivet	-10.3476
▁enkele	-10.3477
▁stesso	-10.3477
isch	-10.3481
▁economica	-10.3489
▁einmal	-10.349
▁meiner	-10.3494
▁bedre	-10.3496
▁konkret	-10.35
▁vaja	-10.3501
▁számára	-10.3502
▁Commission,	-10.3506
tivo	-10.3508
ech	-10.3511
▁fase	-10.3511
▁Ländern	-10.3512
▁soient	-10.3513
▁Ki	-10.3514
har	-10.3515
▁Entschließung	-10.3516
ture	-10.3518
vit	-10.352
▁före	-10.352
▁Komisji	-10.3524
▁rozvoj	-10.3525
owi	-10.3526
▁Du	-10.3526
▁trop	-10.3527
če	-10.3528
▁Treaty	-10.3533
▁commissaris	-10.3533
▁merito	-10.3539
▁santé	-10.3539
▁emp	-10.3543
▁mano	-10.3543
nings	-10.3544
ö	-10.3546
▁πολιτικής	-10.3548
▁nazionali	-10.3548
▁раз	-10.3549
▁m.	-10.3552
▁пред	-10.3555
▁groot	-10.3559
iku	-10.3561
▁δε	-10.3563
▁ни	-10.3564
▁qu'elle	-10.3564
ización	-10.3568
▁nám	-10.3571
abb	-10.3571
cs	-10.3572
umi	-10.3572
▁gu	-10.3578
gaan	-10.3579
▁further	-10.3581
▁mandat	-10.3581
▁civile	-10.359
▁políticas	-10.3591
να	-10.3593
▁cen	-10.3604
▁hade	-10.3606
▁Cet	-10.3607
▁κατάσταση	-10.3608
ának	-10.3612
▁individual	-10.3612
▁wetgeving	-10.3612
▁rechten	-10.3617
▁Európa	-10.3619
▁poz	-10.362
chod	-10.3623
▁samo	-10.3627
▁møde	-10.3627
ša	-10.3627
▁dai	-10.3627
mon	-10.3631
ετε	-10.3632
ņ	-10.3634
▁blir	-10.3635
▁institutioner	-10.3637
▁State	-10.3642
ди	-10.365
ple	-10.3652
▁princip	-10.3654
▁propositions	-10.3654
▁voorzitterschap	-10.3659
▁graag	-10.3662
▁teis	-10.3664
▁votre	-10.3666
▁oro	-10.3668
▁Signora	-10.367
▁industrie	-10.367
▁regime	-10.3672
jen	-10.3672
ero	-10.3673
ός	-10.3675
▁colleghi,	-10.3678
iger	-10.368
▁Min	-10.3684
▁pregunta	-10.3688
hez	-10.3691
▁ruolo	-10.3695
▁primo	-10.3697
ris	-10.37
▁darba	-10.3701
▁κάθε	-10.3702
pie	-10.3705
▁mil	-10.3707
▁algo	-10.3708
itel	-10.3708
kas	-10.371
▁γ	-10.3713
ικής	-10.3715
▁Σ	-10.3716
ph	-10.3716
▁rettigheder	-10.3717
▁relative	-10.3718
ställ	-10.3722
▁data	-10.3723
▁alebo	-10.3724
▁br	-10.3727
▁być	-10.3734
▁importancia	-10.3734
▁kungs,	-10.3736
▁gener	-10.3742
▁premier	-10.3745
▁femmes	-10.3745
▁personer	-10.3747
hol	-10.3748
▁tilbage	-10.3748
ljen	-10.3748
▁Energie	-10.3752
▁voorzitter	-10.3752
▁εδώ	-10.3757
▁crisi	-10.3761
▁tās	-10.3762
▁areas	-10.3763
ffer	-10.3766
▁syn	-10.377
▁grandes	-10.3773
wij	-10.3773
▁holdning	-10.3775
▁maggiore	-10.3777
▁kohta	-10.3779
▁continu	-10.378
σα	-10.3781
ιο	-10.3786
▁osob	-10.3789
om,	-10.3789
rad	-10.3792
tic	-10.3795
▁председател	-10.3798
än	-10.3798
▁Ve	-10.3799
cé	-10.3802
ând	-10.3806
öl	-10.3807
▁lange	-10.3807
▁weer	-10.3809
dat	-10.3811
▁åter	-10.3812
▁stra	-10.3814
▁eest	-10.3819
▁heller	-10.3821
▁problemer	-10.3824
▁Um	-10.3824
▁situ	-10.3825
bare	-10.3826
▁2,	-10.3827
▁glede	-10.3828
▁seguir	-10.3828
▁women	-10.3832
▁fie	-10.3834
▁possibilità	-10.3835
uti	-10.3835
plic	-10.3836
▁obiettivi	-10.384
▁qu'	-10.3842
▁primera	-10.3843
▁terug	-10.3845
ş	-10.3845
▁vien	-10.3846
▁peu	-10.3847
▁ήδη	-10.3848
▁muchos	-10.3849
▁nødvendigt	-10.3851
▁rum	-10.3852
lat	-10.3853
▁Lage	-10.3853
děl	-10.3855
▁natürlich	-10.3855
▁Š	-10.3855
▁gal	-10.3856
ük	-10.3858
▁Umwelt	-10.3859
▁United	-10.3861
ότητα	-10.3861
▁poder	-10.3868
▁predlog	-10.3872
▁nouvelle	-10.3874
▁velmi	-10.3884
▁empleo	-10.3884
▁modifica	-10.3885
▁betænkningen	-10.3887
▁again	-10.3887
▁là	-10.3887
rog	-10.3887
▁håber	-10.3887
▁όσο	-10.3888
▁”	-10.3891
cji	-10.3892
▁serait	-10.3896
▁whether	-10.3902
▁byť	-10.3906
lja	-10.3911
ža	-10.3915
▁exempel	-10.3917
▁než	-10.3924
▁būtu	-10.3925
ungs	-10.3926
▁nepa	-10.3926
▁terrorisme	-10.3927
▁ЕС	-10.3928
▁forskning	-10.3932
▁nell'	-10.3934
▁úr,	-10.3938
▁този	-10.3938
▁dom	-10.3939
uda	-10.3939
▁account	-10.3939
им	-10.3939
▁Parlamenta	-10.394
išk	-10.3941
▁С	-10.3941
▁comprend	-10.3947
ég	-10.3951
▁commun	-10.3951
▁havde	-10.3951
owa	-10.3952
▁huidige	-10.3953
▁années	-10.3953
▁conflict	-10.3953
▁Mēs	-10.3957
ama	-10.3957
▁Señorías,	-10.3958
▁ladies	-10.3959
▁tagállamok	-10.3963
owych	-10.3968
▁agree	-10.3971
ti.	-10.3975
čí	-10.3976
τά	-10.3979
tage	-10.3982
dien	-10.3982
▁komt	-10.3984
▁gustaría	-10.3986
▁katastrof	-10.3987
▁fog	-10.3987
▁takke	-10.3997
▁tuttavia	-10.3998
▁Val	-10.3998
▁række	-10.3998
▁šiuo	-10.4001
▁gar	-10.4002
▁bardzo	-10.4003
▁quelle	-10.4005
▁rappresenta	-10.4006
▁drei	-10.4007
▁fakt	-10.4009
ient	-10.401
▁bals	-10.4011
iser	-10.4012
vä	-10.4013
▁initiative	-10.4016
dus	-10.4018
▁l'homme	-10.4019
nă	-10.402
▁500	-10.4021
▁podporu	-10.4021
▁2011	-10.4024
▁región	-10.4026
▁vrouwen	-10.4029
▁svoje	-10.4031
ро	-10.4031
▁welche	-10.4034
▁będzie	-10.4035
▁possono	-10.4036
chten	-10.4038
▁accordo	-10.4038
▁varit	-10.4039
▁welcome	-10.404
▁l’Union	-10.4045
▁generale	-10.4046
arse	-10.4048
le,	-10.4052
▁område	-10.4055
▁már	-10.4061
▁esa	-10.4065
pris	-10.4068
rii	-10.4068
rk	-10.4072
▁strategia	-10.4073
▁mogen	-10.4073
▁faktisk	-10.4074
▁necessità	-10.4074
▁mitte	-10.4075
▁prin	-10.4075
▁områder	-10.4084
▁possiamo	-10.4085
▁pana	-10.4088
▁sí	-10.4089
▁call	-10.409
▁aplicación	-10.4092
▁Tas	-10.4097
▁reikia	-10.4104
▁predsednik,	-10.4104
ans	-10.4105
ranno	-10.4107
▁nor	-10.4108
▁juridique	-10.4109
▁conto	-10.411
▁naturligvis	-10.4116
▁role	-10.4119
▁informatie	-10.4128
▁considera	-10.4129
▁kuid	-10.4132
▁qu’il	-10.4135
▁nacionales	-10.4137
drž	-10.4142
▁viktiga	-10.4147
▁interesse	-10.4148
nar	-10.4149
▁politischen	-10.4151
owania	-10.4157
▁Kar	-10.4158
▁economie	-10.416
▁gebracht	-10.4163
▁amendements	-10.4165
sky	-10.4165
tamente	-10.4166
▁cuestiones	-10.4169
▁understrege	-10.4169
▁Irland	-10.4173
▁Bi	-10.4175
para	-10.4176
▁virkelig	-10.418
▁pertanto	-10.418
▁gra	-10.4181
▁която	-10.4182
lust	-10.4185
▁objectifs	-10.4185
▁kérdés	-10.4185
▁etwas	-10.4186
skap	-10.4187
schen	-10.4188
▁behalf	-10.4195
▁Bedeutung	-10.4197
▁week	-10.4199
▁Was	-10.4201
lí	-10.4202
▁grado	-10.4202
▁λόγο	-10.4203
▁darüber	-10.4204
beleid	-10.4208
▁Rada	-10.4213
▁Fraktion	-10.4214
ssystem	-10.4219
▁importantes	-10.4222
▁προκειμένου	-10.4223
▁който	-10.4224
▁zone	-10.4225
erade	-10.4226
▁mezi	-10.4227
▁Rusland	-10.4228
▁amendments	-10.4229
bie	-10.4229
▁negli	-10.4232
▁communication	-10.4232
▁bescherming	-10.4233
▁organiz	-10.4234
▁κρατών	-10.4234
št	-10.4234
▁ενός	-10.4238
▁imprese	-10.4238
ėjo	-10.4242
▁(HU)	-10.4243
▁effect	-10.4244
ró	-10.425
▁Schutz	-10.4251
hold	-10.4251
▁Questo	-10.4259
▁trade	-10.4259
▁presupuesto	-10.4264
▁Priekšsēdētāja	-10.4264
prend	-10.4265
▁día	-10.4266
▁raporti	-10.4269
rig	-10.4271
šanas	-10.4277
stig	-10.4279
▁diverse	-10.428
▁nationella	-10.428
ceea	-10.428
▁condiciones	-10.4282
zin	-10.4286
▁borde	-10.429
▁zeker	-10.429
▁dimension	-10.4291
▁Maar	-10.4293
▁samma	-10.4293
▁περισσότερο	-10.4299
▁(SV)	-10.4303
bli	-10.4305
9	-10.4307
▁Finanz	-10.4309
ára	-10.4314
▁Fragen	-10.4315
▁grup	-10.4316
▁ekonomisk	-10.4316
▁directiva	-10.4316
▁kind	-10.4317
κο	-10.432
ům	-10.4322
▁své	-10.4329
ants	-10.4329
▁kla	-10.4331
▁UE.	-10.4332
▁nouveau	-10.4333
▁recherche	-10.4335
ем	-10.4336
▁nás	-10.4337
▁politische	-10.4339
▁aspect	-10.434
▁Ir	-10.4342
▁Comisario	-10.4347
ys	-10.4349
▁Frauen	-10.435
▁επίπεδο	-10.435
ov.	-10.435
▁principi	-10.4352
tam	-10.4354
ję	-10.4362
▁fractie	-10.4363
liku	-10.4367
▁All	-10.4367
▁quella	-10.437
▁privat	-10.4371
tan	-10.4372
▁société	-10.4375
war	-10.4378
går	-10.4378
▁tanke	-10.4378
▁económica	-10.4381
▁lie	-10.4385
▁systém	-10.4389
▁peuvent	-10.4392
▁profit	-10.4394
▁direkt	-10.4394
▁Ook	-10.4394
▁gre	-10.4394
▁però	-10.4399
gle	-10.4399
bro	-10.44
ovali	-10.4406
▁kvinnor	-10.4407
ční	-10.4413
▁ricerca	-10.4415
izzazione	-10.4417
▁2009.	-10.4422
▁besteht	-10.4423
ping	-10.4426
▁ting	-10.4429
▁next	-10.443
▁stark	-10.4434
▁vaid	-10.4434
sum	-10.4435
ally	-10.4437
ves	-10.4438
▁nuovo	-10.4438
▁има	-10.4441
▁debatten	-10.4442
▁Nord	-10.4442
▁akt	-10.4444
ous	-10.4447
ort	-10.4448
▁fu	-10.4451
▁kurios	-10.4456
▁όταν	-10.4459
▁consumatori	-10.4462
▁multi	-10.4464
▁παρ	-10.4466
skab	-10.4467
λα	-10.4469
▁sikkerhed	-10.447
▁anden	-10.447
tada	-10.4472
▁major	-10.4475
▁rom	-10.4476
▁était	-10.4479
▁staan	-10.448
▁Creo	-10.4487
▁hvordan	-10.4499
0	-10.4502
▁implica	-10.4502
mes	-10.4505
ijn	-10.4509
▁allo	-10.4518
▁διότι	-10.4519
▁Alle	-10.4519
ými	-10.452
▁rem	-10.4521
▁imod	-10.4523
inter	-10.4523
▁vrij	-10.4527
▁Las	-10.4531
▁egen	-10.4538
▁unterstützen	-10.4541
liste	-10.4542
▁Rates	-10.4544
ας	-10.4549
▁grundläggande	-10.4552
▁bar	-10.4554
llen	-10.4555
▁Tuttavia	-10.4556
▁observa	-10.4557
dzi	-10.4557
itev	-10.4563
▁campo	-10.4564
▁wissen	-10.4566
▁jų	-10.4567
▁sest	-10.4572
▁minut	-10.4573
ēm	-10.4574
▁leven	-10.4574
urs	-10.4576
▁terms	-10.4579
▁proposals	-10.458
▁1996	-10.458
▁rent	-10.4584
ura	-10.4584
▁eu	-10.4586
▁contribution	-10.4593
▁verantwoord	-10.4597
tri	-10.4597
▁lucru	-10.4604
▁determina	-10.4604
ux	-10.4607
▁rules	-10.4608
▁ét	-10.4608
▁tijdens	-10.4609
▁annak	-10.4611
▁Zukunft	-10.4616
hen	-10.4617
bas	-10.4617
▁fr	-10.4618
ούνται	-10.4618
me,	-10.4619
▁tuleb	-10.462
tom	-10.4626
ni.	-10.4626
▁San	-10.4628
▁μην	-10.463
eze	-10.463
▁jejich	-10.4632
▁zvezi	-10.4632
▁ihren	-10.4634
▁voto	-10.4635
▁één	-10.4638
▁quisiera	-10.4643
▁sarebbe	-10.4644
tó	-10.4647
▁κύριε	-10.4647
▁nagu	-10.4648
▁bring	-10.4649
▁können,	-10.465
ifica	-10.4659
isten	-10.4661
▁öka	-10.4665
vez	-10.4666
▁dello	-10.4668
▁internacional	-10.4669
tico	-10.4669
nik	-10.467
▁området	-10.4674
▁decision	-10.4674
ány	-10.4676
▁objetivos	-10.4676
▁valstybės	-10.468
gé	-10.4683
▁ζήτημα	-10.4686
ш	-10.4688
rons	-10.4689
▁culture	-10.4689
▁Afrika	-10.469
le.	-10.4694
▁necesidad	-10.4698
tus	-10.4698
zem	-10.4698
▁būs	-10.4698
▁condizioni	-10.4703
ként	-10.4705
▁Ti	-10.4705
▁Abstimmung	-10.4707
▁bättre	-10.4708
ήσουν	-10.4709
rü	-10.471
▁Come	-10.4713
zij	-10.4713
āt	-10.4715
Berichterstatter	-10.4715
▁minor	-10.4718
▁geben	-10.4718
▁produkt	-10.4718
▁hem	-10.4721
rait	-10.4721
▁indica	-10.4723
▁modern	-10.4724
int	-10.4724
zeit	-10.4725
▁Pane	-10.4728
▁kvinder	-10.4728
▁rolle	-10.4729
ř	-10.4729
▁handlar	-10.4729
▁responsabilità	-10.4729
şi	-10.4731
▁norėčiau	-10.4731
tul	-10.4732
▁namens	-10.4732
▁grundlæggende	-10.4734
▁verband	-10.4739
kol	-10.4742
imus	-10.4743
ić	-10.475
lsen	-10.4754
▁Gemeinschaft	-10.4757
▁κατ	-10.4762
ń	-10.4763
▁kleine	-10.4765
▁pension	-10.4767
iem,	-10.4769
pres	-10.4769
▁avere	-10.477
ха	-10.477
▁n'	-10.4771
ód	-10.4772
enden	-10.4773
▁така	-10.4774
▁liberté	-10.4778
▁destin	-10.4781
έρ	-10.4783
▁daher	-10.4783
▁sociala	-10.4783
▁Va	-10.4787
â	-10.4787
nit	-10.4788
▁vedrørende	-10.4792
nad	-10.4793
▁società	-10.4795
ψ	-10.4796
▁nuclear	-10.4796
▁Una	-10.4798
δε	-10.4798
mel	-10.4799
▁Punkt	-10.48
tą	-10.4803
▁всички	-10.4805
▁finde	-10.4805
▁Situation	-10.4807
▁vast	-10.4807
▁mujeres	-10.4807
▁positiv	-10.4808
▁miljø	-10.4811
▁skatte	-10.4815
ius	-10.4817
▁Vážený	-10.482
osť	-10.4821
▁Πρέπει	-10.4833
▁Bank	-10.4834
na,	-10.4836
▁responsabilité	-10.4837
▁fest	-10.4839
▁parole	-10.4842
▁aandacht	-10.4844
▁confirm	-10.4845
▁Or	-10.4846
▁responsabilidad	-10.4849
▁begroting	-10.485
▁Commissario,	-10.4857
rätt	-10.4859
▁trh	-10.4862
▁Staaten	-10.4862
▁kurie	-10.4865
▁libertà	-10.4865
oso	-10.4866
▁especial	-10.4871
▁moral	-10.4872
mittel	-10.4873
zni	-10.4877
uf	-10.4879
▁unionens	-10.4881
▁stemming	-10.4881
▁veiligheid	-10.4884
▁produits	-10.4885
▁verden	-10.4887
▁Dan	-10.4889
komst	-10.4891
dzie	-10.4893
ερ	-10.4893
▁better	-10.4895
ios	-10.49
idu	-10.4902
▁Tanács	-10.4906
▁či	-10.4907
▁sentido	-10.491
▁έ	-10.4911
▁iets	-10.4916
▁visi	-10.4917
▁Sz	-10.4918
▁εάν	-10.4919
▁ris	-10.4921
hand	-10.4921
▁depuis	-10.4925
▁papel	-10.4925
▁betreffende	-10.4928
▁approach	-10.4929
▁koordin	-10.493
▁svoj	-10.4932
▁šis	-10.4932
▁jedno	-10.4939
▁vinden	-10.494
▁Sam	-10.4942
▁styrke	-10.4945
▁rezultat	-10.4947
▁nun	-10.4952
▁siden	-10.4956
▁Για	-10.4957
▁Aussprache	-10.4957
▁tych	-10.4959
▁große	-10.496
ość	-10.4961
ия	-10.4964
▁regolamento	-10.4967
▁façon	-10.4969
▁prodotti	-10.4969
ére	-10.4969
▁numero	-10.497
punkt	-10.497
▁Sąjungos	-10.4971
▁cost	-10.4973
▁Europe.	-10.4979
cher	-10.498
▁garant	-10.498
ænd	-10.498
ç	-10.4982
▁csak	-10.4982
ella	-10.4983
▁Members	-10.4991
ελ	-10.5
▁relatore	-10.5002
▁volt	-10.5003
▁adopted	-10.5006
▁cento	-10.5006
▁framework	-10.5009
bel	-10.5009
▁εργασίας	-10.5015
▁documento	-10.5017
▁samarbete	-10.5018
▁millions	-10.5019
vant	-10.5022
ilo	-10.5023
▁ske	-10.5025
▁jūs	-10.5029
ον	-10.503
▁legislation	-10.503
us.	-10.5033
nova	-10.5037
▁bomo	-10.5037
kur	-10.504
▁ännu	-10.5046
ora	-10.5047
▁по-	-10.5049
▁80	-10.5051
▁natuurlijk	-10.5051
enze	-10.5054
bri	-10.5054
▁reste	-10.5056
ése	-10.5056
ator	-10.506
▁crois	-10.5062
čių	-10.5066
moc	-10.5066
▁dalle	-10.5068
▁26	-10.5069
▁marknaden	-10.507
▁done	-10.5075
▁mali	-10.5075
▁terme	-10.508
▁nuestras	-10.508
▁financ	-10.5081
dé	-10.5081
▁п	-10.5082
ovanie	-10.5084
”,	-10.5088
▁positivo	-10.509
▁bylo	-10.5093
▁alors	-10.5094
▁rådets	-10.5094
▁vilka	-10.5096
ující	-10.5098
τι	-10.5099
▁présidence	-10.5099
▁Europea.	-10.5099
▁Met	-10.5102
▁questioni	-10.5106
δο	-10.5107
▁service	-10.5109
væ	-10.5111
▁Ju	-10.5113
▁garantir	-10.5113
san	-10.5117
dí	-10.5117
▁december	-10.512
▁kor	-10.5124
βα	-10.5128
▁viene	-10.5129
▁comunitaria	-10.513
▁Art	-10.5131
W	-10.5136
▁controllo	-10.5141
áz	-10.5144
problem	-10.5147
mme	-10.5148
▁valuta	-10.5153
▁forme	-10.5154
▁vari	-10.5154
eks	-10.5156
▁grand	-10.5156
▁Rolle	-10.5157
▁μπορούμε	-10.5158
▁possa	-10.5163
▁jomā	-10.5169
okra	-10.517
▁αυτής	-10.5171
▁did	-10.5171
▁subject	-10.5172
▁Central	-10.5172
▁š	-10.5173
▁propone	-10.5173
baar	-10.5175
▁Para	-10.518
▁ιδιαίτερα	-10.518
▁Ευρωπαϊκού	-10.5181
▁gedaan	-10.5186
▁achter	-10.5187
▁hin	-10.5194
tör	-10.5195
lov	-10.5196
▁soltanto	-10.5201
tru	-10.5202
▁darbo	-10.5203
▁landet	-10.5204
▁fortsat	-10.5204
arbeit	-10.5204
▁represent	-10.5206
▁quelques	-10.5206
hy	-10.521
▁allow	-10.5213
▁succes	-10.5216
▁But	-10.5217
▁ανάπτυξη	-10.5218
ρο	-10.5219
▁tart	-10.5219
▁garanti	-10.5221
▁тази	-10.5222
▁Ihre	-10.5223
▁förbättra	-10.5229
▁decisione	-10.523
▁Og	-10.5234
▁L’	-10.5235
▁indsats	-10.5235
▁rend	-10.5236
▁What	-10.5236
▁tradition	-10.5236
▁μπορούν	-10.5237
▁cal	-10.5241
▁législation	-10.5244
▁gestion	-10.5245
▁αυτού	-10.5246
tak	-10.5247
▁Nel	-10.5248
▁cambio	-10.525
▁μελών	-10.525
▁NATO	-10.5254
▁lotta	-10.5257
▁īpaši	-10.5257
spect	-10.5258
ings	-10.526
▁betydning	-10.5267
▁ici	-10.5268
▁gemaakt	-10.5271
▁star	-10.5274
▁million	-10.5275
п	-10.5276
ното	-10.5276
ināt	-10.5277
tiva	-10.528
▁context	-10.528
ки	-10.528
ци	-10.5282
ött	-10.5283
▁fem	-10.5285
▁respuesta	-10.5287
▁sel	-10.5289
▁31	-10.529
erede	-10.529
▁casi	-10.5293
cin	-10.5299
vär	-10.5308
▁System	-10.5308
▁virksomheder	-10.5309
▁after	-10.531
▁тези	-10.531
ēja	-10.5311
σαν	-10.5311
▁resultat	-10.5311
▁Ωστόσο	-10.5313
olu	-10.5315
ív	-10.5315
▁Prodi	-10.5315
▁hög	-10.5317
schap	-10.5328
ales	-10.5328
une	-10.5329
▁bijvoorbeeld	-10.5329
▁χώρα	-10.533
nis	-10.5333
▁especialmente	-10.5337
▁Presidenza	-10.5337
▁few	-10.5338
år	-10.534
tern	-10.5345
▁Weg	-10.5346
dad	-10.5346
él	-10.5349
ctor	-10.535
▁wijze	-10.535
▁jednak	-10.5351
▁trebui	-10.5353
▁Commissioner,	-10.5357
▁Wettbewerb	-10.5357
tare	-10.536
▁group	-10.536
misel	-10.5361
▁(E	-10.5363
bl	-10.5363
lás	-10.5365
erende	-10.5366
▁samen	-10.5367
▁áll	-10.5371
▁Zusammenhang	-10.5374
▁världen	-10.5375
ón	-10.5383
▁använda	-10.5383
▁spre	-10.5384
▁arbejds	-10.5385
os.	-10.5387
▁altro	-10.5387
▁neu	-10.5388
▁αυτόν	-10.539
▁pretože	-10.5391
hör	-10.5395
20	-10.5395
▁jeden	-10.5398
▁resolutie	-10.5398
▁PSE	-10.54
zon	-10.5401
▁find	-10.5401
▁cum	-10.5402
▁Commission.	-10.5402
hl	-10.5406
▁stödja	-10.5406
nal	-10.5408
ъ	-10.5408
▁νέα	-10.5411
▁protest	-10.5411
kommen	-10.5411
▁offentlig	-10.5412
▁Como	-10.5413
▁vind	-10.5414
▁nostre	-10.5414
▁miljoen	-10.5418
▁postup	-10.5418
tivi	-10.5419
ín	-10.542
▁gesagt	-10.5424
▁daug	-10.5427
▁2012	-10.5428
▁vigtige	-10.5429
▁Vorschläge	-10.543
▁députés	-10.5433
wan	-10.5435
▁Parlamentets	-10.5436
▁verder	-10.5437
▁Deshalb	-10.5438
▁bepaalde	-10.544
▁Zato	-10.5441
▁procedura	-10.5444
▁transporte	-10.5445
▁annat	-10.545
▁antal	-10.5454
▁productos	-10.5455
īgi	-10.5456
▁mediante	-10.5457
ncia	-10.5459
▁regioni	-10.5463
íme	-10.5468
▁signal	-10.5469
▁enligt	-10.5469
▁šī	-10.5471
ille	-10.5472
eme	-10.5472
bet	-10.5476
▁státy	-10.5476
▁justice	-10.5479
▁parties	-10.5479
▁starp	-10.5483
▁kapital	-10.5486
parti	-10.5487
ket	-10.5488
▁altijd	-10.549
▁uso	-10.5491
pokoj	-10.5492
▁Dank	-10.5494
rij	-10.5494
▁χωρίς	-10.5495
▁ku	-10.5496
▁Commissaire,	-10.5497
▁begin	-10.55
eniu	-10.5501
rang	-10.5501
▁ervan	-10.5502
▁enmienda	-10.5505
bal	-10.5505
▁betyder	-10.5512
▁Ashton	-10.552
▁Dobbiamo	-10.5523
stvo	-10.5524
▁zowel	-10.5527
▁standpunt	-10.5529
με	-10.553
▁voir	-10.553
▁contrario	-10.5531
▁Bu	-10.5531
▁Han	-10.5532
▁μέτρα	-10.5534
▁incluso	-10.5534
▁större	-10.5535
jer	-10.5537
kou	-10.5544
son	-10.5544
▁duda	-10.5546
▁européenne,	-10.5547
ised	-10.5547
▁vital	-10.5551
▁fl	-10.5551
▁Présidente	-10.5552
▁legislación	-10.5553
▁Pakistan	-10.5554
▁råd	-10.5555
▁spraw	-10.5556
jai	-10.5556
▁hea	-10.5558
▁difficult	-10.556
ful	-10.556
ajā	-10.5562
ă.	-10.5562
▁minder	-10.5564
▁seiner	-10.5564
▁minu	-10.5567
▁relazioni	-10.5576
▁kontroll	-10.5576
▁Voor	-10.5578
tem	-10.5583
▁genomen	-10.5586
ical	-10.5587
▁olema	-10.5589
teil	-10.5591
▁ре	-10.5595
▁dnes	-10.5598
▁относно	-10.5599
▁Fondo	-10.5602
▁opnå	-10.5604
▁zelfs	-10.5604
▁concrete	-10.5606
▁teljes	-10.5606
ps	-10.5609
▁impact	-10.561
▁step	-10.561
▁diputados	-10.5611
▁Komisja	-10.5613
▁først	-10.5614
▁bilo	-10.5615
▁programmi	-10.5616
▁pen	-10.5616
ché	-10.5617
▁Av	-10.5617
▁include	-10.5619
▁Bar	-10.5625
▁beste	-10.5625
▁valamint	-10.5629
▁както	-10.5632
Änderungsanträge	-10.5634
▁toate	-10.5634
rio	-10.5634
▁zodat	-10.5634
ell	-10.5636
tin	-10.5638
▁marked	-10.5638
▁støtter	-10.5639
▁sous	-10.5643
▁chose	-10.5644
cre	-10.5645
▁font	-10.5647
▁úr	-10.5647
▁nonché	-10.5648
▁spor	-10.5651
▁l'un	-10.5655
hin	-10.5657
▁forward	-10.5659
rd	-10.566
lande	-10.566
ami,	-10.566
▁nämlich	-10.566
▁règles	-10.5662
▁områden	-10.5665
▁úrovni	-10.5667
if	-10.5668
▁člen	-10.5668
ţia	-10.5671
▁bija	-10.5672
▁claro	-10.5674
▁Savienības	-10.5674
▁gada	-10.5677
tica	-10.5677
▁anno	-10.5677
οποι	-10.5677
▁sama	-10.5682
▁ekonomi	-10.5682
▁vedere	-10.5682
▁energía	-10.5687
▁Menschenrechte	-10.5688
▁atención	-10.569
▁plat	-10.5691
kraft	-10.5693
▁ask	-10.5696
σή	-10.5697
▁informations	-10.5702
ssi	-10.5703
си	-10.5703
dor	-10.5703
▁stehen	-10.5706
▁bland	-10.5708
▁projet	-10.5708
atori	-10.5709
ņem	-10.5711
lin	-10.5714
▁28	-10.5721
▁turėtų	-10.5722
▁saj	-10.5724
-20	-10.5732
▁recent	-10.5732
▁adapt	-10.5733
▁presenta	-10.5734
eux	-10.5735
▁също	-10.5738
keit	-10.5738
▁formula	-10.5738
▁prieš	-10.574
▁pues	-10.574
▁sociales	-10.5741
▁risorse	-10.5742
/20	-10.5745
▁tacka	-10.5746
▁interven	-10.5753
▁ervoor	-10.5754
▁divers	-10.5756
ání	-10.5759
▁säkerhet	-10.5759
▁cualquier	-10.5759
▁διαδικασία	-10.576
bouw	-10.5768
▁Haushalts	-10.5769
▁back	-10.5772
▁Hier	-10.5773
▁drie	-10.5773
▁presta	-10.5774
tim	-10.5775
stva	-10.5775
▁enkelt	-10.5775
dis	-10.5775
ș	-10.5776
menti	-10.5777
▁actions	-10.5783
inu	-10.5784
ται	-10.5787
▁realmente	-10.579
▁może	-10.5791
iera	-10.5791
grad	-10.5793
ρί	-10.5797
▁kann.	-10.5798
▁Artikel	-10.5799
▁helyzet	-10.5799
▁lei	-10.5803
▁région	-10.5805
ary	-10.5805
▁concerned	-10.5808
▁î	-10.5809
gla	-10.5815
▁barn	-10.5816
ebb	-10.5817
ques	-10.5818
▁rád	-10.5819
uw	-10.5819
▁państwa	-10.582
ích	-10.5821
▁qualité	-10.5825
▁lutte	-10.583
▁interpret	-10.583
▁Mal	-10.5832
▁fronte	-10.5832
▁å	-10.5833
▁super	-10.5837
▁letzten	-10.5837
▁nõukogu	-10.5838
ních	-10.584
▁régions	-10.584
deling	-10.5841
▁tohto	-10.5845
▁Mesdames	-10.5846
▁constitue	-10.5853
tá	-10.5854
▁parlement	-10.5857
▁dibattito	-10.5858
fond	-10.5859
ėti	-10.5861
▁χ	-10.5861
▁decisión	-10.5861
▁needs	-10.5861
▁solche	-10.5866
▁institu	-10.5867
▁rekening	-10.587
▁200	-10.587
▁vin	-10.587
▁ambiente	-10.5871
anti	-10.5874
▁opatření	-10.5874
▁publique	-10.5874
μερ	-10.5876
tā	-10.5876
▁komma	-10.5879
▁minimum	-10.5881
▁medborgare	-10.5881
▁Union,	-10.5883
yer	-10.5884
▁water	-10.5885
ális	-10.5885
▁verk	-10.5889
▁význam	-10.589
▁nouveaux	-10.5891
▁kommissær	-10.5892
▁UN	-10.5895
▁posta	-10.5896
▁który	-10.5897
▁trhu	-10.59
▁Če	-10.5901
plat	-10.5901
▁turime	-10.5902
mag	-10.5903
πο	-10.5903
azioni	-10.5904
▁intens	-10.5904
▁elő	-10.591
ικού	-10.5911
▁Verbraucher	-10.5913
▁derde	-10.5917
▁instellingen	-10.5917
govor	-10.592
▁økonomisk	-10.5921
▁cuanto	-10.5922
▁lever	-10.5922
▁towards	-10.5926
▁periodo	-10.5927
gå	-10.5929
▁oleks	-10.593
▁termine	-10.5931
▁ausge	-10.5933
▁deputati	-10.5934
▁local	-10.5936
▁whole	-10.5937
▁Κυρία	-10.5937
▁minska	-10.5937
ajiem	-10.5938
га	-10.5939
▁lagstiftning	-10.594
▁föredraganden	-10.5943
▁viktig	-10.5944
▁έναν	-10.5945
eurs	-10.5945
▁produkter	-10.5946
▁après	-10.595
ink	-10.5951
ifi	-10.5953
▁nueva	-10.5954
kus	-10.5955
▁working	-10.5957
▁regula	-10.5963
▁Europol	-10.5965
▁gælder	-10.5966
▁protože	-10.5975
ual	-10.5977
▁bendr	-10.598
▁pēc	-10.5981
▁?	-10.5981
▁nuovi	-10.5981
▁Ministro	-10.5985
▁gazdasági	-10.5985
▁cual	-10.5985
▁detto	-10.5987
▁celu	-10.5988
ang	-10.5989
há	-10.599
pat	-10.599
▁play	-10.5991
▁Bei	-10.5993
▁qualità	-10.5994
▁werkgelegenheid	-10.5994
▁zona	-10.5996
▁three	-10.5998
dele	-10.6001
▁increase	-10.6002
▁organism	-10.6003
▁borgere	-10.6008
uose	-10.6011
▁kuru	-10.6013
▁χρ	-10.6015
▁réponse	-10.6018
▁αγορά	-10.6022
υρ	-10.6022
▁liberal	-10.6023
í,	-10.6023
lev	-10.6025
▁ország	-10.6026
▁Über	-10.6033
meenschappelijk	-10.6033
mus	-10.6033
▁aspects	-10.6033
eń	-10.6037
delen	-10.6042
▁Markt	-10.6044
▁sicher	-10.6045
▁success	-10.6046
▁förslaget	-10.6049
ustatud	-10.6049
▁get	-10.605
▁protezione	-10.605
▁Todėl	-10.6052
▁Lu	-10.6054
kra	-10.6059
▁σχέση	-10.606
jan	-10.6065
▁haber	-10.6067
lan	-10.6067
▁tiež	-10.6068
rzy	-10.6068
▁palju	-10.6069
▁främja	-10.607
▁gång	-10.6071
tuur	-10.6072
bau	-10.6072
▁going	-10.6074
particulièrement	-10.6075
▁yo	-10.6075
▁Beispiel	-10.6076
βλ	-10.6078
▁bila	-10.6082
▁Ansicht	-10.6082
▁agricole	-10.6084
▁bort	-10.6085
▁aiuti	-10.6085
▁tutela	-10.6085
▁Европа	-10.6087
put	-10.6092
ident	-10.6093
▁kraft	-10.6094
▁every	-10.6095
▁år.	-10.6096
▁πρόκειται	-10.6098
είται	-10.6098
▁ski	-10.6099
▁slechts	-10.61
▁υπέρ	-10.6102
▁exemple	-10.6102
▁zurück	-10.6107
▁beter	-10.6108
▁peame	-10.611
▁hy	-10.611
iel	-10.611
rer	-10.6114
sia	-10.6114
▁votación	-10.6115
▁midler	-10.6115
merk	-10.6116
▁teraz	-10.6119
▁politiku	-10.6119
▁internationella	-10.6125
во	-10.6128
▁regione	-10.6128
▁fondi	-10.6131
▁pubblica	-10.6133
▁leden	-10.6136
τες	-10.6137
cho	-10.6139
▁gegenüber	-10.614
▁følge	-10.6141
esse	-10.6141
▁corso	-10.6143
πτ	-10.6146
▁macht	-10.6146
maks	-10.6149
▁země	-10.6158
▁invest	-10.6158
cchi	-10.6161
ności	-10.6163
▁obstante	-10.6166
wer	-10.6168
▁grupper	-10.6169
▁υπάρχουν	-10.6172
▁high	-10.6172
▁članic	-10.6176
▁gevolgen	-10.6184
▁szerint	-10.6184
oval	-10.6185
pä	-10.6191
▁economía	-10.6195
▁stran	-10.6195
▁problemet	-10.6196
▁d'é	-10.6196
▁saa	-10.6197
▁πολίτες	-10.6198
▁existen	-10.6199
▁something	-10.6204
▁beskyttelse	-10.6206
sza	-10.621
stå	-10.621
bor	-10.6213
▁maž	-10.6214
▁nuværende	-10.6216
▁pravic	-10.6216
▁nuevos	-10.6217
▁ellen	-10.6217
sättning	-10.6218
▁támogat	-10.622
▁Under	-10.6221
▁effektivt	-10.6222
▁vigtig	-10.6225
tate	-10.6226
▁μ	-10.6229
aient	-10.623
ţii	-10.6231
▁borgerne	-10.6234
▁valg	-10.6242
▁relation	-10.6243
▁lucha	-10.6244
▁esam	-10.6245
▁Elle	-10.6245
▁milioni	-10.6248
vej	-10.6249
▁trois	-10.6249
tev	-10.6256
▁semble	-10.6257
▁politikai	-10.6257
▁Bal	-10.6259
▁preto	-10.626
▁aún	-10.6265
▁μετά	-10.6266
▁regul	-10.6267
▁Ex	-10.6269
▁1995	-10.6269
▁gut	-10.6269
▁szóló	-10.6271
▁bro	-10.6272
▁Cu	-10.6272
▁l'onorevole	-10.6274
føre	-10.6278
▁regioner	-10.6279
▁sker	-10.6281
▁Directiva	-10.6282
▁üks	-10.6286
nimi	-10.6288
▁29	-10.629
▁Hvad	-10.6291
lement	-10.6295
▁stöder	-10.6295
▁davon	-10.6296
▁Så	-10.6296
liśmy	-10.6298
elijkheid	-10.6298
▁sociedad	-10.6299
▁voted	-10.6299
ча	-10.63
▁autorità	-10.6301
▁Mor	-10.6303
▁négociations	-10.6307
▁unseren	-10.6307
eit	-10.6309
▁περίπτωση	-10.6312
áva	-10.6313
ständig	-10.6315
schi	-10.6315
▁érdekében	-10.6316
▁Αν	-10.6318
▁principle	-10.6318
ų,	-10.6319
▁ponieważ	-10.6322
pel	-10.6322
čas	-10.6323
▁rette	-10.6323
▁europeo.	-10.633
▁relativa	-10.633
▁peab	-10.6331
▁recursos	-10.6333
▁natural	-10.6334
▁Nor	-10.6335
ových	-10.6336
han	-10.6336
▁stále	-10.6336
▁gesteld	-10.6339
▁instituciones	-10.634
▁Weise	-10.6345
tique	-10.6345
▁loc	-10.6347
ώς	-10.6347
▁forbedre	-10.6352
▁procédure	-10.6353
▁antwoord	-10.6353
▁μέσω	-10.6356
▁siis	-10.6358
▁ALDE	-10.6359
▁guarantee	-10.6359
▁clairement	-10.636
▁terrorismo	-10.6362
▁mé	-10.6362
sektor	-10.6363
▁Strategie	-10.6365
▁rep	-10.6365
rup	-10.6366
ené	-10.6369
▁κάτι	-10.6375
▁giorno	-10.6377
▁become	-10.6385
ισμού	-10.6387
▁compromiso	-10.6389
▁weet	-10.6391
syn	-10.6392
ajo	-10.6394
vate	-10.6394
▁remercier	-10.6394
▁об	-10.6395
aci	-10.6396
ta.	-10.64
▁pêche	-10.64
še	-10.6401
osa	-10.6403
▁factor	-10.6403
▁referendum	-10.6404
▁selon	-10.6407
▁pasado	-10.6409
▁Vis	-10.6413
▁naturligtvis	-10.6417
▁sociali	-10.6418
▁savu	-10.6418
klad	-10.6421
чи	-10.6421
▁rev	-10.6426
▁cultural	-10.6428
▁industria	-10.6432
ed.	-10.6434
▁ihr	-10.6435
▁führen	-10.6436
▁πως	-10.6437
▁lä	-10.6438
▁dori	-10.6439
▁liikmesriikide	-10.6441
via	-10.6442
▁access	-10.6443
▁Pod	-10.6443
▁small	-10.6444
▁ordføreren	-10.6445
▁Denne	-10.6447
▁voté	-10.6449
ES	-10.6449
tant	-10.645
▁(A	-10.6451
▁pus	-10.6451
▁landbouw	-10.6452
▁será	-10.6453
▁Komisia	-10.6453
▁My	-10.6455
▁wanneer	-10.6455
▁χρόνια	-10.6458
ото	-10.6458
▁patent	-10.6459
skih	-10.6462
▁befolkning	-10.6462
▁precis	-10.6463
mini	-10.6468
▁texte	-10.6469
▁може	-10.6469
gún	-10.647
▁ytterligare	-10.6476
▁competencia	-10.6478
έν	-10.6484
▁J'ai	-10.6486
▁gospod	-10.6486
förfarande	-10.6489
▁budú	-10.649
▁ordförande	-10.6492
▁Arbeits	-10.6492
enda	-10.6492
▁raport	-10.6493
▁freedom	-10.6497
▁enorm	-10.6498
▁current	-10.6498
▁Selle	-10.6506
▁procesu	-10.6506
ativ	-10.6508
▁utveckla	-10.651
▁úgy	-10.651
▁œuvre	-10.6512
J	-10.6514
▁könnte	-10.6515
umą	-10.6515
▁deutlich	-10.652
▁garantera	-10.6521
σης	-10.6522
▁ber	-10.6523
▁investigación	-10.6524
▁engagement	-10.6527
▁tylko	-10.6528
▁συμφωνία	-10.6529
μο	-10.6529
▁environmental	-10.653
▁rapid	-10.6532
mai	-10.6534
▁Ž	-10.6535
▁volledig	-10.6536
da.	-10.6537
▁riguardo	-10.6538
▁spørgsmålet	-10.6541
▁koleg	-10.6542
▁δικαιωμάτων	-10.6543
▁Fören	-10.6543
pet	-10.6544
▁esempio	-10.6546
▁υπό	-10.6546
▁Od	-10.6546
▁pourrait	-10.6547
▁voi	-10.6548
▁resources	-10.6549
▁fondo	-10.655
▁orde	-10.655
▁laatste	-10.6553
▁pare	-10.6553
▁illegal	-10.6554
rebbe	-10.6555
▁behovet	-10.656
▁Fonds	-10.6562
▁j	-10.6563
▁Republik	-10.6565
▁debatt	-10.6566
ią	-10.657
▁nombreux	-10.6571
▁clar	-10.6574
▁själv	-10.6575
weg	-10.6575
▁innovation	-10.6577
ative	-10.6577
▁posición	-10.6578
▁Und	-10.6583
▁tiks	-10.6585
gehen	-10.659
nünk	-10.6594
▁down	-10.6595
▁καλ	-10.6597
▁gr	-10.6598
▁foarte	-10.6599
▁én	-10.66
▁vier	-10.6602
▁Това	-10.6602
βάλ	-10.6604
▁positiva	-10.6605
▁medlemmer	-10.6606
ują	-10.6606
▁talar	-10.6608
▁Ent	-10.6611
▁crime	-10.6611
▁bol	-10.6611
▁daran	-10.6612
▁artículo	-10.6612
ļ	-10.6612
▁segundo	-10.6613
▁όπου	-10.6615
▁utgör	-10.6621
werk	-10.6627
▁excellent	-10.6627
enblik	-10.6628
▁Mums	-10.6629
imento	-10.6629
gos	-10.663
».	-10.6632
▁Programm	-10.6633
▁varje	-10.6633
▁mul	-10.6634
▁guerra	-10.6634
▁mult	-10.6636
ial	-10.6638
▁groei	-10.6638
▁consommateurs	-10.6643
▁Sta	-10.6646
▁sûr	-10.665
▁aumento	-10.6651
oč	-10.6652
▁Sp	-10.6655
▁siempre	-10.6655
▁netop	-10.6659
θούν	-10.6659
-S	-10.666
ща	-10.6661
▁extrem	-10.6661
▁riigi	-10.6664
▁razón	-10.6664
▁vida	-10.6667
▁lokal	-10.6668
▁sorte	-10.667
▁misma	-10.6672
▁finder	-10.6672
▁verso	-10.6673
▁interno	-10.6676
▁υπόψη	-10.6677
▁nouvelles	-10.6678
▁aftale	-10.6679
▁line	-10.668
ona	-10.6681
▁natur	-10.6681
▁sull'	-10.6682
▁těch	-10.6685
▁jaren	-10.6689
▁conseguir	-10.669
▁punkter	-10.669
▁discussion	-10.6691
acji	-10.6692
ében	-10.6697
▁taler	-10.6698
ţie	-10.6702
▁Rechts	-10.6703
lijk	-10.6705
▁desidero	-10.6706
▁reag	-10.6708
▁tiden	-10.6714
jumu	-10.6715
▁opportunity	-10.6716
▁abbia	-10.6716
▁Udvalget	-10.672
ister	-10.6721
▁limita	-10.6722
šana	-10.6722
ване	-10.6722
▁grupp	-10.6727
▁violence	-10.6729
λά	-10.6731
▁sag	-10.6731
ă,	-10.6732
▁Region	-10.6735
ilor	-10.6735
▁Wirtschaft	-10.6736
▁przed	-10.6736
▁Zo	-10.6737
▁Nem	-10.6738
▁senaste	-10.6739
▁fiscal	-10.6739
▁Evropa	-10.6739
▁dove	-10.674
▁avtal	-10.6741
owe	-10.6744
λο	-10.6746
▁including	-10.6746
▁dank	-10.6747
ore	-10.6747
▁poolt	-10.675
▁senso	-10.6751
part	-10.6752
poliitika	-10.6753
▁waarop	-10.6754
▁mission	-10.6754
▁tres	-10.6755
▁commissaris,	-10.6757
▁Tomēr	-10.6761
▁demand	-10.6761
▁valsts	-10.6763
▁zaradi	-10.6765
▁kommen	-10.6768
ose	-10.6768
bile	-10.6773
▁genau	-10.6775
▁obra	-10.6775
▁nuova	-10.6777
▁reco	-10.6777
▁rzecz	-10.6778
éré	-10.6779
▁domin	-10.6781
ματ	-10.6782
▁visto	-10.6784
▁finansielle	-10.6789
▁s’	-10.6789
aug	-10.6792
▁drugi	-10.6793
▁nature	-10.6794
▁ά	-10.6796
▁piac	-10.6798
▁seront	-10.6798
▁Ευρώπης	-10.6799
▁Unidos	-10.6802
▁musi	-10.6808
▁ren	-10.6812
osi	-10.6813
cional	-10.6813
▁sent	-10.6813
ικ	-10.6814
▁Sra.	-10.6814
▁juht	-10.6815
Ε	-10.6817
▁jos	-10.6817
staat	-10.6817
ιν	-10.6822
όρ	-10.6824
owanie	-10.6826
▁krok	-10.6826
▁narių	-10.6828
▁kõik	-10.6828
▁nécessité	-10.683
▁chance	-10.6835
τικό	-10.6835
▁proto	-10.684
▁credo	-10.6841
▁Presidency	-10.6841
itatea	-10.6844
▁Τα	-10.6845
▁bud	-10.6847
yv	-10.6849
▁dall'	-10.6851
▁salud	-10.6852
▁employment	-10.6852
▁ná	-10.6853
▁μετα	-10.6854
▁proposed	-10.6857
▁simple	-10.6858
lic	-10.6859
▁själva	-10.686
▁šį	-10.6863
▁mois	-10.6868
ως	-10.687
▁pública	-10.687
▁souhaite	-10.6874
▁2008.	-10.6874
imos	-10.6878
▁attività	-10.688
▁europee	-10.6883
▁beskæftigelse	-10.6884
ribu	-10.6884
▁kein	-10.6885
▁tidigare	-10.6885
▁poiché	-10.6887
σεις	-10.6887
dès	-10.6891
sze	-10.6893
col	-10.6899
▁parere	-10.6902
▁private	-10.6904
▁Aber	-10.6904
▁między	-10.6907
▁pression	-10.6907
▁estrategia	-10.6908
▁intervention	-10.6909
▁asunto	-10.6911
▁calidad	-10.6911
▁j'	-10.6912
▁committee	-10.6914
▁authorities	-10.6917
▁viac	-10.6917
dži	-10.6918
▁emellertid	-10.6919
▁haft	-10.6921
▁politico	-10.6921
▁plazo	-10.6923
▁Ak	-10.6924
▁research	-10.6927
▁ettepaneku	-10.6927
▁welke	-10.693
▁Ga	-10.693
▁l'é	-10.6931
ват	-10.6933
▁free	-10.6933
▁aunque	-10.6935
▁valstybių	-10.6935
▁formul	-10.6935
▁policies	-10.6936
▁бъдат	-10.6937
▁afecta	-10.6938
▁halv	-10.6938
▁crucial	-10.6939
▁mari	-10.694
▁shall	-10.6942
vy	-10.6944
▁toto	-10.6944
▁или	-10.6944
▁rural	-10.6944
dami	-10.6945
λογ	-10.6947
▁medlem	-10.6948
▁endast	-10.6949
▁би	-10.6949
▁really	-10.6949
eringen	-10.6951
·	-10.6952
▁seit	-10.6953
▁Ebene	-10.6958
▁tiesību	-10.6959
▁invece	-10.696
imu	-10.6961
▁δικαιώματα	-10.6962
▁continua	-10.6965
zer	-10.697
▁szer	-10.6974
▁90	-10.6975
▁leiden	-10.6975
▁rich	-10.6975
▁donné	-10.6976
▁close	-10.6977
oni	-10.6978
▁hoffe	-10.6979
▁afgørende	-10.6979
▁toch	-10.698
▁moi	-10.6987
▁zie	-10.6988
▁(SK)	-10.6992
▁genomföra	-10.6993
▁s'est	-10.6993
▁Mu	-10.6994
▁poročilo	-10.6994
▁statut	-10.6995
▁algunas	-10.6996
▁crea	-10.6999
▁progetto	-10.6999
selt	-10.7002
▁geld	-10.7002
▁meil	-10.7004
cov	-10.7004
▁paz	-10.7006
▁cabo	-10.701
▁tohoto	-10.701
idos	-10.7011
blo	-10.7012
ium	-10.7012
▁propose	-10.7015
rö	-10.7017
kārt	-10.7018
▁αυτών	-10.7018
ūt	-10.7019
▁notwendig	-10.702
bild	-10.7022
yw	-10.7024
▁liv	-10.7025
▁negociaciones	-10.7028
▁Unione	-10.7029
▁essential	-10.7029
▁effective	-10.7033
▁skupiny	-10.7034
just	-10.7038
▁bla	-10.704
▁pur	-10.7042
▁Abkommen	-10.7043
its	-10.7046
▁tidligere	-10.7048
isse	-10.705
▁ανάγκη	-10.7052
▁institution	-10.7053
▁internal	-10.7053
▁snel	-10.7055
▁mayoría	-10.7057
▁attend	-10.7057
▁Rad	-10.7059
▁prote	-10.7059
▁pamat	-10.706
▁regulation	-10.706
▁erforderlich	-10.7061
▁investi	-10.7061
▁especially	-10.7062
▁emot	-10.7062
▁té	-10.7065
▁conserva	-10.7066
▁creare	-10.7068
▁nagyon	-10.7068
kke	-10.7069
▁sé	-10.7069
öd	-10.707
▁gemeinsame	-10.707
▁nytt	-10.7072
▁juhataja,	-10.7074
▁nivå	-10.7074
ets	-10.7076
nge	-10.708
▁członkowskich	-10.7081
of	-10.7082
▁weitere	-10.7083
cos	-10.7084
▁států	-10.7085
ald	-10.7085
▁look	-10.7086
▁под	-10.7091
▁risposta	-10.7097
▁2010.	-10.7098
▁Rom	-10.7098
▁démocratique	-10.7098
▁chaque	-10.7102
ηθούν	-10.7103
▁tud	-10.7108
ujeme	-10.7109
ίζει	-10.7112
▁azonban	-10.7113
▁ktorí	-10.7113
▁rättigheterna	-10.7114
urile	-10.7116
▁brengen	-10.7117
▁kogu	-10.7117
lassen	-10.7119
▁pres	-10.7122
▁familie	-10.7122
▁together	-10.7124
▁maintenant	-10.7125
▁cur	-10.7127
▁Pani	-10.7129
▁juni	-10.7129
▁quel	-10.713
ność	-10.7132
▁socialist	-10.7132
▁Assemblée	-10.7133
spo	-10.7134
▁registr	-10.7134
▁principal	-10.7136
▁während	-10.7143
▁elnök	-10.7143
▁euros	-10.7143
ovej	-10.7144
ήσεις	-10.7146
▁serious	-10.7153
pis	-10.7155
▁finansiering	-10.7156
▁támogatás	-10.7159
▁metu	-10.716
▁gesch	-10.7162
▁oltre	-10.7162
▁term	-10.7162
▁nödvändigt	-10.7163
▁jaoks	-10.7164
lighed	-10.7164
αι	-10.7165
vas	-10.7165
▁Verfahren	-10.7166
ėja	-10.7167
▁tilfælde	-10.7168
▁dentro	-10.7168
▁oplossing	-10.7169
-B	-10.7169
▁pane	-10.7169
▁pak	-10.7169
▁само	-10.7172
▁sociáln	-10.7173
øn	-10.7173
▁svobod	-10.7175
▁keď	-10.7175
▁tax	-10.7176
▁organisations	-10.7176
rum	-10.7177
▁alternative	-10.7178
▁Lösung	-10.718
▁wirtschaftliche	-10.718
▁г.	-10.7181
pul	-10.7182
▁dienen	-10.7182
▁essa	-10.7182
▁nagy	-10.7183
kul	-10.7183
▁cita	-10.7183
▁pirm	-10.7183
▁affrontare	-10.7184
▁alcune	-10.7185
ič	-10.7185
▁Tačiau	-10.7186
▁ρόλο	-10.7186
▁Chi	-10.7188
▁selles	-10.7193
▁ér	-10.7194
▁(CS)	-10.7194
▁visse	-10.7194
ključ	-10.7194
▁partners	-10.7196
▁intérieur	-10.7199
▁kommissionär	-10.72
▁δημιουργ	-10.72
▁clearly	-10.7203
mål	-10.7203
▁darf	-10.7205
▁70	-10.7205
▁affinché	-10.7208
▁during	-10.7209
▁plusieurs	-10.721
▁used	-10.7215
▁fondamentali	-10.7216
▁ændre	-10.7218
▁Tā	-10.7219
▁sud	-10.722
μά	-10.722
▁concern	-10.7221
▁least	-10.7222
30	-10.7222
▁bisogno	-10.7223
▁démocratie	-10.7223
▁nada	-10.7228
▁fort	-10.7229
▁Kan	-10.723
▁Parlamendi	-10.7235
▁börja	-10.7237
▁potrebbe	-10.7237
anno	-10.7238
ló	-10.7241
▁již	-10.7241
▁industrial	-10.7244
tól	-10.7244
▁fiske	-10.7244
stal	-10.7245
▁reason	-10.7246
ness	-10.7246
▁PPE	-10.7247
▁sería	-10.7249
▁Bruxelles	-10.725
▁industry	-10.7251
▁Β	-10.7253
▁Rådets	-10.7255
▁hu	-10.7257
▁løsning	-10.7261
▁Kina	-10.7265
▁progressi	-10.7267
τή	-10.7269
ém	-10.7269
▁uppnå	-10.7269
▁võimalik	-10.727
stit	-10.727
rica	-10.7271
zó	-10.7273
▁καθ	-10.7273
▁Trattato	-10.7276
▁zasad	-10.7277
είς	-10.7278
▁Convention	-10.728
▁rendszer	-10.7281
νη	-10.7282
ford	-10.7283
ojo	-10.7284
▁vám	-10.7284
▁dabei	-10.7285
▁priorit	-10.7286
98	-10.7286
▁fortsätta	-10.7288
▁Afghanistan	-10.7288
▁μη	-10.729
erne,	-10.729
isce	-10.7292
give	-10.7292
▁πρόβλημα	-10.7293
ból	-10.7295
▁mitt	-10.7296
▁gevolg	-10.7301
hä	-10.7301
už	-10.7303
ар	-10.7304
▁stemme	-10.7305
▁fremskridt	-10.7307
νε	-10.731
roz	-10.7311
▁Eine	-10.7316
▁(C	-10.7317
▁grundlag	-10.7318
čen	-10.7319
ymi	-10.732
▁Änderungsantrag	-10.7326
meenschappelijke	-10.7326
▁videre	-10.7326
▁Social	-10.7327
▁obchod	-10.7329
dur	-10.733
▁udtryk	-10.733
▁demokrat	-10.733
▁før	-10.7333
▁recente	-10.7334
▁infrastruktur	-10.7335
▁dot	-10.7336
▁comuni	-10.7338
▁Beschäftigung	-10.7339
▁samfund	-10.734
▁reforma	-10.734
▁negotiations	-10.7343
▁estoy	-10.7344
agt	-10.7345
▁zaak	-10.7346
▁Svet	-10.7347
▁General	-10.7347
▁d'in	-10.7348
▁Rechte	-10.7352
gående	-10.7352
▁insist	-10.7355
▁offentlige	-10.7356
sätt	-10.7356
▁Agenda	-10.7356
▁político	-10.7357
halt	-10.7357
▁glad	-10.7357
uc	-10.7361
▁Dar	-10.7362
ines	-10.7363
iche	-10.7364
▁Daar	-10.7364
▁kollega	-10.7366
τό	-10.7366
▁podría	-10.7368
▁już	-10.737
-R	-10.7371
▁Kinder	-10.7372
▁enig	-10.7374
▁assist	-10.7375
▁concurrentie	-10.7377
ολ	-10.7378
▁Damen	-10.7379
▁bolj	-10.7379
▁dato	-10.7381
▁2013	-10.7382
▁Jahre	-10.7383
▁köz	-10.7384
gere	-10.7385
▁européennes	-10.7386
αρ	-10.7386
▁nuove	-10.7387
▁operation	-10.7387
zien	-10.7389
▁prefer	-10.7389
▁alternativ	-10.7389
▁Af	-10.7391
▁balance	-10.7396
▁criminal	-10.7398
▁wichtige	-10.7398
▁sit	-10.7399
▁byla	-10.74
nemen	-10.74
▁rozhod	-10.7401
▁plán	-10.7401
▁solidaritet	-10.7402
▁responsibility	-10.7404
▁strategy	-10.7404
▁werken	-10.7405
▁itself	-10.7409
nější	-10.7409
setzung	-10.741
▁hacia	-10.741
έχ	-10.7411
▁project	-10.7415
▁donner	-10.7422
nnen	-10.7423
▁Nations	-10.7424
dob	-10.7425
▁Τ	-10.7426
▁fiscale	-10.7426
▁pé	-10.7432
▁lägga	-10.7432
ibili	-10.7432
▁strijd	-10.7432
▁parlementaire	-10.7436
ór	-10.7438
▁Ši	-10.7441
▁konkrete	-10.7444
▁aucun	-10.7444
▁opge	-10.7444
▁another	-10.7447
▁europeo,	-10.7449
▁ö	-10.7453
▁społeczn	-10.7454
▁concentra	-10.7454
▁medlemsstat	-10.7455
▁genera	-10.7455
▁aspetti	-10.7455
▁Reglamento	-10.746
miento	-10.7461
▁buena	-10.7461
▁después	-10.7462
▁sein.	-10.7464
▁stats	-10.7464
▁2.	-10.7469
ální	-10.7474
rlo	-10.7475
ūs	-10.7477
king	-10.7477
за	-10.7477
ával	-10.7477
▁Komisijas	-10.7477
ivi	-10.7478
▁gestemd	-10.7481
ivo	-10.7485
Α	-10.7487
▁show	-10.7487
▁Verordnung	-10.7488
▁combat	-10.7488
ität	-10.7488
▁autorités	-10.7488
▁Demokratie	-10.7489
dica	-10.7489
▁aange	-10.7489
▁Let	-10.7491
▁potřeb	-10.7494
▁Evropski	-10.7495
markt	-10.7496
ktion	-10.7498
▁συγ	-10.7499
▁strategic	-10.75
iau	-10.7501
▁Att	-10.7502
ged	-10.7502
▁Bezug	-10.7506
▁konsekvenser	-10.7508
▁sue	-10.7509
▁typ	-10.751
ļu	-10.7511
▁wurde,	-10.7511
▁third	-10.7513
▁manifest	-10.7514
▁ši	-10.7517
▁kurā	-10.7517
▁soluzione	-10.7517
▁cél	-10.7518
▁zdrav	-10.752
ηση	-10.752
▁spørgsmål,	-10.7522
pil	-10.7523
▁États-Unis	-10.7524
▁acquis	-10.7524
▁stad	-10.7525
åg	-10.7526
kä	-10.7526
▁then	-10.7527
▁resulta	-10.7528
itve	-10.7531
▁sporazum	-10.7533
▁waarmee	-10.7536
▁Une	-10.7543
▁Ces	-10.7545
tain	-10.7545
ισμό	-10.7546
▁tager	-10.7546
▁Uniti	-10.7546
ţa	-10.7553
▁greater	-10.7554
▁idee	-10.7563
▁munka	-10.7563
iques	-10.7564
▁rör	-10.7564
antes	-10.7565
▁mejorar	-10.7565
▁Möglichkeit	-10.7567
▁nord	-10.757
▁hjälp	-10.7572
▁occasion	-10.7575
▁effetti	-10.7575
▁instruments	-10.7576
▁drejer	-10.7576
▁acción	-10.7577
▁biztosít	-10.7577
▁ypač	-10.7579
▁navnlig	-10.758
▁anledning	-10.758
▁prix	-10.7583
▁pace	-10.7584
▁gruppe	-10.7585
ia,	-10.7589
▁sembra	-10.7594
▁nepo	-10.7595
▁håller	-10.7595
am,	-10.7596
▁stop	-10.7599
▁list	-10.76
▁teisės	-10.7601
rz	-10.7603
▁einfach	-10.7603
▁únie	-10.7605
▁betrokken	-10.7605
▁“	-10.7605
▁speak	-10.7606
▁át	-10.7607
szer	-10.7608
▁products	-10.7609
▁uitbreiding	-10.761
▁отношение	-10.761
igu	-10.7611
▁šio	-10.7616
klaus	-10.7618
▁Umsetzung	-10.7618
▁volgende	-10.7621
▁gericht	-10.7623
▁μέλλον	-10.7625
sat	-10.7627
▁Roma	-10.7633
regul	-10.7633
▁crescita	-10.7633
▁darin	-10.7633
▁enda	-10.7638
ické	-10.7639
pol	-10.764
▁negoziati	-10.7641
▁Efter	-10.7642
▁autoridades	-10.7645
zę	-10.7646
▁Entscheidung	-10.7646
▁relevant	-10.7647
fel	-10.7647
anza	-10.7648
▁certaines	-10.7648
▁Hilfe	-10.7649
▁też	-10.765
▁между	-10.7651
▁mala	-10.7651
▁safety	-10.7652
▁proyecto	-10.7654
▁tala	-10.7659
nic	-10.7659
▁sowohl	-10.766
▁surtout	-10.7663
kot	-10.7663
из	-10.7665
▁krize	-10.7665
ow	-10.7666
▁dient	-10.7667
▁εισ	-10.7668
owej	-10.7668
▁Reform	-10.767
▁cierto	-10.7673
▁led	-10.7673
▁rather	-10.7675
uche	-10.7675
▁ersten	-10.7677
sur	-10.7678
▁zusammen	-10.7679
sť	-10.7683
▁aim	-10.7687
▁stemmen	-10.7692
ácie	-10.7694
▁συνεργασία	-10.7695
▁fer	-10.7697
▁pokud	-10.7697
-M	-10.7698
▁reden	-10.7698
▁estar	-10.77
▁regel	-10.77
▁formandskab	-10.7702
cep	-10.7703
ión	-10.7704
▁Präsidentin	-10.7705
▁pay	-10.7709
▁lavoratori	-10.7712
cken	-10.7714
tz	-10.7714
▁vonatkozó	-10.7714
▁regels	-10.7715
▁Gebiet	-10.7716
ίου	-10.7717
▁applica	-10.7718
▁Acest	-10.7719
щи	-10.7723
post	-10.7723
▁Abbiamo	-10.7724
star	-10.7724
▁korrekt	-10.7726
▁konkurrence	-10.7728
▁klare	-10.7729
▁Pone	-10.7732
▁visant	-10.7733
izar	-10.7734
▁Balkan	-10.7734
▁trabajadores	-10.7734
▁miest	-10.7736
(	-10.7737
ola	-10.7739
▁høj	-10.7742
nymi	-10.7742
▁ευ	-10.7745
▁potrzeb	-10.7749
▁ras	-10.775
▁juridisk	-10.7756
▁ignor	-10.7756
▁informazioni	-10.7757
▁suoi	-10.7758
▁indre	-10.7759
▁temat	-10.776
▁democracia	-10.776
ър	-10.7762
▁echt	-10.7766
▁Debatte	-10.7766
ió	-10.7774
▁Schritt	-10.7777
▁ví	-10.7777
▁déclaration	-10.7778
anda	-10.7779
▁veik	-10.7781
hus	-10.7781
▁užtikrinti	-10.7783
▁consiste	-10.7783
projekt	-10.7784
▁Μ	-10.7786
ño	-10.7787
▁Cámara	-10.7787
▁idé	-10.7788
frågor	-10.7789
▁strany	-10.7789
▁elemento	-10.7792
▁Kolleginnen	-10.7794
▁diensten	-10.7797
▁medborgarna	-10.7798
▁odbor	-10.7799
па	-10.7799
▁între	-10.7801
olog	-10.7803
▁Forschung	-10.7804
▁polityki	-10.7804
▁terrorism	-10.7805
som	-10.7805
▁taget	-10.7806
▁tv	-10.7806
▁dobro	-10.7808
▁È	-10.7809
▁tydligt	-10.7815
▁hr	-10.7815
▁queda	-10.7825
▁majandus	-10.7825
▁samman	-10.7826
▁sine	-10.7827
▁votato	-10.7829
▁analiz	-10.7832
daj	-10.7832
▁krit	-10.7833
▁όλες	-10.7833
▁dringend	-10.7833
kro	-10.7837
▁minst	-10.7838
▁democrazia	-10.7839
▁proposé	-10.7839
▁ståndpunkt	-10.7847
ød	-10.7849
▁udvikle	-10.7851
▁práctica	-10.7851
▁ressources	-10.7851
êt	-10.7852
▁Ciò	-10.7853
▁boli	-10.7853
▁Komisi	-10.7856
▁termini	-10.7857
▁sm	-10.7859
▁bedanken	-10.786
▁metod	-10.786
▁commissie	-10.7861
ktor	-10.7862
▁nationalen	-10.7862
ship	-10.7863
▁tačiau	-10.7865
▁:	-10.7865
▁ίδιο	-10.7865
▁brauchen	-10.7866
▁Tra	-10.7868
▁behandle	-10.7869
▁besonders	-10.787
▁steht	-10.7871
lg	-10.7872
ggi	-10.7873
де	-10.7874
▁særlig	-10.7875
din	-10.7877
nými	-10.788
▁yderligere	-10.7884
▁cap	-10.7885
▁budou	-10.7886
industrie	-10.7886
jon	-10.7888
▁Abgeordneten	-10.789
▁budeme	-10.789
▁αρχές	-10.7891
▁hä	-10.7891
▁dice	-10.7892
▁javaslat	-10.7893
▁Στη	-10.7894
▁hulp	-10.7894
ρά	-10.7895
-A	-10.7896
▁power	-10.7898
▁παράδειγμα	-10.7905
inio	-10.7906
▁miljoner	-10.7906
▁szükség	-10.7907
▁εφαρμογή	-10.7908
▁vēlos	-10.7909
▁следва	-10.7911
▁lagt	-10.7913
▁ενώ	-10.7915
▁l'Europa	-10.7916
ír	-10.792
▁interest	-10.7921
▁quite	-10.7921
▁relativo	-10.7923
list	-10.7924
▁buiten	-10.7931
▁kasuta	-10.7931
▁dare	-10.7932
▁prevent	-10.7932
▁ορ	-10.7934
▁πλ	-10.7938
▁democratie	-10.7939
partner	-10.794
▁στιγμή	-10.7943
▁wenig	-10.7945
▁Gen	-10.7946
▁jautājumu	-10.7947
lise	-10.7948
ores	-10.7949
▁nas	-10.795
▁betekent	-10.7954
▁razvoj	-10.7955
▁legitim	-10.7956
▁dintre	-10.7956
ů,	-10.7957
▁nuevas	-10.7959
▁confronti	-10.796
▁συνεχ	-10.796
ification	-10.7965
▁once	-10.7965
▁narės	-10.7966
ģi	-10.7967
▁mechanism	-10.7967
▁ihnen	-10.7969
▁basa	-10.797
▁Car	-10.7971
området	-10.7973
setzen	-10.7977
▁træffe	-10.7977
▁bevolking	-10.7977
migr	-10.7979
▁valor	-10.7979
▁controle	-10.7981
▁actuelle	-10.7986
▁intereses	-10.7987
▁budgétaire	-10.7988
τερ	-10.7989
don	-10.799
nunk	-10.7994
▁administrative	-10.7994
αγ	-10.7995
▁criteria	-10.7995
▁indem	-10.7996
▁rec	-10.7997
▁kvalit	-10.7997
▁interessi	-10.7998
▁Σε	-10.8003
▁saranno	-10.8003
▁acceptere	-10.8004
rob	-10.8005
▁dialoog	-10.8005
θηκε	-10.8005
▁kommissær,	-10.8005
▁benefit	-10.8009
▁vendar	-10.8009
▁teha	-10.8009
erne.	-10.8009
▁settori	-10.801
▁kritik	-10.801
▁l'environnement	-10.801
▁Europe,	-10.8011
ome	-10.8011
▁radio	-10.8012
▁libertad	-10.8013
▁liegt	-10.8017
▁occorre	-10.8017
▁findes	-10.8023
▁vele	-10.8024
ned	-10.8025
treten	-10.8026
▁essentiel	-10.803
ιά	-10.8031
▁ritengo	-10.8032
ką	-10.8033
can	-10.8033
▁aktu	-10.8033
▁г-н	-10.8034
▁gav	-10.8035
▁fattigdom	-10.8036
▁forte	-10.8037
▁Messieurs,	-10.8038
▁drøfte	-10.8038
▁μέσα	-10.8039
▁kontakt	-10.804
▁sysselsättning	-10.8041
▁osa	-10.8045
▁muchas	-10.8052
▁bred	-10.8055
▁lassen	-10.8057
▁(LT)	-10.8058
▁politike	-10.8061
ai,	-10.8062
▁europeisk	-10.8062
όν	-10.8063
▁kapcsolatos	-10.8063
tár	-10.8063
ggio	-10.8063
ēju	-10.8064
tische	-10.8064
▁šios	-10.8064
▁always	-10.8067
cze	-10.8068
▁union	-10.807
cja	-10.8073
▁Č	-10.8078
▁conséquent	-10.808
▁voulons	-10.808
▁riikide	-10.8081
pas	-10.8083
▁kvalitet	-10.8083
▁doelstellingen	-10.8084
▁beginnen	-10.8084
▁Comme	-10.8084
▁grandi	-10.8084
▁Tot	-10.8088
▁miljard	-10.809
▁provoca	-10.8091
ča	-10.8094
▁Vertrag	-10.8095
ude	-10.8095
praw	-10.8096
▁daugiau	-10.8098
▁making	-10.8098
λή	-10.8101
▁Г-	-10.8102
ruš	-10.8102
ských	-10.8103
ill	-10.8103
▁decisiones	-10.8104
▁život	-10.8105
▁crear	-10.8108
▁votado	-10.8109
▁πιστεύω	-10.8111
▁%.	-10.8112
▁bychom	-10.8115
▁democracy	-10.8118
▁predsedajúci,	-10.8121
▁pueda	-10.8122
▁obliga	-10.8122
▁urgent	-10.8124
▁έκθεσης	-10.8125
▁Commission's	-10.8127
▁βάση	-10.8127
▁tá	-10.813
▁vale	-10.813
▁Handel	-10.813
▁Europeană	-10.8131
aja	-10.8135
strategi	-10.8137
▁voie	-10.8141
▁Grundlage	-10.8144
▁society	-10.8148
▁bringen	-10.8148
▁todavía	-10.8152
▁framtiden	-10.8154
▁asemenea,	-10.8156
tér	-10.8157
bit	-10.8157
hető	-10.8157
▁τ	-10.8157
▁medida	-10.8159
ści	-10.8161
▁jums	-10.8162
▁importanti	-10.8163
▁tel	-10.8163
▁varētu	-10.8165
▁These	-10.8167
▁...	-10.8169
▁falta	-10.8174
▁myndigheder	-10.8175
▁reeds	-10.8179
matu	-10.818
▁France	-10.8181
▁biti	-10.8182
▁delegation	-10.8182
side	-10.8187
▁général	-10.8189
lage	-10.819
▁Jak	-10.819
▁országok	-10.819
▁lég	-10.8191
ovala	-10.8191
▁achieve	-10.8192
▁unos	-10.8193
länder	-10.8195
▁utbildning	-10.8196
▁vertegenwoordig	-10.8198
▁risultati	-10.82
▁mier	-10.82
▁telle	-10.8201
▁commitment	-10.8201
▁która	-10.8201
▁framsteg	-10.8203
▁taga	-10.8205
▁iniciativa	-10.8207
avimo	-10.8209
▁sagde	-10.821
▁fight	-10.8214
lyg	-10.8217
igkeit	-10.822
gua	-10.8222
sluit	-10.8224
▁anta	-10.8224
▁cómo	-10.8228
до	-10.8228
▁altid	-10.8229
▁Parlamento,	-10.8229
mą	-10.8229
▁οικονομική	-10.823
▁largo	-10.8231
▁poter	-10.8233
▁favorable	-10.8233
lung	-10.8234
▁måske	-10.8235
▁tiens	-10.8236
ernes	-10.8237
▁τι	-10.8237
▁vērā	-10.8237
▁poner	-10.8238
owego	-10.8239
▁motor	-10.8245
▁They	-10.8245
▁colleghi	-10.825
▁ευρώ	-10.825
▁Cha	-10.8253
εις	-10.8257
▁grond	-10.826
▁certo	-10.8263
▁gestión	-10.8263
▁environment	-10.8264
▁elkaar	-10.8265
▁UE,	-10.8266
▁forhandling	-10.8268
▁mundial	-10.8269
▁cred	-10.8269
uši	-10.8269
▁въпрос	-10.827
▁faktiskt	-10.8271
▁krig	-10.8272
▁børn	-10.8274
▁adgang	-10.8274
▁concurrence	-10.8275
▁schriftelijk.	-10.8276
▁tendrá	-10.8279
▁besluit	-10.8279
▁lát	-10.8281
nahme	-10.8282
▁States.	-10.8282
▁burger	-10.8287
▁ekonomin	-10.8288
icht	-10.8292
▁rösta	-10.8292
▁internationalen	-10.8293
▁regions	-10.8293
▁bestaat	-10.8293
▁samtidigt	-10.8293
▁active	-10.8293
jā	-10.8293
▁0,	-10.8294
▁pesar	-10.8295
mluv	-10.8295
▁tele	-10.8297
▁gemeinsamen	-10.83
▁resultado	-10.8302
▁band	-10.8304
▁prakt	-10.8307
ρω	-10.8307
▁legislative	-10.8308
▁herrar!	-10.8309
▁Wort	-10.8312
ziel	-10.8312
rak	-10.8314
▁government	-10.8315
▁Fi	-10.8317
▁prend	-10.8317
▁políticos	-10.832
▁procedimiento	-10.8324
▁skriftlig.	-10.8327
tif	-10.833
▁dagli	-10.8333
▁Form	-10.8334
▁Geld	-10.8335
▁ви	-10.8335
▁Auch	-10.8336
ière	-10.8336
▁texto	-10.8337
▁croissance	-10.8337
▁través	-10.8337
▁sociální	-10.8338
▁gjorde	-10.8338
▁tým	-10.8339
ierten	-10.834
▁dürfen	-10.8341
▁inclu	-10.8341
tore	-10.8342
▁euro.	-10.8342
gleich	-10.8342
▁štáty	-10.8343
▁επειδή	-10.8344
▁concept	-10.8344
eid	-10.8345
▁dergelijke	-10.8347
▁ampliación	-10.8349
▁länderna	-10.8349
em.	-10.835
▁aldrig	-10.835
▁Verantwortung	-10.8353
▁πριν	-10.8354
▁paní	-10.8358
krat	-10.836
▁elles	-10.836
▁overeenkomst	-10.8364
▁προστασία	-10.8365
▁Pan	-10.8366
ders	-10.8367
▁šīs	-10.8368
▁realidad	-10.837
▁gleich	-10.837
minister	-10.8371
▁dernier	-10.8373
▁structure	-10.8373
▁dolgo	-10.8375
kontroll	-10.8377
▁należy	-10.8378
▁gennemføre	-10.8378
inblick	-10.838
▁corre	-10.8381
▁άποψη	-10.8384
īga	-10.8384
ök	-10.8385
▁megfelelő	-10.8385
ligen	-10.8386
▁Europea,	-10.8388
cal	-10.8389
▁lande,	-10.8392
▁steg	-10.8393
κά	-10.8393
▁Millionen	-10.8394
▁acceso	-10.8394
▁avis	-10.8395
▁travailleurs	-10.8397
zional	-10.8397
▁testo	-10.8398
ajām	-10.8398
▁kal	-10.8399
▁pří	-10.84
▁súvislosti	-10.84
▁Zij	-10.8401
▁oportunidad	-10.8402
▁militaire	-10.8409
▁γίνει	-10.841
▁kosten	-10.8417
▁obe	-10.8417
▁meeting	-10.8418
▁Ad	-10.8418
▁tap	-10.8418
▁geweest	-10.8419
▁toeta	-10.842
cel	-10.842
▁d'accord	-10.842
▁vision	-10.8421
▁realtà	-10.8421
▁Tribunal	-10.8428
▁implementation	-10.8433
▁hänsyn	-10.8434
▁vedtaget	-10.8435
▁money	-10.8436
▁costi	-10.8436
▁analyse	-10.8437
▁μεγάλη	-10.8438
▁reformer	-10.844
▁voeren	-10.8441
▁vieno	-10.8441
▁kanske	-10.8442
ami.	-10.8445
▁našich	-10.8447
▁gravi	-10.8447
▁flera	-10.8448
▁things	-10.8451
ző	-10.8451
▁interests	-10.8453
tale	-10.8453
▁unge	-10.8454
▁davantage	-10.8454
▁Commissione,	-10.8456
ible	-10.8456
ė,	-10.8459
▁avez	-10.846
▁προβλήματα	-10.846
ów,	-10.846
▁straff	-10.8461
▁finanční	-10.8462
▁peaks	-10.8465
prä	-10.8466
▁maj	-10.8468
▁mean	-10.847
tisk	-10.847
ppe	-10.847
ava	-10.8472
▁ham	-10.8473
▁hinaus	-10.8475
▁staterna	-10.8476
ova	-10.8476
ение	-10.8477
▁Parlement,	-10.8479
▁donde	-10.8479
▁held	-10.8479
▁cał	-10.848
▁pénzügyi	-10.8482
▁faptul	-10.8482
▁fald	-10.8483
▁erop	-10.8484
ź	-10.8485
▁nove	-10.8486
▁3,	-10.8486
oti	-10.8487
▁lub	-10.8488
▁Belg	-10.8489
▁verordening	-10.8492
▁queremos	-10.8495
▁különösen	-10.8499
▁Unie.	-10.85
▁те	-10.8501
dav	-10.8503
▁propria	-10.8504
hel	-10.8505
▁Ch	-10.8505
▁propia	-10.8506
τική	-10.8509
▁diversi	-10.8509
▁odpo	-10.8509
elsen	-10.851
▁pracy	-10.8511
▁kraj	-10.8512
▁direction	-10.8513
έλ	-10.8514
▁konstruktiv	-10.8515
▁creación	-10.8516
▁based	-10.8517
▁soutenir	-10.8519
▁ακόμα	-10.8519
▁vormen	-10.8522
▁economy	-10.8522
▁sor	-10.8523
program	-10.8524
▁forordning	-10.8525
▁économiques	-10.8528
▁erhalten	-10.8528
▁amplia	-10.8532
▁cultura	-10.8532
▁negativ	-10.8533
▁implement	-10.8536
▁lokale	-10.8536
▁kamp	-10.8537
▁stanov	-10.8538
ră	-10.854
▁abi	-10.8541
bund	-10.8542
eti	-10.8542
▁skydda	-10.8542
▁máme	-10.8546
▁(P	-10.8552
▁Vendar	-10.8552
ā,	-10.8553
▁sposób	-10.8558
▁symbol	-10.8558
▁État	-10.8558
▁diskusi	-10.856
▁nazionale	-10.8561
▁Comisiei	-10.8561
▁allemaal	-10.8562
▁programas	-10.8563
üt	-10.8563
▁pagal	-10.8564
komen	-10.8567
▁väg	-10.8568
▁alltid	-10.8568
ighet	-10.8568
▁encourage	-10.857
▁monitor	-10.857
▁Με	-10.8571
▁cosas	-10.8573
▁diskutera	-10.8576
▁großen	-10.8576
▁frei	-10.8577
▁dotyczące	-10.8578
▁gezien	-10.8579
▁lika	-10.8581
▁regiones	-10.8581
▁porte	-10.8582
▁priorità	-10.8586
▁belasting	-10.8586
stoff	-10.8586
▁Mes	-10.8587
rik	-10.8588
▁lorsque	-10.8588
ability	-10.859
▁offen	-10.8591
▁vergadering	-10.8594
▁Sozial	-10.8594
▁sozialen	-10.8595
▁application	-10.8597
äg	-10.8599
▁komisarz	-10.86
▁35	-10.8603
▁protocol	-10.8604
uz	-10.8609
▁various	-10.8612
▁seno	-10.8612
cco	-10.8614
itate	-10.8615
▁égard	-10.8616
▁fondos	-10.8616
▁möjlighet	-10.8619
▁pedig	-10.862
rop	-10.8623
▁beide	-10.8623
νει	-10.8625
▁compris	-10.8632
mata	-10.8634
tijd	-10.8637
▁közös	-10.8638
▁vilken	-10.8638
Zoals	-10.8639
▁difícil	-10.864
wert	-10.8642
nak,	-10.8643
▁klima	-10.8644
mmen	-10.8645
erar	-10.8647
▁slot	-10.8653
▁aspekter	-10.8654
▁belangrijkste	-10.8654
▁reduce	-10.8655
прав	-10.8655
▁É	-10.8662
▁wszystkich	-10.8663
haft	-10.8663
▁heren,	-10.8663
ös	-10.8665
▁Además	-10.8666
▁gute	-10.8666
▁liber	-10.8666
▁technologi	-10.8666
▁moeilijk	-10.8667
wirtschaft	-10.8667
öv	-10.8667
nner	-10.8667
▁solución	-10.8669
▁comercio	-10.8669
bod	-10.8669
▁taking	-10.8669
dores	-10.8669
▁sort	-10.8671
▁vækst	-10.8672
▁dernière	-10.8673
▁laikā	-10.8675
▁ühe	-10.8675
īs	-10.8678
▁týchto	-10.8679
▁riforma	-10.8681
▁Maastricht	-10.8682
▁Musíme	-10.8682
▁piano	-10.8686
▁compens	-10.8687
nat	-10.869
▁Ku	-10.8692
▁evidente	-10.8692
▁gri	-10.8695
▁Ende	-10.8695
▁tenu	-10.8697
▁Antwort	-10.8697
▁aug	-10.8698
▁besser	-10.8699
▁nødt	-10.87
▁rela	-10.87
▁styr	-10.87
▁votazione	-10.8701
idades	-10.8704
▁immers	-10.8705
▁accordi	-10.8707
▁беше	-10.8708
▁Ziele	-10.8708
▁programu	-10.8709
▁puesto	-10.8713
▁Haus	-10.8714
▁nap	-10.8716
▁share	-10.8717
▁ψηφοφορία	-10.8717
-P	-10.8717
kken	-10.8719
▁Unter	-10.8719
▁deshalb	-10.872
sal	-10.872
▁création	-10.8721
▁exige	-10.8722
▁anders	-10.8723
opera	-10.8723
▁nämligen	-10.8724
▁regio	-10.8726
▁ago	-10.8727
▁pea	-10.8728
▁2007.	-10.8732
▁lepingu	-10.8732
▁uddannelse	-10.8732
▁Pra	-10.8733
▁glæder	-10.8733
▁oleme	-10.8734
▁langt	-10.8734
▁θέματα	-10.8739
▁create	-10.8741
▁viser	-10.8741
fér	-10.8742
▁handelt	-10.8744
▁número	-10.8744
▁mentre	-10.8744
▁biztos	-10.8745
▁soort	-10.8745
segu	-10.8747
▁visar	-10.8747
ție	-10.8747
▁Inoltre	-10.8749
table	-10.8749
▁además	-10.875
gia	-10.875
▁nødvendige	-10.8752
ματα	-10.8753
bus	-10.8754
▁gehouden	-10.8756
▁ocupa	-10.8757
▁draft	-10.8758
▁parlamentets	-10.8759
▁transparent	-10.8761
ībā	-10.8763
mų	-10.8764
▁période	-10.8764
sim	-10.8767
ųjų	-10.8767
▁waarbij	-10.8768
▁økonomi	-10.8769
▁vervoer	-10.8769
▁India	-10.8769
▁ονόματος	-10.8771
▁conclusion	-10.8773
▁food	-10.8773
▁gew	-10.8774
▁l'avenir	-10.8775
▁innerhalb	-10.8776
▁μας.	-10.8776
▁evropské	-10.8777
colo	-10.878
▁un’	-10.8781
▁Pi	-10.8783
▁akik	-10.8783
▁agr	-10.8785
▁weiterhin	-10.8786
▁Comisia	-10.8787
▁musimy	-10.8789
jär	-10.879
▁intresse	-10.879
▁mesi	-10.879
▁trots	-10.8791
cev	-10.8792
▁actuellement	-10.8792
▁stanowi	-10.8797
▁stessa	-10.8799
▁Kyoto	-10.8799
▁session	-10.8799
ιμ	-10.8801
▁Comisario,	-10.8803
▁mivel	-10.8806
▁speci	-10.8807
▁štátov	-10.8809
▁technische	-10.8809
▁Tatsache	-10.8809
▁outre	-10.8811
▁zakresie	-10.8812
üh	-10.8814
▁zne	-10.8815
γκ	-10.8817
ше	-10.8818
▁velik	-10.882
▁Asuntos	-10.8822
▁appel	-10.8824
von	-10.883
▁komisjon	-10.8833
vert	-10.8834
▁betona	-10.8835
▁resto	-10.8837
▁Staten	-10.8838
▁finanšu	-10.884
▁procedur	-10.8843
▁gebieden	-10.8843
▁d'abord	-10.8843
spekt	-10.8849
▁tien	-10.8852
▁tieto	-10.8853
▁dialogo	-10.8855
ese	-10.8855
inte	-10.8856
▁fiskeri	-10.8857
▁nez	-10.8858
▁aspectos	-10.8859
qué	-10.8859
programm	-10.886
politikken	-10.886
▁fler	-10.8861
▁debates	-10.8862
▁animal	-10.8863
ï	-10.8863
▁esencial	-10.8864
darb	-10.8867
▁mare	-10.887
▁nauj	-10.887
trauk	-10.8871
una	-10.8872
▁Text	-10.8873
▁demander	-10.8874
▁2020.	-10.8874
▁partir	-10.8875
▁Gaza	-10.8878
▁You	-10.8882
ther	-10.8884
▁souligner	-10.8885
▁negoci	-10.8887
▁stiamo	-10.8889
ējā	-10.889
▁adoptar	-10.889
▁veliko	-10.8891
▁fortsætte	-10.8891
▁není	-10.8892
▁gerade	-10.8894
▁Ezért	-10.8898
▁material	-10.8899
▁solidarity	-10.8901
tid	-10.8901
▁medicin	-10.8902
rus	-10.8902
▁bestemmelser	-10.8902
▁meest	-10.8904
fat	-10.8907
wor	-10.891
▁progres	-10.891
▁σημαντική	-10.8911
gift	-10.8915
▁económico	-10.8917
άγ	-10.8919
▁όλους	-10.8922
▁words	-10.8926
▁lungo	-10.8927
▁participation	-10.893
pin	-10.8932
θέ	-10.8932
▁consumidores	-10.8933
▁front	-10.8934
less	-10.8934
▁πολιτών	-10.8935
▁Parti	-10.8938
▁GUE/NGL	-10.8942
▁prevede	-10.8942
▁quant	-10.8943
▁zetten	-10.8943
▁gaz	-10.8944
om.	-10.8944
▁nové	-10.8946
▁juist	-10.8947
ating	-10.8947
–	-10.8947
▁bolo	-10.8948
▁šia	-10.8949
▁contact	-10.8951
▁presidente	-10.8953
teurs	-10.8955
stelling	-10.8955
▁illegale	-10.8955
▁jen	-10.896
▁kompromiss	-10.8961
ordförandeskapet	-10.8961
trag	-10.8962
▁formål	-10.8965
▁Tag	-10.8966
▁mandato	-10.8968
φων	-10.897
▁unique	-10.8971
periode	-10.8974
▁zdaj	-10.8974
truk	-10.8975
EC	-10.8976
▁kteří	-10.8976
▁pone	-10.8976
σω	-10.8977
ūr	-10.8978
▁synes	-10.898
ish	-10.8981
▁biztonság	-10.8982
wel	-10.8984
υτ	-10.8984
▁april	-10.8985
▁gy	-10.8985
rb	-10.8986
▁návrhu	-10.8986
jící	-10.8987
▁refiere	-10.8987
▁možné	-10.8987
▁Komisie	-10.8988
▁Questa	-10.8988
▁(FI)	-10.899
šanās	-10.8991
ωρ	-10.8992
▁interesser	-10.8993
▁nõu	-10.8994
ając	-10.8995
▁indføre	-10.9
▁firm	-10.9001
▁juli	-10.9001
▁vorm	-10.9002
▁zásad	-10.9003
sprocedure	-10.9006
▁buon	-10.9007
▁consulta	-10.9008
▁kampen	-10.9011
▁gestimmt	-10.9011
eren.	-10.9012
▁verzoek	-10.9014
.000	-10.9016
▁paix	-10.9016
▁påpeka	-10.9016
▁procedures	-10.9018
▁såsom	-10.9021
ités	-10.9021
▁Ausschuss	-10.9022
▁parter	-10.9022
▁kuris	-10.9023
▁rättsliga	-10.9024
▁skaidr	-10.9025
amiento	-10.9029
▁interés	-10.903
▁elektr	-10.9033
žu	-10.9034
sector	-10.9034
▁breve	-10.9035
▁noodzakelijk	-10.9036
▁energetic	-10.9036
iek	-10.9037
▁Ausschusses	-10.9038
▁Daher	-10.904
▁formal	-10.904
▁différents	-10.9041
▁befolkningen	-10.9042
▁schaffen	-10.9042
▁bre	-10.9044
▁pomembno	-10.9044
▁deuxième	-10.9045
▁erreichen	-10.9046
ucht	-10.9048
ότητας	-10.9048
▁seguito	-10.9049
▁prístup	-10.9049
ени	-10.9049
icul	-10.9052
▁rada	-10.9054
▁säger	-10.9054
▁true	-10.9057
στε	-10.9058
▁najmä	-10.9058
dama	-10.9059
▁nėra	-10.906
▁arengu	-10.906
▁initiatives	-10.9061
transport	-10.9063
▁dem,	-10.9063
▁field	-10.9065
▁penge	-10.9066
idas	-10.9067
▁progrès	-10.9068
▁ziņojumu	-10.9068
▁dvs.	-10.9068
ā.	-10.9068
▁viz	-10.9069
▁miembro	-10.9069
▁getroffen	-10.9071
▁padar	-10.9072
ția	-10.9072
▁rat	-10.9072
▁each	-10.9074
▁důležité	-10.9076
▁väčš	-10.9076
▁apoyar	-10.9076
▁ευρωπαϊκή	-10.9076
μέ	-10.9076
bol	-10.9082
mad	-10.9083
▁art	-10.9085
▁direkte	-10.9087
▁Government	-10.9088
▁while	-10.9088
▁voorkomen	-10.9088
▁uur	-10.9091
▁Verhandlungen	-10.9093
▁täna	-10.9093
▁angenommen	-10.9093
▁Polen	-10.9093
▁medel	-10.9094
erat	-10.9095
▁souvent	-10.9095
бе	-10.9097
▁gestione	-10.9097
slutning	-10.9097
τος	-10.9098
▁politikos	-10.9099
▁libera	-10.9102
50	-10.9104
▁(S	-10.9105
▁economico	-10.9106
▁millioner	-10.9108
▁vej	-10.911
▁coordin	-10.9111
▁ένας	-10.9112
▁dôležité	-10.9113
▁két	-10.9115
▁obecn	-10.9116
▁müssen.	-10.9116
▁hoofd	-10.9117
ργ	-10.9118
▁geachte	-10.9118
▁fil	-10.9119
▁ramen	-10.9119
▁είμαστε	-10.9124
▁stre	-10.9124
▁Låt	-10.9125
kning	-10.9128
▁financement	-10.9129
що	-10.9129
▁abychom	-10.9131
▁mass	-10.9133
bank	-10.9135
▁Italien	-10.9136
igung	-10.9137
▁σύστημα	-10.9137
▁gl	-10.9138
▁Gli	-10.9139
nosť	-10.9142
onderhandelingen	-10.9143
▁afgelopen	-10.9143
▁tillsammans	-10.9143
▁bedrijven	-10.9145
esc	-10.9145
▁membro	-10.9146
iej	-10.9148
▁rien	-10.915
▁totale	-10.9151
▁organisationer	-10.9152
▁stå	-10.9152
▁organi	-10.9152
▁resultaten	-10.9155
dacht	-10.9155
▁Mus	-10.9156
▁základ	-10.9156
▁stellt	-10.9157
lægge	-10.9158
▁bene	-10.916
zar	-10.9161
mēr	-10.9162
▁concerns	-10.9163
▁competition	-10.9163
и,	-10.9163
eho	-10.9164
used	-10.9165
▁method	-10.9166
▁året	-10.9166
▁Gemeenschap	-10.9167
▁skridt	-10.9167
▁kommission	-10.9168
▁personale	-10.9168
▁více	-10.9168
▁soziale	-10.9169
▁vod	-10.9169
▁clair	-10.9172
▁klausimu	-10.9172
▁poi	-10.9172
▁време	-10.9173
▁gegeven	-10.9173
▁válság	-10.9175
▁practice	-10.9178
EF	-10.9179
cca	-10.9179
▁ко	-10.918
▁werknemers	-10.9181
▁през	-10.9183
▁cieľom	-10.9186
▁fatta	-10.9186
▁längre	-10.9188
lade	-10.9188
▁aplica	-10.9188
▁concorrenza	-10.9189
▁túto	-10.9191
▁Vad	-10.9192
▁peace	-10.9193
▁přístup	-10.9194
änk	-10.9196
▁live	-10.9196
▁press	-10.9197
sproces	-10.9197
▁nekā	-10.9197
▁sidan	-10.9198
▁viss	-10.9198
▁Liberal	-10.9198
▁opgave	-10.9198
▁aceste	-10.9199
▁πω	-10.92
▁pueblo	-10.9202
▁tab	-10.9203
▁wijzen	-10.9204
▁onderwerp	-10.9205
▁parlamentari	-10.9205
▁По	-10.9207
nica	-10.9208
▁konkurrens	-10.9209
▁Ji	-10.9209
▁ultimi	-10.921
▁3.	-10.921
nehmen	-10.9211
▁estrema	-10.9212
▁G20	-10.9214
own	-10.9215
▁compr	-10.9216
▁300	-10.9216
▁población	-10.9218
▁dacă	-10.9219
▁nich	-10.9224
fu	-10.9226
pus	-10.9227
▁tillgång	-10.9227
▁gilt	-10.9228
▁funds	-10.9228
▁bereit	-10.9228
vede	-10.9229
▁neid	-10.9232
▁single	-10.9233
пе	-10.9234
▁univers	-10.9234
▁involved	-10.9236
▁susi	-10.9237
▁cro	-10.9238
▁mond	-10.9239
▁Francia	-10.9239
▁coordination	-10.924
▁kus	-10.924
▁children	-10.9242
▁χωρών	-10.9245
▁alto	-10.9246
▁solidar	-10.9247
▁nuvarande	-10.9248
▁със	-10.9248
stā	-10.9249
▁oog	-10.925
▁consumenten	-10.9252
▁Kui	-10.9252
▁juba	-10.9254
▁permanente	-10.9254
πε	-10.9255
▁esfuerzos	-10.9256
▁commerce	-10.9258
sioon	-10.9259
▁mert	-10.9261
▁arbeta	-10.9261
▁feel	-10.9262
itud	-10.9262
▁zejména	-10.9265
▁kaasa	-10.9267
▁waarvan	-10.9269
▁posti	-10.9271
▁siekiant	-10.9273
▁totalmente	-10.9276
▁Diskussion	-10.9278
▁había	-10.9278
wal	-10.928
▁aver	-10.9281
▁lik	-10.9283
fü	-10.9284
έσ	-10.9284
▁bor	-10.9285
▁práce	-10.9286
▁hold	-10.9288
▁propri	-10.9288
zel	-10.9289
aż	-10.929
▁life	-10.929
▁relaciones	-10.929
▁einigen	-10.9293
tavad	-10.9294
▁skydd	-10.9294
▁Tre	-10.9294
Π	-10.9295
valt	-10.9296
4-0	-10.9296
▁Präsident	-10.9297
ému	-10.9298
▁članice	-10.9298
avo	-10.9301
▁vero	-10.9301
се	-10.9302
πλ	-10.9303
vest	-10.9303
istische	-10.9304
abile	-10.9306
▁mondial	-10.9306
▁celui	-10.9307
▁πλέον	-10.9309
▁politiek	-10.9309
▁hor	-10.9311
▁qu'une	-10.9311
▁permanent	-10.9312
ela	-10.9315
▁toepassing	-10.9316
▁didel	-10.9318
zahl	-10.9326
▁domanda	-10.9327
τεί	-10.9331
▁længere	-10.9333
▁arrest	-10.9334
▁närvarande	-10.9335
▁Schulz	-10.9335
avad	-10.9337
▁International	-10.934
▁Strasbourg	-10.9341
stånd	-10.9341
▁Γ	-10.9343
āciju	-10.9344
gestellt	-10.9344
uses	-10.9347
äst	-10.9351
▁sollen	-10.9352
▁opmærksom	-10.9353
▁incident	-10.9355
gni	-10.9356
ibile	-10.9356
▁formand	-10.9358
▁bieden	-10.9362
▁aura	-10.9363
ovanje	-10.9364
zetten	-10.9364
▁former	-10.9365
▁vengono	-10.9367
jük	-10.9368
▁visserij	-10.9369
▁réforme	-10.9369
▁arutelu	-10.9371
bili	-10.9372
▁cilj	-10.9374
▁données	-10.9375
▁pose	-10.9376
▁demokratisk	-10.9377
▁trouver	-10.9379
▁Volk	-10.9379
▁denke	-10.9381
rnos	-10.9381
▁verifica	-10.9383
▁brist	-10.9385
▁działania	-10.9385
▁ledamöter	-10.9387
▁aucune	-10.9387
▁lösning	-10.9388
▁Proto	-10.9389
ities	-10.9392
▁gemacht	-10.9393
▁crecimiento	-10.9397
▁error	-10.9399
vention	-10.94
▁Fund	-10.9402
rais	-10.9402
▁Affairs	-10.9404
▁dohod	-10.9404
▁προτάσεις	-10.9406
▁röstade	-10.9406
▁Komisije	-10.9406
tina	-10.9407
▁dell’Unione	-10.9408
▁comporta	-10.9409
▁krisen	-10.941
▁beiden	-10.9418
▁samtidig	-10.9419
ását	-10.9419
▁vedno	-10.9421
▁présenté	-10.9422
▁migliorare	-10.9423
▁zlasti	-10.9423
▁Of	-10.9424
▁avait	-10.9425
▁Amendment	-10.9425
▁organisation	-10.9425
▁reglamento	-10.9426
▁között	-10.9427
▁ελ	-10.9431
▁limite	-10.9434
ává	-10.9435
ран	-10.9436
▁november	-10.9436
▁workers	-10.9436
ät	-10.9438
▁signora	-10.9439
▁fair	-10.9442
▁Verbesserung	-10.9443
▁mí	-10.9443
jām	-10.9443
ctiv	-10.9445
zw	-10.9446
▁toutefois	-10.9446
urilor	-10.9446
punt	-10.9448
▁punti	-10.9449
stup	-10.9451
▁στόχο	-10.9452
oja	-10.9453
▁entra	-10.9455
▁growth	-10.9456
▁dado	-10.9457
▁Iraq	-10.9457
acij	-10.9459
▁attenzione	-10.9459
▁Belarus	-10.9459
▁hjælp	-10.946
▁mat	-10.9462
nä	-10.9462
▁termes	-10.9462
▁domaines	-10.9462
aan	-10.9468
▁είχε	-10.947
▁objectives	-10.9472
▁omkring	-10.9472
▁ges	-10.9473
▁terwijl	-10.9474
▁απόφαση	-10.9474
▁ACP	-10.9474
▁affaires	-10.9475
▁todėl	-10.9475
udvalget	-10.9476
vig	-10.9476
▁fejl	-10.9479
μη	-10.948
▁systeem	-10.948
▁naturalmente	-10.9481
▁having	-10.9482
▁colegas	-10.9482
▁mieux	-10.9483
import	-10.9483
▁prioritet	-10.9483
▁eriti	-10.9484
▁syfte	-10.9485
▁asupra	-10.9485
τικά	-10.9487
▁Constitution	-10.9488
▁renforcer	-10.9488
▁toler	-10.949
▁πραγματικά	-10.949
▁nedo	-10.9491
▁Rusia	-10.9492
-e	-10.9496
gad	-10.9496
▁Regionen	-10.9497
▁précis	-10.9498
▁kormány	-10.95
▁message	-10.9505
▁komisar	-10.9511
ļa	-10.9512
▁Lisbon	-10.9512
▁Barroso,	-10.9514
▁établi	-10.9514
▁Tout	-10.9516
▁stater	-10.9517
▁nimel	-10.9518
▁waarde	-10.9521
▁έτσι	-10.9521
mysl	-10.9521
▁possibilité	-10.9523
▁report.	-10.9523
▁prise	-10.9525
ân	-10.9525
▁bevis	-10.9525
▁lehet	-10.9525
▁będą	-10.9526
euro	-10.9526
▁tyto	-10.9526
cri	-10.953
▁job	-10.9531
▁Erweiterung	-10.9531
▁attraverso	-10.9531
▁skäl	-10.9532
▁temu	-10.9532
▁eelarve	-10.9534
▁Dialog	-10.9534
▁infatti	-10.9534
ña	-10.9536
ίζεται	-10.9537
▁geloof	-10.9537
▁vise	-10.9538
▁all’	-10.9538
ndus	-10.9538
like	-10.9542
▁insieme	-10.9543
▁sca	-10.9543
▁efecto	-10.9543
▁δημιουργία	-10.9545
▁obnov	-10.9545
▁följd	-10.9546
εν	-10.9548
erna.	-10.9549
bereich	-10.955
▁companies	-10.9552
▁non-	-10.9553
stellung	-10.9554
▁Rück	-10.9556
▁steunen	-10.9556
skega	-10.9556
osios	-10.9557
▁ningún	-10.9559
▁s-a	-10.9562
▁sett	-10.9565
jav	-10.9565
▁krise	-10.9566
▁verksamhet	-10.9567
▁among	-10.9569
▁objective	-10.9569
▁weit	-10.957
▁dohody	-10.9571
čno	-10.9571
▁spr	-10.9574
▁χρήση	-10.9574
▁lequel	-10.9574
ments	-10.9574
▁collègues	-10.9575
▁territorio	-10.9581
▁vaak	-10.9583
▁unterstützt	-10.9584
▁ίδια	-10.9584
hav	-10.9584
▁fully	-10.9586
god	-10.9592
ások	-10.9594
▁Verts/ALE	-10.9595
▁créer	-10.9597
θη	-10.9597
▁vál	-10.9597
▁prezent	-10.9599
▁svarīgi	-10.9599
▁produzione	-10.9602
▁gezondheid	-10.9603
▁beskytte	-10.9603
▁aangenomen	-10.9607
▁personlig	-10.9608
▁majority	-10.9615
▁stabilitet	-10.9615
▁Inter	-10.9616
▁leta	-10.9616
▁oluline	-10.9617
▁Har	-10.9618
samling	-10.9618
▁visas	-10.9619
▁leda	-10.962
▁stress	-10.962
▁diskrimin	-10.962
▁siendo	-10.9621
vano	-10.9621
iškai	-10.9622
ologi	-10.9623
čia	-10.9623
▁Comisión,	-10.9625
▁conjunto	-10.9625
care	-10.9626
▁akkoord	-10.9626
heten	-10.9627
▁oplysninger	-10.9628
▁sprake	-10.963
▁έργο	-10.9632
▁vald	-10.9634
▁J'	-10.9635
▁eks	-10.9635
erer	-10.9636
▁exclu	-10.9636
▁Binnenmarkt	-10.9637
▁genomför	-10.9637
ēs	-10.9639
▁τους.	-10.9641
01	-10.9642
▁finden	-10.9642
ď	-10.9642
▁področju	-10.9643
▁vogliamo	-10.9644
zor	-10.9645
▁membres.	-10.9646
kin	-10.9647
▁n.	-10.9648
▁Cor	-10.9649
▁amendment	-10.9654
dring	-10.9656
▁których	-10.9656
samma	-10.9657
oor	-10.9658
tsiooni	-10.9658
▁tutta	-10.9659
øj	-10.966
▁ellos	-10.966
ύρ	-10.9662
▁vprašanje	-10.9665
▁mantener	-10.9665
▁request	-10.9667
οκ	-10.9669
vre	-10.9669
zik	-10.9669
▁ninguna	-10.967
▁interior	-10.967
mest	-10.967
▁diálogo	-10.9675
▁objectif	-10.9676
▁moyen	-10.9677
▁único	-10.9678
ņu	-10.968
▁verkeer	-10.9682
vērt	-10.9682
die	-10.9684
▁concreto	-10.9685
sign	-10.9686
▁Ben	-10.9687
▁passo	-10.9688
▁Bl	-10.969
▁bereiken	-10.9691
ovaní	-10.9691
▁realiz	-10.9692
▁gemensam	-10.9693
ane	-10.9694
▁danken	-10.9695
▁potential	-10.9695
εργ	-10.9695
▁geworden	-10.9696
▁vide	-10.9697
kod	-10.9697
▁Institutionen	-10.9698
▁toegang	-10.9698
▁principes	-10.9698
▁enfants	-10.9699
▁ούτε	-10.9701
▁unije	-10.9702
fä	-10.9703
▁κοινή	-10.9707
▁peuple	-10.9707
▁vasta	-10.9707
▁bestaan	-10.9709
ajú	-10.9709
▁promote	-10.9709
▁semana	-10.9713
▁sei	-10.9713
▁Président	-10.9713
owy	-10.9714
▁kann,	-10.9714
▁všech	-10.9715
▁парламент	-10.9715
▁øjeblikket	-10.9716
▁lograr	-10.9717
▁skr	-10.9717
▁saistībā	-10.9718
▁Tie	-10.9718
▁Lisbonne	-10.9719
▁vist	-10.9719
almente	-10.972
▁siger	-10.9721
ξη	-10.9721
▁corr	-10.9725
▁quality	-10.9725
▁Jahres	-10.9727
▁stap	-10.9728
▁doute	-10.973
ů.	-10.9731
▁raha	-10.9731
ního	-10.9734
jev	-10.9737
▁education	-10.9737
rac	-10.9739
▁bilateral	-10.9741
▁valstu	-10.9741
▁off	-10.9741
iant	-10.9741
▁Transport	-10.9742
▁Ukraine	-10.9743
▁άλλη	-10.9743
▁confi	-10.9744
▁panu	-10.9744
jal	-10.9745
▁tomu,	-10.9748
▁mě	-10.975
▁αρχή	-10.975
▁sign	-10.975
arsi	-10.9751
▁Vereinigte	-10.9752
anja	-10.9753
▁tvivl	-10.9753
▁transform	-10.9754
tuse	-10.9754
▁forse	-10.9755
▁maakt	-10.9757
hne	-10.976
▁continent	-10.9761
▁ringraziare	-10.9761
kami	-10.9761
▁tillfälle	-10.9763
jących	-10.9764
▁byl	-10.9767
▁pil	-10.9768
▁anterior	-10.9768
αφ	-10.9768
▁juste	-10.9769
iem.	-10.977
▁Kultur	-10.977
▁importanza	-10.9772
▁letter	-10.9773
▁étant	-10.9774
▁décisions	-10.9775
▁във	-10.9776
▁Toutefois	-10.9778
bla	-10.9778
▁πρόγραμμα	-10.978
▁risque	-10.9782
ők	-10.9783
▁six	-10.9785
▁Bevölkerung	-10.9787
hk	-10.979
▁tidspunkt	-10.979
▁lång	-10.9791
istas	-10.9791
▁accident	-10.9792
▁ragione	-10.9792
▁år,	-10.9794
regler	-10.9794
ат	-10.9795
▁spesso	-10.9796
▁Ett	-10.9796
▁viena	-10.9796
▁dossier	-10.9797
▁keer	-10.9797
%	-10.9798
▁Denna	-10.9801
▁sostenere	-10.9802
▁strict	-10.9802
▁Gra	-10.9802
▁zato	-10.9803
koha	-10.9803
▁quelli	-10.9804
▁bal	-10.9805
▁praegu	-10.9807
▁mens	-10.9807
▁Κατά	-10.9807
▁States,	-10.9807
▁chcel	-10.9807
kup	-10.9808
▁proposito	-10.9808
ява	-10.9809
▁sprechen	-10.9814
▁urgente	-10.9822
▁parlamendi	-10.9822
▁meilleure	-10.9823
▁sol	-10.9824
▁majd	-10.9825
▁един	-10.9827
▁trattato	-10.9827
▁betydelse	-10.9829
▁centr	-10.983
▁miejsc	-10.9831
ėms	-10.9831
▁convention	-10.9834
schlag	-10.9834
▁prawa	-10.9835
▁protect	-10.9837
zés	-10.9838
▁lot	-10.9838
▁sāk	-10.9838
▁voorbeeld	-10.9839
▁uniós	-10.984
ható	-10.984
▁dámy	-10.9841
▁Auswirkungen	-10.9843
▁behandla	-10.9844
ώντας	-10.9845
▁członkowskie	-10.9846
▁salute	-10.9848
splan	-10.9849
▁kræver	-10.985
▁transfer	-10.9852
▁supuesto	-10.9852
▁d'être	-10.9853
▁produc	-10.9853
▁genoeg	-10.9854
▁nok	-10.9855
▁definition	-10.9855
▁discrimination	-10.9856
▁esempio,	-10.9856
▁mañana	-10.9856
▁middel	-10.9856
▁vidta	-10.9857
▁Fra	-10.9858
și	-10.9861
▁leder	-10.9862
▁Frontex	-10.9863
▁ми	-10.9863
▁contesto	-10.9864
▁potrebné	-10.9865
▁opfattelse	-10.9866
-gruppen	-10.9868
▁résultats	-10.9869
▁acerca	-10.9872
ordi	-10.9873
▁sektori	-10.9873
▁stabilit	-10.9875
▁affect	-10.9878
▁begrænse	-10.9879
▁discussions	-10.9879
▁δυνατότητα	-10.988
▁annan	-10.9881
▁άλλα	-10.9882
▁l'emploi	-10.9883
▁following	-10.9885
▁foretage	-10.9887
▁zde	-10.9888
▁povedal	-10.9889
▁praktisk	-10.989
organisation	-10.9891
▁stopp	-10.9891
▁Hay	-10.9893
δι	-10.9893
trä	-10.9897
schutz	-10.9897
▁Demokrat	-10.9897
▁megállapodás	-10.9898
vali	-10.9901
▁1990	-10.9901
▁celle	-10.9901
▁hon	-10.9901
▁puedan	-10.9901
▁Frieden	-10.9902
▁sprememb	-10.9902
▁firma	-10.9905
▁подкрепа	-10.9905
▁agricultural	-10.9907
gno	-10.9907
▁Lisbona	-10.9912
οδ	-10.9912
▁obiettivo	-10.9912
▁consensus	-10.9912
▁uzskatu	-10.9914
▁druh	-10.9915
dri	-10.9915
▁kül	-10.9915
▁sede	-10.9916
▁normativa	-10.9916
▁føre	-10.9916
▁azioni	-10.9916
▁tomar	-10.9917
▁producción	-10.9917
▁cs	-10.9919
▁statement	-10.9919
▁institucij	-10.992
ijas	-10.992
▁majorité	-10.9921
▁express	-10.9921
▁otázka	-10.9922
arbejde	-10.9923
▁werde	-10.9924
σχ	-10.9925
burg	-10.9925
▁appropriate	-10.9926
▁dames	-10.9927
▁past	-10.9929
ства	-10.993
▁hör	-10.9932
▁Sąjunga	-10.9933
▁fraude	-10.9933
▁answer	-10.9933
▁peut-être	-10.9934
▁Standpunkt	-10.9936
▁short	-10.9937
▁prí	-10.9938
▁teisių	-10.9939
houden	-10.994
▁Parlement.	-10.994
▁consolida	-10.994
▁ministr	-10.9941
▁vooruitgang	-10.9943
ën	-10.9944
▁deal	-10.9945
▁beim	-10.9946
rate	-10.9946
▁membri.	-10.9948
ają	-10.9952
▁migliore	-10.9952
▁éxito	-10.9953
zás	-10.9954
▁realiza	-10.9954
φρ	-10.9954
▁nombreuses	-10.9956
▁nevar	-10.9956
▁ενεργ	-10.9958
▁πολλές	-10.996
▁γνώμη	-10.9962
pot	-10.9962
▁Parlamento.	-10.9962
▁Tyrkiet	-10.9965
▁lista	-10.9965
▁aplicar	-10.9966
popul	-10.9966
far	-10.9967
▁misura	-10.997
02	-10.997
ované	-10.9972
▁meel	-10.9975
▁eredmény	-10.9976
▁Cuba	-10.9977
▁européen,	-10.9979
▁σημείο	-10.9979
▁rast	-10.998
žia	-10.9982
▁Comisaria	-10.9982
▁kriz	-10.9983
ρό	-10.9983
▁mus	-10.9984
onder	-10.9984
▁bereikt	-10.9984
▁без	-10.9984
▁européen.	-10.9986
▁september	-10.9987
▁samband	-10.9988
▁Taip	-10.9988
▁Uniunea	-10.999
▁kér	-10.999
▁Stra	-10.999
▁permettre	-10.9993
ψη	-10.9994
▁forslaget	-10.9996
▁fremtiden	-10.9999
▁significant	-11.0001
▁gospoda	-11.0002
▁Tibet	-11.0002
▁kde	-11.0003
▁soovi	-11.0004
▁distribu	-11.0004
▁punten	-11.0005
▁certainly	-11.0006
▁moyens	-11.0006
▁Interesse	-11.0007
umā	-11.0009
▁opnieuw	-11.001
▁otázky	-11.001
▁Ö	-11.001
▁další	-11.0011
▁mohli	-11.0016
▁Til	-11.0016
følge	-11.0018
▁Sud	-11.0019
ijoje	-11.0021
erea	-11.0021
▁τροπολογία	-11.0022
οποίηση	-11.0022
▁1994	-11.0024
▁urmare	-11.0024
▁Court	-11.0026
yje	-11.0028
▁würden	-11.003
▁dimostra	-11.003
▁její	-11.0031
▁lesz	-11.0031
gur	-11.0032
fonds	-11.0033
▁fund	-11.0033
▁kerül	-11.0033
▁continuare	-11.0033
hľad	-11.0034
tum	-11.0034
▁Tāpēc	-11.0039
▁retning	-11.0039
би	-11.0039
▁remercie	-11.004
▁snart	-11.0041
kli	-11.0043
▁politin	-11.0044
▁zemí	-11.0045
▁negative	-11.0046
öm	-11.0046
ljiv	-11.0047
▁informacij	-11.0047
▁próximo	-11.0051
▁Plan	-11.0052
▁Preto	-11.0052
▁strong	-11.0052
weit	-11.0054
▁Πιστεύω	-11.0055
kép	-11.0056
τυχ	-11.0056
▁danes	-11.0058
▁Turkije	-11.0058
▁tika	-11.0061
▁bereid	-11.0062
▁všetkých	-11.0067
ieren,	-11.0067
ických	-11.0068
standard	-11.0069
▁meet	-11.0071
eerde	-11.0072
▁presentar	-11.0072
tol	-11.0075
▁Var	-11.0076
ал	-11.0077
▁finants	-11.0077
▁głos	-11.0077
wol	-11.0081
▁hjælpe	-11.0081
▁ν	-11.0082
▁iedereen	-11.0084
▁posibilidad	-11.0084
▁zapo	-11.0084
▁representa	-11.0085
държавите-членки	-11.0086
▁strumento	-11.0086
▁leider	-11.0086
▁næste	-11.0087
▁ajal	-11.0088
▁medios	-11.0089
▁permite	-11.009
▁respond	-11.0093
▁diferentes	-11.0093
▁Pas	-11.0093
▁franc	-11.0093
▁návrhy	-11.0094
▁quelque	-11.0097
▁valid	-11.0098
▁leggen	-11.0098
ades	-11.0099
dige	-11.01
ieve	-11.0101
▁tjänster	-11.0103
▁12.00	-11.0104
▁mejora	-11.0104
▁välkomnar	-11.0106
):	-11.0106
▁μεγάλο	-11.0107
▁emne	-11.0108
▁võt	-11.0109
▁világ	-11.011
zí	-11.011
▁Mitglieder	-11.011
▁financiación	-11.011
▁unser	-11.0112
▁yet	-11.0112
ał	-11.0112
▁decisioni	-11.0114
▁maniera	-11.0115
▁sex	-11.0115
sicht	-11.0115
▁priority	-11.0121
▁miembros.	-11.0121
▁gruppi	-11.0126
ków	-11.0126
▁mark	-11.0126
▁dezelfde	-11.0127
▁land,	-11.0128
▁d'en	-11.013
▁paso	-11.0132
imų	-11.0132
▁ezek	-11.0132
▁πολλά	-11.0133
▁positivt	-11.0133
▁suur	-11.0135
bry	-11.0135
▁acuerdos	-11.0135
▁cerca	-11.0135
▁conclu	-11.0137
▁année	-11.0138
▁μέχρι	-11.0138
▁periode	-11.0138
▁resultados	-11.0139
▁būt	-11.014
▁Ausdruck	-11.0142
▁simply	-11.0143
▁solutions	-11.0144
ismus	-11.0144
vik	-11.0146
▁Zugang	-11.0146
ři	-11.0146
▁New	-11.0153
▁chiaro	-11.0154
▁kurz	-11.0154
▁darb	-11.0155
▁avanza	-11.0157
▁extremely	-11.0159
σει	-11.0159
▁militär	-11.0161
▁Europejska	-11.0161
▁einzu	-11.0163
▁bidrage	-11.0163
▁detail	-11.0165
▁Amerika	-11.0165
sser	-11.0166
▁run	-11.0166
▁nécessaires	-11.0166
voor	-11.0169
μον	-11.0169
váž	-11.017
prowadz	-11.017
ński	-11.0171
▁criteri	-11.0175
▁m'	-11.0176
▁kirjalikult.	-11.0176
▁αγοράς	-11.0177
▁alcun	-11.0178
τών	-11.0183
▁μεγαλύτερη	-11.0183
ateurs	-11.0184
▁vot	-11.0185
▁Spanien	-11.0185
ții	-11.0185
ære	-11.0188
führung	-11.0188
▁l'inter	-11.019
▁løse	-11.019
▁utili	-11.0191
▁aangezien	-11.0192
▁kl.	-11.0193
ising	-11.0193
▁devraient	-11.0194
▁bag	-11.0197
▁съм	-11.0198
▁gode	-11.0198
▁figure	-11.02
▁daarvan	-11.02
stående	-11.02
dě	-11.0201
▁semaine	-11.0202
▁Europejski	-11.0204
nici	-11.0206
▁darum	-11.0208
▁tagállam	-11.0212
ācija	-11.0215
▁περιοχή	-11.0217
▁wurde.	-11.0218
gne	-11.0218
▁ejercicio	-11.0218
▁ενίσχυση	-11.0218
▁seneste	-11.0219
▁въз	-11.0219
▁volinik	-11.022
σσ	-11.0222
▁γιατί	-11.0223
▁lite	-11.0223
▁ktorú	-11.0226
deel	-11.0227
▁understand	-11.0233
▁цел	-11.0234
▁Informationen	-11.0235
ów.	-11.0237
▁atbalstu	-11.0238
kład	-11.0239
▁tuto	-11.024
▁commercio	-11.0241
▁termijn	-11.0242
▁aš	-11.0243
betaling	-11.0244
▁τροπολογίες	-11.0245
▁Т	-11.0246
▁kommende	-11.0249
αστ	-11.0251
▁creazione	-11.0252
▁seul	-11.0252
▁Lisboa	-11.0252
▁vrijheid	-11.0253
▁Article	-11.0254
arios	-11.0254
▁Pred	-11.0256
▁produce	-11.0258
▁prochaine	-11.0259
τελ	-11.026
▁ebenfalls	-11.0261
gā	-11.0262
▁standards	-11.0262
▁sottolineare	-11.0263
gång	-11.0263
mina	-11.0264
▁stem	-11.0266
▁szeretném	-11.0266
▁réalité	-11.0267
▁Spe	-11.0268
▁sü	-11.0271
▁deseo	-11.0272
▁slov	-11.0273
▁constitu	-11.0273
▁choses	-11.0274
▁όλοι	-11.0274
▁Παρ	-11.0276
▁presentato	-11.0276
▁svarbu	-11.0277
▁utile	-11.0279
▁datos	-11.028
▁remain	-11.0281
▁giustizia	-11.0282
▁mellett	-11.0282
αντ	-11.0283
▁petit	-11.0285
▁appelle	-11.0287
▁aware	-11.0287
tering	-11.0288
▁sætte	-11.029
at,	-11.0297
▁krävs	-11.0298
▁afirma	-11.0298
▁adopté	-11.0299
▁säkerhets	-11.03
▁note	-11.0301
▁αύξηση	-11.0301
tega	-11.0305
▁Uniunii	-11.0305
▁Turkey	-11.0305
5%	-11.0306
▁riusci	-11.0308
▁kunde	-11.0309
anje	-11.031
stop	-11.0311
▁kapcsolatban	-11.0313
▁sprawozdania	-11.0314
▁offre	-11.0314
ίζουν	-11.0315
genomen	-11.0315
▁paket	-11.0316
owym	-11.0316
▁Mijn	-11.0316
▁Når	-11.0318
▁nástroj	-11.0319
▁Kom	-11.0321
este	-11.0322
▁seule	-11.0323
▁mogelijkheid	-11.0323
▁decisions	-11.0323
ер	-11.0325
▁øge	-11.0325
▁kommt	-11.0328
▁simplement	-11.033
▁udgør	-11.0333
μπ	-11.0334
gas	-11.0335
▁estado	-11.0335
▁ešte	-11.0336
ολογ	-11.0337
▁spi	-11.0337
▁dve	-11.0338
ство	-11.0339
▁emberi	-11.0339
▁chiede	-11.034
▁κυρίως	-11.034
▁müssen,	-11.0344
iama	-11.0345
▁occupa	-11.0347
▁kinderen	-11.0347
▁padėti	-11.0347
▁demonstr	-11.0348
▁alap	-11.0351
▁arv	-11.0351
▁dort	-11.0353
▁hora	-11.0354
▁centre	-11.0354
ήματα	-11.0356
▁opposition	-11.0357
▁problémy	-11.0358
▁content	-11.036
▁titre	-11.0364
▁nieuw	-11.0365
▁dati	-11.0367
▁celebra	-11.0367
▁Enfin	-11.0368
▁märk	-11.0371
▁reg	-11.0371
▁eksport	-11.0375
▁dag,	-11.0377
▁först	-11.038
▁organiza	-11.0382
▁zin	-11.0382
▁joint	-11.0384
▁terecht	-11.0385
▁közötti	-11.0386
bul	-11.0388
▁dell'onorevole	-11.039
▁τομείς	-11.039
97	-11.0391
łu	-11.0392
▁geleden	-11.0392
▁E’	-11.0393
▁governi	-11.0394
fug	-11.0394
efter	-11.0394
▁bajo	-11.0395
ност	-11.0396
▁weniger	-11.0399
▁strumenti	-11.0399
▁ønske	-11.04
▁fuldt	-11.0401
▁stille	-11.0402
uß	-11.0403
▁Programme	-11.0403
▁kräver	-11.0403
tning	-11.0409
▁utarbeta	-11.041
▁Steuer	-11.0412
▁vielen	-11.0413
▁evitar	-11.0414
▁juhataja!	-11.0414
old	-11.0415
▁urge	-11.0415
▁sok	-11.0415
▁exterior	-11.0415
▁σημασία	-11.0418
▁område.	-11.0418
▁fisk	-11.042
хме	-11.0423
vand	-11.0424
▁grænse	-11.0426
▁reducir	-11.0428
gning	-11.0429
▁valori	-11.0429
▁ασφάλεια	-11.0433
▁Bas	-11.0433
▁beispielsweise	-11.0433
▁Meine	-11.0434
cial	-11.0434
şti	-11.0434
ására	-11.0437
▁stal	-11.0437
▁parlamenta	-11.0437
▁normes	-11.0437
▁geweld	-11.0439
▁sean	-11.0442
ovania	-11.0444
▁sket	-11.0445
last	-11.0446
koz	-11.0446
▁určit	-11.0447
▁šalių	-11.0448
вър	-11.045
raum	-11.045
▁pensa	-11.045
▁Lib	-11.0453
▁jasno	-11.0453
roepen	-11.0454
▁възможност	-11.0457
▁právní	-11.0457
▁establecer	-11.0458
▁jde	-11.046
▁accords	-11.0462
▁φορά	-11.0464
▁considerable	-11.0466
▁tycker	-11.0466
▁cadrul	-11.0466
▁sådant	-11.0468
▁banan	-11.0468
▁nadzor	-11.0469
ierte	-11.0469
pă	-11.047
▁escala	-11.0471
▁Ter	-11.0472
▁dinero	-11.0473
▁sku	-11.0474
▁genere	-11.0476
▁behandling	-11.0476
▁vu	-11.048
▁Förderung	-11.0484
▁popolazione	-11.0484
-il	-11.0485
▁πρώτη	-11.0486
ighed	-11.0486
ram	-11.0487
▁transit	-11.0488
ба	-11.0489
vang	-11.0489
▁сме	-11.049
▁διε	-11.049
▁origin	-11.049
▁jim	-11.049
ender	-11.0492
▁tenido	-11.0493
▁οδηγία	-11.0494
▁kandidat	-11.0496
▁haut	-11.0496
júci	-11.0499
ží	-11.0501
▁alltså	-11.0502
▁Till	-11.0502
▁entendu	-11.0503
ėme	-11.0504
▁régime	-11.0508
▁Ratspräsident	-11.0509
▁pratique	-11.051
kend	-11.051
▁4,	-11.0511
träge	-11.0512
ského	-11.0514
▁euró	-11.0514
▁hoog	-11.0516
▁vijf	-11.0518
▁Industrie	-11.0518
ikus	-11.0518
▁sommige	-11.0521
▁CE	-11.0523
▁individu	-11.0523
kund	-11.0524
▁predstav	-11.0525
▁durable	-11.0526
▁Martin	-11.0527
▁agreements	-11.0527
▁Mol	-11.0528
▁responsable	-11.0529
▁αποτέλεσμα	-11.0529
▁største	-11.0529
cle	-11.053
▁komen.	-11.0531
▁resurs	-11.0532
▁ορισμένες	-11.0533
▁fått	-11.0533
ф	-11.0533
▁visų	-11.0536
▁srityje	-11.0536
▁discussie	-11.0537
▁dedica	-11.0537
▁kuras	-11.0538
▁projets	-11.0539
▁avuto	-11.0542
▁propre	-11.0542
▁lämna	-11.0545
schuldig	-11.0546
▁mate	-11.0546
remos	-11.0549
pé	-11.0551
▁invita	-11.0552
pir	-11.0553
жа	-11.0557
▁hållbar	-11.0558
▁bruge	-11.0559
▁preuve	-11.056
ήσεων	-11.0562
▁Και	-11.0563
▁tagit	-11.0566
laik	-11.0567
▁parlamenti	-11.0571
▁Ú	-11.0571
elen	-11.0572
▁inspanningen	-11.0575
▁permet	-11.0575
δα	-11.0575
overensstemmelse	-11.0578
▁Turquía	-11.0578
▁75	-11.0579
▁EP	-11.0579
slagen	-11.0579
anske	-11.0579
ωση	-11.0579
īv	-11.058
▁countries.	-11.0581
▁ли	-11.0581
▁legislazione	-11.0582
▁proprie	-11.0582
▁utvecklingen	-11.0582
ėmis	-11.0584
▁lidt	-11.0588
▁link	-11.0591
▁qu'un	-11.0592
▁vás	-11.0594
▁Zimbabwe	-11.0594
▁linea	-11.0595
▁qualche	-11.0598
▁dovrebbero	-11.0599
▁küsimus	-11.06
τερα	-11.0601
▁Europene	-11.0602
▁bedeutet	-11.0604
▁stability	-11.0605
▁Turquie	-11.0605
▁comunicación	-11.0607
sehen	-11.0607
▁Unite	-11.061
σουμε	-11.0611
▁Europy	-11.0611
SP	-11.0615
▁zda	-11.0616
ομ	-11.0619
▁comité	-11.0619
inimo	-11.0619
▁národ	-11.062
niem	-11.0621
▁betænkning,	-11.0622
▁sais	-11.0622
▁eget	-11.0624
inę	-11.0624
ēji	-11.0625
▁actually	-11.0625
▁άλλες	-11.0626
▁troppo	-11.0627
▁uue	-11.0627
▁tato	-11.0629
imenti	-11.0629
▁opatrenia	-11.0629
▁Dlatego	-11.0629
vesti	-11.0629
▁ilyen	-11.063
ledning	-11.063
▁faktum	-11.0633
▁bæredygtig	-11.0634
▁Credo	-11.0634
iscono	-11.0635
▁principios	-11.0635
▁groups	-11.0635
ίων	-11.0636
▁algemeen	-11.0637
▁Б	-11.0637
он	-11.0639
▁αγ	-11.0639
▁skol	-11.064
▁developing	-11.0642
вен	-11.0646
▁Türkei	-11.0646
▁skupin	-11.0646
▁Gesellschaft	-11.0648
▁gebruikt	-11.0648
▁enkel	-11.0649
▁seotud	-11.065
verkehr	-11.065
▁poate	-11.0651
ppi	-11.0652
▁devrions	-11.0653
▁Col	-11.0653
▁might	-11.0654
▁främst	-11.0657
ového	-11.0657
▁rząd	-11.0658
15	-11.0658
10	-11.0658
▁groupes	-11.0659
▁tulemus	-11.0661
▁balsoju	-11.0661
▁aiz	-11.0661
▁minimal	-11.0662
▁Israël	-11.0663
▁rod	-11.0664
▁На	-11.0667
▁szó	-11.0668
kiem	-11.0668
▁valstīm	-11.0669
▁proračun	-11.067
▁ευκαιρία	-11.067
▁opfylde	-11.067
▁ochranu	-11.067
▁män	-11.0671
▁muligheder	-11.0671
▁veiksm	-11.0673
▁ние	-11.0678
▁keinen	-11.0679
▁représente	-11.0679
▁gro	-11.0679
▁valutazione	-11.068
▁venir	-11.0683
▁hely	-11.0684
organisatie	-11.0684
▁scientific	-11.0684
▁often	-11.0687
▁conduct	-11.0688
▁molte	-11.0692
▁improve	-11.0693
▁schwierig	-11.0695
▁Behörden	-11.0695
▁coloro	-11.0695
▁fuera	-11.0695
bilidad	-11.0696
▁utiliza	-11.0697
▁necesitamos	-11.0699
▁Αυτή	-11.0699
▁Ahora	-11.0699
▁sensible	-11.0699
▁dispos	-11.0701
▁Fo	-11.0702
▁Och	-11.0702
▁enlargement	-11.0703
▁Budget	-11.0705
▁vrede	-11.0705
▁Kommissarin	-11.0705
▁seconda	-11.0705
▁passé	-11.0706
▁suure	-11.0706
▁υπ	-11.0706
liselt	-11.0707
▁други	-11.0707
▁stimul	-11.071
▁promet	-11.071
▁apply	-11.0712
▁solid	-11.0715
▁migr	-11.0716
▁pole	-11.0717
dauer	-11.0717
▁strada	-11.0721
ги	-11.0722
act	-11.0723
▁absurd	-11.0723
ief	-11.0725
▁religion	-11.0726
stabil	-11.0726
ciu	-11.0728
▁sensibil	-11.0728
▁nævne	-11.0729
zenie	-11.0729
▁possano	-11.0729
▁jó	-11.073
▁změn	-11.0731
lü	-11.0733
▁môže	-11.0733
▁miss	-11.0733
▁Ritengo	-11.0734
▁trasporto	-11.0736
επ	-11.0736
▁ondernemingen	-11.0737
▁tercer	-11.0737
▁suficiente	-11.0738
kti	-11.0739
▁déc	-11.0743
▁lit	-11.0744
▁explica	-11.0745
▁Russie	-11.0745
▁send	-11.0746
▁verschiedenen	-11.0746
ták	-11.0747
▁investment	-11.0747
▁gospe	-11.0748
▁maggioranza	-11.0751
▁democratische	-11.0751
▁geo	-11.0752
llo	-11.0752
▁Arbeitnehmer	-11.0753
▁Kosten	-11.0756
ču	-11.0757
▁perspectiva	-11.0758
▁fung	-11.0759
▁migrant	-11.0765
▁compromise	-11.0765
▁jelentős	-11.0765
ationer	-11.0768
færd	-11.0768
▁Gemeinschafts	-11.0769
till	-11.0769
▁arba	-11.077
▁Sektor	-11.0772
▁acht	-11.0773
▁Barcelona	-11.0773
▁éc	-11.0774
▁successo	-11.0774
▁sistemi	-11.0774
ări	-11.0776
bij	-11.0776
▁Bri	-11.0777
▁Schaffung	-11.0779
▁bestemt	-11.078
▁promuovere	-11.0781
▁bijdrage	-11.0782
▁rende	-11.0782
▁progetti	-11.0782
▁hatte	-11.0783
▁nr.	-11.0784
▁třeba	-11.0784
▁manau	-11.0786
igheid	-11.079
▁iespēja	-11.0791
▁terror	-11.0791
▁rets	-11.0791
▁akkor	-11.0794
▁sehen	-11.0796
▁givet	-11.0797
▁financière	-11.0799
▁asegurar	-11.0799
iems	-11.08
▁avanti	-11.0801
ρυ	-11.0801
dol	-11.0801
▁task	-11.0801
ieren.	-11.0802
sione	-11.0803
▁management	-11.0803
▁conclusions	-11.0804
▁meglio	-11.0805
▁jeunes	-11.0807
▁Trans	-11.0808
▁δηλαδή	-11.0808
▁humanitaire	-11.0811
▁villkor	-11.0813
ppen	-11.0813
▁Gerb.	-11.0814
▁commerciale	-11.0815
же	-11.0815
▁extern	-11.0816
▁Kontrolle	-11.0817
▁respecta	-11.0818
weisen	-11.082
▁nationaux	-11.082
▁últimos	-11.082
▁woord	-11.0825
▁etap	-11.0827
▁jobs	-11.0827
driv	-11.0828
▁κάνει	-11.0828
▁Vo	-11.0831
▁alimentaire	-11.0831
owane	-11.0832
▁μείωση	-11.0833
▁générale	-11.0834
υγ	-11.0835
▁(I	-11.0835
▁ofte	-11.0836
▁mít	-11.0837
▁norm	-11.0837
▁lijkt	-11.0839
▁κυρία	-11.084
ål	-11.0841
▁rink	-11.0842
▁agrícola	-11.0844
▁aktuelle	-11.0846
▁henhold	-11.0847
▁Comunidad	-11.085
▁C5-0	-11.0851
▁charge	-11.0853
▁diskut	-11.0853
▁podporo	-11.0853
▁exemple,	-11.0853
▁reducere	-11.0854
▁Disse	-11.0854
firm	-11.0855
▁möte	-11.0855
▁astfel	-11.0855
▁teema	-11.0855
▁týka	-11.0857
▁galima	-11.0858
▁Επίτροπε,	-11.0859
▁última	-11.0861
▁αρχ	-11.0861
▁idő	-11.0862
▁flertal	-11.0862
▁richiesta	-11.0864
▁bel	-11.0867
▁mentioned	-11.0868
▁Ryssland	-11.0868
rí	-11.087
ieron	-11.087
▁szabad	-11.087
byt	-11.0871
▁Ber	-11.0871
▁sociāl	-11.0874
▁permit	-11.0874
▁original	-11.0877
зи	-11.0878
▁Fin	-11.0879
▁available	-11.0879
▁sklad	-11.0881
mény	-11.0883
▁državah	-11.0883
▁pove	-11.0884
▁tillväxt	-11.0889
▁Beziehungen	-11.0893
▁eigenen	-11.0893
nelle	-11.0893
elige	-11.0895
▁kam	-11.0896
től	-11.0896
▁financier	-11.0896
▁Dienst	-11.0898
▁põhi	-11.0898
▁když	-11.0898
▁público	-11.0899
▁erreicht	-11.09
▁jordbruks	-11.0903
▁énergétique	-11.0904
▁oh	-11.0908
▁richtig	-11.091
▁členským	-11.091
▁līgum	-11.091
▁reca	-11.0911
▁acaba	-11.0911
ácia	-11.0911
▁kterou	-11.0911
▁responsables	-11.0912
denken	-11.0912
▁voll	-11.0912
▁fællesskabs	-11.0913
iente	-11.0914
▁liste	-11.0914
▁mention	-11.0915
▁europeas	-11.0916
dit	-11.0916
▁kap	-11.0918
▁jie	-11.0918
▁talk	-11.092
▁facilit	-11.0922
▁comunicazione	-11.0923
zol	-11.0923
▁belangen	-11.0924
veik	-11.0925
▁parler	-11.0925
▁producten	-11.0926
tief	-11.093
▁lead	-11.0931
▁svolto	-11.0932
▁besondere	-11.0932
▁jelent	-11.0933
▁Turchia	-11.0934
rin	-11.0935
▁Cer	-11.0935
▁puhul	-11.0936
overeenkomst	-11.0937
▁profession	-11.094
▁prendere	-11.0941
▁product	-11.0943
ķ	-11.0944
пи	-11.0945
▁particip	-11.0947
▁debba	-11.0948
▁stabilità	-11.0949
▁stedet	-11.0949
▁volte	-11.095
mod	-11.0951
win	-11.0951
▁Ke	-11.0952
▁l'accord	-11.0953
▁synnerhet	-11.0955
elig	-11.0955
▁bardziej	-11.0957
▁riferimento	-11.0957
▁erg	-11.0959
▁sådana	-11.096
▁clara	-11.096
ését	-11.0961
▁indeed	-11.0962
emu	-11.0963
legen	-11.0967
▁partage	-11.097
▁Verheugen	-11.097
▁report,	-11.0972
▁страна	-11.0972
▁möjligheter	-11.0974
▁eficaz	-11.0974
ιστεί	-11.0976
▁dabar	-11.0978
▁suite	-11.0979
▁demasiado	-11.0979
chter	-11.098
▁член	-11.0982
▁fundamentales	-11.0983
glas	-11.0983
▁approche	-11.0983
▁rechts	-11.0983
▁capacidad	-11.0983
▁hadden	-11.0985
▁nehmen	-11.0985
▁despre	-11.0988
▁found	-11.0988
▁socio	-11.0988
▁adhesión	-11.0989
▁tatsächlich	-11.0989
▁último,	-11.0991
▁ordet	-11.0994
▁rohkem	-11.0995
▁Dessa	-11.0996
▁Dr	-11.0998
hor	-11.0998
▁principales	-11.0999
ellen	-11.1001
▁konkur	-11.1002
▁tard	-11.1004
urt	-11.1004
▁Pertanto	-11.1004
ries	-11.1007
▁Consiglio,	-11.1007
▁demás	-11.1008
observ	-11.1009
▁Ap	-11.1009
▁Erachtens	-11.101
▁ingediend	-11.101
mir	-11.1011
▁О	-11.1012
▁blijft	-11.1013
▁spe	-11.1015
jot	-11.1016
verk	-11.1016
missie	-11.1018
▁Parliament,	-11.1019
▁pomoci	-11.1019
▁vedtage	-11.1019
ë	-11.1019
▁veic	-11.102
▁climate	-11.1021
wy	-11.1022
▁vielleicht	-11.1025
▁entend	-11.1027
▁musia	-11.1028
▁oktober	-11.1029
▁Che	-11.103
▁statele	-11.1031
▁πολιτικές	-11.1033
▁stellen.	-11.104
▁comisión	-11.1042
▁przewodniczący!	-11.1042
▁bureau	-11.1043
▁ισχύ	-11.1044
▁komisār	-11.1044
▁Δ	-11.1045
▁dessen	-11.1045
▁още	-11.1046
▁saavuta	-11.1047
▁stock	-11.1047
▁grupo	-11.105
▁režim	-11.105
▁futuro.	-11.1052
▁contexto	-11.1053
▁ľudí	-11.1054
▁prek	-11.1054
▁küsimuse	-11.1055
tume	-11.1056
▁pisni	-11.1057
▁esos	-11.1059
▁equilibrio	-11.106
▁begränsa	-11.1062
▁igual	-11.1062
cept	-11.1063
▁ordförande!	-11.1063
tab	-11.1069
▁potravin	-11.1069
▁gegevens	-11.1074
▁gest	-11.1075
▁vahel	-11.1076
▁rischio	-11.1077
▁utilizz	-11.1077
▁Ν	-11.1078
19	-11.1078
▁vold	-11.1079
▁Beitritt	-11.1079
▁contain	-11.108
▁contenu	-11.108
▁ensemble	-11.1082
▁κυρίες	-11.1082
▁използва	-11.1082
ējo	-11.1083
▁drug	-11.1083
eras	-11.1083
▁ekonomikos	-11.1084
▁currently	-11.1084
áció	-11.1085
▁Interessen	-11.1086
▁schnell	-11.1086
▁solicita	-11.1087
▁administration	-11.1087
▁istituzioni	-11.1088
▁accepter	-11.1088
▁ministre	-11.1089
hän	-11.1089
▁l'ensemble	-11.109
ētu	-11.1091
▁begrotings	-11.1093
▁misschien	-11.1094
lni	-11.1094
▁intérêts	-11.1096
▁ži	-11.1098
▁kost	-11.1098
▁Turkiet	-11.11
▁collègues,	-11.1101
▁ailleurs	-11.1102
▁επιχειρήσεις	-11.1102
▁aga	-11.1102
▁Anwendung	-11.1104
▁tiers	-11.1105
▁hodnot	-11.1105
▁qu’	-11.1106
iški	-11.1106
▁etc.	-11.1106
pí	-11.1107
▁try	-11.1109
▁herunder	-11.1111
▁ofta	-11.1111
▁problem.	-11.1111
▁βρ	-11.1112
▁giuridica	-11.1113
nten	-11.1114
▁forum	-11.1115
▁dunque	-11.1115
▁nepri	-11.1117
sorg	-11.1118
▁ganske	-11.1119
▁Freiheit	-11.1123
▁ständig	-11.1124
ifik	-11.1124
▁ενισχύ	-11.1127
▁dicha	-11.1128
ując	-11.113
treden	-11.113
▁dag.	-11.1133
▁Ω	-11.1133
▁obliki.	-11.1134
▁emb	-11.1136
gezet	-11.1136
▁aanzien	-11.114
▁σύμφωνα	-11.114
▁seinen	-11.114
▁écrit.	-11.1142
ām,	-11.1142
turi	-11.1142
īgu	-11.1143
▁ωστόσο	-11.1146
▁bilaterale	-11.1147
▁Även	-11.1148
μένη	-11.1149
ppo	-11.1149
▁protokol	-11.1149
berg	-11.115
▁írásban.	-11.115
▁dispositions	-11.115
▁Socialist	-11.1153
position	-11.1154
▁nyní	-11.1154
▁move	-11.1154
uur	-11.1155
▁rin	-11.1156
▁põllumajandus	-11.1159
▁együttműködés	-11.1161
▁wahr	-11.1161
▁abordar	-11.1162
iniai	-11.1162
lagen	-11.1162
▁κύριοι,	-11.1162
▁leid	-11.1163
▁fal	-11.1164
inį	-11.1165
сти	-11.1165
▁μας,	-11.1166
rilor	-11.1166
vist	-11.1167
ηγ	-11.1167
▁kõige	-11.1167
dui	-11.1167
▁hålla	-11.1168
▁efficient	-11.1168
▁concerning	-11.1169
ан	-11.1171
▁período	-11.1173
▁Qu	-11.1173
▁ministro	-11.1173
▁woorden	-11.1174
▁pärast	-11.1175
▁projektu	-11.1176
▁personnel	-11.1176
▁mnoho	-11.1177
pak	-11.1178
▁stabilité	-11.1178
▁Beitrag	-11.1179
▁Comisión.	-11.118
▁Reg	-11.1181
▁marchés	-11.1183
▁unei	-11.1186
▁frente	-11.1186
▁öffentlichen	-11.1186
▁κρίση	-11.1186
▁varie	-11.1188
▁stället	-11.1188
▁seoses	-11.119
▁kodanike	-11.119
▁verbetering	-11.119
eert	-11.1192
▁možnost	-11.1193
▁republik	-11.1193
▁pengar	-11.1194
pression	-11.1195
▁sprawozdanie	-11.1196
▁verbeteren	-11.1196
▁nekaj	-11.1196
▁capi	-11.1198
▁raggiungere	-11.1199
▁Irlanda	-11.1199
▁legge	-11.1199
▁klimat	-11.12
▁konsument	-11.12
χωρ	-11.1201
▁stemte	-11.1201
landen	-11.1201
▁consenso	-11.1204
▁focus	-11.1204
▁principale	-11.1206
ají	-11.1207
gebracht	-11.1207
▁ple	-11.1209
scheid	-11.1209
práv	-11.121
жда	-11.1211
▁Minu	-11.1212
döm	-11.1212
▁maken.	-11.1212
▁commercial	-11.1213
lös	-11.1214
fal	-11.1214
▁realizado	-11.1217
▁stärker	-11.1218
hab	-11.1219
▁Finally	-11.122
▁tarp	-11.122
▁panākt	-11.122
egy	-11.1221
ατε	-11.1222
▁Pen	-11.1223
▁scen	-11.1223
▁prípade	-11.1223
▁nell'ambito	-11.1224
vyk	-11.1225
▁hurtigt	-11.1227
▁blij	-11.1229
ιδ	-11.1233
▁contexte	-11.1233
▁OLAF	-11.1233
ral	-11.1234
▁enfoque	-11.1235
skem	-11.1237
ók	-11.1238
upp	-11.1238
▁contribui	-11.1242
▁Wahl	-11.1242
▁previsto	-11.1245
rede	-11.1246
▁άλλο	-11.1246
▁premi	-11.1246
▁Galileo	-11.1247
▁betrekkingen	-11.1247
ėl	-11.1248
▁actividades	-11.1249
▁collega's	-11.1251
▁passage	-11.1251
▁Fischerei	-11.1252
▁cependant	-11.1252
▁Corte	-11.1253
▁byly	-11.1253
ből	-11.1253
▁vraiment	-11.1255
▁bidra	-11.1258
▁permis	-11.1261
τί	-11.1264
▁runā	-11.1267
anse	-11.1267
parlamentets	-11.1268
-Fraktion	-11.1268
▁véritable	-11.1269
δια	-11.1269
▁bezpečnosti	-11.127
▁construc	-11.127
▁diplomat	-11.1272
▁rendelkez	-11.1272
ítás	-11.1273
▁Gre	-11.1273
▁lack	-11.1275
▁Parlamentul	-11.1277
geben	-11.1278
▁denken	-11.1278
▁l'A	-11.1279
auja	-11.128
▁pubblico	-11.128
▁hard	-11.128
▁ferm	-11.1282
▁Unionen	-11.1282
▁bekämpa	-11.1286
▁maggior	-11.1289
▁organizacij	-11.1291
▁гарантира	-11.1291
▁geheel	-11.1292
▁frihed	-11.1292
▁fuld	-11.1294
stad	-11.1294
neb	-11.1299
▁ainult	-11.1299
▁Λ	-11.13
▁celo	-11.1301
▁azon	-11.1304
▁Arbeitsplätze	-11.1305
▁ä	-11.1306
▁äußerst	-11.1307
▁správn	-11.1308
αγωγ	-11.1308
▁aufgrund	-11.1309
раз	-11.131
ativa	-11.1312
▁idet	-11.1313
▁grens	-11.1314
▁bekæmpelse	-11.1322
lijke	-11.1325
▁themselves	-11.1325
▁conflit	-11.1327
▁största	-11.1329
reiz	-11.1331
▁Anche	-11.1332
▁tillbaka	-11.1333
▁gente	-11.1334
ettighederne	-11.1334
υν	-11.1334
▁changement	-11.1334
▁Bulgaria	-11.1335
▁avseende	-11.1335
▁derzeit	-11.1336
vod	-11.1337
▁к	-11.1338
struktur	-11.1338
▁demografi	-11.1338
▁Notwendigkeit	-11.1339
▁agera	-11.1342
▁liberalisering	-11.1343
▁χρόνο	-11.1346
▁initiatief	-11.1346
löst	-11.1351
▁którzy	-11.1352
▁κοιν	-11.1353
▁funktion	-11.1358
▁števil	-11.1359
▁Así	-11.1359
leid	-11.1361
▁lisa	-11.1361
▁gyven	-11.1362
▁unui	-11.1364
▁ayudar	-11.1364
▁sigue	-11.1364
▁suhtes	-11.1364
rust	-11.1366
▁προσοχή	-11.1366
▁frihet	-11.1367
▁kracht	-11.137
▁Naciones	-11.137
▁krajiny	-11.1372
▁seis	-11.1373
▁няма	-11.1374
▁hätte	-11.1374
πα	-11.1376
hled	-11.1378
▁puedo	-11.1378
λυ	-11.1379
▁preocupa	-11.1381
▁nim	-11.1381
▁vissza	-11.1381
acijos	-11.1384
▁egne	-11.1386
▁impose	-11.1386
▁onderwijs	-11.1388
▁eneste	-11.1389
▁Reihe	-11.1389
▁similar	-11.139
▁quand	-11.139
▁intention	-11.1392
▁ocen	-11.1393
▁convient	-11.1394
▁key	-11.1395
▁months	-11.1395
yć	-11.1397
▁systému	-11.1397
mark	-11.1398
▁forces	-11.1399
▁rapporteurs	-11.14
▁obywateli	-11.1401
cích	-11.1403
▁sogar	-11.1403
▁страни	-11.1404
▁повече	-11.1406
▁sforzi	-11.1408
▁jamais	-11.1408
▁hlav	-11.1408
dik	-11.1409
▁visu	-11.141
gøre	-11.1413
▁contraire	-11.1413
tiek	-11.1414
▁költségvetés	-11.1415
▁toetreding	-11.1416
▁pacient	-11.1416
▁ambition	-11.1417
▁credit	-11.1417
▁njihov	-11.1419
▁oprav	-11.142
borg	-11.142
▁Ομάδας	-11.1424
▁draw	-11.1425
▁což	-11.1425
▁ευρωπαϊκό	-11.1425
▁ramme	-11.1427
nál	-11.1428
▁ενέργειας	-11.1428
▁meerderheid	-11.1429
▁centro	-11.1429
▁veci	-11.143
▁s'il	-11.143
▁dispar	-11.1431
τικών	-11.1431
▁evitare	-11.1433
▁states	-11.1433
▁Ü	-11.1437
+	-11.1437
▁bur	-11.1438
▁helpen	-11.1438
▁extend	-11.1439
▁junto	-11.144
▁Kas	-11.1441
läng	-11.1441
▁διάρκεια	-11.1441
▁Parlamente	-11.1443
setzt	-11.1443
ninger	-11.1444
▁jis	-11.1446
яване	-11.1446
▁stret	-11.1446
▁Cour	-11.1447
the	-11.1447
▁środków	-11.1447
▁доклад	-11.1447
▁siguiente	-11.1449
▁liberaliz	-11.145
kker	-11.145
▁exception	-11.145
▁Que	-11.145
▁partijen	-11.145
▁wegen	-11.1452
krise	-11.1452
▁West	-11.1453
μάτων	-11.1455
▁compl	-11.1455
▁izvaja	-11.1455
▁ακριβώς	-11.1455
πρό	-11.1455
▁Yo	-11.1456
▁contract	-11.1458
▁respeto	-11.1459
▁formation	-11.1459
▁ait	-11.146
öö	-11.146
▁М	-11.1461
▁adottare	-11.1462
ňov	-11.1463
nsichtlich	-11.1463
▁Bedingungen	-11.1465
▁Bekämpfung	-11.1465
▁Bovendien	-11.1465
▁χρησιμοποι	-11.1465
gem	-11.1467
▁administr	-11.1468
voli	-11.1469
▁miliard	-11.147
ían	-11.147
▁qualsiasi	-11.1471
▁dva	-11.1472
▁responsible	-11.1473
flu	-11.1474
ská	-11.1474
▁sikkerheds	-11.1475
▁permitir	-11.1477
▁им	-11.1479
▁handling	-11.1479
▁indispensable	-11.1479
▁Bre	-11.1481
▁ottenere	-11.1483
tav	-11.1484
▁κόσμο	-11.1485
▁pratica	-11.1485
▁llevar	-11.1487
▁kriterier	-11.1488
▁poliitika	-11.1488
▁zonas	-11.1489
▁ustedes	-11.1491
▁voter	-11.1492
▁algemene	-11.1493
lever	-11.1493
▁inizi	-11.1494
▁acum	-11.1495
gó	-11.1496
ordningen	-11.1496
▁difficoltà	-11.1497
▁Gospa	-11.1497
▁Com	-11.1498
▁upošteva	-11.1499
▁marknad	-11.15
▁quasi	-11.1501
▁λοιπόν	-11.1501
bilità	-11.1505
▁ändra	-11.1506
▁Franc	-11.1507
▁risultato	-11.1508
time	-11.1508
▁intégr	-11.151
kut	-11.1512
oči	-11.1514
▁trovare	-11.1515
▁C’est	-11.1515
▁casos	-11.1515
▁bestehen	-11.1516
▁dura	-11.1516
produktion	-11.1518
õr	-11.1521
▁политика	-11.1522
▁add	-11.1523
▁niños	-11.1525
▁operativ	-11.1526
▁nächsten	-11.1527
▁réduction	-11.1527
▁sade	-11.1529
▁n'y	-11.153
▁signifie	-11.1532
▁palabras	-11.1532
▁entro	-11.1533
▁strategii	-11.1542
▁ander	-11.1542
▁Ol	-11.1542
▁Nos	-11.1543
▁Myslím	-11.1543
wart	-11.1544
▁undersøgelse	-11.1545
▁economisch	-11.1545
▁ξε	-11.1548
▁jautājums	-11.1549
▁élevé	-11.1549
rende	-11.155
ony	-11.1553
▁revision	-11.1553
▁За	-11.1553
▁Direkt	-11.1554
▁rond	-11.1555
▁seguro	-11.1556
▁spolu	-11.1556
▁sagt,	-11.1557
▁aş	-11.1557
▁nemzetközi	-11.1557
▁άλλων	-11.1559
▁Vous	-11.156
▁equal	-11.156
▁αντί	-11.156
▁drog	-11.156
▁Quiero	-11.1561
▁neat	-11.1563
▁irányelv	-11.1565
▁kommissæren	-11.1565
▁results	-11.1568
τικές	-11.1569
▁Partner	-11.1569
▁impegna	-11.1569
▁offentliga	-11.1573
▁žmogaus	-11.1573
▁introduce	-11.1574
▁adott	-11.1575
▁gdy	-11.1575
▁върху	-11.1575
▁ligt	-11.1579
▁head	-11.158
▁thing	-11.158
▁Parlamentas	-11.1582
ringen	-11.1583
▁egyik	-11.1584
▁fuldstændig	-11.1585
▁acciones	-11.1587
▁Aan	-11.1588
▁kwaliteit	-11.1588
▁waarom	-11.1589
▁vigtigste	-11.1591
▁motion	-11.1596
▁klimatu	-11.1597
▁bevorderen	-11.1597
▁Grecia	-11.1598
▁utilisé	-11.16
▁amikor	-11.16
ден	-11.1601
▁humanitär	-11.1601
ador	-11.1603
▁Afrik	-11.1603
▁vorgelegt	-11.1603
▁Εν	-11.1603
▁sommet	-11.1604
autor	-11.1604
▁fremtid	-11.1605
▁rynku	-11.1606
▁members	-11.1606
πιστ	-11.1607
▁version	-11.1607
▁ktorých	-11.1608
▁politické	-11.1609
25	-11.1609
▁activités	-11.161
▁politikas	-11.161
isca	-11.1612
▁kurių	-11.1612
▁Japan	-11.1613
rebbero	-11.1613
▁Asamblea	-11.1614
▁Doha	-11.1615
▁passer	-11.1615
tog	-11.1616
liek	-11.1621
▁deriva	-11.1621
▁l’in	-11.1625
▁echte	-11.1625
▁maailma	-11.1626
▁2006.	-11.1626
demokrat	-11.1629
▁prévu	-11.163
▁presentata	-11.1631
▁dispone	-11.1631
▁Verwaltung	-11.1632
▁slå	-11.1632
▁ideologi	-11.1633
quer	-11.1633
▁mať	-11.1633
luse	-11.1633
▁αρ	-11.1633
bran	-11.1634
▁verplicht	-11.1635
▁Indien	-11.1635
▁kellene	-11.1636
▁esiste	-11.1636
▁diferencia	-11.1638
rare	-11.1639
ssé	-11.164
▁genoemd	-11.164
▁най-	-11.164
▁raisons	-11.164
cour	-11.1643
▁Evropsko	-11.1644
sætte	-11.1644
▁könnten	-11.1646
▁šių	-11.1646
▁procede	-11.1648
▁presentado	-11.1648
▁conclude	-11.1651
cor	-11.1652
▁policy.	-11.1652
▁2007-2013	-11.1652
▁κάνουμε	-11.1657
▁aveva	-11.1657
▁afgevaardigden	-11.166
▁účinn	-11.166
taria	-11.1661
čiai	-11.1662
▁needed	-11.1664
▁Brok	-11.1664
richt	-11.1665
▁esprimere	-11.1667
▁volonté	-11.167
▁svarbi	-11.1672
▁Landwirtschaft	-11.1672
▁paar	-11.1673
▁Vážen	-11.1673
orient	-11.1673
▁partij	-11.1673
▁obravnava	-11.1674
▁vend	-11.1674
łem	-11.1675
ţe	-11.1676
όμαστε	-11.1676
▁weiß	-11.1676
▁acestui	-11.1678
▁elfogad	-11.1678
▁pirma	-11.168
▁καταπολέμηση	-11.1682
▁naudo	-11.1683
▁45	-11.1688
▁riesgo	-11.1688
organisationen	-11.1688
ша	-11.1689
▁mezinárodní	-11.1693
▁peligro	-11.1694
▁promotion	-11.1695
▁regola	-11.1695
πό	-11.1695
▁valstyb	-11.1696
▁deberían	-11.1697
▁össze	-11.1698
▁tad	-11.1698
nout	-11.1698
▁tegevus	-11.1698
▁timp	-11.1698
▁morali	-11.1699
ške	-11.1699
nul	-11.17
▁encontrar	-11.17
▁proyectos	-11.1702
ssion	-11.1704
kry	-11.1704
▁consumers	-11.1705
▁comunque	-11.1707
▁vidare	-11.1708
▁zei	-11.1708
accord	-11.1709
▁venga	-11.1709
▁pov	-11.171
▁Zahl	-11.171
▁deoarece	-11.1711
uze	-11.1711
ξει	-11.1712
▁n'ont	-11.1713
-Fractie	-11.1713
tov	-11.1713
▁wszystkim	-11.1713
▁größere	-11.1713
▁sõna	-11.1713
▁abandon	-11.1714
▁respecter	-11.1714
▁avance	-11.1715
▁Gru	-11.1717
▁jogok	-11.1718
▁riduzione	-11.1719
▁spekul	-11.1719
▁necesita	-11.1721
▁extrêmement	-11.1721
ėje	-11.1722
mpli	-11.1724
érer	-11.1725
účast	-11.1725
▁rozhodnutí	-11.1728
▁impegno	-11.173
ръ	-11.173
▁elke	-11.1733
▁plutôt	-11.1733
11	-11.1734
▁gemenskaps	-11.1735
▁alimentari	-11.1736
▁metų	-11.1737
▁importa	-11.1737
▁membres,	-11.1737
ț	-11.1737
▁vlád	-11.1741
ред	-11.1741
rent	-11.1741
▁ještě	-11.1741
initiativ	-11.1741
▁ką	-11.1741
▁aumenta	-11.1741
ját	-11.1743
▁åren	-11.1744
▁egna	-11.1744
▁politic	-11.1744
▁Lad	-11.1745
▁tagasi	-11.1746
▁Präsidentschaft	-11.1746
▁tir	-11.1747
▁Tarybos	-11.1748
▁l'article	-11.1748
▁dro	-11.1749
▁répondre	-11.1749
▁vertrouwen	-11.175
voc	-11.1751
kop	-11.1753
▁Finanzierung	-11.1755
▁Sitzung	-11.1756
▁considerazione	-11.1756
▁avgörande	-11.1758
▁réunion	-11.176
▁autoriteiten	-11.176
▁pracovní	-11.1761
▁след	-11.1762
▁delega	-11.1764
▁financiera	-11.1764
▁skade	-11.1764
▁aspetto	-11.1768
▁právo	-11.1769
X	-11.1769
-C	-11.177
▁jedna	-11.177
▁bola	-11.1771
▁măsuri	-11.1771
▁rendre	-11.1771
▁vyh	-11.1772
▁mira	-11.1772
lés	-11.1773
▁solidarietà	-11.1774
▁proven	-11.1775
▁beneficia	-11.1776
czne	-11.1777
▁mur	-11.1778
▁Rights	-11.1779
▁kako	-11.1779
▁monopol	-11.1779
▁hospodářské	-11.1781
▁τότε	-11.1781
▁Χ	-11.1782
tő	-11.1782
▁võib	-11.1784
▁terület	-11.1785
▁preve	-11.1785
▁espero	-11.1787
αλλ	-11.1788
▁Verfassung	-11.1789
▁beheer	-11.1789
▁Commissione.	-11.1792
▁ordfører	-11.1792
▁schimb	-11.1792
kultūr	-11.1793
▁chiaramente	-11.1793
-Parlamentets	-11.1794
▁vlak	-11.1795
▁hom	-11.1796
▁Comité	-11.1796
▁podle	-11.1796
▁continuer	-11.1798
▁ekonomikas	-11.1798
gelijk	-11.18
▁inrätta	-11.18
SA	-11.18
▁správa	-11.1801
▁Finland	-11.1801
▁hel	-11.1803
▁medie	-11.1803
▁selge	-11.1804
▁fourni	-11.1804
ición	-11.1805
▁resultatet	-11.1807
tiden	-11.1807
▁graves	-11.1807
▁n’a	-11.1808
▁anzu	-11.1809
▁zorg	-11.1813
▁hervorming	-11.1814
jate	-11.1815
▁erst	-11.1815
▁Fortschritte	-11.1815
▁assolutamente	-11.1816
▁situation.	-11.1817
▁hanem	-11.1818
▁2015	-11.1819
▁helst	-11.1819
ped	-11.1819
▁ευχαριστήσω	-11.182
neskerettigheder	-11.1823
lou	-11.1823
▁meses	-11.1824
▁klausimas	-11.1824
▁constituye	-11.1825
▁estima	-11.1826
▁productie	-11.1826
▁registra	-11.1826
▁infrastructure	-11.1828
▁membri,	-11.1828
▁finance	-11.1829
▁(H	-11.183
ването	-11.183
▁siin	-11.1831
▁például	-11.1831
▁hablar	-11.1831
tava	-11.1833
▁old	-11.1833
čný	-11.1833
▁Consider	-11.1834
▁vorgeschlagen	-11.1834
▁pagrindin	-11.1836
▁solamente	-11.1838
▁Nice	-11.1838
▁šie	-11.1839
▁защото	-11.1839
▁kuria	-11.184
▁οδηγ	-11.1841
▁szám	-11.1841
▁blok	-11.1841
ομαι	-11.1842
▁systemet	-11.1842
▁κάποιο	-11.1843
▁Kor	-11.1843
κιν	-11.1843
▁With	-11.1843
▁Communauté	-11.1845
▁manque	-11.1845
šli	-11.1846
▁dobre	-11.1846
▁eerder	-11.1846
▁gehen	-11.1847
jad	-11.1847
folge	-11.1849
▁d.	-11.1851
trzyma	-11.1851
▁assistance	-11.1852
▁essenziale	-11.1853
▁otázku	-11.1853
▁jobb	-11.1854
▁cent	-11.1857
▁állam	-11.1857
tragen	-11.1858
mate	-11.1859
▁anvendelse	-11.186
▁Не	-11.1862
ujejo	-11.1862
▁hozzá	-11.1863
▁specifieke	-11.1863
▁Gelegenheit	-11.1865
▁termin	-11.1866
▁kwestii	-11.1867
▁entonces	-11.1867
▁Haupt	-11.1867
▁obywatel	-11.1868
▁flyg	-11.1869
▁człowieka	-11.1869
▁využíva	-11.1871
▁jābūt	-11.1872
núť	-11.1872
gge	-11.1873
üü	-11.1874
▁lehetőség	-11.1874
▁všechny	-11.1876
▁gesloten	-11.1876
▁procedūr	-11.1877
▁může	-11.1879
▁aastal	-11.188
▁drabba	-11.188
▁strategisk	-11.1881
▁mõju	-11.1881
▁internazionali	-11.1881
▁davvero	-11.1882
▁prêt	-11.1882
zunehmen	-11.1885
καλ	-11.1888
zig	-11.1889
▁tomu	-11.1889
▁σημαίνει	-11.189
▁Unidas	-11.1892
▁míst	-11.1892
▁lösa	-11.1892
▁capacità	-11.1893
▁införa	-11.1893
▁puntos	-11.1894
▁reti	-11.1895
ηρ	-11.1895
▁uppgifter	-11.1899
apport	-11.1899
▁keep	-11.19
▁terv	-11.1903
▁Tyskland	-11.1903
jk	-11.1904
▁Liit	-11.1904
▁Krise	-11.1905
sektoren	-11.1906
▁intressen	-11.1908
▁réduire	-11.1909
ssimo	-11.1909
▁εμπ	-11.1909
▁serio	-11.1909
▁Auto	-11.191
▁έπρεπε	-11.1911
05	-11.1913
▁Gefahr	-11.1913
δικ	-11.1916
▁machen	-11.1916
▁ezért	-11.1917
▁Initiative	-11.1917
fon	-11.1919
köt	-11.1919
▁tillåt	-11.192
▁Alla	-11.1921
▁начин	-11.1921
▁labour	-11.1921
zone	-11.1926
▁teritori	-11.1928
▁samuti	-11.1929
▁spolupráce	-11.193
▁rapidement	-11.193
▁priemonių	-11.1934
»,	-11.1935
▁handle	-11.1936
▁všetky	-11.1936
sicherheit	-11.1936
▁Berlin	-11.1937
▁rá	-11.1937
▁werkelijk	-11.1937
izmu	-11.1938
▁l’Europe	-11.1938
▁spôsob	-11.1942
▁kammaren	-11.1943
šanos	-11.1944
θέτ	-11.1945
▁ljudi	-11.1946
▁remarque	-11.1946
▁multilateral	-11.1947
ítés	-11.1947
▁Directive	-11.1948
▁Парламента	-11.1949
▁Д	-11.1949
▁overveje	-11.195
▁enough	-11.1951
▁správu	-11.1951
vare	-11.1952
▁názor	-11.1952
▁moderne	-11.1954
▁gehört	-11.1955
▁ratifik	-11.1955
▁externe	-11.1957
▁Prav	-11.1957
▁П	-11.1959
▁llegar	-11.1961
▁către	-11.1963
zott	-11.1964
▁conflicto	-11.1967
ruch	-11.1968
▁confront	-11.1968
▁meinen	-11.1968
▁4.	-11.1969
▁eesmärk	-11.197
του	-11.197
zekerheid	-11.1971
▁είμαι	-11.1971
gesch	-11.1972
▁militar	-11.1972
▁concreta	-11.1972
▁bad	-11.1973
▁regerings	-11.1974
▁familia	-11.1974
▁comercial	-11.1977
▁permette	-11.1977
▁escrito.	-11.1977
▁conseguenze	-11.1978
▁compromesso	-11.198
inis	-11.198
▁ambientale	-11.198
▁sistemas	-11.1981
▁Africa	-11.1981
▁traktat	-11.1982
ήθηκε	-11.1982
▁Aufgabe	-11.1983
▁transparence	-11.1984
cija	-11.1984
▁identifi	-11.1985
λέ	-11.1986
▁eksempel	-11.1986
ási	-11.1986
mekanism	-11.1987
▁mikro	-11.1989
▁puisse	-11.1991
rück	-11.1994
▁násled	-11.1995
▁actie	-11.1995
uste	-11.1996
▁strani	-11.1998
▁dagsordenen	-11.1998
▁käsitle	-11.1999
▁tengo	-11.1999
▁dollar	-11.1999
▁Wachstum	-11.2001
▁circa	-11.2001
▁chiar	-11.2001
ρη	-11.2001
▁attualmente	-11.2003
▁beslutninger	-11.2003
▁künftig	-11.2005
▁predsednica	-11.2005
▁ζητήματα	-11.2005
▁journalist	-11.2005
▁μπορούσε	-11.2007
▁fonda	-11.2007
▁multe	-11.2008
▁neza	-11.2009
▁congratulate	-11.2009
▁ilegal	-11.2009
▁grupos	-11.2011
isé	-11.2012
▁betydelig	-11.2014
▁entscheidend	-11.2014
▁Leben	-11.2015
▁olen	-11.2015
▁chtěl	-11.2016
▁aide	-11.2016
▁Dle	-11.2016
ове	-11.2017
▁gestellt	-11.2018
▁gennemførelsen	-11.2019
▁hjälpa	-11.202
arte	-11.2021
▁panie	-11.2021
▁excelente	-11.2021
ked	-11.2021
▁dernières	-11.2024
▁wiele	-11.2025
iers	-11.2026
spar	-11.2026
▁autonom	-11.2027
▁Daten	-11.2027
▁Instrument	-11.2029
mma	-11.2029
▁noteikt	-11.2032
▁žmonių	-11.2034
▁consecuencias	-11.2035
▁mort	-11.2035
▁studi	-11.2035
▁dl	-11.2036
▁darbu	-11.2037
▁doet	-11.2037
mist.	-11.2038
▁užtikrin	-11.204
tado	-11.2042
maatschappij	-11.2045
▁alcanzar	-11.2045
uks	-11.2046
▁Wirtschafts	-11.2047
▁financiering	-11.2047
▁dalībvalstu	-11.2047
▁egész	-11.2047
▁l'aide	-11.2051
▁θέλω	-11.2051
▁nemzeti	-11.2051
▁Råd	-11.2052
▁fraktsiooni	-11.2053
▁εξα	-11.2053
▁inimeste	-11.2054
▁cilvēku	-11.2056
▁though	-11.2057
▁řešení	-11.2058
▁enkelte	-11.2058
ática	-11.2059
▁posto	-11.2059
▁nemen.	-11.2059
▁einde	-11.206
lichkeit	-11.2062
▁γι'	-11.2064
▁Solana	-11.2064
▁Unia	-11.2065
▁posso	-11.2067
τέ	-11.207
▁Malta	-11.207
▁förklara	-11.207
▁activiteiten	-11.2071
▁claramente	-11.2071
▁Cependant	-11.2072
▁trasparenza	-11.2072
lepš	-11.2076
ед	-11.2077
▁heißt	-11.2079
▁kõigi	-11.2079
AS	-11.2079
▁Stand	-11.208
▁persona	-11.2081
ujem	-11.2083
bles	-11.2083
ume	-11.2084
▁incorpora	-11.2084
▁consultation	-11.2085
▁läbi	-11.2085
▁Selv	-11.2086
▁dne	-11.2087
▁puud	-11.2089
▁voorgesteld	-11.2089
▁annual	-11.209
▁dovremmo	-11.2092
▁iscritto.	-11.2092
▁opfordre	-11.2093
▁Europejskiego	-11.2095
misi	-11.2096
▁snabbt	-11.2097
▁druk	-11.2099
▁finansiella	-11.2099
▁»	-11.2102
▁folyamat	-11.2102
▁Tento	-11.2103
▁transparencia	-11.2104
▁bezpieczeństwa	-11.2106
▁tog	-11.2108
át,	-11.2109
▁n’est	-11.2111
▁nucleare	-11.2111
▁conséquences	-11.2113
▁viņu	-11.2116
▁ochrony	-11.2117
▁jeszcze	-11.2118
tici	-11.2119
▁1992	-11.2119
▁olnud	-11.2119
▁penal	-11.2119
▁tę	-11.2121
▁doing	-11.2121
▁една	-11.2121
ský	-11.2123
▁dejar	-11.2123
zhod	-11.2124
▁konsolid	-11.2125
fekt	-11.2126
maßnahmen	-11.2128
cord	-11.2129
situation	-11.2129
äng	-11.213
▁sufficient	-11.213
▁student	-11.213
▁consecuencia	-11.2132
▁halte	-11.2133
čné	-11.2134
▁Kö	-11.2134
▁Desidero	-11.2134
ατ	-11.2134
▁tuo	-11.2135
▁court	-11.2135
▁verw	-11.2135
▁ihrem	-11.2135
ový	-11.2136
▁top	-11.2136
▁anvende	-11.2136
▁matters	-11.2136
▁Auffassung	-11.2136
▁souhait	-11.2137
▁principles	-11.2138
▁mindst	-11.2138
▁privire	-11.2138
ével	-11.2139
▁Ali	-11.2139
▁l'I	-11.214
niecība	-11.2141
rò	-11.2141
▁adecuada	-11.2143
▁úlohu	-11.2145
kazuje	-11.2145
▁jeder	-11.2145
▁visiškai	-11.2146
▁address	-11.2146
▁πρόσβαση	-11.2147
▁którym	-11.2147
πι	-11.2148
▁forbruger	-11.2148
▁Parliament's	-11.2148
▁patvirtin	-11.215
løs	-11.215
▁sammenhæng	-11.2151
▁reto	-11.2152
▁Bildung	-11.2153
▁arvates	-11.2153
ξι	-11.2154
▁förordning	-11.2154
▁morajo	-11.2154
▁condition	-11.2155
kord	-11.2156
▁internationell	-11.2156
▁permettra	-11.2156
▁komisi	-11.2158
▁passe	-11.2158
▁professional	-11.2159
▁unii	-11.2162
▁diminu	-11.2162
▁impuls	-11.2163
tama	-11.2164
▁completa	-11.2165
▁κυβέρνηση	-11.2165
▁achieved	-11.2165
κρι	-11.2166
▁Európe	-11.2168
▁utilizar	-11.2168
▁reasons	-11.2172
▁allerdings	-11.2172
▁živ	-11.2172
znám	-11.2172
▁pena	-11.2173
okkal	-11.2173
pred	-11.2173
▁schwer	-11.2174
æl	-11.2175
ļauj	-11.2177
▁investimenti	-11.218
▁sida	-11.218
ším	-11.2181
▁kurį	-11.2183
stica	-11.2184
▁hård	-11.2185
▁sundheds	-11.2188
▁privalo	-11.2188
▁měli	-11.2189
▁Å	-11.219
▁terre	-11.2192
▁experience	-11.2194
▁rib	-11.2194
▁deberíamos	-11.2194
▁contributo	-11.2197
teur	-11.2197
▁threat	-11.2198
▁alkalmaz	-11.22
▁Für	-11.2202
cido	-11.2203
▁arme	-11.2204
▁Nr.	-11.2206
▁σχέδιο	-11.2207
го	-11.2207
▁võtta	-11.2207
▁perspective	-11.2212
▁opgenomen	-11.2213
▁volk	-11.2214
▁Hu	-11.2215
▁legislativo	-11.2215
▁Europie	-11.2217
▁cases	-11.2218
lingen	-11.2218
▁θ	-11.2218
▁există	-11.2219
dtil	-11.2219
▁kwesties	-11.2219
▁consult	-11.222
▁c’est	-11.2222
▁slag	-11.2222
▁différentes	-11.2222
werking	-11.2223
šča	-11.2227
▁Over	-11.2228
nių	-11.2229
skrive	-11.2229
▁l’UE	-11.223
▁planer	-11.223
mil	-11.223
▁consent	-11.2231
▁auszu	-11.2232
▁profund	-11.2234
geb	-11.2234
▁trgov	-11.2235
▁forza	-11.2236
σκ	-11.2238
▁mogoče	-11.2239
▁distin	-11.224
auti	-11.2242
▁carbon	-11.2243
▁altresì	-11.2243
▁Richtung	-11.2243
▁Šis	-11.2243
▁skupine	-11.2243
▁teikt	-11.2244
▁others	-11.2246
▁Austria	-11.2247
▁tuv	-11.2247
▁kategori	-11.225
alité	-11.225
▁vsak	-11.2251
pf	-11.2251
▁grootste	-11.2253
▁ludzi	-11.2253
▁communauté	-11.2256
▁cât	-11.2256
▁možnosti	-11.2257
▁preciso	-11.2257
▁karakter	-11.2258
icamente	-11.2258
▁λύση	-11.2258
▁prop	-11.2259
▁stanno	-11.226
▁referencia	-11.226
▁consiguiente	-11.226
▁iniziative	-11.2261
▁gemeinsam	-11.2261
suse	-11.2262
misega	-11.2262
▁betere	-11.2262
▁takie	-11.2262
▁beroep	-11.2264
▁тъ	-11.2265
▁uwagę	-11.2266
lief	-11.2266
θούμε	-11.227
▁būtina	-11.2271
pal	-11.2273
▁necesaria	-11.2273
▁activities	-11.2273
▁rischi	-11.2274
▁finale	-11.2275
ifier	-11.2276
▁longer	-11.2277
▁Dublin	-11.2278
▁udtalelse	-11.2278
▁ihn	-11.2279
▁touch	-11.228
▁ravni	-11.228
νά	-11.2281
σουν	-11.2281
▁partes	-11.2283
▁capacité	-11.2285
▁contribuer	-11.2286
▁undgå	-11.2287
ější	-11.2288
▁guerre	-11.2289
▁response	-11.2291
ίζονται	-11.2292
▁ισχυρ	-11.2293
▁nodrošināt	-11.2293
lser	-11.2294
▁praktijk	-11.2294
▁jää	-11.2295
▁sytuacji	-11.2295
▁collègue	-11.2296
nika	-11.2298
▁addition	-11.2299
ακ	-11.23
zą	-11.23
▁során	-11.23
ationen	-11.2301
▁privé	-11.2301
▁enhver	-11.2304
umiem	-11.2305
▁elk	-11.2306
λύ	-11.2308
▁présente	-11.2308
▁effort	-11.2309
▁malo	-11.231
▁Can	-11.231
▁gratulera	-11.2311
▁spreken	-11.2312
▁win	-11.2312
▁gerecht	-11.2312
ugu	-11.2313
▁einzige	-11.2313
έτ	-11.2313
▁kontinent	-11.2314
▁Erfolg	-11.2315
λαβ	-11.2315
▁Tagesordnung	-11.2317
▁labor	-11.2317
▁przykład	-11.2317
▁evropski	-11.2318
▁recordar	-11.2321
▁inser	-11.2321
▁preşedinte	-11.2321
▁όλων	-11.2321
▁eventuell	-11.2321
aţi	-11.2321
▁maintain	-11.2324
▁weinig	-11.2326
▁maanden	-11.2327
▁Evropi	-11.2327
▁fondamentaux	-11.2327
▁costs	-11.2328
▁allmänna	-11.2329
▁business	-11.2329
▁dell'Europa	-11.233
▁carica	-11.2331
▁sellest	-11.2331
ffen	-11.2331
▁diskussion	-11.2332
▁brutal	-11.2332
▁tels	-11.2335
▁faktor	-11.2335
▁amelyet	-11.2337
▁futura	-11.2337
ško	-11.2338
▁δικαίωμα	-11.2338
▁преди	-11.2339
▁peux	-11.2339
▁svetov	-11.2339
▁kulturelle	-11.2339
schließen	-11.234
▁odgovor	-11.234
▁vseh	-11.2341
ņa	-11.2341
gul	-11.2341
▁Sicherheits	-11.2341
aggi	-11.2342
▁ridurre	-11.2342
▁pasakyti	-11.2343
▁Στο	-11.2343
▁kvot	-11.2344
▁völlig	-11.2347
▁votar	-11.2349
▁προσέγγιση	-11.2351
▁piemēram	-11.2353
▁posibil	-11.2355
▁rileva	-11.2358
▁nær	-11.2358
▁Comunità	-11.2358
▁delar	-11.2358
▁young	-11.2359
▁betragtning	-11.236
▁summit	-11.236
ancia	-11.2364
▁chers	-11.2364
▁βουλευτές	-11.2365
▁påverka	-11.2365
▁ár	-11.2365
▁bitte	-11.2366
▁bästa	-11.2367
ρθ	-11.2367
▁restrict	-11.2368
▁igualdad	-11.2369
▁saber	-11.237
▁qu'en	-11.2371
even	-11.2374
▁drama	-11.2375
▁vrai	-11.2376
▁finanziaria	-11.2376
▁eigenlijk	-11.2376
▁olla	-11.2377
ección	-11.2379
▁coup	-11.2381
▁2000.	-11.2382
▁grænser	-11.2385
▁necessaria	-11.2385
▁Izrael	-11.2386
▁europene	-11.2386
päeva	-11.2387
spre	-11.2388
▁alte	-11.2388
▁camino	-11.2388
▁държави	-11.2389
▁lidstaat	-11.2389
▁eind	-11.2389
spē	-11.2391
▁świ	-11.2392
▁kundze,	-11.2393
euse	-11.2393
▁identifica	-11.2394
▁pranešimą	-11.2395
▁internacionales	-11.2397
▁ασφάλειας	-11.2398
szy	-11.2399
▁Mehrheit	-11.2399
▁arab	-11.24
▁integración	-11.2401
▁Ergebnisse	-11.2401
▁asyl	-11.2403
▁dessutom	-11.2406
▁tirgus	-11.2406
gono	-11.2407
εία	-11.2408
▁Komisijai	-11.2408
▁voorwaarden	-11.2409
▁opportunità	-11.2411
▁scorso	-11.2411
▁conforme	-11.2412
▁indien	-11.2412
▁intelligent	-11.2412
mond	-11.2413
rę	-11.2413
οπ	-11.2414
▁aceptar	-11.2414
▁mercati	-11.2415
▁terzi	-11.2415
▁wichtigen	-11.2416
▁känner	-11.2419
σπ	-11.2419
▁ordning	-11.242
ified	-11.2421
▁rozwoju	-11.2426
sprocessen	-11.2428
tryck	-11.2428
▁systems	-11.2428
▁udarbejde	-11.2428
▁resurser	-11.2428
▁participación	-11.2431
▁funding	-11.2431
▁onge	-11.2432
▁jego	-11.2433
läge	-11.2435
▁solidarité	-11.2438
▁saab	-11.2438
abili	-11.2439
▁concret	-11.244
▁nüüd	-11.2441
▁Hlasoval	-11.2441
▁pendant	-11.2441
pun	-11.2442
▁αποτελούν	-11.2443
▁komende	-11.2444
▁emberek	-11.2444
duse	-11.2446
▁Ud	-11.2447
▁duurzame	-11.2447
druk	-11.2449
ložit	-11.2449
▁importe	-11.2452
▁definitiv	-11.2452
greifen	-11.2453
ски	-11.2453
▁keli	-11.2453
▁myslím	-11.2454
▁pilot	-11.2455
▁actuel	-11.2457
▁långt	-11.2458
▁realizar	-11.2458
▁susijusi	-11.2458
ūd	-11.246
▁zpravodaj	-11.2461
▁υπερ	-11.2462
▁dalībvalstīm	-11.2463
▁rând	-11.2463
▁üles	-11.2464
sættelse	-11.2464
▁require	-11.2464
▁ιδίως	-11.2465
▁viktigaste	-11.2465
▁Sur	-11.2467
▁Evropě	-11.2467
▁Dokument	-11.2467
▁utnyttja	-11.2468
▁skupina	-11.2468
▁αφ	-11.247
▁tiszt	-11.2472
▁acestei	-11.2472
▁tagad	-11.2476
voj	-11.2478
▁myndigheterna	-11.248
führen	-11.2481
▁geldt	-11.2481
▁veiksmų	-11.2483
zenia	-11.2485
μένων	-11.2485
▁Egy	-11.2487
▁road	-11.2487
wierdz	-11.2489
▁dovrà	-11.2489
▁gennemførelse	-11.249
μι	-11.2492
▁presse	-11.2494
grund	-11.2495
imai	-11.2495
▁laisv	-11.2496
▁ανάπτυξης	-11.2496
čni	-11.2496
▁rate	-11.2498
▁práci	-11.2498
▁eljárás	-11.2498
▁projects	-11.2499
▁11.	-11.25
▁κράτος	-11.25
tention	-11.25
▁správy	-11.2503
▁savons	-11.2504
▁brott	-11.2505
cka	-11.2506
▁vice	-11.2507
▁βελτίωση	-11.2507
▁Priekšsēdētājas	-11.2507
▁reflect	-11.2509
▁compete	-11.2509
▁emisij	-11.2509
▁huvud	-11.2509
▁speciale	-11.251
▁fordel	-11.2511
▁intervención	-11.2512
▁2000,	-11.2513
▁giovani	-11.2514
▁podnik	-11.2519
▁tiem	-11.2519
▁erkend	-11.252
ża	-11.252
▁begrüße	-11.2521
løb	-11.2521
pool	-11.2522
▁saját	-11.2522
▁zgod	-11.2522
stvu	-11.2526
gh	-11.2527
▁línea	-11.2527
▁gegeben	-11.2528
lighet	-11.2528
▁regards	-11.2531
▁bare	-11.2531
▁aanpak	-11.2532
regel	-11.2532
šanai	-11.2535
▁opfordrer	-11.2536
▁comunità	-11.2539
Euro	-11.254
▁domstol	-11.254
▁Medio	-11.254
inius	-11.254
▁majoritet	-11.254
των	-11.254
▁evalu	-11.2541
▁μέρος	-11.2542
spir	-11.2543
▁žensk	-11.2543
▁Съвета	-11.2545
▁apoya	-11.2545
▁him	-11.2545
ūk	-11.2546
▁spørge	-11.2548
▁frontières	-11.2548
▁våld	-11.2549
▁eisen	-11.2549
gener	-11.2551
▁získa	-11.2551
▁Manau	-11.2552
igne	-11.2554
▁US	-11.2554
lopp	-11.2555
▁båda	-11.2556
alist	-11.2556
▁little	-11.2558
▁Romania	-11.256
▁lag	-11.2561
▁fire	-11.2561
▁uitge	-11.2561
▁Συνθήκη	-11.2562
▁predsednik	-11.2563
▁personen	-11.2563
▁tortur	-11.2564
▁fremmest	-11.2564
▁ligeledes	-11.2569
▁eindeutig	-11.2569
▁væsentlig	-11.2569
▁правата	-11.257
▁Prin	-11.2571
▁devant	-11.2572
▁grazie	-11.2572
▁Endelig	-11.2574
▁eigentlich	-11.2574
▁lascia	-11.2577
▁dôležit	-11.2577
▁napríklad	-11.2578
▁παρούσα	-11.2578
▁politi	-11.2578
▁šią	-11.2578
penden	-11.2579
▁May	-11.258
▁comunidad	-11.258
▁Estoy	-11.2581
▁Bij	-11.2581
▁hlasoval	-11.2581
▁kiek	-11.2582
▁résultat	-11.2583
▁conseguenza	-11.2587
▁vážn	-11.2587
▁wyda	-11.2589
▁police	-11.2591
šen	-11.2591
waardig	-11.2591
▁War	-11.2592
▁Bien	-11.2593
▁edasi	-11.2595
▁momenteel	-11.2596
ие	-11.2597
▁izmantot	-11.2599
ams,	-11.2601
▁gevallen	-11.2603
▁znamená	-11.2603
képviselőcsoport	-11.2605
▁ihm	-11.2605
▁adres	-11.2607
▁puis	-11.2608
▁arbeids	-11.2609
▁norma	-11.2609
▁elektro	-11.2609
nji	-11.261
-T	-11.261
▁collect	-11.261
▁daarbij	-11.2612
▁trods	-11.2613
▁reformas	-11.2613
▁amenaza	-11.2614
▁writing.	-11.2616
▁‘	-11.2616
▁conformidad	-11.2616
▁involve	-11.2617
зна	-11.2617
▁mientras	-11.2618
▁historia	-11.2618
▁bestimmte	-11.2619
ernas	-11.2622
▁мерки	-11.2623
politiken	-11.2623
ziehen	-11.2624
▁αλλαγή	-11.2625
▁ochrany	-11.2625
▁technologie	-11.2625
▁four	-11.2625
ably	-11.2628
▁dichiarazione	-11.2628
▁γε	-11.263
▁versch	-11.263
sprogramm	-11.263
▁vlastn	-11.2631
▁bestaande	-11.2632
▁komisár	-11.2632
national	-11.2632
prze	-11.2633
remmo	-11.2635
▁rapide	-11.2636
▁although	-11.2636
▁amount	-11.2636
▁nothing	-11.2636
▁Ergebnis	-11.2637
▁érték	-11.2637
▁personne	-11.2637
▁nucléaire	-11.2638
▁landbrugs	-11.2639
▁clo	-11.264
▁įgyvendin	-11.2642
▁доклада	-11.2642
stab	-11.2646
▁segunda	-11.2647
weise	-11.2649
▁asszony,	-11.265
▁písemně.	-11.2654
▁muncă	-11.2654
▁2009,	-11.2657
ací	-11.2657
skej	-11.2657
▁putea	-11.2658
▁stav	-11.266
▁Quisiera	-11.2661
▁ecolog	-11.2661
▁mimo	-11.2661
▁Organ	-11.2662
▁hoge	-11.2662
▁punct	-11.2663
▁regio's	-11.2669
▁Προ	-11.2673
spagnol	-11.2673
▁все	-11.2674
▁rakstiski.	-11.2674
▁disposizioni	-11.2674
▁koos	-11.2674
▁bambini	-11.2676
▁meines	-11.2677
▁estructura	-11.2677
▁féliciter	-11.2678
mæssige	-11.2678
▁przedstawi	-11.2678
▁zákon	-11.2682
▁interventi	-11.2685
▁ændringer	-11.2685
sektorn	-11.2687
▁precum	-11.2688
▁systèmes	-11.2688
▁mettere	-11.2689
▁forstå	-11.269
▁Herausforderung	-11.2692
atsiooni	-11.2695
▁efekt	-11.2698
ög	-11.2699
▁azzal	-11.2699
▁seks	-11.2702
▁pieņem	-11.2702
▁Debemos	-11.2703
▁pomeni	-11.2704
abil	-11.2704
▁nell'Unione	-11.2706
▁menneske	-11.2706
▁asilo	-11.2706
▁rakenda	-11.2706
▁način	-11.2706
▁Preis	-11.2707
▁kommit	-11.2707
▁occasione	-11.2708
▁critères	-11.271
▁lleva	-11.2711
▁agricol	-11.2712
▁οδηγίας	-11.2712
▁défense	-11.2712
▁gouvernements	-11.2713
σία	-11.2713
norm	-11.2713
щите	-11.2714
tifs	-11.2716
▁rovněž	-11.2721
▁Serbia	-11.2724
▁organiser	-11.2724
issement	-11.2724
▁37	-11.2725
▁būd	-11.2725
▁bisher	-11.2725
▁decide	-11.2727
cker	-11.2727
σο	-11.2728
▁överenskommelse	-11.2728
▁propio	-11.2729
evanje	-11.273
▁nästa	-11.2731
▁garantier	-11.2731
έπ	-11.2731
▁iki	-11.2732
▁cohésion	-11.2733
▁reducción	-11.2733
▁stärka	-11.2733
▁καμία	-11.2733
▁behandeling	-11.2733
▁scopo	-11.2735
▁neg	-11.2736
▁przewodniczący	-11.2737
viden	-11.2737
▁treffen	-11.2739
▁erste	-11.2739
▁all'interno	-11.2739
pass	-11.274
▁gelten	-11.274
▁fino	-11.2742
ложи	-11.2742
corre	-11.2743
uren	-11.2744
80	-11.2745
▁assurer	-11.2747
φαν	-11.2747
▁poseł	-11.275
▁ecu	-11.275
▁enam	-11.2752
▁jurídico	-11.2753
līdz	-11.2754
▁Luxemburg	-11.2755
▁aprobación	-11.2755
▁Hemos	-11.2756
▁guvern	-11.2756
▁burde	-11.2756
nění	-11.2756
▁them.	-11.2757
▁sure	-11.2757
čin	-11.2757
▁única	-11.2758
▁mechanizm	-11.2759
▁terrein	-11.2759
▁tenga	-11.276
▁SIS	-11.276
ру	-11.2761
▁prezident	-11.2762
▁gelegenheid	-11.2762
▁elecciones	-11.2762
▁udviklingen	-11.2763
▁pieņemt	-11.2763
über	-11.2764
▁priekšlikumu	-11.2764
▁Pact	-11.2765
pět	-11.2766
▁możemy	-11.2766
acija	-11.2766
▁megoldás	-11.2767
▁esame	-11.2768
ował	-11.2769
▁postęp	-11.2769
▁ekonom	-11.2769
▁universal	-11.2769
▁Gesundheit	-11.277
twa	-11.277
▁straf	-11.2771
▁zároveň	-11.2771
▁politikker	-11.2774
alda	-11.2775
▁kvar	-11.2775
▁confiance	-11.2776
▁betrifft	-11.2777
iten	-11.2777
▁πρώτο	-11.2778
▁governments	-11.2778
▁działań	-11.2778
▁strid	-11.2779
▁porta	-11.2782
▁medlemsstater.	-11.2783
▁abzu	-11.2784
▁ramach	-11.2784
▁пазар	-11.2785
▁unico	-11.2786
▁strateegia	-11.2787
▁sustainable	-11.2787
▁ανθρωπίνων	-11.2787
▁druhé	-11.2789
▁organizza	-11.2789
▁Kun	-11.2789
▁galėtų	-11.2789
▁finanziari	-11.279
-K	-11.279
▁orgán	-11.279
ésére	-11.279
▁Durch	-11.2791
▁economici	-11.2794
▁finanziario	-11.2794
▁uiteindelijk	-11.2794
▁objeto	-11.2794
▁liksom	-11.2794
▁Green	-11.2796
▁občanov	-11.2799
▁måneder	-11.28
▁uitvoering	-11.2802
ték	-11.2802
▁zmian	-11.2804
▁nových	-11.2804
▁δυνατόν	-11.2805
över	-11.2806
▁Comp	-11.2806
▁pari	-11.2807
▁lieto	-11.2807
▁Slov	-11.2807
▁πραγματικότητα	-11.2807
tamine	-11.2808
▁flexible	-11.281
▁Gewalt	-11.281
▁Ur	-11.2812
▁wohl	-11.2812
▁Kā	-11.2815
▁esmu	-11.2817
āku	-11.2817
under	-11.2818
▁début	-11.2819
▁generation	-11.2819
EU	-11.282
▁leader	-11.2821
▁Vertreter	-11.2821
▁eerst	-11.2821
▁locales	-11.2823
likku	-11.2823
δυ	-11.2824
ημα	-11.2825
▁fået	-11.2825
▁leben	-11.2827
▁kahe	-11.2827
▁ευθύνη	-11.2828
▁Toto	-11.2829
▁medlemsstater,	-11.2829
▁automobil	-11.2829
▁approfondi	-11.283
yta	-11.2831
▁Prozess	-11.2831
kade	-11.2833
▁Bereichen	-11.2833
▁richting	-11.2834
▁kræve	-11.2835
▁röst	-11.2835
▁waarover	-11.2835
▁ако	-11.2836
▁módosítás	-11.2837
▁vzťah	-11.2837
▁affronta	-11.2838
▁danger	-11.2838
ира	-11.2838
tika	-11.2838
▁Patten	-11.2838
▁regionen	-11.2841
skou	-11.2843
▁noodzaak	-11.2844
▁τέτοιο	-11.2844
▁nationales	-11.2844
▁consumer	-11.2845
▁foreign	-11.2846
▁besluiten	-11.2846
▁servir	-11.2848
▁στρατηγική	-11.2848
sverfahren	-11.2848
ssent	-11.2848
στά	-11.285
▁hot	-11.285
satte	-11.2851
▁τελευταία	-11.2851
▁participa	-11.2851
▁ΕΕ.	-11.2852
▁provided	-11.2852
▁necessari	-11.2853
▁doubt	-11.2856
▁sterk	-11.2856
▁integratie	-11.2856
▁konkrét	-11.2858
▁réglementation	-11.2858
▁route	-11.2858
gende	-11.2859
▁forvaltning	-11.2859
jące	-11.2859
▁hvert	-11.286
▁vali	-11.286
▁staten	-11.286
▁perhaps	-11.2862
▁gadā	-11.2862
▁interna	-11.2864
▁olulise	-11.2865
▁dēļ	-11.2867
▁sostenible	-11.2867
▁ändå	-11.2867
▁πολιτικών	-11.2869
▁blijkt	-11.287
▁Dal	-11.287
▁Ένωσης.	-11.2871
▁lig	-11.2872
nischen	-11.2872
wod	-11.2873
▁sanctions	-11.2873
behandling	-11.2874
▁modell	-11.2874
țe	-11.2875
▁bistand	-11.2875
▁regij	-11.2876
▁angemessen	-11.2876
cro	-11.2877
staan	-11.2877
▁grâce	-11.2878
▁odvětví	-11.2881
οχ	-11.2881
▁risiko	-11.2881
▁effektivitet	-11.2881
▁inhoud	-11.2881
tritt	-11.2882
▁intervento	-11.2884
▁voldoende	-11.2889
▁aktiviteter	-11.289
près	-11.289
▁utför	-11.2891
▁employ	-11.2891
▁vigore	-11.2891
▁vigueur	-11.2892
▁mają	-11.2892
▁οικονομικής	-11.2893
▁stærk	-11.2893
äär	-11.2895
▁she	-11.2897
об	-11.2898
konvention	-11.2898
indre	-11.2898
▁miljoni	-11.2899
▁ideal	-11.2899
▁følger	-11.2901
qual	-11.2902
▁target	-11.2903
▁pravice	-11.2905
▁formazione	-11.2906
eranno	-11.2906
▁težav	-11.2907
izzare	-11.2909
▁verdens	-11.291
łow	-11.2911
öt	-11.2912
▁fiducia	-11.2915
▁öppna	-11.2915
▁Aktion	-11.2916
mäßig	-11.2918
▁Schul	-11.2919
▁hebt	-11.2922
▁intend	-11.2922
▁až	-11.2924
▁l'occasion	-11.2924
meid	-11.2925
▁nebude	-11.2925
▁fördern	-11.2926
▁δί	-11.2926
▁pont	-11.2927
▁trest	-11.2928
▁És	-11.2929
tje	-11.293
▁Cam	-11.293
▁salari	-11.293
▁consumo	-11.2933
▁pouze	-11.2933
tunk	-11.2937
ąc	-11.2937
iere	-11.2938
▁forhandlinger	-11.2938
▁rendere	-11.2938
▁Από	-11.2942
▁podobn	-11.2942
▁poslanci	-11.2943
▁taux	-11.2943
ματος	-11.2945
▁facile	-11.2945
▁Personen	-11.2945
hely	-11.2946
▁reside	-11.2947
▁alarm	-11.295
▁praksis	-11.2951
▁Espero	-11.2957
greb	-11.2957
▁ieder	-11.2957
▁trouve	-11.2959
▁unterschiedlich	-11.2959
▁coesione	-11.2959
oknak	-11.296
▁μέτρων	-11.2961
▁hetgeen	-11.2962
▁rozpočtu	-11.2962
▁400	-11.2963
▁construi	-11.2964
ordning	-11.2964
▁destiné	-11.2965
▁acestor	-11.2965
▁aplicare	-11.2965
▁försök	-11.2967
▁tõsi	-11.2967
▁debido	-11.2968
▁overeenstemming	-11.2968
ritt	-11.297
▁ledamot	-11.2971
media	-11.2974
union	-11.2974
▁dell'UE	-11.2975
fälle	-11.2975
▁chiedere	-11.2976
EA	-11.2977
▁proc.	-11.2979
isera	-11.2979
▁enfrenta	-11.298
▁bekannt	-11.298
▁előtt	-11.298
▁gekomen	-11.2982
▁sand	-11.2984
▁holde	-11.2989
-li	-11.299
▁já	-11.299
▁air	-11.2992
▁augst	-11.2992
trat	-11.2993
▁espera	-11.2995
mæssig	-11.2995
▁rigor	-11.2997
▁można	-11.2998
▁vedrører	-11.2998
▁konkurenci	-11.2999
▁halten	-11.3
▁precisamente	-11.3
▁appr	-11.3001
ejší	-11.3003
▁bezpečnost	-11.3007
▁tett	-11.3008
šti	-11.3009
sible	-11.301
▁stipr	-11.3011
▁Σώμα	-11.3012
▁reale	-11.3013
uff	-11.3014
▁actualmente	-11.3014
▁trasporti	-11.3014
▁studie	-11.3015
▁varnost	-11.3016
▁kohustus	-11.3017
▁gadu	-11.3018
▁Dinge	-11.3018
▁agua	-11.3018
▁saug	-11.3019
▁day	-11.302
▁januari	-11.302
väg	-11.3021
leggen	-11.3021
▁fac	-11.3024
▁προϋπολογισμού	-11.3024
ля	-11.3025
▁fornire	-11.3025
▁criterios	-11.3026
▁respektera	-11.3026
▁approccio	-11.3026
▁économie	-11.303
tine	-11.3031
umus	-11.3031
▁fondu	-11.3032
▁έν	-11.3032
▁Sarkozy	-11.3033
▁vastgesteld	-11.3033
▁turn	-11.3034
unternehmen	-11.3035
▁peavad	-11.3035
▁esas	-11.3036
ione	-11.3036
▁mají	-11.3036
▁ön	-11.3037
āka	-11.3039
▁camp	-11.304
▁υπηρεσίες	-11.304
▁dažād	-11.304
▁egyes	-11.304
▁uitvoer	-11.304
▁rokov	-11.3041
▁taak	-11.3047
▁trova	-11.305
▁ecc	-11.305
▁pravil	-11.3051
▁possible.	-11.3051
▁afstemning	-11.3051
▁dá	-11.3052
▁arma	-11.3053
▁passa	-11.3053
▁revisione	-11.3054
▁priva	-11.3055
mpel	-11.3055
▁tarea	-11.3056
▁fini	-11.3057
▁бих	-11.3057
▁Dessutom	-11.3061
▁основа	-11.3061
▁καταστ	-11.3062
▁fly	-11.3062
▁hervor	-11.3064
jski	-11.3068
ωθεί	-11.3069
▁Tenemos	-11.307
▁Protokoll	-11.307
▁ügy	-11.3071
slov	-11.3071
▁particolarmente	-11.3073
▁κανόνες	-11.3073
▁One	-11.3074
▁travers	-11.3076
kende	-11.3081
▁Tādēļ	-11.3082
▁daarmee	-11.3082
▁Kompromiss	-11.3083
▁majú	-11.3083
▁Bulgarien	-11.3084
▁pagar	-11.3085
▁aurait	-11.3086
▁geführt	-11.3086
▁naszych	-11.3087
▁Straf	-11.3088
▁intende	-11.3088
▁Th	-11.3088
▁sellele	-11.3089
▁minde	-11.309
▁rurale	-11.309
▁voran	-11.309
át.	-11.3091
cessi	-11.3092
▁område,	-11.3093
▁Infine,	-11.3094
teilen	-11.3095
▁rak	-11.3095
▁imenu	-11.3098
▁kartu	-11.3098
sposob	-11.3098
▁orgány	-11.3099
▁doen.	-11.3099
vermogen	-11.31
▁elezioni	-11.31
ята	-11.31
▁reciproc	-11.3101
нов	-11.3101
▁viola	-11.3102
▁Republic	-11.3103
▁lejlighed	-11.3106
▁Erklärung	-11.3106
▁previous	-11.311
▁fosse	-11.311
▁richiede	-11.311
▁jauna	-11.3112
▁demain	-11.3112
▁energii	-11.3112
▁pretende	-11.3114
▁szükséges	-11.3117
▁présenter	-11.3117
▁documents	-11.3117
▁κανείς	-11.3117
▁leve	-11.3124
▁desea	-11.3124
▁accompli	-11.3124
▁markeds	-11.3125
▁europäischer	-11.3125
▁groep	-11.3125
▁asuntos	-11.3127
ικούς	-11.3127
▁unionen.	-11.3129
ujemy	-11.3129
▁señal	-11.313
▁Härra	-11.313
▁podporuje	-11.3131
▁basic	-11.3133
▁Handels	-11.3133
pakke	-11.3133
▁condamn	-11.3134
▁finančne	-11.3134
▁toliau	-11.3134
pełni	-11.3136
▁viņa	-11.3136
съ	-11.3137
▁principali	-11.314
▁territoriale	-11.314
clusi	-11.3142
▁afferma	-11.3143
▁brengen.	-11.3143
▁mnie	-11.3146
▁pieeja	-11.315
sinstrument	-11.315
▁exercice	-11.315
▁γραπτώς.	-11.315
▁italien	-11.3154
▁ακ	-11.3154
sikkerhed	-11.3154
▁bl.a.	-11.3155
ξε	-11.3155
▁programmet	-11.3156
▁expert	-11.3156
▁compito	-11.3156
σφαλ	-11.3156
▁Tier	-11.3157
▁obiectiv	-11.3157
▁above	-11.3158
▁abord	-11.316
richten	-11.316
▁μαζί	-11.3162
▁laiko	-11.3162
▁Rede	-11.3163
▁ECB	-11.3164
damas	-11.3165
▁alapvető	-11.3167
ităţi	-11.3167
▁telles	-11.3167
ást	-11.3168
▁způsob	-11.3168
сто	-11.3169
termin	-11.317
▁1993	-11.317
▁einzelnen	-11.317
▁Wo	-11.317
▁strengthen	-11.317
▁Mitglied	-11.3171
▁lor	-11.3171
“	-11.3173
szcze	-11.3175
▁Gro	-11.3175
▁D'	-11.3175
γράφ	-11.3176
▁ανά	-11.3176
aalse	-11.3177
▁strony	-11.3177
▁familiar	-11.3178
▁kehtesta	-11.3178
▁detaljer	-11.318
τυπ	-11.318
са	-11.3181
imp	-11.3181
instrument	-11.3181
▁Carta	-11.3181
▁habit	-11.3182
▁udvalg	-11.3182
▁technical	-11.3183
▁pateikt	-11.3184
▁cose	-11.3186
▁Bud	-11.3186
▁valores	-11.3187
vál	-11.3187
▁positieve	-11.3188
▁mog	-11.3188
ward	-11.3191
▁formación	-11.3192
▁cru	-11.3192
▁Tale	-11.3193
▁pána	-11.3193
▁συνεργασίας	-11.3196
▁horas	-11.3197
▁regarding	-11.3197
gesetz	-11.3198
andet	-11.3199
▁fremhæve	-11.32
tiska	-11.3201
živ	-11.3203
▁avviso	-11.3205
▁nep	-11.3208
▁agreed	-11.3211
▁negali	-11.3211
mens	-11.3212
▁geeft	-11.3212
▁történő	-11.3212
▁občanů	-11.3214
tagelse	-11.3215
▁προϋπολογισμό	-11.3216
▁organizaciones	-11.3216
▁construction	-11.3217
▁niż	-11.3217
▁občan	-11.3218
▁swoje	-11.3219
▁šā	-11.3219
▁energijos	-11.3219
▁ordförande,	-11.322
▁fix	-11.3221
▁resolucij	-11.3223
▁šiandien	-11.3226
▁kuidas	-11.3226
▁critique	-11.3226
▁měla	-11.3227
▁tööta	-11.3227
-in-Office	-11.3228
ED	-11.3229
▁haga	-11.3231
▁36	-11.3231
álne	-11.3233
▁Konflikt	-11.3233
▁indeholder	-11.3233
▁usnesení	-11.3233
▁qu'à	-11.3234
▁duidelijke	-11.3236
▁discrimin	-11.3236
▁žiad	-11.3236
▁dostęp	-11.3238
▁Bürgerinnen	-11.3238
▁viens	-11.3238
▁meinem	-11.324
▁prej	-11.3241
šanā	-11.3241
lap	-11.3243
▁πρόοδο	-11.3245
cut	-11.3245
▁únia	-11.3246
▁tiesības	-11.3247
▁sobie	-11.3249
▁kaitse	-11.3249
ppel	-11.325
▁Kampf	-11.325
▁produk	-11.3252
0.000	-11.3254
▁Chine	-11.3254
▁spelen	-11.3255
λου	-11.3255
▁Úgy	-11.3255
▁škod	-11.3257
κε	-11.3257
▁forfatning	-11.3259
▁presu	-11.3261
▁réalisé	-11.3262
▁huvi	-11.3262
wand	-11.3264
amas	-11.3264
▁sørge	-11.3264
▁agent	-11.3265
bei	-11.3265
cell	-11.3266
▁prv	-11.327
▁paga	-11.3271
▁considération	-11.3271
▁oral	-11.3273
ekkel	-11.3273
▁djur	-11.3274
▁attuale	-11.3274
▁οποίοι	-11.3275
▁vede	-11.3275
▁Vertrags	-11.3279
posizione	-11.3281
▁обаче	-11.3281
hö	-11.3281
▁când	-11.3282
▁tāpēc	-11.3285
▁σαφές	-11.3285
▁Siamo	-11.3286
▁forbrugerne	-11.3287
▁cierta	-11.3288
istes	-11.3289
▁buen	-11.329
▁transparency	-11.329
▁inspir	-11.3293
▁cambiamento	-11.3293
▁aftaler	-11.3293
▁uppgift	-11.3295
▁prossimo	-11.3295
▁Änderung	-11.3295
που	-11.3295
ţiile	-11.3296
šim	-11.3297
▁maks	-11.3297
▁doar	-11.3298
▁tedy	-11.3298
▁kombin	-11.3299
▁sled	-11.3301
▁hoved	-11.3301
▁Transparenz	-11.3302
▁előadó	-11.3302
▁améliorer	-11.3302
ίζουμε	-11.3303
▁morgon	-11.3305
▁Ved	-11.3305
▁élet	-11.3306
▁mērķi	-11.3306
▁gebaseerd	-11.3307
▁attack	-11.3307
full	-11.3307
▁urban	-11.3307
▁principper	-11.3307
▁Ukraina	-11.3307
▁„	-11.3308
ιτ	-11.3309
▁azok	-11.3315
▁Vereinbarung	-11.3319
▁tecnología	-11.3319
▁forbedring	-11.3319
▁affermato	-11.332
▁vak	-11.3321
▁ratifica	-11.3321
▁kura	-11.3322
itaire	-11.3323
▁ważne	-11.3324
▁veces	-11.3325
▁regular	-11.3326
▁partenariat	-11.3326
▁asszony	-11.3328
▁διάταξη	-11.3328
▁2011.	-11.333
▁dys	-11.333
▁technologies	-11.3331
▁Convenzione	-11.3331
▁τέλος	-11.3331
▁větší	-11.3331
▁tagada	-11.3331
▁στοιχεία	-11.3336
▁profesional	-11.3336
▁pericolo	-11.3337
▁И	-11.3337
▁statistic	-11.3338
kking	-11.3338
▁plantea	-11.3339
▁goedgekeurd	-11.334
▁vélemény	-11.334
▁adoption	-11.3341
oji	-11.3342
▁ringrazio	-11.3343
▁vorgesehen	-11.3343
▁vigor	-11.3343
direktivet	-11.3344
▁herrer	-11.3345
▁Evrope	-11.3345
▁Michel	-11.3346
▁Human	-11.3346
▁item	-11.3347
▁νομοθεσία	-11.3348
▁žal	-11.3349
ρέ	-11.335
▁relatif	-11.335
▁ι	-11.3352
front	-11.3352
▁przedsiębiorstw	-11.3352
bescherming	-11.3353
fect	-11.3353
▁futur	-11.3354
▁hver	-11.3355
verantwoordelijk	-11.3355
▁valeurs	-11.3356
щ	-11.3357
▁περί	-11.3357
▁certainement	-11.3359
▁verejn	-11.336
▁disposiciones	-11.3362
▁kuriuos	-11.3363
raad	-11.3363
▁struktūr	-11.3365
▁Barnier	-11.3365
▁priprav	-11.3365
[...]
