<s>	0
</s>	0
<unk>	0
<pad>	0
,	-3.45565
.	-3.84412
s	-3.86392
▁de	-4.24452
▁	-4.43058
e	-4.58138
▁a	-4.91689
t	-4.94533
▁la	-5.06783
i	-5.09651
a	-5.10292
en	-5.11087
▁en	-5.15695
▁in	-5.17446
n	-5.25654
r	-5.2997
▁the	-5.51216
▁i	-5.55438
o	-5.67578
er	-5.68517
u	-5.72417
▁que	-5.75966
d	-5.79101
▁to	-5.83869
▁di	-5.89002
▁die	-5.95016
m	-5.96616
▁un	-6.00122
▁der	-6.00687
▁van	-6.02987
▁le	-6.07466
▁of	-6.0837
▁for	-6.10834
▁-	-6.12487
▁at	-6.12676
▁et	-6.13348
▁e	-6.17992
▁se	-6.19269
▁att	-6.22013
re	-6.2495
▁er	-6.27662
▁is	-6.30314
es	-6.34463
▁som	-6.35204
y	-6.35755
▁den	-6.35984
▁el	-6.36372
▁om	-6.37732
▁and	-6.37926
▁het	-6.38244
▁be	-6.38496
l	-6.3901
te	-6.41955
▁v	-6.42587
▁y	-6.43448
▁og	-6.44044
▁det	-6.46621
▁na	-6.48782
▁och	-6.49342
▁und	-6.50253
▁des	-6.52015
z	-6.52172
ne	-6.53352
▁del	-6.53833
de	-6.54164
▁vi	-6.55942
▁o	-6.55971
▁s	-6.57149
-	-6.57376
▁che	-6.60141
k	-6.60767
j	-6.62122
▁af	-6.63176
to	-6.63249
le	-6.66527
▁te	-6.68428
▁för	-6.69087
▁con	-6.69329
ti	-6.70389
ing	-6.71649
▁les	-6.7269
▁med	-6.73299
▁à	-6.7343
▁je	-6.7375
▁på	-6.74255
▁ne	-6.74359
▁los	-6.7647
▁il	-6.76797
et	-6.76931
▁και	-6.77252
▁on	-6.7728
▁να	-6.77356
▁es	-6.77478
▁I	-6.79622
▁een	-6.80133
▁dat	-6.80157
v	-6.81001
▁har	-6.81094
ς	-6.81244
ta	-6.81649
▁z	-6.82241
▁av	-6.82411
▁per	-6.83373
▁op	-6.84027
ar	-6.89373
:	-6.90408
na	-6.90632
▁do	-6.91636
c	-6.92431
▁ir	-6.9251
▁za	-6.92671
▁that	-6.93674
▁una	-6.93866
▁no	-6.93925
▁til	-6.93991
▁po	-6.94121
▁al	-6.94284
st	-6.9484
ch	-6.95257
ed	-6.96426
da	-6.97465
no	-7.00083
al	-7.02567
▁da	-7.04406
li	-7.04985
▁της	-7.05599
▁we	-7.05639
▁si	-7.05778
é	-7.06378
ni	-7.0805
▁su	-7.08898
an	-7.11259
▁zu	-7.12016
▁w	-7.12035
▁är	-7.12488
▁re	-7.13504
h	-7.14387
▁την	-7.15031
▁voor	-7.15185
ra	-7.16385
▁на	-7.16704
▁du	-7.17593
▁sa	-7.17811
▁ha	-7.18599
?	-7.18805
la	-7.19121
as	-7.19751
g	-7.20468
b	-7.20509
os	-7.21031
me	-7.22739
ci	-7.23328
lo	-7.24406
ly	-7.25333
▁ver	-7.25881
em	-7.26055
▁par	-7.26703
▁an	-7.27828
▁ge	-7.28235
in	-7.28342
do	-7.28428
s.	-7.29486
▁k	-7.29502
▁A	-7.2974
▁las	-7.30925
ga	-7.31326
▁De	-7.31538
mi	-7.31806
p	-7.32425
se	-7.3345
▁kan	-7.34918
▁La	-7.35081
▁till	-7.35114
▁pas	-7.36942
▁so	-7.3754
▁το	-7.37815
om	-7.38859
▁over	-7.40169
is	-7.40409
ge	-7.40712
▁by	-7.4089
▁pre	-7.42206
ce	-7.42572
ja	-7.43324
▁para	-7.43509
it	-7.4356
▁pro	-7.45426
▁για	-7.45543
▁qui	-7.46016
ul	-7.46043
▁u	-7.46268
í	-7.46315
▁pour	-7.46504
ma	-7.46987
▁è	-7.47226
▁por	-7.47696
▁ce	-7.47734
▁"	-7.48129
▁non	-7.48176
di	-7.49521
▁η	-7.49753
▁ja	-7.49871
be	-7.49888
▁az	-7.50035
f	-7.50601
▁Det	-7.50903
▁met	-7.5096
▁l'	-7.51931
ten	-7.52503
ie	-7.52807
▁lo	-7.52838
▁von	-7.5314
▁των	-7.53635
▁dans	-7.53662
▁In	-7.53856
ek	-7.54585
▁nous	-7.548
▁ma	-7.54918
je	-7.54926
▁του	-7.55373
▁della	-7.55561
▁pa	-7.56128
▁für	-7.56203
el	-7.57572
der	-7.58175
vi	-7.58431
ā	-7.5874
▁ikke	-7.59098
en.	-7.59207
▁est	-7.60005
)	-7.60117
▁this	-7.60568
▁au	-7.6162
ver	-7.62
á	-7.62059
;	-7.62219
id	-7.62242
▁inte	-7.62724
us	-7.62821
▁Europa	-7.63039
▁που	-7.63109
▁že	-7.63636
▁ka	-7.63969
▁aan	-7.64012
▁Vi	-7.64275
va	-7.6444
at	-7.64909
▁not	-7.65925
š	-7.65955
▁με	-7.66139
ve	-7.66223
▁im	-7.67643
▁és	-7.67742
▁have	-7.68219
▁me	-7.68376
ă	-7.69003
▁auf	-7.69102
▁EU	-7.69327
▁une	-7.69392
▁S	-7.69971
▁sur	-7.70421
▁nu	-7.70662
ž	-7.71089
▁zijn	-7.71239
▁men	-7.71915
▁man	-7.73411
ho	-7.73518
w	-7.73594
▁ki	-7.73656
▁niet	-7.73688
▁(	-7.73807
gi	-7.74168
▁are	-7.74988
▁alle	-7.77223
e,	-7.77599
▁nicht	-7.7807
▁în	-7.78363
gen	-7.78462
ą	-7.78704
ν	-7.79004
▁das	-7.79811
▁wir	-7.79849
ri	-7.80036
ter	-7.80172
▁dass	-7.8021
si	-7.80405
en,	-7.8082
▁ist	-7.81173
go	-7.81727
ment	-7.81802
ų	-7.82197
▁it	-7.82358
ó	-7.82568
▁En	-7.82604
▁θα	-7.82777
ka	-7.841
nie	-7.84441
▁vil	-7.84576
or	-7.85026
▁и	-7.8516
▁ett	-7.85563
▁ri	-7.85936
▁als	-7.86189
▁mit	-7.86252
▁да	-7.86321
ation	-7.86406
za	-7.86729
▁dem	-7.8677
▁Commission	-7.87414
ung	-7.87699
il	-7.88035
are	-7.88655
▁ότι	-7.88738
▁eine	-7.89168
den	-7.89425
▁είναι	-7.89495
ę	-7.89829
ή	-7.89936
▁за	-7.9086
on	-7.9161
tu	-7.91899
am	-7.92907
mente	-7.93011
▁pri	-7.93054
▁ein	-7.93101
ur	-7.93371
▁alla	-7.93445
▁as	-7.93476
mo	-7.93808
▁European	-7.94484
▁este	-7.94718
▁από	-7.94886
▁with	-7.94909
▁ich	-7.95256
ά	-7.95371
ent	-7.95665
ir	-7.95879
α	-7.9598
ro	-7.96414
ik	-7.96432
ov	-7.9653
▁V	-7.96812
nt	-7.96933
▁hogy	-7.9694
▁ik	-7.97935
▁which	-7.98156
ck	-7.98861
vo	-7.98891
▁ar	-7.99728
▁τη	-8.00439
▁co	-8.00498
▁jeg	-8.01472
▁σε	-8.02414
ό	-8.02473
▁Je	-8.02534
▁var	-8.02544
ia	-8.02659
im	-8.02782
č	-8.03647
▁worden	-8.03712
▁τα	-8.03994
▁The	-8.04116
ant	-8.04589
ki	-8.04741
▁Union	-8.04994
ει	-8.05047
ot	-8.0531
ej	-8.05348
▁sig	-8.05766
▁will	-8.05936
▁ob	-8.06265
ud	-8.06335
zi	-8.06669
ste	-8.07099
▁dit	-8.07874
ä	-8.07911
▁We	-8.08857
mu	-8.09261
ad	-8.09663
ze	-8.09695
▁E	-8.09783
▁Parlamento	-8.0987
υ	-8.10295
jo	-8.10327
e.	-8.10489
ba	-8.10581
ko	-8.10585
▁all	-8.10926
▁od	-8.11085
▁Es	-8.1142
ut	-8.11422
ní	-8.1202
▁K	-8.12105
▁G	-8.12171
та	-8.12324
ok	-8.12488
nde	-8.1284
▁Parlement	-8.1371
▁в	-8.14012
▁ook	-8.14719
zione	-8.14778
tion	-8.14816
né	-8.15042
▁P	-8.15433
▁jag	-8.1545
ere	-8.16196
▁ra	-8.16255
▁auch	-8.16779
▁τις	-8.1689
▁så	-8.17299
i,	-8.1747
▁nie	-8.17755
▁ko	-8.17958
▁Le	-8.17968
▁Jag	-8.18242
▁F	-8.18412
▁vor	-8.18434
▁Herr	-8.18559
▁t	-8.18806
η	-8.18937
▁Il	-8.19241
ción	-8.19605
▁plus	-8.1984
sta	-8.20258
▁Be	-8.20789
▁tra	-8.20946
ca	-8.21077
и	-8.21168
▁mi	-8.21206
▁kad	-8.21225
▁dei	-8.21342
co	-8.21436
▁στην	-8.21452
▁was	-8.21628
'	-8.21705
ú	-8.22662
ou	-8.22741
т	-8.22781
ben	-8.22833
▁delle	-8.22843
▁iz	-8.22856
▁Jeg	-8.22901
t.	-8.23029
▁fra	-8.23232
▁under	-8.23293
▁skal	-8.234
▁m	-8.23631
ven	-8.23659
ig	-8.24136
▁bi	-8.24224
▁d	-8.24281
▁um	-8.2433
ny	-8.24558
▁d'	-8.24653
▁pe	-8.25643
ο	-8.25763
▁más	-8.26091
▁ad	-8.26334
!	-8.26346
▁Parlament	-8.26618
ks	-8.26803
▁Ik	-8.26845
ku	-8.2708
▁hebben	-8.27392
▁ci	-8.28049
men	-8.28183
▁–	-8.28362
▁T	-8.28651
▁has	-8.28652
▁Europese	-8.2878
▁deze	-8.2906
t,	-8.29151
▁C	-8.29245
▁kommer	-8.29484
▁bo	-8.29649
ī	-8.29688
▁sobre	-8.29777
▁să	-8.29958
cu	-8.30698
ών	-8.3077
▁δεν	-8.30926
du	-8.30993
vis	-8.31169
ι	-8.31357
▁über	-8.31656
▁heeft	-8.31989
▁Die	-8.32693
ai	-8.33142
▁sono	-8.33218
un	-8.33348
ju	-8.33478
▁sich	-8.33706
gu	-8.33804
ken	-8.3387
po	-8.34207
ty	-8.34212
▁от	-8.35306
er,	-8.36082
▁Ich	-8.36318
▁Presidente,	-8.36389
▁detta	-8.36558
▁wij	-8.36681
▁οι	-8.36697
▁ni	-8.36705
▁va	-8.3673
▁Comisión	-8.37241
▁uit	-8.37244
σ	-8.37406
θ	-8.37606
▁p	-8.37673
kt	-8.37998
▁moeten	-8.38065
▁euro	-8.38214
a,	-8.38258
he	-8.38326
▁Commissie	-8.38419
▁wie	-8.38574
bi	-8.38599
"	-8.38887
▁como	-8.39182
▁Mr	-8.3954
▁vy	-8.39551
bo	-8.40345
▁ta	-8.40727
м	-8.40813
ke	-8.41162
▁с	-8.41467
lu	-8.41657
▁nel	-8.41787
ska	-8.41849
és	-8.42184
▁mis	-8.422
▁Het	-8.42348
ω	-8.4236
sch	-8.4246
▁Ma	-8.42763
erne	-8.42939
▁også	-8.43017
ów	-8.43165
ning	-8.43175
▁W	-8.43185
▁Po	-8.43211
ů	-8.43248
▁li	-8.43343
▁τους	-8.43775
sti	-8.43925
▁eller	-8.44021
▁O	-8.44257
▁ve	-8.44297
▁also	-8.44847
▁pod	-8.45201
▁am	-8.45473
▁uz	-8.45579
val	-8.45688
▁şi	-8.45763
ado	-8.46121
ě	-8.46144
▁h	-8.46326
ē	-8.46355
▁questo	-8.46444
zu	-8.46587
so	-8.46937
▁sie	-8.47074
▁us	-8.47192
▁ho	-8.47488
▁ud	-8.47579
а	-8.47837
ire	-8.47857
▁come	-8.48037
ist	-8.48197
▁Europäische	-8.483
▁tot	-8.48341
▁door	-8.48871
▁europea	-8.49024
▁%	-8.49101
▁cette	-8.49376
▁ap	-8.49543
▁Se	-8.49634
▁più	-8.49683
ndo	-8.49715
▁To	-8.4977
pa	-8.49778
с	-8.49992
▁aux	-8.50031
▁ten	-8.5011
▁gli	-8.5045
▁l’	-8.50511
▁dé	-8.50718
▁D	-8.50764
▁måste	-8.50779
▁τον	-8.50904
pi	-8.51054
▁се	-8.51544
/	-8.51827
ali	-8.51877
▁maar	-8.5188
ak	-8.5195
χ	-8.52066
κ	-8.52125
▁No	-8.52237
▁Na	-8.52376
▁parte	-8.52392
erna	-8.52468
▁social	-8.52484
▁M	-8.5264
nu	-8.52709
▁Kommission	-8.52781
▁f	-8.52858
▁ze	-8.53216
õ	-8.53227
ami	-8.53286
▁Ver	-8.53581
op	-8.53648
▁han	-8.53807
ons	-8.54088
▁Re	-8.54142
▁B	-8.54148
▁esta	-8.54163
▁plan	-8.54188
то	-8.54218
▁aby	-8.54325
ate	-8.54524
▁πρέπει	-8.54961
▁ex	-8.55076
▁ved	-8.55261
▁rapport	-8.5555
▁cu	-8.55579
φ	-8.5562
iz	-8.5605
▁ont	-8.5612
▁An	-8.56249
ни	-8.56377
▁sin	-8.56433
mos	-8.56463
▁werden	-8.56525
i.	-8.56539
ts	-8.56575
о	-8.56602
ban	-8.56705
land	-8.57436
tro	-8.57457
lig	-8.57864
▁entre	-8.57985
▁się	-8.58208
ně	-8.58266
▁Commissione	-8.58304
ji	-8.58399
▁would	-8.58482
▁H	-8.58688
len	-8.58751
ύ	-8.59167
▁sont	-8.5923
ele	-8.59317
▁tre	-8.59374
▁kon	-8.59458
▁по	-8.59673
ő	-8.59844
▁bij	-8.59847
ων	-8.60205
▁or	-8.60453
▁στο	-8.60505
те	-8.60607
ación	-8.61205
▁fa	-8.61284
▁Den	-8.61792
▁d'un	-8.61921
ha	-8.61924
▁son	-8.6194
▁Z	-8.61944
▁hier	-8.61966
um	-8.6209
▁wordt	-8.62204
uje	-8.62244
▁min	-8.62444
▁c	-8.6266
▁år	-8.62719
▁meg	-8.62743
nak	-8.62793
▁mod	-8.62861
▁że	-8.6311
vol	-8.63278
ί	-8.6341
est	-8.63482
ato	-8.63506
ac	-8.63507
ande	-8.63514
я	-8.63867
▁européenne	-8.63942
▁should	-8.64123
5	-8.64523
на	-8.6462
ske	-8.64631
ng	-8.64676
н	-8.6513
des	-8.65155
▁anche	-8.65316
ach	-8.655
ý	-8.65702
▁ca	-8.6613
▁denne	-8.66154
▁Me	-8.66345
wa	-8.66504
▁daß	-8.66515
wi	-8.66802
sz	-8.67096
▁El	-8.67315
ši	-8.6736
▁kunnen	-8.67414
▁προ	-8.67432
▁е	-8.67526
▁Euroopa	-8.67853
▁ut	-8.6791
ė	-8.67944
ige	-8.6801
ties	-8.68264
ati	-8.68464
▁nem	-8.68481
▁care	-8.68813
ü	-8.68869
▁fi	-8.68906
▁from	-8.68906
▁sta	-8.69261
u,	-8.69586
▁mo	-8.69641
nia	-8.69663
▁į	-8.69768
es,	-8.69842
▁ser	-8.69935
ligt	-8.69954
▁Er	-8.70044
▁avec	-8.70074
ido	-8.70242
ff	-8.70285
hr	-8.70398
▁her	-8.70415
▁från	-8.70519
π	-8.70562
▁jo	-8.70591
ende	-8.70647
án	-8.70707
▁αυτό	-8.70993
▁but	-8.71003
▁ο	-8.71025
que	-8.71223
amente	-8.71301
▁ré	-8.71508
▁kas	-8.71704
er.	-8.71713
nd	-8.71802
▁important	-8.71802
mp	-8.7187
a.	-8.71891
▁b	-8.71931
for	-8.72001
▁pi	-8.72029
▁our	-8.72162
▁Si	-8.72291
▁dette	-8.72303
▁must	-8.72332
▁bei	-8.72339
▁zur	-8.72371
ger	-8.72647
▁Kommissionen	-8.7272
▁moet	-8.72938
är	-8.72949
▁ind	-8.73048
εί	-8.7314
ουν	-8.73344
▁can	-8.73422
▁Wir	-8.73454
▁επι	-8.7356
imo	-8.73699
pro	-8.7373
▁problem	-8.73885
▁dan	-8.73917
▁pie	-8.74005
▁skulle	-8.74131
rá	-8.74206
▁fin	-8.74745
▁Unión	-8.74753
▁ju	-8.74992
ές	-8.75007
▁iš	-8.75322
▁ces	-8.75391
tal	-8.75696
tar	-8.75706
ć	-8.75717
▁mais	-8.75776
▁U	-8.75875
▁Nous	-8.75894
ens	-8.75992
's	-8.76078
▁Unie	-8.76136
▁dag	-8.76155
nek	-8.7642
able	-8.76981
λ	-8.77108
τα	-8.7755
ál	-8.77574
▁være	-8.7759
μ	-8.77644
ement	-8.77689
δ	-8.77693
od	-8.77705
pe	-8.77722
tra	-8.77821
lich	-8.77844
ky	-8.78061
sk	-8.78062
▁dar	-8.78185
▁importante	-8.78222
ισ	-8.78397
ers	-8.7842
▁Ne	-8.78572
ol	-8.78573
ego	-8.78732
ber	-8.78744
igen	-8.7935
▁también	-8.79459
▁aus	-8.79785
но	-8.79939
▁sind	-8.7997
▁tak	-8.79986
▁nos	-8.8005
ώ	-8.80057
β	-8.80084
▁mot	-8.80132
▁vill	-8.80265
ry	-8.80337
▁pays	-8.80366
▁upp	-8.80422
▁Der	-8.80534
▁val	-8.8059
▁Al	-8.80683
▁μια	-8.81027
azione	-8.81272
▁situation	-8.81802
cz	-8.81988
▁Sie	-8.82264
▁budget	-8.8232
▁mer	-8.82327
▁einer	-8.82344
x	-8.82433
▁sein	-8.82442
▁Monsieur	-8.82658
▁efter	-8.82832
kon	-8.83028
ft	-8.83198
▁être	-8.83208
▁ter	-8.83267
▁diese	-8.83305
▁europeo	-8.83316
ec	-8.83386
▁pentru	-8.83459
tre	-8.8359
▁pat	-8.83705
mer	-8.83744
cie	-8.83773
▁μας	-8.83848
▁α	-8.83894
ρ	-8.83912
ez	-8.83989
▁essere	-8.84348
▁dal	-8.8446
▁Pa	-8.84464
▁Mi	-8.84511
A	-8.84525
γ	-8.84745
▁os	-8.84759
▁dell'	-8.84884
▁vo	-8.85279
▁zo	-8.85517
var	-8.85551
▁informe	-8.85723
▁nog	-8.85884
ės	-8.85971
▁ale	-8.86029
▁fait	-8.86185
▁been	-8.86494
ade	-8.8694
pen	-8.86997
▁more	-8.87034
▁report	-8.87156
bar	-8.87457
▁It	-8.87489
▁UE	-8.87635
ag	-8.87741
ли	-8.87836
2	-8.88059
▁också	-8.88064
ità	-8.88087
▁că	-8.88116
tud	-8.88126
å	-8.88151
▁δια	-8.88198
ili	-8.88245
▁onder	-8.88246
▁zal	-8.88421
ru	-8.8844
▁l'a	-8.88551
к	-8.8856
▁bien	-8.88612
▁5	-8.88618
we	-8.88675
sto	-8.88721
г	-8.88992
ých	-8.89067
▁wil	-8.89088
▁ei	-8.89113
ine	-8.89256
▁comme	-8.89299
del	-8.89452
nes	-8.89469
ische	-8.89627
▁Eiropas	-8.89855
▁și	-8.89871
▁jest	-8.89884
té	-8.90042
▁1	-8.90126
▁Da	-8.90128
I	-8.90148
4	-8.90154
▁ga	-8.90269
ale	-8.90303
eg	-8.9033
▁συν	-8.90415
▁sch	-8.90431
▁Stati	-8.90562
▁че	-8.90706
ül	-8.908
▁you	-8.90821
▁question	-8.90896
▁hat	-8.90954
io	-8.91177
▁cui	-8.91295
leg	-8.91321
ll	-8.91354
▁Europe	-8.91355
▁över	-8.91365
æ	-8.91414
▁sus	-8.91477
▁été	-8.9163
▁Europos	-8.9168
ες	-8.91705
stat	-8.91802
dy	-8.91899
▁ou	-8.91942
6	-8.91995
che	-8.92095
▁land	-8.92246
τ	-8.92253
ada	-8.92414
gli	-8.92478
▁andere	-8.92588
par	-8.92706
či	-8.9272
▁Un	-8.92951
▁For	-8.92956
iem	-8.92974
▁sociale	-8.93005
gt	-8.93036
lige	-8.93049
fi	-8.93116
л	-8.93141
end	-8.93178
▁EU-	-8.93194
έ	-8.93888
ją	-8.93943
ée	-8.93996
▁l	-8.93998
ite	-8.94066
▁Estados	-8.94151
▁få	-8.94163
▁haben	-8.94184
ουμε	-8.94273
ł	-8.94564
▁instrument	-8.94594
▁när	-8.94702
▁ch	-8.94706
▁Ge	-8.94868
E	-8.94875
nce	-8.9494
man	-8.94984
▁President,	-8.95003
▁up	-8.95121
▁не	-8.95208
nych	-8.95294
ва	-8.95584
es.	-8.95621
▁egy	-8.95717
▁selle	-8.95786
▁Voorzitter,	-8.95967
les	-8.96026
red	-8.96036
▁mu	-8.96054
▁Member	-8.96061
zen	-8.96089
▁müssen	-8.9615
▁möchte	-8.96335
ting	-8.9638
▁Bericht	-8.96445
▁wy	-8.96581
▁So	-8.96583
ου	-8.96653
ciones	-8.96682
zo	-8.96693
kom	-8.96749
▁just	-8.96927
▁kell	-8.96983
enia	-8.96984
zioni	-8.96995
qu	-8.97134
▁inform	-8.97177
con	-8.97302
▁st	-8.97384
▁wird	-8.97463
▁politique	-8.97535
▁contra	-8.97638
е	-8.97948
ych	-8.98115
▁sp	-8.98127
▁Por	-8.98134
▁parlament	-8.98187
7	-8.98228
by	-8.98326
het	-8.98346
▁Parliament	-8.98502
▁ben	-8.98513
tel	-8.98604
ία	-8.9862
iti	-8.98634
tes	-8.98651
ais	-8.98711
ε	-8.98747
lt	-8.98854
▁car	-8.98874
fic	-8.98934
▁ab	-8.99168
cht	-8.99235
tas	-8.99315
ού	-8.99409
iamo	-8.99469
sten	-8.99515
▁einen	-8.99523
▁noch	-8.99568
gy	-8.99573
▁π	-8.99735
▁mycket	-8.99788
▁vous	-8.99911
в	-8.99926
tori	-9.0005
ab	-9.00297
ná	-9.00378
▁kun	-9.00399
▁vol	-9.00444
▁he	-9.00691
ering	-9.00757
▁vid	-9.00833
nej	-9.00844
▁dieser	-9.00864
▁απο	-9.01049
ym	-9.01321
▁debate	-9.0148
▁3	-9.01488
▁verslag	-9.01576
▁vores	-9.01578
▁respect	-9.01771
▁relazione	-9.0184
O	-9.01947
ata	-9.02142
▁inter	-9.02152
▁mig	-9.02168
▁στη	-9.02216
ра	-9.02303
eren	-9.02379
pp	-9.02469
ina	-9.02584
nih	-9.02588
ide	-9.02637
▁States	-9.02737
unk	-9.02741
▁denna	-9.0286
▁like	-9.02866
▁qu'il	-9.02894
▁ú	-9.02958
▁tout	-9.03201
▁tu	-9.03245
1	-9.0348
▁10	-9.03569
ής	-9.03598
▁nach	-9.03617
o,	-9.03625
▁far	-9.03652
era	-9.03663
iv	-9.03754
▁onze	-9.03856
elle	-9.0387
lor	-9.03878
ici	-9.04033
▁jak	-9.04042
▁ska	-9.04047
ри	-9.04243
▁hun	-9.04257
▁αν	-9.04295
ord	-9.04313
min	-9.04314
▁zich	-9.04335
▁vara	-9.04467
▁4	-9.04494
▁zou	-9.04664
för	-9.04733
▁partner	-9.04782
idad	-9.04809
▁hi	-9.04937
▁Ho	-9.04952
ity	-9.04959
▁meget	-9.05016
▁Do	-9.05087
▁degli	-9.05152
tor	-9.0534
▁sia	-9.0535
▁naar	-9.05367
▁hvor	-9.05515
▁politik	-9.05713
▁Europea	-9.05736
▁l'Union	-9.05911
▁Conseil	-9.06002
▁må	-9.06142
ando	-9.06236
▁membres	-9.06367
▁Consejo	-9.06396
ст	-9.06462
▁questa	-9.06566
▁rapporteur	-9.06659
S	-9.06662
mis	-9.06667
▁Ka	-9.06795
ség	-9.06861
▁part	-9.06914
▁Council	-9.06938
▁tale	-9.07149
▁kommissionen	-9.07165
ß	-9.07187
stan	-9.07225
▁meer	-9.07258
lé	-9.07291
▁durch	-9.07326
▁Consiglio	-9.07369
ski	-9.07597
pri	-9.0781
▁integr	-9.07824
3	-9.07915
ungen	-9.07916
▁Hr.	-9.07949
▁g	-9.08041
prav	-9.0808
led	-9.0819
▁modo	-9.08249
▁mai	-9.08268
▁transport	-9.08403
▁their	-9.08528
ih	-9.08622
▁européen	-9.08622
▁membri	-9.08636
ţi	-9.087
per	-9.08827
D	-9.09123
ita	-9.09151
ner	-9.0923
▁tr	-9.09325
▁20	-9.09344
▁sz	-9.09363
▁Raad	-9.09477
sse	-9.09625
▁dėl	-9.09889
iť	-9.09958
▁sector	-9.09972
▁system	-9.1002
sel	-9.10052
igt	-9.10062
▁ro	-9.10091
▁fel	-9.10215
nud	-9.10365
▁my	-9.10395
▁États	-9.10553
th	-9.10668
▁Con	-9.1077
▁miembros	-9.10806
ných	-9.10889
met	-9.1099
▁ένα	-9.11013
▁geen	-9.11023
не	-9.11129
ít	-9.11335
C	-9.11366
▁there	-9.11372
▁Président,	-9.11514
fer	-9.11619
hi	-9.11673
ile	-9.11743
y,	-9.11754
▁Sch	-9.11838
▁Men	-9.11975
▁nella	-9.12071
▁its	-9.12094
amos	-9.12107
▁roz	-9.1215
8	-9.12206
cy	-9.12215
ži	-9.12234
▁point	-9.12263
▁ning	-9.12422
ld	-9.12423
pon	-9.12441
▁politica	-9.12462
▁ai	-9.12552
▁very	-9.12611
sko	-9.12628
lse	-9.12688
ím	-9.12885
▁už	-9.1294
las	-9.1295
▁également	-9.12976
ła	-9.12993
▁N	-9.13008
my	-9.13054
ø	-9.13283
ité	-9.1335
αν	-9.13356
ului	-9.13426
ic	-9.13443
▁problema	-9.13512
▁imp	-9.13518
tet	-9.13563
ott	-9.13632
sp	-9.13632
▁ons	-9.13646
▁grund	-9.13688
au	-9.13723
ż	-9.13728
pre	-9.13842
ô	-9.13863
hed	-9.13952
vin	-9.14044
▁parti	-9.14147
▁disse	-9.14371
▁sú	-9.14388
▁L'	-9.14631
▁εκ	-9.1469
▁other	-9.14756
ите	-9.14761
bre	-9.14763
ito	-9.14867
stand	-9.14989
▁εν	-9.1499
▁need	-9.15087
N	-9.1509
▁hr.	-9.1516
▁här	-9.1523
ť	-9.15244
mise	-9.15255
lle	-9.15431
▁base	-9.15435
▁projekt	-9.15805
▁one	-9.15936
▁(DE)	-9.16011
▁Aus	-9.16042
ano	-9.16074
ion	-9.16101
▁This	-9.16207
dos	-9.16304
use	-9.16324
ár	-9.16437
▁Das	-9.16447
▁2	-9.16481
▁Li	-9.16489
į	-9.16511
▁Señor	-9.16819
▁19	-9.16899
qui	-9.16919
heid	-9.17013
▁Signor	-9.17067
át	-9.17079
▁andra	-9.17112
▁global	-9.17183
else	-9.17252
▁dire	-9.1733
nje	-9.17352
ér	-9.1742
let	-9.17475
▁nur	-9.17478
▁region	-9.17521
▁diesem	-9.17716
tie	-9.18053
ling	-9.18088
itet	-9.18093
▁Europeiska	-9.18148
politik	-9.18224
▁paesi	-9.18349
▁prze	-9.1836
▁bet	-9.18373
▁pré	-9.18407
▁Ce	-9.18408
▁ES	-9.18506
ssen	-9.186
ring	-9.18636
▁d'a	-9.1866
▁aussi	-9.18697
ét	-9.18708
ran	-9.18755
▁stor	-9.18826
▁d’	-9.1887
ingen	-9.18953
▁oss	-9.19068
uto	-9.19163
nk	-9.19256
▁ανα	-9.19298
▁see	-9.1933
▁uns	-9.19405
▁mere	-9.19441
▁debat	-9.19532
ική	-9.19537
▁wat	-9.19551
tos	-9.19583
u.	-9.19711
”	-9.1974
▁quanto	-9.19865
▁faire	-9.19924
▁pos	-9.19933
že	-9.20012
ance	-9.20126
▁din	-9.20136
ées	-9.20147
vé	-9.20283
▁Ha	-9.2031
▁tal	-9.20468
▁lu	-9.20484
▁R	-9.20491
rea	-9.2059
vor	-9.20602
ör	-9.2066
ler	-9.20714
▁Mo	-9.20716
▁Per	-9.20809
▁países	-9.20826
θε	-9.20829
ker	-9.20858
ка	-9.20959
▁these	-9.20998
00	-9.21027
ime	-9.21049
ση	-9.21327
dz	-9.21338
μα	-9.21504
▁who	-9.2153
tte	-9.21555
▁gäller	-9.21654
ře	-9.21676
▁kā	-9.21755
▁στις	-9.21869
▁Ta	-9.2187
▁tur	-9.21939
▁pu	-9.22015
▁(EN)	-9.22023
▁yra	-9.2216
οι	-9.22199
lik	-9.22204
liga	-9.22309
▁public	-9.22461
▁lidstaten	-9.22471
▁política	-9.2266
ľ	-9.22661
▁punto	-9.22688
▁tik	-9.22688
▁reform	-9.22831
▁nei	-9.22934
▁dessa	-9.22939
▁energi	-9.22974
▁time	-9.23172
vá	-9.23263
ust	-9.23327
▁Az	-9.23335
▁Mijnheer	-9.23534
ega	-9.23609
▁trans	-9.23699
ви	-9.23742
ida	-9.23763
▁wenn	-9.23841
%	-9.23865
ām	-9.23878
▁aber	-9.24017
▁gerne	-9.24272
▁pl	-9.24446
▁sulla	-9.24463
▁even	-9.24488
ico	-9.24671
▁caso	-9.24671
▁economic	-9.24681
ме	-9.24698
▁zum	-9.24801
▁countries	-9.24931
fa	-9.24985
T	-9.25046
und	-9.25047
▁κατά	-9.25054
з	-9.25092
ξ	-9.25138
τη	-9.25221
tions	-9.25281
д	-9.25284
uk	-9.25321
L	-9.25336
bb	-9.25394
▁real	-9.25474
▁sistema	-9.2548
▁end	-9.25483
com	-9.2562
ρα	-9.25705
enie	-9.25882
▁Επιτροπή	-9.26044
▁arī	-9.26145
▁οποία	-9.26235
▁Komisija	-9.26243
▁tai	-9.26243
▁εξ	-9.26255
og	-9.26258
M	-9.26363
▁vis	-9.2639
ла	-9.26428
▁now	-9.2643
▁sehr	-9.26436
▁vote	-9.26477
▁about	-9.26493
▁war	-9.26569
▁acc	-9.26794
▁L	-9.26849
cur	-9.26888
▁they	-9.26937
▁pris	-9.2699
▁what	-9.27076
▁ru	-9.27079
form	-9.27162
▁Ein	-9.27229
▁Ko	-9.27275
▁6	-9.27284
▁formand,	-9.27311
port	-9.27414
▁pero	-9.27427
av	-9.27463
▁Wij	-9.27481
tto	-9.27528
▁sme	-9.27569
▁notre	-9.27592
pt	-9.27713
▁program	-9.2775
ен	-9.2779
▁go	-9.27834
V	-9.27861
▁Rådet	-9.27871
▁support	-9.28018
ζ	-9.28028
ett	-9.28144
▁oder	-9.28185
▁mar	-9.28185
ių	-9.28261
▁werden.	-9.28312
nosti	-9.28547
▁vý	-9.28579
ení	-9.28656
▁pot	-9.28674
▁tanto	-9.28805
fe	-9.2882
ame	-9.28844
▁J	-9.28846
▁hanno	-9.28864
▁stat	-9.28908
▁tutti	-9.28961
è	-9.29223
▁Vor	-9.29242
▁Les	-9.29492
▁jā	-9.29534
cer	-9.29676
age	-9.29725
▁Pro	-9.29764
▁sul	-9.29787
▁toe	-9.29795
wo	-9.29843
▁M.	-9.29999
▁kuri	-9.30021
ht	-9.30045
▁ktoré	-9.30077
▁pred	-9.30101
▁έχει	-9.30109
iert	-9.30129
р	-9.3028
ding	-9.30318
īt	-9.30382
ap	-9.30448
▁Mitgliedstaaten	-9.30479
▁mål	-9.30543
stra	-9.3056
▁Parlamentet	-9.30733
▁solo	-9.30784
▁κ	-9.30799
▁veel	-9.31014
▁même	-9.31242
▁leur	-9.31248
lá	-9.31353
ise	-9.31486
▁unter	-9.31529
ein	-9.31594
▁до	-9.31669
▁Dat	-9.31685
ante	-9.31724
▁landen	-9.31824
hu	-9.31917
▁även	-9.31961
pu	-9.32049
▁15	-9.32224
ria	-9.32354
▁tegen	-9.32365
tri	-9.32393
ια	-9.32434
ischen	-9.32552
▁Europees	-9.32651
▁finans	-9.32665
▁fram	-9.32677
▁internationale	-9.32813
▁muy	-9.32836
▁avons	-9.32914
én	-9.32921
B	-9.32983
mit	-9.33049
scri	-9.33094
▁doit	-9.33098
▁Sa	-9.33102
ré	-9.33132
▁из	-9.33423
o.	-9.33486
bra	-9.33528
▁regering	-9.33579
▁nationale	-9.33711
d.	-9.33851
atie	-9.33981
▁loro	-9.33985
▁przy	-9.34189
one	-9.34192
▁tid	-9.34202
ania	-9.34317
▁αλλά	-9.34411
plan	-9.34435
▁strategi	-9.34484
icht	-9.34625
vad	-9.34634
ive	-9.34658
tek	-9.34778
sión	-9.34782
ám	-9.34786
ję	-9.34869
af	-9.34958
ved	-9.34977
ica	-9.35033
▁people	-9.35041
▁pra	-9.35087
▁000	-9.35097
▁ke	-9.35108
ς.	-9.35117
▁é	-9.35141
vers	-9.35248
▁12	-9.35293
sion	-9.3539
▁out	-9.35523
▁gran	-9.35618
arna	-9.3576
ēt	-9.35847
▁Ab	-9.35868
▁mon	-9.36035
▁ny	-9.36036
▁tous	-9.3604
▁při	-9.3609
kel	-9.36243
por	-9.36356
ind	-9.36653
kov	-9.36663
▁Πρόεδρε,	-9.36788
ικό	-9.368
▁très	-9.36928
tive	-9.36938
▁new	-9.37074
й	-9.37199
ság	-9.37361
▁8	-9.37434
dig	-9.37436
▁todos	-9.3745
mb	-9.37572
▁directive	-9.37748
lar	-9.37771
▁está	-9.37774
▁αυτή	-9.3784
▁tem	-9.37916
ās	-9.37947
slag	-9.38035
▁κατα	-9.38107
▁recht	-9.382
ction	-9.3824
rie	-9.38362
▁Mar	-9.38365
ard	-9.38395
▁niveau	-9.38487
heden	-9.38806
▁Europeo	-9.38909
pl	-9.38917
kl	-9.38947
▁heb	-9.39035
vie	-9.39043
ovat	-9.39046
▁todo	-9.39148
▁nav	-9.39156
P	-9.39211
▁finns	-9.39221
▁waar	-9.3924
nik	-9.39286
mas	-9.39353
tų	-9.39602
ро	-9.3971
▁mijn	-9.39721
▁Som	-9.39733
mine	-9.39743
▁com	-9.3977
▁fatto	-9.39772
ību	-9.3986
rà	-9.39901
ren	-9.39942
vet	-9.39987
et.	-9.40059
▁göra	-9.40094
▁rätt	-9.40161
▁frem	-9.40172
▁raz	-9.40224
▁forma	-9.40246
▁tas	-9.40279
▁sub	-9.40331
ron	-9.40333
▁Ro	-9.40416
▁gøre	-9.40591
▁punkt	-9.40632
▁svar	-9.40696
▁skall	-9.40701
ente	-9.40807
▁genom	-9.40947
▁11	-9.41271
▁Man	-9.41381
▁bez	-9.41441
sso	-9.41458
▁programme	-9.41636
▁fond	-9.41679
▁mēs	-9.41702
ле	-9.4171
iteit	-9.41744
▁señor	-9.4175
▁Za	-9.41825
▁only	-9.41843
▁naj	-9.41847
▁inom	-9.41877
▁policy	-9.41903
▁aj	-9.41914
sak	-9.41997
▁För	-9.42029
▁wel	-9.42177
▁helt	-9.42194
nost	-9.42228
ah	-9.42297
med	-9.42378
▁πολύ	-9.42379
▁Kon	-9.42427
▁want	-9.4243
ces	-9.42465
▁ihre	-9.42705
▁bør	-9.42847
▁res	-9.4287
tta	-9.42882
das	-9.42968
▁deres	-9.43038
▁ku	-9.43101
▁s'	-9.43115
▁Su	-9.43136
▁kann	-9.43223
▁ako	-9.43229
ted	-9.4331
ría	-9.43328
szt	-9.43348
▁consider	-9.434
ble	-9.43562
▁national	-9.4357
▁acuerdo	-9.43665
▁muss	-9.4374
▁leg	-9.43807
nte	-9.43811
▁civil	-9.4384
▁lai	-9.43863
▁mehr	-9.43901
vu	-9.43923
and	-9.44032
▁On	-9.44135
ικά	-9.44233
▁zullen	-9.4433
▁(FR)	-9.44364
handel	-9.44515
ούμε	-9.44601
▁St	-9.44668
gar	-9.44718
sku	-9.44747
▁utan	-9.44751
ło	-9.44784
▁kui	-9.44854
▁kr	-9.44887
recht	-9.44902
▁får	-9.44905
▁final	-9.44922
▁gen	-9.44972
▁μου	-9.45011
▁make	-9.45146
encia	-9.45162
▁willen	-9.45261
▁Bo	-9.45277
elt	-9.45425
hl	-9.45575
bu	-9.45589
cio	-9.45664
▁fru	-9.45675
s-	-9.45742
et,	-9.45806
vat	-9.45878
bli	-9.45905
▁sätt	-9.45907
▁einem	-9.45925
▁mening	-9.45938
▁υπο	-9.4595
▁bör	-9.45953
ти	-9.45965
▁Presidente	-9.45972
ните	-9.46084
▁eftersom	-9.46236
▁ist,	-9.46393
▁Frau	-9.46412
ве	-9.46495
▁Α	-9.46563
▁Di	-9.46579
▁heer	-9.4675
dan	-9.4683
ub	-9.46984
ug	-9.46991
▁tā	-9.47038
▁mes	-9.47064
ého	-9.47099
▁possible	-9.47124
▁because	-9.47146
▁sk	-9.47151
sam	-9.47175
▁cost	-9.47175
ný	-9.47264
▁work	-9.47285
år	-9.47369
▁human	-9.47426
▁φ	-9.47449
nou	-9.47453
▁συμ	-9.47495
▁mellem	-9.47604
τά	-9.47657
▁7	-9.47675
duc	-9.47745
kre	-9.47752
G	-9.47854
ма	-9.47859
▁ret	-9.47939
gang	-9.47963
usi	-9.47979
tur	-9.4804
▁meine	-9.48146
▁molto	-9.48149
alt	-9.48266
▁bu	-9.483
▁ger	-9.48329
br	-9.48436
▁zij	-9.48495
nos	-9.48545
▁lugar	-9.48549
lä	-9.48618
▁uno	-9.48634
ре	-9.48709
▁god	-9.48745
F	-9.48792
▁2000	-9.48816
▁sou	-9.48883
ani	-9.48989
9	-9.49081
her	-9.49136
▁které	-9.49177
▁jau	-9.49239
▁mag	-9.49244
res	-9.49281
ovať	-9.49328
tin	-9.49334
▁un'	-9.49338
▁take	-9.49354
ía	-9.49354
▁parlamentet	-9.49361
▁form	-9.49401
▁devons	-9.49454
spe	-9.49488
ίας	-9.4951
▁στα	-9.49536
ούν	-9.49544
▁werden,	-9.49545
ieren	-9.49569
▁accord	-9.49587
▁Ε	-9.49597
▁bara	-9.496
▁red	-9.49643
▁all'	-9.49741
▁if	-9.49765
att	-9.49782
R	-9.49897
▁lavoro	-9.49918
▁materia	-9.50085
ování	-9.50141
▁2010	-9.50161
log	-9.50214
▁επίσης	-9.50319
▁fo	-9.504
▁zá	-9.50413
▁lid	-9.50489
mon	-9.50509
σε	-9.50533
▁hacer	-9.50538
νο	-9.50639
▁Nu	-9.50678
yb	-9.50698
▁ya	-9.5071
▁dalla	-9.50725
▁place	-9.50752
▁stato	-9.50809
▁europæiske	-9.50825
▁ed	-9.50831
▁prima	-9.50963
pos	-9.50987
▁give	-9.51031
▁ba	-9.51083
▁9	-9.51142
▁dos	-9.51228
▁støtte	-9.51295
ρι	-9.51312
▁ansvar	-9.51322
ég	-9.51327
vel	-9.5134
▁'	-9.51398
▁proti	-9.51455
τε	-9.5146
▁import	-9.51503
ж	-9.5168
▁spo	-9.51724
▁sektor	-9.51789
▁nad	-9.51861
▁są	-9.51896
ți	-9.51949
ň	-9.51957
▁echter	-9.52031
’	-9.52051
zna	-9.52063
λε	-9.52104
ex	-9.52112
εύ	-9.52185
▁Rat	-9.52198
▁sem	-9.52278
▁Euro	-9.52377
▁wurde	-9.525
де	-9.52571
▁blev	-9.52641
▁keine	-9.52755
▁travail	-9.52755
▁nieuwe	-9.52764
▁dieses	-9.52809
▁Sin	-9.52862
ern	-9.52924
▁Lo	-9.5293
itu	-9.52999
▁práv	-9.53015
iga	-9.53023
▁fe	-9.53039
▁där	-9.53069
▁unsere	-9.53097
▁such	-9.53153
▁primer	-9.53173
▁vad	-9.53196
▁nes	-9.53277
lla	-9.53281
у	-9.53311
ás	-9.53314
▁σ	-9.53423
stru	-9.53473
εται	-9.53584
▁daar	-9.53622
isation	-9.53636
▁droits	-9.53675
λα	-9.53675
▁bude	-9.5377
ίες	-9.53802
▁κ.	-9.53986
▁cer	-9.54068
▁state	-9.54118
ies	-9.54122
ima	-9.54176
▁proces	-9.54186
ert	-9.54292
▁spørgsmål	-9.54329
▁control	-9.54386
cia	-9.54433
▁crisis	-9.54574
▁zoals	-9.54661
vien	-9.54722
▁στον	-9.54741
ique	-9.54934
▁general	-9.54947
▁particular	-9.55044
▁2020	-9.55071
ök	-9.55144
ær	-9.55152
ευ	-9.55159
▁Európai	-9.55165
▁mellan	-9.55186
▁poz	-9.55191
sche	-9.55234
▁momento	-9.55269
▁mums	-9.55295
tă	-9.55411
van	-9.555
bil	-9.55514
nega	-9.55658
dom	-9.55688
▁Te	-9.55707
▁fact	-9.55782
sid	-9.55837
▁σχετικά	-9.55909
▁kom	-9.56018
get	-9.56204
▁Ju	-9.56242
▁alleen	-9.56246
rán	-9.56278
ila	-9.56319
▁diritti	-9.56331
▁fråga	-9.56332
ū	-9.56348
▁belang	-9.56413
▁stabil	-9.56447
drag	-9.56479
▁2007	-9.56484
▁š	-9.5653
▁30	-9.56561
▁ti	-9.56618
mento	-9.56672
ö	-9.5671
ndet	-9.5674
▁protection	-9.56778
▁Ca	-9.56807
ű	-9.56827
▁contre	-9.56897
▁moment	-9.5693
▁ή	-9.56983
ost	-9.56983
ace	-9.57023
▁hand	-9.57035
stre	-9.5708
tant	-9.5716
kar	-9.57306
eerd	-9.57328
▁futuro	-9.57479
iste	-9.57639
ningen	-9.57687
ονται	-9.57688
▁Non	-9.5787
▁forslag	-9.57885
▁forbindelse	-9.57923
še	-9.58213
▁tussen	-9.58232
▁Bi	-9.58268
imas	-9.58383
aus	-9.58416
▁trata	-9.58464
dra	-9.58627
vid	-9.58735
area	-9.5882
ster	-9.58871
▁programma	-9.58903
▁än	-9.58904
ure	-9.58982
▁όπως	-9.58985
б	-9.59026
▁δ	-9.5907
iska	-9.5914
▁anser	-9.59149
▁pán	-9.59171
".	-9.59223
▁perché	-9.59241
▁selv	-9.59303
▁maken	-9.59305
▁tudi	-9.59482
▁ως	-9.59516
το	-9.59563
σι	-9.59579
▁hecho	-9.59664
pra	-9.59667
▁abbiamo	-9.59682
än	-9.59686
▁jaar	-9.5971
λη	-9.59721
▁position	-9.59749
▁това	-9.5976
▁Qu	-9.59795
φορ	-9.59837
▁επ	-9.59847
▁contribu	-9.59863
ým	-9.59974
▁debe	-9.60067
▁če	-9.60073
▁medlemsstater	-9.60129
▁(PL)	-9.60148
rod	-9.60166
▁które	-9.60171
▁act	-9.602
▁information	-9.60277
▁Med	-9.60292
ко	-9.60311
ικές	-9.60328
▁kunna	-9.60343
cent	-9.60361
uma	-9.60565
ния	-9.60644
▁οποίο	-9.60727
ünk	-9.60732
▁hvis	-9.60744
▁Co	-9.60784
ait	-9.6092
los	-9.60932
▁into	-9.60987
▁beslut	-9.61003
▁werk	-9.61006
▁cas	-9.6102
tag	-9.61102
car	-9.61127
til	-9.61197
mist	-9.61263
▁visa	-9.61382
ības	-9.61427
▁Ja	-9.61442
U	-9.61512
ša	-9.61552
▁had	-9.61666
ať	-9.61713
▁prav	-9.61777
▁puede	-9.61808
▁name	-9.61811
▁international	-9.61863
▁Pri	-9.61902
cí	-9.61924
▁fall	-9.6195
ří	-9.61953
▁vien	-9.61959
▁ban	-9.61972
uni	-9.62037
hold	-9.62075
▁talman!	-9.62079
ák	-9.62117
dem	-9.62288
▁mange	-9.62348
y.	-9.6237
▁arbejde	-9.6238
rne	-9.62419
fri	-9.62426
ś	-9.62507
▁deve	-9.6256
änd	-9.62596
jem	-9.62627
vě	-9.62666
iva	-9.62673
▁fælles	-9.62736
▁Το	-9.62742
nden	-9.62835
ρε	-9.62859
dat	-9.62901
▁mil	-9.62967
▁Zu	-9.62971
vil	-9.63105
▁hu	-9.63135
▁sto	-9.63163
ich	-9.63272
▁oblasti	-9.63284
▁Η	-9.63351
▁tema	-9.63369
▁refer	-9.63405
cul	-9.63434
▁fu	-9.63439
во	-9.63452
uta	-9.63456
iske	-9.63467
▁απ	-9.63475
skab	-9.63508
▁teis	-9.63551
ations	-9.63582
nas	-9.63629
ori	-9.6368
▁klar	-9.63684
▁ще	-9.63707
as,	-9.63736
ły	-9.63786
στ	-9.63795
▁kot	-9.63813
х	-9.63815
▁between	-9.63875
▁person	-9.63888
▁ville	-9.63914
ικών	-9.63919
▁elle	-9.6392
▁Om	-9.63964
stellen	-9.64037
▁exist	-9.64041
▁say	-9.64134
▁marché	-9.64175
▁andre	-9.6425
ono	-9.6426
osti	-9.64316
▁standard	-9.64327
▁regional	-9.64329
▁25	-9.64471
▁ΕΕ	-9.6449
▁kar	-9.64506
▁voudrais	-9.6456
aux	-9.64565
▁Sp	-9.6458
aal	-9.64589
▁gi	-9.64592
▁būti	-9.64596
▁those	-9.64754
gr	-9.64813
▁αφορά	-9.64894
lichen	-9.64895
ány	-9.64924
mar	-9.64942
▁any	-9.65121
▁proposta	-9.65193
▁goed	-9.65203
jas	-9.65252
▁jako	-9.65256
▁περι	-9.65294
ute	-9.6539
tim	-9.6553
▁procedure	-9.6557
isch	-9.65639
tig	-9.65651
gal	-9.65721
▁Μ	-9.65725
▁peut	-9.65753
▁market	-9.65759
▁13	-9.65801
jí	-9.6588
▁cela	-9.65913
▁adopt	-9.65925
▁grande	-9.65932
▁EUR	-9.65942
line	-9.65971
endo	-9.65986
▁commission	-9.65995
▁kunne	-9.66046
ορ	-9.66119
ят	-9.66187
▁2009	-9.66261
κα	-9.66341
▁Ra	-9.66388
eva	-9.66394
ct	-9.66401
▁dokument	-9.66466
▁grote	-9.66475
K	-9.66514
▁sådan	-9.66543
lus	-9.6656
liche	-9.6659
).	-9.667
▁duidelijk	-9.66711
▁unionen	-9.66716
vez	-9.6674
▁direct	-9.66806
kla	-9.66867
mě	-9.6687
son	-9.6688
▁legal	-9.66888
▁Κύριε	-9.6694
▁nye	-9.67123
▁dla	-9.67153
▁bio	-9.67182
ήσει	-9.67228
▁propuesta	-9.6727
▁sam	-9.67291
nza	-9.67293
▁bliver	-9.67402
▁έ	-9.67416
▁direkt	-9.675
▁situ	-9.67519
▁développement	-9.6755
ados	-9.67682
▁économique	-9.67704
uri	-9.67739
▁ste	-9.67754
nem	-9.67778
▁vie	-9.67804
▁Detta	-9.67885
▁ven	-9.67938
▁ε	-9.67994
▁hin	-9.68012
▁kontrol	-9.68015
nti	-9.6804
dien	-9.68072
▁contro	-9.68114
tat	-9.68172
▁še	-9.682
▁samt	-9.68205
ef	-9.68218
▁Präsident,	-9.68296
▁Ni	-9.68398
▁proposition	-9.68405
ging	-9.68408
▁slut	-9.68472
▁Dit	-9.68496
»	-9.68566
▁ak	-9.68575
▁vai	-9.68673
ions	-9.68696
ъ	-9.68717
dere	-9.6873
ους	-9.68778
mat	-9.68784
▁immer	-9.68873
gel	-9.68906
remo	-9.68938
▁προσ	-9.68963
ast	-9.68976
▁stellen	-9.68977
▁mij	-9.68989
▁Fru	-9.68999
▁sviluppo	-9.69048
pres	-9.69052
▁fri	-9.6906
ιο	-9.69086
▁alt	-9.6909
ч	-9.69092
▁derechos	-9.6921
▁invest	-9.69225
▁nombre	-9.6927
gehen	-9.69372
venir	-9.69401
▁most	-9.69428
▁donc	-9.69435
▁spe	-9.69447
▁έχουν	-9.69451
ρί	-9.69497
mal	-9.69519
▁present	-9.6952
▁bra	-9.6958
▁opera	-9.69615
▁dell'Unione	-9.69676
▁bank	-9.69685
▁mobil	-9.69758
▁when	-9.69789
▁Π	-9.69924
▁betænkning	-9.69955
gre	-9.70025
plo	-9.70107
),	-9.7014
▁tym	-9.70168
lang	-9.70276
spolitik	-9.70298
▁groupe	-9.70407
▁procent	-9.70478
prend	-9.70482
ον	-9.70531
▁går	-9.70548
▁при	-9.70618
rij	-9.70635
νομ	-9.70665
ija	-9.70696
nen	-9.70719
▁brug	-9.70796
▁ji	-9.70834
λι	-9.70887
lag	-9.70932
▁trabajo	-9.70971
ιών	-9.71037
▁šo	-9.71055
▁way	-9.71059
aciones	-9.71086
▁ello	-9.71149
isk	-9.71207
ş	-9.71258
▁või	-9.71258
bie	-9.71261
▁mal	-9.71261
▁dont	-9.71303
▁therefore	-9.71432
ną	-9.71476
▁As	-9.7153
▁pār	-9.71533
▁stand	-9.71568
▁Europa.	-9.71636
▁nä	-9.71672
▁Ru	-9.71788
▁débat	-9.71824
ins	-9.7185
ice	-9.71945
uit	-9.71949
▁tiene	-9.71993
▁2006	-9.7203
▁habe	-9.72158
▁process	-9.72201
▁bil	-9.7245
▁decir	-9.72456
ijos	-9.7257
▁vel	-9.72575
▁principio	-9.72615
▁därför	-9.72671
▁vilket	-9.72717
▁omdat	-9.72729
▁politisk	-9.72798
▁о	-9.72866
▁üle	-9.72906
▁political	-9.72928
▁mogelijk	-9.72933
vent	-9.72941
▁resolution	-9.7296
▁staat	-9.72999
ult	-9.7303
svar	-9.73096
▁derfor	-9.73103
imi	-9.73147
▁rights	-9.73185
tā	-9.73233
▁«	-9.73255
▁C'est	-9.73278
▁rådet	-9.73317
olu	-9.73361
▁regard	-9.73365
▁Bizottság	-9.73371
▁cittadini	-9.73379
▁hay	-9.73397
έρ	-9.73412
tik	-9.7344
▁14	-9.73462
▁Als	-9.73473
▁modern	-9.73523
▁förslag	-9.73627
▁being	-9.73661
▁zwischen	-9.73719
▁lande	-9.73745
▁utveckling	-9.73772
▁than	-9.73789
▁dra	-9.7384
amento	-9.73867
▁porque	-9.73888
▁He	-9.73904
āk	-9.73907
▁προς	-9.73966
heit	-9.73978
▁demokrati	-9.74016
▁hen	-9.74056
▁EU's	-9.74092
ti,	-9.74165
▁rad	-9.74201
▁sans	-9.74209
▁tratta	-9.74272
▁allt	-9.74295
▁pan	-9.74343
elijk	-9.74396
gg	-9.74424
▁2008	-9.74469
ør	-9.74491
▁USA	-9.74508
▁autor	-9.74531
jam	-9.74722
▁believe	-9.74775
▁μ	-9.74779
▁defini	-9.74789
up	-9.74797
eur	-9.7481
sty	-9.74845
▁specific	-9.74862
▁които	-9.74891
▁eigen	-9.74963
ini	-9.75013
▁mio	-9.75017
▁wichtig	-9.7505
tele	-9.751
▁soit	-9.75107
eux	-9.75148
▁ήθελα	-9.75176
▁mille	-9.75243
ob	-9.7525
▁inden	-9.7531
kal	-9.75316
▁diesen	-9.7532
▁Europæiske	-9.75483
▁chi	-9.75533
▁mercado	-9.75552
raz	-9.75691
▁ur	-9.75725
▁ancora	-9.75765
▁gaat	-9.75782
▁europäischen	-9.75853
ras	-9.75897
dre	-9.75953
▁sikre	-9.7603
▁трябва	-9.76038
τι	-9.76041
▁dann	-9.7606
▁encore	-9.76118
isme	-9.76125
▁made	-9.76142
▁anti	-9.76154
ret	-9.76236
▁Entwicklung	-9.7624
gna	-9.76342
ambi	-9.76363
▁haar	-9.76394
▁via	-9.76468
▁garanti	-9.76601
▁akt	-9.76611
ním	-9.76634
▁åtgärder	-9.7679
nym	-9.7681
▁παρ	-9.7682
άρ	-9.76836
ności	-9.76847
▁však	-9.76927
▁μόνο	-9.76944
▁problém	-9.7714
pla	-9.77186
▁europeiska	-9.772
▁blevet	-9.7743
▁Ο	-9.77446
▁présent	-9.77571
▁Y	-9.77592
▁wird.	-9.7769
▁favor	-9.77742
▁wo	-9.77777
▁Frage	-9.77781
▁έκθεση	-9.77808
▁può	-9.77877
▁str	-9.77901
rad	-9.77901
▁Ar	-9.77933
▁čas	-9.77965
▁amely	-9.77968
п	-9.77977
▁når	-9.78029
ív	-9.78132
▁noi	-9.78184
▁rol	-9.78216
▁ayuda	-9.78263
▁hemos	-9.78271
isten	-9.7829
▁faut	-9.78307
▁bin	-9.78371
▁tun	-9.7838
▁col	-9.78394
▁tri	-9.78417
▁acest	-9.78448
▁lahko	-9.78527
▁pense	-9.78541
▁plat	-9.78561
tí	-9.78595
enti	-9.78607
czy	-9.7871
▁50	-9.78774
▁Nie	-9.78787
▁са	-9.78978
nego	-9.78979
▁Pre	-9.78997
▁про	-9.79154
ika	-9.79157
▁18	-9.79184
zy	-9.79192
▁medlemsstaterna	-9.79192
▁deux	-9.79224
ος	-9.79267
stav	-9.79273
col	-9.79309
▁embargo	-9.79371
τρ	-9.79412
▁dr	-9.79413
ą,	-9.79438
▁turi	-9.79475
▁kompromis	-9.79488
▁hensyn	-9.7951
ért	-9.79585
ší	-9.7959
▁plaats	-9.79606
▁potreb	-9.79609
ront	-9.79639
ink	-9.79641
▁artikel	-9.79682
▁financ	-9.79693
▁eerste	-9.79791
▁Σ	-9.79807
▁ontwikkeling	-9.7981
▁voorstel	-9.79883
▁stöd	-9.79932
▁Pe	-9.79974
▁considera	-9.80005
▁anderen	-9.80006
▁basis	-9.80007
rov	-9.80045
sol	-9.80058
▁β	-9.80113
▁beleid	-9.80128
▁betänkande	-9.80179
▁ainsi	-9.80223
▁kaip	-9.80337
▁vår	-9.80381
0	-9.80425
▁desarrollo	-9.80426
▁gibt	-9.80427
▁pak	-9.80448
▁udvikling	-9.80489
▁nya	-9.80499
▁favore	-9.80525
κο	-9.80526
ino	-9.80552
▁Mon	-9.80577
▁continue	-9.80578
▁ole	-9.80589
▁first	-9.80724
ného	-9.80769
▁tempo	-9.80771
pie	-9.80894
kaz	-9.80987
▁EU.	-9.81033
elijke	-9.81155
▁tror	-9.81297
▁komen	-9.81302
▁handel	-9.81332
▁special	-9.81373
ød	-9.81438
▁were	-9.81507
▁hele	-9.81538
▁kraj	-9.81569
bud	-9.81584
▁musí	-9.81587
akt	-9.81598
▁agreement	-9.81621
nnen	-9.81639
tivo	-9.81704
▁zeer	-9.81767
öl	-9.81804
▁våra	-9.81806
▁né	-9.8181
richt	-9.81812
rg	-9.81829
▁c'est	-9.81841
ère	-9.81857
▁altri	-9.81875
▁element	-9.81944
▁matière	-9.81971
▁damit	-9.82042
ism	-9.82058
▁blive	-9.82065
▁future	-9.82207
▁cuestión	-9.8222
dica	-9.82274
tiva	-9.82312
▁face	-9.82482
▁27	-9.82508
▁tutto	-9.82555
hat	-9.82571
▁δι	-9.82599
▁у	-9.82601
azioni	-9.82619
βα	-9.82741
tic	-9.82818
chten	-9.82868
▁év	-9.82919
skap	-9.82953
▁Ri	-9.82994
▁svoj	-9.83063
▁като	-9.83081
inių	-9.83083
▁taip	-9.83087
jos	-9.83109
kke	-9.83186
▁európai	-9.83235
▁probleem	-9.83242
▁μέλη	-9.83319
▁questione	-9.83337
ük	-9.83361
▁Επιτροπής	-9.83568
▁super	-9.83572
▁lie	-9.83578
▁think	-9.83619
▁gegen	-9.83712
ić	-9.83751
ian	-9.83754
▁roku	-9.83763
με	-9.83765
ui	-9.83789
▁services	-9.838
▁Par	-9.83804
▁κράτη	-9.83836
να	-9.83858
▁Š	-9.8387
▁some	-9.83896
ställ	-9.839
▁commissione	-9.83922
imą	-9.83943
ntes	-9.83947
gra	-9.83955
▁steun	-9.83957
▁Auf	-9.83983
oc	-9.84013
▁his	-9.84027
amo	-9.8404
▁sécurité	-9.84066
jer	-9.84081
umu	-9.84103
▁Ez	-9.8414
tten	-9.84177
▁organ	-9.8418
okat	-9.84194
▁princip	-9.84224
▁Ba	-9.84238
▁(PT)	-9.84326
ssa	-9.84379
ди	-9.84396
emos	-9.84402
▁già	-9.84435
mme	-9.84463
nim	-9.84467
▁vez	-9.84527
lat	-9.84539
halten	-9.84556
ful	-9.84589
tem	-9.84596
aire	-9.84618
▁teh	-9.8462
▁pani	-9.84681
▁sicurezza	-9.84762
ier	-9.84804
▁przez	-9.84818
chod	-9.84828
▁Wie	-9.84829
▁mich	-9.84853
mes	-9.84854
lande	-9.84863
kas	-9.84898
▁direktiv	-9.84899
▁Κοινοβούλιο	-9.84924
▁står	-9.8499
takse	-9.85021
▁Ga	-9.85045
▁Kosovo	-9.85066
zia	-9.85072
▁l’a	-9.85072
ετ	-9.85174
▁παρα	-9.852
ella	-9.85239
ië	-9.85252
▁oraz	-9.85258
▁folk	-9.85325
kommen	-9.85336
▁proposal	-9.85454
▁many	-9.85522
▁dialog	-9.8561
▁Parlaments	-9.85681
▁kommissær	-9.85746
▁development	-9.85772
▁due	-9.85804
cen	-9.85845
▁μία	-9.85861
int	-9.85866
▁Au	-9.85893
▁priorit	-9.8592
sbe	-9.85923
▁2004	-9.85929
træ	-9.85938
▁Bürger	-9.85971
▁seda	-9.85998
▁obliga	-9.86007
▁ciudadanos	-9.86042
▁område	-9.86051
rse	-9.86054
fra	-9.86119
vä	-9.86126
▁ist.	-9.8616
▁sino	-9.86167
wij	-9.86228
mai	-9.86244
▁haben,	-9.86269
▁fast	-9.86287
ολ	-9.86291
chen	-9.86367
▁tom	-9.86388
iek	-9.86417
cre	-9.86449
▁tan	-9.86483
▁hvad	-9.86548
▁vers	-9.86552
▁rec	-9.86568
iendo	-9.86624
▁wird,	-9.86677
fo	-9.86701
▁sagt	-9.86717
teil	-9.86743
ujú	-9.8678
▁lang	-9.86806
lement	-9.86827
▁fundamental	-9.86851
cé	-9.86862
▁put	-9.86888
σεων	-9.8689
▁cel	-9.86893
▁right	-9.86941
▁domaine	-9.87099
▁result	-9.87125
▁against	-9.87127
stu	-9.87194
liku	-9.87196
▁åter	-9.87216
cra	-9.87364
▁pol	-9.87374
▁kur	-9.87392
▁17	-9.87544
▁bre	-9.87563
▁ez	-9.87571
▁Parlamentu	-9.87621
▁eines	-9.87684
bal	-9.87697
▁full	-9.87699
▁concerne	-9.87766
▁hoe	-9.87766
▁(IT)	-9.87859
tage	-9.87877
▁long	-9.87889
yti	-9.879
мо	-9.87904
ης	-9.87926
▁spre	-9.87945
▁Lissabon	-9.87946
▁¿	-9.87974
mand	-9.88008
▁gaan	-9.88045
oč	-9.88051
по	-9.88054
▁suis	-9.88082
fin	-9.88148
▁sua	-9.8818
▁rest	-9.88183
▁document	-9.88209
▁riguarda	-9.88239
▁mensen	-9.88243
king	-9.88268
▁vista	-9.88284
▁energie	-9.88301
▁kol	-9.88304
▁bar	-9.88308
▁bli	-9.8834
isti	-9.88361
▁Land	-9.88404
▁tro	-9.88427
▁jedoch	-9.88441
▁ganz	-9.88457
ell	-9.88467
▁respecto	-9.88471
▁interes	-9.88523
ncia	-9.88544
▁situación	-9.88552
nom	-9.88653
▁Θα	-9.88691
stā	-9.88698
▁absolut	-9.88735
▁significa	-9.88776
▁gang	-9.88778
▁μπορεί	-9.88795
▁mismo	-9.88831
él	-9.88852
▁Dem	-9.88854
▁sondern	-9.889
▁Sr.	-9.88939
▁mesures	-9.88942
īv	-9.88943
▁n'est	-9.88958
nă	-9.88994
▁kop	-9.89009
▁herr	-9.89012
juk	-9.89054
▁esto	-9.89118
▁tekst	-9.89142
▁frågor	-9.89148
▁medlemsstaterne	-9.89194
▁ange	-9.89256
ната	-9.89287
over	-9.8929
tura	-9.89308
▁issue	-9.8933
ivi	-9.8933
▁sens	-9.89335
че	-9.89357
▁nogle	-9.89368
▁gjort	-9.89407
dro	-9.89435
▁medidas	-9.89461
▁Bereich	-9.89471
▁same	-9.89485
ving	-9.89513
nú	-9.89579
▁første	-9.89648
▁cosa	-9.89652
▁situazione	-9.89673
▁В	-9.89688
▁Menschen	-9.89731
▁mercato	-9.89754
nar	-9.89778
če	-9.89803
▁norme	-9.89813
oli	-9.89826
▁Evropské	-9.89888
ży	-9.89902
inti	-9.89976
▁l'UE	-9.90001
zie	-9.90007
υς	-9.90012
▁2005	-9.90027
▁principe	-9.90069
▁sido	-9.90108
▁Diese	-9.90118
▁era	-9.90118
▁central	-9.90209
▁mayor	-9.90224
wie	-9.90289
▁fare	-9.90318
▁pře	-9.90358
▁anni	-9.90368
▁Ci	-9.90375
▁dobbiamo	-9.90455
vit	-9.90525
▁them	-9.90533
ví	-9.90582
▁ris	-9.90598
omis	-9.90608
gan	-9.9065
▁tiempo	-9.90713
▁má	-9.90743
ari	-9.90765
sektor	-9.90794
▁hope	-9.90797
▁risk	-9.90808
▁rok	-9.90884
spekt	-9.90909
▁citoyens	-9.90918
rig	-9.9094
▁programa	-9.90941
ρά	-9.91084
ské	-9.91089
ové	-9.91119
▁či	-9.9115
ifica	-9.91151
▁estos	-9.91156
lin	-9.91181
▁reg	-9.91182
sser	-9.91195
ans	-9.91208
▁two	-9.91278
lí	-9.91305
▁stra	-9.91335
fre	-9.91348
ür	-9.91352
iche	-9.91355
▁certain	-9.91428
os,	-9.91429
▁well	-9.91437
▁gr	-9.91448
as.	-9.91493
▁livello	-9.91512
▁lä	-9.91572
▁nivel	-9.91633
▁Op	-9.91634
nic	-9.91642
▁ide	-9.91651
га	-9.91662
håll	-9.91685
kat	-9.9171
▁16	-9.91743
▁effet	-9.91785
zza	-9.91806
▁actual	-9.91815
▁comune	-9.9182
▁quali	-9.91827
▁Maßnahmen	-9.91933
▁Ευρωπαϊκή	-9.91938
firm	-9.92027
ura	-9.92033
trag	-9.92035
▁jsou	-9.92042
ości	-9.92079
▁nodig	-9.92092
anie	-9.9214
nge	-9.92144
sprechen	-9.92146
▁seguridad	-9.922
pol	-9.92216
▁presente	-9.92281
▁În	-9.92308
ци	-9.92319
▁nuestra	-9.92331
▁mir	-9.92341
ständig	-9.92382
▁vastu	-9.92408
▁know	-9.92462
isering	-9.92483
rat	-9.92507
▁That	-9.92537
iu	-9.92564
dob	-9.92574
mel	-9.92603
οποι	-9.92612
▁Her	-9.92614
ede	-9.92622
▁trebuie	-9.92629
▁fog	-9.92664
oje	-9.92715
uti	-9.92756
áva	-9.92782
▁Herrn	-9.92852
▁första	-9.92852
tada	-9.92862
▁(A	-9.92912
▁tant	-9.92989
lem	-9.93019
▁sige	-9.93022
ligen	-9.93026
▁markt	-9.93048
flu	-9.9311
▁Ex	-9.93139
▁produkt	-9.93144
πο	-9.93146
mmer	-9.93147
us,	-9.93151
έλ	-9.9318
▁μεταξύ	-9.93219
ña	-9.93241
▁ö	-9.93257
▁več	-9.93285
▁prie	-9.93295
owa	-9.93317
▁particolare	-9.93327
▁Zeit	-9.93348
▁kort	-9.93394
ova	-9.93397
last	-9.93414
iser	-9.93431
art	-9.93446
-Parlamentet	-9.93446
▁good	-9.93475
▁vast	-9.93494
trä	-9.93503
▁ekonomi	-9.93578
parlamentet	-9.93615
▁años	-9.93686
pat	-9.93691
▁nostro	-9.93714
▁cre	-9.93733
▁tijd	-9.93768
fall	-9.93771
▁sunt	-9.93777
ρω	-9.93817
▁questions	-9.93879
▁él	-9.93925
ερ	-9.93963
▁están	-9.93967
▁paese	-9.93988
▁många	-9.94035
▁mé	-9.94058
τος	-9.94068
▁n'a	-9.94151
ać	-9.94165
▁opinion	-9.94183
▁post	-9.94197
па	-9.94206
чи	-9.94243
▁heute	-9.94257
adas	-9.94278
tan	-9.94475
▁model	-9.94552
▁σας	-9.94606
▁Barroso	-9.94619
▁sollte	-9.94627
▁vom	-9.94653
beleid	-9.94701
▁hur	-9.94722
owania	-9.94724
▁politika	-9.9476
▁settore	-9.94762
▁ned	-9.94811
▁tako	-9.94813
vant	-9.94819
▁EU:s	-9.94859
▁accept	-9.94868
нето	-9.94878
ήσεις	-9.94916
▁communautaire	-9.94935
gro	-9.94944
kor	-9.94948
▁l'in	-9.94949
▁sollten	-9.95004
▁fine	-9.95023
ungs	-9.95026
ло	-9.95026
anti	-9.9508
▁pla	-9.95139
▁tar	-9.9517
ctiv	-9.95204
eli	-9.95227
▁marked	-9.95239
jā	-9.95242
▁χώρες	-9.95245
▁vz	-9.95261
▁medio	-9.95271
imento	-9.95282
ech	-9.95289
aj	-9.95292
▁sui	-9.95316
πα	-9.95353
▁betrekking	-9.95387
áz	-9.95406
tru	-9.95482
▁solution	-9.95537
mission	-9.95562
nit	-9.95564
▁doivent	-9.95589
▁cuando	-9.95599
▁indica	-9.95617
▁EÚ	-9.9562
ņ	-9.95666
▁пре	-9.95693
dzie	-9.95727
▁gebied	-9.95738
▁mind	-9.95757
▁kwestie	-9.95763
▁quindi	-9.9582
ικής	-9.95836
▁regul	-9.9588
▁gå	-9.95881
▁struktur	-9.95889
σεις	-9.95901
▁droit	-9.95906
▁aantal	-9.95912
▁držav	-9.95916
▁kultur	-9.9592
▁sowie	-9.96058
▁sku	-9.96058
kol	-9.96086
▁vigtigt	-9.96095
ūr	-9.96113
table	-9.96113
▁leurs	-9.96174
▁Committee	-9.96236
▁fr	-9.96255
▁oma	-9.96261
rebbe	-9.96262
nju	-9.96296
δο	-9.96299
owych	-9.96301
▁best	-9.96353
▁raison	-9.96442
▁vue	-9.96478
ira	-9.96564
▁gruppo	-9.96588
▁See	-9.96605
kning	-9.96626
▁både	-9.96642
▁fl	-9.96672
ön	-9.96713
▁E'	-9.96722
tica	-9.96748
ακ	-9.96775
▁así	-9.96803
▁still	-9.96806
sin	-9.96823
ró	-9.96863
▁br	-9.96865
▁help	-9.96915
ké	-9.96919
▁limit	-9.96919
ala	-9.9693
dar	-9.96934
ora	-9.96942
pel	-9.96957
▁sal	-9.97015
▁len	-9.97052
▁Am	-9.97057
sum	-9.97058
nci	-9.97096
θεί	-9.97107
▁säga	-9.97174
▁dom	-9.9722
▁afin	-9.97222
▁zeggen	-9.97233
▁Bu	-9.97246
gri	-9.97247
H	-9.97256
▁Ob	-9.97261
▁sagen	-9.97285
ήσουμε	-9.97313
▁ingen	-9.97358
▁uden	-9.97414
bild	-9.9742
ας	-9.97422
că	-9.97425
▁order	-9.97464
ous	-9.97507
▁durante	-9.97529
▁déjà	-9.97582
ą.	-9.97595
▁fordi	-9.976
▁ønsker	-9.97602
▁sommes	-9.97603
ότητα	-9.97608
▁questi	-9.97609
ούς	-9.97613
bri	-9.97622
▁vraag	-9.97682
▁azt	-9.97687
",	-9.97694
▁Min	-9.97707
▁auto	-9.97733
▁tego	-9.97777
▁negativ	-9.97777
▁jog	-9.97811
hoz	-9.97879
werk	-9.97891
acji	-9.97896
kan	-9.97928
όν	-9.97953
▁nej	-9.97982
▁ahora	-9.97995
▁tener	-9.98033
▁Or	-9.98048
▁Αυτό	-9.98048
▁κατ	-9.98052
tér	-9.98119
▁länder	-9.98123
baar	-9.98145
▁total	-9.98155
eit	-9.98171
zon	-9.98219
▁cadre	-9.9826
arbeit	-9.98274
dzi	-9.98291
▁pr	-9.98307
▁manière	-9.98349
▁Европейския	-9.98355
▁much	-9.98392
▁hace	-9.98474
ék	-9.98503
▁compl	-9.98604
▁period	-9.98613
▁système	-9.98614
▁aspect	-9.98691
▁burgers	-9.98699
▁où	-9.98704
▁Ένωση	-9.98706
▁case	-9.98713
ș	-9.98799
pan	-9.98818
▁särskilt	-9.98827
schaft	-9.98845
dad	-9.98851
hol	-9.98878
šanu	-9.98927
zem	-9.98939
væ	-9.98965
oma	-9.99004
▁πολιτική	-9.99012
▁divers	-9.99031
▁initiative	-9.99108
ovi	-9.99111
▁liv	-9.99112
▁pil	-9.99136
äng	-9.99202
ăm	-9.99253
ranno	-9.99254
▁ændringsforslag	-9.99369
tico	-9.9939
▁President	-9.99435
▁positive	-9.99454
▁vet	-9.99523
sky	-9.99575
▁τομέα	-9.99595
▁gas	-9.99652
lov	-9.99701
▁klart	-9.99773
lsen	-9.99787
▁país	-9.99799
▁επί	-9.99828
▁können	-9.9984
ple	-9.99844
▁а	-9.99874
chi	-9.99942
▁būtų	-9.99993
▁ciò	-10.0007
▁posible	-10.0012
fen	-10.0012
fü	-10.0013
▁Tur	-10.0016
urs	-10.0024
τική	-10.003
▁personas	-10.0044
▁való	-10.0046
▁mida	-10.0052
▁economische	-10.0052
▁mindre	-10.0054
menti	-10.0056
▁ktorý	-10.0057
inės	-10.0061
▁bas	-10.0066
▁tras	-10.0068
ža	-10.0069
▁ήταν	-10.0072
▁net	-10.0075
▁institution	-10.0075
ual	-10.0076
▁comuni	-10.0083
â	-10.0085
▁belangrijk	-10.0097
▁gan	-10.0098
ningar	-10.0102
▁θέμα	-10.0102
▁1999	-10.0105
plic	-10.0107
▁institutions	-10.0109
▁tv	-10.011
eret	-10.0112
▁tam	-10.0118
šu	-10.0118
▁where	-10.0118
▁concern	-10.012
▁något	-10.0122
▁metod	-10.0127
iku	-10.0129
em,	-10.013
▁nuo	-10.0133
▁unie	-10.0135
▁praw	-10.0141
ario	-10.0146
ktion	-10.0146
▁си	-10.0151
dag	-10.0158
▁aktiv	-10.016
▁country	-10.0164
▁пред	-10.0164
▁Vorschlag	-10.0164
▁pirm	-10.0165
jų	-10.0166
▁conditions	-10.0169
klar	-10.017
▁været	-10.0174
▁change	-10.0176
▁bereits	-10.0176
▁cet	-10.0178
▁suo	-10.018
niu	-10.0184
rci	-10.0186
▁nostra	-10.0189
▁level	-10.0193
▁politieke	-10.0194
▁zijn.	-10.0196
δε	-10.0196
αρ	-10.0197
▁pří	-10.0203
▁αντι	-10.0204
▁tej	-10.0205
▁Europa,	-10.0208
all	-10.0209
iai	-10.0214
čas	-10.0215
▁viktigt	-10.0217
▁sak	-10.0218
▁21	-10.0219
üh	-10.0222
itel	-10.0237
▁lors	-10.0241
▁compte	-10.0241
tamente	-10.0258
ш	-10.0258
ки	-10.0258
rätt	-10.0259
kou	-10.026
▁rev	-10.0261
▁compromis	-10.0263
ová	-10.027
gua	-10.0272
▁Madame	-10.0273
▁före	-10.0273
išk	-10.0274
▁industri	-10.0277
▁sera	-10.028
▁Ευρώπη	-10.0281
iel	-10.0287
▁heel	-10.029
▁rep	-10.0297
nings	-10.0299
tus	-10.03
▁years	-10.0301
▁grup	-10.0303
▁senza	-10.0304
▁politiques	-10.0306
▁ans	-10.0306
bare	-10.0308
ismo	-10.031
ort	-10.031
▁Ti	-10.0311
pad	-10.0316
êt	-10.0317
zin	-10.032
▁maatregelen	-10.032
▁aasta	-10.0325
ība	-10.033
▁konflikt	-10.0331
▁vilja	-10.0331
▁décision	-10.034
hal	-10.034
όρ	-10.0342
okra	-10.0347
fect	-10.0355
▁darb	-10.036
▁об	-10.0362
ал	-10.0367
zni	-10.0369
▁ty	-10.0369
▁40	-10.0374
cco	-10.0374
▁vrij	-10.0376
▁view	-10.0378
lad	-10.0386
▁gouvernement	-10.0394
▁membre	-10.0396
▁noget	-10.0399
▁sistem	-10.04
aug	-10.0407
▁bidrag	-10.0407
▁grave	-10.0412
▁naše	-10.0415
▁cannot	-10.0416
▁europea.	-10.0431
▁twee	-10.0435
▁tipo	-10.0443
eld	-10.0447
▁čo	-10.0454
jen	-10.0455
▁Problem	-10.0455
▁arbete	-10.0458
kri	-10.0466
▁At	-10.0471
nad	-10.0471
stri	-10.0472
ifi	-10.0473
▁gör	-10.0477
▁produc	-10.0479
oor	-10.0479
▁numero	-10.0483
▁stata	-10.0489
▁nécessaire	-10.0498
▁kolleger	-10.0504
▁finanziari	-10.0505
▁soutien	-10.051
▁regula	-10.0511
▁Im	-10.0512
πτ	-10.0515
▁savo	-10.0517
▁minister	-10.0519
ket	-10.0523
ero	-10.0526
▁citizens	-10.0528
mor	-10.0531
▁prac	-10.0532
keit	-10.0534
▁Ένωσης	-10.0538
pet	-10.0548
▁nor	-10.0548
▁krit	-10.0552
nio	-10.0553
rsi	-10.0554
▁ora	-10.0557
▁terme	-10.0561
σή	-10.0564
mini	-10.0564
ges	-10.0567
kra	-10.0572
▁gebruik	-10.0572
ič	-10.0577
▁kai	-10.0579
▁effect	-10.0582
▁před	-10.0583
ában	-10.0583
▁nå	-10.0584
▁ry	-10.0585
▁τρόπο	-10.0587
да	-10.0593
zet	-10.0599
nut	-10.0604
ssi	-10.0617
▁decision	-10.0617
▁cen	-10.0618
ń	-10.0621
▁discussion	-10.0626
lægge	-10.0626
ným	-10.0627
▁All	-10.0627
▁voi	-10.063
▁vari	-10.0634
tó	-10.0635
ables	-10.0637
▁aceste	-10.0637
ps	-10.0638
▁ändringsförslag	-10.0638
▁debería	-10.0639
▁kind	-10.0642
vert	-10.0642
▁mest	-10.0643
▁ámbito	-10.0646
ът	-10.0646
ách	-10.0649
▁раз	-10.065
им	-10.0651
▁tage	-10.0655
udi	-10.0656
▁høj	-10.0662
eb	-10.0663
lg	-10.0665
▁clear	-10.0672
▁köz	-10.068
▁jour	-10.068
ché	-10.068
tom	-10.0683
νε	-10.0691
▁bus	-10.0691
▁serie	-10.0694
▁quale	-10.0696
cji	-10.0697
uda	-10.0702
nel	-10.0704
▁reco	-10.071
fond	-10.0714
▁democratic	-10.0715
inter	-10.0718
▁financier	-10.0723
▁effektiv	-10.0724
▁here	-10.0726
ása	-10.0727
▁doen	-10.0729
enden	-10.073
▁regler	-10.0732
▁ekonomiska	-10.0734
σης	-10.0735
▁Comisario	-10.0737
▁interne	-10.0746
▁Arbeit	-10.0747
▁någon	-10.0752
▁vēl	-10.0761
▁offentlig	-10.0763
▁Mit	-10.0767
az	-10.0768
▁weil	-10.0779
▁side	-10.0782
▁temps	-10.0782
▁measures	-10.0782
λογ	-10.0786
tà	-10.0786
▁sind,	-10.0786
▁propos	-10.0786
▁gre	-10.0787
▁sitt	-10.0788
▁vagy	-10.0792
▁allerede	-10.0793
▁sammen	-10.0794
upp	-10.0796
/20	-10.0796
▁Sicherheit	-10.0798
cep	-10.0802
▁σημαντικό	-10.0806
ργ	-10.0816
▁nacional	-10.0817
▁kontroll	-10.0818
▁Regierung	-10.0818
▁otros	-10.0819
▁use	-10.0821
▁open	-10.0824
▁δε	-10.0827
▁hög	-10.0834
eme	-10.0834
▁sil	-10.0838
ając	-10.0849
▁grad	-10.0849
▁2003	-10.085
▁väl	-10.0852
ηθεί	-10.0854
▁2002	-10.0856
zel	-10.0857
▁visi	-10.0857
▁neue	-10.0868
▁Israel	-10.0868
θούν	-10.087
ture	-10.0873
▁buvo	-10.0873
▁Los	-10.0875
rob	-10.088
och	-10.0882
▁Συμβούλιο	-10.0887
▁měl	-10.0888
ināt	-10.089
▁persone	-10.0892
▁také	-10.0896
gelijk	-10.0898
▁rättigheter	-10.0899
bas	-10.0902
▁problème	-10.0907
μο	-10.0907
izzazione	-10.0907
miseks	-10.0908
▁main	-10.0909
▁situatie	-10.0911
▁nuestro	-10.0912
▁culture	-10.0913
▁redan	-10.0915
▁Ki	-10.092
▁ре	-10.0924
nova	-10.0926
▁meie	-10.0926
▁ali	-10.0927
▁argument	-10.0928
rio	-10.093
▁pen	-10.0932
yv	-10.0939
elor	-10.0943
▁darauf	-10.0943
ical	-10.0946
▁Fa	-10.0947
▁Οι	-10.0948
▁conclu	-10.0952
▁existe	-10.0952
▁Nach	-10.0953
▁action	-10.0956
▁γ	-10.0961
▁Bal	-10.0965
▁oli	-10.0966
▁labai	-10.0967
▁stati	-10.097
▁sina	-10.0972
▁aspekt	-10.0973
▁milieu	-10.0973
▁text	-10.0973
net	-10.0974
eket	-10.0975
hez	-10.0977
▁could	-10.0979
▁direttiva	-10.098
ká	-10.0982
▁hela	-10.0984
det	-10.0985
punkt	-10.0987
▁Schengen	-10.0997
▁d’un	-10.1
if	-10.1001
▁secteur	-10.1005
ем	-10.1007
▁Kommissionens	-10.101
▁czy	-10.1012
▁cuenta	-10.1016
▁China	-10.1016
’s	-10.1025
▁õigus	-10.1026
▁feit	-10.1034
▁väga	-10.1037
▁vaja	-10.1042
▁oggi	-10.1047
▁který	-10.1052
”.	-10.1053
▁smo	-10.1053
▁mevrouw	-10.1055
almente	-10.1056
▁tredje	-10.1059
schap	-10.1059
▁said	-10.106
uf	-10.1061
▁apie	-10.1061
bro	-10.1062
▁pret	-10.1063
αλ	-10.1067
ros	-10.1069
▁diritto	-10.1071
▁wieder	-10.1074
kus	-10.1075
▁desde	-10.1081
ont	-10.1084
▁rend	-10.1086
▁moral	-10.1087
▁Daarom	-10.1088
ř	-10.1089
lja	-10.109
ισμού	-10.109
mēr	-10.1091
▁aceast	-10.1091
ama	-10.1096
▁wurden	-10.1099
▁Ve	-10.1104
foranstaltninger	-10.1104
▁today	-10.1105
▁endnu	-10.1106
οί	-10.1106
▁fest	-10.1108
ρο	-10.1112
ffer	-10.1124
▁nemen	-10.1126
dí	-10.1128
děl	-10.1135
▁být	-10.1135
▁does	-10.1145
öd	-10.1147
νη	-10.1147
▁così	-10.1149
aires	-10.1159
▁l'é	-10.1159
▁inclu	-10.1165
▁kor	-10.1168
liv	-10.1173
▁And	-10.1174
idu	-10.1177
▁continu	-10.1178
osť	-10.118
gle	-10.118
▁hij	-10.1184
▁regel	-10.1184
dus	-10.1189
▁vert	-10.1192
mmen	-10.1197
gé	-10.1201
▁Portugal	-10.1202
misel	-10.1203
▁nam	-10.1206
τιμ	-10.1209
έχ	-10.1209
iger	-10.1212
miento	-10.1214
ident	-10.1215
jú	-10.1215
▁Esta	-10.1218
▁europäische	-10.1219
▁determina	-10.1221
▁samarbejde	-10.1221
▁fred	-10.1223
▁prí	-10.1224
▁této	-10.1224
▁nende	-10.1225
▁företag	-10.1229
▁olyan	-10.1236
war	-10.1239
ización	-10.1241
erade	-10.1243
▁financial	-10.1247
rons	-10.1248
υν	-10.125
itev	-10.1253
▁debemos	-10.1253
▁large	-10.1256
▁animal	-10.1258
▁Parlamenta	-10.126
▁Com	-10.1262
▁already	-10.1263
▁efficace	-10.1264
▁cal	-10.1267
▁principal	-10.1269
▁Európske	-10.1269
▁Unió	-10.1273
kker	-10.1275
▁sea	-10.1275
▁personnes	-10.1277
▁unserer	-10.1277
▁öka	-10.128
lás	-10.1281
αι	-10.129
▁motivo	-10.1291
▁motiv	-10.1293
ére	-10.1293
ib	-10.1293
na.	-10.1294
▁vse	-10.1296
▁ευ	-10.1296
tá	-10.1296
lser	-10.1297
▁matter	-10.1302
prowadz	-10.1308
▁krav	-10.1312
cho	-10.1314
tam	-10.1317
▁tiek	-10.1317
▁Han	-10.1318
▁start	-10.1323
tern	-10.1326
rö	-10.1327
▁personal	-10.1328
▁hoy	-10.1332
ient	-10.1334
▁europei	-10.1334
▁dafür	-10.1343
szy	-10.1349
klad	-10.1351
gh	-10.1351
ja,	-10.1358
▁państw	-10.1362
pus	-10.1363
▁rispetto	-10.1365
▁belangrijke	-10.1368
▁verk	-10.1369
▁liel	-10.1374
▁måde	-10.1378
rze	-10.1379
▁rem	-10.1379
▁miljö	-10.1381
λο	-10.1382
ep	-10.1389
▁l'Europe	-10.139
hör	-10.1391
▁pesca	-10.1396
▁Van	-10.1398
▁Rahmen	-10.1401
▁too	-10.1409
▁økonomiske	-10.1422
hy	-10.1423
▁qu'	-10.1424
▁igen	-10.1425
▁registr	-10.1427
▁capital	-10.1428
▁Lisabon	-10.1429
▁ejemplo	-10.1431
▁proceso	-10.1437
▁100	-10.1437
ales	-10.1444
▁Ευρωπαϊκής	-10.1448
▁ELi	-10.1451
▁Politik	-10.1452
▁tenemos	-10.1453
ιν	-10.1454
▁provide	-10.1455
ļ	-10.1455
▁damer	-10.1457
ris	-10.1457
ated	-10.1458
▁sarà	-10.1462
▁candidat	-10.1462
▁zorgen	-10.1463
ować	-10.1463
▁Grupo	-10.1476
▁hat,	-10.1476
▁mūsu	-10.1478
▁ski	-10.148
▁tejto	-10.1485
▁godt	-10.1485
▁vorrei	-10.1489
ams	-10.1491
▁pension	-10.1493
▁rozvoj	-10.1497
▁nelle	-10.15
▁två	-10.15
▁speci	-10.1503
▁garant	-10.1503
ette	-10.1504
▁formand!	-10.1504
▁año	-10.1505
▁beslutning	-10.1513
wer	-10.1515
▁nom	-10.1518
▁geld	-10.1519
▁politiska	-10.1527
▁agli	-10.1527
čí	-10.1529
▁stran	-10.1533
▁Va	-10.1536
cja	-10.1539
▁Δε	-10.155
▁betreft	-10.1553
▁Ten	-10.1557
zij	-10.1559
hav	-10.1562
▁ponente	-10.1563
▁possibile	-10.1566
rzy	-10.1568
▁year	-10.1568
▁Kommissar	-10.1569
▁idea	-10.1571
▁skapa	-10.1571
▁call	-10.1572
▁energetic	-10.1573
▁möglich	-10.1575
▁progress	-10.1578
▁tali	-10.1578
▁orient	-10.1582
▁καθώς	-10.1585
▁geht	-10.1585
tain	-10.1587
▁mennesker	-10.1592
▁mejor	-10.1595
▁dell’	-10.1597
▁since	-10.1598
owi	-10.16
part	-10.1612
▁jetzt	-10.1612
▁frågan	-10.1614
tale	-10.1614
▁discussione	-10.1619
▁collega	-10.1621
▁causa	-10.1622
▁mor	-10.1626
mark	-10.1631
▁töö	-10.1636
ised	-10.1652
ljen	-10.1654
▁2001	-10.1655
tique	-10.1657
▁några	-10.1661
▁dank	-10.1662
lev	-10.1662
▁daug	-10.1664
▁problemen	-10.1664
▁conclusion	-10.1665
▁sind.	-10.1666
▁taken	-10.1678
ují	-10.1679
τερ	-10.1679
▁seine	-10.1683
▁návrh	-10.1684
▁borde	-10.1684
▁På	-10.1686
▁misure	-10.1688
▁d'é	-10.1691
▁entra	-10.1693
▁within	-10.1694
▁politici	-10.1697
kä	-10.1698
αστ	-10.1698
▁bilancio	-10.17
▁Este	-10.17
▁geven	-10.1701
▁permit	-10.1702
fel	-10.1702
▁jedno	-10.1703
▁dicho	-10.1704
▁sólo	-10.1713
▁gew	-10.1722
segu	-10.1722
▁Gemeinschaft	-10.1725
▁natural	-10.1732
▁zouden	-10.1737
▁Jo	-10.1738
sia	-10.1738
▁tie	-10.1739
▁binnen	-10.1751
▁stadig	-10.1753
▁compar	-10.1755
▁world	-10.1755
bel	-10.1758
▁centrale	-10.176
▁ram	-10.1762
druk	-10.1764
▁tõ	-10.1766
ierung	-10.177
▁mine	-10.1776
▁Evropsk	-10.1776
▁project	-10.1777
eurs	-10.1782
▁force	-10.1785
▁group	-10.1786
ally	-10.1787
▁sikkerhed	-10.1793
▁alcuni	-10.1796
umo	-10.1797
▁samenwerking	-10.1797
elser	-10.1799
▁Κ	-10.1802
▁Gu	-10.1805
▁základ	-10.1806
ologi	-10.1808
▁local	-10.1812
▁particulier	-10.1813
▁demande	-10.1814
▁devono	-10.1814
▁rappresenta	-10.1815
ista	-10.1819
stvo	-10.182
▁regionale	-10.1822
▁Du	-10.1822
sime	-10.1823
anje	-10.1825
λά	-10.1825
▁extra	-10.1831
hen	-10.1831
▁musíme	-10.1831
▁normal	-10.1834
ats	-10.1836
▁richtlijn	-10.1839
▁leven	-10.1842
▁Tu	-10.185
▁(ES)	-10.1851
vär	-10.1852
tare	-10.1855
▁destin	-10.1856
▁Et	-10.1857
▁valor	-10.1862
▁съ	-10.1863
▁dazu	-10.1867
kraft	-10.187
tab	-10.1873
à	-10.1874
▁Esto	-10.1874
▁how	-10.1878
ants	-10.1883
▁uw	-10.1884
lijk	-10.1886
▁fois	-10.1886
praw	-10.1886
▁dispos	-10.189
▁begroting	-10.1893
▁gali	-10.1893
▁има	-10.1896
▁koleg	-10.1899
▁pregunta	-10.1899
▁toho	-10.19
pis	-10.1902
▁Wenn	-10.1905
rac	-10.1907
ajo	-10.1909
▁processo	-10.1909
▁jsem	-10.1911
▁tento	-10.1912
▁siano	-10.1912
▁sulle	-10.1919
▁ná	-10.1924
▁πιο	-10.1925
stå	-10.1926
▁rapid	-10.1927
▁politiske	-10.1928
▁då	-10.1931
rica	-10.1932
▁onorevoli	-10.1937
▁bring	-10.1942
▁n'	-10.1942
▁onderzoek	-10.1943
▁waren	-10.1944
▁παρά	-10.1948
▁export	-10.1949
▁servizi	-10.1951
ată	-10.1951
θέ	-10.1951
nehmen	-10.1953
▁einige	-10.1953
zien	-10.1954
▁Internet	-10.1955
▁ord	-10.1956
▁jih	-10.196
gla	-10.1961
▁conven	-10.1963
▁Mittel	-10.1964
▁pomoc	-10.1965
put	-10.1965
jär	-10.1966
▁Priekšsēdētāja	-10.1966
▁jelentés	-10.1975
▁common	-10.1977
▁sedan	-10.1977
▁agree	-10.1979
lan	-10.1981
▁rela	-10.1981
▁Wat	-10.1985
ėti	-10.1985
▁your	-10.1989
▁lige	-10.1992
▁elő	-10.1993
iet	-10.1994
mie	-10.1999
▁πρόταση	-10.2011
▁EU,	-10.2012
ænd	-10.2013
ov,	-10.2013
▁toute	-10.2015
▁dog	-10.2015
▁αυτά	-10.2017
▁bendr	-10.2019
tak	-10.2024
▁Ch	-10.2025
▁Ziel	-10.2026
▁pal	-10.2038
▁facilit	-10.2038
▁2011	-10.2039
▁(RO)	-10.2051
▁(NL)	-10.2056
▁sujet	-10.2056
nemen	-10.2056
▁συζήτηση	-10.2058
▁otro	-10.2062
▁således	-10.2064
▁gro	-10.2067
▁may	-10.2067
▁privat	-10.2073
▁Jahr	-10.2076
qué	-10.2076
ią	-10.2077
▁both	-10.2079
▁militar	-10.208
āt	-10.2085
▁kader	-10.2086
īgi	-10.2087
▁modifica	-10.2089
▁fem	-10.2091
spo	-10.2091
▁own	-10.2091
▁gal	-10.2092
rk	-10.2098
▁ihrer	-10.2099
føre	-10.2101
▁liberal	-10.2102
▁Ber	-10.2104
▁gennem	-10.2104
cher	-10.2105
▁chose	-10.2105
▁új	-10.2108
▁acord	-10.211
ър	-10.2111
▁Β	-10.2112
vest	-10.2112
halt	-10.2117
har	-10.2119
ios	-10.2122
βάλ	-10.2122
▁monde	-10.2123
øj	-10.2128
▁Komise	-10.2132
▁ensure	-10.2135
▁cooperation	-10.2137
▁qu'elle	-10.2137
▁Pi	-10.214
▁representa	-10.2146
pé	-10.2147
▁haben.	-10.2149
▁ordförande	-10.215
▁С	-10.2152
▁forhold	-10.2152
fang	-10.2153
cin	-10.2159
zw	-10.216
▁There	-10.2164
▁muligt	-10.2169
▁allen	-10.217
▁parce	-10.217
ative	-10.2172
▁concernant	-10.2179
ton	-10.218
isse	-10.2183
▁Richtlinie	-10.2183
▁course	-10.2183
▁profit	-10.2184
ill	-10.2185
▁mucho	-10.2187
ţie	-10.2192
▁terrorist	-10.2193
▁Cu	-10.2194
▁relative	-10.2194
▁säkerhet	-10.2196
▁effective	-10.2196
ních	-10.22
▁quando	-10.2201
vesti	-10.2202
▁thank	-10.2202
▁Dans	-10.2204
▁context	-10.2205
▁nuclear	-10.2207
▁l’Union	-10.2208
▁complet	-10.2209
▁Derfor	-10.2212
▁bych	-10.2213
▁energia	-10.2222
▁tir	-10.2224
▁koordin	-10.2225
▁særlig	-10.2227
▁Tai	-10.224
▁projet	-10.2243
▁Τ	-10.2247
▁wereld	-10.2248
▁können.	-10.225
▁Komisi	-10.2251
aja	-10.2253
ves	-10.2258
▁fost	-10.2261
▁compr	-10.2264
jav	-10.2266
▁nell'	-10.2271
▁prote	-10.2273
▁kes	-10.2273
▁п	-10.2278
▁nuestros	-10.2279
▁miljø	-10.2281
▁cause	-10.2282
ilor	-10.2283
го	-10.2283
stig	-10.2285
Ε	-10.2289
▁gemensamma	-10.2291
ujeme	-10.2292
▁antal	-10.2296
▁besoin	-10.2298
lade	-10.2299
▁fue	-10.2303
▁financiële	-10.2303
stelling	-10.2309
▁Recht	-10.231
▁forskning	-10.2311
▁denn	-10.2314
ç	-10.2316
▁όμως	-10.2317
▁comment	-10.2318
▁However,	-10.2321
▁apoyo	-10.2322
▁olika	-10.2323
▁členských	-10.2326
▁bodo	-10.2328
▁sempre	-10.233
▁creo	-10.2331
▁coopération	-10.2332
▁verden	-10.2337
▁último	-10.2341
▁hon	-10.2346
▁estas	-10.2346
▁mūsų	-10.2346
τες	-10.2348
aria	-10.2349
▁d'autres	-10.2353
čno	-10.2355
▁hvilket	-10.2359
▁θ	-10.2361
organisation	-10.2362
σα	-10.2364
parti	-10.2364
▁která	-10.2365
plat	-10.2366
▁Community	-10.237
jumu	-10.2378
μά	-10.238
▁raport	-10.2385
▁όσον	-10.2385
gestellt	-10.2387
φων	-10.2393
▁autres	-10.2394
▁konkret	-10.2395
bod	-10.2396
▁problemi	-10.2396
dur	-10.24
▁eso	-10.2404
▁väg	-10.2405
▁στους	-10.2405
▁donne	-10.2406
▁great	-10.2408
ρό	-10.2409
▁î	-10.241
▁д	-10.2413
ód	-10.2413
▁pravic	-10.2413
▁amelyek	-10.2416
leid	-10.2418
W	-10.2419
ικ	-10.2433
▁Grund	-10.2435
▁tega	-10.2441
▁σήμερα	-10.2441
▁toutes	-10.245
▁spa	-10.2451
τή	-10.2456
▁able	-10.2457
▁mora	-10.2457
▁signor	-10.2458
▁kohta	-10.2461
▁vissa	-10.2461
▁secondo	-10.2462
▁Lu	-10.2465
▁τ	-10.2465
▁esempio	-10.2465
ière	-10.2468
▁ži	-10.2478
▁zwei	-10.248
▁efforts	-10.2482
▁Deze	-10.2484
gne	-10.2485
▁d’a	-10.2485
▁steeds	-10.249
▁skabe	-10.2493
▁behov	-10.2494
▁CO2	-10.2494
▁proprio	-10.2495
▁Mme	-10.2499
▁humanos	-10.2503
▁καθ	-10.2504
ære	-10.2505
▁καλ	-10.2505
δι	-10.2506
▁Val	-10.251
▁fund	-10.2515
▁bis	-10.2516
rar	-10.2517
▁Welt	-10.2518
▁Ši	-10.252
št	-10.2522
▁certains	-10.2522
dal	-10.2527
▁zone	-10.2528
▁komme	-10.253
ph	-10.2532
dé	-10.2532
▁mina	-10.2535
gue	-10.2535
▁respekt	-10.2542
▁χ	-10.2544
cas	-10.2547
une	-10.2548
ικού	-10.255
▁бъде	-10.2551
▁moyen	-10.2551
ister	-10.2552
▁consent	-10.2553
gift	-10.2554
ļa	-10.2556
▁neuen	-10.2557
▁exemple	-10.2559
▁muß	-10.2559
åg	-10.2561
schen	-10.2565
▁deel	-10.257
▁ese	-10.257
ava	-10.2571
gående	-10.2574
ille	-10.2577
▁pare	-10.2579
▁l'Unione	-10.258
ści	-10.2582
▁denk	-10.2583
▁gest	-10.2586
▁Ze	-10.2586
▁Bar	-10.2588
▁Rady	-10.2592
▁europejski	-10.2594
ának	-10.2594
▁allo	-10.2595
▁moins	-10.2597
▁insbesondere	-10.2599
rait	-10.2601
▁Über	-10.2601
▁ellen	-10.2602
▁example	-10.2603
▁Gra	-10.2606
▁również	-10.2607
ίου	-10.2608
uoti	-10.2608
▁volta	-10.2611
▁nepa	-10.2613
▁lui	-10.2619
▁last	-10.2624
fu	-10.2626
▁résolution	-10.2632
σω	-10.2637
▁würde	-10.2637
▁necesario	-10.2638
ják	-10.264
dama	-10.2645
▁aid	-10.2652
▁välja	-10.2659
▁gra	-10.2662
setzen	-10.2666
▁houden	-10.2667
rog	-10.2668
området	-10.2671
▁reason	-10.2671
μερ	-10.2672
▁människor	-10.2676
▁αυτές	-10.2679
▁observa	-10.268
▁goede	-10.2682
dor	-10.2683
▁kommissionens	-10.2685
ijn	-10.2685
wel	-10.2686
spect	-10.2686
rum	-10.2687
▁haya	-10.2688
ín	-10.2692
▁contrôle	-10.2693
▁comprend	-10.2695
▁πλαίσιο	-10.2696
▁λόγο	-10.2697
▁aftale	-10.2698
▁aujourd'hui	-10.2701
▁president	-10.2706
▁nostri	-10.2706
▁II	-10.2707
▁waarin	-10.2708
▁weg	-10.2713
▁WTO	-10.2713
▁utiliza	-10.2715
▁Ku	-10.272
umi	-10.2725
▁gør	-10.2725
syn	-10.2729
▁Комисията	-10.273
test	-10.2732
▁cada	-10.2734
▁Pour	-10.2738
▁Länder	-10.274
▁bud	-10.274
▁ļoti	-10.274
▁seulement	-10.2741
▁nogen	-10.2744
▁syn	-10.2753
▁correct	-10.2753
▁extern	-10.2756
▁estamos	-10.2757
▁weiter	-10.2759
pass	-10.2759
merk	-10.2761
▁Europas	-10.2763
pression	-10.2765
▁number	-10.2766
para	-10.2768
τικά	-10.2768
▁mise	-10.2768
its	-10.2769
▁wäre	-10.277
▁Ö	-10.2771
▁problemas	-10.278
dži	-10.2781
weise	-10.2781
fat	-10.2782
erar	-10.2786
▁forhandling	-10.2786
▁doch	-10.2787
пе	-10.2788
▁sol	-10.279
οδ	-10.2791
ίζει	-10.2791
▁Sta	-10.2791
▁cooperación	-10.2794
onder	-10.2796
sť	-10.2796
▁több	-10.2797
▁jsme	-10.2797
▁día	-10.2798
mpli	-10.2801
▁rész	-10.2803
▁små	-10.2805
▁samme	-10.2807
ighed	-10.2808
▁Um	-10.2809
▁sted	-10.281
▁demokratisk	-10.2815
▁todas	-10.2815
▁Fall	-10.2816
▁Panie	-10.2821
▁enkelt	-10.2821
▁allem	-10.2823
strategi	-10.2823
ίων	-10.2824
(	-10.2827
▁Programm	-10.283
▁siamo	-10.2833
▁marco	-10.2835
▁ogni	-10.2836
▁Komisijos	-10.2842
ness	-10.2844
▁Punkt	-10.2849
▁zona	-10.2849
▁gång	-10.2853
▁kraft	-10.2855
arse	-10.2857
▁exempel	-10.2857
▁commune	-10.2859
vision	-10.2863
tina	-10.2863
▁veľmi	-10.2864
▁politic	-10.2866
▁emp	-10.2869
ight	-10.287
už	-10.2872
▁Commissario	-10.2875
▁Que	-10.2875
▁möjligt	-10.2876
▁combat	-10.2885
programm	-10.2887
ät	-10.2889
▁medlem	-10.2891
▁Präsident!	-10.2892
20	-10.2893
▁behöver	-10.2895
▁elabor	-10.2895
wor	-10.2898
▁situationen	-10.2898
▁forskellige	-10.29
▁Dan	-10.2901
▁initiativ	-10.2902
▁arbets	-10.2907
▁framför	-10.2909
cija	-10.2915
▁high	-10.2915
▁daudz	-10.2921
ről	-10.2924
▁ekonomisk	-10.2924
▁gener	-10.2924
▁boj	-10.2925
rak	-10.2926
▁satisf	-10.2928
dienst	-10.2929
ři	-10.2934
staat	-10.2938
ffen	-10.2941
rü	-10.2942
aan	-10.2945
▁1,	-10.2946
▁betänkandet	-10.2947
anno	-10.2948
poliitika	-10.2951
▁store	-10.2955
erede	-10.2959
▁Tra	-10.2968
nja	-10.297
▁económica	-10.2971
▁bedre	-10.2973
▁represent	-10.2979
lepš	-10.2982
ēju	-10.2982
ční	-10.2983
▁Mrs	-10.2983
▁Pra	-10.2987
▁předsedající,	-10.2987
ijo	-10.2994
veik	-10.2996
▁ώστε	-10.2996
▁Umwelt	-10.3
ship	-10.3008
ary	-10.3015
▁distin	-10.3015
ψη	-10.3018
kārt	-10.3019
▁partie	-10.3021
▁κατάσταση	-10.3022
▁osob	-10.3025
▁prv	-10.3025
mål	-10.3025
▁zonder	-10.3026
ping	-10.3026
ηση	-10.3026
kti	-10.3029
▁fontos	-10.3029
▁tiks	-10.3029
▁drug	-10.3031
-20	-10.3035
▁mondiale	-10.3035
▁andet	-10.3038
▁traité	-10.304
▁kla	-10.3048
▁problèmes	-10.305
ator	-10.3051
▁αποτελεί	-10.3051
▁globale	-10.3053
▁Elnök	-10.3054
▁moramo	-10.3055
▁ceux	-10.306
▁πα	-10.3061
deel	-10.3063
ия	-10.3063
tsiooni	-10.3064
šanas	-10.3064
ως	-10.3067
▁law	-10.3068
▁access	-10.3068
wert	-10.3069
▁fremme	-10.3071
ijas	-10.3071
Europa	-10.3073
▁vind	-10.3074
ď	-10.308
▁industrie	-10.3083
tter	-10.3085
ματ	-10.3087
▁Ihnen	-10.3093
▁mettre	-10.3093
▁cooperazione	-10.3094
▁Iran	-10.3094
bus	-10.3094
▁dimension	-10.3098
▁60	-10.3099
ssystem	-10.3099
▁institutioner	-10.3099
▁mass	-10.3102
▁règlement	-10.3105
▁rat	-10.3107
▁έχουμε	-10.311
▁obchod	-10.3111
▁lever	-10.3112
abb	-10.3114
▁mener	-10.3114
▁Dette	-10.312
▁Liidu	-10.3121
▁relativa	-10.3122
▁multi	-10.3124
▁actie	-10.313
▁große	-10.313
▁Chi	-10.3133
vention	-10.3141
graph	-10.3143
cel	-10.3146
▁points	-10.3147
▁Κοινοβουλίου	-10.3149
ona	-10.315
▁why	-10.3156
ţii	-10.3156
▁necesidad	-10.3156
ξι	-10.3157
▁līdz	-10.3158
▁européenne.	-10.3164
▁Og	-10.3165
ното	-10.3165
▁mulighed	-10.3169
▁quiero	-10.317
▁især	-10.3172
▁energy	-10.3173
jai	-10.3174
μένη	-10.3181
tör	-10.3184
▁aller	-10.3184
▁genomföra	-10.3191
εργ	-10.3191
▁tax	-10.3193
delen	-10.3194
▁съюз	-10.3194
▁strategie	-10.3195
▁président	-10.3199
▁veiligheid	-10.3199
nosť	-10.3199
▁ple	-10.32
▁Zusammenarbeit	-10.3207
ish	-10.3215
▁Teil	-10.3217
▁lange	-10.3219
esse	-10.3219
νει	-10.3225
▁αυτού	-10.3226
llen	-10.3235
imus	-10.3237
▁media	-10.324
▁handels	-10.3241
οντας	-10.3243
organ	-10.3245
ηγ	-10.3246
▁minden	-10.3249
▁λόγω	-10.3257
зи	-10.3261
▁Είναι	-10.3261
ός	-10.3262
▁demand	-10.3262
▁principle	-10.3266
▁algunos	-10.327
▁nõu	-10.3271
▁mänskliga	-10.3274
gā	-10.3276
▁commun	-10.3277
▁ask	-10.3278
▁pirmininke	-10.328
▁Tratado	-10.3281
▁population	-10.3282
ācijas	-10.3284
mag	-10.3286
▁23	-10.3289
▁idé	-10.3291
▁hat.	-10.3293
lyg	-10.3293
stva	-10.3295
rang	-10.3296
02	-10.3298
▁γεγονός	-10.3302
ēm	-10.3302
▁quant	-10.3305
▁cum	-10.3306
▁pourquoi	-10.3318
gge	-10.3319
▁deras	-10.332
▁Hvis	-10.332
ģi	-10.3333
▁arra	-10.3335
▁Jahre	-10.3336
▁dus	-10.3336
iem,	-10.3338
tate	-10.3339
▁quello	-10.3339
apport	-10.334
atori	-10.3342
▁Αν	-10.3344
▁Commissioner	-10.3344
▁Verdrag	-10.3347
sehen	-10.3349
system	-10.3355
▁demokrat	-10.3356
ετε	-10.336
▁vooral	-10.3361
uc	-10.3367
of	-10.3368
ores	-10.3369
▁åt	-10.337
▁punt	-10.3371
▁ohne	-10.3375
▁jūs	-10.3376
▁avant	-10.3377
▁second	-10.3381
ius	-10.3381
pä	-10.3381
ζητ	-10.3388
▁finde	-10.3389
▁treba	-10.3391
▁sicher	-10.3393
▁grand	-10.3397
▁aktu	-10.3398
▁umani	-10.3399
▁følge	-10.34
▁lovgivning	-10.3401
▁hel	-10.3406
▁inzake	-10.3406
▁ausge	-10.3408
▁menos	-10.3408
▁Unterstützung	-10.3408
ról	-10.3409
▁Unii	-10.3415
žia	-10.3415
за	-10.3418
▁tienen	-10.342
си	-10.3422
▁protección	-10.3423
▁wollen	-10.3424
▁manier	-10.3426
antes	-10.3426
ické	-10.3428
sätt	-10.3429
▁valg	-10.3434
▁sprawie	-10.3436
▁mundo	-10.3436
▁vandaag	-10.3437
regel	-10.3439
▁úr	-10.344
▁tradition	-10.3441
schi	-10.3443
ване	-10.3445
▁samarbete	-10.3446
▁mijnheer	-10.3446
ват	-10.3448
▁tel	-10.345
stellung	-10.3451
ális	-10.3452
ón	-10.3454
oval	-10.3457
īs	-10.3459
▁libre	-10.346
▁sidste	-10.3462
▁House	-10.3464
▁Europejskiej	-10.3467
▁nuevo	-10.347
ovanie	-10.3473
▁Een	-10.3475
▁roll	-10.3476
▁takke	-10.3476
▁δύο	-10.3478
▁Af	-10.348
owanie	-10.3482
▁mult	-10.3484
▁necessari	-10.3485
▁pouvoir	-10.3494
▁по-	-10.3496
▁holdning	-10.3498
▁luogo	-10.3506
ům	-10.3507
▁test	-10.3507
▁critic	-10.3509
▁ét	-10.3514
klaus	-10.3518
▁innebär	-10.3519
▁celo	-10.3519
ára	-10.352
ност	-10.352
▁means	-10.3521
▁tutte	-10.3522
auf	-10.3525
zí	-10.3525
▁Fraktion	-10.3527
▁sau	-10.3531
▁nemlig	-10.3531
ψ	-10.3532
▁stark	-10.3533
stop	-10.3533
αγ	-10.3534
▁но	-10.3536
čen	-10.3536
bla	-10.3538
▁necessario	-10.3542
▁qué	-10.3546
▁zien	-10.3547
▁sotto	-10.3553
αμε	-10.3559
eringen	-10.356
▁tweede	-10.356
▁διαδικασία	-10.3563
ţia	-10.3563
▁Evropske	-10.3563
▁nám	-10.3565
▁rom	-10.3566
▁set	-10.3567
▁inoltre	-10.3569
▁gezegd	-10.3571
ţa	-10.3573
▁werd	-10.3577
▁soll	-10.3578
▁bland	-10.3579
erà	-10.3579
▁transparent	-10.3579
▁председател	-10.3579
▁Т	-10.3579
▁garantire	-10.358
ló	-10.358
▁savoir	-10.3581
lic	-10.3582
ang	-10.3584
gere	-10.3586
▁worden.	-10.3586
give	-10.3588
vy	-10.3592
▁lieu	-10.3592
▁υπάρχει	-10.3595
▁tomto	-10.3596
▁cambio	-10.3601
▁Mais	-10.3602
verk	-10.3603
▁without	-10.3603
▁tud	-10.3608
ļu	-10.3608
drž	-10.3611
▁area	-10.3617
▁kriz	-10.3619
▁vita	-10.3622
▁resultado	-10.3623
▁empresas	-10.3624
ėjo	-10.3629
▁П	-10.3634
ιδ	-10.3635
▁evalu	-10.3635
▁virkelig	-10.3636
▁recon	-10.3636
▁utskottet	-10.3637
ώς	-10.3646
▁När	-10.3647
ρώ	-10.3647
▁landbouw	-10.365
▁Hu	-10.3651
▁tikai	-10.3653
▁hoop	-10.3655
cchi	-10.3657
▁doel	-10.366
há	-10.3661
▁É	-10.3667
ča	-10.3667
▁όχι	-10.3668
▁importance	-10.3671
ării	-10.3674
▁opinión	-10.3679
▁amendement	-10.3679
▁ignor	-10.3681
▁sent	-10.3682
▁queste	-10.3687
▁αυτήν	-10.3689
▁χώρα	-10.369
▁1998	-10.3691
elijkheid	-10.3691
▁ér	-10.3694
▁poter	-10.3695
έν	-10.3698
▁geval	-10.3698
▁implement	-10.3701
▁Gospod	-10.3701
▁много	-10.3703
▁beste	-10.3706
ES	-10.3708
▁viel	-10.3709
ativ	-10.3711
imu	-10.3715
▁prin	-10.3715
▁machen	-10.3715
▁beter	-10.3716
▁tele	-10.3716
▁seguir	-10.3717
▁råd	-10.3718
τό	-10.3725
▁procédure	-10.3727
▁Energie	-10.3731
ques	-10.3735
▁landet	-10.3736
▁Ak	-10.3736
▁presenta	-10.3739
▁1.	-10.3751
▁processus	-10.3753
vate	-10.3758
middel	-10.3759
care	-10.3763
bij	-10.3765
▁enorme	-10.3766
▁υπό	-10.3768
▁Amsterdam	-10.3769
▁applica	-10.3769
▁šajā	-10.3772
▁commissaris	-10.3773
▁solidar	-10.3773
bin	-10.3774
acij	-10.3779
▁ernst	-10.3783
▁nosotros	-10.3784
ial	-10.3785
▁close	-10.3785
▁soprattutto	-10.3786
▁Kar	-10.3788
▁zaken	-10.3789
▁morgen	-10.3793
ribu	-10.3796
▁technologi	-10.3798
▁volt	-10.3801
ņem	-10.3803
▁poco	-10.3803
▁Európsk	-10.3808
ctor	-10.3814
▁zelf	-10.3814
▁s'agit	-10.3816
▁Reg	-10.3817
▁verkligen	-10.3817
▁stratégie	-10.3817
▁még	-10.3826
▁avoir	-10.3828
ző	-10.383
▁quadro	-10.383
▁κοιν	-10.3831
yw	-10.3832
▁status	-10.3833
tava	-10.3834
▁dock	-10.3835
ös	-10.3839
▁państwa	-10.3841
remos	-10.3842
▁Meinung	-10.3842
▁solche	-10.3845
▁države	-10.3845
▁however	-10.3846
▁européens	-10.3847
ολογ	-10.385
ата	-10.385
▁podemos	-10.3851
▁toujours	-10.3853
▁към	-10.3853
▁production	-10.3856
▁kérdés	-10.3859
ose	-10.386
▁24	-10.3861
▁through	-10.3863
▁Haushalts	-10.3864
▁Mu	-10.3865
öv	-10.3865
bl	-10.3866
▁increase	-10.3867
▁proposte	-10.3869
▁οποίες	-10.3869
▁toekomst	-10.3872
▁Situation	-10.3873
▁premier	-10.3876
▁reag	-10.3876
▁relations	-10.3878
01	-10.3879
▁governo	-10.3881
▁proyecto	-10.3882
▁overeenkomst	-10.3885
▁europæisk	-10.3887
▁rámci	-10.3889
σαν	-10.3896
▁Cha	-10.3907
ích	-10.3912
▁Tak	-10.3912
▁inför	-10.3912
lighet	-10.3914
ových	-10.3917
ща	-10.3919
είς	-10.3919
▁mint	-10.392
▁także	-10.3921
▁Stato	-10.3927
▁objective	-10.3928
▁vragen	-10.3935
▁Russia	-10.3938
▁molti	-10.3938
λέ	-10.3939
▁común	-10.3945
▁institu	-10.395
▁asunto	-10.3951
▁Sono	-10.3952
▁hjälp	-10.3953
oja	-10.3954
ana	-10.3955
▁Ihre	-10.3956
▁rural	-10.3962
ρη	-10.3962
▁job	-10.3968
▁recent	-10.3969
dele	-10.3973
▁gentlemen,	-10.3973
▁bijzonder	-10.3973
▁type	-10.3976
▁devrait	-10.3978
▁podnik	-10.3978
üü	-10.3987
▁compi	-10.3988
▁nii	-10.3989
▁ami	-10.3991
iques	-10.3992
▁internazionale	-10.3993
▁include	-10.4007
▁discrimin	-10.4007
▁blijven	-10.4008
ilo	-10.4008
γκ	-10.4009
▁crise	-10.401
zor	-10.4014
▁deben	-10.4014
▁katastrof	-10.4021
▁Namen	-10.4021
weg	-10.4023
▁f.eks.	-10.4023
υρ	-10.4026
▁weten	-10.4026
ră	-10.4026
ov.	-10.4032
▁l'on	-10.4033
▁medzi	-10.4034
▁(EL)	-10.4036
▁Presidenta	-10.4037
▁όσο	-10.4039
ének	-10.404
sione	-10.4044
ча	-10.4045
termin	-10.4047
šim	-10.4049
demokrat	-10.4054
ford	-10.4055
ką	-10.4057
▁brit	-10.4058
ελ	-10.4058
▁administr	-10.4062
▁samo	-10.4062
yer	-10.4065
▁risoluzione	-10.4066
ums	-10.4067
▁hasta	-10.4068
▁kasuta	-10.4069
▁difficile	-10.4071
▁delega	-10.4072
▁minder	-10.4072
ritt	-10.4076
ează	-10.4077
ium	-10.4082
▁objetivo	-10.4082
zenia	-10.4084
▁comunitario	-10.4086
▁fortsat	-10.4087
bau	-10.4089
▁Irak	-10.4094
▁Dies	-10.4095
▁beaucoup	-10.4098
▁esam	-10.4099
▁brengen	-10.41
▁echt	-10.41
▁jordbruk	-10.4103
iera	-10.4103
▁nebo	-10.4105
▁cours	-10.4107
▁talman,	-10.4108
▁Arbeits	-10.4109
idos	-10.4109
▁større	-10.4111
▁privind	-10.4112
▁agenda	-10.4115
går	-10.4117
▁jej	-10.412
▁Minister	-10.4122
čia	-10.4123
▁Mevrouw	-10.4124
▁θέση	-10.4124
▁mondo	-10.413
cze	-10.4135
valt	-10.4139
▁entreprises	-10.4142
τών	-10.4143
▁Madam	-10.4144
▁cual	-10.4147
▁allow	-10.415
▁mener,	-10.4152
▁aange	-10.4155
▁podría	-10.4156
▁ante	-10.4157
▁voorstellen	-10.4157
жа	-10.4159
▁Därför	-10.4159
▁mesure	-10.4164
▁Unternehmen	-10.4164
ар	-10.4165
▁minor	-10.4165
σφαλ	-10.4171
▁komisjoni	-10.4171
▁onorevole	-10.4173
žu	-10.4174
μη	-10.4176
▁impact	-10.4177
▁pueden	-10.4177
▁namelijk	-10.4183
ighet	-10.4185
▁ά	-10.4186
iau	-10.4189
▁crucial	-10.4189
▁attiecībā	-10.419
igu	-10.4191
▁krijgen	-10.4191
▁presta	-10.4192
▁notamment	-10.4192
▁spraw	-10.4193
ivo	-10.4194
▁cél	-10.42
▁mandat	-10.4203
ισμό	-10.4204
▁cultural	-10.4204
би	-10.4205
▁información	-10.4208
▁lov	-10.4209
▁dialogue	-10.421
pris	-10.4211
kken	-10.4211
▁Th	-10.4213
же	-10.4218
▁parece	-10.422
▁europea,	-10.422
▁different	-10.4222
▁occasion	-10.423
▁mensenrechten	-10.4233
▁laquelle	-10.4236
▁autre	-10.4236
▁particularly	-10.4238
▁politiche	-10.4241
ομ	-10.4242
lust	-10.4242
komen	-10.4242
ūs	-10.4243
▁bon	-10.4244
▁implica	-10.4245
▁dovrebbe	-10.4252
nica	-10.4252
erende	-10.4252
ējā	-10.4253
▁manera	-10.4256
▁pamat	-10.4257
produktion	-10.426
▁Nord	-10.4262
ość	-10.4262
▁kleine	-10.4264
tą	-10.4266
▁valuta	-10.4266
▁fie	-10.4266
▁dopo	-10.4268
nahme	-10.4274
gni	-10.4277
μι	-10.4277
▁zelo	-10.4283
▁d'in	-10.4285
▁À	-10.4286
▁Probleme	-10.4292
▁If	-10.4293
▁hä	-10.4294
▁eks	-10.4298
είται	-10.4304
ität	-10.4304
▁tilbage	-10.4305
▁mee	-10.4306
▁τόσο	-10.4307
zés	-10.4308
▁begin	-10.4309
▁által	-10.431
▁opnå	-10.4311
▁diskusi	-10.4312
▁Jahren	-10.4317
ání	-10.4319
▁grond	-10.4321
rna	-10.4328
jan	-10.4328
▁áll	-10.4329
▁μετα	-10.4331
▁volledig	-10.4331
▁minut	-10.4332
erat	-10.4332
▁precis	-10.4333
▁lutte	-10.4334
ând	-10.4337
πε	-10.4338
▁pana	-10.4339
▁internet	-10.4341
▁22	-10.4341
▁première	-10.4343
▁под	-10.4343
▁försök	-10.4345
ovania	-10.4349
▁before	-10.4352
▁breve	-10.4352
▁terug	-10.4354
▁difficult	-10.4355
▁prendre	-10.4355
▁organiz	-10.4358
▁offer	-10.4358
▁praneš	-10.4358
▁stora	-10.4364
▁egen	-10.4364
▁problemer	-10.4366
▁80	-10.4367
▁resolución	-10.4368
Europe	-10.4372
▁protokol	-10.4375
stabil	-10.4376
▁necessary	-10.4377
▁sous	-10.4379
▁relación	-10.4379
▁Elle	-10.438
▁drugi	-10.4382
iant	-10.4383
▁déc	-10.4387
▁arbejds	-10.4387
ácie	-10.4388
▁Cela	-10.4388
▁moi	-10.439
▁hans	-10.4391
sible	-10.4391
▁cele	-10.4393
▁ακόμη	-10.4395
▁Estado	-10.4396
▁derecho	-10.4397
▁favour	-10.4399
▁Group	-10.44
pal	-10.4402
▁verder	-10.4406
▁health	-10.4407
▁press	-10.4408
▁clar	-10.4408
▁Ευρωπαϊκό	-10.441
οπ	-10.4411
▁jeho	-10.4413
▁economie	-10.4416
ppen	-10.4417
ieve	-10.4418
▁middelen	-10.4418
▁signal	-10.4419
treten	-10.442
▁ker	-10.4422
gaan	-10.4422
▁univers	-10.4423
▁ezt	-10.4428
▁wirklich	-10.4432
▁gy	-10.4433
▁otras	-10.4435
ovali	-10.4439
▁Συμβουλίου	-10.4441
▁vairāk	-10.4441
▁Nor	-10.4442
▁natur	-10.4444
ατ	-10.4447
▁formul	-10.4447
tif	-10.445
▁programmes	-10.4453
▁τώρα	-10.4454
▁fortfarande	-10.4454
▁Av	-10.4455
▁angår	-10.4455
▁contribui	-10.4457
▁flexibil	-10.4459
maks	-10.446
▁izmanto	-10.4463
▁sostegno	-10.4465
▁reforma	-10.4465
▁attention	-10.4465
▁členské	-10.4465
▁L’	-10.4473
▁būs	-10.4474
▁normas	-10.4476
▁rôle	-10.4476
▁terrorisme	-10.4481
ën	-10.4483
▁fakt	-10.4485
τικές	-10.4486
▁schon	-10.4487
▁wetgeving	-10.4492
▁svoje	-10.4493
eniu	-10.4493
▁foreslå	-10.4493
▁hos	-10.4494
▁flere	-10.4496
▁volgen	-10.4497
▁posizione	-10.4498
▁gu	-10.45
▁gri	-10.45
▁cap	-10.45
▁verschillende	-10.4503
▁bila	-10.4503
▁nás	-10.4503
τικό	-10.4504
▁sag	-10.4504
wal	-10.4507
▁pur	-10.4507
▁imidlertid	-10.4507
▁ни	-10.4508
▁relevant	-10.4511
gno	-10.4512
▁ligger	-10.4512
hand	-10.4515
▁structure	-10.4515
▁chiar	-10.4515
▁debatt	-10.4519
▁gegeven	-10.4521
▁aquí	-10.4523
▁dohod	-10.4524
▁mia	-10.4527
▁pove	-10.4527
ments	-10.4529
oči	-10.4531
øn	-10.4534
▁señora	-10.4535
āciju	-10.4536
▁Pod	-10.4539
▁sport	-10.4541
▁Finanz	-10.4541
▁styrke	-10.4545
▁συμφωνία	-10.4546
moc	-10.4548
▁Daar	-10.4552
▁wish	-10.4553
▁lagstiftning	-10.4555
▁Möglichkeit	-10.4556
▁toda	-10.4557
▁darba	-10.4559
οποίηση	-10.456
▁regeringen	-10.4563
▁stort	-10.4563
▁Gobierno	-10.4564
list	-10.4564
▁laten	-10.4575
▁millones	-10.4575
uw	-10.4575
komst	-10.4576
ujem	-10.4576
▁PPE-DE	-10.4577
▁Lib	-10.4578
äg	-10.458
▁antes	-10.458
▁propuestas	-10.4581
▁regime	-10.4582
▁alternativ	-10.4586
▁alles	-10.459
▁otra	-10.4592
▁Señora	-10.4595
▁giver	-10.4596
▁given	-10.4599
▁üks	-10.4604
телно	-10.4605
itate	-10.4608
▁integration	-10.4609
▁fonds	-10.4611
▁security	-10.4611
▁bonne	-10.4612
▁parlamentu	-10.4612
▁regulation	-10.4612
▁amendementen	-10.4613
▁blot	-10.4613
▁clima	-10.4615
▁μιας	-10.4615
▁hoppas	-10.4616
▁dernière	-10.4617
▁faveur	-10.4618
▁emendamenti	-10.4619
▁discuss	-10.4622
▁ktorá	-10.4623
▁peaks	-10.4624
ött	-10.4625
αγωγ	-10.4627
ιμ	-10.4627
ében	-10.4633
▁standpunt	-10.4634
bet	-10.4635
▁succes	-10.4636
▁tovább	-10.4637
▁szám	-10.4638
▁maks	-10.464
▁Union.	-10.4641
ír	-10.4645
tuur	-10.4646
▁selbst	-10.4646
▁osa	-10.4648
▁kurie	-10.4655
▁viele	-10.4656
▁bals	-10.4656
ží	-10.4657
▁orden	-10.466
▁όλα	-10.4662
▁garantizar	-10.4663
▁fondamentale	-10.4663
rus	-10.4664
▁issues	-10.4671
bouw	-10.4673
μον	-10.4675
lever	-10.4675
▁Sz	-10.4676
▁mano	-10.468
▁establish	-10.4682
dě	-10.4683
▁Vorrei	-10.4683
▁práva	-10.4685
▁Presidencia	-10.469
▁което	-10.469
▁También	-10.4694
▁telle	-10.4695
ėms	-10.4695
anza	-10.4702
▁corr	-10.4704
▁government	-10.4707
▁daarom	-10.4713
▁Handel	-10.4715
▁hoffe	-10.4715
▁besluit	-10.4717
▁servicios	-10.4718
▁dove	-10.4718
▁usted	-10.4719
▁polic	-10.472
ții	-10.4722
▁Thema	-10.4724
▁trop	-10.4726
▁enkele	-10.4728
▁glaube	-10.4729
δικ	-10.4733
▁collègues	-10.4736
ged	-10.4744
peri	-10.4745
▁βασ	-10.4745
▁liber	-10.4746
▁veik	-10.4748
ieren.	-10.4749
▁Kollegen	-10.4749
▁j'ai	-10.475
30	-10.4751
stånd	-10.4754
▁reden	-10.4754
▁enige	-10.4757
▁zwar	-10.4758
rop	-10.4759
▁Vertrag	-10.4765
ба	-10.4766
zett	-10.4768
▁gracias	-10.4769
▁Verenigd	-10.477
▁Deres	-10.477
▁börja	-10.4771
▁tilfælde	-10.4771
▁virksomheder	-10.4773
ned	-10.4773
▁1997	-10.4779
▁vårt	-10.4782
▁sama	-10.4782
▁medlemmer	-10.4783
▁rich	-10.4787
æl	-10.4789
▁criminal	-10.479
▁politiky	-10.4791
▁plena	-10.4796
κρι	-10.4799
▁enmiendas	-10.48
▁συγ	-10.4801
▁hor	-10.4806
▁europeos	-10.4806
▁Nem	-10.4807
▁té	-10.4808
licht	-10.4811
▁sca	-10.4811
▁commissaire	-10.4811
γεν	-10.4813
spir	-10.4815
▁stemme	-10.4815
▁Pero	-10.4816
▁stesso	-10.4818
▁Entscheidung	-10.4821
▁susi	-10.4823
ля	-10.4824
ható	-10.4825
▁bilateral	-10.4827
ред	-10.4829
stal	-10.4833
▁abbia	-10.4833
▁einmal	-10.4833
▁direktivet	-10.484
▁számára	-10.4842
▁lokal	-10.4852
▁protest	-10.4853
▁studi	-10.4855
owe	-10.4855
▁Entschließung	-10.4855
▁soient	-10.4857
▁altre	-10.4858
fog	-10.4859
▁Komisji	-10.4863
ální	-10.4865
άζ	-10.4865
▁merito	-10.4868
▁Ländern	-10.4872
▁Treaty	-10.4872
laik	-10.4873
▁compromiso	-10.4874
▁nome	-10.4875
▁denen	-10.4875
ující	-10.4879
▁santé	-10.4879
hä	-10.488
▁nazionali	-10.4887
▁ting	-10.4889
▁πολιτικής	-10.4891
▁Så	-10.4894
länder	-10.4895
▁Afrika	-10.4898
▁spr	-10.4899
▁groot	-10.4901
dav	-10.4902
▁competencia	-10.4903
▁nauj	-10.4904
kend	-10.4906
stup	-10.491
▁dall'	-10.491
▁Svet	-10.4914
▁Rad	-10.4916
▁further	-10.492
▁bal	-10.4921
vej	-10.4923
ljiv	-10.4927
▁State	-10.4929
▁pouvons	-10.493
▁meiner	-10.4931
▁fase	-10.4938
▁Lage	-10.4939
liste	-10.4939
ible	-10.494
kod	-10.494
tagelse	-10.4941
▁vlád	-10.4941
▁Európa	-10.4945
zeit	-10.4949
▁kõik	-10.4949
▁data	-10.4951
īga	-10.4953
▁postup	-10.4958
ţă	-10.4964
▁conform	-10.4969
στε	-10.497
ήσουν	-10.4971
▁individual	-10.4972
▁siis	-10.4973
▁minu	-10.4975
▁porta	-10.4977
▁relation	-10.498
teur	-10.4981
▁2013	-10.4982
▁efekt	-10.4982
han	-10.4983
▁diskrimin	-10.4985
▁skatte	-10.4985
íme	-10.4989
▁colleghi,	-10.4991
ție	-10.4991
avimo	-10.4994
▁aug	-10.4998
▁voorzitterschap	-10.4999
▁kungs,	-10.5
▁Για	-10.5001
▁graag	-10.5002
▁dimostra	-10.5002
deling	-10.5003
▁vaid	-10.5006
▁principale	-10.5007
▁gesch	-10.5008
▁møde	-10.5014
▁systém	-10.5016
▁economica	-10.5016
▁blir	-10.5018
▁votre	-10.5023
gger	-10.5023
▁zásad	-10.5028
şi	-10.5032
▁ruolo	-10.5034
▁κάθε	-10.5041
▁össze	-10.5043
▁între	-10.5043
▁crisi	-10.5044
А	-10.5044
▁Signora	-10.5048
▁bol	-10.5048
▁procedimiento	-10.5052
▁primo	-10.5053
▁femmes	-10.5055
▁meno	-10.5058
υμ	-10.5058
opera	-10.506
▁ми	-10.5065
▁alebo	-10.5069
▁Rom	-10.5069
▁rettigheder	-10.507
▁gada	-10.507
▁rechten	-10.5072
▁importancia	-10.5074
selt	-10.5075
▁Gre	-10.5076
▁być	-10.5077
▁biztosít	-10.5079
▁Kan	-10.508
▁anno	-10.5081
ključ	-10.5082
zional	-10.5085
ból	-10.5087
▁εδώ	-10.5096
▁abord	-10.5099
bor	-10.5102
▁šio	-10.5102
▁voorzitter	-10.5103
lling	-10.5104
▁lucru	-10.5109
▁kommen	-10.5114
▁algo	-10.5116
▁propositions	-10.5121
▁før	-10.5121
▁progres	-10.5124
▁Central	-10.5125
▁responsable	-10.5126
▁krok	-10.5131
вър	-10.5135
▁políticas	-10.5135
▁Inter	-10.5135
▁οικονομ	-10.5136
▁hade	-10.5144
▁lucha	-10.5149
▁palju	-10.5156
▁nouvelle	-10.5156
▁sarebbe	-10.5159
▁mí	-10.5161
▁heller	-10.5162
▁civile	-10.5162
▁glede	-10.5168
▁cri	-10.5168
ται	-10.517
4-0	-10.5172
▁Person	-10.5174
▁possibilità	-10.5174
▁women	-10.5177
▁obiettivi	-10.518
▁maggiore	-10.518
▁sé	-10.5182
uß	-10.5184
▁ήδη	-10.5187
▁ποι	-10.5188
▁Alle	-10.5189
ými	-10.5192
▁taga	-10.5193
▁oro	-10.5194
▁natürlich	-10.5195
▁loc	-10.5196
stoff	-10.5196
▁2,	-10.5197
▁Ir	-10.5198
▁tacka	-10.5199
▁át	-10.52
rup	-10.5201
nimi	-10.5203
iente	-10.5204
▁passa	-10.5204
▁United	-10.5207
▁význam	-10.521
euro	-10.5212
▁predlog	-10.5214
▁nødvendigt	-10.5214
▁areas	-10.5215
jon	-10.5218
▁země	-10.5218
ēja	-10.5219
став	-10.5219
▁again	-10.5221
kur	-10.5223
▁empleo	-10.5224
ská	-10.5224
ξη	-10.5226
▁članic	-10.5226
▁là	-10.5227
▁pus	-10.5228
▁legitim	-10.5228
▁Fin	-10.5229
▁visu	-10.5229
λή	-10.5232
▁personer	-10.5232
▁velmi	-10.5233
▁eest	-10.5233
cos	-10.5234
▁håber	-10.5236
▁politi	-10.5236
cept	-10.5241
▁whether	-10.5241
▁byť	-10.5246
▁serait	-10.5247
▁problems	-10.5249
▁primera	-10.5249
iama	-10.5251
▁grandes	-10.5253
▁crois	-10.5256
▁limita	-10.5258
cional	-10.5259
dami	-10.526
industri	-10.526
▁evitar	-10.5263
▁muchos	-10.5264
πρό	-10.5264
periode	-10.5265
▁oh	-10.5267
▁ЕС	-10.5267
▁αντί	-10.527
▁būtu	-10.5271
ajiem	-10.5272
mittel	-10.5272
▁själv	-10.5273
itatea	-10.5274
▁ani	-10.5275
▁този	-10.5278
▁account	-10.5279
nelle	-10.5279
fér	-10.5282
▁rum	-10.5288
▁havde	-10.5289
▁conflict	-10.529
▁huidige	-10.5293
▁Mēs	-10.5296
▁tagállamok	-10.5298
▁Señorías,	-10.5298
▁ladies	-10.53
▁agricol	-10.5311
▁nun	-10.5312
▁région	-10.5314
ndus	-10.5315
sign	-10.5315
tivi	-10.5315
щи	-10.5316
uvre	-10.5322
▁šiuo	-10.5325
▁gustaría	-10.5326
▁années	-10.5328
koz	-10.5329
▁Kom	-10.5336
▁tuttavia	-10.5337
▁informatie	-10.5338
▁række	-10.5338
▁bardzo	-10.5343
▁achter	-10.5343
čių	-10.5343
▁plantea	-10.5345
öt	-10.5345
50	-10.5346
ajā	-10.535
▁lång	-10.5353
▁vrouwen	-10.5353
μέ	-10.5359
▁l'homme	-10.5359
▁podporu	-10.5359
▁aiz	-10.536
▁úr,	-10.5364
▁región	-10.5366
▁sull'	-10.5366
▁mitte	-10.5368
▁zasad	-10.537
▁traktat	-10.5371
ppe	-10.5371
▁institucij	-10.5373
▁będzie	-10.5375
▁sign	-10.5375
▁franc	-10.5376
▁paga	-10.5377
▁possono	-10.5377
▁tart	-10.5378
▁welcome	-10.538
jal	-10.538
▁welche	-10.538
▁drei	-10.5381
lös	-10.5382
θηκε	-10.5383
βλ	-10.5384
▁celle	-10.5385
mą	-10.5386
imų	-10.5386
ότητας	-10.5386
ство	-10.5387
▁500	-10.539
aient	-10.539
▁faktisk	-10.5391
▁”	-10.5391
gleich	-10.5392
▁quelle	-10.5393
lung	-10.5394
oti	-10.5394
ėja	-10.5394
▁nepo	-10.5401
oso	-10.5402
bol	-10.5404
▁betænkningen	-10.5405
▁než	-10.5405
▁tās	-10.5406
fä	-10.5409
ordning	-10.541
▁stille	-10.5411
ther	-10.5412
▁necessità	-10.5414
▁continua	-10.5416
▁m.	-10.5416
жда	-10.5422
▁interven	-10.5422
▁possiamo	-10.5424
▁predsednik,	-10.5426
▁iniciativa	-10.5432
▁aplicación	-10.5433
▁hem	-10.5439
▁reikia	-10.5443
ūt	-10.5445
▁versch	-10.5447
▁politische	-10.5448
▁juridique	-10.5449
ként	-10.5449
▁existen	-10.5452
▁mogen	-10.5452
▁naturligvis	-10.5456
govor	-10.5464
▁Come	-10.5468
▁accordo	-10.5468
▁etwas	-10.5469
▁områder	-10.5471
▁viktiga	-10.5471
▁formula	-10.5471
▁peu	-10.5474
▁komt	-10.5475
▁qu’il	-10.5476
udvalget	-10.5476
▁maž	-10.5477
▁már	-10.5478
▁politischen	-10.5483
▁varit	-10.5483
▁συνεχ	-10.5487
▁parlamentari	-10.5494
▁nacionales	-10.5496
▁enorm	-10.5497
▁generale	-10.5499
mina	-10.5501
▁εκεί	-10.5503
▁ví	-10.5504
jev	-10.5506
▁positiv	-10.5507
▁cuestiones	-10.5508
▁understrege	-10.5508
▁socialist	-10.5512
▁Irland	-10.5516
γε	-10.5518
▁norm	-10.552
▁pertanto	-10.552
▁week	-10.552
▁която	-10.5522
elő	-10.5524
▁klimat	-10.5524
▁kuid	-10.5527
▁υπ	-10.5528
▁behalf	-10.5534
▁Bedeutung	-10.5536
uses	-10.5538
▁gebracht	-10.5539
▁fer	-10.554
▁Bei	-10.554
▁strategia	-10.554
δια	-10.554
genommen	-10.5541
сто	-10.5542
▁résultat	-10.5542
lise	-10.5543
▁darüber	-10.5544
сти	-10.5545
ccup	-10.5551
cal	-10.5551
▁pé	-10.5552
▁Με	-10.5552
▁negli	-10.5556
▁objectifs	-10.5557
▁besser	-10.5559
▁UN	-10.5561
▁sí	-10.5561
▁προκειμένου	-10.5562
wol	-10.5562
▁който	-10.5563
▁κρατών	-10.5564
▁Rusland	-10.5567
▁realiz	-10.5568
▁grado	-10.557
▁communication	-10.5572
ф	-10.5573
▁amendements	-10.5573
▁στόχο	-10.5574
αφ	-10.5576
▁Was	-10.5577
▁imprese	-10.5577
▁ενός	-10.5578
avad	-10.5578
vod	-10.558
▁role	-10.5581
▁Rechts	-10.5581
▁(HU)	-10.5582
▁pay	-10.5584
own	-10.5586
▁Balkan	-10.5587
▁bescherming	-10.5589
▁maggior	-10.559
▁Schutz	-10.559
▁poder	-10.559
▁αρχ	-10.5592
▁oplossing	-10.5595
▁mezi	-10.5598
▁Mal	-10.5599
ха	-10.5599
εις	-10.56
▁Questo	-10.5601
▁weer	-10.5601
▁Rada	-10.5601
▁amendments	-10.5603
▁presupuesto	-10.5604
lagt	-10.5606
▁Gen	-10.5607
▁puesto	-10.5613
minister	-10.5613
κά	-10.5613
▁løsning	-10.5614
ggio	-10.5621
-S	-10.5621
▁condiciones	-10.5621
▁asszony	-10.5622
ások	-10.5623
▁nationella	-10.5623
sætte	-10.5628
▁ministr	-10.5629
▁led	-10.5631
ķ	-10.5633
▁trade	-10.5634
▁περισσότερο	-10.5639
▁също	-10.564
▁(SV)	-10.5642
ίσει	-10.5645
▁zeker	-10.5645
ceea	-10.5646
▁interesse	-10.565
▁Para	-10.565
▁finansiering	-10.5651
bru	-10.5656
▁decide	-10.5657
▁directiva	-10.5657
▁keď	-10.566
▁samma	-10.5661
-B	-10.5661
▁dai	-10.5663
práv	-10.5664
lijke	-10.5664
igkeit	-10.5665
voj	-10.5665
▁forsøg	-10.5668
ellen	-10.5669
πλ	-10.5669
▁те	-10.567
▁Abstimmung	-10.5671
▁nouveau	-10.5672
▁ambiti	-10.5673
▁arbeta	-10.5674
▁recherche	-10.5675
ując	-10.5678
▁power	-10.5679
skih	-10.568
σο	-10.5686
▁Maar	-10.5686
▁samfund	-10.5686
Berichterstatter	-10.5687
gende	-10.5687
▁επίπεδο	-10.5689
ούνται	-10.569
▁olema	-10.5692
▁lub	-10.5693
zó	-10.5694
▁Fragen	-10.5695
voir	-10.5696
ność	-10.5698
▁μέσω	-10.57
umā	-10.5701
▁serious	-10.5701
ktor	-10.5701
▁fractie	-10.5702
▁UE.	-10.5704
▁αγ	-10.5706
▁term	-10.5715
▁société	-10.5715
▁migr	-10.5717
▁diplomat	-10.5717
▁své	-10.5719
τυχ	-10.5722
▁odpo	-10.5726
πιστ	-10.5731
▁peuvent	-10.5732
▁Lösung	-10.5736
▁predstav	-10.5738
▁quella	-10.5738
μένο	-10.5738
▁però	-10.5742
▁Ook	-10.5744
▁kvinnor	-10.5745
▁Hier	-10.5745
ï	-10.5753
▁ricerca	-10.5755
▁Frauen	-10.5757
▁rent	-10.5757
▁conto	-10.5761
▁nuova	-10.5762
▁práctica	-10.5763
▁besteht	-10.5763
▁principi	-10.5764
▁kurios	-10.5765
▁εφαρμογή	-10.5765
▁reste	-10.5766
▁gleich	-10.5769
▁diskussion	-10.577
▁next	-10.577
▁tanke	-10.5775
īgu	-10.5775
▁όταν	-10.5776
aż	-10.5778
▁nuovo	-10.5781
▁Če	-10.5784
▁industrial	-10.5784
ąc	-10.5786
inio	-10.5787
anda	-10.5787
▁Debatte	-10.5788
▁Reform	-10.579
▁buon	-10.5791
▁consumatori	-10.5801
▁express	-10.5804
▁introduc	-10.5804
▁meil	-10.5805
blo	-10.5806
äär	-10.5806
▁å	-10.5807
▁2009.	-10.5809
ruš	-10.581
kennen	-10.5812
▁skupin	-10.5813
▁major	-10.5814
▁nytt	-10.5815
σμ	-10.5818
▁était	-10.5819
διο	-10.5824
▁show	-10.5825
▁Creo	-10.5827
▁notwendig	-10.5828
▁hy	-10.5831
inte	-10.5832
Z	-10.5834
▁raporti	-10.5834
owy	-10.5835
bit	-10.5837
▁spor	-10.584
▁hvordan	-10.584
▁diskut	-10.5841
▁after	-10.5842
▁elimina	-10.5843
ωρ	-10.5843
▁vorm	-10.5843
▁betydning	-10.5844
▁debatten	-10.5845
прав	-10.5851
▁διότι	-10.5859
▁staan	-10.586
▁rod	-10.5864
▁meest	-10.5869
stipr	-10.587
бо	-10.587
▁közös	-10.5871
▁(E	-10.5872
▁produce	-10.5875
▁oportunidad	-10.5877
▁rules	-10.5877
▁d'accord	-10.5878
▁corre	-10.5878
lü	-10.5879
▁Sam	-10.5882
liśmy	-10.5883
▁drog	-10.5884
▁unterstützen	-10.5884
▁letzten	-10.5888
kro	-10.5889
▁gar	-10.5889
čné	-10.5891
▁grundläggande	-10.5892
▁midler	-10.5893
▁riigi	-10.5893
▁Tuttavia	-10.5896
▁imod	-10.5896
gelegd	-10.5896
▁stanowi	-10.5897
▁χρ	-10.5904
▁Mor	-10.5906
▁wissen	-10.5908
▁Rates	-10.591
▁können,	-10.5911
▁leid	-10.5916
▁clair	-10.5917
▁wichtige	-10.5917
▁diverse	-10.5917
ран	-10.5917
▁dura	-10.5917
▁campo	-10.592
αρκ	-10.592
▁1996	-10.5921
ėl	-10.5922
▁juist	-10.5922
rii	-10.5923
▁diversi	-10.5927
▁gut	-10.5934
▁annak	-10.5944
▁tijdens	-10.595
▁juni	-10.5951
▁klima	-10.5953
▁Zukunft	-10.5956
▁contribution	-10.5956
▁tuleb	-10.5962
що	-10.5969
ταν	-10.597
▁μην	-10.597
▁jejich	-10.5972
▁zvezi	-10.5972
▁alcun	-10.5978
▁účinn	-10.5978
▁één	-10.598
▁quisiera	-10.5983
▁Tie	-10.5985
▁κύριε	-10.5987
▁importantes	-10.5989
anja	-10.5989
arios	-10.5991
scheid	-10.5992
▁pracovní	-10.5993
▁gennemføre	-10.5994
▁Fra	-10.5994
folge	-10.5994
▁internacional	-10.5997
pokoj	-10.5998
▁namens	-10.5999
▁Wort	-10.6
▁ορ	-10.6
τικών	-10.6001
▁s’	-10.6009
issement	-10.6009
stit	-10.6013
stilling	-10.6017
98	-10.6017
▁И	-10.6017
ру	-10.6017
▁valstybės	-10.602
▁formandskab	-10.6022
istische	-10.6024
▁ζήτημα	-10.6025
nici	-10.6027
▁But	-10.603
▁člen	-10.6032
▁jų	-10.6032
▁Pane	-10.6032
▁terms	-10.6033
mod	-10.6034
▁ihren	-10.604
96	-10.6041
ска	-10.6041
▁condizioni	-10.6042
▁kvalit	-10.6044
▁proposals	-10.6044
▁bättre	-10.6047
▁Tas	-10.6048
▁kvinder	-10.6048
šana	-10.6056
▁handlar	-10.6057
▁miljard	-10.6059
cev	-10.606
fonds	-10.6062
ībā	-10.6065
▁verw	-10.6065
▁majandus	-10.6067
▁responsabilità	-10.6069
ines	-10.607
eń	-10.6071
▁norėčiau	-10.6071
▁nagu	-10.6072
▁grundlæggende	-10.6074
▁verband	-10.6077
▁dernier	-10.6078
▁défini	-10.6078
τελ	-10.6079
roz	-10.6079
ματα	-10.608
▁controle	-10.6083
▁objetivos	-10.6085
▁look	-10.6087
бе	-10.6091
▁ко	-10.6092
▁back	-10.6092
доб	-10.61
▁europeisk	-10.6101
▁διε	-10.6103
problem	-10.6105
ιά	-10.6105
▁budou	-10.6108
▁εισ	-10.6109
▁ske	-10.6109
▁dello	-10.6111
▁така	-10.6114
▁πλ	-10.6115
▁rolle	-10.6115
▁liberté	-10.6118
itve	-10.6119
▁económico	-10.6121
migr	-10.6121
▁pagal	-10.6123
▁styr	-10.6124
▁zdrav	-10.6127
▁vedrørende	-10.6132
θη	-10.6134
▁società	-10.6135
▁daher	-10.6137
▁Commissario,	-10.6138
cov	-10.6139
▁Bank	-10.6139
▁mujeres	-10.6142
▁voto	-10.6142
▁avere	-10.6143
▁всички	-10.6144
▁(P	-10.6146
ération	-10.6149
ше	-10.6151
▁26	-10.6152
grad	-10.6153
ppel	-10.6154
▁hör	-10.6155
post	-10.6156
▁geben	-10.6157
▁potřeb	-10.6158
▁Vážený	-10.6159
vede	-10.616
voc	-10.6162
hinder	-10.6165
▁συζητ	-10.6166
▁stanov	-10.6168
▁Πρέπει	-10.6173
▁arriv	-10.6173
▁piac	-10.6175
▁keli	-10.6176
▁responsabilité	-10.6176
▁šis	-10.6177
▁rette	-10.618
▁aandacht	-10.6183
▁parole	-10.6183
ź	-10.6185
▁responsabilidad	-10.6188
▁slov	-10.619
▁Präsident	-10.6191
▁concept	-10.62
▁hoog	-10.6204
ējo	-10.6204
▁confirm	-10.6204
lage	-10.6204
anske	-10.6205
▁libertà	-10.6205
krat	-10.6206
raient	-10.6206
-A	-10.6207
▁especial	-10.6207
▁mantener	-10.621
κλ	-10.6218
-P	-10.622
▁stemming	-10.622
cial	-10.6221
σουμε	-10.6226
▁liikmesriikide	-10.6228
▁approva	-10.6229
▁Cet	-10.6231
▁pêche	-10.6239
enze	-10.6243
ωση	-10.6244
▁sociala	-10.6244
▁iets	-10.6246
tning	-10.6246
▁Tanács	-10.6246
▁produits	-10.6248
”,	-10.6249
▁grupo	-10.6249
▁Staaten	-10.6251
▁sentido	-10.6252
▁better	-10.6254
schrift	-10.6256
▁εάν	-10.6258
isierung	-10.6263
▁confi	-10.6263
▁depuis	-10.6265
▁betreffende	-10.6267
▁grupp	-10.627
▁approach	-10.627
▁meet	-10.6271
▁rozhod	-10.6271
▁papel	-10.6271
▁skr	-10.6273
hin	-10.6273
▁området	-10.6278
▁speak	-10.6278
gå	-10.6278
εν	-10.628
▁progressi	-10.6283
▁San	-10.6283
▁απαιτ	-10.6285
▁rezultat	-10.6286
▁particip	-10.6287
▁pensa	-10.6287
pul	-10.6292
ków	-10.6293
ги	-10.6294
▁Aussprache	-10.6297
▁resultat	-10.63
▁balance	-10.6301
▁afecta	-10.6303
▁procede	-10.6303
▁regolamento	-10.6306
område	-10.6306
▁trh	-10.6307
clar	-10.6308
▁façon	-10.6308
▁prodotti	-10.6308
▁réforme	-10.631
▁Sąjungos	-10.631
▁sel	-10.6312
vērt	-10.6317
▁въпрос	-10.6319
▁tych	-10.6319
▁hely	-10.632
▁conflit	-10.6321
legen	-10.6325
▁csak	-10.6326
▁nim	-10.6328
ίζεται	-10.633
ши	-10.6333
▁J'ai	-10.6341
▁relatore	-10.6341
▁utili	-10.6344
τικής	-10.6345
▁constitu	-10.6346
ebb	-10.6347
▁Parti	-10.6348
▁ελ	-10.6349
▁framework	-10.6349
dring	-10.6352
▁εργασίας	-10.6355
X	-10.6358
▁prieš	-10.6358
▁Una	-10.6359
τί	-10.6359
▁adopted	-10.6361
των	-10.6363
daj	-10.6364
ë	-10.6366
▁zagotovi	-10.6366
▁extrem	-10.6368
zahl	-10.6369
▁legislation	-10.637
▁vinden	-10.637
▁informations	-10.6371
▁cerca	-10.6373
▁stem	-10.6376
▁cento	-10.6377
▁fly	-10.6377
ît	-10.6379
▁basa	-10.6382
nál	-10.6382
▁næste	-10.6382
▁samen	-10.6383
öö	-10.6384
▁bomo	-10.6385
ция	-10.6386
▁siden	-10.6387
accord	-10.6388
▁ännu	-10.6388
used	-10.639
▁natuurlijk	-10.639
▁service	-10.6392
nymi	-10.6392
▁möjlighet	-10.6395
▁О	-10.6396
▁би	-10.64
jących	-10.6403
eerde	-10.6406
czne	-10.6408
▁musi	-10.6408
▁snel	-10.6409
▁starp	-10.6409
▁millions	-10.6412
▁comunitaria	-10.6414
▁Gebiet	-10.6415
▁prevent	-10.6416
из	-10.6418
▁riikide	-10.6422
▁après	-10.6423
▁soovi	-10.6424
▁competi	-10.6426
▁drøfte	-10.6429
▁unionens	-10.6429
▁sest	-10.6431
tum	-10.6431
▁efecto	-10.6437
▁Tre	-10.6438
▁priemon	-10.6439
▁alors	-10.6439
▁présidence	-10.6439
▁einzu	-10.6443
▁seit	-10.6445
▁positivo	-10.6448
side	-10.6448
▁zurück	-10.645
sättning	-10.645
regul	-10.645
▁gav	-10.6451
dores	-10.6452
tega	-10.6454
▁Zo	-10.6455
▁dalle	-10.6456
▁documento	-10.6457
▁marknaden	-10.6458
▁bijdrage	-10.6459
▁Europe.	-10.646
▁régime	-10.646
▁december	-10.646
küsimus	-10.646
kehr	-10.6461
▁skaidr	-10.6462
▁vilka	-10.6462
▁Tag	-10.6466
▁Wettbewerb	-10.6467
koli	-10.6469
ģ	-10.6471
iausia	-10.6472
▁fil	-10.6473
▁hora	-10.6475
▁kein	-10.6477
près	-10.6484
▁bylo	-10.6489
idas	-10.649
▁consecuencia	-10.6491
▁controllo	-10.6492
▁Belg	-10.6493
▁šia	-10.6494
▁gospoda	-10.6496
▁μπορούμε	-10.6498
▁galimyb	-10.6498
▁Europea.	-10.6499
▁Rolle	-10.65
šči	-10.6501
▁require	-10.6501
▁31	-10.6502
tische	-10.6502
kul	-10.6505
▁financière	-10.6507
▁exige	-10.6507
▁jomā	-10.6508
δα	-10.651
cri	-10.6511
▁gedaan	-10.6512
umiem	-10.6514
▁kvalitet	-10.6514
▁αυτής	-10.6515
konvention	-10.6515
▁possa	-10.6516
δυ	-10.6516
▁petit	-10.6517
▁propone	-10.6517
▁associa	-10.6517
▁Ευρωπαϊκού	-10.652
▁ιδιαίτερα	-10.652
burg	-10.6522
▁vida	-10.6523
▁subject	-10.6525
bund	-10.6528
▁nuestras	-10.653
▁questioni	-10.6532
lighed	-10.6532
nnan	-10.6536
▁every	-10.6538
▁soltanto	-10.654
▁crea	-10.6542
stäm	-10.6542
ását	-10.6543
▁Slov	-10.6543
▁find	-10.6543
▁emb	-10.6543
▁million	-10.6546
šanās	-10.6551
▁ανάπτυξη	-10.6555
▁waarde	-10.6561
▁тази	-10.6562
▁stop	-10.6563
▁rådets	-10.6567
▁förbättra	-10.6568
popul	-10.6572
▁uppnå	-10.6573
▁gestion	-10.6573
▁darbo	-10.6573
▁μπορούν	-10.6577
markt	-10.6577
migrant	-10.6577
▁indsats	-10.6577
▁What	-10.6579
▁quelques	-10.6579
▁législation	-10.6583
▁agent	-10.6584
▁lotta	-10.6586
izar	-10.6589
▁μελών	-10.659
▁International	-10.659
▁posta	-10.6591
▁NATO	-10.6594
cord	-10.6595
πολιτ	-10.6598
owego	-10.6602
▁īpaši	-10.6603
που	-10.6603
ény	-10.6604
▁Προ	-10.6611
▁άλλο	-10.6612
▁budú	-10.6613
▁mali	-10.6615
▁možn	-10.6616
▁gemaakt	-10.6618
voor	-10.6619
▁διά	-10.6621
owej	-10.6621
▁contenu	-10.6625
τον	-10.6625
gebied	-10.6625
▁respuesta	-10.6626
▁Selle	-10.6627
▁mention	-10.6627
▁decisione	-10.6627
ux	-10.6628
▁Members	-10.6629
iūl	-10.6631
▁saj	-10.6631
▁kommissionär	-10.6631
▁terület	-10.6632
▁Nel	-10.6637
▁adopté	-10.6638
αντ	-10.664
▁done	-10.6642
▁rink	-10.6644
▁technologie	-10.6646
▁Commissioner,	-10.6647
▁System	-10.6647
▁poč	-10.6649
▁тези	-10.665
▁landbrug	-10.6652
▁Ωστόσο	-10.6653
▁forme	-10.6655
ūk	-10.6658
▁star	-10.6659
▁teknisk	-10.6661
ibili	-10.6667
▁stre	-10.6668
▁bijvoorbeeld	-10.6669
▁Prodi	-10.667
▁propre	-10.6672
▁μετά	-10.6672
▁appel	-10.6674
▁trebui	-10.6675
▁Presidenza	-10.6676
▁razvoj	-10.6677
▁especialmente	-10.6677
▁viola	-10.6679
lö	-10.6681
ability	-10.6683
▁respond	-10.6686
▁noodzakelijk	-10.6687
▁My	-10.6688
▁wijze	-10.6688
▁Car	-10.669
▁2012	-10.6691
old	-10.6692
áció	-10.6692
▁revision	-10.6693
θέτ	-10.6694
▁consumer	-10.6694
▁jednak	-10.6696
▁casi	-10.6697
▁hom	-10.6699
▁trabaja	-10.6701
▁Ad	-10.6702
се	-10.6704
▁70	-10.6706
▁few	-10.6708
▁elektr	-10.671
▁interpret	-10.671
▁sprememb	-10.6711
▁Zusammenhang	-10.6713
váž	-10.6715
▁continent	-10.6717
▁commercial	-10.6718
kkel	-10.6719
▁opfordre	-10.672
▁använda	-10.6723
▁garantir	-10.6724
ņa	-10.6728
just	-10.6729
▁resolutie	-10.6729
▁pretože	-10.673
▁será	-10.6733
dici	-10.6733
▁αυτόν	-10.6741
▁PSE	-10.6741
vand	-10.6745
droš	-10.6748
▁νέα	-10.675
▁stödja	-10.6752
▁verzoek	-10.6753
zę	-10.6753
▁miljoen	-10.6758
▁productos	-10.6758
▁positiva	-10.6762
▁šī	-10.6763
▁gesagt	-10.6763
gono	-10.6765
▁Art	-10.6767
name	-10.6768
▁nostre	-10.6768
▁whole	-10.6768
wart	-10.6769
▁världen	-10.6769
▁zgod	-10.6769
▁Vorschläge	-10.677
▁attend	-10.6772
▁altro	-10.6773
▁Deshalb	-10.6777
▁Ol	-10.6778
▁voll	-10.6778
tamise	-10.6781
løb	-10.6782
▁insist	-10.6784
▁annat	-10.6787
▁bepaalde	-10.6787
▁enmienda	-10.6787
▁accepter	-10.6788
▁députés	-10.6788
▁viene	-10.6788
▁aplicar	-10.6789
nner	-10.6794
▁possibilité	-10.6796
sluit	-10.6797
▁mediante	-10.6797
▁vanskelig	-10.6797
ustatud	-10.6804
houden	-10.6806
▁jeden	-10.6807
▁γε	-10.6807
▁kapital	-10.6808
▁Zato	-10.6809
szer	-10.6809
▁vigtige	-10.6812
▁pose	-10.6815
▁adott	-10.6818
▁uttryck	-10.6819
▁justice	-10.682
▁szer	-10.6823
▁život	-10.6823
▁Commissaire,	-10.6823
full	-10.6827
▁28	-10.6828
łu	-10.6829
▁Como	-10.6829
▁státy	-10.6829
-R	-10.6829
▁idee	-10.683
▁conserva	-10.683
▁altijd	-10.683
▁χωρίς	-10.6834
gning	-10.6835
▁procedura	-10.6838
ního	-10.6839
▁betyder	-10.6845
▁tá	-10.6847
ер	-10.6849
▁tým	-10.685
sitz	-10.6851
▁αφ	-10.6852
▁täna	-10.6852
kiem	-10.6855
▁Ashton	-10.6859
rais	-10.686
▁Dank	-10.6861
byt	-10.6862
▁Dobbiamo	-10.6863
ště	-10.6863
reiz	-10.6864
▁Gru	-10.6864
stoj	-10.6865
éré	-10.6867
▁zowel	-10.6868
▁dnes	-10.6869
▁Δ	-10.6871
olog	-10.6871
▁contrario	-10.6872
▁vieno	-10.6872
▁μέτρα	-10.6874
vang	-10.6874
▁större	-10.6875
▁formand	-10.6876
▁incluso	-10.6878
▁ervan	-10.6878
▁konkrét	-10.688
▁danger	-10.6883
▁unge	-10.6888
▁forstå	-10.6888
▁risque	-10.6889
▁suure	-10.689
▁legislación	-10.6892
uose	-10.6893
▁Pakistan	-10.6893
mysl	-10.6894
act	-10.6895
haft	-10.69
üt	-10.6903
▁võt	-10.6903
▁evidente	-10.6906
▁29	-10.6907
satser	-10.6912
▁relazioni	-10.6917
▁lég	-10.6919
▁Voor	-10.6919
god	-10.6921
▁cur	-10.6921
▁Κα	-10.6925
▁vot	-10.693
▁Présidente	-10.693
▁organiza	-10.6932
▁først	-10.6936
▁относно	-10.6939
▁ledamöter	-10.694
▁amplia	-10.6941
alité	-10.6941
▁proto	-10.6943
▁teljes	-10.6946
Ι	-10.6947
▁rösta	-10.6948
▁finanční	-10.6949
▁collega's	-10.695
▁občan	-10.6951
▁Komisja	-10.6952
hel	-10.6953
▁gemensam	-10.6953
▁Weg	-10.6955
▁enligt	-10.6955
▁sett	-10.6959
▁diputados	-10.6962
▁javaslat	-10.6963
▁espera	-10.6963
▁90	-10.6964
▁familia	-10.6965
▁Χ	-10.6966
▁ratifica	-10.6967
▁valamint	-10.6968
▁create	-10.6969
▁concrete	-10.6971
▁както	-10.6972
Änderungsanträge	-10.6973
ан	-10.6977
▁zodat	-10.6977
αλλ	-10.6977
sætning	-10.6978
▁transporte	-10.6983
▁Fondo	-10.6983
▁vedere	-10.6985
▁αποτελεσματικ	-10.6985
▁zelfs	-10.6986
érer	-10.6987
▁forward	-10.6988
ňov	-10.6988
▁handling	-10.6988
▁Parlamentets	-10.6989
āku	-10.6989
▁duda	-10.699
▁nonché	-10.6992
▁programmi	-10.6999
▁nämlich	-10.7
▁weitere	-10.7002
nünk	-10.7002
▁inicia	-10.7005
▁mul	-10.7006
▁úrovni	-10.7007
▁viena	-10.7008
bili	-10.7009
▁règles	-10.701
▁parties	-10.701
▁bor	-10.7016
▁font	-10.7019
▁Menschenrechte	-10.702
▁støtter	-10.7023
ése	-10.7024
▁δημιουργ	-10.7026
▁energía	-10.7027
▁compens	-10.7029
zás	-10.703
▁atención	-10.7031
enblik	-10.7032
▁betrokken	-10.7033
▁Let	-10.7036
▁bilo	-10.7038
teurs	-10.7039
▁Tot	-10.7041
▁Met	-10.7041
▁uso	-10.7041
υγ	-10.7042
▁rád	-10.7045
▁lösning	-10.7045
επ	-10.7046
▁susitar	-10.7047
▁befolkning	-10.7049
isce	-10.705
▁claro	-10.7054
▁munka	-10.7054
▁adapt	-10.7056
▁step	-10.7059
▁toate	-10.7061
▁turėtų	-10.7062
lichkeit	-10.7063
hető	-10.7065
gress	-10.7067
äck	-10.707
▁seiner	-10.7073
geführt	-10.7074
σωπ	-10.7076
▁oleks	-10.7081
▁risorse	-10.7082
▁vital	-10.7087
▁medborgare	-10.709
▁svarbu	-10.7091
▁fatti	-10.7091
pak	-10.7092
▁libertad	-10.7093
▁costi	-10.7093
▁pratique	-10.7097
lju	-10.7097
▁cualquier	-10.7098
▁sûr	-10.71
rate	-10.71
▁ervoor	-10.7101
▁úgy	-10.7104
▁Savienības	-10.7105
dige	-10.7106
▁genomen	-10.711
▁Ž	-10.7113
tjeneste	-10.7117
καλ	-10.7117
▁vonatkozó	-10.7123
position	-10.7124
tiek	-10.7124
τές	-10.7125
▁stehen	-10.7126
▁może	-10.713
ovanje	-10.7131
J	-10.7131
programma	-10.7131
▁Artikel	-10.7132
▁drie	-10.7135
▁gospod	-10.7136
isé	-10.7136
▁helyzet	-10.7138
▁all’	-10.7142
▁По	-10.7143
▁verklig	-10.7147
до	-10.7149
▁encourage	-10.7149
99	-10.7149
▁realmente	-10.715
ț	-10.715
▁l'A	-10.7151
μάτων	-10.7152
▁iespēja	-10.7153
▁szükség	-10.7156
▁radio	-10.7158
▁bija	-10.7159
borg	-10.716
ovaní	-10.7162
▁regioni	-10.7163
aggi	-10.7164
nika	-10.7164
▁qualité	-10.7166
▁mala	-10.7168
▁danken	-10.7168
ők	-10.7168
▁poslan	-10.7171
hled	-10.7172
▁nõukogu	-10.7177
▁monitor	-10.7183
▁avanza	-10.7183
▁Mesdames	-10.7185
▁tohto	-10.7186
▁diskutera	-10.7188
ställning	-10.719
avo	-10.7191
ført	-10.7193
▁concerned	-10.7194
▁názor	-10.7194
▁dl	-10.7197
▁dibattito	-10.7198
▁rekening	-10.72
ernes	-10.7201
▁decisión	-10.7201
▁genera	-10.7202
οχή	-10.7202
bank	-10.7206
▁parlement	-10.7207
▁ambiente	-10.721
▁który	-10.7212
▁głos	-10.7213
▁opatření	-10.7214
▁publique	-10.7214
union	-10.7215
▁Gro	-10.7216
▁consolida	-10.7216
▁kann.	-10.7217
▁reduce	-10.7217
ités	-10.7217
īgā	-10.722
▁minimum	-10.7221
▁kundze	-10.7223
▁borgere	-10.7224
▁behandling	-10.7225
abili	-10.7225
▁instellingen	-10.7227
▁øge	-10.7228
▁komma	-10.7228
▁nouveaux	-10.7231
▁actions	-10.7232
▁try	-10.7233
▁palabra	-10.7233
▁økonomisk	-10.7236
ño	-10.7236
driv	-10.7239
▁bolj	-10.724
▁territori	-10.7241
▁nueva	-10.7247
▁stad	-10.7249
▁trhu	-10.7254
▁elektro	-10.7254
gezet	-10.7254
▁turime	-10.7255
▁termin	-10.7255
weit	-10.7259
cour	-10.726
▁cuanto	-10.7262
júci	-10.7264
▁hea	-10.7264
▁towards	-10.7265
▁viktig	-10.7272
▁pow	-10.7273
▁funktion	-10.7273
▁deputati	-10.7273
▁pues	-10.7274
▁Κυρία	-10.7277
▁exclu	-10.7277
▁sklad	-10.7277
▁alap	-10.7279
zorg	-10.728
▁water	-10.7281
▁evropské	-10.7282
▁régions	-10.7283
▁fiskeri	-10.7283
nunk	-10.7286
▁minska	-10.7286
▁verantwoord	-10.7287
▁štát	-10.7288
værdi	-10.7288
▁šā	-10.7289
▁föredraganden	-10.729
brug	-10.7291
duse	-10.7291
▁terrorism	-10.7294
▁έναν	-10.7296
nější	-10.7297
▁analyse	-10.7298
▁gazdasági	-10.73
▁propose	-10.7301
▁Europol	-10.7305
▁Ü	-10.7305
▁origin	-10.7307
▁working	-10.731
▁įgyvendin	-10.731
▁områden	-10.7313
▁periodo	-10.7313
▁stabilitet	-10.7314
▁protože	-10.7316
▁gælder	-10.7319
▁suur	-10.7319
tavad	-10.7319
▁pēc	-10.732
ția	-10.7323
čný	-10.7324
▁zemí	-10.7326
követ	-10.7328
▁Ministro	-10.7328
θεση	-10.733
▁nuovi	-10.7331
gevoerd	-10.7331
▁regione	-10.7332
▁intens	-10.7334
▁qualità	-10.7334
▁werkgelegenheid	-10.7334
▁szó	-10.7335
▁l'un	-10.7335
▁three	-10.7337
▁presentar	-10.7339
▁Verbraucher	-10.7339
grund	-10.7339
▁organism	-10.734
ì	-10.7341
▁Markt	-10.7341
tragen	-10.7344
lassen	-10.7344
▁barn	-10.7345
▁beskyttelse	-10.7345
meenschappelijk	-10.7347
εξ	-10.7348
▁αγορά	-10.7348
▁forpligte	-10.7354
likku	-10.7354
igung	-10.7354
labor	-10.7355
καν	-10.7355
▁handle	-10.7356
hus	-10.7356
▁zdroj	-10.7356
▁réponse	-10.7357
▁przed	-10.7358
▁play	-10.736
▁zadev	-10.7361
prä	-10.7363
▁posibilidad	-10.7368
кра	-10.7369
siones	-10.7371
rika	-10.7378
▁run	-10.7379
harmoni	-10.7382
gul	-10.7383
▁já	-10.7384
▁comercial	-10.7384
▁voir	-10.7384
▁Sozial	-10.7385
griff	-10.7388
ени	-10.7391
▁Todėl	-10.7392
staan	-10.7392
▁celu	-10.7392
▁Jak	-10.7393
▁protezione	-10.7393
particulièrement	-10.7394
▁σχέση	-10.74
▁Att	-10.7401
▁concentr	-10.7401
ităţi	-10.7402
▁tenga	-10.7404
▁förslaget	-10.7405
▁rib	-10.7405
kot	-10.7405
ordningen	-10.7408
▁vän	-10.7408
ał	-10.7409
▁utilizz	-10.741
ването	-10.7412
▁tiež	-10.7412
▁Beispiel	-10.7415
nými	-10.7417
ajú	-10.742
▁Ansicht	-10.7421
▁avtal	-10.7422
▁támogat	-10.7423
φρ	-10.7423
▁aplica	-10.7424
▁tutela	-10.7425
▁aiuti	-10.7426
▁Европа	-10.7427
▁affect	-10.7428
▁haber	-10.7431
träge	-10.7436
▁streng	-10.7437
▁πρόκειται	-10.7437
▁visse	-10.7439
▁υπέρ	-10.7441
ských	-10.7445
▁produkter	-10.7445
▁going	-10.7446
▁tack	-10.7446
isant	-10.7449
neb	-10.7452
▁peame	-10.7454
▁ország	-10.7454
▁enig	-10.7455
▁vej	-10.7455
▁votación	-10.7455
▁solid	-10.7456
▁främja	-10.7457
▁bort	-10.7459
▁slechts	-10.7464
▁internationella	-10.747
▁kuru	-10.7471
▁pubblica	-10.7472
▁macht	-10.7474
▁Under	-10.7475
▁j'	-10.7477
▁teraz	-10.7477
▁εξα	-10.7478
▁κοινή	-10.7478
▁gegenüber	-10.7479
ovej	-10.7479
▁needs	-10.7481
ringer	-10.7482
▁corso	-10.7483
▁ici	-10.7484
▁vigtig	-10.7485
tisk	-10.7487
▁sterk	-10.7488
elsen	-10.7489
ification	-10.7491
instrument	-10.7493
▁ihr	-10.7498
igheid	-10.7498
sorg	-10.75
▁potrzeb	-10.75
▁distribu	-10.7501
▁kaits	-10.7505
▁obstante	-10.7506
▁επαν	-10.7507
tuse	-10.7508
σουν	-10.7512
▁zapo	-10.7512
▁υπάρχουν	-10.7512
▁interest	-10.7515
μένου	-10.7517
▁occupa	-10.7519
▁ezek	-10.7523
agt	-10.7524
▁szerint	-10.7526
▁kal	-10.7528
τηση	-10.7531
bak	-10.7533
▁grupper	-10.7533
▁economía	-10.7534
program	-10.7536
▁πολίτες	-10.7538
▁simplement	-10.7539
▁gevolgen	-10.7539
▁vigor	-10.754
▁something	-10.7544
▁onderwerp	-10.7545
initiativ	-10.755
von	-10.7551
▁otsus	-10.7554
▁nuværende	-10.7555
▁Staat	-10.7557
▁sociales	-10.7558
▁anvende	-10.7564
▁realist	-10.7566
▁borgerne	-10.7566
съ	-10.7569
▁milioni	-10.7572
▁fronte	-10.7574
▁investi	-10.7575
▁semble	-10.7581
wan	-10.7582
φαν	-10.7585
▁success	-10.7588
▁constitue	-10.759
▁opge	-10.7594
▁trois	-10.7596
ities	-10.7602
▁négociations	-10.7604
ást	-10.7604
ifik	-10.7605
ému	-10.7605
▁politiku	-10.7607
▁aún	-10.7607
▁aim	-10.7608
anse	-10.7608
▁1995	-10.7608
▁problemet	-10.7609
▁szóló	-10.761
▁industria	-10.7611
▁l'onorevole	-10.7613
αίρ	-10.7614
αιρ	-10.7615
▁Fo	-10.7615
σπ	-10.7617
▁Directiva	-10.7621
▁Leben	-10.7627
▁Social	-10.7634
▁Hvad	-10.7634
▁sociedad	-10.7638
▁nuevos	-10.7638
▁declara	-10.7639
▁davon	-10.7639
▁országok	-10.7643
▁autorità	-10.7643
▁priprav	-10.7643
▁negoci	-10.7648
▁achieve	-10.7649
▁material	-10.765
▁recursos	-10.7651
▁περίπτωση	-10.7651
▁aspects	-10.7651
▁effektivt	-10.7653
auja	-10.7654
▁expert	-10.7655
▁érdekében	-10.7656
▁fondi	-10.7661
▁ponieważ	-10.7662
gia	-10.7662
▁factor	-10.7665
▁politikai	-10.7665
ško	-10.7666
▁hlas	-10.7666
▁remain	-10.767
▁participa	-10.767
▁termine	-10.7671
05	-10.7673
πό	-10.7675
▁unseren	-10.7675
▁peab	-10.7675
▁stöder	-10.7676
urile	-10.7678
▁stále	-10.7678
▁državljan	-10.7679
▁instituciones	-10.768
dri	-10.7681
ρέ	-10.7682
gur	-10.7682
bile	-10.7682
▁prakt	-10.7683
ύρ	-10.7683
▁tala	-10.7684
▁leden	-10.7687
▁ühis	-10.7687
import	-10.7688
▁dori	-10.7689
▁Weise	-10.769
▁forbedre	-10.7692
▁Brit	-10.7692
▁antwoord	-10.7693
▁list	-10.7694
▁aide	-10.7697
▁ALDE	-10.7699
▁guarantee	-10.7699
▁toeta	-10.7699
▁clairement	-10.7699
▁slot	-10.7703
ierten	-10.7707
▁най-	-10.7712
▁Strategie	-10.7713
▁voted	-10.7713
▁agr	-10.7714
▁κάτι	-10.7714
systemet	-10.7716
▁giorno	-10.7717
10	-10.7718
▁konsument	-10.7718
▁terrorismo	-10.7718
▁praegu	-10.7719
▁fonction	-10.7719
▁sundhed	-10.7722
▁udarbejde	-10.7723
▁become	-10.7726
▁penal	-10.7728
▁expresa	-10.7728
atlan	-10.7728
▁contact	-10.773
bry	-10.7732
▁καταστ	-10.7734
▁framtid	-10.7736
▁Kui	-10.7739
▁recib	-10.7739
▁referendum	-10.7743
izmu	-10.7745
ėmis	-10.7746
▁taik	-10.7746
▁remercier	-10.7747
▁gesteld	-10.7748
▁mondial	-10.7749
▁monopol	-10.7749
▁alvorlig	-10.7751
▁selon	-10.7751
▁nástroj	-10.7754
ята	-10.7756
▁naturligtvis	-10.7756
jící	-10.7759
▁celebra	-10.776
▁Č	-10.7761
▁involve	-10.7761
satz	-10.7761
wegen	-10.7761
▁buiten	-10.7761
▁capi	-10.7763
άγ	-10.7767
▁agricole	-10.7768
▁hervorming	-10.7768
▁sort	-10.7771
σσ	-10.7772
έσ	-10.7772
▁savu	-10.7775
ение	-10.7776
▁m'	-10.7777
▁πως	-10.7779
αρμ	-10.778
▁pasado	-10.7781
denken	-10.7781
▁small	-10.7783
ξει	-10.7789
tiska	-10.7792
▁wanneer	-10.7795
▁discute	-10.7795
indre	-10.7796
ръ	-10.7797
▁χρόνια	-10.7797
▁nature	-10.7798
▁ordføreren	-10.7802
▁voté	-10.7805
▁Natur	-10.7806
▁може	-10.7808
▁gospodarcz	-10.7808
gún	-10.7813
τερα	-10.7813
▁200	-10.7815
▁ytterligare	-10.7815
▁sker	-10.7816
δρ	-10.7818
▁current	-10.782
ucht	-10.7822
▁preto	-10.7822
▁betrifft	-10.7825
förfarande	-10.7825
▁subsidi	-10.7826
▁veiksm	-10.7826
setzung	-10.7827
▁Denne	-10.7828
heten	-10.7829
▁freedom	-10.7837
▁könnte	-10.7839
▁ramme	-10.784
γραφ	-10.784
▁gruppe	-10.784
setzt	-10.7843
▁Haus	-10.7845
▁mort	-10.7847
ók	-10.7847
▁führen	-10.7849
▁utveckla	-10.7849
▁FN	-10.785
▁œuvre	-10.7852
▁ισχύ	-10.7855
▁procesu	-10.7856
▁texte	-10.786
▁deutlich	-10.786
▁Komisia	-10.7861
▁patent	-10.7862
▁investigación	-10.7864
▁environmental	-10.7866
▁necesita	-10.7866
▁tylko	-10.7867
▁resources	-10.7874
ibile	-10.7876
▁nedo	-10.7876
▁garantera	-10.7876
▁riguardo	-10.7877
▁kül	-10.7879
ovala	-10.7879
taria	-10.7881
▁konkur	-10.7881
▁δικαιωμάτων	-10.7882
▁engagement	-10.7883
▁correspond	-10.7883
łow	-10.7885
▁pourrait	-10.7887
▁Γ	-10.7888
▁sociali	-10.7892
▁laatste	-10.7893
▁nove	-10.7895
▁hätte	-10.7896
▁förstå	-10.7898
▁marknad	-10.7899
▁hulp	-10.79
zenie	-10.7901
kelijk	-10.7902
▁Republik	-10.7905
führen	-10.7907
▁behovet	-10.7907
ηθούν	-10.7907
granicz	-10.7907
ország	-10.7908
▁illegal	-10.7908
schlag	-10.7908
▁nombreux	-10.7911
▁misma	-10.7913
▁arv	-10.7914
▁spørgsmålet	-10.7914
▁orde	-10.7915
▁posición	-10.7918
▁begrüße	-10.7921
vig	-10.7921
▁zaak	-10.7925
▁világ	-10.7931
umą	-10.7933
▁fondo	-10.7936
▁down	-10.7938
▁foarte	-10.7939
▁М	-10.794
▁Това	-10.7942
▁bro	-10.7942
▁urge	-10.7944
▁īsteno	-10.7944
▁innovation	-10.7945
ομαι	-10.7947
stehen	-10.7951
▁plán	-10.7952
▁artículo	-10.7952
▁bereit	-10.7952
▁segundo	-10.7953
▁όπου	-10.7954
▁minori	-10.7957
tici	-10.7957
▁read	-10.7958
▁richtig	-10.796
▁Meine	-10.7966
▁excellent	-10.7966
▁ettepaneku	-10.7968
▁moeilijk	-10.797
▁Mums	-10.7971
▁guerra	-10.7974
▁Fören	-10.7975
kład	-10.7975
råd	-10.7976
▁detto	-10.7978
programmet	-10.7979
σχ	-10.7981
▁netop	-10.7981
▁groei	-10.7981
▁utgör	-10.7984
ované	-10.7984
▁Har	-10.7989
sistenza	-10.7989
зна	-10.7991
EC	-10.7993
▁daran	-10.7993
▁exact	-10.7994
▁siempre	-10.7995
▁én	-10.7997
▁aumento	-10.7997
▁consommateurs	-10.7997
jih	-10.7997
▁Fonds	-10.8
▁weet	-10.8005
▁razón	-10.8005
like	-10.8007
far	-10.801
▁varje	-10.8011
ява	-10.8013
▁interno	-10.8014
▁jó	-10.8014
λυ	-10.8014
▁(C	-10.8014
▁υπόψη	-10.8017
▁crime	-10.8018
▁definitiv	-10.802
▁Unter	-10.8021
▁těch	-10.8024
▁conseguir	-10.803
▁fiscal	-10.8036
▁wirtschaftliche	-10.8036
-M	-10.8037
▁jaren	-10.804
▁Λ	-10.804
▁l'ex	-10.8041
EF	-10.8045
▁desidero	-10.8045
uche	-10.8047
cell	-10.8047
▁miliard	-10.8051
koha	-10.8052
▁sætte	-10.8053
▁между	-10.8055
▁opportunity	-10.8056
▁Udvalget	-10.8059
▁Unidos	-10.806
▁regioner	-10.806
owane	-10.8061
▁regret	-10.8062
ER	-10.8063
▁Б	-10.8066
▁senaste	-10.8068
▁violence	-10.8069
».	-10.8069
▁domin	-10.8071
▁ham	-10.8075
▁seront	-10.8077
▁Evropa	-10.8079
▁simple	-10.808
▁General	-10.8081
ства	-10.8084
▁talk	-10.8085
▁Συνθήκη	-10.8086
▁including	-10.8087
▁nouvelles	-10.8089
▁Form	-10.8091
▁commissaris,	-10.8092
▁poolt	-10.8092
▁skydd	-10.8093
▁môže	-10.8094
mil	-10.8095
▁finder	-10.8096
▁waarop	-10.8097
▁sorte	-10.8099
▁zaradi	-10.8102
▁Tomēr	-10.8103
▁valsts	-10.8104
▁talar	-10.8106
▁concurrentie	-10.811
▁skutočn	-10.8111
ед	-10.8116
læg	-10.8117
▁Region	-10.8118
cle	-10.8118
▁rzecz	-10.8118
owym	-10.8118
▁tagad	-10.8119
▁verso	-10.8122
win	-10.8122
▁genau	-10.8123
▁rast	-10.8123
βουλ	-10.8127
▁uppmana	-10.8127
niveau	-10.8128
pă	-10.813
▁κρίση	-10.813
▁finansielle	-10.813
jö	-10.813
▁prag	-10.8132
▁punkter	-10.8135
änk	-10.8136
▁Mol	-10.8139
▁Wahl	-10.814
▁Ευρώπης	-10.8147
▁conclude	-10.8147
▁senso	-10.8148
▁cro	-10.8148
țe	-10.8153
▁reikal	-10.8154
▁portug	-10.8154
▁2008.	-10.8154
▁Sra.	-10.8156
▁juht	-10.8157
ítés	-10.8158
līdz	-10.8158
▁perspective	-10.816
polit	-10.816
ува	-10.816
gång	-10.8162
▁third	-10.8165
▁organi	-10.8165
ηρ	-10.8166
▁posti	-10.8166
▁narių	-10.8168
▁nécessité	-10.817
τω	-10.817
▁tiden	-10.8173
ņu	-10.8178
▁chance	-10.8179
▁Presidency	-10.8181
▁Und	-10.8184
▁addition	-10.8189
▁credo	-10.8189
▁German	-10.819
▁employment	-10.8193
▁nich	-10.8193
▁Τα	-10.8194
▁salud	-10.8197
▁visto	-10.8202
▁šį	-10.8205
till	-10.8206
wort	-10.8206
▁pública	-10.821
▁paz	-10.8215
mata	-10.8218
▁vod	-10.822
▁europee	-10.8223
▁beskæftigelse	-10.8224
▁proposed	-10.8225
mluv	-10.8225
▁tidigare	-10.8225
▁poiché	-10.8226
færd	-10.8229
trauk	-10.8231
▁själva	-10.8232
▁criteri	-10.8236
niem	-10.8236
guard	-10.8238
▁Д	-10.8239
istisk	-10.8239
▁spi	-10.8239
▁attività	-10.8241
▁ministre	-10.8241
▁Ν	-10.8242
▁między	-10.8246
νά	-10.8247
▁saavuta	-10.8248
▁estrategia	-10.8248
dès	-10.8249
▁hoofd	-10.8249
▁J'	-10.8249
bestämmelser	-10.825
▁votar	-10.8251
▁calidad	-10.8252
▁zusammen	-10.8252
▁committee	-10.8254
▁kris	-10.8256
▁authorities	-10.8257
▁emellertid	-10.8259
▁intervention	-10.826
▁frei	-10.8261
▁opportun	-10.8264
▁plazo	-10.8265
▁Od	-10.8265
▁research	-10.8267
▁viac	-10.8268
▁público	-10.8269
rust	-10.8273
▁jelent	-10.8274
▁welke	-10.8274
▁aunque	-10.8275
▁mission	-10.8275
▁valstybių	-10.8275
▁бъдат	-10.8277
▁policies	-10.8277
▁legislativ	-10.8279
voli	-10.8282
▁shall	-10.8282
mettere	-10.8282
▁halv	-10.8283
▁free	-10.8283
▁Padome	-10.8285
▁endast	-10.8286
gó	-10.8288
-K	-10.8289
▁disposition	-10.829
ismus	-10.8291
·	-10.8292
▁live	-10.8296
▁или	-10.8297
ief	-10.8298
▁tiesību	-10.8298
▁invece	-10.83
ším	-10.8301
▁δικαιώματα	-10.8301
▁éc	-10.8301
▁Ebene	-10.8302
▁lavora	-10.8302
▁interna	-10.8303
economia	-10.8305
▁donné	-10.8309
institution	-10.8309
ēji	-10.831
ίσουμε	-10.831
pil	-10.8314
▁gén	-10.8318
▁afgørende	-10.8319
▁really	-10.8319
▁Gruppe	-10.832
▁Σε	-10.8322
▁politico	-10.8322
ugu	-10.8324
amerika	-10.8325
▁parere	-10.8327
▁Έ	-10.8327
▁būt	-10.8329
▁(SK)	-10.8331
/E	-10.8331
lép	-10.8332
▁poročilo	-10.8334
mæssige	-10.8334
▁consulta	-10.8335
løs	-10.8336
▁s'est	-10.8337
▁lõ	-10.8339
▁progetto	-10.8339
▁Wirtschaft	-10.8342
▁taler	-10.8342
▁emot	-10.8351
▁peace	-10.8353
▁analiz	-10.8354
ował	-10.8355
tár	-10.8356
▁muu	-10.8356
▁αυτών	-10.8358
▁tohoto	-10.8359
▁cabo	-10.8361
▁haft	-10.8362
▁algunas	-10.8362
▁organisations	-10.8364
▁negociaciones	-10.8368
▁essential	-10.8368
▁emne	-10.8369
▁Aber	-10.8373
ziehen	-10.8378
twa	-10.8378
▁Abkommen	-10.8385
▁voorgesteld	-10.8387
▁tidligere	-10.8387
▁juhataja,	-10.8389
issant	-10.839
▁skupiny	-10.839
▁ανάγκη	-10.8391
▁samman	-10.8393
▁spolu	-10.8395
seks	-10.8397
▁nagy	-10.8397
▁mayoría	-10.8397
▁hodnot	-10.8399
▁pression	-10.8399
▁internal	-10.84
▁drama	-10.84
▁erforderlich	-10.84
▁asyl	-10.8401
ują	-10.8402
▁especially	-10.8404
▁fail	-10.8406
▁nagyon	-10.8409
▁gemeinsame	-10.8411
▁mindst	-10.8412
▁Ter	-10.8413
▁changement	-10.8413
▁line	-10.8413
▁provision	-10.8416
hľad	-10.8416
pool	-10.8418
▁hear	-10.842
norm	-10.842
▁członkowskich	-10.8421
▁obra	-10.8421
▁strong	-10.8426
▁front	-10.8426
spē	-10.8427
κρο	-10.8428
▁Ú	-10.8429
▁mois	-10.843
▁solidaritet	-10.8431
▁států	-10.8432
▁nodrošināt	-10.8434
ával	-10.8434
▁risposta	-10.8436
punt	-10.8437
▁démocratique	-10.8437
▁chaque	-10.8441
döm	-10.8443
mény	-10.8445
hlas	-10.8451
▁azonban	-10.8452
▁Pani	-10.8452
mann	-10.8452
▁ktorí	-10.8453
▁leiden	-10.8453
▁char	-10.8455
▁rättigheterna	-10.8458
▁žiad	-10.8459
▁familie	-10.8462
anska	-10.8462
▁cita	-10.8463
▁accetta	-10.8463
▁together	-10.8463
▁tard	-10.8464
▁maintenant	-10.8464
▁kogu	-10.8466
▁fondamentali	-10.8468
▁nové	-10.8469
region	-10.847
▁creare	-10.847
▁Italia	-10.8471
▁Assemblée	-10.8472
amiento	-10.8472
fråga	-10.8474
▁private	-10.8477
▁vertegenwoordig	-10.8477
wing	-10.848
▁Gesundheit	-10.8481
▁υπερ	-10.8481
▁während	-10.8483
emendamento	-10.8483
▁coordin	-10.8484
industrie	-10.8488
▁szint	-10.8492
▁fourni	-10.8493
chádza	-10.8497
▁först	-10.8498
▁elnök	-10.8499
▁nivå	-10.8499
▁dynami	-10.8501
▁oltre	-10.8502
▁jaoks	-10.8505
▁αυτο	-10.8505
▁Verfahren	-10.8505
și	-10.8507
darb	-10.851
▁Fund	-10.8511
▁európske	-10.8512
▁само	-10.8513
▁sociáln	-10.8515
▁svobod	-10.8515
front	-10.8516
▁terror	-10.8516
▁acquis	-10.8518
▁statut	-10.8518
beheer	-10.8519
▁въз	-10.8519
pred	-10.8523
▁blij	-10.8524
▁Tačiau	-10.8526
▁ρόλο	-10.8526
▁passe	-10.8527
▁affrontare	-10.8527
ίγ	-10.8529
▁necesaria	-10.8529
▁г.	-10.8532
▁σοβαρ	-10.8532
▁(CS)	-10.8533
greifen	-10.8536
▁intérieur	-10.8538
▁sería	-10.8539
▁δί	-10.8544
▁další	-10.8545
▁Parlamendi	-10.8546
▁multilateral	-10.8546
▁pateikt	-10.8547
▁affinché	-10.8547
▁clearly	-10.8547
ове	-10.855
▁vyh	-10.855
▁plusieurs	-10.855
ordi	-10.8551
▁liberaliz	-10.8552
vaardig	-10.8553
missie	-10.8554
▁nödvändigt	-10.8554
schließen	-10.8556
▁ændre	-10.8558
▁debba	-10.8559
▁during	-10.8559
ög	-10.8562
▁bisogno	-10.8563
▁démocratie	-10.8563
ninger	-10.8567
▁darf	-10.8569
▁ühe	-10.857
▁ξε	-10.857
▁vprašanj	-10.8573
▁Rechte	-10.8573
▁improve	-10.8576
ograf	-10.8577
icamente	-10.8578
zelf	-10.8582
▁bidra	-10.8583
mės	-10.8585
▁intérêt	-10.8585
▁potrebbe	-10.8586
tijd	-10.8586
▁dentro	-10.8588
▁zie	-10.8588
▁PPE	-10.8588
▁Bruxelles	-10.8589
ото	-10.859
▁industry	-10.859
▁již	-10.859
▁assist	-10.8594
▁least	-10.8595
▁alcune	-10.8599
▁essa	-10.8601
раз	-10.8602
▁võimalik	-10.861
▁został	-10.861
άμε	-10.8612
▁vald	-10.8612
▁czas	-10.8613
▁Trattato	-10.8615
abile	-10.8618
▁dabei	-10.8621
▁Convention	-10.8621
▁Tā	-10.8623
▁gevolg	-10.8623
▁Unionen	-10.8623
Α	-10.8624
▁Tal	-10.8625
▁preocupa	-10.8626
▁fortsätta	-10.8627
visning	-10.8629
▁cilj	-10.863
▁rendszer	-10.863
▁πρόβλημα	-10.8632
▁propio	-10.8632
▁riusci	-10.8632
▁Kina	-10.8633
▁Afghanistan	-10.8634
ører	-10.8635
fördraget	-10.8636
▁político	-10.8638
▁daugiau	-10.8639
τεί	-10.864
▁dienen	-10.8641
werking	-10.8646
▁fremskridt	-10.8647
▁grundlag	-10.8648
vatten	-10.865
▁limite	-10.865
▁sociāl	-10.865
▁támogatás	-10.8651
Κ	-10.8652
▁negotiations	-10.8656
▁metu	-10.8657
▁cał	-10.866
▁prefer	-10.866
▁Änderungsantrag	-10.8665
▁udtryk	-10.8666
▁vám	-10.8667
ρθ	-10.8667
▁Derecho	-10.8668
regler	-10.8668
▁fiske	-10.8669
▁valeur	-10.867
▁určit	-10.867
▁Beschäftigung	-10.8678
▁Agenda	-10.8681
▁infrastruktur	-10.8683
▁l'I	-10.8684
meenschappelijke	-10.8692
rgent	-10.8693
▁identifi	-10.8696
▁estoy	-10.8698
οδο	-10.8699
▁Comme	-10.87
matu	-10.8701
▁moneta	-10.8703
▁buena	-10.8704
ībām	-10.8705
▁videre	-10.8705
▁kollega	-10.8705
97	-10.8708
▁gute	-10.8708
▁priva	-10.8709
▁bla	-10.871
▁svilupp	-10.871
▁Kinder	-10.8712
jük	-10.8712
▁ασ	-10.8714
▁już	-10.8716
▁consiste	-10.8717
nischen	-10.8718
▁used	-10.8718
colo	-10.8718
▁glad	-10.8722
▁protect	-10.8724
▁business	-10.8725
fac	-10.8725
partner	-10.8726
gräns	-10.8727
στα	-10.8729
▁Damen	-10.8733
▁nation	-10.8733
▁nuove	-10.8733
tól	-10.8734
▁kommende	-10.8737
ási	-10.8738
▁financiera	-10.8739
▁aucun	-10.8741
▁hr	-10.8742
▁responsibility	-10.8743
▁strategy	-10.8743
▁écrit	-10.8743
▁týka	-10.8746
▁operation	-10.8748
▁itself	-10.8748
▁propri	-10.8749
▁identit	-10.8753
gesteld	-10.8753
geven	-10.8753
▁llama	-10.8754
▁verplicht	-10.8754
▁lägga	-10.8754
šķir	-10.8755
▁μη	-10.8756
▁comporta	-10.8758
pí	-10.8758
vah	-10.8761
▁druh	-10.8761
▁hacia	-10.8762
arbejde	-10.8763
▁strijd	-10.8763
▁medlemsstat	-10.8763
kami	-10.8764
▁expect	-10.8766
raum	-10.8766
▁evropski	-10.8767
ativa	-10.8768
stille	-10.8771
ión	-10.8771
▁souhaite	-10.8773
▁Nations	-10.8774
▁parlementaire	-10.8775
▁εμπ	-10.8778
▁Evropski	-10.8781
zą	-10.8782
▁mērķi	-10.8783
▁donde	-10.8783
▁understand	-10.8785
▁another	-10.8787
▁l'accord	-10.8791
▁Turk	-10.8792
▁społeczn	-10.8794
bilidad	-10.8794
▁compete	-10.8794
▁Reglamento	-10.8795
▁aspetti	-10.8795
▁concentra	-10.8798
āka	-10.8798
▁recente	-10.8799
▁después	-10.8802
▁tenu	-10.8802
▁oog	-10.8803
sproces	-10.8803
▁Bl	-10.8804
▁riesgo	-10.8804
▁byla	-10.8806
öm	-10.8812
ξε	-10.8812
▁fiscale	-10.8812
▁relativ	-10.8813
▁megállapodás	-10.8815
jām	-10.882
▁jät	-10.8826
▁autorités	-10.8828
▁Verordnung	-10.8828
eerimis	-10.8828
ние	-10.8829
▁gestemd	-10.883
▁Demokratie	-10.8831
▁d'en	-10.8832
abel	-10.8833
▁spôsob	-10.8833
▁offentlige	-10.8833
tifs	-10.8834
▁noteikt	-10.8835
▁obnov	-10.8837
nění	-10.8841
▁ειδικ	-10.8842
slutning	-10.8842
▁konsekvenser	-10.8843
▁vasta	-10.8844
▁Bezug	-10.8844
▁kamp	-10.8846
▁Vad	-10.8849
▁permette	-10.885
▁donner	-10.8851
handlung	-10.8851
avlja	-10.8852
cken	-10.8853
▁elfogad	-10.8854
▁soluzione	-10.8856
▁pane	-10.8857
▁Initiative	-10.8858
▁profession	-10.8858
▁bred	-10.886
▁États-Unis	-10.8863
▁sporazum	-10.8873
▁turism	-10.8874
▁waarmee	-10.8876
wirtschaft	-10.8877
▁kracht	-10.8879
▁võimalus	-10.8883
▁zne	-10.8885
▁ragione	-10.8886
▁bestehen	-10.8886
▁alternative	-10.8887
βι	-10.8889
▁happen	-10.889
▁Uniti	-10.889
▁sigue	-10.889
▁offen	-10.889
▁priorité	-10.8891
▁temat	-10.8892
▁typ	-10.8896
Π	-10.8898
▁werken	-10.8899
kép	-10.89
▁procedur	-10.89
ordförandeskapet	-10.8906
▁puis	-10.8909
▁rör	-10.8909
▁autonom	-10.891
▁αρχή	-10.8911
▁drejer	-10.8916
▁acción	-10.8918
▁ypač	-10.8918
▁navnlig	-10.892
▁anledning	-10.892
▁dolgo	-10.8922
▁greater	-10.8922
hän	-10.8925
ške	-10.8929
fal	-10.8931
▁afstemning	-10.8932
▁sembra	-10.8935
▁håller	-10.8936
ίζουν	-10.8936
▁kurā	-10.8936
▁veci	-10.8937
лен	-10.8937
▁prix	-10.8939
way	-10.894
цен	-10.8941
▁εγκ	-10.8942
▁einfach	-10.8943
▁(H	-10.8943
▁teisės	-10.8944
▁mejorar	-10.8946
zol	-10.8948
▁ос	-10.8949
▁uitbreiding	-10.8949
▁отношение	-10.8949
▁equal	-10.895
▁nasze	-10.8953
hö	-10.8953
▁Umsetzung	-10.8958
▁bestimmte	-10.8959
▁Angelegenheit	-10.896
▁μέλλον	-10.8964
ajām	-10.8965
▁únie	-10.8966
▁ønske	-10.8966
▁Instrument	-10.8967
▁volgende	-10.8967
▁miglior	-10.8968
▁“	-10.8968
▁crescita	-10.8973
under	-10.8979
вен	-10.8981
▁autoridades	-10.8981
▁Efter	-10.8982
følge	-10.8982
▁negoziati	-10.8983
vál	-10.8985
▁Hilfe	-10.8989
posit	-10.8989
▁conséquence	-10.8991
▁safety	-10.8991
▁sowohl	-10.8998
▁Συν	-10.9001
▁surtout	-10.9002
nivå	-10.9003
▁certaines	-10.9003
üg	-10.9005
▁Pat	-10.9005
▁darin	-10.9006
▁konkrete	-10.9007
▁zin	-10.9008
▁représente	-10.9009
▁tager	-10.9009
media	-10.9009
▁cierto	-10.9013
▁ersten	-10.9014
▁entend	-10.9014
zott	-10.9015
▁Änderung	-10.9016
▁nevar	-10.9016
▁products	-10.9018
▁rather	-10.9019
▁může	-10.902
▁sufficient	-10.9021
▁změn	-10.9022
▁coopera	-10.9023
▁gericht	-10.9024
▁też	-10.9026
▁coût	-10.9027
▁zapewni	-10.9028
σκε	-10.9029
стоя	-10.9032
▁συνεργασία	-10.9033
▁effetti	-10.9033
▁nada	-10.9035
▁strategic	-10.9036
▁pokud	-10.9037
▁essentiel	-10.9037
▁к	-10.9039
▁islam	-10.904
▁nylig	-10.904
▁pace	-10.9045
köt	-10.9046
▁resulta	-10.9049
▁Präsidentin	-10.905
kup	-10.9051
▁lavoratori	-10.9053
▁кон	-10.9053
▁rets	-10.9055
iteľ	-10.906
ân	-10.9063
chter	-10.9063
▁Acest	-10.9064
▁Abbiamo	-10.9064
▁bloc	-10.9064
▁korrekt	-10.9065
ψει	-10.9068
szcz	-10.907
▁toler	-10.9071
▁mari	-10.9071
racht	-10.9072
Е	-10.9073
στά	-10.9073
▁trabajadores	-10.9074
▁Minu	-10.9074
▁Kyoto	-10.9075
káz	-10.9075
▁diensten	-10.9077
▁stemmen	-10.9077
▁innehåll	-10.908
dauer	-10.9082
projekt	-10.9082
▁Aufgabe	-10.9085
▁givet	-10.9087
schutz	-10.9088
frågor	-10.9088
ijoje	-10.9089
δρα	-10.9091
▁miest	-10.9092
▁juridisk	-10.9095
▁solicit	-10.9096
šal	-10.9096
▁soort	-10.9098
▁informazioni	-10.9099
γνωρ	-10.9099
▁democracia	-10.9099
▁prese	-10.91
▁informacij	-10.91
ických	-10.91
▁detail	-10.9101
▁visant	-10.9102
▁suteik	-10.9103
evanje	-10.9106
▁35	-10.9107
τρα	-10.9107
▁dringend	-10.9113
äst	-10.9115
▁estar	-10.9116
▁déclaration	-10.9117
▁Eine	-10.9117
tief	-10.9118
▁Schritt	-10.9118
truk	-10.9121
kund	-10.9123
▁užtikrinti	-10.9127
▁Cámara	-10.9127
▁preced	-10.9127
▁Roma	-10.913
aggio	-10.9131
▁suoi	-10.9133
▁medborgarna	-10.9134
▁Kolleginnen	-10.9134
geben	-10.9135
▁tab	-10.9136
tagande	-10.9136
lekt	-10.9139
▁hvilke	-10.9139
▁odbor	-10.914
▁Democra	-10.9141
▁belasting	-10.9142
▁Forschung	-10.9144
μό	-10.9145
▁È	-10.9148
εδρ	-10.915
zik	-10.9152
▁valstyb	-10.9155
▁sõ	-10.9157
▁dobro	-10.9158
▁σύν	-10.916
▁ressources	-10.916
inę	-10.9161
▁strany	-10.9162
▁mohl	-10.9163
▁ικαν	-10.9164
vik	-10.9166
▁nord	-10.9167
ński	-10.917
▁ενώ	-10.9171
▁όλες	-10.9173
▁votato	-10.9174
turi	-10.9174
▁commissie	-10.9176
▁szerep	-10.9177
▁democrazia	-10.9178
-même	-10.9179
▁polityki	-10.9182
▁bedanken	-10.9185
▁ståndpunkt	-10.9186
▁motor	-10.9188
▁krize	-10.919
▁udvikle	-10.9191
▁Ciò	-10.9192
kræ	-10.9198
▁scop	-10.92
▁tydligt	-10.9203
λου	-10.9204
▁Pone	-10.9204
▁ίδιο	-10.9204
▁tačiau	-10.9205
▁brauchen	-10.9206
▁behandle	-10.9209
▁besonders	-10.921
▁steht	-10.9213
▁právní	-10.9223
▁yderligere	-10.9224
▁transfer	-10.9226
▁πραγματ	-10.9227
▁miljoner	-10.9228
▁αρχές	-10.9232
▁elemento	-10.9232
▁Στη	-10.9235
▁though	-10.9236
rnos	-10.9238
▁Abgeordneten	-10.9239
▁taget	-10.924
▁partenariat	-10.9241
čni	-10.9242
istas	-10.9242
▁budeme	-10.9243
▁betydelse	-10.9244
▁παράδειγμα	-10.9245
▁správn	-10.9245
▁føre	-10.9247
▁izvaja	-10.9252
▁gl	-10.9255
▁следва	-10.9256
▁termini	-10.9257
▁vēlos	-10.9258
prob	-10.926
▁l'Europa	-10.9263
▁individu	-10.9266
▁depend	-10.9266
▁Of	-10.9266
▁ocen	-10.9267
▁zweite	-10.9267
▁proposé	-10.9268
▁Dar	-10.9268
▁gdy	-10.9268
▁vedtage	-10.9272
čio	-10.9274
heder	-10.928
▁democratie	-10.9282
▁στιγμή	-10.9283
▁jautājumu	-10.9287
▁klare	-10.9287
kapit	-10.929
sioon	-10.9291
▁betekent	-10.9294
jimo	-10.9295
ků	-10.9295
▁wenig	-10.9298
▁dintre	-10.9302
▁link	-10.9305
▁narės	-10.9306
▁bevolking	-10.9306
▁l’é	-10.9307
▁Une	-10.9309
λω	-10.931
▁automat	-10.931
▁construc	-10.9312
▁januar	-10.9312
iškai	-10.9315
▁igual	-10.9315
▁dient	-10.9315
▁træffe	-10.9317
▁nästa	-10.9317
▁ihnen	-10.9319
sager	-10.932
▁financiar	-10.9322
▁interessi	-10.9323
▁prioridad	-10.9324
▁actuelle	-10.9325
▁raha	-10.9327
▁budgétaire	-10.9327
fekt	-10.9328
▁relativo	-10.933
▁confronti	-10.9332
förande	-10.9334
ат	-10.9337
▁mond	-10.9337
он	-10.9338
▁souhait	-10.9338
▁vidta	-10.9341
▁tien	-10.9342
▁tydlig	-10.9343
▁dialoog	-10.9344
▁vorgeschlagen	-10.9344
okkal	-10.9345
▁desarrolla	-10.9346
▁benefit	-10.9349
▁l'environnement	-10.935
erfolg	-10.935
▁settori	-10.9351
roepen	-10.9351
▁saranno	-10.9353
▁vendar	-10.9355
▁intereses	-10.9356
▁estructura	-10.9357
▁occorre	-10.9357
▁l'inter	-10.9358
▁criteria	-10.9358
▁By	-10.936
▁liegt	-10.936
▁ön	-10.9364
▁nuevas	-10.9364
▁Zahl	-10.9365
▁Messieurs,	-10.9366
▁nationalen	-10.9367
värde	-10.9368
▁regels	-10.9368
ира	-10.937
▁indre	-10.937
▁ritengo	-10.9371
▁boli	-10.9373
länderna	-10.9374
▁г-н	-10.9374
▁weit	-10.9375
▁fattigdom	-10.9375
▁(S	-10.9376
κιν	-10.9377
▁uur	-10.9378
▁μέσα	-10.9378
▁kontakt	-10.938
▁chce	-10.938
▁sysselsättning	-10.9381
▁Var	-10.9383
ακολουθ	-10.9385
▁faptul	-10.9387
▁navrh	-10.9388
rò	-10.9389
▁Cor	-10.939
▁centr	-10.9394
præ	-10.9394
▁emerge	-10.9394
▁muchas	-10.9395
rouw	-10.9396
penden	-10.9398
▁(LT)	-10.9398
▁demonstr	-10.9401
▁food	-10.9401
▁gemenskapen	-10.9402
ции	-10.9403
▁kapcsolatos	-10.9405
ására	-10.9405
bygge	-10.9406
▁omröstning	-10.9406
▁always	-10.9407
▁général	-10.9407
▁stærk	-10.9409
▁kritik	-10.941
▁mechanism	-10.941
verfahren	-10.9411
▁source	-10.9412
ével	-10.9413
πι	-10.9416
▁conséquent	-10.9419
τερο	-10.942
▁beginnen	-10.9425
znám	-10.9427
gesloten	-10.9427
ítás	-10.9427
▁italien	-10.943
σαμε	-10.9431
▁provoca	-10.9432
▁un’	-10.9432
göra	-10.9432
▁making	-10.9433
▁cent	-10.9435
όμαστε	-10.9438
▁urgent	-10.9438
▁podstaw	-10.9438
▁Europeană	-10.9442
▁политика	-10.9442
▁doelstellingen	-10.9442
▁způsob	-10.9444
▁asemenea,	-10.9446
▁pueda	-10.9446
ша	-10.9448
jski	-10.9448
▁votado	-10.9449
▁každ	-10.945
▁quite	-10.945
▁viss	-10.945
▁πιστεύω	-10.945
▁št	-10.9456
▁Wirtschafts	-10.9457
▁democracy	-10.9458
▁bychom	-10.9458
▁predsedajúci,	-10.946
řad	-10.9461
▁qu'a	-10.9463
▁Krise	-10.9464
▁βάση	-10.9466
▁permitir	-10.9467
▁medida	-10.9467
träffa	-10.9467
ευση	-10.9468
▁έκθεσης	-10.9471
▁koncentr	-10.9475
AS	-10.9476
▁Commission's	-10.9477
▁aware	-10.9479
▁poner	-10.9479
▁Grundlage	-10.9482
▁constitution	-10.9485
▁moje	-10.9486
ϊ	-10.9488
▁society	-10.9488
▁föreslå	-10.9488
ikus	-10.9488
▁indem	-10.949
▁todavía	-10.9492
▁Г-	-10.9496
▁arma	-10.9497
▁stabilit	-10.9499
jums	-10.9501
▁falta	-10.9502
▁varētu	-10.9505
▁constituye	-10.9508
▁única	-10.9509
▁once	-10.951
▁tillämpa	-10.951
▁faktor	-10.9512
▁myndigheder	-10.9515
▁lagt	-10.9516
▁със	-10.9517
ského	-10.9518
▁favorable	-10.9518
▁utbildning	-10.9519
▁0,	-10.952
▁suficiente	-10.952
trekken	-10.9523
▁...	-10.9523
▁derzeit	-10.9524
▁reeds	-10.9526
ložil	-10.9526
evole	-10.9527
▁wesentlich	-10.9528
▁resolve	-10.9528
▁France	-10.953
▁delegation	-10.9531
▁risultati	-10.9541
▁commitment	-10.9541
▁która	-10.9541
▁crear	-10.9541
▁framsteg	-10.9542
λεί	-10.9544
▁terv	-10.9546
▁fix	-10.9546
▁avance	-10.9547
εία	-10.9552
▁straff	-10.9553
▁põhi	-10.9553
▁findes	-10.9554
▁fight	-10.9556
▁decisiones	-10.9557
▁Bre	-10.9558
▁These	-10.9561
▁sagde	-10.9562
▁voulons	-10.9562
▁administrative	-10.9564
ήσεων	-10.9564
isera	-10.9567
▁sektori	-10.9568
▁Bra	-10.9568
▁cómo	-10.9568
▁administrativ	-10.9568
liek	-10.9568
▁burger	-10.9569
▁Wo	-10.9569
▁οικονομική	-10.957
praš	-10.9571
▁Pal	-10.9572
▁altid	-10.9572
▁union	-10.9572
▁draw	-10.9572
ιλ	-10.9572
▁largo	-10.9575
▁grandi	-10.9576
fund	-10.9576
▁vērā	-10.9577
▁schriftelijk.	-10.9578
▁minst	-10.958
▁jums	-10.958
▁måske	-10.958
▁automobil	-10.9583
▁šios	-10.9584
▁podporo	-10.9586
▁ευρώ	-10.959
σημ	-10.9591
▁felicit	-10.9592
▁kost	-10.9592
▁proprie	-10.9593
▁tendrá	-10.9599
▁environment	-10.9603
▁gestión	-10.9603
▁elkaar	-10.9604
▁két	-10.9606
▁teha	-10.9606
▁selge	-10.9606
οντ	-10.9607
θηκαν	-10.9608
wand	-10.9608
об	-10.9608
▁mundial	-10.9608
▁biti	-10.961
κυρ	-10.9611
ιστεί	-10.9612
▁concurrence	-10.9614
▁qua	-10.9616
idades	-10.9617
▁framtiden	-10.9618
▁anta	-10.9619
▁adgang	-10.9619
εμπορ	-10.9619
▁konkurrence	-10.9624
▁cultura	-10.9624
▁active	-10.9625
ова	-10.9628
▁anvendelse	-10.9628
▁colleghi	-10.9631
▁soddisfa	-10.9631
observ	-10.9636
▁pesar	-10.9637
▁Dal	-10.9638
▁Act	-10.9638
▁cambia	-10.9639
▁certo	-10.9644
tiene	-10.9644
тра	-10.9648
▁fald	-10.9648
▁faktiskt	-10.9649
▁herrar!	-10.9649
▁bestaat	-10.965
▁lát	-10.9652
ziel	-10.9653
▁samtidigt	-10.9656
▁hatte	-10.9656
rādī	-10.9657
skej	-10.9657
▁tiens	-10.9657
▁skriftlig.	-10.966
▁lead	-10.966
▁dergelijke	-10.9661
▁dôležit	-10.9663
▁collect	-10.9664
▁gemeinsamen	-10.9667
tatás	-10.9667
▁egész	-10.9668
▁élément	-10.9668
▁vijf	-10.9669
κρατ	-10.9669
stående	-10.967
▁afferma	-10.9671
▁politike	-10.9672
▁θεσμ	-10.9672
▁mechanizm	-10.9674
▁sociální	-10.9675
▁texto	-10.9676
▁croissance	-10.9677
▁través	-10.9677
skatt	-10.9677
jung	-10.9678
▁gjorde	-10.9678
▁They	-10.9681
▁dürfen	-10.9681
▁Verantwortung	-10.9682
▁επειδή	-10.9684
samma	-10.9685
finanz	-10.9689
▁Geld	-10.9689
▁aldrig	-10.969
▁ampliación	-10.969
▁Auch	-10.9691
▁interessant	-10.9692
bereich	-10.9694
▁importanti	-10.9694
▁πριν	-10.9694
inblick	-10.9694
tering	-10.9697
kontroll	-10.9697
▁προστασία	-10.9703
▁národ	-10.9704
ността	-10.9704
▁gesamte	-10.9707
▁štáty	-10.9707
▁Bas	-10.9708
άσει	-10.971
skega	-10.971
▁οργαν	-10.9711
ώσεις	-10.9713
▁stát	-10.9717
▁należy	-10.9717
▁realidad	-10.9718
virkning	-10.9718
▁acceso	-10.9718
▁krig	-10.972
▁megfelelő	-10.972
▁χρησιμοποι	-10.9723
▁άποψη	-10.9723
▁políticos	-10.9724
samling	-10.9724
▁toepassing	-10.9725
▁omfatte	-10.9726
▁bringen	-10.9728
▁bitte	-10.9728
itāte	-10.9728
▁förordning	-10.9729
▁børn	-10.9732
▁ligne	-10.9732
▁Millionen	-10.9733
energia	-10.9734
▁travailleurs	-10.9736
▁súvislosti	-10.9739
▁míst	-10.974
▁porte	-10.9743
▁win	-10.9743
▁služb	-10.9745
▁kosten	-10.9749
▁militaire	-10.9749
▁γίνει	-10.975
groep	-10.9751
▁mõju	-10.9751
▁stap	-10.9757
▁njihov	-10.9757
▁Zij	-10.9757
▁paní	-10.9758
adhésion	-10.9758
▁geweest	-10.9758
acijos	-10.9759
▁assume	-10.9761
odloč	-10.9762
▁vide	-10.9762
▁realtà	-10.9762
▁meeting	-10.9765
▁zahtev	-10.9766
▁Tribunal	-10.9767
▁internationalen	-10.9768
ări	-10.9769
▁manifest	-10.977
wod	-10.9772
▁gaz	-10.9773
▁hänsyn	-10.9773
▁money	-10.9776
▁implementation	-10.9777
▁μεγάλη	-10.9777
hang	-10.9779
▁testo	-10.978
▁Africa	-10.978
▁länderna	-10.9781
rozum	-10.9781
▁šīs	-10.9781
▁lassen	-10.9782
▁našich	-10.9782
▁voeren	-10.9782
▁Global	-10.9786
retning	-10.9789
▁Verts/ALE	-10.9789
▁dyr	-10.9793
▁davantage	-10.9795
ēšana	-10.9798
τήρι	-10.9798
μπ	-10.9799
▁προβλήματα	-10.98
▁flera	-10.98
▁kompetenc	-10.9801
▁ин	-10.9803
▁forordning	-10.9806
▁l'imp	-10.9807
▁във	-10.981
▁hinaus	-10.9811
ην	-10.9812
ateurs	-10.9813
▁gravi	-10.9814
OM	-10.9816
zept	-10.9816
remmo	-10.9817
▁staterna	-10.9817
▁kanske	-10.9817
verkehr	-10.9819
▁verordening	-10.9819
пи	-10.9819
▁pénzügyi	-10.9822
▁impuls	-10.9822
▁vedtaget	-10.9825
▁lika	-10.9825
▁negat	-10.9826
ového	-10.9827
▁τι	-10.9829
▁különösen	-10.9831
ίσω	-10.9832
▁things	-10.9833
▁dicta	-10.9834
▁lehetőség	-10.9835
▁permet	-10.9837
stituir	-10.9838
slagen	-10.9838
▁ďalš	-10.9841
ел	-10.9841
▁ekonomin	-10.9842
▁propia	-10.9845
▁État	-10.9845
λί	-10.9845
crédit	-10.985
domstol	-10.9851
▁compa	-10.9853
▁konstruktiv	-10.9854
▁Finland	-10.9856
▁sex	-10.9858
▁ακόμα	-10.9859
▁soutenir	-10.9859
▁creación	-10.986
▁economy	-10.9862
▁direction	-10.9862
mekanism	-10.9864
▁queremos	-10.9864
ėje	-10.9867
▁máme	-10.9868
▁bad	-10.9875
känn	-10.9875
ρυ	-10.9878
▁propria	-10.988
▁stimul	-10.9883
igne	-10.9883
▁timp	-10.9885
▁Ukrain	-10.9885
cap	-10.9885
▁Comisiei	-10.9885
▁pracy	-10.9886
▁steg	-10.989
▁genere	-10.989
▁nazionale	-10.989
▁Vendar	-10.9891
▁zmian	-10.9892
▁erhalten	-10.9893
▁spille	-10.9896
):	-10.9897
▁sposób	-10.9897
▁symbol	-10.9897
▁stimme	-10.9898
▁allemaal	-10.9902
▁právo	-10.9906
ųjų	-10.9906
▁interests	-10.9906
▁reformer	-10.9907
▁inizi	-10.9911
effekt	-10.9911
ujemy	-10.9913
▁alltid	-10.9913
▁humain	-10.9918
druž	-10.992
▁dotyczące	-10.992
▁cíl	-10.9923
▁priorità	-10.9925
▁lorsque	-10.993
▁gezien	-10.993
▁application	-10.9933
▁vergadering	-10.9933
tama	-10.9933
όλ	-10.9934
▁menneske	-10.9936
γραμμ	-10.9936
▁erop	-10.9936
▁sozialen	-10.9938
lopen	-10.9938
▁véritable	-10.9941
▁νομοθεσία	-10.9941
áciu	-10.9941
▁protocol	-10.9943
κει	-10.9945
▁based	-10.9948
▁various	-10.9951
bjud	-10.9952
▁großen	-10.9954
▁égard	-10.9956
▁Budget	-10.9956
ωθεί	-10.9956
▁jis	-10.9957
▁India	-10.9962
▁έν	-10.9963
▁skydda	-10.9963
▁vormen	-10.9964
ål	-10.9965
▁pedig	-10.9968
▁nödvändig	-10.997
▁határ	-10.9971
ává	-10.9972
▁anders	-10.9976
schluss	-10.9978
▁kuria	-10.9978
ικούς	-10.9979
▁difícil	-10.9979
▁στρατηγική	-10.998
▁US	-10.9986
▁compris	-10.9987
▁defend	-10.9987
Zoals	-10.9989
gebracht	-10.9992
▁Παρ	-10.9993
būt	-10.9994
▁ajal	-10.9995
▁belangrijkste	-10.9998
place	-11.0001
▁wszystkich	-11.0002
▁keer	-11.0004
▁vilken	-11.0004
▁Además	-11.0005
▁komisarz	-11.0006
bord	-11.0006
inimo	-11.0007
▁solución	-11.0008
▁comercio	-11.0008
▁liste	-11.0009
dtil	-11.001
▁vækst	-11.0011
▁dagli	-11.0012
▁avez	-11.0013
▁Fond	-11.0014
text	-11.0014
▁κόσμο	-11.0014
▁laikā	-11.0015
▁cred	-11.0015
▁týchto	-11.0016
▁brott	-11.0017
▁aspekter	-11.0018
▁confront	-11.0018
▁legislative	-11.002
▁riforma	-11.0021
autor	-11.0021
▁Maastricht	-11.0022
▁Musíme	-11.0022
ujejo	-11.0023
στη	-11.0023
▁nødt	-11.0023
fald	-11.0026
03	-11.0027
▁heren,	-11.0028
▁firma	-11.0028
▁piano	-11.0033
lap	-11.0034
vání	-11.0035
έμ	-11.0035
▁Antwort	-11.0037
▁intensiv	-11.0041
▁complex	-11.0042
▁votazione	-11.0042
▁fondos	-11.0043
hab	-11.0047
▁беше	-11.0047
▁gerecht	-11.0048
politikken	-11.0049
teknologi	-11.0052
▁norma	-11.0052
φέρει	-11.0052
▁quo	-11.0056
▁taking	-11.0056
▁ψηφοφορία	-11.0056
▁accordi	-11.0058
▁deshalb	-11.0059
▁share	-11.0059
ţe	-11.0062
▁création	-11.0063
▁nämligen	-11.0064
▁vele	-11.0064
▁promov	-11.0067
▁burde	-11.0068
▁Information	-11.0072
▁uddannelse	-11.0072
▁Ziele	-11.0072
▁voie	-11.0073
ски	-11.0073
σει	-11.0074
▁prezident	-11.0076
▁beide	-11.0079
▁veic	-11.008
▁θέματα	-11.008
▁glæder	-11.008
▁rozwiąz	-11.0081
▁koostöö	-11.0082
▁número	-11.0084
▁Projekt	-11.0084
▁oleme	-11.0086
▁Stre	-11.0086
aniu	-11.0087
▁сме	-11.0088
čiau	-11.0088
▁Inoltre	-11.0088
▁trg	-11.0089
prze	-11.0089
▁además	-11.009
▁programu	-11.0094
▁temelj	-11.0095
▁lepingu	-11.0095
▁Chine	-11.0096
▁ocupa	-11.0097
▁technische	-11.0101
▁gehouden	-11.0101
λλο	-11.0101
▁draft	-11.0102
▁tap	-11.0102
▁aspectos	-11.0103
▁intresse	-11.0103
▁période	-11.0103
mutat	-11.0104
▁regiones	-11.0104
▁clo	-11.0105
ját	-11.0107
▁regio	-11.0107
▁waarbij	-11.0108
▁akik	-11.0109
▁ονόματος	-11.0111
▁concilia	-11.0111
▁mentre	-11.0114
τυπ	-11.0115
▁innerhalb	-11.0115
▁Mus	-11.0117
▁l'avenir	-11.0118
▁consumenten	-11.012
▁mier	-11.0121
▁session	-11.0123
▁vervoer	-11.0125
▁Cam	-11.0125
▁weiterhin	-11.0125
tention	-11.0125
▁Comisia	-11.0126
▁Seite	-11.0126
▁short	-11.0126
▁acceptere	-11.0127
sprocedure	-11.0128
▁musimy	-11.0129
▁organiser	-11.0131
▁nødvendige	-11.0131
▁Demokrat	-11.0132
▁actuellement	-11.0132
▁økonomi	-11.0133
▁trots	-11.0135
▁soziale	-11.0135
▁Asuntos	-11.0135
▁biztos	-11.0135
köz	-11.0137
▁middel	-11.0137
▁stessa	-11.0139
cilvēk	-11.014
AT	-11.014
ālā	-11.0141
▁komisjon	-11.0141
skem	-11.0144
ус	-11.0146
▁interesser	-11.0146
▁pagrindin	-11.0146
ify	-11.0147
▁pateik	-11.0148
▁Tatsache	-11.0149
vano	-11.0149
▁mivel	-11.015
▁zakresie	-11.0151
▁οδηγ	-11.0153
▁socio	-11.0156
▁štátov	-11.0156
▁kryzys	-11.0158
▁risinā	-11.0158
▁langt	-11.0159
▁Erklärung	-11.0161
▁huvud	-11.0161
▁fortsætte	-11.0161
▁lokale	-11.0164
▁Steuer	-11.0164
▁Gaza	-11.0166
ický	-11.0167
▁eesmärk	-11.0169
▁concreta	-11.0174
▁uue	-11.0176
▁profond	-11.0176
▁volk	-11.0176
▁mean	-11.0178
▁finanšu	-11.018
▁betona	-11.018
▁words	-11.0181
▁d'abord	-11.0184
▁без	-11.0185
▁aumentar	-11.0188
▁develop	-11.0188
▁neat	-11.0191
▁kör	-11.0193
▁arrest	-11.0193
▁fordel	-11.0195
▁outre	-11.0199
▁alkalmaz	-11.0201
▁samhälle	-11.0201
▁veliko	-11.0202
▁address	-11.0203
▁esencial	-11.0204
▁organisationer	-11.0205
τώ	-11.0207
▁tieto	-11.0209
ését	-11.0209
onderhandelingen	-11.021
▁vision	-11.0213
▁Staten	-11.0213
▁kurz	-11.0213
▁Text	-11.0213
▁proven	-11.0213
▁prevede	-11.0217
▁stå	-11.0217
▁supra	-11.0218
fug	-11.0218
handling	-11.0219
▁visiem	-11.022
dina	-11.0222
▁l’in	-11.0223
national	-11.0225
▁væsentlig	-11.0229
▁gebieden	-11.0232
▁rendelkez	-11.0232
▁souligner	-11.0232
▁passage	-11.0232
▁stiamo	-11.0236
tika	-11.0236
▁Ezért	-11.0238
▁kuriuo	-11.0239
▁gerade	-11.024
▁You	-11.024
▁solidarity	-11.0242
▁bestemmelser	-11.0242
▁medicin	-11.0243
–	-11.0246
▁zdaj	-11.0248
▁dialogo	-11.0248
▁ieder	-11.0248
▁σημαντική	-11.025
ūd	-11.0251
▁Auto	-11.0254
▁Stra	-11.0257
▁Kri	-11.0258
ήματα	-11.0259
▁όλους	-11.0261
▁genomför	-11.0262
▁fler	-11.0262
ţional	-11.0262
▁visar	-11.0263
▁varnost	-11.0265
αρτ	-11.0265
▁handelt	-11.0268
▁σκ	-11.0269
▁velik	-11.027
niecība	-11.0272
▁χρόνο	-11.0272
▁πολιτών	-11.0275
▁participation	-11.0276
▁consumidores	-11.0276
▁illegale	-11.0277
▁GUE/NGL	-11.0281
▁traffic	-11.0281
▁regola	-11.0283
▁lungo	-11.0286
ināšana	-11.0287
▁naudo	-11.0289
▁vrede	-11.0294
aktiv	-11.0298
▁udvidelse	-11.0301
▁učinkovit	-11.0303
▁propag	-11.0307
▁Ende	-11.0309
żą	-11.0309
▁euró	-11.0313
▁denke	-11.0314
▁wens	-11.0314
▁miembro	-11.0315
▁kteří	-11.0315
▁sanitari	-11.0319
▁adoptar	-11.032
▁manifesta	-11.0322
▁dichiara	-11.0323
▁formål	-11.0324
▁mandato	-11.0325
cessi	-11.0326
▁refiere	-11.0327
▁zetten	-11.0329
▁(FI)	-11.0329
σία	-11.033
▁låt	-11.0331
▁време	-11.0332
▁Questa	-11.0333
▁april	-11.0333
▁biztonság	-11.0334
▁není	-11.0334
▁demander	-11.0335
▁einge	-11.0335
šanos	-11.0335
▁indføre	-11.0337
bruk	-11.0338
▁nepie	-11.0339
ту	-11.034
arsi	-11.0342
▁juli	-11.0345
áról	-11.0348
▁presidente	-11.0348
▁gestimmt	-11.0351
80	-11.0353
▁návrhu	-11.0355
▁paix	-11.0356
▁påpeka	-11.0356
▁rättsliga	-11.0356
▁unique	-11.0357
▁vahend	-11.0357
▁synes	-11.0358
▁såsom	-11.0358
transport	-11.0362
▁suggest	-11.0364
▁Ausschuss	-11.0364
▁tillräcklig	-11.0365
lijn	-11.0367
sector	-11.0367
▁konkurrens	-11.0369
▁mesi	-11.0369
producent	-11.0369
alist	-11.037
▁politikos	-11.037
UE	-11.0371
tāju	-11.0372
arte	-11.0373
▁erreichen	-11.0373
▁kampen	-11.0375
▁personnel	-11.0379
▁interés	-11.038
▁ordin	-11.0383
▁možné	-11.0384
ėme	-11.0384
▁pomembno	-11.0384
▁strengthen	-11.0384
▁Ausschusses	-11.0384
▁deuxième	-11.0384
▁arengu	-11.0384
▁Daher	-11.0384
▁bolo	-11.0384
▁seguito	-11.0388
▁gilt	-11.0389
▁prístup	-11.0389
adesione	-11.039
▁βοήθεια	-11.039
▁procedūr	-11.0392
▁verwacht	-11.0392
▁säger	-11.0393
▁pomoč	-11.0394
▁lleva	-11.0396
▁najmä	-11.0398
▁différents	-11.0399
▁nėra	-11.0399
lagen	-11.04
▁gyven	-11.0401
▁reconoc	-11.0401
čet	-11.0405
▁Grenz	-11.0406
▁progrès	-11.0407
▁ziņojumu	-11.0407
▁dvs.	-11.0407
bul	-11.0408
▁field	-11.0408
ácia	-11.0409
▁getroffen	-11.041
προ	-11.0412
▁ευρωπαϊκή	-11.0415
▁důležité	-11.0415
▁väčš	-11.0415
▁colleague	-11.0417
▁Επίτροπε	-11.0421
▁held	-11.0425
▁Government	-11.0428
▁κοινωνική	-11.0428
▁while	-11.0428
▁Verhandlungen	-11.0432
▁resto	-11.0433
konferenc	-11.0433
▁befolkningen	-11.0433
▁voorkomen	-11.0434
▁padar	-11.0436
▁geachte	-11.0436
▁souvent	-11.0437
▁penge	-11.0437
▁proper	-11.0438
rium	-11.0438
kredit	-11.0439
▁beneficia	-11.044
▁angenommen	-11.0441
▁produk	-11.0442
▁true	-11.0444
rebbero	-11.0445
isca	-11.0447
rząd	-11.0448
τεχν	-11.0448
ový	-11.045
▁Polen	-11.0452
ření	-11.0452
▁gestione	-11.0455
▁ένας	-11.0456
SP	-11.0459
οκ	-11.046
▁lehet	-11.046
▁digital	-11.046
▁cât	-11.0461
▁dôležité	-11.0461
▁είμαστε	-11.0464
▁Låt	-11.0464
▁obecn	-11.0466
▁verkeer	-11.0466
▁Italien	-11.0467
▁millioner	-11.0468
kry	-11.0469
▁financement	-11.0469
▁abychom	-11.047
стъп	-11.0472
▁bedrijven	-11.0472
▁intend	-11.0474
δί	-11.0476
▁σύστημα	-11.0476
τέ	-11.0477
▁schaffen	-11.0477
virt	-11.0479
▁kap	-11.048
▁ofrece	-11.048
▁tillsammans	-11.0483
▁afgelopen	-11.0483
▁membro	-11.0486
▁desea	-11.0487
▁predpis	-11.0495
▁κυβέρνηση	-11.0495
likult	-11.0498
▁válság	-11.0501
▁kaasa	-11.0502
▁fatta	-11.0503
▁Gemeenschap	-11.0506
▁skridt	-11.0506
▁competition	-11.0507
▁Liberal	-11.0508
rück	-11.0509
istic	-11.0509
▁each	-11.051
▁klausimu	-11.0511
inį	-11.0511
ώσει	-11.0513
▁více	-11.0515
▁practice	-11.0518
▁werknemers	-11.0519
álne	-11.052
▁nori	-11.0522
▁längre	-11.0527
▁cieľom	-11.0528
▁concorrenza	-11.0529
kort	-11.0529
▁túto	-11.053
mäßig	-11.0532
▁resultaten	-11.0532
▁sidan	-11.0532
▁přístup	-11.0534
▁maxim	-11.0534
▁Trans	-11.0535
▁wijzen	-11.0538
▁apoyar	-11.0539
cca	-11.0539
▁ramen	-11.0541
▁pueblo	-11.0541
▁opgave	-11.0544
▁števil	-11.0544
ství	-11.0547
▁katere	-11.0548
▁през	-11.0548
▁ultimi	-11.0549
▁πω	-11.0552
▁estrema	-11.0552
▁anzu	-11.0553
▁stellt	-11.0553
▁εμ	-11.0554
▁nekā	-11.0555
▁rispetta	-11.0556
▁orgán	-11.0557
▁población	-11.0557
▁G20	-11.0557
▁Komisie	-11.0557
▁uitge	-11.0558
▁ricev	-11.0559
▁hoge	-11.0563
▁Savienība	-11.0565
▁cré	-11.0565
▁tillgång	-11.0568
▁dacă	-11.0569
έτ	-11.0569
▁single	-11.0573
▁priekš	-11.0573
▁glas	-11.0574
щата	-11.0575
▁economico	-11.0575
▁tööta	-11.0576
urilor	-11.0578
▁Francia	-11.0578
▁children	-11.0581
▁coordination	-11.0581
▁Gli	-11.0583
▁χωρών	-11.0584
▁medel	-11.0584
▁300	-11.0585
force	-11.0586
▁nuvarande	-11.0586
▁habit	-11.0586
▁fokus	-11.0587
øst	-11.059
▁evropske	-11.0597
▁commerce	-11.0597
▁lycka	-11.0603
▁holde	-11.0604
ησης	-11.0604
▁zejména	-11.0605
▁method	-11.0606
▁prioriteit	-11.0607
▁politiek	-11.0608
▁involved	-11.0608
▁siekiant	-11.061
▁Col	-11.061
▁waarvan	-11.0611
▁realiza	-11.0612
ието	-11.0615
▁viser	-11.0616
▁juba	-11.0617
▁Diskussion	-11.0618
▁había	-11.0618
▁life	-11.062
▁permanent	-11.0622
▁esfuerzos	-11.0623
▁totalmente	-11.0623
▁permanente	-11.0623
▁året	-11.0625
▁formal	-11.0626
▁feel	-11.0626
▁práce	-11.0626
σκ	-11.0626
▁ľud	-11.0627
▁montre	-11.0629
▁üht	-11.0632
▁relaciones	-11.0632
▁един	-11.0634
▁απασχόληση	-11.0639
komunik	-11.0642
при	-11.0644
▁komisař	-11.0645
gesch	-11.0645
strādā	-11.0646
▁tegevus	-11.0646
▁modell	-11.0648
▁πλέον	-11.0648
ācija	-11.0648
▁D'	-11.0651
gesetz	-11.0653
-il	-11.0655
▁celui	-11.0662
▁domanda	-11.0668
uji	-11.067
▁overveje	-11.0672
▁qu'une	-11.0672
▁propor	-11.0673
▁rakenda	-11.0674
ισμός	-11.0674
▁närvarande	-11.0674
▁follow	-11.0676
▁totale	-11.0676
▁længere	-11.0677
лю	-11.0677
▁opmærksom	-11.0677
central	-11.0679
▁Strasbourg	-11.068
▁Schulz	-11.0685
▁rada	-11.0687
▁beneficio	-11.0688
sprocessen	-11.0689
▁uitvoer	-11.069
▁jelenleg	-11.069
▁spécifique	-11.0693
▁einigen	-11.0693
▁avsluta	-11.0694
▁incident	-11.0695
iële	-11.07
møde	-11.07
▁leader	-11.0701
▁nævnt	-11.0701
ène	-11.0702
▁bieden	-11.0703
vyk	-11.0703
▁vál	-11.0703
▁egentlig	-11.0705
▁vengono	-11.0707
▁señal	-11.0709
▁visserij	-11.0709
▁arutelu	-11.0711
▁personale	-11.0714
ματος	-11.0714
mærke	-11.0717
schaffen	-11.0724
▁données	-11.0725
▁działania	-11.0725
▁runā	-11.0727
▁refus	-11.073
▁gemacht	-11.073
▁članice	-11.0732
▁samtidig	-11.0733
▁Volk	-11.0734
▁crecimiento	-11.0737
▁brist	-11.0738
▁monetari	-11.0741
▁dell’Unione	-11.0742
форм	-11.0743
▁Affairs	-11.0743
▁προτάσεις	-11.0746
▁között	-11.0753
▁ανησυχ	-11.0753
▁Komisije	-11.0755
▁пазар	-11.0755
▁röstade	-11.0756
applicazione	-11.0756
▁mulig	-11.0758
▁okvir	-11.0758
▁affaires	-11.0758
▁verifica	-11.0761
▁(K	-11.0761
▁didel	-11.0762
▁świ	-11.0762
avtalet	-11.0762
▁milliard	-11.0763
▁zlasti	-11.0763
▁Amendment	-11.0764
▁error	-11.0764
▁migliorare	-11.0766
▁reglamento	-11.0766
ONU	-11.0766
õigus	-11.0768
▁introduce	-11.077
mest	-11.0773
▁avait	-11.0774
▁november	-11.0776
▁tydelig	-11.0777
▁komisar	-11.0779
zetten	-11.0779
▁workers	-11.0779
▁aucune	-11.078
▁Proto	-11.078
▁činnost	-11.0782
▁Verbesserung	-11.0782
fassen	-11.0784
▁toutefois	-11.0785
▁beiden	-11.079
▁deriva	-11.0791
▁vend	-11.0792
▁hjælp	-11.0794
▁growth	-11.0795
▁War	-11.0797
▁Iraq	-11.0798
▁Belarus	-11.0799
▁vold	-11.0799
▁attenzione	-11.0799
περ	-11.0801
▁signora	-11.0803
▁vedno	-11.0804
▁kommission	-11.0808
▁komisi	-11.0809
▁είχε	-11.081
▁inrätta	-11.0811
▁ACP	-11.0812
▁omkring	-11.0812
▁terwijl	-11.0813
▁απόφαση	-11.0813
▁tule	-11.0814
▁sollen	-11.0815
liselt	-11.0815
▁todėl	-11.0815
οσ	-11.0817
▁Sud	-11.0822
μένα	-11.0822
▁fejl	-11.0824
▁asupra	-11.0825
▁syfte	-11.0825
▁ανά	-11.0825
▁naturalmente	-11.0826
▁having	-11.0828
▁Constitution	-11.0828
▁renforcer	-11.0828
▁Hong	-11.0828
▁trouver	-11.0829
▁mieux	-11.0829
▁ecc	-11.0829
▁punti	-11.083
▁Rusia	-11.083
▁appro	-11.083
▁πραγματικά	-11.083
▁fair	-11.0832
▁svět	-11.0834
orna	-11.0834
▁tarp	-11.0836
abezpeč	-11.0838
▁Lisbon	-11.0838
▁Struktur	-11.0839
▁kormány	-11.0839
▁mog	-11.084
▁précis	-11.0841
▁message	-11.0842
haltung	-11.0842
-gruppen	-11.0846
▁peligro	-11.0848
▁quota	-11.085
▁former	-11.0852
▁systeem	-11.0853
▁Jest	-11.0853
▁établi	-11.0854
▁analys	-11.0856
šiem	-11.0856
▁colegas	-11.0857
ybos	-11.0858
▁krisen	-11.0858
▁έτσι	-11.0861
▁Regionen	-11.0865
▁będą	-11.0866
▁eriti	-11.0867
▁neid	-11.0867
▁wyda	-11.0867
▁Erweiterung	-11.087
▁attraverso	-11.087
▁eelarve	-11.0874
▁Dialog	-11.0874
▁infatti	-11.0874
▁skäl	-11.0875
▁geloof	-11.0877
▁prioritet	-11.088
▁nimel	-11.088
▁insieme	-11.0882
▁följd	-11.0885
▁obszar	-11.0885
▁fundament	-11.0886
▁tyto	-11.0887
▁band	-11.0888
▁държави	-11.0888
▁companies	-11.0892
▁Rück	-11.0895
▁ningún	-11.0898
▁présenté	-11.0907
▁among	-11.0907
imui	-11.0909
▁West	-11.0912
▁χρήση	-11.0913
▁lequel	-11.0914
▁verksamhet	-11.0918
▁unterstützt	-11.0923
▁ίδια	-11.0923
▁bureau	-11.0926
myndighet	-11.0926
rilor	-11.0929
▁Industrie	-11.0933
▁amendment	-11.0935
▁s-a	-11.0936
icul	-11.0937
▁svarīgi	-11.094
▁dohody	-11.094
▁beskytte	-11.0941
▁produzione	-11.0941
▁prezent	-11.0942
▁vaak	-11.0942
▁förhandlingar	-11.0943
▁gezondheid	-11.0943
grenzen	-11.0943
▁Ji	-11.0944
szcze	-11.0946
▁aangenomen	-11.0946
▁trgov	-11.0949
▁akkoord	-11.0949
ско	-11.0954
▁δημιουργία	-11.0955
▁majority	-11.0955
νουν	-11.0955
▁oluline	-11.0956
▁Tout	-11.0956
iskt	-11.0961
▁fully	-11.0962
▁objectif	-11.0963
▁conjunto	-11.0964
▁stress	-11.0968
▁oplysninger	-11.0968
▁créer	-11.0968
▁bevis	-11.0969
▁sprake	-11.097
▁έργο	-11.0971
▁intende	-11.0973
пъл	-11.0973
betaling	-11.0973
▁Binnenmarkt	-11.0976
viden	-11.0979
▁področju	-11.0983
▁vogliamo	-11.0983
του	-11.0984
ύχ	-11.0985
▁uniform	-11.0987
ица	-11.0991
▁tutta	-11.0993
▁territorio	-11.0998
▁siendo	-11.0999
дел	-11.0999
▁záležitost	-11.0999
▁aura	-11.1
▁których	-11.1
tätig	-11.1002
▁komisár	-11.1003
isiert	-11.1004
▁request	-11.1007
▁ninguna	-11.1008
▁interior	-11.101
хме	-11.101
▁diálogo	-11.1014
tænke	-11.1014
▁Pred	-11.1017
▁περιβάλλον	-11.1018
▁único	-11.1018
▁Kö	-11.1018
pełni	-11.1023
▁potential	-11.1024
▁abge	-11.1026
▁все	-11.1029
ssimo	-11.103
όδου	-11.103
▁bereiken	-11.1031
▁Président	-11.1032
SE	-11.1032
▁challenge	-11.1036
rådet	-11.1036
▁geworden	-11.1036
▁Organisation	-11.1036
ll'Europa	-11.1037
▁enfants	-11.1038
▁susijusi	-11.1039
▁toegang	-11.104
▁ούτε	-11.1041
▁concreto	-11.1043
▁unije	-11.1044
▁paket	-11.1045
▁Institutionen	-11.1046
▁peuple	-11.1047
▁Taryba	-11.1049
▁posledn	-11.1049
▁všech	-11.105
▁promote	-11.105
▁küsimuse	-11.105
▁lograr	-11.105
▁product	-11.1051
▁парламент	-11.1054
▁bezpečnost	-11.1056
▁øjeblikket	-11.1056
▁Lisbonne	-11.1056
▁saistībā	-11.1058
dacht	-11.1058
▁semana	-11.1059
▁bestaan	-11.106
▁särskild	-11.1063
Н	-11.1063
▁puud	-11.1064
ētu	-11.1067
ήσω	-11.1067
▁läbi	-11.1067
▁quality	-11.1069
▁lett	-11.1074
▁steunen	-11.1075
osios	-11.1077
▁education	-11.1078
θούμε	-11.108
-G	-11.108
▁Transport	-11.1082
ημα	-11.1082
▁άλλη	-11.1083
▁apoya	-11.1083
▁opmerking	-11.1083
▁transform	-11.1084
▁valstu	-11.1086
ovanja	-11.1088
▁aanpak	-11.1089
▁kern	-11.1091
▁Vereinigte	-11.1091
bur	-11.1092
▁kõige	-11.1093
▁tvivl	-11.1093
▁fraude	-11.1093
лу	-11.1097
asutus	-11.1098
▁ποσ	-11.1098
▁tillfälle	-11.1102
imai	-11.1103
▁ringraziare	-11.1105
▁Aktion	-11.1106
▁maakt	-11.1108
▁anterior	-11.1108
▁Kultur	-11.111
kommer	-11.111
▁bekend	-11.1111
▁llega	-11.1113
▁temu	-11.1114
▁На	-11.1118
▁doute	-11.1118
▁Toutefois	-11.1118
▁πρόγραμμα	-11.112
▁étant	-11.112
▁L'Union	-11.1121
▁Bevölkerung	-11.1126
▁aplink	-11.1126
▁tidspunkt	-11.113
▁tilstrækkelig	-11.1131
▁individuel	-11.1132
▁luft	-11.1132
▁letter	-11.1133
▁verklaring	-11.1133
▁quelli	-11.1136
▁dossier	-11.1137
verti	-11.1138
▁tillväxt	-11.1138
▁majd	-11.1138
▁spesso	-11.1138
▁engage	-11.1139
orient	-11.1139
west	-11.1141
▁utnyttja	-11.1141
▁sostenere	-11.1142
▁strict	-11.1142
ppo	-11.1144
greb	-11.1144
▁Κατά	-11.1148
▁proposito	-11.115
ду	-11.1152
▁salute	-11.1154
▁accident	-11.1156
▁finden	-11.1156
▁Sal	-11.1158
▁six	-11.1158
ések	-11.1159
▁parlamendi	-11.1162
▁contesto	-11.1164
bilità	-11.1168
▁miejsc	-11.117
ώντας	-11.1171
▁Denna	-11.1176
▁(I	-11.1177
.000	-11.1178
▁voorbeeld	-11.1179
▁uniós	-11.1179
▁meilleure	-11.118
▁importanza	-11.118
▁dámy	-11.1182
▁Auswirkungen	-11.1182
04	-11.1182
▁Beitritt	-11.1184
▁intenta	-11.1184
▁behandla	-11.1184
ssimi	-11.1185
▁członkowskie	-11.1185
▁lämplig	-11.1186
φερ	-11.1188
▁trattato	-11.1189
ški	-11.119
dział	-11.119
▁supuesto	-11.1192
▁d'être	-11.1192
▁formuler	-11.1193
▁genoeg	-11.1194
▁προτείν	-11.1194
κη	-11.1195
▁mañana	-11.1196
▁žino	-11.1197
▁jövő	-11.1197
▁trova	-11.1198
▁kræver	-11.1202
▁Anwendung	-11.1202
▁Frontex	-11.1202
фи	-11.1204
▁trouve	-11.1204
▁opfattelse	-11.1206
▁discrimination	-11.1206
▁convention	-11.1208
▁joue	-11.1209
▁věc	-11.1209
▁definition	-11.1211
▁acerca	-11.1211
▁potrebné	-11.1216
▁teritori	-11.1217
▁vprašanje	-11.1218
▁ievēro	-11.122
▁begrænse	-11.122
grün	-11.122
▁άλλα	-11.1221
▁цел	-11.1222
▁l'emploi	-11.1223
▁Che	-11.1226
▁δυνατότητα	-11.1227
▁foretage	-11.123
▁povedal	-11.1231
▁following	-11.1232
▁Egy	-11.1233
▁urgente	-11.1234
▁credibil	-11.1236
▁libera	-11.1236
▁тъ	-11.1236
▁Ett	-11.1237
▁passo	-11.1237
▁1990	-11.124
▁Frieden	-11.1242
μένων	-11.1243
χωρ	-11.1243
▁praktisk	-11.1243
▁Ukraine	-11.1244
▁подкрепа	-11.1245
misega	-11.1245
▁koniec	-11.1247
▁separat	-11.1248
▁agricultural	-11.125
tamine	-11.1251
▁consensus	-11.1252
▁begynde	-11.1252
▁fungera	-11.1252
▁uzskatu	-11.1253
▁receive	-11.1254
▁obiettivo	-11.1256
▁normativa	-11.1256
▁75	-11.1256
▁Palestin	-11.1256
▁puedan	-11.126
▁foglalkoz	-11.126
▁majorité	-11.1261
▁otázka	-11.1262
▁producción	-11.1263
▁increasing	-11.1264
▁prawa	-11.1265
▁appropriate	-11.1265
▁ambic	-11.1266
▁Lisbona	-11.1268
▁problēma	-11.1269
vēl	-11.1272
▁Sąjunga	-11.1272
▁peut-être	-11.1274
▁answer	-11.1274
izaci	-11.1274
▁riik	-11.1275
▁annan	-11.1275
▁Standpunkt	-11.1276
▁teisių	-11.1282
▁vooruitgang	-11.1282
▁Hay	-11.1283
tuk	-11.1287
▁statement	-11.1288
▁mur	-11.1291
▁dames	-11.1292
▁éxito	-11.1293
▁nombreuses	-11.1296
▁ενεργ	-11.1299
▁πολλές	-11.1299
▁Ud	-11.13
▁képviselő	-11.1301
▁γνώμη	-11.1301
économie	-11.1304
▁Tyrkiet	-11.1305
▁stopp	-11.1306
▁säker	-11.1306
▁Г	-11.1307
▁employ	-11.1311
▁beginsel	-11.1313
▁werde	-11.1315
▁kér	-11.1315
▁misura	-11.1316
▁eredmény	-11.1317
▁σημείο	-11.1318
süsteemi	-11.132
▁põhjus	-11.132
CO	-11.132
▁Comisaria	-11.1322
▁personlig	-11.1322
waardig	-11.1322
▁bereikt	-11.1324
▁dá	-11.1324
▁nepri	-11.1324
▁camp	-11.1325
▁september	-11.1327
▁samband	-11.1327
▁Mul	-11.1329
▁Uniunea	-11.1329
▁labor	-11.1331
▁Interesse	-11.1334
▁permettre	-11.1334
▁lung	-11.1335
šča	-11.1335
▁Human	-11.1338
▁Cuba	-11.1338
▁kerül	-11.134
▁Taip	-11.1341
▁Tibet	-11.1343
flexi	-11.1344
▁significant	-11.1344
kop	-11.1348
▁tomar	-11.1348
▁nadal	-11.1348
▁otázky	-11.1349
▁opnieuw	-11.1349
ие	-11.1351
▁Σώμα	-11.1351
imenti	-11.1352
▁certainly	-11.1353
einander	-11.1355
▁fosse	-11.1356
λύ	-11.1356
▁urmare	-11.136
ificación	-11.136
▁τροπολογία	-11.1361
▁remercie	-11.1361
▁Gleich	-11.1361
κατ	-11.1362
bericht	-11.1362
▁oral	-11.1362
mæssig	-11.1362
▁1994	-11.1363
▁διαφορετικ	-11.1363
▁forslaget	-11.1364
mbri	-11.1364
princip	-11.1365
▁continuare	-11.1367
▁price	-11.1371
ruch	-11.1372
standard	-11.1375
▁värd	-11.1376
▁Tāpēc	-11.1379
▁sensibil	-11.1379
▁quelque	-11.138
▁snart	-11.1381
▁fremtiden	-11.1383
▁149	-11.1385
▁With	-11.1387
ост	-11.1387
▁stater	-11.1388
▁Court	-11.1389
▁próximo	-11.1391
▁ār	-11.1392
ίζονται	-11.1392
▁anmode	-11.1394
▁Πιστεύω	-11.1394
▁mają	-11.1397
▁endelig	-11.1397
▁Turkije	-11.1398
▁begär	-11.1398
▁Plan	-11.1399
▁baz	-11.1399
▁constant	-11.1401
trafik	-11.1402
▁iedereen	-11.1402
▁její	-11.1402
▁bereid	-11.1402
▁krise	-11.1403
▁igaz	-11.1404
▁salari	-11.1404
▁punten	-11.1405
▁migliore	-11.1405
▁reca	-11.1406
▁všetkých	-11.1406
▁uzņēmum	-11.1406
▁würden	-11.1407
иране	-11.1409
▁panu	-11.141
▁dezelfde	-11.141
▁mohli	-11.1411
▁12.00	-11.1412
kende	-11.1414
▁année	-11.1415
▁viņi	-11.1416
▁jäm	-11.1417
liko	-11.1418
Q	-11.1419
▁finants	-11.1419
▁esiste	-11.142
▁Bri	-11.1424
▁demokratische	-11.1424
държавите-членки	-11.1425
▁strumento	-11.1425
oblig	-11.1426
marked	-11.1427
▁Fischerei	-11.1432
▁Preto	-11.1432
▁tjänster	-11.1434
▁bur	-11.1434
iivse	-11.1434
wierdz	-11.1437
▁szabály	-11.1441
kriv	-11.1441
▁Wert	-11.1443
▁hjælpe	-11.1443
AR	-11.1445
▁μεγάλο	-11.1446
stellt	-11.1446
Union	-11.1447
ците	-11.1448
▁financiación	-11.145
▁lisa	-11.1451
▁diferentes	-11.1451
▁sāk	-11.1452
▁välkomnar	-11.1453
▁First	-11.1453
▁presi	-11.1455
▁flyg	-11.1456
▁návrhy	-11.1459
▁meel	-11.1464
MO	-11.1464
▁beim	-11.1464
▁rizik	-11.1465
▁utile	-11.1466
▁vahel	-11.1467
rijk	-11.1467
▁flot	-11.1467
verantwoordelijk	-11.1469
uoto	-11.147
▁πολλά	-11.1472
▁Mitglieder	-11.1473
▁финансов	-11.1474
▁leider	-11.1476
▁omfatta	-11.1477
▁μέχρι	-11.1477
▁maniera	-11.1479
▁představ	-11.1479
▁bomb	-11.148
▁Ausdruck	-11.1482
▁simply	-11.1483
▁leggen	-11.1485
▁Zugang	-11.1488
▁seule	-11.1491
▁Till	-11.1491
alität	-11.1493
▁retning	-11.1498
▁extremely	-11.1499
▁militär	-11.15
▁względ	-11.15
▁Europejska	-11.15
integr	-11.1503
▁érték	-11.1503
▁Amerika	-11.1503
▁d'ex	-11.1508
▁gruppi	-11.1508
▁danes	-11.1509
ccio	-11.1509
▁chcel	-11.1511
▁kirjalikult.	-11.1516
▁Pap	-11.1516
▁pritar	-11.1518
▁New	-11.1519
▁lista	-11.1521
▁αγοράς	-11.1522
▁μεγαλύτερη	-11.1523
europa	-11.1523
financ	-11.1524
▁Spanien	-11.1525
▁Προεδρία	-11.1526
▁priority	-11.1527
führung	-11.1527
▁løse	-11.1531
▁aangezien	-11.1532
ostí	-11.1533
▁devraient	-11.1534
niž	-11.1535
clusi	-11.1536
▁införa	-11.1536
▁positivt	-11.1538
şti	-11.154
μεν	-11.154
▁съм	-11.154
▁figure	-11.1541
▁semaine	-11.1542
▁daarvan	-11.1543
czą	-11.1544
▁Europejski	-11.1544
▁laisv	-11.1544
▁chiaro	-11.1549
▁intézkedések	-11.1552
▁kl.	-11.1553
▁défi	-11.1555
▁offre	-11.1557
▁περιοχή	-11.1557
▁ejercicio	-11.1558
▁ενίσχυση	-11.1558
▁seneste	-11.1559
▁volinik	-11.156
▁прие	-11.1561
▁tagállam	-11.1561
▁skyld	-11.1564
▁ktorú	-11.1565
▁decisioni	-11.1566
▁γιατί	-11.1566
čiai	-11.1566
▁jūr	-11.1569
▁darum	-11.1569
▁schnell	-11.157
▁dôvod	-11.1574
infl	-11.1575
▁biudžet	-11.1577
▁atbalstu	-11.1577
▁vær	-11.158
▁commercio	-11.1581
▁termijn	-11.1581
▁τροπολογίες	-11.1584
▁intervenir	-11.1589
▁Lisboa	-11.1591
▁Article	-11.1593
▁vrijheid	-11.1595
skrive	-11.1595
▁creazione	-11.1596
▁ebenfalls	-11.16
▁mellett	-11.1602
▁Εν	-11.1602
▁szeretném	-11.1606
läng	-11.1607
▁réalité	-11.1608
▁проблем	-11.1609
▁vidare	-11.1609
▁tragedi	-11.161
iniai	-11.1613
▁sottolineare	-11.1614
▁όλοι	-11.1614
▁série	-11.1618
▁mejora	-11.1618
▁giustizia	-11.1621
weisen	-11.1623
stytucj	-11.1625
genomen	-11.1625
AC	-11.1629
нов	-11.163
▁adres	-11.1631
medel	-11.1631
▁хора	-11.1632
▁Informationen	-11.1635
▁presentato	-11.1636
ιακή	-11.1637
▁krävs	-11.1637
▁deseo	-11.1641
▁behoefte	-11.1641
▁αύξηση	-11.1641
auti	-11.1642
houding	-11.1643
▁kommt	-11.1644
▁Uniunii	-11.1644
▁prochaine	-11.1645
▁Turkey	-11.1645
uojam	-11.1647
▁partecip	-11.1648
▁Außen	-11.165
▁länge	-11.1651
▁valid	-11.1651
▁emberi	-11.1652
▁kapcsolatban	-11.1653
▁sprawozdania	-11.1653
▁appelle	-11.1655
▁Mijn	-11.1659
▁spirit	-11.166
▁tuto	-11.166
▁nessun	-11.1662
▁Når	-11.1663
βολή	-11.1663
19	-11.1664
▁mogelijkheid	-11.1665
▁udgør	-11.1672
politisk	-11.1673
▁Woche	-11.1674
▁chiede	-11.1676
▁ešte	-11.1676
▁κυρίως	-11.168
▁afirma	-11.168
▁nieuw	-11.1682
ități	-11.1682
tieve	-11.1683
▁fuldt	-11.1684
▁nuomon	-11.1684
▁galv	-11.1684
▁politin	-11.1685
▁kinderen	-11.1688
▁joint	-11.1691
▁náklad	-11.1694
▁centra	-11.1696
▁padėti	-11.1696
teilen	-11.17
ум	-11.1702
▁titre	-11.1703
▁opposition	-11.1704
šti	-11.1707
▁Enfin	-11.1711
▁saug	-11.1712
▁radical	-11.1713
ουσα	-11.1713
▁eksport	-11.1716
▁positie	-11.1717
▁terecht	-11.1718
cession	-11.172
▁dort	-11.1722
corre	-11.1723
κε	-11.1724
▁nāk	-11.1724
efter	-11.1724
▁estado	-11.1728
▁dell'onorevole	-11.173
▁τομείς	-11.173
▁geleden	-11.1732
▁content	-11.1733
▁Verpflichtung	-11.1733
▁governi	-11.1737
▁ütle	-11.1738
▁strumenti	-11.1739
▁közötti	-11.1742
▁E’	-11.1742
▁technique	-11.1742
▁kräver	-11.1742
▁μπορέσ	-11.1742
▁patient	-11.1744
▁negali	-11.1746
▁paquet	-11.1748
▁εισηγητή	-11.1748
▁utarbeta	-11.175
▁åsikt	-11.175
ruč	-11.175
▁bag	-11.1752
▁juhataja!	-11.1753
▁arbeids	-11.1754
▁σημασία	-11.1755
▁exterior	-11.1755
▁weniger	-11.1756
▁bajo	-11.1756
▁acepta	-11.1759
médi	-11.176
schuldig	-11.1762
▁initiatief	-11.1764
▁grænse	-11.1766
▁reducir	-11.1768
▁ασφάλεια	-11.1769
▁problémy	-11.177
▁Съ	-11.177
▁beispielsweise	-11.1773
▁märk	-11.1776
▁как	-11.1777
11	-11.1779
▁geweld	-11.178
▁kuras	-11.1781
ección	-11.1781
ίστ	-11.1783
▁κάν	-11.1785
î	-11.1786
▁šalių	-11.1787
information	-11.1788
▁Til	-11.1788
▁EP	-11.1789
▁cadrul	-11.1795
▁jde	-11.1796
▁възможност	-11.1797
tume	-11.1798
15	-11.18
▁Partei	-11.1803
nejši	-11.1803
▁φορά	-11.1804
bestrijding	-11.1805
▁tycker	-11.1805
▁nadzor	-11.1809
neming	-11.1809
▁substance	-11.1811
▁escala	-11.1812
tjänst	-11.1812
▁considerable	-11.1814
▁vielen	-11.1815
▁dinero	-11.1816
▁establecer	-11.1817
▁atsižvelg	-11.182
▁afslutte	-11.182
▁popolazione	-11.1823
▁Förderung	-11.1823
▁πρώτη	-11.1825
▁kandidat	-11.1832
▁οδηγία	-11.1832
▁quest'	-11.1835
EN	-11.1836
▁indgå	-11.1836
nța	-11.184
▁alltså	-11.1841
▁centre	-11.1842
▁finanzielle	-11.1843
▁banan	-11.1843
ancia	-11.1845
▁risico	-11.1846
▁minimal	-11.1847
▁folyamat	-11.1849
▁democrat	-11.1849
▁Ratspräsident	-11.1849
výš	-11.1849
▁Arbeitnehmer	-11.185
▁prosper	-11.1851
▁tenido	-11.1852
▁største	-11.1854
hovor	-11.1855
▁jasno	-11.186
▁investiga	-11.1861
▁fællesskabs	-11.1863
▁conclusione	-11.1865
▁durable	-11.1866
behandling	-11.1866
▁αποτέλεσμα	-11.1869
▁võib	-11.1869
▁verejn	-11.1871
▁ορισμένες	-11.1872
▁entendu	-11.1875
▁fått	-11.1875
▁compétence	-11.1876
▁srityje	-11.1876
▁Martin	-11.1877
▁sommige	-11.1878
▁fisk	-11.1881
▁komitet	-11.1881
betal	-11.1881
▁invita	-11.1882
▁dve	-11.1883
▁lämna	-11.1885
stelsel	-11.1887
▁smernic	-11.1887
▁sü	-11.189
skydd	-11.1893
▁visų	-11.1894
ήθηκε	-11.1894
▁seconda	-11.1895
▁resurs	-11.1895
jusi	-11.1896
▁discussie	-11.1897
▁hållbar	-11.1898
▁vezet	-11.1898
▁preuve	-11.19
▁grens	-11.1903
▁Και	-11.1905
▁sprejet	-11.1906
▁tagit	-11.1906
έσει	-11.1909
öp	-11.1909
▁mlad	-11.191
▁auszu	-11.1911
▁inspanningen	-11.1914
▁bénéfici	-11.1914
▁qu'un	-11.1915
▁Pirm	-11.1916
märk	-11.1917
overensstemmelse	-11.1918
▁Turquía	-11.1918
▁Samtidig	-11.1919
▁anerkende	-11.1919
ančių	-11.1921
▁legislazione	-11.1921
▁liikmesriigi	-11.1923
ték	-11.1925
▁podobn	-11.1925
gina	-11.1925
▁tiszt	-11.1931
▁εφ	-11.1931
▁след	-11.1932
▁Zimbabwe	-11.1934
▁linea	-11.1934
▁qualche	-11.1938
▁avuto	-11.194
išč	-11.194
▁kunde	-11.1941
▁dovrebbero	-11.1942
▁bedeutet	-11.1943
▁Turquie	-11.1945
▁Unite	-11.1946
▁schade	-11.1946
▁comunicación	-11.1947
▁schwer	-11.1947
føl	-11.1949
korra	-11.1951
▁Europy	-11.1951
телни	-11.1952
▁kdy	-11.1954
σκοπ	-11.1956
▁democratische	-11.1957
▁Credo	-11.196
Θ	-11.1961
▁stability	-11.1963
▁Europene	-11.1965
▁bæredygtig	-11.1965
▁άλλες	-11.1965
▁spol	-11.1966
omstandigheden	-11.1967
▁rokov	-11.1967
▁Dlatego	-11.1969
▁opatrenia	-11.1969
▁Επίτροπο	-11.1969
▁troppo	-11.1969
▁comité	-11.197
sniedz	-11.1971
▁faktum	-11.1974
▁algemeen	-11.1976
▁rozpočt	-11.1977
▁actually	-11.1978
▁främst	-11.198
▁ilyen	-11.198
▁gemenskaps	-11.1984
▁Türkei	-11.1985
▁Gesellschaft	-11.1987
▁seotud	-11.199
▁developing	-11.199
▁interessa	-11.1998
13	-11.1999
▁balsoju	-11.2
iscono	-11.2
▁tulemus	-11.2001
▁might	-11.2001
▁vás	-11.2003
▁sådant	-11.2007
organisatie	-11.2009
▁proračun	-11.2009
▁ευκαιρία	-11.2009
▁opfylde	-11.2009
▁ochranu	-11.201
▁Israël	-11.201
īgs	-11.2011
núť	-11.2013
▁jim	-11.2018
ieri	-11.202
▁jelentős	-11.2021
▁valutazione	-11.2023
▁scientific	-11.2024
▁valstīm	-11.2026
▁promet	-11.2026
▁együttműködés	-11.2027
▁Behörden	-11.2029
▁conduct	-11.203
▁molte	-11.2032
▁werkelijk	-11.2032
äll	-11.2033
▁Kommissarin	-11.2033
▁schwierig	-11.2035
▁coloro	-11.2035
▁ferm	-11.2036
▁eget	-11.2038
▁sensible	-11.2038
▁drept	-11.2038
▁Αυτή	-11.2039
▁Ahora	-11.2039
účast	-11.2039
▁necesitamos	-11.204
▁overholde	-11.2041
tuste	-11.2041
▁enlargement	-11.2042
AP	-11.2047
ατε	-11.2052
▁apply	-11.2052
▁sket	-11.2053
▁ondernemingen	-11.2057
▁valitsus	-11.2057
▁papild	-11.2058
λέγ	-11.2059
▁ustanov	-11.2061
▁absurd	-11.2063
▁muligheder	-11.2063
▁passé	-11.2064
▁åben	-11.2066
▁nævne	-11.2068
▁fuera	-11.2069
▁possano	-11.2073
▁Ritengo	-11.2074
▁tato	-11.2075
▁trasporto	-11.2075
▁opzicht	-11.2076
глед	-11.2076
▁poate	-11.2078
Euro	-11.2079
inius	-11.2083
▁tercer	-11.2084
▁Russie	-11.2085
▁explica	-11.2086
▁juridisch	-11.2087
▁válasz	-11.2087
▁üld	-11.2087
▁rząd	-11.2089
profe	-11.2089
▁promuovere	-11.209
▁gospe	-11.2091
▁maggioranza	-11.2091
sicherheit	-11.2092
▁hurtig	-11.2092
▁strada	-11.2092
▁verschiedenen	-11.2094
▁preparat	-11.2097
▁perspectiva	-11.2098
▁potentiel	-11.2098
tager	-11.2099
▁Kosten	-11.2101
▁право	-11.2102
▁υγεία	-11.2105
▁investment	-11.2111
▁Barcelona	-11.2113
▁Sektor	-11.2113
ressourcer	-11.2114
▁Schaffung	-11.2118
▁skol	-11.2119
Ø	-11.212
▁asegurar	-11.212
▁allmän	-11.212
▁ние	-11.2122
▁bestemt	-11.2122
▁management	-11.2122
▁progetti	-11.2122
▁třeba	-11.2124
▁Och	-11.2125
▁udnytte	-11.2126
▁successo	-11.2126
▁valori	-11.2127
γγ	-11.2128
ledning	-11.2128
żon	-11.213
▁hospodárske	-11.2134
værk	-11.2135
▁akkor	-11.2135
issent	-11.2143
ίζω	-11.2144
▁meglio	-11.2145
▁manau	-11.2146
nță	-11.2148
▁δηλαδή	-11.2148
▁jeunes	-11.2148
▁gegenwärtig	-11.215
49	-11.215
▁arba	-11.215
▁humanitaire	-11.2151
▁män	-11.2151
ática	-11.2153
▁Gerb.	-11.2154
ход	-11.2156
▁munká	-11.2157
▁segít	-11.2158
organisationen	-11.2158
▁nationaux	-11.216
οχ	-11.216
Ä	-11.2163
▁Kontrolle	-11.2163
▁villkor	-11.2168
▁scambi	-11.2169
gazdaság	-11.217
▁κάνει	-11.2171
▁alimentaire	-11.2172
▁společnost	-11.2172
▁μείωση	-11.2173
λαβ	-11.2178
▁vyp	-11.218
▁lijkt	-11.218
▁κυρία	-11.2181
logisch	-11.2181
MI	-11.2182
▁Comunidad	-11.2183
▁agrícola	-11.2183
▁idő	-11.2185
től	-11.2185
▁nauw	-11.2185
▁haut	-11.2187
zhod	-11.2187
▁henhold	-11.2188
▁C5-0	-11.2191
▁utrikes	-11.2191
χθεί	-11.2192
▁astfel	-11.2195
▁woord	-11.2197
▁devrions	-11.2197
▁berör	-11.22
▁última	-11.22
▁социал	-11.2202
juši	-11.2202
▁flertal	-11.2202
▁avanti	-11.2204
▁richiesta	-11.2204
▁aktuelle	-11.2205
▁Ка	-11.2205
▁religion	-11.2206
▁Ryssland	-11.2208
▁Disse	-11.2209
▁gebruikt	-11.2209
▁galima	-11.221
energi	-11.2212
-C	-11.2213
▁charge	-11.2216
▁mentioned	-11.2217
▁möte	-11.2218
hospodár	-11.2218
▁available	-11.2219
▁task	-11.222
▁sprijin	-11.2223
occupation	-11.2223
▁državah	-11.2224
▁reducere	-11.2228
päeva	-11.2229
▁szabad	-11.2229
krit	-11.223
šanai	-11.2231
▁Beziehungen	-11.2232
▁pewn	-11.2234
▁author	-11.2234
overeenkomst	-11.2235
▁término	-11.2236
▁želim	-11.224
▁erreicht	-11.224
▁když	-11.2241
▁sistemi	-11.2243
▁énergétique	-11.2243
▁Gründe	-11.2243
▁členským	-11.2249
▁Dienst	-11.2251
▁kterou	-11.2251
▁līgum	-11.2251
σχε	-11.2255
▁acaba	-11.2257
ský	-11.2257
▁religio	-11.2258
▁transit	-11.2261
▁prendere	-11.2262
▁comunicazione	-11.2262
▁други	-11.2263
▁teema	-11.2264
▁officiel	-11.2264
▁fung	-11.2268
ādā	-11.227
bond	-11.2271
▁CE	-11.2271
▁svolto	-11.2272
▁besondere	-11.2272
▁Turchia	-11.2274
▁puhul	-11.2276
▁stedet	-11.2277
ъл	-11.2278
нията	-11.2279
▁Organiz	-11.2279
▁etap	-11.228
▁proporciona	-11.2287
ще	-11.2289
говор	-11.229
▁folytat	-11.2291
▁producten	-11.2291
▁original	-11.2292
▁stabilità	-11.2293
▁synnerhet	-11.2294
évaluation	-11.2294
▁parler	-11.2295
▁bardziej	-11.2296
▁riferimento	-11.2297
▁mít	-11.2299
▁migrant	-11.23
gruppen	-11.2303
▁сред	-11.2304
izado	-11.2306
▁indeed	-11.2306
kord	-11.2308
▁költségvetés	-11.2308
▁Verheugen	-11.231
▁страна	-11.2311
▁resultater	-11.2312
▁eficaz	-11.2313
språk	-11.2318
▁demasiado	-11.2319
▁diventa	-11.2321
▁Dritt	-11.2322
trzyma	-11.2322
▁capacidad	-11.2323
▁send	-11.2326
▁adhesión	-11.2328
▁tatsächlich	-11.2328
▁hadden	-11.2331
▁found	-11.2333
▁pokrok	-11.2333
▁générale	-11.2334
▁stimuler	-11.2334
▁rohkem	-11.2334
▁funciona	-11.2336
▁approche	-11.2339
▁Dessa	-11.2342
▁Pertanto	-11.2344
▁panākt	-11.2346
▁climate	-11.2346
▁výbor	-11.2346
SA	-11.2347
-Fractie	-11.2347
▁tinkam	-11.2348
waar	-11.2348
iški	-11.2349
▁Erachtens	-11.2349
▁ingediend	-11.2349
▁eszköz	-11.2349
▁blijft	-11.2354
wania	-11.2355
▁despre	-11.2357
▁deltage	-11.2358
▁partage	-11.2359
▁demás	-11.2361
▁fundamentales	-11.2362
Р	-11.2363
▁vielleicht	-11.2365
cích	-11.2367
▁oktober	-11.2368
▁Mitglied	-11.2369
▁dabar	-11.2369
▁πολιτικές	-11.2372
▁tekint	-11.2375
▁abordar	-11.2375
▁stock	-11.2377
▁hääleta	-11.2382
▁przewodniczący!	-11.2382
▁comisión	-11.2382
▁suite	-11.2383
▁komisār	-11.2384
▁κύριοι,	-11.2384
ò	-11.2385
▁още	-11.2386
aalse	-11.2388
▁statele	-11.2391
poved	-11.2393
▁režim	-11.2396
▁ľudí	-11.2398
▁ensemble	-11.2399
▁pisni	-11.2399
▁konkurenci	-11.2401
▁nødvendig	-11.2402
▁rischio	-11.2402
▁begränsa	-11.2403
▁musia	-11.2406
▁ordförande!	-11.2406
▁ordet	-11.2407
▁aumenta	-11.2407
▁potravin	-11.2409
▁clara	-11.2411
▁equilibrio	-11.2412
tarptautin	-11.2412
ndada	-11.2413
ψήφι	-11.2415
▁exprim	-11.2416
▁undersøgelse	-11.2417
▁Parlamentul	-11.2421
▁contain	-11.2421
▁използва	-11.2422
▁κυρίες	-11.2422
▁граждани	-11.2424
▁ekonomikos	-11.2424
▁currently	-11.2427
▁istituzioni	-11.2428
▁l'ensemble	-11.243
▁qu’	-11.2432
▁misschien	-11.2433
▁πράξ	-11.2436
▁möjlig	-11.2438
▁administration	-11.2438
▁Φ	-11.2439
▁udfordring	-11.2439
▁livsmedel	-11.2439
▁Turkiet	-11.244
▁Interessen	-11.244
▁ailleurs	-11.2441
▁επιχειρήσεις	-11.2441
▁pogodb	-11.2446
šanā	-11.2448
berg	-11.245
▁herunder	-11.2451
▁rä	-11.2451
ţiile	-11.2452
▁член	-11.2452
▁pomoci	-11.2452
▁giuridica	-11.2453
ausschuss	-11.2455
▁dunque	-11.2455
▁Socialist	-11.2456
▁tiers	-11.2457
▁Prin	-11.2459
▁contexto	-11.2462
raad	-11.2462
▁etc.	-11.2462
▁Freiheit	-11.2463
▁ganske	-11.2464
▁ενισχύ	-11.2466
glob	-11.2468
▁aanzien	-11.2473
▁obliki.	-11.2474
▁Ω	-11.2474
пу	-11.2477
▁class	-11.2477
ξουμε	-11.2478
▁gente	-11.2478
▁möjligheter	-11.2479
▁σύμφωνα	-11.248
▁dicha	-11.248
▁ωστόσο	-11.2485
▁Även	-11.2487
▁mostra	-11.2489
▁írásban.	-11.2489
▁fuerza	-11.2493
▁buitenlands	-11.2495
▁efficient	-11.2497
▁põllumajandus	-11.2499
▁n’	-11.25
łem	-11.2501
▁wahr	-11.2501
▁βρ	-11.2501
▁stemte	-11.2502
▁nyní	-11.2504
мер	-11.2505
PE	-11.2505
ść	-11.2507
▁gegeben	-11.2507
▁Не	-11.2509
▁c’est	-11.251
▁hålla	-11.2511
éről	-11.2512
▁período	-11.2512
▁pärast	-11.2514
са	-11.2515
▁représentant	-11.2516
▁mnoho	-11.2516
▁bemærkning	-11.2518
νουμε	-11.2519
▁Beitrag	-11.2519
εστ	-11.252
▁define	-11.2523
▁värld	-11.2524
nvironnement	-11.2526
μένες	-11.2526
▁stabilité	-11.2526
▁frente	-11.2528
▁stället	-11.2528
waard	-11.253
▁kodanike	-11.253
▁verbetering	-11.253
▁commerciale	-11.253
▁możliw	-11.2531
▁seoses	-11.2532
▁Komisjon	-11.2534
▁diplom	-11.2535
▁sprawozdanie	-11.2536
▁verbeteren	-11.2536
▁pengar	-11.2536
▁republik	-11.2536
▁nekaj	-11.2536
έπ	-11.2536
▁raggiungere	-11.2537
▁zagotavlja	-11.2538
▁concerning	-11.2538
▁woorden	-11.2539
īvā	-11.2541
▁concret	-11.2542
▁consenso	-11.2543
▁focus	-11.2544
▁høre	-11.2545
ésére	-11.2546
zony	-11.2546
▁öffentlichen	-11.2547
▁Eiropa	-11.2547
▁gett	-11.255
stvu	-11.2554
▁stärker	-11.2557
▁Finally	-11.256
▁Irlanda	-11.2561
▁nell'ambito	-11.2563
▁realizado	-11.2568
▁emphasis	-11.2569
adores	-11.2571
willig	-11.2572
▁OLAF	-11.2572
▁enfoque	-11.2574
▁Fakt	-11.2579
hely	-11.2582
▁previsto	-11.2584
ieron	-11.2586
▁Galileo	-11.2586
▁evenwicht	-11.2586
ből	-11.2587
▁prioritering	-11.2588
▁hohe	-11.2589
▁možnost	-11.2589
skill	-11.259
matig	-11.259
▁cependant	-11.2592
▁actividades	-11.2593
κοινοτικ	-11.2595
▁vraiment	-11.2596
▁egne	-11.2597
▁konstitution	-11.2598
▁examine	-11.2599
▁prípade	-11.2599
τροφ	-11.26
redz	-11.2603
▁Corte	-11.2603
▁gæld	-11.2605
-Fraktion	-11.2608
oknak	-11.2614
usega	-11.2616
káž	-11.2617
▁przeciw	-11.2617
▁pubblico	-11.2619
▁frihed	-11.262
πορ	-11.2625
▁bekämpa	-11.2625
▁utvidgning	-11.2625
▁halte	-11.2628
▁repres	-11.2629
▁hurtigt	-11.2629
▁urmă	-11.263
▁гарантира	-11.2631
▁geheel	-11.2631
▁organizacij	-11.2631
работ	-11.2632
struktur	-11.2637
▁ainult	-11.2639
▁permis	-11.2639
EA	-11.2643
▁Arbeitsplätze	-11.2645
▁äußerst	-11.2647
▁beroep	-11.2648
ettighederne	-11.2649
ден	-11.2649
▁bezpečnosti	-11.2651
▁scen	-11.2652
▁aufgrund	-11.2653
▁piemēro	-11.2655
abilité	-11.2657
▁balans	-11.2658
▁Bru	-11.2658
ndung	-11.266
αστεί	-11.2661
щ	-11.2661
▁proportion	-11.2664
▁themselves	-11.2664
▁Serv	-11.2667
▁ideologi	-11.2667
▁största	-11.2668
▁Will	-11.2668
▁valstī	-11.2669
▁bekæmpelse	-11.267
▁disponibili	-11.267
▁mõist	-11.267
▁Bulgaria	-11.2672
▁tillbaka	-11.2672
kvalifik	-11.2674
▁months	-11.2674
intégration	-11.2675
▁avseende	-11.2675
▁Evropsko	-11.2676
▁eneste	-11.2677
▁Notwendigkeit	-11.2678
▁kalla	-11.2679
konferens	-11.268
▁szükséges	-11.2681
inās	-11.2681
ството	-11.2683
▁liberalisering	-11.2683
▁dys	-11.2684
▁Anche	-11.2685
▁pracovn	-11.2686
▁frihet	-11.2689
ίδα	-11.2691
▁którzy	-11.2692
▁intégr	-11.2696
▁gratul	-11.2698
▁Regelung	-11.2698
▁kärn	-11.2699
▁hatékony	-11.27
ymas	-11.2701
šť	-11.2701
▁Así	-11.2703
▁suhtes	-11.2704
EM	-11.2705
▁προσοχή	-11.2707
▁pubblici	-11.2708
▁krajiny	-11.2712
▁demografi	-11.2713
▁няма	-11.2714
ίζουμε	-11.2714
▁puedo	-11.2718
▁vissza	-11.2718
▁ministro	-11.2719
gøre	-11.272
▁quand	-11.2722
▁unui	-11.2724
ţ	-11.2724
▁Naciones	-11.2725
▁agera	-11.2727
kļū	-11.2727
▁similar	-11.2729
▁Reihe	-11.273
sagen	-11.2732
bü	-11.2732
▁onderwijs	-11.2732
▁convient	-11.2734
▁étrangère	-11.2735
▁praktijk	-11.2737
▁hlav	-11.2738
fyl	-11.2744
▁impose	-11.2744
▁страни	-11.2745
▁повече	-11.2745
▁credit	-11.2747
▁sforzi	-11.2747
ught	-11.2748
▁jamais	-11.2748
▁demonstrat	-11.2749
jäl	-11.275
▁mówi	-11.275
▁politický	-11.2751
▁Air	-11.2754
baig	-11.2754
▁toetreding	-11.2755
puesta	-11.2756
25	-11.2756
▁pacient	-11.2757
▁intention	-11.2757
importanza	-11.2757
▁obywateli	-11.2758
person	-11.2758
▁dispar	-11.2759
korzyst	-11.2762
▁systému	-11.2762
▁Ομάδας	-11.2764
▁sogar	-11.2765
▁ευρωπαϊκό	-11.2765
▁contraire	-11.2768
▁επε	-11.2768
▁meerderheid	-11.2769
▁ενέργειας	-11.2769
▁Cour	-11.2774
▁move	-11.2775
+	-11.2777
hør	-11.2777
[	-11.2779
ňuje	-11.278
▁extend	-11.2781
▁διάρκεια	-11.2781
itaire	-11.2781
▁junto	-11.2782
щите	-11.2782
marknad	-11.2783
▁reciente	-11.2784
▁polityk	-11.2784
▁s'il	-11.2784
▁απλ	-11.2784
▁contract	-11.2785
▁доклад	-11.2787
▁środków	-11.2787
▁siguiente	-11.2789
▁exception	-11.279
▁förbindelser	-11.2791
▁consum	-11.2791
▁ακριβώς	-11.2795
▁legge	-11.2798
▁respeto	-11.2799
ευθύν	-11.28
▁ambition	-11.28
nsichtlich	-11.2801
ifier	-11.2802
δημοκρατικ	-11.2802
▁key	-11.2802
kazuje	-11.2802
▁συμπερι	-11.2803
▁hatás	-11.2803
▁Franc	-11.2804
▁Bedingungen	-11.2805
▁Bekämpfung	-11.2805
▁Bovendien	-11.2805
▁partijen	-11.2805
▁centro	-11.2806
▁adottare	-11.2806
▁globalisering	-11.2807
▁qualsiasi	-11.2811
▁öffentlich	-11.2811
▁responsible	-11.2813
▁αντιμετωπίζ	-11.2813
löst	-11.2816
▁vraagstuk	-11.2817
▁indispensable	-11.2819
▁formation	-11.2821
▁consult	-11.2822
▁ottenere	-11.2823
tétel	-11.2825
5%	-11.2826
ря	-11.2831
▁pratica	-11.2832
▁algemene	-11.2833
▁υποστηρίζ	-11.2833
kostnader	-11.2833
▁difficoltà	-11.2837
▁Gospa	-11.2837
▁pozitiv	-11.2837
▁upošteva	-11.2839
▁acum	-11.284
▁vantaggi	-11.2841
▁λοιπόν	-11.2841
▁což	-11.2841
▁Yo	-11.2844
▁sutart	-11.2845
▁kriterier	-11.2845
▁quasi	-11.2846
IP	-11.2847
läge	-11.2847
▁ustedes	-11.2849
▁ändra	-11.2849
registr	-11.2849
▁risultato	-11.285
▁Priorität	-11.2851
midler	-11.2851
▁C’est	-11.2855
▁Partner	-11.2858
erklæring	-11.2861
▁Gesetz	-11.2861
▁economisch	-11.2862
▁thing	-11.2863
▁niños	-11.2865
▁betale	-11.2865
▁trovare	-11.2866
▁réduction	-11.2867
kalb	-11.2868
▁attīstība	-11.2871
▁signifie	-11.2872
▁vigila	-11.2873
▁nächsten	-11.2875
&#x02BC;	-11.2877
▁jää	-11.2877
▁Brussel	-11.2877
▁tarif	-11.2877
▁acciones	-11.2882
▁Å	-11.2882
▁Myslím	-11.2883
ično	-11.2886
▁történ	-11.2887
▁jautājums	-11.2889
▁élevé	-11.2889
▁presu	-11.2889
▁fremtid	-11.2892
▁За	-11.2893
▁lood	-11.2894
▁Direkt	-11.2895
▁seguro	-11.2896
▁n'y	-11.2896
▁nemzetközi	-11.2897
▁examina	-11.2898
▁άλλων	-11.2899
campagne	-11.2899
ásának	-11.29
▁gobierno	-11.2901
▁Quiero	-11.2901
▁криза	-11.2903
▁beklage	-11.2903
▁Vous	-11.2903
▁irányelv	-11.2905
▁impegna	-11.2909
вод	-11.291
▁dva	-11.2913
▁kwaliteit	-11.2913
▁žmogaus	-11.2913
▁върху	-11.2915
evanja	-11.2915
▁fuldstændig	-11.2925
-T	-11.2925
▁abban	-11.2926
▁κύριο	-11.2931
▁45	-11.2931
▁fungere	-11.2932
▁vigtigste	-11.2933
▁bevorderen	-11.2937
▁nustatyt	-11.2937
▁Grecia	-11.2939
▁amikor	-11.294
γμα	-11.294
▁humanitär	-11.2941
▁utilisé	-11.2941
▁egyik	-11.2942
▁οικονομία	-11.2942
▁waarom	-11.2942
▁vorgelegt	-11.2943
▁rynku	-11.2945
▁simplifica	-11.2947
▁Kol	-11.2947
▁Indien	-11.2947
▁politické	-11.295
▁activités	-11.2951
▁ändring	-11.2952
▁Asamblea	-11.2953
▁Japan	-11.2954
IC	-11.2955
DP	-11.2957
▁ktorých	-11.2962
▁maailma	-11.2965
▁Afrik	-11.2965
tesse	-11.297
▁Verwaltung	-11.2971
▁kurių	-11.2972
▁dispone	-11.2972
▁Doha	-11.2973
▁head	-11.2973
ifrån	-11.2973
TA	-11.2973
▁kellene	-11.2975
▁prévu	-11.2975
ките	-11.2977
▁diferencia	-11.2977
▁slå	-11.2978
▁genoemd	-11.2979
▁Kop	-11.298
mobil	-11.2982
dition	-11.2983
▁šių	-11.2986
εκ	-11.2986
▁presentata	-11.2988
▁mať	-11.299
▁2007-2013	-11.2992
▁oprav	-11.2992
▁n'ont	-11.2993
▁aveva	-11.2997
▁κάνουμε	-11.2997
▁развитие	-11.2998
treden	-11.2999
▁Brok	-11.3004
▁presentado	-11.3005
▁afgevaardigden	-11.3006
▁volonté	-11.301
▁Landwirtschaft	-11.3011
▁könnten	-11.3012
▁Vážen	-11.3012
▁ţări	-11.3013
▁obravnava	-11.3014
▁weiß	-11.3014
▁klimatu	-11.3017
über	-11.3018
▁acestui	-11.3018
▁situaci	-11.3018
▁esprimere	-11.3019
▁svarbi	-11.302
лага	-11.3021
▁καταπολέμηση	-11.3022
▁needed	-11.3023
▁operativ	-11.3025
yczny	-11.3027
▁rejet	-11.303
▁mezinárodní	-11.3032
▁encontrar	-11.3034
▁promotion	-11.3034
яване	-11.3039
▁reserva	-11.304
kultūr	-11.3042
▁emploi	-11.3045
▁handicap	-11.3045
▁motion	-11.3045
▁comunque	-11.3048
ските	-11.305
▁deoarece	-11.3051
▁önska	-11.3051
▁wszystkim	-11.3053
▁größere	-11.3053
▁abandon	-11.3054
IT	-11.3054
▁Fællesskabet	-11.3056
ložit	-11.3056
▁impegno	-11.3057
līg	-11.3059
▁riduzione	-11.3059
▁spekul	-11.3061
krát	-11.3061
▁extrêmement	-11.3061
▁aanwezig	-11.3063
▁llevar	-11.3063
▁violation	-11.3064
▁sottolinea	-11.3064
▁ferme	-11.3065
▁rozhodnutí	-11.3067
▁ομάδα	-11.3071
▁sõna	-11.3072
▁plutôt	-11.3073
▁dezvoltare	-11.3075
▁venga	-11.3075
▁hablar	-11.3076
вер	-11.3076
▁bekymring	-11.3079
▁aspetto	-11.3081
▁alimentari	-11.3084
▁textil	-11.3085
▁Präsidentschaft	-11.3086
▁exclusiv	-11.3087
▁l'article	-11.3087
▁Tarybos	-11.3087
▁forfatning	-11.3087
▁έκ	-11.3089
▁vertrouwen	-11.3089
▁réunion	-11.309
▁répondre	-11.3093
▁ještě	-11.3093
▁Finanzierung	-11.3094
▁rond	-11.3094
▁stret	-11.3095
▁Sitzung	-11.3096
steuer	-11.3097
▁avgörande	-11.3098
▁tagasi	-11.3098
▁jedna	-11.3099
▁autoriteiten	-11.31
▁taha	-11.31
▁ordfører	-11.3102
▁măsuri	-11.3108
gegeven	-11.3109
▁considerazione	-11.311
▁Währung	-11.3114
▁solidarietà	-11.3114
▁Rights	-11.3118
▁hospodářské	-11.312
▁τότε	-11.312
▁vlak	-11.3127
▁espero	-11.3127
μορφ	-11.3127
▁Verfassung	-11.3129
efficacité	-11.313
ließ	-11.313
▁schimb	-11.3131
važuj	-11.3134
▁chiaramente	-11.3134
ningarna	-11.3136
▁Comité	-11.3138
▁egna	-11.3138
▁správa	-11.3143
▁mira	-11.3144
▁úpln	-11.3144
▁kako	-11.3148
▁rendre	-11.315
▁Fortschritte	-11.3153
tryk	-11.3154
▁assolutamente	-11.3155
fragen	-11.3157
▁2015	-11.3158
▁resultatet	-11.3159
▁ευχαριστήσω	-11.3159
▁manque	-11.316
ienne	-11.3161
▁posil	-11.3161
▁klausimas	-11.3163
mming	-11.3164
▁specifieke	-11.3165
▁takie	-11.3166
▁infrastructure	-11.3167
▁például	-11.317
unter	-11.3171
▁παραγωγή	-11.3172
introduction	-11.3172
▁blok	-11.3173
▁Regional	-11.3173
▁Consider	-11.3174
▁genannt	-11.3176
▁productie	-11.3176
zīmē	-11.3178
▁solamente	-11.3179
▁защото	-11.3179
▁keret	-11.318
examin	-11.3181
όμενο	-11.3182
▁konnte	-11.3182
nderung	-11.3182
▁κάποιο	-11.3182
▁helst	-11.3183
▁n’a	-11.3184
▁Communauté	-11.3184
▁Flug	-11.3189
▁obywatel	-11.3189
▁uitdaging	-11.319
▁lösa	-11.3191
▁abzu	-11.3191
▁assistance	-11.3192
▁essenziale	-11.3192
▁otázku	-11.3192
▁Nice	-11.3199
neskerettigheder	-11.32
▁hozzá	-11.3201
▁eerder	-11.3201
▁estima	-11.3201
▁Gelegenheit	-11.3205
▁šp	-11.3205
▁uppgifter	-11.3206
▁kwestii	-11.3207
▁entonces	-11.3207
▁Haupt	-11.3207
▁hanem	-11.3207
▁człowieka	-11.3209
▁využíva	-11.3211
▁aanvaard	-11.3211
▁jābūt	-11.3212
▁εγ	-11.3213
▁version	-11.3216
▁všechny	-11.3216
▁drabba	-11.322
sikkerhed	-11.3221
▁davvero	-11.3221
▁internazionali	-11.3222
▁prêt	-11.3223
▁capacità	-11.3223
▁ekologi	-11.3227
▁dobre	-11.3228
▁forvente	-11.3229
▁σημαίνει	-11.323
▁passer	-11.3231
▁dirige	-11.3231
▁Unidas	-11.3233
▁funziona	-11.3235
perspektiv	-11.3237
ED	-11.3239
▁Tyskland	-11.3242
γράφ	-11.3243
▁keep	-11.3243
пре	-11.3244
▁állam	-11.3247
ψε	-11.3247
▁réduire	-11.3248
▁έπρεπε	-11.325
▁aastal	-11.3252
▁într-	-11.3252
cimiento	-11.3254
ωσης	-11.3254
▁tillåt	-11.3257
▁ezért	-11.3257
▁laiko	-11.3258
▁Produkt	-11.3258
▁Gefahr	-11.3261
▁ambientale	-11.3261
▁labour	-11.3261
ndanks	-11.3261
▁servir	-11.3264
▁начин	-11.3264
▁meses	-11.3266
krise	-11.3267
ccept	-11.3268
▁spolupráce	-11.3269
▁rapidement	-11.327
▁samuti	-11.327
▁praktisch	-11.3271
▁jogok	-11.3271
▁intressen	-11.3273
zunehmen	-11.3274
▁priemonių	-11.3275
▁všetky	-11.3275
цията	-11.3276
ското	-11.3278
▁l’Europe	-11.328
▁Berlin	-11.3283
▁ljudi	-11.3286
▁remarque	-11.3286
▁Forderung	-11.3286
▁kammaren	-11.3287
▁Directive	-11.3288
gegangen	-11.3289
▁enough	-11.329
▁správu	-11.329
▁EG	-11.3291
zekerheid	-11.3294
▁gehört	-11.3295
▁ratifik	-11.3295
▁fraktsiooni	-11.3298
▁Парламента	-11.33
liggende	-11.3304
▁wijziging	-11.3309
▁build	-11.331
▁είμαι	-11.3311
▁către	-11.3312
▁betydelig	-11.3313
▁conflicto	-11.3313
▁insister	-11.3316
▁conseguenze	-11.3317
▁humanitaria	-11.3317
▁empresa	-11.3319
▁compromesso	-11.3319
▁transparence	-11.3324
▁voz	-11.3325
▁giusta	-11.3325
▁innovativ	-11.3325
▁eksempel	-11.3326
▁excelente	-11.333
▁mikro	-11.333
▁Fri	-11.3332
▁serio	-11.3333
▁násled	-11.3335
▁alcanzar	-11.3336
▁spela	-11.3339
▁dollar	-11.334
▁Wachstum	-11.334
▁spravodaj	-11.334
▁puisse	-11.334
▁circa	-11.3341
▁attualmente	-11.3343
▁künftig	-11.3345
▁predsednica	-11.3345
▁journalist	-11.3345
▁ζητήματα	-11.3345
▁μπορούσε	-11.3347
▁appr	-11.3348
▁dagsordenen	-11.3349
beskyttelse	-11.3349
gørelse	-11.335
▁congratulate	-11.335
▁entscheidend	-11.3352
▁harmonise	-11.3353
▁ilegal	-11.3353
▁chtěl	-11.3355
▁užtikrin	-11.3372
▁dyrektyw	-11.3374
▁žmonių	-11.3374
ю	-11.3374
▁gennemførelsen	-11.3374
▁vähenda	-11.3382
maatschappij	-11.3385
▁constata	-11.3385
▁l'aide	-11.3386
▁Råd	-11.3386
▁dalībvalstu	-11.3387
▁beslutninger	-11.3389
▁θέλω	-11.3391
▁nemzeti	-11.3391
▁besed	-11.3393
▁inimeste	-11.3394
▁cilvēku	-11.3397
▁řešení	-11.3397
▁Stand	-11.3397
▁Liit	-11.3398
▁γι'	-11.3404
▁Solana	-11.3404
▁média	-11.3405
▁financiering	-11.3405
▁βοηθ	-11.3406
▁BSE	-11.3406
ични	-11.3406
▁käsitle	-11.3407
▁förklara	-11.3411
▁Cependant	-11.3412
▁trasparenza	-11.3412
spite	-11.3412
▁Prav	-11.3412
▁claramente	-11.3414
▁incorpora	-11.3416
▁n’est	-11.3416
▁Agrar	-11.3417
χαρ	-11.3417
▁Selv	-11.3417
▁kõigi	-11.3418
▁důvod	-11.3418
▁heißt	-11.3418
▁svetov	-11.3422
▁begrijp	-11.3423
▁Malta	-11.3423
▁πρωτ	-11.3423
posizione	-11.3425
ított	-11.3427
▁δημοσι	-11.343
τικού	-11.343
situation	-11.343
▁annual	-11.3431
pakke	-11.3431
▁iscritto.	-11.3431
▁dovremmo	-11.3431
▁Organ	-11.3431
▁Europejskiego	-11.3435
▁Unia	-11.3436
täh	-11.3436
▁consultation	-11.3437
fejlesztés	-11.3437
▁raccomanda	-11.3438
ekonomi	-11.3439
▁finansiella	-11.344
ιτ	-11.3441
▁condition	-11.3442
ск	-11.3443
▁destaca	-11.3443
▁transparencia	-11.3444
▁bezpieczeństwa	-11.3446
0.000	-11.3448
▁priekšsēdētāj	-11.3448
ñ	-11.3452
▁ochrony	-11.3457
▁snabbt	-11.3457
ième	-11.3458
▁1992	-11.3459
▁olnud	-11.3459
▁jeszcze	-11.3461
▁една	-11.3461
▁viņu	-11.3462
▁Tento	-11.3464
▁konsolid	-11.3465
maßnahmen	-11.3467
▁įvyk	-11.3467
▁student	-11.347
▁Nicht	-11.347
▁posso	-11.347
▁Desidero	-11.3474
▁επιτροπή	-11.3474
▁tengo	-11.3475
▁Auffassung	-11.3476
▁privire	-11.3478
▁utmaning	-11.3479
▁court	-11.3482
▁East	-11.3482
▁adecuada	-11.3482
lief	-11.3484
▁forbruger	-11.3485
▁internationell	-11.3485
▁visiškai	-11.3486
▁krīze	-11.3486
▁πρόσβαση	-11.3486
▁patvirtin	-11.3488
▁Bildung	-11.3491
▁sammenhæng	-11.3491
▁úlohu	-11.3492
▁Parliament's	-11.3493
▁arvates	-11.3493
▁morajo	-11.3497
▁permettra	-11.35
sættelse	-11.35
▁diminu	-11.3503
▁άρθρο	-11.3505
▁Európe	-11.3508
▁allerdings	-11.3512
▁interroga	-11.3513
▁skutečnost	-11.3514
▁investimenti	-11.352
▁undgå	-11.3522
άζει	-11.3522
ļauj	-11.3522
▁skade	-11.3524
▁kurį	-11.3525
▁obsah	-11.3525
▁hård	-11.3525
▁którym	-11.3528
▁praktik	-11.3529
▁touch	-11.353
▁compromet	-11.3532
▁experience	-11.3533
▁encuentra	-11.3535
stelle	-11.3536
▁privalo	-11.3536
▁deberíamos	-11.3536
▁achieved	-11.3537
▁threat	-11.3538
▁ihn	-11.3538
▁taisykl	-11.3542
▁tę	-11.3545
▁σχέδιο	-11.3546
kaubandus	-11.3548
▁jobb	-11.3549
▁Für	-11.355
▁llegar	-11.355
▁Nr.	-11.3552
▁opgenomen	-11.3553
▁unii	-11.3556
▁χρηματοδότηση	-11.3557
ppliqu	-11.3557
▁võtta	-11.3558
▁gemeinsam	-11.3558
▁Europie	-11.3559
▁kolleeg	-11.3559
▁professional	-11.356
ările	-11.3563
▁différentes	-11.3565
wiss	-11.3566
▁l’UE	-11.357
cyjny	-11.3571
▁există	-11.3573
▁contamina	-11.3574
▁ämne	-11.3576
▁kategori	-11.3577
▁mogoče	-11.3578
▁profund	-11.3579
12	-11.358
▁altresì	-11.3583
▁Richtung	-11.3583
▁reject	-11.3584
▁carbon	-11.3584
ified	-11.3588
▁zdravotn	-11.3588
▁collègue	-11.3588
▁Austria	-11.3588
▁pregled	-11.359
ησε	-11.3592
▁effort	-11.3593
▁έρευνα	-11.3593
▁communauté	-11.3596
▁grootste	-11.3596
▁možnosti	-11.3596
▁karakter	-11.3598
▁λύση	-11.3598
]	-11.36
▁consiguiente	-11.36
▁iniziative	-11.36
▁referencia	-11.3602
▁stanno	-11.3604
▁uwagę	-11.3604
τροπ	-11.3605
▁reflect	-11.3606
▁cinq	-11.3608
▁makro	-11.361
▁teikt	-11.361
ваме	-11.3612
▁capacité	-11.3613
▁activities	-11.3613
▁dejar	-11.3614
grav	-11.3617
▁Dublin	-11.3617
▁udtalelse	-11.3617
▁mõne	-11.3618
▁ravni	-11.362
tryck	-11.3621
▁Over	-11.3622
▁guerre	-11.3628
▁contributo	-11.3629
▁response	-11.363
▁būtina	-11.3631
▁ισχυρ	-11.3632
ične	-11.3632
vétel	-11.3639
▁maanden	-11.364
▁rischi	-11.3644
▁enhver	-11.3645
▁során	-11.3652
▁kontinent	-11.3654
▁šalys	-11.3654
▁einzige	-11.3656
▁Tagesordnung	-11.3656
▁przykład	-11.3658
▁preciso	-11.3658
▁ludzi	-11.3659
▁preşedinte	-11.366
▁όλων	-11.366
▁recordar	-11.3663
▁privé	-11.3663
▁gratulera	-11.3663
▁spreken	-11.3663
▁maintain	-11.3664
▁weinig	-11.3666
▁Evropi	-11.3667
▁fondamentaux	-11.3667
▁emberek	-11.3667
produkter	-11.3668
teilung	-11.3668
▁odgovor	-11.367
▁futura	-11.367
▁Straf	-11.367
▁Erfolg	-11.3671
▁contradic	-11.3672
værdig	-11.3673
▁Zusammen	-11.3675
kreip	-11.3675
▁zodpovedn	-11.3676
mények	-11.3676
▁allmänna	-11.3677
▁posibil	-11.3678
▁δικαίωμα	-11.3678
▁carica	-11.3678
▁legislativo	-11.368
▁δώσ	-11.3681
▁pasakyti	-11.3682
naša	-11.3683
▁völlig	-11.3687
▁37	-11.369
▁peux	-11.369
▁προσέγγιση	-11.3691
▁víz	-11.3693
▁piemēram	-11.3693
▁vseh	-11.3695
▁miljoni	-11.3695
▁kulturelle	-11.3696
▁Comunità	-11.3697
▁kvot	-11.3697
▁betragtning	-11.37
▁summit	-11.37
▁ridurre	-11.3701
▁sytuacji	-11.3701
δήποτε	-11.3702
δυναμ	-11.3702
▁rileva	-11.3703
▁amelyet	-11.3703
▁pact	-11.3703
tezza	-11.3704
▁βουλευτές	-11.3704
▁young	-11.3705
▁bästa	-11.3706
▁påverka	-11.3707
▁nær	-11.3707
▁energetik	-11.3708
▁igualdad	-11.3709
χειρ	-11.371
võrd	-11.3711
▁jednotn	-11.3711
politische	-11.3712
▁restrict	-11.3714
род	-11.3715
▁eventuell	-11.3717
▁territoriale	-11.3718
▁brutal	-11.3719
▁eigenlijk	-11.3721
vizsgál	-11.3721
▁Bud	-11.3722
▁resurser	-11.3723
virksomhed	-11.3724
▁repræsentant	-11.3726
▁Izrael	-11.3726
▁europene	-11.3726
gericht	-11.3726
▁camino	-11.3728
▁lidstaat	-11.373
▁supplémentaire	-11.3732
▁voorwaarden	-11.3734
l’onorevole	-11.3734
iskā	-11.3735
▁pranešimą	-11.3736
▁érint	-11.3738
▁Mehrheit	-11.3739
▁grænser	-11.3741
▁coup	-11.3741
▁ασφάλειας	-11.3741
▁käi	-11.3742
▁suivant	-11.3743
▁vrai	-11.3743
▁dessutom	-11.3745
▁επιβ	-11.3748
▁scorso	-11.375
▁herinner	-11.375
▁integración	-11.3751
▁disponible	-11.3752
▁intelligent	-11.3752
▁opportunità	-11.3752
▁Ergebnisse	-11.3754
▁mercati	-11.3754
▁identifica	-11.3758
▁känner	-11.3759
▁olla	-11.3759
▁Polit	-11.3761
▁túl	-11.3761
▁internacionales	-11.3762
▁batt	-11.3764
▁pasākumu	-11.3765
▁rozwoju	-11.3765
▁visā	-11.3771
▁solicita	-11.3774
▁saab	-11.3775
apertura	-11.3776
▁participación	-11.3776
▁solidarité	-11.3779
▁nüüd	-11.378
▁Hlasoval	-11.378
▁arab	-11.378
▁pendant	-11.3781
debat	-11.3782
▁veikt	-11.3782
▁αποτελούν	-11.3783
▁terzi	-11.3785
▁duurzame	-11.3787
▁generell	-11.3789
slav	-11.379
▁регион	-11.3791
▁Folgen	-11.3792
▁Stelle	-11.3793
▁chers	-11.3793
▁încă	-11.3793
▁myslím	-11.3794
▁actuel	-11.3795
▁skupina	-11.3797
▁funding	-11.3798
▁zpravodaj	-11.38
κτη	-11.3801
▁Tunis	-11.3801
▁rând	-11.3804
▁ιδίως	-11.3805
évolution	-11.3805
▁federal	-11.3805
schätz	-11.3806
▁Evropě	-11.3807
▁Dokument	-11.3807
▁būd	-11.3808
▁viktigaste	-11.3808
ejší	-11.3809
▁basic	-11.381
ugoslav	-11.3811
▁myndigheterna	-11.3813
▁άν	-11.3814
ù	-11.3815
▁gennemførelse	-11.3815
▁dalībvalstīm	-11.3817
▁publiek	-11.3818
▁преди	-11.3819
▁komende	-11.3822
▁four	-11.3823
▁broad	-11.3823
▁veiksmų	-11.3825
▁pilot	-11.3827
νόμ	-11.3827
ową	-11.3828
▁dovrà	-11.3829
▁αμ	-11.3835
▁eljárás	-11.3838
▁práci	-11.3838
казва	-11.3839
produkt	-11.3839
▁κράτος	-11.384
▁ανάπτυξης	-11.3841
ånd	-11.3841
izzare	-11.3842
▁správy	-11.3842
▁comun	-11.3842
▁immigrati	-11.3844
▁frontières	-11.3844
▁(F	-11.3845
▁βελτίωση	-11.3846
▁emisij	-11.3848
▁strategisk	-11.3849
τέλ	-11.3853
▁giovani	-11.3853
sistencia	-11.3855
▁intervención	-11.3855
▁road	-11.3855
[...]
