<s>	0
</s>	0
<unk>	0
<pad>	0
,	-3.5608
s	-3.69323
.	-3.952
▁	-4.11033
▁de	-4.3251
e	-4.43505
t	-4.63953
i	-4.86731
▁a	-4.93731
a	-4.98139
n	-4.98594
en	-4.99997
r	-5.09085
▁la	-5.15023
▁in	-5.23392
▁en	-5.24391
er	-5.40063
u	-5.4888
o	-5.49654
d	-5.52071
▁the	-5.62191
▁i	-5.64189
m	-5.78242
▁que	-5.86647
▁to	-5.8693
▁di	-5.90911
l	-6.05413
▁die	-6.05862
▁un	-6.05898
▁le	-6.06906
▁der	-6.11092
re	-6.12428
▁van	-6.13782
▁for	-6.13961
y	-6.15174
▁se	-6.16068
▁e	-6.16985
▁of	-6.17241
es	-6.1824
▁at	-6.21835
▁et	-6.23244
j	-6.23285
▁be	-6.23304
▁-	-6.23972
z	-6.23992
te	-6.2701
▁att	-6.28573
k	-6.2873
▁er	-6.29872
de	-6.32926
to	-6.35834
ne	-6.36225
▁is	-6.40944
▁v	-6.41416
▁den	-6.43337
▁s	-6.4426
le	-6.44333
c	-6.4464
▁som	-6.46145
▁el	-6.46153
▁om	-6.4787
▁and	-6.4829
▁het	-6.4848
▁o	-6.49182
▁na	-6.49396
v	-6.5148
et	-6.52846
ti	-6.53003
▁og	-6.5382
▁y	-6.54436
st	-6.54735
▁con	-6.54892
-	-6.55134
▁vi	-6.55285
na	-6.5793
ar	-6.58759
▁und	-6.59556
▁det	-6.59569
▁och	-6.605
▁te	-6.62055
▁del	-6.62917
li	-6.62976
▁ne	-6.63169
ch	-6.6379
ing	-6.64255
▁des	-6.64619
ta	-6.6648
▁för	-6.67802
▁af	-6.69878
▁che	-6.70398
▁do	-6.70532
da	-6.72276
an	-6.73102
▁po	-6.74054
al	-6.74265
la	-6.75149
▁je	-6.75542
ra	-6.77245
▁es	-6.77696
▁med	-6.77708
ed	-6.78944
ge	-6.79228
▁z	-6.79395
▁I	-6.81112
ς	-6.8115
▁av	-6.81737
os	-6.82783
me	-6.82895
▁på	-6.83401
▁op	-6.84071
▁re	-6.84126
b	-6.84202
ci	-6.8443
h	-6.84492
▁à	-6.84604
no	-6.84713
▁on	-6.84893
▁no	-6.85077
▁les	-6.85331
▁il	-6.86055
in	-6.86597
▁per	-6.87153
ni	-6.87518
p	-6.87876
▁los	-6.87979
é	-6.8835
▁και	-6.88382
▁να	-6.88504
▁dat	-6.89678
▁een	-6.91647
▁har	-6.91703
▁za	-6.93084
g	-6.93148
lo	-6.93652
▁al	-6.97501
:	-6.99308
▁da	-7.00261
f	-7.01061
▁ge	-7.01761
▁til	-7.03031
▁k	-7.03341
▁ir	-7.0342
▁ver	-7.04448
▁that	-7.04805
▁una	-7.05015
as	-7.05207
▁si	-7.05483
▁su	-7.06613
em	-7.07026
▁pro	-7.07829
▁we	-7.07898
se	-7.0915
ly	-7.09283
▁sa	-7.09343
ce	-7.09816
▁A	-7.09886
▁w	-7.10439
▁ha	-7.10825
▁an	-7.11381
mi	-7.12665
ja	-7.13041
▁du	-7.1421
▁της	-7.1673
di	-7.16998
▁pre	-7.17896
▁par	-7.18838
▁voor	-7.19511
▁zu	-7.20434
ga	-7.20646
do	-7.22318
▁на	-7.22334
ma	-7.226
▁är	-7.23848
je	-7.23859
it	-7.23985
▁την	-7.26169
ten	-7.27155
el	-7.27681
ž	-7.2792
í	-7.2802
is	-7.28984
ve	-7.29452
ro	-7.29733
s.	-7.29823
?	-7.29935
š	-7.30014
om	-7.3012
si	-7.3201
▁so	-7.32905
ri	-7.33033
▁pa	-7.33349
ie	-7.33414
us	-7.33664
der	-7.3373
ul	-7.33896
be	-7.34131
vi	-7.34848
va	-7.3487
at	-7.35055
gen	-7.35217
▁De	-7.35692
ā	-7.36254
en.	-7.36345
ver	-7.36384
▁ma	-7.37627
ment	-7.38098
▁pas	-7.38411
▁u	-7.38885
ą	-7.39747
á	-7.39852
ur	-7.40095
w	-7.41116
▁las	-7.41926
▁by	-7.42825
▁l'	-7.43109
▁La	-7.43248
▁kan	-7.43471
ν	-7.4366
▁over	-7.44324
▁till	-7.45002
ung	-7.46834
▁το	-7.47257
den	-7.47562
▁S	-7.4916
č	-7.4964
▁qui	-7.50202
id	-7.50601
▁ri	-7.50914
ko	-7.50983
tu	-7.50984
ter	-7.51124
en,	-7.5193
▁ja	-7.52207
)	-7.52327
gi	-7.52464
▁para	-7.52808
▁me	-7.53186
▁ka	-7.533
ek	-7.54163
▁por	-7.54199
▁για	-7.54234
▁lo	-7.54509
ó	-7.5675
▁pour	-7.56988
ă	-7.57017
ad	-7.57354
▁ce	-7.57408
▁In	-7.5775
ka	-7.58585
▁pri	-7.58602
▁è	-7.58723
▁"	-7.58836
e,	-7.59072
▁Europa	-7.59073
▁η	-7.59468
▁non	-7.59638
▁met	-7.60143
▁az	-7.60895
▁est	-7.61203
vo	-7.61459
nie	-7.61693
ik	-7.62015
▁(	-7.62323
▁Det	-7.62417
▁von	-7.62574
are	-7.62922
or	-7.64133
ation	-7.64315
▁των	-7.64798
▁dans	-7.64979
ent	-7.65195
▁nous	-7.65999
▁του	-7.66514
▁inte	-7.66558
ho	-7.66656
▁della	-7.66947
▁au	-7.67092
▁nu	-7.67262
▁für	-7.67337
jo	-7.6775
▁aan	-7.67964
ä	-7.69356
▁men	-7.69579
▁E	-7.69622
ca	-7.70197
on	-7.70226
▁ikke	-7.70245
go	-7.70361
▁Vi	-7.70365
▁man	-7.71627
▁this	-7.71698
za	-7.72214
ze	-7.72567
▁zijn	-7.72913
▁že	-7.72941
il	-7.73232
▁EU	-7.73283
;	-7.73349
im	-7.74078
ir	-7.74312
▁που	-7.7434
▁V	-7.74482
ει	-7.74569
ba	-7.74633
ste	-7.75581
▁auf	-7.75612
▁με	-7.75664
ere	-7.75827
▁im	-7.75829
▁alle	-7.76158
ę	-7.76339
▁m	-7.76472
ά	-7.77634
▁ki	-7.77851
ό	-7.77867
▁not	-7.78055
▁are	-7.78275
▁în	-7.78469
κ	-7.79008
tion	-7.79081
▁have	-7.79442
ov	-7.79498
ant	-7.79604
▁és	-7.80151
ven	-7.80428
ų	-7.80501
mo	-7.8082
ck	-7.81992
▁une	-7.82024
▁sur	-7.8229
mu	-7.82306
ción	-7.84156
▁F	-7.84766
nde	-7.85089
▁niet	-7.85102
▁En	-7.85234
ig	-7.8644
zi	-7.86778
am	-7.87008
α	-7.8738
▁co	-7.88248
▁и	-7.88567
▁nicht	-7.8917
▁ob	-7.89617
ή	-7.8997
ud	-7.90048
ak	-7.90189
ia	-7.90292
▁mi	-7.90412
▁wir	-7.90497
▁mit	-7.90607
ní	-7.91196
▁B	-7.91424
▁dass	-7.91757
▁d	-7.91858
▁vil	-7.92099
▁bi	-7.92114
▁dem	-7.92402
▁das	-7.92491
▁P	-7.92682
▁ein	-7.93166
▁Commission	-7.9323
▁ist	-7.93727
▁за	-7.93823
▁θα	-7.93918
ki	-7.94079
▁bo	-7.94181
▁ar	-7.94619
és	-7.95419
▁ra	-7.9575
▁да	-7.95755
nt	-7.9674
▁it	-7.97133
ί	-7.97544
gu	-7.97653
▁as	-7.97686
▁ett	-7.97869
υ	-7.97878
▁G	-7.98029
sta	-7.98118
η	-7.98486
▁als	-7.98925
co	-7.99261
né	-7.9965
▁ότι	-7.99868
ut	-7.99878
ī	-7.99938
▁eine	-7.99966
и	-8.00462
▁είναι	-8.00625
ken	-8.0103
▁European	-8.01063
ny	-8.01413
e.	-8.01512
▁ve	-8.02123
sch	-8.02173
▁Union	-8.0225
▁O	-8.02992
▁Je	-8.02995
zione	-8.03039
▁K	-8.03097
▁από	-8.03391
▁tra	-8.03489
▁The	-8.04152
▁W	-8.04309
▁with	-8.04632
pi	-8.04731
▁pe	-8.04744
▁alla	-8.05027
ot	-8.05143
bi	-8.05256
▁worden	-8.05482
ku	-8.05685
▁We	-8.05915
um	-8.06115
▁Be	-8.06174
nd	-8.06223
ok	-8.0626
φ	-8.06508
ben	-8.06604
▁ko	-8.06635
▁var	-8.06949
▁este	-8.0696
du	-8.07099
▁ich	-8.07128
θ	-8.07237
ο	-8.07278
σ	-8.07499
▁ci	-8.07555
т	-8.07605
men	-8.07636
mente	-8.07657
▁t	-8.0783
та	-8.08018
▁hogy	-8.08082
ej	-8.08267
i,	-8.08275
▁f	-8.08484
λ	-8.08893
so	-8.08938
wa	-8.08982
▁which	-8.09286
▁T	-8.09545
tro	-8.09571
▁sig	-8.09766
po	-8.09848
χ	-8.10122
▁pod	-8.10328
kt	-8.10653
ú	-8.10707
▁vor	-8.11044
▁ik	-8.1111
▁li	-8.11348
▁τη	-8.11388
▁ta	-8.11765
ι	-8.1231
▁jeg	-8.1283
▁vy	-8.13099
▁σε	-8.13184
ado	-8.13494
▁M	-8.14435
pa	-8.14581
▁τα	-8.14966
▁od	-8.1536
t.	-8.15492
ke	-8.15737
er,	-8.15868
▁d'	-8.15928
!	-8.16143
▁ni	-8.16585
▁all	-8.16767
un	-8.16889
▁will	-8.17015
ė	-8.17283
н	-8.17853
sti	-8.17916
he	-8.17961
▁ho	-8.1823
▁Le	-8.18492
▁nie	-8.1851
ü	-8.1854
'	-8.18583
que	-8.18942
▁p	-8.19501
▁Po	-8.1959
val	-8.19847
ju	-8.199
bo	-8.20102
ng	-8.20336
ks	-8.2037
с	-8.2037
▁h	-8.20448
ac	-8.20942
▁Parlamento	-8.21065
lu	-8.21077
▁b	-8.21507
vis	-8.217
lig	-8.21832
t,	-8.21846
ol	-8.2191
cu	-8.22062
ist	-8.22114
▁в	-8.22194
erne	-8.22252
м	-8.22253
▁dit	-8.22297
len	-8.22502
▁D	-8.22531
ů	-8.22591
▁Es	-8.22726
▁C	-8.22765
ha	-8.23823
ω	-8.24309
ou	-8.24653
▁Parlement	-8.24841
▁π	-8.24917
▁iz	-8.25055
ning	-8.25538
▁dé	-8.25567
▁c	-8.25615
tre	-8.25724
▁ook	-8.25894
ē	-8.26062
▁с	-8.2613
▁Herr	-8.26245
▁ad	-8.2631
õ	-8.26432
▁jag	-8.2666
wi	-8.26859
tal	-8.2687
ate	-8.27599
▁auch	-8.27991
▁τις	-8.28014
amente	-8.28119
cz	-8.2842
ende	-8.28492
iz	-8.28556
ska	-8.28587
▁så	-8.2859
▁min	-8.28652
о	-8.2924
pp	-8.29338
▁uit	-8.29375
▁Jag	-8.29392
ige	-8.294
▁under	-8.29745
ύ	-8.30024
▁fra	-8.30149
▁Ver	-8.30374
▁Il	-8.30487
ali	-8.30543
то	-8.30585
▁plus	-8.30986
▁α	-8.31104
ami	-8.3112
ty	-8.31375
ske	-8.31448
ru	-8.31594
ord	-8.31715
▁ex	-8.31781
ż	-8.31985
ни	-8.32005
ών	-8.32091
▁um	-8.32449
▁στην	-8.3259
land	-8.32893
▁kad	-8.32903
▁was	-8.32923
mp	-8.32927
pri	-8.3303
π	-8.33333
hr	-8.33767
▁mo	-8.34064
▁Jeg	-8.34085
▁Die	-8.34115
▁ap	-8.34195
▁fa	-8.34253
zu	-8.34273
▁delle	-8.34528
▁skal	-8.34573
▁Parlament	-8.34581
▁Z	-8.34696
▁l’	-8.34889
▁kon	-8.34892
ρ	-8.35324
ire	-8.35333
▁от	-8.35642
ff	-8.35795
те	-8.35888
▁más	-8.35927
▁esta	-8.36107
▁H	-8.36425
но	-8.37146
▁Mr	-8.37156
▁va	-8.37531
era	-8.37609
ele	-8.37613
εί	-8.37696
sto	-8.38232
▁Ik	-8.38315
ő	-8.38485
▁hebben	-8.38524
▁Se	-8.38584
ber	-8.38724
▁To	-8.38784
ación	-8.38944
▁An	-8.38959
5	-8.39148
▁g	-8.39352
▁Re	-8.39461
▁–	-8.39522
I	-8.39615
▁Europese	-8.39942
▁επι	-8.40037
▁über	-8.40231
å	-8.40317
μ	-8.40412
▁kommer	-8.40576
▁ind	-8.40676
nu	-8.40683
erna	-8.40894
▁sobre	-8.40925
able	-8.41077
▁deze	-8.41114
▁social	-8.41125
а	-8.41232
▁să	-8.41253
▁has	-8.41452
▁her	-8.41618
op	-8.41709
ων	-8.41729
a,	-8.41859
ál	-8.42045
▁δεν	-8.42062
ato	-8.42066
▁dei	-8.42069
τα	-8.424
ě	-8.42455
ger	-8.42504
ów	-8.42542
τ	-8.42597
del	-8.4265
▁vis	-8.42738
E	-8.42814
▁Pa	-8.42894
▁ten	-8.42992
▁uz	-8.4309
▁heeft	-8.43119
▁problem	-8.43214
rá	-8.43461
▁euro	-8.43532
ft	-8.43584
io	-8.43591
γ	-8.43768
x	-8.43832
▁mis	-8.44118
▁ud	-8.44375
ώ	-8.44393
▁sono	-8.44508
έ	-8.44542
est	-8.44566
к	-8.44601
▁sich	-8.44935
ido	-8.44983
sk	-8.45042
es,	-8.45213
elle	-8.4558
▁οι	-8.45587
▁am	-8.45611
ting	-8.45708
▁cu	-8.4579
▁vo	-8.45952
▁europea	-8.46573
на	-8.46669
▁sta	-8.46903
▁wij	-8.47098
A	-8.47165
▁Presidente,	-8.47411
▁Ma	-8.4757
leg	-8.47664
▁Ich	-8.4768
▁wie	-8.47707
gy	-8.47717
1	-8.47723
▁us	-8.47985
▁detta	-8.48031
▁han	-8.48251
β	-8.48289
ban	-8.48291
▁Comisión	-8.48371
▁sind	-8.48411
▁Na	-8.48475
▁ut	-8.48506
azione	-8.48515
▁ré	-8.48809
▁προ	-8.4907
▁moeten	-8.49251
▁по	-8.49332
ement	-8.49428
ра	-8.49434
▁Un	-8.49512
▁Commissie	-8.4955
ine	-8.49704
vol	-8.4981
"	-8.50114
▁hat	-8.50272
ji	-8.50349
▁como	-8.50486
for	-8.50727
är	-8.50741
ande	-8.51077
ai	-8.51079
fi	-8.51135
▁ter	-8.51318
au	-8.5151
fer	-8.51677
▁sp	-8.5223
we	-8.5263
sz	-8.52651
het	-8.52688
ł	-8.52845
я	-8.52953
i.	-8.52998
æ	-8.53106
ité	-8.53309
mos	-8.53387
▁Den	-8.53469
ll	-8.53593
imo	-8.53633
▁Het	-8.53737
ons	-8.53769
cia	-8.53784
ties	-8.53827
▁ju	-8.53833
ite	-8.53986
uje	-8.5399
▁ab	-8.54041
▁også	-8.54149
▁mu	-8.54242
ε	-8.54322
▁nel	-8.54577
eg	-8.54648
▁τους	-8.54923
ně	-8.54991
mer	-8.55024
kon	-8.55102
▁fi	-8.55216
▁eller	-8.5525
ach	-8.55265
▁ved	-8.55322
ale	-8.55372
δ	-8.55399
ö	-8.55478
▁sie	-8.55677
pe	-8.55718
ici	-8.55788
tra	-8.55841
▁sch	-8.56033
▁also	-8.56047
end	-8.56368
▁or	-8.56427
▁şi	-8.56994
▁come	-8.57563
er.	-8.57589
▁aux	-8.57606
▁questo	-8.57741
ία	-8.57789
▁dar	-8.57939
▁européenne	-8.57983
▁val	-8.58229
ši	-8.58233
0	-8.58311
var	-8.58732
ering	-8.58788
dy	-8.58792
▁се	-8.58903
▁l'a	-8.59058
ring	-8.59191
ab	-8.59226
ag	-8.59284
tar	-8.59343
▁Europäische	-8.59348
ner	-8.59349
che	-8.60087
▁door	-8.60203
a.	-8.60264
ισ	-8.60309
▁cette	-8.60529
ens	-8.60546
S	-8.60556
▁į	-8.6056
▁%	-8.60622
pen	-8.60797
▁più	-8.60813
▁ca	-8.60835
min	-8.60867
▁U	-8.6091
ý	-8.61102
ligt	-8.61129
/	-8.61172
▁tot	-8.61343
▁bij	-8.61425
▁No	-8.61451
2	-8.61527
vé	-8.61651
е	-8.6173
▁måste	-8.61918
ente	-8.61952
▁gli	-8.62109
man	-8.62131
▁ze	-8.62208
▁sein	-8.62215
▁tre	-8.62233
▁τον	-8.6227
▁Ne	-8.62328
nak	-8.62411
▁Ko	-8.62565
od	-8.62619
8	-8.62903
▁meg	-8.63205
▁maar	-8.63291
▁Kommission	-8.63614
▁1	-8.637
▁år	-8.63762
či	-8.639
ndo	-8.63948
stan	-8.64111
▁jo	-8.64175
6	-8.64432
cht	-8.64501
par	-8.64522
▁parte	-8.64531
fic	-8.64718
▁Me	-8.64774
▁mod	-8.64867
nia	-8.64908
P	-8.6494
▁ga	-8.65023
's	-8.65078
cie	-8.65226
▁ont	-8.65254
zo	-8.6539
л	-8.6561
ες	-8.65734
▁aby	-8.65809
iem	-8.65899
▁πρέπει	-8.66091
bar	-8.66254
▁plan	-8.66313
án	-8.66344
gt	-8.66391
per	-8.66432
▁bei	-8.6644
è	-8.66594
▁rapport	-8.66688
ва	-8.66825
ada	-8.6684
ide	-8.66941
▁sin	-8.66963
▁inter	-8.66994
stat	-8.67104
ry	-8.67152
und	-8.67346
▁Er	-8.67352
ld	-8.67438
té	-8.67499
ati	-8.67512
bb	-8.67538
▁dell'	-8.67593
▁N	-8.67617
ion	-8.67641
pro	-8.67652
tie	-8.67792
ance	-8.67792
▁pie	-8.67952
▁sou	-8.67989
▁ο	-8.68125
▁werden	-8.68252
ás	-8.68417
▁tak	-8.68422
sten	-8.686
igen	-8.68832
idad	-8.68878
ές	-8.6897
▁ú	-8.68986
by	-8.6899
г	-8.6905
át	-8.69055
av	-8.69182
▁entre	-8.69303
fa	-8.69343
7	-8.69358
▁się	-8.6939
ec	-8.69487
▁ch	-8.69499
▁δια	-8.69561
▁would	-8.69612
ме	-8.69672
pre	-8.69948
▁Commissione	-8.69973
▁sont	-8.70674
▁important	-8.71075
▁е	-8.71121
▁kom	-8.71501
▁στο	-8.71621
μα	-8.71747
ουν	-8.71778
▁pi	-8.71836
tte	-8.71899
▁zo	-8.72112
ου	-8.72189
▁politik	-8.72494
▁pu	-8.72552
▁συν	-8.72747
▁dag	-8.7281
ø	-8.72968
▁Al	-8.72972
des	-8.73017
ade	-8.73046
▁vid	-8.73149
▁d'un	-8.73174
▁hier	-8.73195
▁wordt	-8.73335
▁parti	-8.73648
lich	-8.73702
lle	-8.73903
iti	-8.73998
▁nem	-8.74141
ers	-8.74227
tud	-8.74244
▁że	-8.74263
met	-8.74316
ego	-8.74321
▁pos	-8.74414
ler	-8.74475
ži	-8.7461
▁Ge	-8.74863
▁son	-8.74874
▁š	-8.74932
ità	-8.75009
sp	-8.75134
▁should	-8.75253
▁ser	-8.75334
sse	-8.75702
red	-8.75758
ky	-8.75803
▁tal	-8.75896
▁UE	-8.7606
▁importante	-8.76232
▁anche	-8.76498
▁europeo	-8.76837
ssen	-8.76882
zioni	-8.76908
ουμε	-8.77019
nych	-8.77186
▁Europe	-8.77347
led	-8.77348
u,	-8.77415
▁Da	-8.77419
▁3	-8.77479
▁denne	-8.77498
C	-8.7751
▁daß	-8.7766
▁wy	-8.77663
ć	-8.77753
3	-8.77827
▁Mi	-8.77885
▁For	-8.77981
es.	-8.78055
▁över	-8.78127
▁kunnen	-8.78603
▁st	-8.78617
ran	-8.78709
▁Euroopa	-8.78983
▁El	-8.79019
▁fin	-8.7907
4	-8.79112
▁vol	-8.79201
▁iš	-8.79281
tas	-8.7938
▁dan	-8.7945
igt	-8.79459
N	-8.79683
nes	-8.7976
les	-8.79809
lik	-8.79822
▁egy	-8.79903
▁from	-8.80048
▁care	-8.80183
▁ke	-8.8019
zen	-8.80259
kom	-8.80266
O	-8.80275
▁upp	-8.8034
▁haben	-8.80426
▁can	-8.80637
▁aus	-8.81076
▁avec	-8.81244
ül	-8.81445
ata	-8.81449
bre	-8.81467
▁från	-8.81649
gli	-8.8179
ją	-8.81791
nce	-8.81848
▁αυτό	-8.82163
▁ba	-8.82169
▁Ta	-8.82174
ės	-8.82383
mb	-8.82436
▁car	-8.82471
в	-8.82485
▁but	-8.8263
iamo	-8.82728
sel	-8.82927
▁Si	-8.83148
unk	-8.83259
use	-8.83572
▁must	-8.83636
▁Kommissionen	-8.83664
ciones	-8.83684
▁our	-8.83764
tel	-8.83995
con	-8.84096
▁moet	-8.84133
o,	-8.84263
för	-8.84302
▁dette	-8.84346
ée	-8.84373
▁zur	-8.84424
ime	-8.84596
▁Wir	-8.84639
ře	-8.84649
▁l	-8.84713
▁question	-8.84714
▁4	-8.84715
nek	-8.84959
D	-8.85095
my	-8.85221
▁tu	-8.85255
▁skulle	-8.85266
lé	-8.85387
▁ro	-8.8556
▁produc	-8.85582
ли	-8.85593
ст	-8.8561
▁Unión	-8.85705
ez	-8.85809
ity	-8.85809
ili	-8.85839
sion	-8.86061
▁invest	-8.86073
eren	-8.86601
nej	-8.8663
mis	-8.86693
▁Nous	-8.87054
▁kas	-8.8707
▁Ha	-8.87224
▁Unie	-8.87353
▁mais	-8.87441
▁budget	-8.87606
ski	-8.87683
ina	-8.87701
ische	-8.8771
gar	-8.87751
į	-8.87781
ida	-8.87886
▁contra	-8.87905
M	-8.87913
ség	-8.88131
ση	-8.88345
▁være	-8.88363
▁he	-8.88417
9	-8.88479
th	-8.88702
ť	-8.88777
▁strategi	-8.88782
ού	-8.88881
ár	-8.88917
prav	-8.89075
ved	-8.89115
tor	-8.89323
og	-8.89353
▁ces	-8.89393
θε	-8.89398
▁απο	-8.89483
▁onder	-8.89531
itet	-8.89584
”	-8.8978
lige	-8.89815
▁dal	-8.89849
ingen	-8.90171
▁sz	-8.9024
ná	-8.90326
▁Member	-8.90447
cy	-8.90461
▁también	-8.90589
▁vill	-8.90828
qui	-8.90847
ка	-8.90874
▁just	-8.90902
▁pays	-8.91096
ct	-8.91104
▁ei	-8.91605
▁imp	-8.91616
▁că	-8.91641
dig	-8.91682
▁Sch	-8.91759
▁kommissionen	-8.91939
ите	-8.92095
▁αν	-8.92101
▁Ein	-8.92133
▁μια	-8.92161
ani	-8.92213
▁fo	-8.92464
▁com	-8.92492
▁sociale	-8.92585
ри	-8.92586
▁situation	-8.92799
▁Der	-8.92832
▁mot	-8.93085
▁trans	-8.93198
ít	-8.93473
▁ανα	-8.93573
▁region	-8.93648
▁Sie	-8.93671
▁εν	-8.93688
ική	-8.93771
ult	-8.93779
▁Monsieur	-8.93788
▁efter	-8.93852
▁sus	-8.93901
stand	-8.93966
▁roz	-8.93981
dan	-8.94007
▁Con	-8.94063
▁einer	-8.94092
vor	-8.94097
▁diese	-8.94133
▁mer	-8.94275
▁you	-8.94309
▁être	-8.9434
ais	-8.94398
zien	-8.94421
pu	-8.94556
▁pentru	-8.9459
▁d'a	-8.94642
enia	-8.94659
τη	-8.94818
ých	-8.94822
▁μας	-8.94981
▁essere	-8.95486
▁européen	-8.95548
▁kuri	-8.9597
▁EU-	-8.9603
hed	-8.9607
▁lu	-8.9611
qu	-8.9615
▁tik	-8.96316
▁inform	-8.96345
iv	-8.96401
ic	-8.96403
▁partner	-8.9652
▁εκ	-8.96703
▁So	-8.96703
tori	-8.96782
ungen	-8.96786
nih	-8.96801
▁real	-8.96807
▁point	-8.96847
ρα	-8.96954
не	-8.96992
▁pat	-8.97046
vid	-8.97105
▁nog	-8.9723
ima	-8.97394
▁fait	-8.97436
▁mar	-8.97496
ischen	-8.97624
ico	-8.97703
▁It	-8.97749
get	-8.97771
vel	-8.97774
▁comme	-8.98002
rea	-8.98015
▁Europea	-8.98065
▁informe	-8.98145
že	-8.98166
▁fel	-8.98232
▁Do	-8.98309
▁report	-8.98323
por	-8.98401
▁nos	-8.9842
▁ou	-8.98505
ust	-8.98575
▁bien	-8.98576
ein	-8.98692
▁Li	-8.98725
liga	-8.98731
▁more	-8.98733
▁не	-8.98913
▁need	-8.98993
tes	-8.98999
ím	-8.99087
cur	-8.9911
д	-8.99114
sko	-8.99125
▁5	-8.99143
▁också	-8.99194
pt	-8.99306
▁pré	-8.99362
▁vý	-8.99363
uto	-8.99377
στ	-8.9942
▁kell	-8.99685
р	-8.99707
▁problema	-8.99731
iert	-8.99741
ard	-8.99853
ľ	-8.99866
fe	-8.99974
▁Ε	-9.00037
cio	-9.00058
▁ru	-9.00062
y,	-9.00069
▁Ho	-9.00073
▁kun	-9.00092
▁wil	-9.00215
hi	-9.00481
▁andere	-9.00585
▁Parliament	-9.00645
richt	-9.00746
ß	-9.00777
▁și	-9.00837
▁Eiropas	-9.01023
▁zal	-9.01043
tur	-9.01093
▁integr	-9.01121
▁ska	-9.01355
▁när	-9.01394
▁transport	-9.0144
▁ben	-9.01484
▁been	-9.01563
else	-9.01597
▁Stati	-9.01766
▁jest	-9.0181
▁че	-9.02116
▁up	-9.02123
ių	-9.02161
▁present	-9.02211
з	-9.02213
let	-9.02223
vá	-9.02478
τε	-9.02538
τά	-9.02725
▁été	-9.02798
▁Europos	-9.02813
ām	-9.02817
▁Co	-9.0286
▁land	-9.02892
ando	-9.02929
▁cui	-9.0325
sam	-9.03342
fin	-9.03418
mit	-9.0349
▁εξ	-9.037
ét	-9.0396
änd	-9.03994
▁fond	-9.04074
ile	-9.04098
▁ale	-9.04117
ίας	-9.04126
ita	-9.04177
ných	-9.04299
▁parlament	-9.04301
▁é	-9.04309
lag	-9.04339
λα	-9.0437
ζ	-9.04606
stru	-9.04814
vu	-9.04958
son	-9.04969
▁far	-9.05044
stra	-9.05112
hu	-9.05143
▁få	-9.05216
ło	-9.05277
▁J	-9.05301
sión	-9.05356
▁Estados	-9.05371
▁ένα	-9.05411
▁vien	-9.05412
ett	-9.05488
kl	-9.05539
ling	-9.05544
▁priorit	-9.05645
ano	-9.05709
ια	-9.05756
ξ	-9.05777
▁instrument	-9.058
ţi	-9.0584
▁President,	-9.06022
▁os	-9.06032
▁mig	-9.06253
▁fu	-9.06353
nje	-9.06453
λη	-9.06569
▁Ka	-9.06857
▁jak	-9.06875
▁Por	-9.06928
▁Voorzitter,	-9.07072
▁Mo	-9.0716
iť	-9.07162
▁pl	-9.07203
▁selle	-9.0725
▁müssen	-9.0728
▁certain	-9.07303
ica	-9.07374
▁möchte	-9.07465
recht	-9.07498
nosti	-9.07514
▁κ	-9.07596
▁gen	-9.07601
fen	-9.07748
tions	-9.07801
wo	-9.07992
pon	-9.0813
ла	-9.08139
ott	-9.08162
▁politique	-9.08246
▁Per	-9.08308
▁2	-9.08348
▁jā	-9.0857
αν	-9.08578
T	-9.08628
▁base	-9.0865
ania	-9.08694
ure	-9.08811
▁tr	-9.08992
tto	-9.09127
ко	-9.09127
ле	-9.09277
▁Aus	-9.09347
▁Bericht	-9.09385
▁política	-9.09406
▁bu	-9.09451
▁form	-9.0946
če	-9.09475
▁wird	-9.09486
ction	-9.09513
com	-9.09715
ību	-9.09802
’	-9.09963
▁sk	-9.10079
λε	-9.10132
ht	-9.10183
▁Com	-9.10282
▁waar	-9.10304
▁ti	-9.10351
lor	-9.10382
än	-9.10477
ker	-9.10602
ô	-9.10611
▁nach	-9.1075
▁hun	-9.10795
ți	-9.1085
lse	-9.10908
▁mycket	-9.10918
art	-9.11074
▁vous	-9.11145
▁Sa	-9.11151
lt	-9.11166
vin	-9.11217
ής	-9.11246
▁kr	-9.11248
▁noch	-9.11331
▁even	-9.11453
▁wat	-9.11561
ен	-9.1157
ον	-9.11579
▁einen	-9.11621
front	-9.11835
▁må	-9.11976
▁durch	-9.12003
εται	-9.12003
ám	-9.12084
▁St	-9.12135
▁dieser	-9.12244
▁pra	-9.12424
▁hvor	-9.12481
G	-9.12575
āk	-9.12605
▁verslag	-9.12639
▁Pro	-9.12727
▁debate	-9.12837
▁respect	-9.12852
▁vores	-9.12939
▁relazione	-9.12977
▁dire	-9.13036
lla	-9.13039
ef	-9.13103
▁system	-9.13108
▁20	-9.13117
▁vara	-9.13118
ér	-9.13156
▁global	-9.13214
▁bet	-9.13265
ito	-9.13356
▁Α	-9.13406
ör	-9.13502
ré	-9.13525
▁tale	-9.13561
▁στη	-9.13662
bil	-9.13711
ви	-9.13718
tta	-9.13815
▁like	-9.13869
▁kur	-9.13886
tri	-9.13902
form	-9.14026
▁qu'il	-9.14039
cer	-9.14066
nte	-9.14156
iska	-9.14291
%	-9.14294
ap	-9.14312
▁States	-9.14343
▁zá	-9.14362
ante	-9.14449
▁tout	-9.14519
▁denna	-9.14526
у	-9.14572
▁prze	-9.14848
dz	-9.14931
▁stat	-9.14973
▁cre	-9.15049
pra	-9.15084
mise	-9.15106
ées	-9.15123
▁onze	-9.15146
lä	-9.15449
ding	-9.1553
▁zich	-9.15533
▁10	-9.15751
L	-9.15758
▁ε	-9.15834
▁zou	-9.16068
br	-9.16156
▁meget	-9.16282
encia	-9.16334
rie	-9.16376
▁už	-9.16524
▁degli	-9.16543
uk	-9.16557
ces	-9.16561
tin	-9.1664
V	-9.16765
atie	-9.16772
▁mon	-9.16848
▁l'Union	-9.16869
▁sú	-9.16923
icht	-9.16925
▁gi	-9.16967
де	-9.1698
▁Man	-9.16998
R	-9.1704
▁Conseil	-9.17132
▁vote	-9.17188
▁naar	-9.17201
▁hi	-9.1728
cul	-9.17282
rij	-9.17371
▁område	-9.17377
▁Consejo	-9.17527
▁Ar	-9.17544
▁membres	-9.17669
F	-9.17671
▁sia	-9.17725
▁reform	-9.17731
▁rapporteur	-9.1778
▁questa	-9.17923
▁L	-9.17949
ex	-9.17954
▁my	-9.17974
▁Bu	-9.18011
kre	-9.18037
▁Council	-9.18068
heid	-9.18316
port	-9.18465
ła	-9.18466
οι	-9.18473
▁Consiglio	-9.18499
ре	-9.18652
ευ	-9.18676
▁Señor	-9.18703
▁out	-9.18893
miento	-9.18922
mas	-9.19011
szt	-9.19083
▁Hr.	-9.19089
slag	-9.19115
ро	-9.19205
▁Men	-9.19206
▁σ	-9.19212
▁finans	-9.19219
▁meer	-9.19382
dos	-9.19429
kov	-9.1947
bli	-9.19497
år	-9.19535
▁modo	-9.1964
▁part	-9.19675
▁Parlamentet	-9.19757
▁membri	-9.1976
▁energi	-9.19916
▁Euro	-9.19923
▁programme	-9.19944
én	-9.19965
tive	-9.20016
▁their	-9.20024
▁economic	-9.20257
ym	-9.20333
amos	-9.20382
uti	-9.20444
ś	-9.20465
ame	-9.20487
▁Su	-9.20613
▁Raad	-9.20628
ih	-9.20673
ute	-9.20933
hold	-9.20968
▁sector	-9.20973
lá	-9.20981
▁dėl	-9.21026
έρ	-9.21038
▁19	-9.21121
teil	-9.21138
ēt	-9.21165
tet	-9.21203
σε	-9.21214
ului	-9.21245
▁L'	-9.2133
ū	-9.21341
ria	-9.21399
▁Pre	-9.21427
▁mai	-9.21481
▁raz	-9.21554
duc	-9.21565
▁États	-9.21745
pie	-9.21771
▁miembros	-9.22004
iteit	-9.22013
king	-9.22038
ika	-9.22066
gre	-9.22076
ικό	-9.22187
ön	-9.22347
tek	-9.22422
mon	-9.22441
▁pred	-9.2248
bu	-9.22493
ctiv	-9.22505
ās	-9.22526
▁ai	-9.22714
το	-9.22743
nza	-9.22765
enie	-9.23052
o.	-9.23077
▁program	-9.23089
▁Président,	-9.23206
▁nella	-9.23366
▁sub	-9.23431
▁oss	-9.23464
eerd	-9.23534
▁leg	-9.23607
▁there	-9.23635
▁sam	-9.23641
00	-9.23644
▁při	-9.23656
▁its	-9.2379
во	-9.23911
nost	-9.24024
and	-9.24046
▁politica	-9.24074
▁également	-9.24106
▁przy	-9.24192
itu	-9.24252
▁έ	-9.24281
hl	-9.24352
▁R	-9.24443
▁very	-9.24598
▁6	-9.24653
med	-9.24727
▁geen	-9.24756
▁spo	-9.24797
▁tro	-9.24911
mine	-9.24933
▁δ	-9.24968
ούμε	-9.2498
▁acc	-9.25094
▁forma	-9.25147
d.	-9.25194
spe	-9.2524
ich	-9.25338
▁grund	-9.25454
vě	-9.25456
ast	-9.25458
▁mil	-9.25558
▁απ	-9.25569
▁rätt	-9.25637
▁ning	-9.25697
▁κατά	-9.25746
▁disse	-9.25749
ega	-9.25753
▁ihre	-9.25771
▁other	-9.25919
▁hr.	-9.25934
ве	-9.26004
sso	-9.26033
ug	-9.26095
ти	-9.26128
▁här	-9.26484
elt	-9.26512
ssa	-9.26632
tag	-9.26659
ría	-9.26735
rán	-9.26757
ifi	-9.268
▁go	-9.26879
aux	-9.2688
et.	-9.26895
▁Ro	-9.26983
▁projekt	-9.27014
bra	-9.2704
iva	-9.2707
ell	-9.2709
▁(DE)	-9.27141
б	-9.27154
arna	-9.2717
nk	-9.27213
vie	-9.27226
▁This	-9.27344
nik	-9.27346
▁pot	-9.27366
▁Kon	-9.27376
▁tid	-9.27392
ká	-9.27404
й	-9.27533
vet	-9.27558
mento	-9.27574
kommen	-9.27683
dien	-9.2774
/20	-9.27743
vä	-9.28038
▁fram	-9.28058
▁Signor	-9.28114
▁För	-9.28206
log	-9.28207
tage	-9.28248
bie	-9.28383
σι	-9.28423
tų	-9.28438
aus	-9.28473
jų	-9.28529
et,	-9.28559
res	-9.28586
dom	-9.28609
▁Ju	-9.2865
▁Ce	-9.28738
eux	-9.28789
▁fl	-9.2879
up	-9.28871
▁andra	-9.28894
▁diesem	-9.28943
B	-9.28944
▁Bo	-9.29
▁ret	-9.29038
▁Das	-9.29133
▁Frau	-9.29143
usi	-9.29184
▁mes	-9.29218
▁handel	-9.29225
ifica	-9.29247
politik	-9.29253
▁Europeiska	-9.29286
▁Mar	-9.29365
▁nad	-9.29489
▁paesi	-9.29491
▁princip	-9.29587
▁ES	-9.29669
ique	-9.29669
▁из	-9.29755
▁ris	-9.29788
▁nur	-9.29846
▁7	-9.29864
▁aussi	-9.29875
▁tā	-9.29892
▁ny	-9.30078
▁Au	-9.30138
▁Ab	-9.3021
▁debat	-9.3024
one	-9.30254
ych	-9.30264
▁punkt	-9.3038
oč	-9.30383
nden	-9.30401
▁d’	-9.30404
ieren	-9.30422
▁faire	-9.30532
u.	-9.30534
▁war	-9.30572
ení	-9.30666
κα	-9.30761
▁stor	-9.30873
▁spe	-9.30935
ble	-9.30943
▁kann	-9.30957
▁quanto	-9.31016
▁συμ	-9.3103
ise	-9.31047
sak	-9.31075
▁stabil	-9.31107
▁svar	-9.31179
▁all'	-9.31227
age	-9.31274
nud	-9.31283
tten	-9.31332
▁ons	-9.31371
φορ	-9.31401
ví	-9.31416
handel	-9.31471
▁mere	-9.31471
ς.	-9.31535
▁Di	-9.31567
▁one	-9.31628
▁kā	-9.31673
▁lid	-9.31792
att	-9.31873
να	-9.31905
▁Ca	-9.31936
▁países	-9.31989
τι	-9.32007
vers	-9.32095
nos	-9.32452
ję	-9.32498
kel	-9.32596
▁pār	-9.32616
▁who	-9.32689
▁gäller	-9.32784
▁fe	-9.32806
alt	-9.32977
▁στις	-9.32998
sku	-9.33018
tivo	-9.3305
ive	-9.33063
▁(EN)	-9.33153
▁these	-9.33219
▁s'	-9.33237
stre	-9.33305
▁werk	-9.33323
ság	-9.33401
ind	-9.33443
▁public	-9.33531
olu	-9.33541
▁lidstaten	-9.33601
▁general	-9.33653
▁unter	-9.33691
ības	-9.33756
▁περι	-9.33779
▁internationale	-9.33802
akt	-9.33844
▁yra	-9.3391
pl	-9.33974
▁vel	-9.34064
▁punto	-9.34178
U	-9.34193
▁dom	-9.34219
▁nei	-9.3429
col	-9.34377
ρί	-9.34379
▁lä	-9.34394
ub	-9.34457
▁time	-9.34549
▁15	-9.34575
sione	-9.34583
af	-9.34653
▁bør	-9.34653
▁Mijnheer	-9.34664
▁tegen	-9.34744
▁dessa	-9.34797
van	-9.34802
cen	-9.34867
▁state	-9.34899
▁wenn	-9.35012
fri	-9.3506
▁nationale	-9.35218
ron	-9.35248
las	-9.3546
ologi	-9.3546
▁gerne	-9.35498
▁proces	-9.35578
▁frem	-9.35681
▁sulla	-9.35687
lar	-9.3578
▁ste	-9.35877
▁støtte	-9.35893
pla	-9.36059
▁countries	-9.36061
▁caso	-9.36075
▁mal	-9.36093
▁tai	-9.36144
▁genom	-9.36175
▁ná	-9.36192
▁divers	-9.36358
▁tur	-9.3639
▁Az	-9.365
▁aber	-9.3657
▁zum	-9.36574
▁hand	-9.36586
s-	-9.36651
▁tar	-9.36673
▁ty	-9.36685
scri	-9.36711
ini	-9.3672
▁Vor	-9.36783
▁hen	-9.36803
▁sistema	-9.3689
▁br	-9.36916
▁see	-9.37038
ace	-9.37056
▁consider	-9.37146
▁Επιτροπή	-9.37164
ør	-9.37263
heden	-9.37294
λι	-9.37313
▁arī	-9.37342
▁οποία	-9.37365
▁Sp	-9.37397
mission	-9.37421
▁Komisija	-9.37425
▁Ti	-9.37448
▁Ch	-9.37479
▁cer	-9.37496
▁control	-9.37566
▁about	-9.37625
sche	-9.37633
▁sehr	-9.3782
▁8	-9.37848
▁gener	-9.37877
▁end	-9.37982
yb	-9.3801
▁κατα	-9.38186
▁what	-9.38208
menti	-9.38263
▁formand,	-9.38354
skab	-9.38407
tí	-9.38472
K	-9.38488
â	-9.38508
iek	-9.38578
▁Wij	-9.38617
▁при	-9.38643
ните	-9.38651
▁res	-9.38686
ικά	-9.38782
ah	-9.38787
ρω	-9.3882
pos	-9.38835
amento	-9.38909
eva	-9.38937
ving	-9.3894
▁din	-9.38952
▁werden.	-9.38978
▁Rådet	-9.39008
▁notre	-9.39051
her	-9.39055
▁support	-9.39148
▁regering	-9.39262
▁Ja	-9.39365
ší	-9.39414
πα	-9.39454
▁unsere	-9.39484
ía	-9.39498
isk	-9.3954
▁sul	-9.39607
εύ	-9.39641
▁φ	-9.39656
ιο	-9.39682
▁ku	-9.39697
int	-9.3982
▁they	-9.39823
▁pero	-9.39928
▁refer	-9.40018
▁tanto	-9.4003
▁give	-9.40033
ж	-9.40044
ations	-9.40062
▁hanno	-9.4008
▁tutti	-9.40093
▁wo	-9.40118
ма	-9.40269
▁oder	-9.40295
▁daar	-9.40322
▁now	-9.4039
oc	-9.4039
fond	-9.40448
ordning	-9.40486
gna	-9.40526
▁naj	-9.40535
mat	-9.40622
vat	-9.40636
ario	-9.40753
▁propuesta	-9.40838
▁accord	-9.40842
dra	-9.40844
▁tem	-9.40851
ονται	-9.4088
aal	-9.40898
lijk	-9.41028
vy	-9.41033
nar	-9.41087
▁ide	-9.4113
gra	-9.41134
▁uns	-9.41172
▁sme	-9.41185
▁ktoré	-9.41212
▁έχει	-9.41239
▁text	-9.41291
▁Te	-9.41295
ния	-9.41351
▁information	-9.41368
că	-9.41451
▁Mitgliedstaaten	-9.41522
ný	-9.41572
tant	-9.41598
jí	-9.41665
plan	-9.41714
dem	-9.41735
▁human	-9.41748
▁aj	-9.41763
▁compl	-9.41774
ч	-9.41849
▁adopt	-9.41893
▁sektor	-9.41989
▁stra	-9.42027
mar	-9.42042
ori	-9.42043
ær	-9.4212
▁än	-9.42186
jem	-9.42211
nic	-9.42293
ék	-9.42332
▁mål	-9.42334
ş	-9.42344
▁vers	-9.42364
▁même	-9.42372
dere	-9.42392
▁veel	-9.42398
▁solo	-9.42414
rà	-9.42448
▁tas	-9.42601
ök	-9.42634
isation	-9.42691
tat	-9.42692
▁Les	-9.42785
īt	-9.4281
▁leur	-9.42828
▁bez	-9.42841
▁bude	-9.42857
▁Ba	-9.4287
ünk	-9.42972
▁även	-9.43094
▁до	-9.4322
▁ban	-9.43227
▁práv	-9.43229
▁M.	-9.43256
ίες	-9.43296
▁proposition	-9.43319
ň	-9.43339
▁had	-9.43446
tos	-9.43459
ορ	-9.43549
▁landen	-9.43647
ρι	-9.43741
ű	-9.4377
▁2009	-9.43799
▁grande	-9.43833
▁Europees	-9.43946
ró	-9.43983
nge	-9.44
dre	-9.44012
nova	-9.4402
▁poz	-9.4404
ies	-9.44045
▁avons	-9.44079
ster	-9.44094
▁Med	-9.44137
▁12	-9.44204
▁muy	-9.44256
lande	-9.44293
▁gran	-9.44308
▁υπο	-9.44309
ible	-9.44433
▁Dat	-9.44442
▁national	-9.44471
gel	-9.44487
ningen	-9.44506
▁Komisi	-9.44591
▁ji	-9.44604
nou	-9.44686
▁doit	-9.44741
βα	-9.44875
ill	-9.44929
kor	-9.44931
▁sto	-9.4501
▁μ	-9.4502
▁αλλά	-9.45143
▁exist	-9.45222
vär	-9.45259
▁loro	-9.4537
line	-9.4539
gang	-9.45419
▁utan	-9.45444
ted	-9.4556
▁unionen	-9.45634
▁Π	-9.45806
tura	-9.46077
bro	-9.46092
raz	-9.46171
▁people	-9.46171
ért	-9.46227
▁000	-9.46227
▁cas	-9.46359
drag	-9.46643
nem	-9.4669
▁Σ	-9.468
ern	-9.46839
▁fri	-9.46841
še	-9.46879
išk	-9.46929
ování	-9.46946
ša	-9.47141
iga	-9.47165
▁contribu	-9.47262
νο	-9.47347
ovat	-9.47436
vez	-9.47511
ait	-9.4754
▁Recht	-9.47721
as,	-9.47747
▁pris	-9.47795
sid	-9.47832
▁tous	-9.47896
▁Πρόεδρε,	-9.47903
tig	-9.47953
▁très	-9.48058
▁nav	-9.4807
▁gr	-9.48077
▁fru	-9.48092
▁där	-9.48157
stri	-9.48196
imą	-9.48239
fra	-9.48246
ég	-9.48261
▁total	-9.48293
▁garanti	-9.483
til	-9.48563
▁jau	-9.48576
▁new	-9.48618
put	-9.48628
▁ven	-9.48647
▁está	-9.48659
▁prav	-9.48759
▁directive	-9.48879
х	-9.48924
▁αυτή	-9.48949
ολ	-9.48957
iske	-9.48994
▁todos	-9.49017
uta	-9.49295
▁mellem	-9.49321
▁kar	-9.49351
pad	-9.49467
▁11	-9.4948
▁rol	-9.4957
▁niveau	-9.49732
▁forslag	-9.49739
▁chi	-9.49882
mpli	-9.49936
ди	-9.50056
▁aspect	-9.50076
dus	-9.50163
vad	-9.50192
▁lai	-9.50209
▁väl	-9.50246
▁heb	-9.50253
ür	-9.50298
▁todo	-9.50316
▁Evropsk	-9.5032
▁wichtig	-9.50328
ούν	-9.50348
▁He	-9.50357
▁finns	-9.50366
▁Europeo	-9.50421
ъ	-9.50457
▁recht	-9.50521
tim	-9.50579
tif	-9.50612
κο	-9.50769
cí	-9.50795
▁rådet	-9.50823
area	-9.50836
ambi	-9.50902
▁fatto	-9.50931
dzi	-9.50984
▁mijn	-9.50996
chen	-9.51071
▁cent	-9.51104
nim	-9.51122
▁või	-9.51176
hör	-9.51229
▁Som	-9.51315
νομ	-9.51338
▁hu	-9.5137
▁göra	-9.51372
»	-9.51487
п	-9.5157
▁defini	-9.51588
vien	-9.51595
liche	-9.51661
rod	-9.51681
bor	-9.51802
ert	-9.51809
▁fast	-9.51874
▁gøre	-9.5189
hen	-9.51948
▁skall	-9.52059
▁travail	-9.52071
gri	-9.52109
▁β	-9.5211
gh	-9.52198
▁Ni	-9.523
tā	-9.52311
tă	-9.5235
▁As	-9.52426
▁keine	-9.52497
▁toe	-9.52525
mist	-9.52647
y.	-9.52665
τρ	-9.52736
▁klar	-9.52799
▁señor	-9.52802
sky	-9.52819
▁mēs	-9.52835
ono	-9.52922
ους	-9.52978
▁policy	-9.53055
▁tema	-9.53059
▁god	-9.53176
halten	-9.53198
▁only	-9.53203
ture	-9.53266
uit	-9.53329
▁Ra	-9.53418
▁On	-9.53439
▁πολύ	-9.53509
▁spre	-9.53524
gg	-9.53533
▁want	-9.53611
lem	-9.53721
zy	-9.53735
ungs	-9.53752
▁Lo	-9.53758
zza	-9.53785
ικές	-9.53858
▁inom	-9.53863
▁kui	-9.5388
▁helt	-9.53904
ados	-9.54041
ké	-9.54076
▁cost	-9.5441
oli	-9.54437
ūt	-9.54513
▁civil	-9.54636
▁pr	-9.54642
▁term	-9.54644
▁acest	-9.54766
▁Qu	-9.5478
▁про	-9.54782
nnen	-9.54795
▁acuerdo	-9.54795
▁nä	-9.54861
με	-9.54922
lement	-9.54986
▁muss	-9.55039
ama	-9.55123
▁mehr	-9.55124
▁wel	-9.55203
λο	-9.55269
rat	-9.55332
cent	-9.55342
▁παρ	-9.55383
zna	-9.55443
prend	-9.55459
би	-9.55475
▁zullen	-9.55478
▁(FR)	-9.55494
▁Pri	-9.55505
das	-9.55524
niu	-9.5557
▁situ	-9.55655
▁2000	-9.55679
kas	-9.55774
▁issue	-9.55786
▁pan	-9.5585
rze	-9.55855
▁ist,	-9.55979
gne	-9.55996
▁2008	-9.56125
▁μου	-9.56151
ρε	-9.56188
▁får	-9.56258
▁make	-9.56264
▁deres	-9.5631
table	-9.56334
rg	-9.56401
ovať	-9.56421
ív	-9.56439
▁Za	-9.56441
ци	-9.56502
θεί	-9.56538
nega	-9.56563
ions	-9.56728
▁willen	-9.56821
▁στα	-9.56847
ικ	-9.56868
▁vast	-9.5687
nti	-9.56874
▁Nu	-9.56976
▁są	-9.57107
ijos	-9.57154
▁rest	-9.57235
elijk	-9.5724
▁bör	-9.57263
▁ako	-9.57275
▁sätt	-9.5728
nego	-9.57313
▁οποίο	-9.57318
pet	-9.57347
▁eftersom	-9.57367
▁pen	-9.57425
endo	-9.57441
▁einem	-9.57443
vil	-9.57465
▁mening	-9.57492
▁Presidente	-9.57549
ικών	-9.57553
▁būti	-9.57556
dat	-9.5758
kla	-9.5763
▁final	-9.57634
üh	-9.57666
īv	-9.57699
δο	-9.57855
▁proposal	-9.57942
▁ansvar	-9.57948
ým	-9.57981
imas	-9.58016
aire	-9.58071
▁qu'	-9.58151
▁sådan	-9.58202
ņ	-9.58229
▁possible	-9.5825
▁because	-9.58276
▁heer	-9.58285
▁(A	-9.58307
▁work	-9.58398
▁un'	-9.58424
▁debe	-9.58488
ние	-9.58502
▁ak	-9.58529
▁Š	-9.58602
▁stöd	-9.58841
ať	-9.58862
▁lang	-9.59111
▁má	-9.59113
zon	-9.59115
πο	-9.59192
▁molto	-9.5928
▁meine	-9.59291
tik	-9.59324
▁Bi	-9.5934
zie	-9.59368
kri	-9.59431
over	-9.5968
▁lugar	-9.59697
▁direkt	-9.59745
staat	-9.59809
chten	-9.59817
▁επ	-9.59825
▁werden,	-9.59838
ακ	-9.59865
ging	-9.59912
rne	-9.59924
▁zij	-9.59933
mě	-9.60013
▁act	-9.60056
ικής	-9.60106
▁а	-9.60275
▁které	-9.60308
▁Min	-9.60311
▁devons	-9.60578
▁habe	-9.60601
ného	-9.60655
▁ur	-9.60688
aciones	-9.60792
▁о	-9.60799
ości	-9.60832
▁materia	-9.60878
▁parlamentet	-9.60888
▁9	-9.60944
▁če	-9.61027
lichen	-9.61041
▁lavoro	-9.61052
▁bara	-9.6123
▁sem	-9.61262
▁2020	-9.61289
▁2010	-9.61292
ερ	-9.61294
gan	-9.6131
ice	-9.61355
öl	-9.61376
car	-9.61416
▁επίσης	-9.6145
zia	-9.61528
▁take	-9.61605
▁hacer	-9.61619
svar	-9.6167
nas	-9.61672
sum	-9.61688
halt	-9.61721
▁place	-9.61728
▁politi	-9.61734
lí	-9.61805
▁effektiv	-9.61835
▁έκθεση	-9.61881
kke	-9.61954
▁europæiske	-9.62025
▁dalla	-9.62026
▁international	-9.62162
programm	-9.62177
▁Ru	-9.62186
▁vad	-9.62202
uni	-9.62312
▁sens	-9.62324
▁if	-9.62327
ří	-9.6248
▁tage	-9.62498
▁stato	-9.62505
▁import	-9.62539
pres	-9.6257
êt	-9.62571
ui	-9.62579
▁actual	-9.62594
los	-9.62692
▁prima	-9.62733
▁qua	-9.62885
áz	-9.62889
▁tratta	-9.62915
ront	-9.6299
▁teh	-9.63086
▁echter	-9.63153
tele	-9.63219
ιών	-9.6324
rov	-9.63269
tic	-9.63419
ob	-9.63462
▁wurde	-9.6347
▁financier	-9.63475
▁rad	-9.63479
lsen	-9.63482
▁раз	-9.63497
mai	-9.63517
▁mag	-9.63664
▁proti	-9.63687
▁blev	-9.63729
▁significa	-9.63917
▁ya	-9.63919
▁nieuwe	-9.63929
tica	-9.64015
gal	-9.64086
▁nuestra	-9.64115
▁Y	-9.64116
ināt	-9.64142
kend	-9.6416
▁Or	-9.64202
▁primer	-9.64277
liku	-9.64297
▁jaar	-9.64309
▁visa	-9.64378
▁Rat	-9.64537
lang	-9.64554
▁interven	-9.64644
▁šo	-9.64652
▁Arbeit	-9.64686
▁съ	-9.64806
▁element	-9.64835
▁dieses	-9.64837
▁ekonomi	-9.64859
чи	-9.64961
▁présent	-9.64977
▁most	-9.6498
▁such	-9.64987
ük	-9.65071
▁droits	-9.65072
czy	-9.65076
▁sku	-9.65105
▁uno	-9.65129
▁selv	-9.65143
nom	-9.65209
nio	-9.65254
▁év	-9.65361
▁spørgsmål	-9.65481
▁'	-9.65597
ful	-9.65622
▁kor	-9.65629
▁Sin	-9.65691
▁25	-9.65725
ého	-9.65768
▁zoals	-9.65795
isch	-9.658
ret	-9.65831
όρ	-9.65876
▁crisis	-9.65878
pan	-9.65905
▁στον	-9.6592
▁κ.	-9.66037
▁particular	-9.66161
▁γ	-9.66277
gé	-9.66282
▁mellan	-9.66317
▁pil	-9.66329
▁problém	-9.66337
ost	-9.66341
▁Európai	-9.66355
▁können	-9.66408
▁mums	-9.66431
▁momento	-9.66438
▁any	-9.66442
gro	-9.6646
λά	-9.66531
▁comuni	-9.6656
ijn	-9.6662
▁bio	-9.66874
σεις	-9.66876
mini	-9.66949
▁red	-9.66984
rob	-9.67016
▁ole	-9.67033
▁σχετικά	-9.6704
▁fact	-9.67062
▁gew	-9.67121
gr	-9.67264
▁potreb	-9.67268
▁cap	-9.67288
άρ	-9.67314
dob	-9.67325
▁fråga	-9.67426
▁προσ	-9.67427
▁diritti	-9.67461
▁belang	-9.67601
▁2007	-9.67615
▁Κ	-9.67633
▁tie	-9.67824
▁pak	-9.67837
rum	-9.67842
▁protection	-9.67914
▁30	-9.67936
ncia	-9.67995
▁interes	-9.67997
▁dla	-9.68028
vit	-9.68076
▁παρα	-9.68181
▁pří	-9.68187
▁Zu	-9.68225
▁moment	-9.68228
▁eigen	-9.68305
ły	-9.68311
ont	-9.68323
▁úr	-9.68342
▁contre	-9.68388
ψη	-9.68393
▁alleen	-9.68407
inti	-9.68447
ktion	-9.68459
▁ez	-9.68532
wij	-9.68541
isse	-9.68552
uma	-9.68553
τική	-9.68619
jas	-9.68622
bud	-9.68628
σα	-9.68653
▁futuro	-9.68747
azioni	-9.68805
▁ed	-9.68992
osti	-9.69043
▁forbindelse	-9.69053
▁rend	-9.69057
kra	-9.69064
▁hel	-9.69192
ino	-9.69224
▁tussen	-9.69383
▁návrh	-9.69384
iser	-9.69388
ual	-9.69449
αρ	-9.69451
udi	-9.69466
".	-9.69469
▁limit	-9.69471
wie	-9.6954
▁Non	-9.6957
▁dialog	-9.69674
▁esto	-9.69711
ák	-9.69731
▁kraj	-9.69773
▁programma	-9.69775
ș	-9.69782
schap	-9.69805
owa	-9.69908
▁Mon	-9.69986
nym	-9.70004
ετ	-9.7005
▁name	-9.70108
▁όπως	-9.70115
▁у	-9.70136
▁anser	-9.70145
▁bar	-9.70189
▁fr	-9.7021
ech	-9.70257
▁steun	-9.70314
▁pán	-9.70335
tain	-9.70337
▁trata	-9.70353
čia	-9.70358
▁perché	-9.70375
ním	-9.70392
▁tudi	-9.70446
ności	-9.70452
isti	-9.70495
emos	-9.705
▁amely	-9.7057
iche	-9.70639
mme	-9.70661
szer	-9.70695
ρο	-9.70714
fre	-9.70739
sty	-9.70776
▁hecho	-9.70799
▁maken	-9.7081
▁abbiamo	-9.70814
▁realiz	-9.70871
▁това	-9.7089
▁n'	-9.70959
as.	-9.71074
▁industri	-9.71134
▁sol	-9.71259
▁medlemsstater	-9.71276
▁(PL)	-9.71278
schi	-9.71295
▁które	-9.71301
▁bra	-9.71334
μη	-9.71346
tem	-9.71364
▁hin	-9.71404
stop	-9.7141
▁pla	-9.71476
▁his	-9.7148
▁ö	-9.71511
▁kunna	-9.71583
▁ως	-9.716
▁spol	-9.7163
▁ή	-9.71638
tér	-9.71661
fü	-9.7171
▁position	-9.71725
ř	-9.71787
ställ	-9.71792
ian	-9.71798
▁Μ	-9.71855
kning	-9.71889
imi	-9.71891
▁hvis	-9.71932
uri	-9.72035
klar	-9.72079
sbe	-9.721
▁ger	-9.7214
▁concret	-9.72185
▁beslut	-9.72207
▁14	-9.72211
ova	-9.72227
ari	-9.72268
spolitik	-9.72324
stellen	-9.72363
tó	-9.72385
σεων	-9.72415
▁politika	-9.72464
él	-9.72624
▁allt	-9.72708
▁bil	-9.72731
▁main	-9.72746
ident	-9.72772
▁puede	-9.72775
▁crea	-9.72853
lus	-9.72857
▁considera	-9.73061
δε	-9.73075
).	-9.73137
heit	-9.73182
▁talman!	-9.73209
▁vie	-9.73249
ży	-9.73274
▁finde	-9.73309
ργ	-9.73323
stelling	-9.73355
▁full	-9.73407
sætte	-9.73538
▁krit	-9.73564
σης	-9.73583
▁liv	-9.73633
▁arbejde	-9.73641
▁tv	-9.73683
▁positiv	-9.73685
▁fall	-9.73711
▁fælles	-9.73869
по	-9.73947
kar	-9.73952
▁sui	-9.74051
▁Το	-9.74066
ώς	-9.74109
▁mange	-9.74162
stu	-9.74201
iste	-9.74306
▁quali	-9.74318
ella	-9.74335
▁alt	-9.74336
▁person	-9.74339
▁oblasti	-9.74414
▁goed	-9.74467
ος	-9.74472
hal	-9.74486
▁Ο	-9.74682
▁plaats	-9.74707
▁str	-9.74798
▁favor	-9.74855
▁13	-9.74875
ány	-9.74927
ija	-9.7494
▁between	-9.75005
ivi	-9.75006
ят	-9.75121
▁standard	-9.75199
nut	-9.752
▁Η	-9.75228
ffen	-9.75246
▁ще	-9.75258
▁marché	-9.75309
tamente	-9.75415
tico	-9.75487
▁lie	-9.75528
▁politic	-9.75545
trag	-9.75597
ligen	-9.756
hy	-9.75612
▁fundamental	-9.75623
▁ΕΕ	-9.75624
ήσει	-9.75684
mand	-9.75686
▁voudrais	-9.7569
▁regional	-9.75773
ningar	-9.75844
elijke	-9.75865
nci	-9.75869
▁ville	-9.75881
▁those	-9.75884
pol	-9.75892
kaz	-9.75923
kus	-9.75947
πε	-9.75956
▁Om	-9.7597
▁αφορά	-9.76024
го	-9.76108
▁andre	-9.7627
▁proposta	-9.76386
га	-9.76404
zin	-9.76419
ary	-9.76456
ρά	-9.76475
▁say	-9.76521
▁propos	-9.76559
iendo	-9.76591
▁prí	-9.76642
▁peut	-9.7667
▁nes	-9.76677
▁teis	-9.76719
▁decision	-9.76765
▁Reg	-9.76831
υς	-9.76852
▁market	-9.769
ως	-9.76904
dad	-9.76905
▁jako	-9.76952
▁commission	-9.7696
▁into	-9.76966
▁l'in	-9.77009
cra	-9.77032
па	-9.77036
▁kunne	-9.77047
▁rec	-9.77082
▁kot	-9.7709
▁EUR	-9.77098
▁resultat	-9.77116
ną	-9.77156
rö	-9.77163
▁contro	-9.77184
▁organiz	-9.77257
▁Ten	-9.77347
▁voi	-9.77394
▁gebied	-9.77439
▁dokument	-9.77481
▁procedure	-9.77528
iel	-9.7756
οποι	-9.77582
▁cela	-9.77657
▁million	-9.77667
schaft	-9.77681
λή	-9.77689
inter	-9.77729
äng	-9.7774
weg	-9.77836
▁grote	-9.77836
▁duidelijk	-9.77844
yti	-9.77854
čas	-9.77895
▁praw	-9.77896
прав	-9.77922
ļ	-9.77966
▁tun	-9.77975
tique	-9.78046
▁vez	-9.78051
▁Κύριε	-9.7807
esse	-9.78185
▁concern	-9.7823
ktor	-9.78288
pak	-9.78298
▁ét	-9.7833
▁demokrati	-9.78345
bri	-9.78524
▁action	-9.78538
venir	-9.78543
ña	-9.78613
kol	-9.78632
▁bliver	-9.78658
▁développement	-9.7868
▁économique	-9.78768
▁direct	-9.78858
▁solidar	-9.78918
▁legal	-9.78942
almente	-9.78969
jam	-9.79082
ië	-9.79151
ink	-9.79238
▁Detta	-9.79239
▁ευ	-9.79244
▁inclu	-9.79274
▁mucho	-9.79293
▁Präsident,	-9.79298
▁udvikling	-9.79314
▁nye	-9.79322
cre	-9.79344
▁mí	-9.79346
middel	-9.79358
nă	-9.79392
remo	-9.79394
ket	-9.794
▁Mu	-9.7941
ppel	-9.79438
mal	-9.79485
punkt	-9.79588
ping	-9.79613
▁kontrol	-9.79616
▁vastu	-9.79631
ać	-9.79635
),	-9.79637
όν	-9.7975
▁elle	-9.79757
▁vai	-9.79792
bal	-9.79834
bla	-9.79847
▁Par	-9.79877
skap	-9.79894
▁üle	-9.79926
▁punt	-9.79983
▁gal	-9.80023
мо	-9.80042
▁immer	-9.80098
▁utveckling	-9.80106
ότητα	-9.8011
ας	-9.8013
▁suo	-9.80162
▁sviluppo	-9.80205
▁deve	-9.80223
▁Fru	-9.80239
▁col	-9.80287
eret	-9.80355
▁nombre	-9.80411
▁Dit	-9.80475
▁derechos	-9.80533
▁donc	-9.80581
▁έχουν	-9.80582
▁stellen	-9.80649
▁töö	-9.80661
▁betænkning	-9.80707
ndet	-9.80725
▁mij	-9.80748
▁dell'Unione	-9.80806
ната	-9.80856
dži	-9.80925
▁mille	-9.80932
λογ	-9.80981
▁when	-9.80987
eld	-9.81027
leid	-9.8103
▁slut	-9.81047
umu	-9.81265
aug	-9.81269
▁opera	-9.81304
enti	-9.81349
ød	-9.81362
▁chiar	-9.81397
▁vz	-9.81414
▁verk	-9.81456
▁mobil	-9.81504
jär	-9.81538
ūr	-9.81558
▁ram	-9.81592
ίου	-9.81594
lg	-9.81643
▁samt	-9.81646
ωση	-9.81647
ista	-9.81655
▁procent	-9.8166
tab	-9.81686
▁Rom	-9.81713
ред	-9.81714
▁groupe	-9.81763
plo	-9.81771
trä	-9.81795
▁way	-9.8186
▁offentlig	-9.81861
▁l'é	-9.8187
vant	-9.81879
kal	-9.819
rebbe	-9.81931
▁tym	-9.81931
ismo	-9.8197
anti	-9.8197
▁staat	-9.81973
wer	-9.82043
▁jog	-9.82081
gehen	-9.82099
▁trabajo	-9.82101
▁brug	-9.82126
▁Pe	-9.82132
▁går	-9.82165
isering	-9.82261
termin	-9.82264
▁financ	-9.82272
▁пред	-9.82274
ολογ	-9.82423
▁ned	-9.82494
▁therefore	-9.82562
θέ	-9.82572
▁bank	-9.82579
stehen	-9.82665
cé	-9.82672
ism	-9.82759
▁dont	-9.82776
ntes	-9.8281
▁jedno	-9.82816
lja	-9.82817
mark	-9.82827
▁ello	-9.82923
komen	-9.82937
▁débat	-9.82956
ura	-9.82996
▁Entwicklung	-9.83034
▁Ri	-9.83057
äg	-9.83151
▁2006	-9.83159
σω	-9.83182
▁komen	-9.83201
▁mener	-9.83203
▁principio	-9.83205
▁via	-9.83229
ila	-9.83233
▁¿	-9.83439
eli	-9.83444
ης	-9.83454
че	-9.83454
ēm	-9.83475
▁Europa.	-9.83492
▁decir	-9.83645
▁därför	-9.83808
hoz	-9.83822
mmer	-9.8385
▁vilket	-9.83859
▁omdat	-9.83894
à	-9.83936
ple	-9.83941
▁mogelijk	-9.84045
▁tõ	-9.84079
▁tiene	-9.84083
dzie	-9.84085
▁resolution	-9.8409
▁bli	-9.84128
▁ali	-9.84153
cional	-9.84153
▁politisk	-9.84207
▁put	-9.84218
håll	-9.84325
▁clar	-9.84328
jer	-9.84354
▁political	-9.84361
▁C'est	-9.84408
▁derfor	-9.84412
jā	-9.84414
▁förslag	-9.84418
▁«	-9.84465
ло	-9.84482
▁Bizottság	-9.84501
kat	-9.84503
▁regard	-9.84506
▁cittadini	-9.84509
▁dank	-9.84513
▁vaja	-9.84545
▁taga	-9.84593
▁post	-9.84607
▁καλ	-9.84654
ous	-9.84674
umo	-9.84702
▁rights	-9.84712
▁than	-9.84718
▁accept	-9.84736
▁Ga	-9.84739
▁stand	-9.8475
▁αντι	-9.84775
isme	-9.84847
▁zwischen	-9.84849
bru	-9.84887
▁modern	-9.84917
▁nej	-9.84919
áva	-9.84993
▁kultur	-9.85012
да	-9.85025
zel	-9.85054
αλ	-9.85109
▁porque	-9.85143
pé	-9.85143
▁προς	-9.85207
▁bas	-9.85223
arbeit	-9.8523
▁EU's	-9.85248
▁long	-9.85251
▁hay	-9.85315
οί	-9.85367
▁sans	-9.85392
▁absolut	-9.85433
tuur	-9.85544
▁Commissario	-9.85592
ère	-9.85592
stā	-9.85605
ort	-9.85621
tiva	-9.8563
▁USA	-9.85636
▁rok	-9.8568
▁še	-9.8573
fo	-9.85736
ajā	-9.85737
▁ministr	-9.85811
cji	-9.85872
▁né	-9.85889
▁believe	-9.85906
▁specific	-9.86014
▁които	-9.86021
ales	-9.86034
bel	-9.86108
▁being	-9.86301
▁ήθελα	-9.86306
geben	-9.86426
▁mor	-9.86435
tam	-9.86534
▁prac	-9.86541
▁soit	-9.86565
▁grupp	-9.86567
aja	-9.86594
▁Europæiske	-9.86613
▁autor	-9.86628
▁Op	-9.86631
▁doel	-9.86643
▁mercado	-9.86682
ić	-9.86683
▁té	-9.86691
bare	-9.86825
ské	-9.86842
H	-9.86848
▁ancora	-9.86895
▁aspekt	-9.86905
▁regel	-9.86958
▁dra	-9.87009
vent	-9.87026
▁kol	-9.87042
▁gaat	-9.87045
▁europäischen	-9.87077
▁diesen	-9.8709
dí	-9.87126
ομ	-9.87149
▁трябва	-9.87168
▁otra	-9.87184
ατ	-9.87195
ujú	-9.87216
▁sikre	-9.87229
▁encore	-9.87251
▁Tai	-9.87259
▁ontwikkeling	-9.87319
ighed	-9.87352
isten	-9.87355
cco	-9.87441
▁ktorý	-9.87445
έν	-9.87446
▁18	-9.87449
pression	-9.87468
▁Als	-9.87517
▁amendement	-9.87518
▁precis	-9.87555
▁vigtig	-9.87593
▁Zeit	-9.87631
ība	-9.87652
▁privat	-9.87655
▁Jo	-9.87709
lös	-9.87812
▁mio	-9.87837
▁norme	-9.87915
▁åtgärder	-9.87981
μο	-9.87982
▁sistem	-9.87991
okra	-9.88003
▁région	-9.88027
νε	-9.88052
▁však	-9.88057
▁lande	-9.88058
▁μόνο	-9.88074
ným	-9.88079
τερ	-9.88093
šanu	-9.88094
τή	-9.88196
▁weiter	-9.8821
rse	-9.88221
gle	-9.88224
iai	-9.88225
▁dann	-9.88274
▁wird.	-9.88302
grund	-9.88316
ständig	-9.88338
▁made	-9.88342
▁europeiska	-9.88355
▁obliga	-9.88379
▁haar	-9.88421
▁cel	-9.88514
▁před	-9.88523
uda	-9.88543
▁Ob	-9.88576
▁blevet	-9.88607
▁natur	-9.88627
▁rela	-9.88653
juk	-9.88707
πτ	-9.88715
▁Frage	-9.88787
▁Am	-9.88798
▁Parlamentu	-9.888
▁пре	-9.88802
ηση	-9.88854
voor	-9.88863
▁са	-9.88909
▁institution	-9.88963
▁elő	-9.88971
▁può	-9.89015
▁turi	-9.89092
amo	-9.89107
▁Grund	-9.89115
▁Cu	-9.8913
▁miglior	-9.89223
▁når	-9.89264
rig	-9.89289
▁ayuda	-9.89394
selt	-9.89422
▁akt	-9.8943
▁hemos	-9.8945
sser	-9.89566
segu	-9.89574
▁gebruik	-9.89578
▁mir	-9.89582
▁faut	-9.89626
▁držav	-9.89651
▁lahko	-9.89661
▁fer	-9.89729
▁ví	-9.89772
▁deux	-9.89791
ppen	-9.89864
▁darb	-9.89902
▁know	-9.8995
▁čas	-9.89968
▁pense	-9.90019
▁hoe	-9.90028
▁anti	-9.9005
▁Tra	-9.90164
▁inden	-9.90172
plic	-9.90224
vision	-9.90305
▁process	-9.90319
▁medlemsstaterna	-9.90336
▁embargo	-9.90501
▁ry	-9.90523
▁50	-9.90565
▁Ku	-9.90587
bjectif	-9.90618
▁kompromis	-9.90618
lægge	-9.90632
▁eerste	-9.90633
▁hensyn	-9.90643
▁aasta	-9.9065
▁favore	-9.90774
▁artikel	-9.90812
szy	-9.90822
▁él	-9.90833
▁syn	-9.90845
owych	-9.90891
▁voorstel	-9.90911
▁betänkande	-9.91032
▁Bürger	-9.91061
▁grup	-9.91166
▁gennem	-9.91171
dica	-9.91177
▁Wie	-9.91189
▁basis	-9.91203
μά	-9.91218
άζ	-9.91255
▁tempo	-9.91294
ib	-9.91319
▁reg	-9.91341
▁ainsi	-9.91357
▁bin	-9.91422
handling	-9.91433
inių	-9.91454
▁EU.	-9.91458
une	-9.91458
▁vår	-9.91484
▁Pra	-9.91488
▁kaip	-9.91497
▁desarrollo	-9.91556
▁gibt	-9.91559
▁Nie	-9.91589
tern	-9.91607
tru	-9.91631
▁anderen	-9.91698
ora	-9.91774
chod	-9.91794
▁first	-9.91856
▁beleid	-9.91865
▁stre	-9.91927
▁nya	-9.91945
▁personal	-9.91988
▁soll	-9.9201
antes	-9.92015
tisk	-9.92054
▁objetivo	-9.92149
oje	-9.92168
okat	-9.92223
▁mé	-9.92228
rica	-9.92242
ът	-9.92261
owania	-9.92291
▁struktur	-9.92352
έχ	-9.92355
ń	-9.924
ænd	-9.92462
ικού	-9.92471
imento	-9.92482
▁constitu	-9.92525
▁före	-9.92658
▁musí	-9.92703
gua	-9.92737
▁agreement	-9.92743
▁minor	-9.92802
▁respekt	-9.9288
adas	-9.92884
▁Mit	-9.92904
▁27	-9.92937
▁c'est	-9.92971
▁plat	-9.93006
▁våra	-9.93022
izzazione	-9.93052
▁energie	-9.93072
▁concerne	-9.93091
▁altri	-9.93092
▁matière	-9.93101
▁blive	-9.93107
▁åter	-9.93141
▁gan	-9.93143
▁bring	-9.93176
▁donne	-9.93204
▁debería	-9.93204
gleich	-9.93229
væ	-9.93261
▁tror	-9.93262
▁damit	-9.93266
▁special	-9.93295
▁Af	-9.93301
▁great	-9.93305
ки	-9.93311
▁cuestión	-9.9335
acji	-9.93411
▁konkret	-9.93457
▁zeer	-9.93469
▁continue	-9.93488
▁Sta	-9.93573
έλ	-9.93603
▁ér	-9.93603
▁καθ	-9.93646
▁rep	-9.93673
▁Diese	-9.93695
▁tutto	-9.93703
▁tri	-9.93786
▁were	-9.938
ιν	-9.93818
▁hele	-9.93864
▁future	-9.93906
▁τ	-9.9393
▁face	-9.93933
nit	-9.93972
eit	-9.94015
stva	-9.94039
μέ	-9.94039
▁savo	-9.94046
▁complet	-9.94204
▁като	-9.94212
ήσεις	-9.94266
▁some	-9.94271
▁probleem	-9.94276
▁taip	-9.94289
сти	-9.94321
▁európai	-9.94365
▁Commissioner	-9.94372
▁μέλη	-9.94449
▁Her	-9.94465
▁Ziel	-9.94471
tada	-9.94471
▁δι	-9.94484
▁об	-9.9451
pass	-9.94522
werk	-9.9455
▁κοιν	-9.94636
τικά	-9.94643
ając	-9.94696
gå	-9.94705
▁Επιτροπής	-9.94717
ære	-9.9474
▁think	-9.94749
▁super	-9.94811
ierung	-9.9486
▁orient	-9.94906
▁κράτη	-9.94965
▁svoj	-9.94969
rü	-9.94974
▁zelf	-9.95048
ish	-9.95063
▁roku	-9.95083
▁Va	-9.95098
▁herr	-9.95106
▁services	-9.95107
▁fund	-9.95141
spekt	-9.95148
zni	-9.95161
▁sécurité	-9.95196
▁nuevo	-9.95198
▁Auf	-9.95248
mmen	-9.95251
▁emp	-9.95259
▁commissione	-9.95267
dro	-9.95296
▁επί	-9.9539
ated	-9.95406
stav	-9.95422
▁(PT)	-9.95456
▁ski	-9.95535
▁gegen	-9.95557
▁già	-9.95573
▁17	-9.95648
▁regul	-9.95702
▁questione	-9.9573
▁ist.	-9.95734
hav	-9.95752
▁sicurezza	-9.95892
▁l’a	-9.95912
ló	-9.95967
ăm	-9.95968
▁przez	-9.95975
llen	-9.95979
▁står	-9.95992
▁Κοινοβούλιο	-9.96054
euro	-9.96056
▁Kosovo	-9.96097
čių	-9.96123
takse	-9.96179
zem	-9.96225
▁В	-9.96297
▁seda	-9.96369
▁direktiv	-9.96413
▁mora	-9.9644
ал	-9.96453
▁Bal	-9.96508
▁mejor	-9.96509
δα	-9.96515
▁roll	-9.96517
▁oraz	-9.96555
kä	-9.96572
▁mich	-9.96595
▁eks	-9.96598
▁folk	-9.96636
▁Kommissar	-9.96722
tà	-9.96733
hol	-9.96755
norm	-9.96797
▁n'a	-9.96808
flu	-9.9685
▁kommissær	-9.96875
▁development	-9.96921
▁noi	-9.96955
▁wird,	-9.96978
▁pře	-9.9698
▁ciudadanos	-9.96986
▁prote	-9.96996
▁conclusion	-9.97056
nju	-9.9706
▁2004	-9.97074
stå	-9.97083
▁prie	-9.97127
▁Ez	-9.97201
▁speci	-9.9725
▁п	-9.97322
▁sag	-9.97322
▁raison	-9.97323
▁παρά	-9.97369
им	-9.97375
▁Parlaments	-9.97389
upp	-9.97391
▁confi	-9.97396
hat	-9.97418
træ	-9.97424
▁clima	-9.97431
▁gå	-9.97455
▁ange	-9.97518
▁many	-9.97568
ем	-9.97583
ranno	-9.97613
▁right	-9.97624
▁hvad	-9.9769
▁μία	-9.97735
▁χ	-9.97784
rätt	-9.978
▁Lu	-9.97809
öd	-9.97885
▁sino	-9.98107
spo	-9.98111
υν	-9.98154
▁δε	-9.98216
▁domaine	-9.9823
ala	-9.98238
▁against	-9.98286
▁høj	-9.98315
ш	-9.98343
▁gra	-9.98347
ând	-9.9836
▁bre	-9.98508
itev	-9.98588
hand	-9.98591
position	-9.98597
σφαλ	-9.986
▁haben,	-9.98631
beleid	-9.98672
nú	-9.98729
ούς	-9.98769
ři	-9.98792
ország	-9.98805
ď	-9.98806
▁commissaris	-9.98823
▁result	-9.98851
▁hur	-9.98864
▁ausge	-9.98878
▁си	-9.98891
▁ora	-9.98901
▁pani	-9.98916
īgi	-9.98921
▁(IT)	-9.98989
bild	-9.99001
▁best	-9.9901
▁demand	-9.99109
oor	-9.9918
▁document	-9.99189
▁commun	-9.99258
▁enmienda	-9.99259
æl	-9.99265
part	-9.99282
οπ	-9.99311
▁sagt	-9.9933
▁Lissabon	-9.99365
▁riguarda	-9.99371
▁vse	-9.99388
anza	-9.99392
▁Gre	-9.99427
osť	-9.99446
(	-9.99449
▁mensen	-9.99464
vention	-9.99523
▁jedoch	-9.99572
ηγ	-9.996
ät	-9.99603
▁Fa	-9.99626
▁signor	-9.99668
▁beslutning	-9.99676
▁situación	-9.99694
▁Land	-9.997
dur	-9.99719
▁respecto	-9.99758
▁medidas	-9.99784
▁Θα	-9.99821
▁ganz	-9.99882
nings	-9.99905
mål	-9.99913
▁μπορεί	-9.99925
skydd	-9.99939
▁president	-9.99953
ισμό	-9.99964
▁central	-9.99971
rzy	-9.99989
tare	-10.0001
▁mismo	-10.0002
▁sondern	-10.0003
▁valor	-10.0007
eurs	-10.0008
▁dr	-10.0011
▁n'est	-10.0011
▁Sr.	-10.0012
ować	-10.0014
▁gaan	-10.002
▁vista	-10.0025
λέ	-10.0027
zet	-10.0028
lás	-10.0029
▁mesures	-10.0031
▁Dem	-10.0032
union	-10.0033
gesteld	-10.0033
▁tekst	-10.0034
▁medlemsstaterne	-10.0035
▁16	-10.0036
▁organ	-10.0036
ière	-10.0039
▁stran	-10.0043
▁frågor	-10.0044
remos	-10.0046
τος	-10.0048
omis	-10.0051
αι	-10.0052
ство	-10.0054
▁Bereich	-10.006
▁gjort	-10.0063
▁nogle	-10.0064
enden	-10.0069
▁dispos	-10.0073
para	-10.0079
▁pomoc	-10.0079
elor	-10.008
▁situazione	-10.0082
▁fest	-10.0083
▁første	-10.0088
▁Menschen	-10.0088
▁mercato	-10.0088
▁einige	-10.0091
weise	-10.01
▁cosa	-10.01
▁suis	-10.0101
iku	-10.0108
▁Ci	-10.0109
▁2005	-10.0116
▁l'UE	-10.0116
▁áll	-10.0117
αστ	-10.0118
čno	-10.012
zás	-10.0122
▁sido	-10.0132
▁mayor	-10.0133
▁two	-10.014
jú	-10.0141
apport	-10.0149
▁große	-10.0153
zeit	-10.0156
▁gy	-10.0156
νει	-10.0157
▁dobbiamo	-10.0159
▁arbets	-10.016
νη	-10.0164
τί	-10.0165
▁cal	-10.0171
all	-10.0176
tale	-10.0179
sektor	-10.0182
▁tiempo	-10.0183
си	-10.0191
▁kontroll	-10.0192
υρ	-10.0197
▁ordförande	-10.0198
ctor	-10.02
▁gang	-10.0204
▁citoyens	-10.0212
▁kriz	-10.0217
▁eines	-10.0219
▁comune	-10.0221
▁sal	-10.0228
ήσουμε	-10.0237
▁due	-10.0238
cho	-10.0245
rio	-10.0246
▁well	-10.0247
stvo	-10.0248
за	-10.025
▁auto	-10.0251
▁rapid	-10.0252
ξε	-10.0253
ight	-10.0254
▁context	-10.0254
bin	-10.0255
zij	-10.0255
▁anni	-10.0256
ally	-10.0262
▁Evropské	-10.0262
ģi	-10.0263
▁livello	-10.0264
▁sua	-10.0266
▁würde	-10.0272
▁hope	-10.0274
organisation	-10.0275
▁nodig	-10.0277
▁nivel	-10.0282
▁programa	-10.0282
▁recon	-10.0285
dring	-10.0293
▁tredje	-10.0293
▁mass	-10.0298
zett	-10.0299
▁local	-10.03
▁Maßnahmen	-10.0301
▁Ευρωπαϊκή	-10.0307
▁fare	-10.0314
▁jsou	-10.0317
▁effet	-10.032
kou	-10.032
▁grad	-10.0325
▁pal	-10.0327
▁side	-10.0327
τό	-10.0327
kken	-10.0328
zó	-10.0332
▁oma	-10.0333
▁seguridad	-10.0333
sprechen	-10.0339
▁tan	-10.0343
▁În	-10.0344
děl	-10.0365
▁który	-10.0365
▁That	-10.0369
▁trebuie	-10.0384
▁Esto	-10.039
har	-10.0395
πι	-10.0399
▁same	-10.04
▁vari	-10.0403
▁tras	-10.0403
▁första	-10.0407
▁kop	-10.0408
▁recent	-10.041
firm	-10.0411
▁õigus	-10.0414
▁grand	-10.0414
fall	-10.0417
▁estos	-10.042
▁cri	-10.0422
▁territori	-10.0423
▁Ex	-10.0425
parlamentet	-10.0427
▁criteri	-10.0429
anno	-10.043
▁Et	-10.0432
▁μεταξύ	-10.0435
▁gemeinsam	-10.0442
▁particolare	-10.0446
-Parlamentet	-10.0458
▁risk	-10.0458
▁good	-10.0462
owi	-10.0465
aires	-10.0472
▁produkt	-10.0472
▁markt	-10.0479
▁administr	-10.0483
▁model	-10.0484
▁več	-10.0484
▁nostro	-10.0489
▁inför	-10.05
▁Herrn	-10.0504
▁open	-10.0508
ised	-10.0509
▁tijd	-10.0509
auf	-10.0512
▁paese	-10.0516
▁medio	-10.0516
▁många	-10.0517
øj	-10.0517
▁sunt	-10.0518
▁años	-10.052
▁tako	-10.0521
▁destin	-10.0527
▁praneš	-10.0529
▁opinion	-10.0531
μερ	-10.0536
zor	-10.0538
▁heute	-10.0541
▁χρ	-10.0544
kraft	-10.0549
▁están	-10.0553
last	-10.0553
inės	-10.0558
▁arbejds	-10.0561
▁communautaire	-10.0569
▁nom	-10.0572
▁sollte	-10.0572
▁länder	-10.0573
▁σας	-10.0575
▁Barroso	-10.0575
▁them	-10.0576
▁effect	-10.0578
же	-10.0584
▁use	-10.0584
ąc	-10.0586
▁40	-10.0588
▁fog	-10.0588
▁settore	-10.0589
▁Ö	-10.059
rait	-10.0591
ellen	-10.0596
▁EU:s	-10.0599
▁marked	-10.0602
▁reco	-10.0602
σή	-10.0606
šu	-10.0606
▁tant	-10.0609
▁formul	-10.0622
▁déc	-10.0632
ové	-10.0633
▁Region	-10.0633
ables	-10.0634
▁sollten	-10.0635
▁χώρες	-10.0637
gla	-10.0638
▁agricol	-10.0645
▁betrekking	-10.0652
mel	-10.0657
▁droit	-10.0663
▁solution	-10.0667
ρη	-10.0668
▁základ	-10.0669
▁doivent	-10.0672
▁cuando	-10.0674
▁discrimin	-10.0676
▁indica	-10.0678
▁EÚ	-10.0678
▁alternativ	-10.0688
▁kwestie	-10.0689
sol	-10.0693
▁quindi	-10.0695
▁nouvelle	-10.0697
▁Du	-10.0699
▁multi	-10.0704
▁mind	-10.0714
▁vom	-10.0716
▁aantal	-10.0718
▁gali	-10.0718
",	-10.072
▁kort	-10.0721
cja	-10.0721
▁sowie	-10.0722
αγ	-10.0723
rons	-10.0728
▁Committee	-10.0737
▁questions	-10.0768
▁både	-10.0777
▁fine	-10.0778
▁vēl	-10.0778
lung	-10.0779
onder	-10.0786
▁leurs	-10.0787
ních	-10.0791
erade	-10.0796
ről	-10.0796
▁E'	-10.0798
▁much	-10.0798
▁ambiti	-10.0801
cel	-10.081
▁vue	-10.0814
▁stati	-10.0815
▁gruppo	-10.0818
▁así	-10.0818
▁mulighed	-10.082
ilor	-10.0821
▁aug	-10.0823
klaus	-10.0823
▁själv	-10.0825
▁säga	-10.0831
war	-10.0834
▁zeggen	-10.0836
▁sted	-10.0838
▁vigtigt	-10.0838
▁manier	-10.0844
ë	-10.0855
▁sommes	-10.0858
eket	-10.0862
▁durante	-10.0866
▁vraag	-10.0867
▁order	-10.0871
▁déjà	-10.0871
pä	-10.0875
▁still	-10.0876
▁ønsker	-10.0878
τες	-10.089
▁köz	-10.0892
▁negativ	-10.0895
▁help	-10.0896
zí	-10.0899
voir	-10.0899
▁institu	-10.0906
fald	-10.0907
▁ahora	-10.0913
praw	-10.0915
drž	-10.0916
▁Αυτό	-10.0918
▁modifica	-10.0919
▁subsidi	-10.092
ност	-10.0922
▁questi	-10.0923
ț	-10.0925
▁second	-10.0925
føre	-10.0926
ness	-10.0933
▁tego	-10.0936
▁Европейския	-10.0937
▁cadre	-10.0939
rog	-10.0942
lade	-10.0946
▁principe	-10.0949
▁manière	-10.0949
området	-10.0953
abili	-10.0954
▁ελ	-10.0954
dě	-10.096
cep	-10.0966
▁štát	-10.0974
▁système	-10.0974
ча	-10.0979
ujem	-10.0981
▁Ένωση	-10.0982
▁où	-10.0984
▁werd	-10.0986
erar	-10.0986
▁aktu	-10.0987
▁uden	-10.0988
ēju	-10.0991
▁särskilt	-10.0996
οδ	-10.0996
▁burgers	-10.0999
verk	-10.1
▁denk	-10.1003
▁initiative	-10.1003
▁sagen	-10.1005
▁conform	-10.1008
ωρ	-10.1009
▁conclu	-10.1011
ελ	-10.1011
▁πολιτική	-10.1013
ché	-10.1015
▁rem	-10.1016
▁gre	-10.1016
▁mandat	-10.1016
uß	-10.1017
▁fordi	-10.1019
šana	-10.1021
▁sige	-10.1025
▁See	-10.1033
ści	-10.1034
lijke	-10.1038
lighet	-10.1045
ther	-10.1047
▁demande	-10.1049
υμ	-10.105
▁ændringsforslag	-10.105
▁President	-10.1054
iem,	-10.1055
elser	-10.1059
baar	-10.1066
ţii	-10.1068
▁rappresenta	-10.1069
▁τομέα	-10.1073
▁afin	-10.1076
▁aange	-10.1076
▁Δε	-10.108
ovi	-10.1083
▁Chi	-10.1087
▁país	-10.1087
▁či	-10.1089
▁All	-10.1106
pat	-10.1109
▁būtų	-10.1111
fä	-10.1112
θούν	-10.1114
ματος	-10.1115
▁posible	-10.1121
▁ciò	-10.1121
02	-10.1126
нето	-10.1135
▁stemme	-10.114
▁κατ	-10.114
hö	-10.1141
▁brit	-10.1141
▁д	-10.1142
grænse	-10.1149
▁hace	-10.115
ális	-10.115
γκ	-10.1156
▁personas	-10.1162
fat	-10.1163
▁citizens	-10.1164
▁economische	-10.117
▁való	-10.1171
▁belangrijk	-10.1174
▁mindre	-10.1176
satz	-10.1177
▁klart	-10.1177
rop	-10.1177
eringen	-10.1178
▁Lisbon	-10.1179
▁21	-10.1179
πρό	-10.118
01	-10.1183
▁ήταν	-10.1185
▁Tur	-10.1187
▁tener	-10.1188
cept	-10.1191
teurs	-10.1198
gger	-10.1204
nnan	-10.1206
dag	-10.1207
▁Regierung	-10.1208
ед	-10.1208
lepš	-10.1211
▁where	-10.1214
▁1999	-10.1219
▁gro	-10.1219
▁conditions	-10.1221
▁azt	-10.1221
änk	-10.1225
▁colleghi	-10.1226
lyg	-10.1226
ства	-10.1227
▁hea	-10.1227
▁θέμα	-10.1231
▁något	-10.1235
▁mida	-10.1236
▁period	-10.124
▁θ	-10.1245
práv	-10.1247
ister	-10.1247
ля	-10.1249
oma	-10.1251
▁case	-10.1252
▁moi	-10.1253
ър	-10.1257
ф	-10.1261
▁metod	-10.1263
side	-10.1263
prob	-10.1267
▁politieke	-10.1268
gelijk	-10.1269
▁change	-10.1275
▁fremme	-10.1275
▁country	-10.1276
▁Vorschlag	-10.1277
▁pirm	-10.1283
ljen	-10.1284
liv	-10.1284
ėti	-10.1285
oval	-10.1287
κρι	-10.1291
είς	-10.1292
strategi	-10.1292
▁aktiv	-10.1297
▁šio	-10.1305
▁bereits	-10.1305
▁Über	-10.1308
▁suur	-10.1311
ndus	-10.1314
▁nostra	-10.1316
▁soutien	-10.1318
nahme	-10.1321
▁samma	-10.1325
ása	-10.1336
▁level	-10.1342
kker	-10.1342
▁viktigt	-10.1343
▁institutions	-10.1343
▁alcun	-10.1345
▁lokal	-10.1347
▁compromis	-10.1354
▁compte	-10.1355
▁visi	-10.1361
▁kla	-10.1366
▁lors	-10.1366
anse	-10.1367
▁občan	-10.1371
▁været	-10.1372
▁fue	-10.1373
ηθεί	-10.1378
▁Ευρώπη	-10.1392
▁Madame	-10.1397
bij	-10.1398
▁adott	-10.1411
▁dohod	-10.1412
▁heel	-10.1415
ighet	-10.1421
▁idea	-10.1432
▁unie	-10.1433
▁konflikt	-10.1434
▁maatregelen	-10.1436
fel	-10.1437
▁Wat	-10.1439
Ε	-10.1442
▁senza	-10.1442
ativ	-10.1444
▁tam	-10.1448
▁gut	-10.1449
▁décision	-10.1453
▁presente	-10.1454
▁vilja	-10.1454
▁years	-10.1455
öv	-10.1458
plat	-10.1459
ieve	-10.1461
ιλ	-10.1461
▁membre	-10.1464
▁lige	-10.1468
се	-10.1468
▁faktisk	-10.1473
▁avant	-10.1486
▁view	-10.1495
deel	-10.1497
iques	-10.1501
lov	-10.1504
▁Stra	-10.1505
▁gouvernement	-10.1507
φων	-10.151
ových	-10.1511
▁vrij	-10.1512
▁positive	-10.1514
τικό	-10.1516
yw	-10.1518
ative	-10.1519
▁ingen	-10.1527
▁grave	-10.1527
▁cannot	-10.153
▁pé	-10.1531
▁forhandling	-10.1534
▁naše	-10.1537
δι	-10.154
ξι	-10.1541
▁twee	-10.1543
▁arbete	-10.1544
åg	-10.1544
▁politiques	-10.1544
▁Bar	-10.1545
ában	-10.1546
▁noget	-10.1552
spect	-10.1554
▁dovrebbe	-10.1556
▁continu	-10.156
ról	-10.1562
ţie	-10.1564
evole	-10.1567
▁bidrag	-10.1568
▁pol	-10.1569
▁europea.	-10.157
▁tipo	-10.1575
▁II	-10.158
▁čo	-10.1582
▁nuo	-10.1583
τελ	-10.1583
scheid	-10.1584
▁gör	-10.1585
idu	-10.1588
▁Problem	-10.1593
ical	-10.1594
▁numero	-10.1596
▁valuta	-10.1598
▁legislat	-10.1598
druk	-10.1598
aient	-10.1598
▁dell’	-10.1604
▁Ši	-10.1607
▁extra	-10.1608
ivo	-10.1608
▁nécessaire	-10.1611
▁kolleger	-10.1617
▁access	-10.1621
ključ	-10.1626
lise	-10.1626
▁tej	-10.1629
ç	-10.1639
wel	-10.1639
▁blij	-10.1645
▁liberal	-10.165
▁finanziari	-10.1651
▁Ένωσης	-10.1653
▁ker	-10.1653
arse	-10.1654
▁garant	-10.166
▁λόγο	-10.1662
▁Mittel	-10.1664
▁Gra	-10.1667
▁aid	-10.1673
nel	-10.1674
cour	-10.1674
▁d'é	-10.168
▁Τ	-10.1683
▁С	-10.1683
▁minister	-10.1684
ére	-10.1689
▁nå	-10.169
▁wereld	-10.1693
▁binnen	-10.1695
▁cet	-10.1696
▁τρόπο	-10.17
itel	-10.1704
που	-10.1708
▁Β	-10.1713
▁viel	-10.1714
▁discussion	-10.1721
οντας	-10.1727
aria	-10.1729
▁stata	-10.1734
▁success	-10.1735
vate	-10.1737
▁rev	-10.1737
▁ändringsförslag	-10.1751
▁ámbito	-10.1759
Europe	-10.1764
▁regula	-10.1771
kép	-10.1774
▁geval	-10.1775
ίων	-10.1775
rsi	-10.1781
▁članic	-10.1783
▁clear	-10.1784
hang	-10.1785
▁discuss	-10.1789
īga	-10.1793
hä	-10.1794
▁jour	-10.1795
▁benefici	-10.18
▁kind	-10.1803
fect	-10.1803
μένη	-10.1805
▁liber	-10.1809
▁democratic	-10.1818
ými	-10.1819
tning	-10.1821
miseks	-10.1822
πό	-10.1825
▁sera	-10.1827
genommen	-10.1829
▁quale	-10.1831
▁aceste	-10.1838
▁interne	-10.1838
▁State	-10.1839
ások	-10.184
▁serie	-10.1843
▁Comisario	-10.185
zenia	-10.1851
▁measures	-10.1854
▁ekonomiska	-10.1858
▁sak	-10.1862
▁conven	-10.1864
▁någon	-10.1865
▁διά	-10.1866
▁regler	-10.1868
▁passe	-10.1884
ρό	-10.1886
ziel	-10.1887
▁sitt	-10.189
▁temps	-10.1896
opportun	-10.19
▁celu	-10.1902
ρώ	-10.1906
▁allerede	-10.1906
οποίηση	-10.1906
▁Sicherheit	-10.1911
▁vagy	-10.1912
▁trop	-10.1914
▁weil	-10.1915
▁σημαντικό	-10.1919
▁sammen	-10.1927
▁nacional	-10.1931
avad	-10.1931
ová	-10.1935
κά	-10.1937
жда	-10.1941
▁stabilit	-10.1943
ισμού	-10.1944
▁2003	-10.1947
▁hög	-10.1952
▁systém	-10.1953
▁бъде	-10.1954
▁otros	-10.1969
▁2002	-10.197
▁construc	-10.197
vest	-10.197
▁evalu	-10.1973
▁Im	-10.1976
▁problème	-10.1977
vērt	-10.1979
▁Israel	-10.1981
▁nuestro	-10.1985
ска	-10.1985
▁persone	-10.1986
▁buvo	-10.1995
▁here	-10.1997
▁Συμβούλιο	-10.2
qué	-10.2002
▁υπ	-10.2003
woord	-10.2005
▁culture	-10.2005
erede	-10.2008
cija	-10.2009
▁rättigheter	-10.2012
ží	-10.2014
▁také	-10.2017
nosť	-10.2023
tuse	-10.2023
▁situatie	-10.2025
εργ	-10.2029
▁měl	-10.203
▁engage	-10.2035
▁klimat	-10.2037
▁argument	-10.2042
zw	-10.2047
▁neue	-10.205
ņa	-10.2052
▁darauf	-10.2057
führen	-10.2059
erende	-10.2059
▁redan	-10.206
▁Deze	-10.2063
▁Οι	-10.2066
sorg	-10.2068
▁Nach	-10.2069
βάλ	-10.2076
▁interesse	-10.2077
▁Jahr	-10.2081
▁labai	-10.2083
▁meie	-10.2084
▁milieu	-10.2088
▁could	-10.2092
▁direttiva	-10.2093
▁jūs	-10.2095
▁amendment	-10.2099
rup	-10.21
▁tir	-10.2101
▁grond	-10.2102
mod	-10.2108
▁introduc	-10.2109
▁année	-10.211
▁Schengen	-10.211
▁start	-10.2116
mag	-10.2117
▁secteur	-10.2119
▁compi	-10.212
▁Los	-10.212
▁d’un	-10.2122
σαν	-10.2124
γε	-10.2129
▁cuenta	-10.2129
ských	-10.2133
foranstaltninger	-10.2134
keit	-10.2135
▁China	-10.2138
syn	-10.2149
▁sent	-10.2149
▁And	-10.215
μάτων	-10.2158
čí	-10.2158
δυ	-10.2165
▁který	-10.2165
hled	-10.2166
▁usted	-10.2168
▁mevrouw	-10.2168
▁mest	-10.2175
▁quo	-10.2179
meenschappelijk	-10.2179
zional	-10.2184
▁diritto	-10.2184
▁feit	-10.2186
▁Európske	-10.2187
▁hela	-10.2192
▁følge	-10.2195
▁wieder	-10.2197
▁today	-10.2199
▁Lib	-10.2201
▁Daarom	-10.2202
▁aceast	-10.2204
▁oggi	-10.2209
▁väga	-10.221
zés	-10.2212
▁said	-10.2213
misel	-10.2213
▁sort	-10.2218
gā	-10.2218
▁endnu	-10.2221
pel	-10.2222
▁gesch	-10.2224
parti	-10.2225
▁terme	-10.2228
mēr	-10.2232
▁κάν	-10.2232
▁smo	-10.2237
▁wurden	-10.2241
▁toekomst	-10.2245
▁být	-10.2248
▁οικονομ	-10.225
▁gevolg	-10.225
▁hlas	-10.2253
▁abord	-10.2253
зи	-10.2255
▁chce	-10.2256
▁czy	-10.2258
▁Európsk	-10.2258
▁uw	-10.2261
▁bus	-10.2262
▁così	-10.2262
▁reag	-10.228
vesti	-10.2282
▁prv	-10.2282
▁Kommissionens	-10.2284
▁sina	-10.2286
▁apie	-10.2292
igung	-10.2303
gni	-10.2306
▁hij	-10.2308
▁koordin	-10.2308
gift	-10.231
▁europäische	-10.2316
▁Portugal	-10.2316
▁gas	-10.2322
▁ре	-10.2322
καν	-10.2329
▁samarbejde	-10.2334
cord	-10.2335
”.	-10.2337
τικών	-10.2347
▁olyan	-10.2349
mæssig	-10.235
▁šī	-10.2351
▁företag	-10.2354
▁této	-10.2355
ách	-10.2356
▁fred	-10.2358
▁financial	-10.2359
пе	-10.236
▁combat	-10.2362
▁univers	-10.2364
▁cen	-10.2365
▁debemos	-10.2367
råd	-10.2369
▁desde	-10.2371
▁animal	-10.2373
tsiooni	-10.2375
▁determina	-10.2375
▁already	-10.2376
▁efficace	-10.2377
▁kérdés	-10.2382
▁large	-10.2383
inte	-10.2385
▁kai	-10.2386
ότητας	-10.2387
▁fly	-10.2389
▁personnes	-10.239
stig	-10.2392
▁Wirtschaft	-10.2393
▁motivo	-10.2394
▁zwei	-10.2396
4-0	-10.2396
▁energia	-10.2399
▁hä	-10.2405
▁motiv	-10.2405
μι	-10.2406
▁nende	-10.2407
▁tiek	-10.2407
▁matter	-10.2412
▁Esta	-10.2414
▁öka	-10.2419
ship	-10.242
prowadz	-10.2423
▁begroting	-10.2426
▁100	-10.2429
▁Van	-10.2433
dores	-10.2434
▁nueva	-10.2435
▁krav	-10.2436
▁Parlamenta	-10.2437
τιμ	-10.2438
burg	-10.2441
▁unserer	-10.2441
▁europei	-10.2444
▁dafür	-10.2456
▁Unió	-10.2456
hez	-10.246
ски	-10.2463
▁project	-10.2472
▁rispetto	-10.2478
aggi	-10.2481
tör	-10.2485
▁tele	-10.2488
▁miljö	-10.2494
▁umani	-10.2495
stånd	-10.2499
▁list	-10.2501
oči	-10.2504
länderna	-10.2504
▁relativ	-10.2504
▁l'Europe	-10.2506
UE	-10.2509
▁oli	-10.2509
▁pesca	-10.251
▁gestion	-10.2511
▁groot	-10.2514
▁państw	-10.2514
▁Rahmen	-10.2514
▁П	-10.2517
▁belangrijke	-10.2519
▁måde	-10.2524
▁capital	-10.2536
’s	-10.254
▁Lisabon	-10.2542
▁nemen	-10.2542
▁økonomiske	-10.2544
▁daug	-10.2544
▁ejemplo	-10.2544
▁veik	-10.2547
▁nell'	-10.2547
anje	-10.2552
▁registr	-10.2555
ams	-10.2556
mor	-10.2557
▁hoy	-10.2558
▁Ευρωπαϊκής	-10.2561
▁Politik	-10.2563
pus	-10.2564
▁ELi	-10.2564
iger	-10.2564
lju	-10.2567
▁tenemos	-10.2568
▁año	-10.2569
labor	-10.2571
▁provide	-10.2572
▁Gu	-10.2573
▁candidat	-10.2575
▁zorgen	-10.2576
ének	-10.2577
▁sarà	-10.2578
▁nelle	-10.2588
▁Grupo	-10.2589
▁mūsu	-10.2591
▁borde	-10.2592
▁damer	-10.2592
▁Irland	-10.2594
▁fiscal	-10.2598
▁does	-10.26
jumu	-10.2601
▁vorrei	-10.2602
ξη	-10.2602
▁tejto	-10.2603
▁pension	-10.2603
klad	-10.2603
▁råd	-10.2605
▁î	-10.2606
jící	-10.2606
σία	-10.2607
▁verw	-10.2608
▁rozvoj	-10.2611
ům	-10.2612
▁existe	-10.2615
▁två	-10.2616
lü	-10.2616
▁formand!	-10.2617
▁proceso	-10.2619
▁Pour	-10.2628
ización	-10.2629
▁politiska	-10.263
dama	-10.2634
▁year	-10.2637
▁gest	-10.264
▁sil	-10.2641
ване	-10.2647
μένο	-10.2648
▁komme	-10.2656
marknad	-10.2657
▁continua	-10.266
▁betreft	-10.2666
▁geld	-10.2672
▁ponente	-10.2676
▁normal	-10.2677
owanie	-10.2677
▁possibile	-10.2679
sign	-10.2684
▁rösta	-10.2684
gge	-10.2687
ūk	-10.2688
▁energetic	-10.2688
setzen	-10.2693
▁moral	-10.2694
▁conflict	-10.2699
▁καθώς	-10.2699
▁agli	-10.2701
πάν	-10.2706
сто	-10.2706
▁μετα	-10.2709
▁medlem	-10.271
▁geht	-10.2714
wert	-10.2719
Europa	-10.272
▁liel	-10.2722
▁jetzt	-10.2725
▁godt	-10.2726
▁skapa	-10.2728
▁nebo	-10.2731
imų	-10.2732
▁collega	-10.2734
▁mennesker	-10.2734
▁causa	-10.2737
▁since	-10.2745
οδο	-10.2754
▁frågan	-10.2756
▁discussione	-10.2757
-B	-10.2766
▁befolkning	-10.2768
▁2001	-10.2769
▁hom	-10.2774
▁några	-10.2774
▁accepter	-10.2777
▁esam	-10.2779
▁Og	-10.2782
▁möglich	-10.2783
ujeme	-10.2785
▁medzi	-10.2787
▁Président	-10.2792
regel	-10.2795
▁bilancio	-10.2804
fund	-10.2805
▁misure	-10.2805
gaan	-10.2806
ují	-10.2809
zę	-10.2812
▁På	-10.2813
▁framtid	-10.2815
stup	-10.2815
▁job	-10.2817
▁(E	-10.2818
▁geven	-10.2822
ното	-10.2822
▁sólo	-10.2826
▁stadig	-10.2828
▁dicho	-10.2829
▁permit	-10.2832
ribu	-10.2835
áció	-10.2835
▁Gemeinschaft	-10.2838
▁within	-10.2843
▁call	-10.2845
▁progress	-10.2847
▁difficult	-10.2852
▁vet	-10.2856
▁zouden	-10.2856
▁group	-10.2863
▁Savienība	-10.2867
merk	-10.2868
▁world	-10.2868
▁quelque	-10.2876
Έ	-10.2877
▁Este	-10.2878
▁interest	-10.2879
▁plena	-10.288
grad	-10.2886
anske	-10.2887
▁principal	-10.2892
▁Γ	-10.2893
W	-10.2895
Ü	-10.2896
▁decisione	-10.2896
kārt	-10.2899
ffer	-10.2902
liste	-10.2907
▁Ki	-10.2907
τικές	-10.291
▁samenwerking	-10.291
λυ	-10.2911
jums	-10.2912
τον	-10.2917
▁richtlijn	-10.2924
▁particulier	-10.2926
▁entra	-10.2926
▁devono	-10.2927
ford	-10.2928
nivå	-10.293
▁sikkerhed	-10.2934
▁centrale	-10.2935
ļu	-10.294
▁musíme	-10.2949
▁regionale	-10.2954
▁alcuni	-10.2959
▁viktiga	-10.2963
▁natural	-10.2964
▁(ES)	-10.2964
acij	-10.2968
▁taken	-10.2977
ίζει	-10.298
atori	-10.2982
▁find	-10.2985
▁predsednik	-10.2985
▁Ber	-10.2986
▁dazu	-10.2999
łu	-10.3002
▁Sam	-10.3006
▁allo	-10.3007
▁има	-10.3008
▁stem	-10.3012
▁tali	-10.3012
▁pregunta	-10.3012
šanas	-10.3017
▁før	-10.3017
šanā	-10.3018
▁how	-10.3018
nehmen	-10.302
▁fois	-10.302
▁Wenn	-10.3022
▁press	-10.3024
▁jsem	-10.3024
▁koleg	-10.3028
▁Mal	-10.3028
▁līdz	-10.3028
haft	-10.303
доб	-10.3032
▁processo	-10.3034
migr	-10.3036
▁jelentés	-10.3037
▁siano	-10.3038
▁problemen	-10.3039
▁πιο	-10.3042
▁Fond	-10.3045
▁compar	-10.3049
▁onorevoli	-10.305
ņu	-10.3051
▁ľud	-10.3055
▁onderzoek	-10.3056
▁politici	-10.3058
▁sulle	-10.3059
igu	-10.3061
igkeit	-10.3063
▁servizi	-10.3064
område	-10.3064
▁Ak	-10.3065
▁export	-10.3065
▁då	-10.3065
ată	-10.3067
▁toho	-10.3068
▁Internet	-10.3068
▁tento	-10.3072
▁politiske	-10.3073
▁San	-10.3075
▁ορ	-10.3075
▁analys	-10.3077
▁Priekšsēdētāja	-10.3079
▁Car	-10.3088
▁leven	-10.3089
uoti	-10.3089
▁aftale	-10.3092
▁common	-10.3092
▁agree	-10.3096
▁Mitglied	-10.3104
▁podporu	-10.3109
τερα	-10.3111
▁Αν	-10.3113
πιστ	-10.3113
ļa	-10.3119
▁compr	-10.3121
▁mia	-10.3121
līdz	-10.3122
▁Kollegen	-10.3122
▁Inter	-10.3124
▁πρόταση	-10.3124
ер	-10.3129
▁αυτά	-10.313
στη	-10.3135
▁jih	-10.3135
▁sedan	-10.3137
ņem	-10.3147
imus	-10.3148
▁möjlighet	-10.315
▁facilit	-10.3151
▁2011	-10.3152
▁poslan	-10.3154
▁n’	-10.3155
-20	-10.3156
▁force	-10.3157
▁bendr	-10.3159
κλ	-10.3162
▁waren	-10.3163
▁(RO)	-10.3164
▁your	-10.3164
szcz	-10.3166
▁(NL)	-10.3169
▁συζήτηση	-10.3171
▁sujet	-10.3173
▁toute	-10.3176
▁således	-10.3177
ích	-10.3177
▁possa	-10.3178
nemen	-10.3181
▁wijze	-10.3188
tjänst	-10.3191
▁militar	-10.3194
rząd	-10.3197
▁skupin	-10.3199
▁igen	-10.3201
▁both	-10.3203
länder	-10.3203
▁illegal	-10.3204
▁d’a	-10.3206
▁otro	-10.3207
deling	-10.3208
wor	-10.3208
▁regione	-10.3219
behandling	-10.322
▁chose	-10.3223
ιά	-10.3225
▁major	-10.3232
▁bila	-10.3233
▁own	-10.3233
veik	-10.3234
▁mention	-10.3237
▁Nor	-10.3241
▁muligt	-10.3245
▁weten	-10.3246
▁musi	-10.3247
▁Komise	-10.3248
▁cooperation	-10.325
▁ensure	-10.3251
mény	-10.3253
▁qu'elle	-10.3254
▁ihrer	-10.3254
▁acord	-10.3257
borg	-10.3259
▁sprawie	-10.3261
spir	-10.3262
▁migr	-10.3265
cev	-10.3267
ES	-10.3268
▁involve	-10.3269
▁gospoda	-10.328
ční	-10.328
▁coordin	-10.3281
▁Han	-10.3287
ūs	-10.329
▁forhold	-10.3291
▁d'in	-10.3292
▁život	-10.3294
▁concernant	-10.3295
▁representa	-10.3296
▁Richtlinie	-10.3296
ķ	-10.3298
▁terrorist	-10.3299
▁profit	-10.33
▁satisf	-10.3301
▁quando	-10.3304
ît	-10.3305
▁effective	-10.331
▁ποι	-10.3318
▁nuclear	-10.332
▁l’Union	-10.3322
▁Dans	-10.3322
▁internacional	-10.3325
▁Derfor	-10.3327
ator	-10.3328
▁Um	-10.3328
▁There	-10.3328
▁kader	-10.333
▁course	-10.333
▁cause	-10.3334
▁säkerhet	-10.3335
▁særlig	-10.334
pă	-10.334
▁thank	-10.3346
▁político	-10.3347
▁tá	-10.3349
γραφ	-10.3352
ï	-10.3354
▁projet	-10.3358
▁may	-10.3358
lser	-10.3359
▁antal	-10.3359
▁parce	-10.3362
mélior	-10.337
isant	-10.3371
ző	-10.3372
ējā	-10.3373
▁veiligheid	-10.3373
▁Pi	-10.3374
▁efekt	-10.3384
tina	-10.3385
▁commercial	-10.3388
fang	-10.3389
▁miljø	-10.3394
στε	-10.3398
▁αγορά	-10.3398
▁dog	-10.34
ācijas	-10.3402
laik	-10.3403
▁gemensamma	-10.3405
▁bych	-10.3407
▁besoin	-10.3411
▁monde	-10.3415
▁samo	-10.3416
▁financiële	-10.3417
▁Hu	-10.3418
▁nödvändig	-10.3418
▁forskning	-10.3424
▁d'autres	-10.3427
migrant	-10.3429
▁όμως	-10.343
▁kes	-10.3433
▁However,	-10.3434
▁apoyo	-10.3435
▁nuestros	-10.3438
▁olika	-10.3438
▁členských	-10.3439
▁sempre	-10.3444
▁coopération	-10.3445
▁väg	-10.3445
▁fem	-10.3448
mittel	-10.3448
▁fost	-10.345
▁último	-10.3454
▁Franc	-10.3455
▁tydlig	-10.3455
ар	-10.3458
▁mūsų	-10.3459
▁arra	-10.346
▁tien	-10.3466
▁priemon	-10.3466
ībā	-10.3468
▁können.	-10.3471
graph	-10.3472
▁comment	-10.3474
hjælp	-10.3476
▁která	-10.3478
▁Tu	-10.3479
▁Community	-10.3483
▁hvilket	-10.3485
▁structure	-10.3486
ţia	-10.3493
ők	-10.3494
sluit	-10.3494
▁pateik	-10.3496
▁raport	-10.3499
▁όσον	-10.35
▁samen	-10.3511
AC	-10.3513
▁στους	-10.3519
voj	-10.3526
▁amelyek	-10.3526
ovanie	-10.3527
▁doch	-10.353
vang	-10.3532
▁új	-10.3533
▁creo	-10.3537
▁verden	-10.3539
▁autres	-10.3543
▁bodo	-10.3547
σμ	-10.3548
▁vedtage	-10.3548
bau	-10.3554
▁σήμερα	-10.3554
σουν	-10.3555
▁διε	-10.3555
ия	-10.3562
▁pravic	-10.3562
gående	-10.3565
▁sé	-10.3565
isierung	-10.357
▁vissa	-10.3573
▁kohta	-10.3574
▁insist	-10.3576
yv	-10.3577
▁esempio	-10.3578
▁franc	-10.3581
▁proprio	-10.3589
▁cambia	-10.359
▁majandus	-10.359
gestellt	-10.3592
itate	-10.3594
▁secondo	-10.3598
▁reduce	-10.36
▁hor	-10.36
▁viola	-10.3602
▁steeds	-10.3603
▁behov	-10.3604
▁CO2	-10.3607
ц	-10.3608
▁efforts	-10.3609
atlan	-10.3609
ické	-10.3613
anja	-10.3617
▁toutes	-10.3619
▁humanos	-10.3624
▁donné	-10.3626
▁relative	-10.3628
▁Welt	-10.3639
ò	-10.3648
ität	-10.3649
▁spraw	-10.365
▁kõik	-10.3654
θη	-10.3661
▁στόχο	-10.3662
▁moyen	-10.3665
lust	-10.3668
▁tega	-10.3669
▁Mme	-10.3669
▁exemple	-10.3672
▁origin	-10.3673
ště	-10.3676
▁týka	-10.3677
▁által	-10.3679
▁muß	-10.3679
märk	-10.3682
nimi	-10.3684
ėjo	-10.3685
μεν	-10.3688
▁consent	-10.3689
▁neuen	-10.3694
βλ	-10.3699
▁sama	-10.3707
▁europejski	-10.3707
▁hon	-10.3707
▁moins	-10.371
▁Rady	-10.3712
▁insbesondere	-10.3712
▁example	-10.3716
▁60	-10.3718
σουμε	-10.3719
▁również	-10.372
▁szükség	-10.3722
▁fondo	-10.3727
ritt	-10.3729
▁ανάπτυξη	-10.373
▁volta	-10.3734
▁skabe	-10.3737
▁zone	-10.3738
жа	-10.374
▁résolution	-10.3744
ismus	-10.3747
▁necesario	-10.3751
▁celo	-10.3751
▁l'Unione	-10.3752
▁allen	-10.3758
Ι	-10.3759
▁todas	-10.3761
▁země	-10.3762
ijas	-10.3762
бе	-10.3764
▁minden	-10.3767
▁administrativ	-10.3768
ják	-10.3768
▁Κα	-10.377
▁consulta	-10.378
▁fremtid	-10.3781
▁reason	-10.3784
▁sett	-10.3785
▁problemi	-10.3787
ματ	-10.3791
▁αυτές	-10.3792
ват	-10.3794
▁cré	-10.3794
▁produit	-10.3796
▁människor	-10.3798
▁observa	-10.3798
▁välja	-10.3799
čné	-10.38
▁contrôle	-10.3806
ácie	-10.3807
▁libre	-10.3808
▁πλαίσιο	-10.3809
▁gospod	-10.381
▁aujourd'hui	-10.3814
μένου	-10.3816
▁utiliza	-10.3818
▁comprend	-10.3818
▁gør	-10.382
▁houden	-10.3824
▁WTO	-10.3826
▁kuid	-10.3828
sätt	-10.3832
ille	-10.3834
▁nostri	-10.3834
▁Länder	-10.3834
ativa	-10.3837
ssystem	-10.3837
▁waarin	-10.3842
▁Комисията	-10.3843
ovali	-10.3847
▁tart	-10.3851
▁ļoti	-10.3853
▁haya	-10.3854
▁seulement	-10.3855
▁correct	-10.3856
harmoni	-10.3865
ция	-10.387
▁võt	-10.387
▁nation	-10.3871
▁pana	-10.3872
говор	-10.3875
▁estamos	-10.3875
▁extern	-10.3877
▁по-	-10.3879
▁cada	-10.3879
▁number	-10.3879
ores	-10.3886
ţe	-10.3888
▁wäre	-10.389
▁Panie	-10.3891
▁aucun	-10.3893
▁orde	-10.3893
ható	-10.3902
▁starp	-10.3907
▁cooperación	-10.3908
ében	-10.3909
▁Val	-10.391
▁több	-10.391
εν	-10.391
▁jsme	-10.391
váž	-10.3917
τικής	-10.3917
▁små	-10.3919
▁día	-10.3921
ха	-10.3921
телно	-10.3922
ph	-10.3926
rais	-10.3929
▁spi	-10.3932
há	-10.3933
αμε	-10.3933
▁enkelt	-10.3936
▁samme	-10.3936
▁Social	-10.3938
▁Fall	-10.3947
▁ellen	-10.3954
▁Komisijos	-10.3955
▁rész	-10.3957
▁marco	-10.3959
▁predstav	-10.396
▁Programm	-10.396
▁Punkt	-10.3963
▁εμ	-10.3964
що	-10.3964
peri	-10.3969
▁Bri	-10.397
▁exempel	-10.397
▁demokratisk	-10.3973
▁veľmi	-10.3977
-A	-10.398
▁będzie	-10.3981
ру	-10.3985
ków	-10.3985
▁siamo	-10.3986
▁vprašanj	-10.399
pul	-10.3995
cessi	-10.3999
▁zona	-10.4
▁möjligt	-10.4001
αλλ	-10.4002
▁Präsident!	-10.4006
▁behöver	-10.4008
▁mine	-10.4009
▁forskellige	-10.4013
▁nogen	-10.4014
▁elabor	-10.4021
▁framför	-10.4023
lever	-10.4027
▁parlamentari	-10.4028
▁high	-10.403
ата	-10.4031
▁compete	-10.4033
gång	-10.4035
▁lui	-10.4035
▁daudz	-10.4036
▁current	-10.4042
lö	-10.4047
▁represent	-10.4049
δρ	-10.4051
▁ekonomisk	-10.4052
▁gång	-10.4061
genomen	-10.4062
Ν	-10.4064
poliitika	-10.4064
▁viele	-10.4067
▁kraft	-10.4068
vál	-10.4071
▁ogni	-10.4071
owe	-10.4073
hľad	-10.4075
▁initiativ	-10.4075
▁económica	-10.4084
ának	-10.4084
sť	-10.4085
▁konkur	-10.4086
▁allem	-10.4086
▁kül	-10.4087
▁situationen	-10.4091
øn	-10.4091
εία	-10.4098
▁předsedající,	-10.41
▁diskrimin	-10.4102
▁ώστε	-10.4109
▁bedre	-10.4111
▁betänkandet	-10.4113
▁Umwelt	-10.4113
ψ	-10.4118
τω	-10.4119
▁actie	-10.4123
spē	-10.4125
▁weg	-10.4127
indre	-10.413
▁κατάσταση	-10.4136
▁osob	-10.4137
▁store	-10.4139
slutning	-10.414
ėl	-10.414
▁fontos	-10.4143
▁distin	-10.4143
▁zonder	-10.4144
▁mina	-10.4146
▁traité	-10.4154
iama	-10.4155
ovania	-10.4155
▁goede	-10.4162
▁αποτελεί	-10.4164
▁Elnök	-10.4167
licht	-10.4167
▁mondiale	-10.4168
ification	-10.4169
▁въпрос	-10.417
▁moramo	-10.4171
erà	-10.4173
▁ceux	-10.4174
▁commune	-10.4176
rang	-10.4179
ţa	-10.418
▁Daar	-10.4185
▁Slov	-10.4189
▁rink	-10.4191
wal	-10.4193
czne	-10.4197
žia	-10.4198
▁Iran	-10.4201
▁Ihnen	-10.4202
▁może	-10.4203
darb	-10.4205
▁cooperazione	-10.4207
äär	-10.4211
▁dimension	-10.4212
▁allmän	-10.4213
penden	-10.4214
går	-10.4216
▁problèmes	-10.4216
▁règlement	-10.4217
▁soziale	-10.4218
▁nepa	-10.4219
▁έχουμε	-10.4223
▁obchod	-10.4224
polit	-10.4226
▁mult	-10.4227
▁mettre	-10.4228
▁diskut	-10.4231
▁Liidu	-10.4235
▁åt	-10.4236
hospodár	-10.4244
▁bud	-10.4245
tention	-10.4251
▁organi	-10.4256
▁pamat	-10.4257
▁agent	-10.4259
▁Κοινοβουλίου	-10.4262
20	-10.4266
▁lever	-10.4268
elijkheid	-10.4269
▁Nord	-10.4269
▁necesidad	-10.4269
ματα	-10.4271
ální	-10.4271
▁drug	-10.4271
šči	-10.4273
▁könnte	-10.4275
▁why	-10.4276
prä	-10.4276
▁quiero	-10.4277
▁différent	-10.4281
▁altre	-10.4282
▁ordfører	-10.4286
▁every	-10.4286
▁energy	-10.4287
03	-10.4288
▁genomföra	-10.4291
▁især	-10.4292
▁Dette	-10.4298
θηκε	-10.4299
▁Pod	-10.4302
▁23	-10.4304
▁съюз	-10.4307
ός	-10.431
ιδ	-10.431
▁président	-10.4312
▁prakt	-10.4318
▁tax	-10.4318
▁Zusammenarbeit	-10.432
demokrat	-10.4327
▁institutioner	-10.4329
ването	-10.4331
organ	-10.4337
▁αυτού	-10.4339
▁Teil	-10.4339
ėms	-10.434
▁под	-10.4343
▁require	-10.4345
▁type	-10.4346
▁gri	-10.4347
▁achieve	-10.4347
▁Minister	-10.4347
dienst	-10.4349
▁vind	-10.435
▁samtidig	-10.4361
beskyttelse	-10.4363
▁globale	-10.4365
schrift	-10.4369
▁λόγω	-10.437
▁andet	-10.4371
▁Είναι	-10.4374
owej	-10.4378
▁demokrat	-10.4378
▁mänskliga	-10.4379
▁idé	-10.4381
▁deras	-10.4382
▁algunos	-10.4383
▁nõu	-10.4384
hinder	-10.4389
fér	-10.4389
▁Tratado	-10.4394
konferenc	-10.4395
▁population	-10.4395
▁mise	-10.4398
vand	-10.4399
▁menos	-10.4412
▁kleine	-10.4414
▁γεγονός	-10.4415
▁Was	-10.4417
▁mohl	-10.4419
▁pirmininke	-10.4426
▁Th	-10.4427
követ	-10.4429
▁pourquoi	-10.4431
nica	-10.4433
▁între	-10.4436
▁lõ	-10.4438
taria	-10.4439
▁principle	-10.4441
▁Hvis	-10.4441
▁vaid	-10.4444
uvre	-10.445
▁Jahre	-10.4452
▁quello	-10.4454
sehen	-10.4455
▁quant	-10.4458
▁bals	-10.4462
▁Verdrag	-10.4462
▁Dan	-10.4464
tiene	-10.4468
istic	-10.447
▁media	-10.4471
▁celle	-10.4472
▁Que	-10.4473
▁inicia	-10.4473
▁ohne	-10.4476
ща	-10.4486
▁iespēja	-10.4489
aggio	-10.449
▁stark	-10.4492
ką	-10.4493
ран	-10.4493
ítás	-10.4497
▁Cha	-10.4499
ζητ	-10.4501
wort	-10.4504
▁pueda	-10.4505
▁Meinung	-10.4509
şi	-10.4512
▁treba	-10.4513
γεν	-10.4516
▁means	-10.4518
▁inzake	-10.4519
racht	-10.452
▁rozhod	-10.4521
ги	-10.4521
▁Unterstützung	-10.4521
▁lovgivning	-10.4525
ба	-10.4526
▁dopo	-10.4531
▁Unii	-10.4531
οχή	-10.4534
▁protección	-10.4536
50	-10.4537
▁wollen	-10.4538
▁rä	-10.4543
ării	-10.4545
▁ανά	-10.4547
tava	-10.4547
▁vandaag	-10.455
▁sidste	-10.455
▁Ausschuss	-10.4551
ίσει	-10.4552
▁l'A	-10.4553
▁tradition	-10.4553
▁mundo	-10.4554
▁samarbete	-10.4559
▁mijnheer	-10.4559
▁entend	-10.4561
stellung	-10.4565
▁komisar	-10.4566
▁veiksm	-10.4566
SE	-10.4569
minister	-10.4574
▁vooral	-10.4575
ź	-10.4576
▁House	-10.458
▁Kri	-10.458
▁О	-10.4581
▁Europejskiej	-10.4582
delen	-10.4585
▁j'ai	-10.4585
kład	-10.4589
▁necessari	-10.459
▁δύο	-10.4591
▁pouvoir	-10.4607
▁tienen	-10.4609
▁holdning	-10.4611
▁sicher	-10.4613
führung	-10.4618
▁luogo	-10.4619
▁prevent	-10.4631
▁innebär	-10.4632
issement	-10.4637
▁critic	-10.464
▁Fraktion	-10.464
▁tutte	-10.464
▁garantire	-10.4642
tamise	-10.4643
üg	-10.4646
teur	-10.4647
▁nemlig	-10.465
▁wenig	-10.4653
▁monitor	-10.4654
ται	-10.4654
cchi	-10.4655
▁takke	-10.4657
φερ	-10.4657
▁komma	-10.4661
▁necessario	-10.4663
ява	-10.4663
άμε	-10.4666
αγωγ	-10.4667
periode	-10.4674
▁διαδικασία	-10.4676
▁sotto	-10.4677
▁tweede	-10.468
▁inoltre	-10.4682
stäm	-10.4682
▁gezegd	-10.4684
ując	-10.4685
▁intens	-10.4688
▁Sz	-10.4688
▁tomto	-10.4689
άσει	-10.469
▁председател	-10.4692
▁transparent	-10.4692
▁corr	-10.4693
τών	-10.4694
▁Т	-10.4698
▁savoir	-10.4703
opera	-10.4703
▁appro	-10.4706
EC	-10.4706
▁υπάρχει	-10.4708
▁Ukrain	-10.4708
▁bland	-10.4712
τυχ	-10.4714
▁cambio	-10.4715
▁without	-10.4716
▁cum	-10.4726
īgu	-10.4728
▁Av	-10.4728
▁minut	-10.4733
▁Mais	-10.4733
▁qué	-10.4736
▁resultado	-10.4744
σχ	-10.4747
▁virkelig	-10.4749
▁pur	-10.4749
▁σύν	-10.4749
möte	-10.4751
▁empresas	-10.4754
▁συγ	-10.4758
▁assist	-10.4758
▁utskottet	-10.476
system	-10.4761
▁landbouw	-10.4763
▁Fra	-10.4765
▁När	-10.4766
▁sull'	-10.4767
▁tikai	-10.4769
▁hoop	-10.4777
▁lieu	-10.478
▁όχι	-10.4781
schaffen	-10.4782
▁importance	-10.4785
▁opinión	-10.4792
▁É	-10.4794
▁ignor	-10.4794
▁υπό	-10.4797
▁χώρα	-10.4803
▁1998	-10.4804
▁permanent	-10.4804
▁αυτήν	-10.4807
▁24	-10.4808
▁Gospod	-10.4814
▁implement	-10.4814
▁declara	-10.4815
▁много	-10.4816
wart	-10.4816
▁И	-10.4823
▁boj	-10.4825
▁seguir	-10.4831
▁klima	-10.4833
▁Kan	-10.4833
▁lång	-10.4834
▁exige	-10.4835
▁zapo	-10.4839
▁procédure	-10.484
▁machen	-10.484
bod	-10.4842
▁Energie	-10.4844
elő	-10.4852
▁valg	-10.4857
▁sport	-10.4857
▁landet	-10.4858
▁Haushalts	-10.4859
▁technologi	-10.4865
▁processus	-10.4869
▁beste	-10.4869
urile	-10.4869
▁close	-10.4875
▁primo	-10.4877
ско	-10.4878
▁relativa	-10.4881
▁Amsterdam	-10.4882
komst	-10.4883
▁enorme	-10.4884
▁šajā	-10.4888
ára	-10.4889
itatea	-10.4894
▁nosotros	-10.4897
ше	-10.4897
blo	-10.4898
▁soprattutto	-10.4899
▁państwa	-10.4904
▁Kar	-10.4909
▁morgen	-10.4913
▁ernst	-10.4914
▁competi	-10.4915
wod	-10.4915
mės	-10.4918
▁strategie	-10.4921
▁applica	-10.4929
▁s'agit	-10.4929
▁stratégie	-10.493
▁verkligen	-10.4932
▁poco	-10.4936
owego	-10.4937
δια	-10.494
▁Č	-10.4944
▁quadro	-10.4944
iausia	-10.4944
▁général	-10.4945
▁zaken	-10.4951
ιμ	-10.4955
▁még	-10.4956
▁status	-10.4956
▁however	-10.4959
▁stanov	-10.4966
▁toujours	-10.4966
▁към	-10.4966
▁podemos	-10.4967
▁queste	-10.497
āku	-10.4971
bund	-10.4973
ajú	-10.4976
▁through	-10.4976
▁increase	-10.498
▁οποίες	-10.4982
εθνικ	-10.4982
▁Situation	-10.4986
▁apoya	-10.4988
▁premier	-10.4989
▁avoir	-10.4989
▁solche	-10.4991
▁80	-10.4991
▁production	-10.4991
▁europæisk	-10.4992
▁governo	-10.4994
Ú	-10.4995
▁proyecto	-10.4995
▁proposte	-10.5001
▁rámci	-10.5002
▁polityk	-10.5003
▁Information	-10.5004
bus	-10.5009
▁dl	-10.5017
▁overeenkomst	-10.5018
▁dock	-10.5019
▁lange	-10.5021
guard	-10.5021
gning	-10.5023
▁relations	-10.5031
▁także	-10.5035
▁Προ	-10.5036
▁objective	-10.5041
▁države	-10.5041
бо	-10.5046
▁vragen	-10.5049
▁Russia	-10.5051
▁molti	-10.5051
▁nám	-10.5052
care	-10.5057
▁común	-10.5058
stellt	-10.5058
▁Stato	-10.5061
▁asunto	-10.5064
▁hjälp	-10.5066
ført	-10.5068
ϊ	-10.507
pal	-10.507
ograf	-10.5071
▁voll	-10.5073
üü	-10.5076
▁rural	-10.5077
▁Ihre	-10.508
▁Sono	-10.5082
▁gentlemen,	-10.5086
▁bijzonder	-10.5086
eń	-10.5088
▁podnik	-10.5089
▁devrait	-10.5091
▁urgent	-10.5093
▁éc	-10.5101
▁internazionale	-10.5106
▁ple	-10.511
▁nauj	-10.5113
▁profession	-10.5117
▁demonstr	-10.5117
▁katastrof	-10.5122
▁contribui	-10.5125
▁blijven	-10.5125
▁poter	-10.5129
ljiv	-10.5129
▁ask	-10.513
industrie	-10.513
▁follow	-10.5131
▁f.eks.	-10.5136
▁crise	-10.514
▁organiza	-10.5141
ibile	-10.5141
▁Namen	-10.5143
τές	-10.5145
δικ	-10.5145
▁(EL)	-10.5149
▁όσο	-10.515
▁konsument	-10.5152
▁αντί	-10.5158
διο	-10.5161
▁Presidenta	-10.517
cov	-10.5175
ează	-10.5176
▁arv	-10.5177
▁risoluzione	-10.5179
▁cours	-10.518
▁difficile	-10.5184
▁kasuta	-10.5185
▁include	-10.5187
▁brengen	-10.5187
▁resulta	-10.5189
▁participa	-10.5194
skrift	-10.5194
▁Irak	-10.5195
▁comunitario	-10.5199
produktion	-10.5199
▁fortsat	-10.52
▁agenda	-10.52
▁trouve	-10.5204
▁jordbruk	-10.5209
▁beaucoup	-10.5211
skih	-10.5212
▁stimul	-10.5215
▁talman,	-10.5221
▁større	-10.5224
▁privind	-10.5225
▁dall'	-10.5225
▁περί	-10.5226
▁pove	-10.5227
▁develop	-10.5227
Λ	-10.5234
▁l'on	-10.5235
▁Mevrouw	-10.5237
▁hasta	-10.5238
▁θέση	-10.5238
▁mesure	-10.5239
tragen	-10.5239
▁Madam	-10.524
gruppen	-10.5242
▁minder	-10.5243
▁allow	-10.5245
geführt	-10.5246
σωπ	-10.5247
▁Haus	-10.5248
▁Commissaire	-10.5251
▁entreprises	-10.5256
zelf	-10.5268
▁druh	-10.5269
▁voorstellen	-10.5272
▁Därför	-10.5272
ucht	-10.5274
▁podría	-10.5274
▁industrie	-10.5275
▁mondo	-10.5276
▁Unternehmen	-10.5277
▁sarebbe	-10.528
moc	-10.5281
▁onorevole	-10.5286
▁komisjoni	-10.5289
▁impact	-10.529
▁namelijk	-10.5296
god	-10.5296
▁nødvendig	-10.5301
▁parece	-10.5301
▁22	-10.5302
▁crucial	-10.5302
▁attiecībā	-10.5303
▁beter	-10.5304
▁krijgen	-10.5304
▁notamment	-10.5305
ì	-10.5306
вър	-10.5309
▁Belg	-10.531
пи	-10.531
▁delega	-10.5312
▁padė	-10.5312
▁αγ	-10.5317
öt	-10.5322
▁occasion	-10.5323
▁identifi	-10.5323
fog	-10.5324
▁dialogue	-10.5324
▁información	-10.5324
▁cél	-10.5325
▁pueden	-10.5326
bilidad	-10.5332
▁autre	-10.5333
▁different	-10.5335
▁össze	-10.5339
▁solicit	-10.5345
▁mensenrechten	-10.5346
▁cultural	-10.5347
▁laquelle	-10.5349
▁begin	-10.535
ēja	-10.5352
▁drugi	-10.5353
▁particularly	-10.5354
▁може	-10.5357
▁implica	-10.5359
πολιτ	-10.5361
▁politiche	-10.5362
▁Probleme	-10.5369
kkel	-10.5374
▁echt	-10.5375
▁alguna	-10.5375
amerika	-10.5377
struktur	-10.5379
seks	-10.5385
τηση	-10.5388
markt	-10.5394
▁manera	-10.5394
▁À	-10.5399
▁lutte	-10.5401
▁rom	-10.5402
▁cual	-10.5411
reiz	-10.5413
▁thing	-10.5415
▁között	-10.5416
løb	-10.5417
είται	-10.5418
▁tilbage	-10.5418
▁τόσο	-10.542
▁zelo	-10.542
hlas	-10.5422
ţă	-10.5423
▁opnå	-10.5426
▁diskusi	-10.5427
▁aumenta	-10.543
▁udtryk	-10.5431
▁costi	-10.5433
just	-10.5434
▁εγκ	-10.5438
āciju	-10.5441
▁volledig	-10.5444
▁ασ	-10.5447
▁normas	-10.5453
▁première	-10.5456
▁försök	-10.5459
▁before	-10.5466
gno	-10.5467
▁stora	-10.5467
fug	-10.5468
▁distribu	-10.5469
▁prendre	-10.5469
▁Estado	-10.5469
▁derecho	-10.547
▁terug	-10.5472
▁breve	-10.5473
▁Evropske	-10.5475
▁Jahren	-10.5478
προ	-10.5479
▁resolución	-10.5481
▁trois	-10.5482
υγ	-10.5483
▁svoje	-10.5484
А	-10.5485
retning	-10.5486
▁middelen	-10.5487
▁espera	-10.5488
stabil	-10.549
▁necessary	-10.549
istische	-10.5495
99	-10.5496
▁relación	-10.5496
φρ	-10.5504
▁darbo	-10.5507
▁essentiel	-10.5507
▁ακόμη	-10.5508
▁εξα	-10.5508
▁collabor	-10.551
▁favour	-10.5512
▁Group	-10.5513
▁economie	-10.5514
▁Cela	-10.5518
▁signal	-10.552
▁health	-10.552
▁qu’	-10.5522
▁Ευρωπαϊκό	-10.5522
gräns	-10.5525
▁qu'un	-10.5526
“	-10.5527
▁odpo	-10.5536
iškai	-10.5538
▁protokol	-10.5538
▁wirklich	-10.5545
съ	-10.5547
▁scop	-10.5548
▁Συμβουλίου	-10.5554
▁vairāk	-10.5554
▁offer	-10.5554
▁presta	-10.5554
▁internet	-10.5555
ność	-10.5559
▁succes	-10.556
▁jeho	-10.556
▁flere	-10.5564
▁τώρα	-10.5567
▁fortfarande	-10.5567
▁terrorisme	-10.5569
▁angår	-10.5571
krat	-10.5572
▁flexibil	-10.5574
▁izmanto	-10.5576
▁If	-10.5578
▁sostegno	-10.5578
▁členské	-10.5579
eniu	-10.5579
▁gegeven	-10.558
▁Elle	-10.5581
ött	-10.5583
maks	-10.5587
▁wetgeving	-10.5587
treten	-10.5587
τροπ	-10.5588
▁L’	-10.5588
▁būs	-10.5589
▁rôle	-10.5589
▁attention	-10.559
zott	-10.5591
▁anno	-10.5592
▁συνεργασία	-10.5593
give	-10.5594
μον	-10.5595
Z	-10.5598
▁ми	-10.5604
möglich	-10.5606
▁foreslå	-10.5606
став	-10.5609
▁zdrav	-10.561
čný	-10.5616
▁verschillende	-10.5617
▁imidlertid	-10.562
▁fakt	-10.5622
istisk	-10.5623
▁relevant	-10.5624
▁schon	-10.5624
ního	-10.5626
▁ligger	-10.5628
▁volgen	-10.5628
ání	-10.5631
lighed	-10.5631
accord	-10.5635
▁aquí	-10.5636
gesetz	-10.5637
▁cele	-10.5645
σπ	-10.565
▁Tak	-10.5651
stoff	-10.5651
Δ	-10.5652
▁Finanz	-10.5654
ość	-10.5656
ējo	-10.5657
▁styrke	-10.5658
▁συμφωνία	-10.5659
▁ezt	-10.5661
media	-10.5664
▁regio	-10.5669
▁Möglichkeit	-10.5669
▁señora	-10.567
▁wish	-10.5672
▁Gobierno	-10.5677
▁lagstiftning	-10.5679
▁posizione	-10.5681
▁доклад	-10.5686
▁millones	-10.5688
▁PPE-DE	-10.569
▁bonne	-10.5695
▁regime	-10.5698
ξει	-10.5709
ėja	-10.5713
▁selbst	-10.5714
▁fonction	-10.5716
alité	-10.5717
▁lov	-10.5723
▁debatt	-10.5723
▁security	-10.5724
σσ	-10.5725
ggio	-10.5726
▁πραγματ	-10.5726
owy	-10.5727
avimo	-10.5728
▁μιας	-10.5728
▁blot	-10.5728
▁hoppas	-10.5729
▁üks	-10.5729
▁dernière	-10.573
λλο	-10.5731
▁faveur	-10.5731
▁emendamenti	-10.5732
▁regulation	-10.5733
▁integration	-10.5735
ën	-10.5735
▁ktorá	-10.5736
▁peaks	-10.5737
bouw	-10.5738
▁standpunt	-10.5747
▁intresse	-10.575
▁tovább	-10.575
▁regeringen	-10.5752
▁darba	-10.5753
▁telle	-10.5753
▁reforma	-10.5754
▁szám	-10.5754
ånd	-10.5757
popul	-10.576
▁Afrika	-10.5762
▁Señora	-10.5764
▁fondamental	-10.5765
sætning	-10.5767
ίσουμε	-10.577
▁stort	-10.5773
▁όλα	-10.5775
▁garantizar	-10.5776
▁parlamentu	-10.5777
krise	-10.5777
98	-10.5777
▁soovi	-10.5793
▁establish	-10.5795
▁Vorrei	-10.5796
▁giver	-10.5797
▁verder	-10.5801
▁Presidencia	-10.5802
▁rod	-10.5803
▁което	-10.5803
▁También	-10.5807
▁emb	-10.5807
▁given	-10.5811
▁government	-10.582
▁amendementen	-10.5821
▁Handel	-10.5829
▁maks	-10.583
▁daarom	-10.5832
▁alap	-10.5833
▁lleva	-10.5835
ával	-10.5836
▁orden	-10.584
▁börja	-10.5841
▁besluit	-10.5842
▁enkele	-10.5842
▁glaube	-10.5842
▁servicios	-10.5842
▁collègues	-10.5866
▁preocupa	-10.5866
▁βασ	-10.5867
▁Thema	-10.5868
▁polic	-10.5875
▁Vertrag	-10.588
▁volt	-10.5881
▁zwar	-10.5881
▁gracias	-10.5883
▁Verenigd	-10.5883
▁tilfælde	-10.5884
▁virksomheder	-10.5886
▁1997	-10.5892
▁Abgeordnete	-10.5893
▁medlemmer	-10.5897
▁drept	-10.5902
▁Δι	-10.5903
▁criminal	-10.5903
▁vårt	-10.5906
▁práva	-10.5909
OM	-10.5916
Б	-10.5916
▁Deres	-10.5917
ový	-10.5917
▁direktivet	-10.5919
▁preced	-10.5921
▁commissaire	-10.5924
▁stesso	-10.5933
▁Entscheidung	-10.5934
▁bilateral	-10.594
▁hoffe	-10.5941
alität	-10.5944
▁abbia	-10.5947
▁einmal	-10.5947
στα	-10.5948
кра	-10.5953
▁számára	-10.5955
Berichterstatter	-10.5956
ετε	-10.5959
inio	-10.596
▁soient	-10.5961
▁potrebbe	-10.5963
hel	-10.5967
▁Entschließung	-10.5968
ίζω	-10.597
▁studi	-10.5973
λου	-10.5975
▁Komisji	-10.5976
▁merito	-10.5983
▁Treaty	-10.5985
▁santé	-10.5993
tagelse	-10.5997
driv	-10.6001
droš	-10.6001
▁nazionali	-10.6002
▁πολιτικής	-10.6005
Institut	-10.6006
▁Ländern	-10.6008
avlja	-10.601
tár	-10.6012
▁politiky	-10.6013
▁UN	-10.6015
▁competencia	-10.6016
▁Pero	-10.6016
▁bezpečnost	-10.6016
ήσουν	-10.6019
▁compromiso	-10.6022
▁vlád	-10.6024
▁posta	-10.6025
▁Så	-10.6026
ări	-10.6027
▁further	-10.6033
10	-10.6035
▁Svet	-10.6041
▁reden	-10.6042
▁Európa	-10.6043
▁afferma	-10.6044
των	-10.6045
ibili	-10.6046
łow	-10.6049
▁relation	-10.6055
αρμ	-10.6055
▁Interesse	-10.6055
šim	-10.6055
▁extrem	-10.6057
σκε	-10.6061
▁meiner	-10.607
▁protest	-10.6073
▁compa	-10.6075
▁ramme	-10.6076
▁postup	-10.6079
▁improve	-10.6082
ήματα	-10.6091
▁2013	-10.6094
▁pouvons	-10.6097
▁fondamentale	-10.6099
▁individual	-10.61
άγ	-10.6101
ující	-10.6105
▁voorzitterschap	-10.6112
▁kungs,	-10.6113
▁dimostra	-10.6115
▁Για	-10.6115
▁principale	-10.6116
▁graag	-10.6117
▁skatte	-10.6119
▁elnök	-10.6119
▁crisi	-10.6122
öö	-10.6125
▁Präsidentin	-10.6132
▁(P	-10.6135
▁votre	-10.6137
▁οικονομική	-10.614
▁zásad	-10.6143
ovala	-10.6144
▁ruolo	-10.6147
▁møde	-10.6154
▁κάθε	-10.6154
▁Natur	-10.6155
importanza	-10.616
▁dichiara	-10.6163
kalb	-10.6163
▁procedimiento	-10.6165
▁femmes	-10.6168
▁blir	-10.6176
▁εισ	-10.6178
▁fase	-10.6179
▁biztosít	-10.6181
lling	-10.6182
▁alebo	-10.6185
▁importancia	-10.6186
▁Signora	-10.6193
▁być	-10.6193
abile	-10.6194
▁progres	-10.6195
▁bal	-10.6195
truk	-10.6196
▁rettigheder	-10.6197
ból	-10.6202
zenie	-10.6205
ajiem	-10.6208
▁εδώ	-10.6209
зна	-10.6217
▁sca	-10.6217
umā	-10.6219
▁Nem	-10.6221
▁voorzitter	-10.6229
▁Lage	-10.6231
▁świ	-10.6235
ê	-10.6237
▁Central	-10.6238
▁responsable	-10.6239
до	-10.6242
▁rechten	-10.6243
▁gada	-10.6245
förfarande	-10.6248
▁lucru	-10.625
▁krok	-10.6255
▁všech	-10.6256
Е	-10.6259
▁Cour	-10.6261
▁felicit	-10.6261
96	-10.6261
30	-10.6262
weit	-10.6262
▁algo	-10.6263
▁lucha	-10.6265
▁rör	-10.6265
nymi	-10.6267
-P	-10.6271
αιρ	-10.6272
▁palju	-10.6276
▁heller	-10.6279
▁glede	-10.6281
læg	-10.6281
likult	-10.6283
φαν	-10.6284
▁possibilità	-10.6287
▁obiettivi	-10.6293
▁economica	-10.6297
▁women	-10.6297
▁ήδη	-10.63
▁Mor	-10.6302
▁siis	-10.6302
▁United	-10.6304
▁natürlich	-10.6308
▁maggiore	-10.6309
▁crois	-10.6315
▁skutočn	-10.6315
-S	-10.6319
щи	-10.6319
iūl	-10.6321
▁význam	-10.6323
▁dove	-10.6325
▁håber	-10.6325
▁predlog	-10.6329
▁again	-10.633
▁empleo	-10.6337
ίγ	-10.6338
▁lég	-10.6342
▁legitim	-10.6342
▁tacka	-10.6342
▁là	-10.6342
ρέ	-10.6345
▁προστασία	-10.6346
processen	-10.6348
▁tagállamok	-10.6352
▁whether	-10.6354
▁būtu	-10.6357
▁cíl	-10.6362
▁velmi	-10.6363
▁byť	-10.6369
ята	-10.637
θέτ	-10.6372
▁serait	-10.6376
▁evitar	-10.6377
Д	-10.6378
▁civile	-10.6379
▁porta	-10.638
▁ЕС	-10.638
ούνται	-10.6385
▁този	-10.6391
icamente	-10.6391
▁account	-10.6392
▁omfatte	-10.6397
pool	-10.6398
▁primera	-10.6398
▁havde	-10.6403
▁susi	-10.6403
▁personer	-10.6404
▁huidige	-10.6406
▁achter	-10.6407
▁Señorías,	-10.6409
▁Mēs	-10.6409
▁Wort	-10.6413
▁ladies	-10.6415
▁nødvendigt	-10.6419
▁religio	-10.6421
▁eest	-10.6429
ίσω	-10.6429
▁Rad	-10.6437
▁gustaría	-10.6439
attività	-10.6439
▁šiuo	-10.6439
▁500	-10.6442
▁procede	-10.6447
▁tuttavia	-10.645
▁række	-10.6451
▁informatie	-10.6452
▁plantea	-10.6454
▁uitvoer	-10.6455
▁bardzo	-10.6456
▁revision	-10.6459
▁vrouwen	-10.6466
▁welche	-10.6471
▁particip	-10.6472
▁l'homme	-10.6472
ακολουθ	-10.6474
▁stille	-10.6477
▁región	-10.6478
▁traktat	-10.6484
▁possono	-10.6486
▁institucij	-10.6489
▁iniciativa	-10.649
▁zasad	-10.649
▁welcome	-10.6493
▁sottolinea	-10.6494
▁politische	-10.6497
▁Kö	-10.6497
▁orgán	-10.65
αρκ	-10.6503
έτ	-10.6505
ítés	-10.6509
▁nepo	-10.6513
▁snel	-10.6516
slut	-10.6519
▁osa	-10.652
▁valstī	-10.6523
▁FN	-10.6524
▁concept	-10.6524
procedure	-10.6526
▁necessità	-10.6527
folge	-10.6528
ще	-10.6534
▁possiamo	-10.6537
▁drei	-10.6538
▁hurtig	-10.654
▁Alle	-10.654
▁aplicación	-10.6547
▁versch	-10.655
▁reikia	-10.6557
hør	-10.656
▁juridique	-10.6562
▁mogen	-10.6565
ții	-10.6567
▁naturligvis	-10.6569
kapit	-10.6571
▁quelle	-10.6575
udvalget	-10.6575
ként	-10.6579
▁ευρωπαϊκή	-10.6582
▁etwas	-10.6585
▁qu’il	-10.6592
из	-10.6594
▁betænkningen	-10.6595
clar	-10.6596
alist	-10.6599
▁bestaan	-10.6599
▁Fin	-10.66
▁συνεχ	-10.66
bygge	-10.66
tische	-10.6607
industri	-10.661
θηκαν	-10.661
▁politischen	-10.6612
▁puis	-10.6619
▁cuestiones	-10.6621
▁understrege	-10.6621
▁socialist	-10.6621
govor	-10.6622
▁εκεί	-10.6622
▁Europejski	-10.6624
▁nacionales	-10.6627
▁accordo	-10.6627
▁konkurrens	-10.6628
▁industrial	-10.6632
▁εμπ	-10.6633
▁pertanto	-10.6633
▁която	-10.6635
▁Με	-10.6637
▁már	-10.6639
produkt	-10.664
▁zapewni	-10.6642
▁enorm	-10.6646
▁behalf	-10.6647
▁Bedeutung	-10.6649
▁résultat	-10.6655
▁darüber	-10.6656
rozum	-10.6663
kelijk	-10.6666
▁Г-	-10.6667
▁αρχ	-10.6671
▁puesto	-10.6672
ccup	-10.6674
▁προκειμένου	-10.6675
▁който	-10.6676
▁κρατών	-10.6677
▁Rusland	-10.668
▁gebracht	-10.6681
▁hem	-10.6684
▁communication	-10.6685
▁maggior	-10.6686
lassen	-10.6686
▁imprese	-10.669
▁между	-10.6691
▁кон	-10.6691
▁ενός	-10.6691
▁besser	-10.6694
▁varit	-10.6694
▁(HU)	-10.6695
▁negli	-10.6696
▁Balkan	-10.6699
▁Schutz	-10.6703
▁passa	-10.6705
▁oplossing	-10.6708
▁week	-10.6708
▁l'ex	-10.6709
houden	-10.6709
04	-10.6711
▁existen	-10.6711
▁δράσ	-10.6713
systeem	-10.6715
▁Questo	-10.6715
▁nationella	-10.6717
▁presupuesto	-10.6717
▁Georg	-10.6718
▁bescherming	-10.6721
▁grado	-10.6721
τρα	-10.6724
▁løsning	-10.6726
▁Cet	-10.6732
▁condiciones	-10.6734
▁asszony	-10.6735
▁Rada	-10.6738
national	-10.674
▁finansiering	-10.6742
▁επαν	-10.6748
érer	-10.6749
ög	-10.675
▁power	-10.675
ceea	-10.6751
▁περισσότερο	-10.6752
▁mezi	-10.6752
▁също	-10.6753
Χ	-10.6755
▁(SV)	-10.6755
▁kræve	-10.676
▁každ	-10.6765
▁directiva	-10.6771
▁zeker	-10.6772
▁keď	-10.6775
▁fundament	-10.6778
▁forsøg	-10.6781
▁Abstimmung	-10.6784
▁nouveau	-10.6784
▁arbeta	-10.6787
flexi	-10.6787
▁obecn	-10.6788
▁recherche	-10.6788
▁samfund	-10.68
▁επίπεδο	-10.6802
▁My	-10.6803
▁decide	-10.681
liggende	-10.6811
▁længe	-10.6811
▁serious	-10.6811
éré	-10.6812
▁μέσω	-10.6813
▁fractie	-10.6815
▁olema	-10.6816
▁między	-10.6817
▁utili	-10.682
ssimo	-10.6821
▁société	-10.6828
▁diplomat	-10.6829
σο	-10.6832
Α	-10.6835
▁Maar	-10.6839
▁peuvent	-10.6844
▁Fragen	-10.6847
▁Lösung	-10.6849
▁Hier	-10.6854
▁souhaite	-10.6856
▁kvinnor	-10.6858
▁öffentlich	-10.6859
▁meest	-10.686
▁però	-10.6862
▁ricerca	-10.6868
ability	-10.6868
▁congratula	-10.6874
īgā	-10.6874
▁práctica	-10.6876
▁besteht	-10.6876
▁εφαρμογή	-10.6878
▁Ook	-10.6878
äll	-10.688
▁diskussion	-10.6883
▁next	-10.6884
tatás	-10.6887
▁ασφάλεια	-10.6888
▁όταν	-10.6889
▁buon	-10.689
ψει	-10.6891
▁nuova	-10.6893
▁Para	-10.6893
▁solid	-10.6896
▁nuovo	-10.6897
▁kurios	-10.6897
▁tanke	-10.6897
ását	-10.6897
mluv	-10.6899
▁Debatte	-10.6901
▁quella	-10.6906
▁Reform	-10.6907
▁consumatori	-10.6914
umiem	-10.6926
▁acepta	-10.6927
jących	-10.6928
▁své	-10.6932
▁(C	-10.6933
▁était	-10.6933
▁try	-10.6938
▁show	-10.6938
▁Creo	-10.694
ovej	-10.694
▁notwendig	-10.6941
▁lub	-10.6944
▁resurs	-10.6947
▁raporti	-10.6953
gress	-10.6953
▁elimina	-10.6956
▁hvordan	-10.6956
▁betydning	-10.6957
▁riigi	-10.6958
▁Gro	-10.696
▁staan	-10.6961
▁verzoek	-10.6962
▁Ž	-10.6964
γραμμ	-10.6964
▁διότι	-10.6972
▁nytt	-10.698
▁drog	-10.6981
▁oportunidad	-10.6981
kennen	-10.6982
▁közös	-10.6984
▁campo	-10.6987
▁d'accord	-10.6992
▁debatten	-10.6994
▁rules	-10.6995
liśmy	-10.6996
▁consommateur	-10.6998
▁unterstützen	-10.7002
▁Tre	-10.7004
▁grundläggande	-10.7005
▁Tuttavia	-10.7009
▁corre	-10.7009
▁stanowi	-10.701
gelegd	-10.7011
▁colega	-10.7014
ccident	-10.7016
döm	-10.7018
ту	-10.7018
▁letzten	-10.7019
▁wissen	-10.7019
▁preoccupa	-10.7022
▁j'	-10.7028
▁midler	-10.7029
▁clair	-10.703
▁1996	-10.7034
hält	-10.7037
▁paga	-10.704
ował	-10.7041
▁imod	-10.7042
-K	-10.7043
▁Rates	-10.7043
glob	-10.7045
▁express	-10.7051
stilling	-10.7053
likku	-10.7056
▁ühe	-10.7057
▁gennemføre	-10.7058
яване	-10.7059
▁juist	-10.706
jih	-10.7064
▁tijdens	-10.7065
▁meil	-10.7066
▁Zukunft	-10.7069
▁26	-10.7077
▁annak	-10.7077
▁μην	-10.708
▁tuleb	-10.7081
вен	-10.7083
▁jejich	-10.7084
▁contribution	-10.7085
▁zvezi	-10.7085
▁účinn	-10.7092
káz	-10.7095
▁quisiera	-10.7096
▁één	-10.7096
έσ	-10.7098
▁κύριε	-10.71
▁pracovní	-10.71
ύρ	-10.7105
raient	-10.7107
▁namens	-10.7109
έμ	-10.7112
▁chiede	-10.7113
responsabil	-10.7115
θεση	-10.7116
▁voto	-10.7118
лага	-10.7121
ruš	-10.7123
▁défini	-10.7127
ίζεται	-10.7131
▁valstybės	-10.7133
▁formandskab	-10.7135
▁ζήτημα	-10.7138
▁člen	-10.7146
pokoj	-10.7148
▁obywatel	-10.7152
▁finanzia	-10.7155
▁condizioni	-10.7155
▁bättre	-10.716
▁kvinder	-10.7161
own	-10.7165
▁opmærksom	-10.717
▁inizi	-10.717
▁miljard	-10.7172
▁handlar	-10.7172
problem	-10.7172
▁s’	-10.7175
▁responsabilità	-10.7182
▁norėčiau	-10.7184
▁rent	-10.7184
▁grundlæggende	-10.7187
gezet	-10.7187
▁verband	-10.719
▁въз	-10.7195
▁dernier	-10.7195
τυπ	-10.7196
▁positie	-10.7204
▁europeisk	-10.7208
▁juni	-10.7209
økonomi	-10.721
ши	-10.7213
▁Če	-10.7213
▁kvalit	-10.7218
▁budou	-10.722
▁look	-10.7221
▁señal	-10.7221
▁back	-10.7223
▁така	-10.7227
▁liberté	-10.7233
▁económico	-10.7234
äck	-10.7243
▁vedrørende	-10.7245
▁progressi	-10.7247
▁società	-10.7248
▁Pane	-10.7248
▁mujeres	-10.7255
▁maxim	-10.7256
▁всички	-10.7257
▁Bank	-10.7258
▁daher	-10.726
▁tule	-10.726
▁styr	-10.7262
▁rozpočt	-10.7264
▁potřeb	-10.7272
▁Vážený	-10.7272
▁možnost	-10.7273
▁συζητ	-10.7279
▁Πρέπει	-10.7286
επ	-10.7288
▁responsabilité	-10.7289
▁arriv	-10.7292
économie	-10.7293
▁aandacht	-10.7293
ération	-10.7293
regul	-10.7296
▁pagal	-10.7298
▁parole	-10.73
▁responsabilidad	-10.7301
▁28	-10.7308
▁piac	-10.7313
▁libertà	-10.7318
▁especial	-10.7319
τεχν	-10.7322
▁70	-10.7322
effekt	-10.7324
▁pêche	-10.7325
▁mantener	-10.7325
▁confirm	-10.7327
▁hoog	-10.7329
▁Präsident	-10.7332
▁stemming	-10.7333
koha	-10.7338
▁slov	-10.7339
▁liikmesriikide	-10.734
▁31	-10.7341
▁οδηγία	-10.7347
▁gratul	-10.735
stoj	-10.7351
▁l'un	-10.7352
▁šis	-10.7354
trauk	-10.7356
runā	-10.7358
▁better	-10.7358
▁Tanács	-10.7359
▁sentido	-10.7366
▁przed	-10.7368
stipr	-10.7371
▁εάν	-10.7371
πορ	-10.7375
▁iets	-10.7377
▁depuis	-10.7378
▁Staaten	-10.7381
▁approach	-10.7384
▁papel	-10.7386
▁betreffende	-10.7388
▁meilleur	-10.7392
▁απαιτ	-10.7398
▁rezultat	-10.7399
iteľ	-10.7403
▁keli	-10.7404
▁stát	-10.7406
▁speak	-10.7406
▁Aussprache	-10.741
▁balance	-10.7415
αντ	-10.7415
▁afecta	-10.7418
▁regolamento	-10.742
▁façon	-10.7421
▁prodotti	-10.7421
▁Sąjungos	-10.7423
▁réforme	-10.7423
▁hely	-10.7428
ovanje	-10.7429
▁conflit	-10.7434
ове	-10.744
sättning	-10.7444
▁csak	-10.7446
▁approva	-10.745
▁J'ai	-10.7454
▁relatore	-10.7455
lichkeit	-10.7457
▁framework	-10.7462
igheid	-10.7462
▁εργασίας	-10.7463
▁marknaden	-10.7464
▁service	-10.7466
▁tych	-10.747
X	-10.7471
при	-10.7473
▁цел	-10.7474
▁prieš	-10.7477
▁Parti	-10.7479
▁zagotovi	-10.7479
itve	-10.7482
▁legislation	-10.7486
βι	-10.7487
uose	-10.7488
▁vinden	-10.749
Ä	-10.7491
▁adopted	-10.7493
▁næste	-10.7495
▁skyld	-10.7502
▁natuurlijk	-10.7503
▁ännu	-10.7505
▁mond	-10.7506
▁cerca	-10.7508
zahl	-10.7509
εδρ	-10.7509
bank	-10.751
▁riikide	-10.7511
▁partecip	-10.7512
▁agricultura	-10.7518
▁comunitaria	-10.7527
▁Gebiet	-10.7528
▁bomo	-10.7531
▁après	-10.7535
μπ	-10.7535
ģ	-10.7537
▁drøfte	-10.7542
М	-10.7544
▁limita	-10.7545
μένων	-10.7545
▁grupo	-10.755
▁efecto	-10.7551
erfolg	-10.7551
▁présidence	-10.7552
▁alors	-10.7556
▁presentar	-10.7563
▁zurück	-10.7563
ustatud	-10.7564
küsimus	-10.7568
▁fil	-10.7571
▁bijdrage	-10.7572
▁december	-10.7573
▁régime	-10.7573
▁skaidr	-10.7575
▁einzu	-10.7579
▁Wettbewerb	-10.758
punt	-10.7586
цен	-10.7587
▁konkurrence	-10.7592
▁pensa	-10.7596
▁omfatta	-10.7597
près	-10.76
▁vilka	-10.7601
▁documento	-10.7602
▁kvalitet	-10.7603
▁consecuencia	-10.7604
kehr	-10.7605
▁consiste	-10.7608
▁μπορούμε	-10.7611
▁galimyb	-10.7611
βάν	-10.7615
▁Rolle	-10.7619
▁financière	-10.7621
▁indføre	-10.7621
ието	-10.7621
▁jomā	-10.7621
TA	-10.7622
izar	-10.7622
▁controllo	-10.7622
▁gedaan	-10.7626
▁dalle	-10.7627
▁αυτής	-10.7629
▁associa	-10.763
▁Ευρωπαϊκού	-10.7633
▁ιδιαίτερα	-10.7633
▁propone	-10.7636
▁subject	-10.7644
▁trh	-10.7649
▁soltanto	-10.7653
▁προσπάθει	-10.7654
▁cento	-10.7655
ovaní	-10.7664
χωρ	-10.7668
▁тази	-10.7675
konvention	-10.7679
▁ειδικ	-10.7681
▁förbättra	-10.7681
раз	-10.7683
▁petit	-10.7686
▁uppnå	-10.7686
▁μπορούν	-10.769
▁indsats	-10.769
gebied	-10.7694
▁What	-10.7694
▁législation	-10.7696
tega	-10.77
▁szavaz	-10.77
▁μελών	-10.7703
▁International	-10.7703
▁NATO	-10.7707
▁hora	-10.7707
▁gemaakt	-10.7708
▁σημασία	-10.771
▁lotta	-10.7712
▁esfuerzo	-10.7713
emendamento	-10.772
urilor	-10.7722
▁īpaši	-10.7722
▁άλλο	-10.7725
▁budú	-10.7726
júci	-10.7727
▁šia	-10.7731
▁ratifica	-10.7733
▁positivo	-10.7734
▁respuesta	-10.774
owane	-10.7742
▁kommissionär	-10.7745
▁terület	-10.7745
▁rette	-10.7749
▁contenu	-10.775
▁možn	-10.7751
▁System	-10.776
▁тези	-10.7763
▁consumer	-10.7763
▁Ωστόσο	-10.7766
▁trebui	-10.777
post	-10.7774
▁teknisk	-10.7775
träge	-10.7775
▁bijvoorbeeld	-10.7782
▁Selle	-10.7785
▁90	-10.7787
▁Presidenza	-10.7789
▁especialmente	-10.779
▁razvoj	-10.7791
▁all’	-10.7791
▁μετά	-10.7794
▁respond	-10.7799
▁jednak	-10.78
▁noodzakelijk	-10.78
▁Prodi	-10.7804
▁2012	-10.7804
▁raha	-10.7809
▁trabaja	-10.7814
καλ	-10.7817
▁interpret	-10.7824
▁sprememb	-10.7824
▁gennemførelse	-10.7826
▁Zusammenhang	-10.7826
▁continent	-10.783
auja	-10.7831
▁opfordre	-10.7833
▁landbrug	-10.7835
▁använda	-10.7836
clusi	-10.7837
▁καταστ	-10.7838
▁resolutie	-10.7842
▁pretože	-10.7843
▁few	-10.7844
▁technologie	-10.7846
▁αυτόν	-10.7854
▁PSE	-10.7857
▁adopté	-10.7859
▁glas	-10.7861
▁νέα	-10.7863
rium	-10.7864
▁történ	-10.7866
tavad	-10.7868
▁miljoen	-10.7871
▁productos	-10.7873
▁jó	-10.7875
▁gesagt	-10.7876
▁stödja	-10.7877
▁tercer	-10.7881
▁Vorschläge	-10.7883
▁zusammen	-10.7884
▁zgod	-10.789
▁Deshalb	-10.789
▁elektr	-10.7891
▁whole	-10.7896
schlag	-10.7899
▁aplicar	-10.7901
▁padar	-10.7901
κρατ	-10.7902
▁världen	-10.7904
▁bepaalde	-10.7905
▁annat	-10.7905
лу	-10.7908
▁nostre	-10.7909
▁mediante	-10.791
▁possibilité	-10.791
ňov	-10.7916
▁vanskelig	-10.7921
evanje	-10.7921
▁kapital	-10.7921
▁främja	-10.7922
▁conserva	-10.7929
▁uttryck	-10.7932
▁justice	-10.7935
▁exprim	-10.7936
▁altijd	-10.7943
▁χωρίς	-10.7947
▁Zato	-10.7948
▁29	-10.795
лю	-10.7952
▁procedura	-10.7956
owym	-10.7956
▁státy	-10.7957
▁gav	-10.7958
▁betyder	-10.7958
▁propre	-10.796
Π	-10.7965
▁täna	-10.7967
▁evidente	-10.7967
▁Ashton	-10.7972
▁danger	-10.7973
information	-10.7974
▁Dobbiamo	-10.7976
▁zowel	-10.7982
▁veic	-10.7982
ppliqu	-10.7983
▁Dank	-10.7984
▁tým	-10.7984
▁contrario	-10.7986
▁μέτρα	-10.7987
▁större	-10.7988
▁konkrét	-10.7993
satser	-10.7996
▁incluso	-10.7997
wol	-10.7999
▁risque	-10.8
▁legislación	-10.8005
▁dnes	-10.8006
▁Pakistan	-10.8006
▁ervan	-10.8015
▁forstå	-10.8016
sitz	-10.8019
▁Messieurs	-10.8021
▁diputados	-10.803
▁relazioni	-10.8032
▁Voor	-10.8036
▁Ergebnis	-10.8038
▁prezident	-10.8043
▁først	-10.8045
publik	-10.8049
▁относно	-10.8052
▁ledamöter	-10.8053
▁teljes	-10.8058
værdi	-10.8059
ции	-10.8061
▁finanční	-10.8062
▁collega's	-10.8064
▁gemensam	-10.8064
▁Komisja	-10.8065
▁visse	-10.8065
full	-10.8067
▁rzecz	-10.8069
σημ	-10.8076
▁javaslat	-10.8076
▁familia	-10.8079
▁ringrazia	-10.8081
▁valamint	-10.8081
▁δημιουργ	-10.8082
▁uppgift	-10.8083
▁както	-10.8085
Änderungsanträge	-10.8086
▁règles	-10.8086
ησης	-10.8087
▁zodat	-10.8092
▁prochain	-10.8096
▁αποτελεσματικ	-10.8098
▁bolj	-10.8099
▁forward	-10.8101
mysl	-10.8101
▁amplia	-10.8105
▁nonché	-10.8105
løs	-10.8108
▁nämlich	-10.8113
▁skr	-10.8116
▁úrovni	-10.812
nější	-10.8124
hető	-10.8126
▁Gru	-10.8128
▁vedere	-10.8129
▁formand	-10.8133
▁Menschenrechte	-10.8133
▁bekæmpe	-10.8136
tegevus	-10.8138
▁energía	-10.814
-R	-10.814
▁compens	-10.8142
ský	-10.8143
▁atención	-10.8146
▁ettepaneku	-10.8146
▁betrokken	-10.8146
τεί	-10.8154
▁formula	-10.8155
▁susitar	-10.816
▁lösning	-10.8161
κρο	-10.8162
▁reconoc	-10.8162
▁Tag	-10.8168
▁munka	-10.8169
▁adapt	-10.817
enblik	-10.8171
▁turėtų	-10.8174
organisatie	-10.8174
▁programmi	-10.8181
▁consumidor	-10.8182
eerimis	-10.8188
program	-10.8189
▁По	-10.819
▁risorse	-10.8195
lép	-10.8195
▁oleks	-10.8197
▁step	-10.8198
J	-10.8201
▁rád	-10.8201
bilità	-10.8202
▁svarbu	-10.8202
▁medborgare	-10.8203
▁waarde	-10.8206
▁libertad	-10.8206
05	-10.8207
▁cualquier	-10.8211
▁pratique	-10.8212
▁sûr	-10.8213
umą	-10.8214
▁forbruger	-10.8222
▁fatti	-10.8224
▁cał	-10.8227
▁úgy	-10.8228
tjeneste	-10.823
▁vonatkozó	-10.8235
▁Fondo	-10.824
izmu	-10.824
▁ervoor	-10.8243
▁Artikel	-10.8245
▁helyzet	-10.8252
treden	-10.8253
▁pieņem	-10.8255
reserv	-10.8259
97	-10.826
▁encourage	-10.8262
▁drie	-10.8263
▁põhi	-10.8268
▁Ομάδα	-10.827
tāju	-10.8272
Р	-10.8276
εξ	-10.8278
▁qualité	-10.8281
▁realmente	-10.8284
▁basa	-10.8287
▁font	-10.8289
▁nõukogu	-10.829
▁saug	-10.8295
▁elektro	-10.8295
▁radio	-10.8297
▁claro	-10.8298
▁Mesdames	-10.8298
▁tohto	-10.8301
ställning	-10.8301
τήρι	-10.8306
issant	-10.8307
▁határ	-10.8308
▁avanza	-10.8308
▁názor	-10.8309
Union	-10.8309
▁diskutera	-10.831
▁dibattito	-10.8311
▁rekening	-10.8314
▁decisión	-10.8314
▁create	-10.8318
▁ambiente	-10.8323
ωθεί	-10.8325
▁opatření	-10.8327
▁publique	-10.8327
▁consolida	-10.8329
▁økonomisk	-10.8329
▁parlement	-10.8332
▁minimum	-10.8334
▁borgere	-10.8334
▁kundze	-10.8336
▁instellingen	-10.8341
ll’Unione	-10.8343
beginsel	-10.8344
▁nouveaux	-10.8345
▁urge	-10.8345
▁palabra	-10.8346
▁øge	-10.8348
▁move	-10.8348
▁concerned	-10.8353
prāt	-10.8359
ño	-10.836
▁Liberal	-10.8366
▁cuanto	-10.8375
▁trhu	-10.8378
▁towards	-10.8378
▁turime	-10.8379
▁viktig	-10.8381
▁funktion	-10.8386
▁deputati	-10.8386
▁futur	-10.8387
▁Κυρία	-10.839
▁Ministro	-10.8393
▁evropské	-10.8395
γνωρ	-10.8398
▁fiskeri	-10.84
▁sklad	-10.8401
rouw	-10.8407
▁országok	-10.8408
▁gazdasági	-10.8413
gørelse	-10.8414
▁minska	-10.8417
▁föredraganden	-10.8419
▁έναν	-10.8419
▁Europol	-10.8419
▁įgyvendin	-10.8423
▁environment	-10.8424
approche	-10.8425
▁working	-10.8427
акт	-10.8427
▁protože	-10.8428
▁terrorism	-10.8429
▁pēc	-10.8433
ду	-10.8437
▁gælder	-10.844
εμπορ	-10.844
▁zemí	-10.8441
▁periodo	-10.8443
gevoerd	-10.8444
▁exclu	-10.8444
-même	-10.8446
▁werkgelegenheid	-10.8447
▁nuovi	-10.8447
▁qualità	-10.8447
wand	-10.8448
šķir	-10.845
▁three	-10.845
ācija	-10.8453
▁πράγμα	-10.8454
ňuje	-10.846
▁stabilitet	-10.846
▁Markt	-10.8461
▁organism	-10.8461
▁posibilidad	-10.8466
▁forpligte	-10.8467
▁zdroj	-10.847
▁réponse	-10.847
▁vlastn	-10.8488
▁play	-10.8489
▁szó	-10.849
▁šā	-10.8492
▁ос	-10.8492
▁Volk	-10.8494
▁l'inter	-10.8496
▁comercial	-10.8497
▁Sozial	-10.8498
▁Todėl	-10.8505
▁zadev	-10.8505
ευση	-10.8508
▁protezione	-10.8509
▁σχέση	-10.8513
princip	-10.8515
▁produkter	-10.8515
▁ζω	-10.852
particulièrement	-10.8521
▁appr	-10.8523
▁harmonise	-10.8524
▁Tā	-10.8524
▁utilizz	-10.8525
▁Beispiel	-10.8528
▁förslaget	-10.8531
odloč	-10.8534
▁Ansicht	-10.8534
▁toeta	-10.8534
▁Gleich	-10.8537
▁affect	-10.8538
▁tutela	-10.8538
▁Европа	-10.854
▁tiež	-10.854
▁aiuti	-10.8544
▁concentr	-10.8549
▁πρόκειται	-10.855
ované	-10.8552
▁tack	-10.8552
▁υπέρ	-10.8554
instrument	-10.8561
▁votación	-10.8567
▁aplica	-10.857
ността	-10.8573
▁going	-10.8574
▁peame	-10.8574
стоя	-10.8575
▁Amerika	-10.8575
griff	-10.8578
ského	-10.8579
▁fiske	-10.8582
▁pubblica	-10.8585
▁verantwoord	-10.8585
▁internationella	-10.8588
▁gegenüber	-10.8592
▁Under	-10.8593
▁priekš	-10.8594
ша	-10.8595
▁streng	-10.8595
▁corso	-10.8596
▁Palestin	-10.8597
ového	-10.8603
χειρ	-10.8608
▁teraz	-10.861
▁sterk	-10.8611
▁potrzeb	-10.8613
▁encontr	-10.8614
initiativ	-10.8614
▁obstante	-10.8619
▁vän	-10.8623
▁υπάρχουν	-10.8625
▁simplement	-10.8625
τρέψ	-10.8626
brug	-10.8628
▁kaits	-10.8629
μένα	-10.8631
▁szerint	-10.8632
AS	-10.8636
▁occupa	-10.8637
▁tenga	-10.864
▁Verbraucher	-10.8643
▁macht	-10.8646
▁economía	-10.8647
▁sytuacj	-10.8647
▁Συν	-10.8647
▁πολίτες	-10.8651
γγ	-10.8651
▁Staat	-10.8652
λλαγή	-10.8654
▁something	-10.8657
▁onderwerp	-10.8658
λόγ	-10.8659
▁vigor	-10.8659
▁otsus	-10.866
▁ενώ	-10.866
▁Υπ	-10.8662
▁ezek	-10.8665
infl	-10.8665
▁nuværende	-10.8668
▁borgerne	-10.8679
▁anvende	-10.8681
▁immigrati	-10.8685
▁milioni	-10.8685
▁semble	-10.8695
▁négociations	-10.8717
▁1995	-10.8721
▁aún	-10.8723
▁szóló	-10.8723
ităţi	-10.8725
▁l'onorevole	-10.8726
▁Directiva	-10.8734
▁davon	-10.8744
▁Hvad	-10.8749
▁sociedad	-10.8751
▁Leben	-10.8752
▁autorità	-10.8757
ėmis	-10.8761
▁negoci	-10.8764
▁recursos	-10.8764
▁περίπτωση	-10.8764
▁ændring	-10.8764
▁factor	-10.8768
▁expert	-10.8769
▁érdekében	-10.8769
▁ponieważ	-10.8775
▁priprav	-10.8775
/E	-10.8783
▁remain	-10.8784
▁szabály	-10.8788
▁stále	-10.8788
ιστεί	-10.879
▁državljan	-10.8792
τέλ	-10.8792
▁instituciones	-10.8795
▁támogat	-10.8795
▁sufficient	-10.8801
ъл	-10.8803
▁ühis	-10.8803
biztonság	-10.8803
δρα	-10.8804
▁forbedre	-10.8805
▁peab	-10.8806
▁antwoord	-10.8806
▁Weise	-10.8807
фи	-10.8811
▁ALDE	-10.8812
▁guarantee	-10.8812
import	-10.8812
▁clairement	-10.8813
▁най-	-10.8825
▁κάτι	-10.8827
▁giorno	-10.883
▁Strategie	-10.8831
▁mondial	-10.8831
posizione	-10.8831
▁praegu	-10.8832
▁slot	-10.8833
▁sundhed	-10.8835
φέρει	-10.8836
▁udarbejde	-10.8837
▁κοινή	-10.8838
▁become	-10.884
▁expresa	-10.8842
▁terrorismo	-10.8843
kræ	-10.8843
▁contact	-10.8843
bry	-10.8849
systemet	-10.885
▁material	-10.8853
▁referendum	-10.8856
izzare	-10.8856
▁monopol	-10.8862
▁alvorlig	-10.8864
▁selon	-10.8865
▁recib	-10.8866
▁nástroj	-10.8867
▁répond	-10.8867
▁remercier	-10.8868
▁naturligtvis	-10.8869
köt	-10.8872
▁celebra	-10.8874
onderhandelingen	-10.8874
▁buiten	-10.8875
▁hervorming	-10.8881
όμαστε	-10.8883
▁transit	-10.8883
▁πως	-10.8889
▁ricorda	-10.8893
▁small	-10.8897
ръ	-10.8899
σαμε	-10.8903
▁wanneer	-10.8908
▁discute	-10.8908
▁χρόνια	-10.891
nění	-10.8912
▁voté	-10.8912
▁savu	-10.8914
▁gospodarcz	-10.8922
▁m'	-10.8924
▁ytterligare	-10.8928
gún	-10.8929
ηθούν	-10.8931
▁Gesundheit	-10.8932
▁betrifft	-10.8938
setzung	-10.894
▁följa	-10.894
▁200	-10.8943
▁συσ	-10.8946
▁freedom	-10.895
▁úloh	-10.8961
▁utveckla	-10.8962
▁œuvre	-10.8965
▁ισχύ	-10.8968
▁förstå	-10.897
▁grupper	-10.8971
ομαι	-10.8971
▁deutlich	-10.8974
▁investigación	-10.8976
▁tylko	-10.8981
▁necesita	-10.8984
▁resources	-10.8987
▁riguardo	-10.899
▁garantera	-10.8994
▁hlav	-10.8994
▁environmental	-10.8995
▁δικαιωμάτων	-10.8995
▁correspond	-10.8996
ēji	-10.9002
▁pourrait	-10.9003
▁laatste	-10.9006
granicz	-10.9009
▁l'I	-10.901
▁hulp	-10.9014
ува	-10.9014
▁verklig	-10.9014
handlung	-10.9017
▁Republik	-10.9019
▁nombreux	-10.9023
▁behovet	-10.9026
ηματ	-10.9031
▁posición	-10.9031
timmung	-10.9031
του	-10.9033
▁begrüße	-10.9034
▁bereit	-10.9038
præ	-10.9042
▁Jak	-10.9042
▁spørgsmålet	-10.9043
▁możliw	-10.9044
▁világ	-10.9044
▁foarte	-10.9051
▁down	-10.9054
ур	-10.9055
▁Това	-10.9055
▁funciona	-10.9055
▁hätte	-10.9055
▁īsteno	-10.9057
▁patent	-10.906
▁artículo	-10.9065
▁snabb	-10.9065
▁segundo	-10.9066
▁όπου	-10.9067
▁plán	-10.9069
ER	-10.9075
▁penal	-10.9078
▁excellent	-10.9079
▁richtig	-10.908
ход	-10.9081
▁arbeids	-10.9082
▁Mums	-10.9083
▁moeilijk	-10.9083
▁guerra	-10.9087
▁Meine	-10.909
▁netop	-10.9092
▁Produkt	-10.9093
setzt	-10.9096
▁groei	-10.9097
vah	-10.9097
▁utgör	-10.9101
▁exact	-10.9107
▁siempre	-10.9108
ект	-10.9114
▁razón	-10.9117
EF	-10.9118
▁aumento	-10.9118
▁υπόψη	-10.9131
▁jaren	-10.9137
▁těch	-10.9137
sistenza	-10.9138
mærke	-10.9142
▁conseguir	-10.9143
▁gyven	-10.9147
▁νέο	-10.9155
▁desidero	-10.9159
strādā	-10.9164
▁miliard	-10.9165
▁opportunity	-10.9168
národn	-10.9168
▁General	-10.9169
▁szabad	-10.9171
▁Unidos	-10.9172
▁Udvalget	-10.9172
τερο	-10.9176
▁regret	-10.9177
ED	-10.9179
▁senaste	-10.9182
▁violence	-10.9182
▁crime	-10.9183
▁Evropa	-10.9192
niveau	-10.9192
▁Unter	-10.9194
▁Συνθήκη	-10.9199
▁definitiv	-10.92
▁including	-10.9201
▁verschiedene	-10.9203
αίρ	-10.9206
▁môže	-10.9207
▁poolt	-10.9207
▁zaradi	-10.9215
▁waarop	-10.9216
▁série	-10.9216
▁Tomēr	-10.9216
▁valsts	-10.922
▁simple	-10.9222
▁concurrentie	-10.9223
▁във	-10.9238
▁finansielle	-10.9238
▁votar	-10.9238
verkehr	-10.924
βουλ	-10.9241
▁uppmana	-10.9242
▁κρίση	-10.9243
▁Partner	-10.9245
▁Wahl	-10.9253
▁genau	-10.9255
▁Ευρώπης	-10.9264
▁portug	-10.9265
▁taik	-10.9266
▁υπερ	-10.9269
▁Sra.	-10.9273
▁perspective	-10.9273
▁juht	-10.9274
▁third	-10.9278
▁credo	-10.9278
▁Kontroll	-10.9279
▁narių	-10.9281
▁nécessité	-10.9283
institution	-10.9287
▁Τα	-10.9289
▁reikal	-10.9293
▁Presidency	-10.9294
▁kateri	-10.9299
producent	-10.93
▁addition	-10.93
▁German	-10.9304
▁chance	-10.9304
▁employment	-10.9307
▁salud	-10.9313
▁proposed	-10.9319
▁pública	-10.9323
▁prag	-10.9325
▁liberaliz	-10.9325
▁šį	-10.9327
▁europee	-10.9336
ième	-10.9337
▁beskæftigelse	-10.9338
▁tidigare	-10.9338
▁poiché	-10.9339
▁käsitle	-10.9344
dział	-10.9345
færd	-10.9352
ībām	-10.9355
▁saavuta	-10.9361
▁estrategia	-10.9361
▁hoofd	-10.9362
bestämmelser	-10.9363
īgs	-10.9366
▁calidad	-10.9366
▁committee	-10.9367
▁J'	-10.9368
▁authorities	-10.9369
ovanja	-10.937
▁emellertid	-10.9372
förande	-10.9373
▁research	-10.938
▁gezondheid	-10.9381
▁plazo	-10.9381
▁público	-10.9382
▁wirtschaftliche	-10.9384
hilfe	-10.9387
▁aunque	-10.9388
▁valstybių	-10.9388
▁бъдат	-10.939
▁esiste	-10.939
▁welke	-10.939
▁policies	-10.939
▁shall	-10.9395
▁conclude	-10.9397
▁Padome	-10.9398
▁intervention	-10.94
dès	-10.9402
·	-10.9405
▁endast	-10.9405
▁tiesību	-10.9412
▁anvendelse	-10.9413
▁или	-10.9413
▁free	-10.9413
▁δικαιώματα	-10.9414
▁invece	-10.9414
▁frei	-10.9415
▁halv	-10.9417
economia	-10.9418
▁Ebene	-10.9421
μορφ	-10.9425
▁afgørende	-10.9432
ijoje	-10.9439
▁félicite	-10.9442
▁Gruppe	-10.9443
▁(SK)	-10.9444
▁poročilo	-10.9447
▁progetto	-10.9452
amendement	-10.9454
▁s'est	-10.9455
▁puisse	-10.9457
roepen	-10.9457
▁lavora	-10.946
ίζουν	-10.9464
σχε	-10.9468
▁αυτών	-10.9471
▁peace	-10.9474
▁polgár	-10.9475
▁támogatás	-10.9479
▁gén	-10.9479
ziehen	-10.9479
▁tohoto	-10.948
▁negociaciones	-10.9481
▁internal	-10.9481
▁essential	-10.9481
▁säker	-10.9483
▁organisations	-10.9484
▁cabo	-10.9484
▁fourni	-10.9486
iële	-10.9486
▁jelent	-10.9488
▁emot	-10.9497
▁analiz	-10.95
κιν	-10.95
▁Abkommen	-10.95
▁tidligere	-10.95
▁juhataja,	-10.9502
▁ανάγκη	-10.9504
▁οργαν	-10.9507
▁drama	-10.951
▁mayoría	-10.951
mettere	-10.9511
▁hodnot	-10.9512
▁voorgesteld	-10.9512
▁erforderlich	-10.9513
▁asyl	-10.9515
▁Σε	-10.9515
▁nagyon	-10.9518
▁especially	-10.9518
▁changement	-10.952
rück	-10.952
▁skupiny	-10.9526
▁członkowskich	-10.9534
▁žiad	-10.9535
▁strong	-10.9539
region	-10.9539
fråga	-10.9541
▁provision	-10.9543
▁nodrošināt	-10.9547
▁solidaritet	-10.9547
▁risposta	-10.9549
▁démocratique	-10.955
▁států	-10.9551
▁chaque	-10.9555
tijd	-10.9558
▁emne	-10.956
▁azonban	-10.9565
▁cro	-10.9565
▁ktorí	-10.9566
▁rättigheterna	-10.9572
▁familie	-10.9575
▁together	-10.9576
uoto	-10.9577
▁maintenant	-10.9578
▁Italia	-10.9585
▁Assemblée	-10.9585
▁podporo	-10.9589
▁vertegenwoordig	-10.959
▁während	-10.9596
▁accetta	-10.9598
▁mindst	-10.9598
▁kommende	-10.9599
▁bidra	-10.9603
ására	-10.9604
▁kogu	-10.9606
▁další	-10.9607
chádza	-10.961
▁dynami	-10.9614
▁oltre	-10.9616
▁Verfahren	-10.9618
▁αυτο	-10.9618
▁jaoks	-10.9618
▁szint	-10.9622
▁európske	-10.9625
▁само	-10.9626
▁svobod	-10.9628
▁acquis	-10.9631
▁Parlamendi	-10.9632
▁35	-10.9635
▁sociáln	-10.9637
▁fail	-10.9638
▁Tačiau	-10.9638
▁ρόλο	-10.964
▁affrontare	-10.9642
ώσεις	-10.9643
▁necesaria	-10.9644
rādī	-10.9645
▁σοβαρ	-10.9645
išč	-10.9645
▁(CS)	-10.9646
▁terror	-10.9648
greifen	-10.9649
▁intérieur	-10.9651
▁nächste	-10.9654
▁Fund	-10.9655
▁г.	-10.9657
▁multilateral	-10.9659
▁affinché	-10.966
▁plusieurs	-10.9663
▁clearly	-10.9663
beheer	-10.9667
visning	-10.9667
vaardig	-10.9668
schließen	-10.9669
missie	-10.9669
▁ændre	-10.9672
▁cilj	-10.9673
▁bisogno	-10.9676
▁démocratie	-10.9676
▁menciona	-10.9684
ālā	-10.9685
iscono	-10.9688
▁intérêt	-10.9698
ifik	-10.9699
▁PPE	-10.9699
▁debba	-10.9699
▁Bruxelles	-10.9702
▁industry	-10.9703
hovor	-10.9714
▁rendszer	-10.9715
Κ	-10.9719
▁již	-10.9722
▁został	-10.9722
▁võimalik	-10.9723
▁Trattato	-10.9728
▁czas	-10.973
▁voldoen	-10.9733
▁dabei	-10.9735
▁Convention	-10.9736
regler	-10.9738
▁fortsätta	-10.974
▁statut	-10.9745
▁πρόβλημα	-10.9745
▁riusci	-10.9746
▁propio	-10.9748
▁Kina	-10.9755
▁grundlag	-10.9759
▁fremskridt	-10.976
▁sociāl	-10.9764
пъл	-10.9768
▁permette	-10.9769
▁negotiations	-10.9769
▁procedur	-10.9769
▁infrastruktur	-10.9772
tätig	-10.9772
▁Änderungsantrag	-10.9778
▁Derecho	-10.9781
▁член	-10.9782
sproces	-10.9784
▁určit	-10.9784
CO	-10.9788
▁Fortschritt	-10.9789
▁Beschäftigung	-10.9791
stille	-10.9793
▁Agenda	-10.9794
partner	-10.9798
νόμ	-10.98
▁ενέργεια	-10.9807
israel	-10.9808
▁valeur	-10.9811
ává	-10.9813
▁svilupp	-10.9814
▁kollega	-10.9818
▁buena	-10.9822
▁Kinder	-10.9825
arbejde	-10.983
▁glad	-10.9834
▁moneta	-10.9836
▁business	-10.9838
fördraget	-10.9846
▁już	-10.9849
▁nuove	-10.9852
▁responsibility	-10.9856
▁strategy	-10.9856
▁écrit	-10.9857
▁Damen	-10.9857
▁medlemsstat	-10.9858
▁itself	-10.9861
▁verplicht	-10.9867
▁lägga	-10.9867
▁operation	-10.9867
rilor	-10.9868
▁protect	-10.987
▁llama	-10.987
▁mejorar	-10.9871
▁concentra	-10.9872
▁comporta	-10.9872
acijos	-10.9873
▁strijd	-10.9876
▁expect	-10.9879
▁evropski	-10.988
▁parlementaire	-10.9888
werking	-10.9891
όμενο	-10.9895
▁mērķi	-10.9896
▁Nations	-10.9897
▁χρησιμοποι	-10.9899
▁constitution	-10.9899
▁another	-10.99
▁understand	-10.9903
▁Turk	-10.9905
▁l'accord	-10.9906
▁społeczn	-10.9907
▁Reglamento	-10.9908
▁aspetti	-10.9908
▁después	-10.9915
▁gestemd	-10.9916
vatten	-10.9916
▁riesgo	-10.9918
applicazione	-10.9922
ήσεων	-10.9924
rgent	-10.9927
▁megállapodás	-10.9928
ntemente	-10.993
▁l'imp	-10.9938
▁jät	-10.994
▁Verordnung	-10.994
▁autorités	-10.994
▁kracht	-10.9944
▁konsekvenser	-10.9944
▁Demokratie	-10.9945
▁spôsob	-10.9948
▁noteikt	-10.9948
▁assicura	-10.9953
▁Bezug	-10.9957
følge	-10.9959
▁elfogad	-10.9967
▁Initiative	-10.9969
▁soluzione	-10.997
▁États-Unis	-10.9976
▁obnov	-10.998
▁turism	-10.9981
▁sporazum	-10.9986
▁dalībvalstī	-10.9988
▁waarmee	-10.9989
wirtschaft	-10.999
▁võimalus	-10.9996
prze	-10.9997
▁ragione	-10.9999
▁αρχή	-11.0005
▁funziona	-11.0008
κοινοτικ	-11.0013
▁Uniti	-11.0015
▁happen	-11.0016
ických	-11.0018
ordförandeskapet	-11.0019
▁autonom	-11.0024
▁mechanism	-11.0025
▁anledning	-11.0028
▁drejer	-11.0029
▁ypač	-11.0031
▁acción	-11.0032
▁navnlig	-11.0033
▁dolgo	-11.0035
работ	-11.004
▁sigue	-11.0043
▁Durch	-11.0044
▁afstemning	-11.0045
▁sembra	-11.0048
▁εργασ	-11.0049
▁håller	-11.005
▁einfach	-11.0056
▁teisės	-11.0057
▁(H	-11.006
▁uitbreiding	-11.0062
▁отношение	-11.0062
▁geloof	-11.0062
▁equal	-11.0063
▁ønske	-11.0067
▁effetti	-11.0071
▁Umsetzung	-11.0071
▁bestimmte	-11.0072
▁βρ	-11.0073
▁Angelegenheit	-11.0073
▁nasze	-11.0075
▁idő	-11.0077
▁μέλλον	-11.0077
▁Instrument	-11.008
ēšana	-11.0081
▁volgende	-11.0084
▁crescita	-11.0085
▁autoridades	-11.0094
ugoslav	-11.0095
▁Efter	-11.0095
nsichtlich	-11.0096
▁negoziati	-11.0097
▁Hilfe	-11.0102
▁λειτουργ	-11.0104
▁conséquence	-11.0104
▁safety	-11.0104
disciplin	-11.0107
▁sowohl	-11.0111
▁surtout	-11.0116
▁identit	-11.0117
fekt	-11.0117
America	-11.0122
▁représente	-11.0123
▁cierto	-11.0128
waardig	-11.0128
▁Änderung	-11.0129
▁může	-11.0133
▁coopera	-11.0135
▁daugiau	-11.0135
▁rather	-11.0136
▁změn	-11.0137
▁coût	-11.014
▁brī	-11.0143
projekt	-11.015
▁pokud	-11.0151
frågor	-11.0155
▁fejl	-11.016
▁lavoratori	-11.0166
▁informacij	-11.0167
appropri	-11.0173
▁Abbiamo	-11.0177
▁korrekt	-11.0179
ίζονται	-11.018
▁Acest	-11.0185
▁trabajadores	-11.0187
▁Kyoto	-11.0188
▁diensten	-11.0193
▁innehåll	-11.0194
▁bred	-11.0194
áciu	-11.0196
▁Aufgabe	-11.0198
▁juridisk	-11.0208
È	-11.0211
▁democracia	-11.0212
▁informazioni	-11.0213
▁suteik	-11.0216
▁ecc	-11.0218
▁soort	-11.0221
ότητες	-11.0221
▁detail	-11.0222
▁nylig	-11.0223
▁bloc	-11.0225
▁bevoegd	-11.0226
▁dringend	-11.0227
▁hvilke	-11.0227
tagande	-11.023
▁déclaration	-11.023
▁Schritt	-11.0232
▁užtikrinti	-11.0237
kriterier	-11.0238
▁Cámara	-11.024
▁odgovor	-11.0243
▁Kolleginnen	-11.0247
▁medborgarna	-11.0247
▁individu	-11.0252
▁belasting	-11.0255
▁Forschung	-11.0257
okkal	-11.0258
▁odbor	-11.0262
▁Democra	-11.0264
Ό	-11.0265
▁votato	-11.0267
▁valstyb	-11.0268
▁ressources	-11.0273
▁ικαν	-11.0277
▁miest	-11.0279
předsed	-11.0281
dauer	-11.0285
▁όλες	-11.0286
▁szerep	-11.0286
ński	-11.0286
▁commissie	-11.029
▁democrazia	-11.0291
▁bedanken	-11.0298
▁ståndpunkt	-11.0299
▁udvikle	-11.0304
κληρ	-11.0306
▁Ciò	-11.0306
▁sotsiaal	-11.0313
▁negat	-11.0316
▁tačiau	-11.0316
▁ίδιο	-11.0318
▁brauchen	-11.0319
▁behandle	-11.0322
▁besonders	-11.0323
▁steht	-11.0329
▁motor	-11.0334
▁yderligere	-11.0337
▁miljoner	-11.0341
▁αρχές	-11.0345
τικού	-11.0345
▁kurā	-11.0346
▁though	-11.0349
▁transfer	-11.035
▁Στη	-11.0351
▁gondol	-11.0352
▁partenariat	-11.0354
▁betydelse	-11.0357
▁παράδειγμα	-11.0358
▁следва	-11.0359
▁izvaja	-11.0365
villkor	-11.0366
▁restrict	-11.0366
▁správn	-11.0378
▁l'Europa	-11.0379
▁vēlos	-11.0382
▁στιγμή	-11.0396
▁Dritt	-11.0396
▁democratie	-11.0396
▁jautājumu	-11.04
▁gdy	-11.0401
pār	-11.0405
▁betekent	-11.0407
▁narės	-11.0419
▁bevolking	-11.0419
▁právní	-11.042
▁dintre	-11.0423
▁technische	-11.0424
▁interessi	-11.0425
▁januar	-11.0426
▁automat	-11.0426
ώσει	-11.0426
schutz	-11.0429
▁træffe	-11.043
▁link	-11.0432
▁prioridad	-11.0436
▁financiar	-11.0436
▁actuelle	-11.0438
▁budgétaire	-11.044
τομ	-11.045
▁vendar	-11.0457
▁vorgeschlagen	-11.0457
▁dialoog	-11.0457
▁desarrolla	-11.0459
▁igual	-11.0461
▁benefit	-11.0462
▁l'environnement	-11.0463
▁settori	-11.0464
AT	-11.0465
▁estructura	-11.047
▁occorre	-11.047
▁saranno	-11.0471
▁kommission	-11.0472
språk	-11.0473
grenzen	-11.0474
▁souhait	-11.0475
▁liegt	-11.0477
▁circu	-11.0478
▁nāk	-11.0478
▁Zahl	-11.048
▁legislative	-11.0481
financ	-11.0484
▁ritengo	-11.0484
▁г-н	-11.0487
▁fattigdom	-11.0488
▁μέσα	-11.0491
▁kontakt	-11.0493
▁sysselsättning	-11.0494
göra	-11.0498
▁За	-11.0498
▁Folge	-11.0499
verfahren	-11.05
▁faptul	-11.0501
▁navrh	-11.0501
▁afgevaardigde	-11.0501
▁(LT)	-11.0511
▁emerge	-11.0511
▁muchas	-11.0512
▁kapcsolatos	-11.0514
▁gemenskapen	-11.0515
▁proposé	-11.0517
▁omröstning	-11.0519
▁always	-11.0519
▁kritik	-11.0521
▁stærk	-11.0522
▁food	-11.0524
▁source	-11.0527
▁conséquent	-11.0532
zunehmen	-11.0537
▁beginnen	-11.0537
▁zweite	-11.0538
gesloten	-11.054
▁italien	-11.0543
▁provoca	-11.0543
føl	-11.0549
▁podstaw	-11.0552
znám	-11.0555
▁политика	-11.0555
▁způsob	-11.0557
▁asemenea,	-11.0559
▁votado	-11.056
▁struttura	-11.0561
▁πιστεύω	-11.0563
posit	-11.0564
kontroll	-11.0564
▁Съ	-11.0564
kry	-11.0567
▁democracy	-11.0571
▁bychom	-11.0572
▁predsedajúci,	-11.0573
▁На	-11.0575
▁βάση	-11.0579
träffa	-11.0581
▁nästa	-11.0586
▁koncentr	-11.0588
▁Grundlage	-11.0589
▁straff	-11.0591
▁permitir	-11.0591
▁aware	-11.0595
vání	-11.0598
SP	-11.0598
▁society	-11.0601
▁föreslå	-11.0601
▁draw	-11.0602
▁todavía	-11.0605
щата	-11.0609
▁varētu	-11.0615
▁falta	-11.0615
▁tillämpa	-11.0623
▁през	-11.0624
▁myndigheder	-11.0628
▁utbildning	-11.0632
▁faktor	-11.0633
▁suficiente	-11.0633
▁favorable	-11.0634
nejši	-11.0635
▁constituye	-11.0635
цията	-11.0638
▁única	-11.0639
▁burger	-11.0639
řad	-11.0641
▁wesentlich	-11.0641
▁resolve	-11.0642
▁delegation	-11.0647
▁risultati	-11.0648
ložil	-11.0649
▁reeds	-11.065
▁commitment	-11.0654
▁która	-11.0654
▁framsteg	-11.0655
cell	-11.0665
trekken	-11.0667
▁function	-11.0667
▁Krise	-11.0667
▁fix	-11.0672
▁fight	-11.0675
▁voulons	-11.0677
ουσα	-11.0681
▁cómo	-11.0681
sioon	-11.0684
▁cultura	-11.0687
▁vērā	-11.069
▁schriftelijk.	-11.0691
▁altid	-11.0692
▁largo	-11.0692
equilibrio	-11.0695
▁automobil	-11.0695
▁måske	-11.0699
▁selge	-11.0699
▁ευρώ	-11.0704
▁tendrá	-11.0714
▁gestión	-11.0715
▁elkaar	-11.0718
virt	-11.0721
▁mundial	-11.0721
itāte	-11.0725
▁concurrence	-11.0727
▁lát	-11.0729
▁adgang	-11.0735
▁soddisfa	-11.0744
▁Dienst	-11.0745
līg	-11.0746
▁ψηφίσ	-11.0746
ický	-11.0753
▁pesar	-11.0756
núť	-11.0756
▁herrar!	-11.0762
AP	-11.0762
▁със	-11.0765
▁active	-11.0768
▁dergelijke	-11.0774
▁sociální	-11.0778
▁collect	-11.0781
▁élément	-11.0781
▁egész	-11.0781
▁passage	-11.0781
▁dôležit	-11.0781
▁nævnt	-11.0782
▁vijf	-11.0783
▁θεσμ	-11.0785
stående	-11.0785
▁mechanizm	-11.0787
observ	-11.0789
▁croissance	-11.079
▁través	-11.0791
▁gjorde	-11.0791
▁dürfen	-11.0794
▁Verantwortung	-11.0795
▁επειδή	-11.0797
▁aldrig	-11.0803
▁ampliación	-11.0805
▁πριν	-11.0807
inblick	-11.0807
bereich	-11.0809
▁interessant	-11.081
κυρ	-11.0812
▁realidad	-11.0818
▁Geld	-11.0822
▁gesamte	-11.0823
virkning	-11.0829
▁należy	-11.083
▁acceso	-11.0831
Θ	-11.0833
▁megfelelő	-11.0833
▁άποψη	-11.0836
▁toepassing	-11.0838
▁Millionen	-11.0846
▁οδηγ	-11.0848
иране	-11.0848
▁travailleurs	-11.0849
▁súvislosti	-11.0852
▁služb	-11.0858
▁meeting	-11.086
samling	-11.0861
▁militaire	-11.0861
▁γίνει	-11.0863
▁Africa	-11.0863
▁mõju	-11.0864
▁ligne	-11.0867
zeichnet	-11.0867
▁vārd	-11.0867
▁kokku	-11.0867
▁współprac	-11.0868
▁njihov	-11.087
adhésion	-11.0871
▁geweest	-11.0871
kommun	-11.0872
▁realtà	-11.0877
▁zahtev	-11.0879
▁assume	-11.088
▁Tribunal	-11.088
▁hänsyn	-11.0886
▁μεγάλη	-11.089
▁money	-11.0891
▁implementation	-11.0892
σταση	-11.0893
▁našich	-11.0895
▁необходим	-11.0896
▁Global	-11.0899
▁Verts/ALE	-11.0902
finanz	-11.0906
▁Výbor	-11.0907
▁davantage	-11.0909
▁προβλήματα	-11.0913
▁lucht	-11.0913
▁kompetenc	-11.0914
remmo	-11.0914
▁voeren	-11.0915
▁État	-11.0918
▁depend	-11.0918
▁staterna	-11.0919
▁nær	-11.0921
▁hinaus	-11.0926
▁verordening	-11.0932
▁pénzügyi	-11.0935
▁különösen	-11.0944
avtalet	-11.0944
▁impuls	-11.0946
▁lehetőség	-11.0948
▁Zij	-11.0953
▁ďalš	-11.0954
▁burde	-11.0961
▁propia	-11.0964
▁krig	-11.0965
▁dicta	-11.0967
▁konstruktiv	-11.0967
▁Finland	-11.0972
▁ακόμα	-11.0972
▁soutenir	-11.0972
hän	-11.0972
▁economy	-11.0975
▁gravi	-11.0975
mekanism	-11.0976
▁direction	-11.098
ήσω	-11.0983
▁dyr	-11.0989
▁creación	-11.0996
skatt	-11.0996
▁Comisiei	-11.0998
▁nazionale	-11.1004
▁zmian	-11.1004
▁Vendar	-11.1004
druž	-11.1007
▁sposób	-11.101
▁symbol	-11.101
crédit	-11.1014
▁allemaal	-11.1015
▁spille	-11.1017
text	-11.1019
▁timp	-11.1021
IT	-11.1022
▁stimme	-11.1023
praš	-11.1028
ovaný	-11.1031
▁humain	-11.1032
▁alltid	-11.1033
▁dotyczące	-11.1035
▁asocia	-11.104
▁priorità	-11.1041
▁method	-11.1042
integr	-11.1045
▁lorsque	-11.1046
▁vergadering	-11.1046
▁protocol	-11.1048
▁application	-11.1048
utilisation	-11.1048
känn	-11.105
groep	-11.1052
▁véritable	-11.1054
▁νομοθεσία	-11.1054
▁menneske	-11.1057
gebracht	-11.1058
ść	-11.1064
▁various	-11.1065
▁manifest	-11.1065
EM	-11.1066
Ο	-11.1068
▁Budget	-11.1069
▁égard	-11.1069
▁India	-11.1078
▁národ	-11.1079
Zoals	-11.108
ināšana	-11.1081
áról	-11.1085
bjud	-11.1088
schluss	-11.1092
▁difícil	-11.1092
▁στρατηγική	-11.1093
▁compris	-11.1101
▁Παρ	-11.1109
▁US	-11.111
▁Fischerei	-11.1111
▁belangrijkste	-11.1115
▁wszystkich	-11.1115
▁Además	-11.1118
▁solución	-11.1121
▁comercio	-11.1121
▁You	-11.1121
▁vækst	-11.1124
▁κόσμο	-11.1127
▁laikā	-11.1129
▁týchto	-11.1129
▁brott	-11.1129
▁kandidat	-11.1133
▁Maastricht	-11.1135
▁Musíme	-11.1135
▁riforma	-11.1135
▁gadījum	-11.1136
▁kammare	-11.1136
▁nødt	-11.1137
▁defend	-11.1146
щ	-11.1149
▁Antwort	-11.115
▁piano	-11.115
▁votazione	-11.1153
▁complex	-11.1159
▁беше	-11.116
Ø	-11.1165
teknologi	-11.1165
▁ψηφοφορία	-11.1169
▁firma	-11.117
▁deshalb	-11.1172
▁nämligen	-11.1177
▁share	-11.1177
▁intensiv	-11.1178
Φ	-11.1181
▁création	-11.1183
▁επε	-11.1183
▁uddannelse	-11.1184
▁consumenten	-11.1191
fyl	-11.1193
▁rozwiąz	-11.1194
ţional	-11.1194
▁vervoer	-11.1194
▁θέματα	-11.1195
▁koostöö	-11.1195
▁número	-11.1197
▁Projekt	-11.1197
▁promov	-11.1198
▁Inoltre	-11.1201
▁además	-11.1203
▁temelj	-11.1207
köz	-11.1209
pełni	-11.121
▁ocupa	-11.121
▁hozzá	-11.1213
▁période	-11.1216
▁draft	-11.1218
▁gehouden	-11.1219
ostí	-11.1222
▁waarbij	-11.1222
▁ονόματος	-11.1224
▁fortsætte	-11.1225
▁concilia	-11.1225
aktiv	-11.1228
▁innerhalb	-11.1228
▁bitte	-11.1229
▁vahel	-11.1232
▁l'avenir	-11.1233
▁weiterhin	-11.1238
▁Comisia	-11.1239
▁short	-11.124
▁musimy	-11.1244
šanos	-11.1244
▁Demokrat	-11.1245
▁manifesta	-11.1246
▁actuellement	-11.1248
▁Asuntos	-11.1248
▁nauw	-11.125
cilvēk	-11.1253
▁trots	-11.1254
▁stessa	-11.1256
▁pagrindin	-11.1259
▁Tatsache	-11.1262
▁zakresie	-11.1264
▁komisjon	-11.1265
▁biztos	-11.1267
▁štátov	-11.1269
▁kryzys	-11.1271
▁képviselő	-11.1271
▁Erklärung	-11.1274
▁huvud	-11.1274
▁session	-11.1276
▁organiser	-11.1276
▁Steuer	-11.1277
▁eesmärk	-11.1282
▁Gaza	-11.1284
▁finanšu	-11.1293
▁d'abord	-11.1296
▁betona	-11.1296
▁words	-11.1296
▁без	-11.1298
autor	-11.1299
▁arrest	-11.131
–	-11.1313
tryk	-11.1314
▁alkalmaz	-11.1314
▁samhälle	-11.1314
▁address	-11.1316
▁esencial	-11.1317
▁organisationer	-11.1323
▁Text	-11.1327
▁prevede	-11.1328
direktiv	-11.1341
▁væsentlig	-11.1342
▁rendelkez	-11.1345
▁zdaj	-11.1349
▁Ezért	-11.1352
▁bestemmelser	-11.1355
▁stiamo	-11.1357
▁solidarity	-11.1358
▁medicin	-11.1359
▁gerade	-11.1359
▁lungo	-11.1363
▁σημαντική	-11.1363
▁uue	-11.1364
▁kuriuo	-11.1374
▁όλους	-11.1374
ťaž	-11.1375
▁miembro	-11.1382
▁χρόνο	-11.1385
▁udvidelse	-11.1386
▁πολιτών	-11.1388
▁GUE/NGL	-11.1394
▁traffic	-11.1395
▁participation	-11.1395
▁regola	-11.1397
▁genomför	-11.14
Q	-11.1402
▁personnel	-11.1403
médi	-11.1408
▁ieder	-11.141
▁vrede	-11.1413
▁učinkovit	-11.1416
▁propag	-11.1424
▁euró	-11.1426
▁livsmedel	-11.1428
▁kteří	-11.1428
transport	-11.1429
▁sanitari	-11.1433
politikken	-11.1433
▁varnost	-11.1437
▁refiere	-11.1441
σχολ	-11.1442
▁(FI)	-11.1442
▁време	-11.1445
▁låt	-11.1446
niecība	-11.1446
▁przedstawi	-11.1447
▁Questa	-11.1447
▁beskytte	-11.1463
▁gestimmt	-11.1464
ίζουμε	-11.1465
▁påpeka	-11.1469
▁paix	-11.1469
▁såsom	-11.1472
▁vahend	-11.1473
▁april	-11.1474
хме	-11.1474
sistent	-11.1477
▁suggest	-11.1477
▁tillräcklig	-11.1478
▁možné	-11.1479
Г	-11.1484
▁erreichen	-11.1486
▁pomembno	-11.1497
▁strengthen	-11.1497
▁deuxième	-11.1497
▁arengu	-11.1498
▁Daher	-11.15
▁seguito	-11.1502
▁prístup	-11.1503
▁βοήθεια	-11.1503
stituir	-11.1503
▁procedūr	-11.1505
▁verwacht	-11.1506
▁säger	-11.1507
▁gilt	-11.1508
αρτ	-11.1509
▁pomoč	-11.151
▁najmä	-11.1511
▁nėra	-11.1512
▁progrès	-11.152
▁ziņojumu	-11.152
▁dvs.	-11.1521
▁Grenz	-11.1521
▁field	-11.1523
▁getroffen	-11.1523
▁důležité	-11.1528
▁väčš	-11.1528
▁colleague	-11.153
sätzlich	-11.1531
adesione	-11.1533
▁Επίτροπε	-11.1534
▁Government	-11.1541
▁κοινωνική	-11.1541
▁while	-11.1541
▁Verhandlungen	-11.1545
▁geachte	-11.1549
▁souvent	-11.1554
▁dôležité	-11.1568
kredit	-11.1569
▁digital	-11.1574
▁cât	-11.1574
▁verkeer	-11.1576
▁είμαστε	-11.1577
▁Låt	-11.1577
▁Italien	-11.158
▁abychom	-11.1583
▁oprette	-11.1584
стъп	-11.1585
▁financement	-11.1585
▁σύστημα	-11.1589
mutat	-11.1592
▁afgelopen	-11.1596
▁tillsammans	-11.1596
▁membro	-11.1599
▁ofrece	-11.1601
▁predpis	-11.1606
▁300	-11.1606
▁true	-11.1607
▁κυβέρνηση	-11.1608
▁naudo	-11.1611
▁válság	-11.1613
▁Gemeenschap	-11.1617
▁kaasa	-11.1618
▁skridt	-11.1619
▁competition	-11.1624
▁margin	-11.1624
▁klausimu	-11.1624
central	-11.1628
▁practice	-11.1631
▁werknemers	-11.1632
ocrati	-11.1636
▁längre	-11.164
▁cieľom	-11.1641
▁concorrenza	-11.1642
▁túto	-11.1643
mäßig	-11.1643
▁přístup	-11.1648
▁nekā	-11.1652
▁pueblo	-11.1654
▁Trans	-11.1656
▁števil	-11.1657
▁opgave	-11.1661
▁ultimi	-11.1662
▁estrema	-11.1668
▁rispetta	-11.1669
▁risinā	-11.1669
▁población	-11.167
▁G20	-11.1671
izaci	-11.1675
▁katere	-11.1678
▁tillgång	-11.1686
▁single	-11.1689
▁children	-11.1694
▁χωρών	-11.1697
▁nuvarande	-11.1699
▁Francia	-11.1699
▁coordination	-11.1701
▁habit	-11.1701
▁evropske	-11.171
▁commerce	-11.1711
▁lycka	-11.1717
▁zejména	-11.1718
▁siekiant	-11.1723
▁prioriteit	-11.1723
▁waarvan	-11.1727
▁európsky	-11.1728
▁Diskussion	-11.1731
▁había	-11.1731
φασ	-11.1732
▁práce	-11.1739
▁един	-11.1747
▁relaciones	-11.1747
▁απασχόληση	-11.1752
ιακή	-11.1754
komunik	-11.1755
▁leader	-11.1756
▁komisař	-11.1758
▁πλέον	-11.1761
▁πληροφορ	-11.1763
▁üht	-11.1765
▁krisen	-11.1767
▁Schulz	-11.177
▁trg	-11.1774
▁δημοσι	-11.1775
μένες	-11.1775
▁overveje	-11.178
▁domanda	-11.178
▁närvarande	-11.1787
▁rakenda	-11.1789
▁Strasbourg	-11.1793
møde	-11.1798
▁jelenleg	-11.1803
▁област	-11.1803
▁spécifique	-11.1806
▁avsluta	-11.1808
▁incident	-11.1809
▁egentlig	-11.1818
vizsgál	-11.1819
▁vengono	-11.1819
▁bieden	-11.1821
▁visserij	-11.1822
▁arutelu	-11.1824
õigus	-11.1835
▁działania	-11.1839
▁refus	-11.1843
▁produk	-11.1844
▁gemacht	-11.1844
værk	-11.1847
▁crecimiento	-11.185
▁monetari	-11.1856
форм	-11.1856
▁Affairs	-11.1856
▁προτάσεις	-11.1858
κεντρ	-11.1861
ю	-11.1863
▁ανησυχ	-11.1866
▁пазар	-11.1868
▁okvir	-11.1871
▁affaires	-11.1872
▁przyszł	-11.1873
▁milliard	-11.1876
▁zlasti	-11.1876
▁Amendment	-11.1877
▁reglamento	-11.1879
ONU	-11.1879
▁november	-11.1889
▁tydelig	-11.1891
▁činnost	-11.1895
▁Verbesserung	-11.1895
▁workers	-11.1895
▁toutefois	-11.1898
▁growth	-11.1908
▁Belarus	-11.1912
▁Iraq	-11.1912
▁attenzione	-11.1913
▁error	-11.1918
▁είχε	-11.1923
▁ACP	-11.1925
▁inrätta	-11.1925
▁omkring	-11.1925
▁terwijl	-11.1926
▁απόφαση	-11.1926
▁todėl	-11.1928
puesta	-11.1933
▁vállal	-11.1938
▁asupra	-11.1938
▁syfte	-11.1938
▁naturalmente	-11.194
▁cinq	-11.194
▁komisi	-11.194
▁Constitution	-11.1941
▁renforcer	-11.1941
▁Rusia	-11.1942
▁πραγματικά	-11.1944
▁svět	-11.195
abezpeč	-11.1951
▁Struktur	-11.1952
▁kormány	-11.1952
▁message	-11.1954
▁brist	-11.1956
▁nimel	-11.1956
▁précis	-11.196
▁peligro	-11.1961
▁établi	-11.1967
sikkerhed	-11.1969
asutus	-11.1971
▁έτσι	-11.1974
▁będą	-11.1979
▁Erweiterung	-11.1983
▁attraverso	-11.1983
▁eelarve	-11.1987
▁Dialog	-11.1987
▁infatti	-11.1987
στοιχ	-11.1989
▁skäl	-11.1991
▁insieme	-11.1995
ψήφι	-11.1997
▁följd	-11.1998
▁obszar	-11.1999
▁държави	-11.2001
tryck	-11.2003
▁quest'	-11.2004
▁companies	-11.2005
▁Rück	-11.2008
AR	-11.2009
▁ningún	-11.2012
▁parliament	-11.2015
▁among	-11.2021
▁χρήση	-11.2026
▁lequel	-11.2027
▁evropský	-11.2031
▁unterstützt	-11.2036
▁ίδια	-11.2036
ήθηκε	-11.2036
▁trgov	-11.2038
myndighet	-11.2039
MO	-11.2041
▁więc	-11.2041
værdig	-11.205
▁svarīgi	-11.2054
▁förhandlingar	-11.2054
▁produzione	-11.2054
▁prezent	-11.2057
▁akkoord	-11.2062
▁aangenomen	-11.2065
▁Не	-11.2066
▁oluline	-11.2069
▁majority	-11.2069
▁conjunto	-11.2077
▁oplysninger	-11.2081
▁sprake	-11.2083
▁έργο	-11.2084
▁Binnenmarkt	-11.2089
betaling	-11.2095
▁področju	-11.2096
▁vogliamo	-11.2096
▁uniform	-11.2101
▁s-a	-11.2101
výš	-11.2105
▁záležitost	-11.2112
▁modell	-11.2113
▁tutta	-11.2113
▁komisár	-11.2116
▁request	-11.2119
▁ninguna	-11.2121
▁interior	-11.2124
▁diálogo	-11.2127
tænke	-11.2128
▁περιβάλλον	-11.2131
▁único	-11.2131
▁potential	-11.2137
όδου	-11.2143
▁bereiken	-11.2144
▁все	-11.2145
▁Organisation	-11.2149
▁challenge	-11.2149
▁geworden	-11.2149
▁enfants	-11.2151
▁susijusi	-11.2152
▁δημιουργία	-11.2153
▁toegang	-11.2154
▁ούτε	-11.2154
▁peuple	-11.2159
▁unije	-11.2162
▁Taryba	-11.2162
▁lograr	-11.2164
▁парламент	-11.2167
▁øjeblikket	-11.2169
▁saistībā	-11.2171
▁promote	-11.2171
▁desea	-11.2171
▁küsimuse	-11.2172
▁semplice	-11.2172
▁särskild	-11.2176
▁semana	-11.218
▁quality	-11.2186
▁posledn	-11.2188
▁education	-11.2189
▁Transport	-11.2195
▁άλλη	-11.2196
▁opmerking	-11.2196
▁transform	-11.2202
▁valstu	-11.2204
▁Vereinigte	-11.2204
▁kõige	-11.2206
▁tvivl	-11.2206
▁fraude	-11.221
▁tillfälle	-11.2211
▁anterior	-11.2221
▁Kultur	-11.2223
▁ποσ	-11.2226
▁Toutefois	-11.2231
▁πρόγραμμα	-11.2233
▁L'Union	-11.2234
▁Bevölkerung	-11.2239
▁aplink	-11.2239
▁tidspunkt	-11.2243
▁tilstrækkelig	-11.2244
▁gevaar	-11.2245
ll'Europa	-11.2249
▁dossier	-11.225
▁tillväxt	-11.2251
▁quelli	-11.2254
ица	-11.2254
▁majd	-11.2254
▁utnyttja	-11.2254
▁sostenere	-11.2255
▁strict	-11.2255
▁spesso	-11.2255
▁segít	-11.2261
▁Κατά	-11.2262
▁proposito	-11.2265
▁žino	-11.2265
▁salute	-11.2269
ώντας	-11.2271
û	-11.2274
▁parlamendi	-11.2275
▁contesto	-11.2277
▁miejsc	-11.2283
▁европейски	-11.2288
▁voorbeeld	-11.2292
▁uniós	-11.2292
▁dámy	-11.2293
▁Auswirkungen	-11.2295
▁Beitritt	-11.2297
▁behandla	-11.2297
▁członkowskie	-11.2298
▁lämplig	-11.2299
▁supuesto	-11.2302
▁d'être	-11.2305
verantwoordelijk	-11.2307
▁προτείν	-11.2307
▁genoeg	-11.2307
▁mañana	-11.2309
▁jövő	-11.231
▁Anwendung	-11.2315
▁Frontex	-11.2315
▁opfattelse	-11.2319
▁fungera	-11.2323
▁acerca	-11.2325
▁intenta	-11.2329
▁teritori	-11.2331
▁δυνατότητα	-11.2331
▁ievēro	-11.2332
▁άλλα	-11.2334
▁l'emploi	-11.2336
▁foretage	-11.2339
▁povedal	-11.2344
▁credibil	-11.2344
vēl	-11.2347
▁1990	-11.2353
skrive	-11.2353
▁Frieden	-11.2354
▁подкрепа	-11.2358
ndamise	-11.2362
▁consensus	-11.2365
▁begynde	-11.2365
▁uzskatu	-11.2366
▁receive	-11.2367
▁normativa	-11.2368
▁individuel	-11.2371
Н	-11.2373
▁foglalkoz	-11.2373
▁otázka	-11.2375
▁possibili	-11.2376
▁majorité	-11.2376
▁increasing	-11.2377
▁separat	-11.2378
▁appropriate	-11.2378
▁problēma	-11.2382
▁Sąjunga	-11.2385
▁answer	-11.2386
▁peut-être	-11.2387
▁věc	-11.2388
▁Standpunkt	-11.2389
▁vooruitgang	-11.2395
▁teisių	-11.2396
▁praktisk	-11.24
grün	-11.2404
▁éxito	-11.2406
▁nombreuses	-11.2408
▁πολλές	-11.2412
▁ενεργ	-11.2413
▁salari	-11.2414
▁γνώμη	-11.2414
▁Tyrkiet	-11.2418
▁employ	-11.2422
▁eredmény	-11.2426
▁demokratische	-11.2427
▁тъ	-11.2428
▁σημείο	-11.2431
▁põhjus	-11.2433
▁Comisaria	-11.2435
▁bereikt	-11.2437
▁september	-11.244
▁samband	-11.244
▁Uniunea	-11.2442
▁koniec	-11.2442
▁permettre	-11.2442
informazione	-11.2447
▁Human	-11.2453
▁kerül	-11.2456
▁Tibet	-11.2456
IC	-11.2459
▁misura	-11.246
▁12.00	-11.246
▁remercie	-11.2462
▁opnieuw	-11.2462
▁otázky	-11.2462
οτήτων	-11.2466
▁Σώμα	-11.2467
einander	-11.2469
▁într-	-11.2473
▁urmare	-11.2473
▁τροπολογία	-11.2474
▁1994	-11.2476
▁διαφορετικ	-11.2476
ρυθμ	-11.2479
▁personlig	-11.2482
▁Tāpēc	-11.2492
▁149	-11.2494
▁snart	-11.2496
τροφ	-11.2497
▁With	-11.25
▁igaz	-11.2503
▁próximo	-11.2504
▁joue	-11.2504
▁sensibil	-11.2507
▁Πιστεύω	-11.2507
▁Plan	-11.2508
▁Turkije	-11.2511
▁begär	-11.2511
▁jusqu'	-11.2512
▁iedereen	-11.2515
kapcsol	-11.2516
▁anmode	-11.2516
▁bereid	-11.2516
▁uzņēmum	-11.2519
▁všetkých	-11.2519
▁dezelfde	-11.2523
▁Organiz	-11.2527
▁finants	-11.2529
▁jäm	-11.253
▁endelig	-11.2532
▁viņi	-11.2533
trafik	-11.2535
държавите-членки	-11.2538
▁strumento	-11.2538
wierdz	-11.2552
▁μεγάλο	-11.2559
▁financiación	-11.2563
δήποτε	-11.2564
▁First	-11.2566
î	-11.2573
▁rizik	-11.2582
debat	-11.2582
▁πολλά	-11.2585
▁финансов	-11.2587
▁μέχρι	-11.259
▁constant	-11.2591
▁představ	-11.2593
▁Ausdruck	-11.2594
▁simply	-11.2596
▁Zugang	-11.2601
šča	-11.2602
▁extremely	-11.2612
▁względ	-11.2613
▁militär	-11.2613
▁Europejska	-11.2613
▁seule	-11.2616
δημ	-11.2622
iivse	-11.2627
▁kirjalikult.	-11.2629
▁μεγαλύτερη	-11.2636
▁Spanien	-11.2638
▁Προεδρία	-11.2639
Európá	-11.2645
▁devraient	-11.2647
▁aangezien	-11.2649
▁figure	-11.2651
▁semaine	-11.2655
▁løse	-11.2656
▁intézkedések	-11.2656
▁daarvan	-11.2658
▁schnell	-11.266
europa	-11.2664
▁ejercicio	-11.2671
▁ενίσχυση	-11.2671
▁περιοχή	-11.2671
▁volinik	-11.2673
▁seneste	-11.2673
ésére	-11.2674
▁ktorú	-11.2678
▁jūr	-11.2683
щите	-11.2685
▁dôvod	-11.2687
▁biudžet	-11.269
▁atbalstu	-11.269
▁commercio	-11.2694
▁laisv	-11.2697
▁termijn	-11.2697
▁τροπολογίες	-11.2697
▁działa	-11.2704
▁Lisboa	-11.2704
▁Article	-11.2706
▁vrijheid	-11.2708
▁ebenfalls	-11.2713
▁mellett	-11.2715
▁szeretném	-11.2719
▁проблем	-11.2722
▁tragedi	-11.2723
▁réalité	-11.2723
▁Woche	-11.2724
stitución	-11.2725
▁όλοι	-11.2726
▁első	-11.2726
uojam	-11.2732
▁giustizia	-11.2734
stytucj	-11.2738
▁хора	-11.2745
▁länge	-11.2749
▁krävs	-11.275
βολή	-11.2752
▁αύξηση	-11.2754
▁behoefte	-11.2754
▁Uniunii	-11.2757
▁Turkey	-11.2758
houding	-11.276
▁kommt	-11.2761
▁Außen	-11.2763
▁kapcsolatban	-11.2765
▁emberi	-11.2765
▁sprawozdania	-11.2766
▁nieuw	-11.2772
▁nessun	-11.2776
▁mogelijkheid	-11.2778
▁spirit	-11.2779
▁udgør	-11.2783
ásának	-11.2785
▁tagállam	-11.2785
▁ešte	-11.279
▁κυρίως	-11.2793
▁afirma	-11.2797
▁nuomon	-11.2798
▁παγκόσμι	-11.2802
▁kinderen	-11.2803
schuldig	-11.2806
▁náklad	-11.2808
corre	-11.2808
▁radical	-11.2827
▁eksport	-11.2831
politisk	-11.2832
.000	-11.2841
▁dell'onorevole	-11.2843
▁τομείς	-11.2843
▁Verpflichtung	-11.2846
▁geleden	-11.2847
▁ütle	-11.285
▁patient	-11.2851
▁strumenti	-11.2852
▁governi	-11.2853
▁technique	-11.2855
▁μπορέσ	-11.2855
▁kräver	-11.2855
▁εισηγητή	-11.2861
▁negali	-11.2862
▁utarbeta	-11.2863
▁åsikt	-11.2863
▁ugyan	-11.2863
▁juhataja!	-11.2866
▁exterior	-11.2868
▁paquet	-11.2868
ādā	-11.2872
▁initiatief	-11.2877
▁reducir	-11.2881
▁beispielsweise	-11.2886
▁как	-11.289
▁content	-11.2892
▁geweld	-11.2896
▁šalių	-11.29
▁cadrul	-11.2908
▁Partei	-11.2916
▁φορά	-11.2917
bestrijding	-11.2918
▁tycker	-11.2918
oblig	-11.2921
▁escala	-11.2923
▁substance	-11.2924
▁nadzor	-11.2925
▁dinero	-11.2929
▁atsižvelg	-11.2933
▁afslutte	-11.2933
▁popolazione	-11.2936
▁Förderung	-11.2936
▁πρώτη	-11.2938
▁възможност	-11.2953
▁alltså	-11.2955
▁finanzielle	-11.2956
▁democrat	-11.2958
leistung	-11.2958
▁minimal	-11.2961
▁folyamat	-11.2962
▁Ratspräsident	-11.2962
▁Arbeitnehmer	-11.2963
▁største	-11.2967
▁prosper	-11.2968
COM	-11.2971
▁fællesskabs	-11.2975
▁durable	-11.2978
▁αποτέλεσμα	-11.2982
▁ορισμένες	-11.2985
stelsel	-11.2987
▁compétence	-11.2989
▁srityje	-11.2989
▁fått	-11.2992
▁sommige	-11.2998
▁lämna	-11.2999
▁smernic	-11.3
ități	-11.3003
▁hållbar	-11.3011
▁preuve	-11.3014
säkerhet	-11.3016
▁tagit	-11.302
▁sprejet	-11.3021
▁след	-11.3026
▁inspanningen	-11.3027
▁bénéfici	-11.3027
overensstemmelse	-11.3031
▁Turquía	-11.3031
▁Pirm	-11.3032
▁Samtidig	-11.3032
▁jednotliv	-11.3032
▁anerkende	-11.3033
▁legislazione	-11.3034
Euro	-11.3035
▁invita	-11.3035
▁liikmesriigi	-11.3036
телни	-11.3036
σκοπ	-11.3047
▁Zimbabwe	-11.3047
▁verejn	-11.305
▁qualche	-11.3051
▁bedeutet	-11.3056
▁Turquie	-11.3058
▁comunicación	-11.306
▁podobn	-11.306
▁Europy	-11.3064
▁democratische	-11.307
▁Credo	-11.3073
▁bæredygtig	-11.3078
▁άλλες	-11.3078
omstandigheden	-11.308
▁opatrenia	-11.3082
▁Dlatego	-11.3082
▁Επίτροπο	-11.3082
пу	-11.3083
▁algemeen	-11.3089
▁faktum	-11.309
▁främst	-11.3093
sniedz	-11.3095
▁gemenskaps	-11.3097
▁Türkei	-11.3098
▁Gesellschaft	-11.31
▁seotud	-11.3103
▁balsoju	-11.3114
▁tulemus	-11.3114
έσει	-11.3121
▁proračun	-11.3122
▁ευκαιρία	-11.3122
▁opfylde	-11.3123
▁ochranu	-11.3123
▁együttműködés	-11.3128
▁jelentős	-11.3135
▁scientific	-11.3137
▁συμπερι	-11.3139
pflicht	-11.3141
▁Behörden	-11.3142
▁molte	-11.3146
▁schwierig	-11.3148
▁coloro	-11.3148
▁Αυτή	-11.3152
▁Ahora	-11.3152
▁necesitamos	-11.3153
▁sensible	-11.3154
▁enlargement	-11.3155
účast	-11.3157
▁interessa	-11.3161
▁overholde	-11.3162
▁conduct	-11.3166
▁apply	-11.3166
▁ondernemingen	-11.317
▁valitsus	-11.317
▁papild	-11.317
control	-11.3173
▁орган	-11.3174
▁ustanov	-11.3174
▁válasz	-11.3176
▁absurd	-11.3176
▁nævne	-11.3181
▁opzicht	-11.3184
▁Ritengo	-11.3187
▁trasporto	-11.3188
Pirminink	-11.3189
глед	-11.319
ότερη	-11.3194
▁Russie	-11.3198
▁σταθερ	-11.3198
▁juridisch	-11.32
▁explica	-11.3201
▁promuovere	-11.3203
sicherheit	-11.3203
▁maggioranza	-11.3204
▁право	-11.3207
▁perspectiva	-11.3211
▁potentiel	-11.3211
nța	-11.3215
▁υγεία	-11.3218
▁Barcelona	-11.3226
ressourcer	-11.3227
▁Schaffung	-11.3231
▁asegurar	-11.3233
▁management	-11.3235
▁progetti	-11.3235
▁bestemt	-11.3236
▁třeba	-11.3237
▁udnytte	-11.3239
től	-11.3244
▁üld	-11.3245
Ω	-11.3246
▁hospodárske	-11.3246
▁akkor	-11.325
cyjny	-11.3252
▁preparat	-11.3257
▁meglio	-11.3259
▁δηλαδή	-11.3261
▁gegenwärtig	-11.3263
▁humanitaire	-11.3263
▁jeunes	-11.3264
▁Gerb.	-11.3267
potreb	-11.327
▁nationaux	-11.3275
▁munká	-11.3275
▁scambi	-11.3282
gazdaság	-11.3282
▁μείωση	-11.3283
▁alimentaire	-11.3283
liberal	-11.3284
▁společnost	-11.3285
▁αιτ	-11.3289
▁κυρία	-11.3295
evanja	-11.3295
▁agrícola	-11.3296
▁Comunidad	-11.3296
▁lijkt	-11.3302
overeenkomst	-11.3303
▁utrikes	-11.3304
▁C5-0	-11.3304
▁astfel	-11.3308
▁última	-11.3313
▁flertal	-11.3313
▁berör	-11.3314
▁социал	-11.3315
▁richiesta	-11.3317
▁Ка	-11.332
▁Ryssland	-11.3321
zhod	-11.333
▁available	-11.3332
Τ	-11.3335
▁sprijin	-11.3336
▁državah	-11.3338
▁frakcij	-11.3338
▁Beziehungen	-11.3345
▁devrions	-11.3347
▁author	-11.3347
▁ambic	-11.3347
occupation	-11.3348
päeva	-11.3349
▁término	-11.3349
▁erreicht	-11.3353
▁énergétique	-11.3356
▁Gründe	-11.3357
▁členským	-11.3362
▁kterou	-11.3364
▁želim	-11.3364
▁други	-11.3365
▁līgum	-11.3365
▁prendere	-11.3371
▁comunicazione	-11.3375
▁officiel	-11.3377
▁proporciona	-11.3377
▁acaba	-11.3383
▁svolto	-11.3385
▁besondere	-11.3386
▁Turchia	-11.3387
▁puhul	-11.3389
nță	-11.3398
▁pewn	-11.3399
▁folytat	-11.3404
▁synnerhet	-11.3407
évaluation	-11.3407
▁bardziej	-11.3409
▁riferimento	-11.341
▁költségvetés	-11.3421
▁Verheugen	-11.3423
▁страна	-11.3424
▁eficaz	-11.3426
▁demasiado	-11.3432
▁capacidad	-11.3436
trzyma	-11.3438
▁diventa	-11.3441
▁tatsächlich	-11.3441
▁adhesión	-11.3441
▁høre	-11.3442
▁pokrok	-11.3445
▁rohkem	-11.3447
▁Pertanto	-11.3457
▁panākt	-11.3459
-Fractie	-11.346
▁tinkam	-11.3461
▁Erachtens	-11.3462
▁eszköz	-11.3462
▁ingediend	-11.3462
▁budżet	-11.347
▁vielleicht	-11.3478
▁oktober	-11.3481
▁πολιτικές	-11.3485
▁tekint	-11.349
▁comisión	-11.3493
▁hääleta	-11.3495
▁przewodniczący!	-11.3495
▁komisār	-11.3497
▁κύριοι,	-11.3497
▁още	-11.35
▁ensemble	-11.3512
▁plural	-11.3513
▁pisni	-11.3514
▁begränsa	-11.3517
▁režim	-11.3519
▁potravin	-11.3522
▁undersøgelse	-11.3525
tarptautin	-11.3525
▁möjlig	-11.353
▁използва	-11.3535
▁κυρίες	-11.3535
▁граждани	-11.3537
▁ekonomikos	-11.3538
▁istituzioni	-11.3541
▁l'ensemble	-11.3543
▁misschien	-11.3547
▁πράξ	-11.3549
▁udfordring	-11.3552
▁Turkiet	-11.3553
▁επιχειρήσεις	-11.3554
▁ailleurs	-11.3554
▁pogodb	-11.3559
▁giuridica	-11.3566
ausschuss	-11.3568
▁dunque	-11.3569
▁προβλέπ	-11.3571
▁Freiheit	-11.3575
▁ενισχύ	-11.3579
▁obliki.	-11.3587
▁class	-11.3591
▁σύμφωνα	-11.3593
▁värld	-11.3597
▁ωστόσο	-11.3598
▁Även	-11.36
▁írásban.	-11.3602
▁fuerza	-11.3606
▁buitenlands	-11.3608
държ	-11.361
▁efficient	-11.361
▁põllumajandus	-11.3612
bezpiecz	-11.3612
▁wahr	-11.3615
▁Eiropa	-11.3619
▁c’est	-11.3623
▁período	-11.3625
▁pärast	-11.3627
▁représentant	-11.3629
▁hålla	-11.3629
▁mnoho	-11.3629
ydelse	-11.363
▁bemærkning	-11.3631
▁Beitrag	-11.3631
nvironnement	-11.3639
▁stället	-11.3642
▁kodanike	-11.3643
▁verbetering	-11.3643
▁Komisjon	-11.3647
▁seoses	-11.3647
▁sprawozdanie	-11.3649
▁verbeteren	-11.3649
▁nekaj	-11.365
▁zagotavlja	-11.3651
▁diplom	-11.3652
▁consenso	-11.3656
▁focus	-11.3658
▁stärker	-11.367
▁Finally	-11.3673
▁nell'ambito	-11.3676
▁emphasis	-11.3682
λαμβάνει	-11.3684
▁OLAF	-11.3685
willig	-11.3687
▁enfoque	-11.3688
▁previsto	-11.3698
▁Galileo	-11.3699
▁evenwicht	-11.3699
Å	-11.3701
ből	-11.3705
▁cependant	-11.3705
▁gæld	-11.3706
▁tárgyal	-11.3707
▁konstitution	-11.3711
-Fraktion	-11.3721
▁przeciw	-11.3731
▁examine	-11.3732
▁pubblico	-11.3732
▁bekämpa	-11.3738
▁utvidgning	-11.3738
▁urmă	-11.3739
▁гарантира	-11.3744
▁geheel	-11.3744
gesellschaft	-11.375
▁ainult	-11.3753
▁Arbeitsplätze	-11.3758
▁äußerst	-11.376
gøre	-11.3762
▁piemēro	-11.3768
piirkond	-11.3769
▁balans	-11.377
▁themselves	-11.3777
▁beroep	-11.3779
▁största	-11.3781
intégration	-11.3782
▁disponibili	-11.3783
▁mõist	-11.3783
▁Bulgaria	-11.3785
▁tillbaka	-11.3785
kvalifik	-11.3787
▁months	-11.3788
▁avseende	-11.3788
▁Notwendigkeit	-11.3791
konferens	-11.3793
▁organizacij	-11.3793
▁liberalisering	-11.3797
▁którzy	-11.3805
▁включ	-11.3806
▁Serv	-11.3809
▁Regelung	-11.3811
ettighederne	-11.3813
▁hatékony	-11.3813
▁kärn	-11.3813
▁intégr	-11.3815
▁pracovn	-11.3816
▁suhtes	-11.3817
▁προσοχή	-11.382
▁pubblici	-11.3821
▁krajiny	-11.3825
▁няма	-11.3827
▁vissza	-11.3828
▁puedo	-11.3832
▁demografi	-11.384
▁similar	-11.3842
kļū	-11.3842
▁Reihe	-11.3844
▁onderwijs	-11.3845
▁convient	-11.3848
▁étrangère	-11.3848
▁praktijk	-11.385
οθετ	-11.3856
▁страни	-11.3857
ową	-11.3857
▁повече	-11.3858
▁sforzi	-11.386
▁jamais	-11.3862
▁ügy	-11.3862
cyjne	-11.3864
▁mówi	-11.3866
▁toetreding	-11.3868
▁politický	-11.3868
▁pacient	-11.3871
▁ευρωπαϊκό	-11.3878
korzyst	-11.388
▁meerderheid	-11.3882
+	-11.389
[	-11.3892
jäl	-11.3893
▁διάρκεια	-11.3894
▁fødevare	-11.3896
▁junto	-11.3896
▁extend	-11.3898
▁reciente	-11.3899
▁środków	-11.39
▁siguiente	-11.3902
▁exception	-11.3902
▁förbindelser	-11.3904
▁ακριβώς	-11.3908
▁respeto	-11.3912
ευθύν	-11.3912
δημοκρατικ	-11.3915
▁Bedingungen	-11.3918
▁Bekämpfung	-11.3918
▁Bovendien	-11.3918
registr	-11.3919
midler	-11.3921
▁qualsiasi	-11.3924
▁responsible	-11.3926
▁αντιμετωπίζ	-11.3926
▁vraagstuk	-11.393
▁indispensable	-11.3932
▁ottenere	-11.3936
kostnader	-11.3942
ψε	-11.3942
▁υποστηρίζ	-11.3946
▁algemene	-11.3946
▁difficoltà	-11.395
▁Gospa	-11.395
▁pozitiv	-11.395
▁upošteva	-11.3952
▁λοιπόν	-11.3954
▁economisch	-11.3957
▁Priorität	-11.3964
▁C’est	-11.3968
▁δώσ	-11.397
erklæring	-11.3974
0.000	-11.3977
▁niños	-11.3978
▁réduction	-11.398
▁sutart	-11.3981
▁Gesetz	-11.3981
▁signifie	-11.3982
▁tarif	-11.3983
▁ευχαριστ	-11.3983
▁attīstība	-11.3984
▁vantaggi	-11.3985
▁vigila	-11.3986
&#x02BC;	-11.399
▁Brussel	-11.399
▁Myslím	-11.3996
▁acciones	-11.3996
ēdē	-11.4001
▁jautājums	-11.4002
▁élevé	-11.4002
▁seguro	-11.4009
▁Direkt	-11.401
▁nemzetközi	-11.401
campagne	-11.4012
▁άλλων	-11.4012
▁gobierno	-11.4014
▁Quiero	-11.4014
▁криза	-11.4016
▁beklage	-11.4018
▁irányelv	-11.4018
▁zdravotn	-11.4019
▁impegna	-11.4022
▁kwaliteit	-11.4026
▁žmogaus	-11.4026
▁върху	-11.4028
▁examina	-11.403
▁fuldstændig	-11.4038
▁κύριο	-11.4044
▁bevorderen	-11.405
▁nustatyt	-11.405
▁amikor	-11.4051
▁humanitär	-11.4054
▁utilisé	-11.4056
▁rynku	-11.4058
▁Asamblea	-11.4066
▁maailma	-11.4078
▁Verwaltung	-11.4084
ifrån	-11.4086
▁dispone	-11.4087
▁diferencia	-11.409
▁genoemd	-11.4092
▁esprimere	-11.4096
▁slå	-11.4101
▁2007-2013	-11.4105
▁развитие	-11.4111
▁Brok	-11.4119
▁volonté	-11.4123
▁Landwirtschaft	-11.4124
▁Vážen	-11.4125
▁obravnava	-11.4127
▁weiß	-11.4128
▁ţări	-11.4128
ziehung	-11.4133
▁καταπολέμηση	-11.4135
▁mezinárodní	-11.4145
▁sõna	-11.4146
▁promotion	-11.4147
kultūr	-11.4148
▁operativ	-11.4155
▁handicap	-11.4158
▁önska	-11.4158
▁emploi	-11.4158
▁comunque	-11.4159
▁uważa	-11.4159
▁deoarece	-11.4164
▁größere	-11.4166
▁wszystkim	-11.4166
▁alimentari	-11.4166
▁abandon	-11.4167
▁impegno	-11.417
▁riduzione	-11.4172
▁spekul	-11.4173
▁extrêmement	-11.4174
▁aanwezig	-11.4176
▁rozhodnutí	-11.418
▁ομάδα	-11.4184
▁plutôt	-11.4186
▁dezvoltare	-11.4188
▁hablar	-11.4189
▁bekymring	-11.4192
▁aspetto	-11.4194
▁Präsidentschaft	-11.4199
▁Tarybos	-11.42
▁l'article	-11.42
▁forfatning	-11.4201
▁exclusiv	-11.4201
▁vertrouwen	-11.4202
▁Finanzierung	-11.4208
▁demokrāti	-11.4208
▁Sitzung	-11.4209
▁avgörande	-11.4211
neskerettigheder	-11.4212
▁autoriteiten	-11.4213
▁măsuri	-11.4221
▁Währung	-11.4227
▁solidarietà	-11.4227
efficacité	-11.4229
▁reserva	-11.4229
▁Rights	-11.4231
▁hospodářské	-11.4233
▁δικαι	-11.4233
▁τότε	-11.4233
ložit	-11.424
▁espero	-11.424
▁schimb	-11.4245
ließ	-11.4246
examin	-11.4248
▁vlak	-11.4252
▁správa	-11.4257
▁úpln	-11.4261
▁situaci	-11.4265
▁assolutamente	-11.4268
▁2015	-11.427
▁ευχαριστήσω	-11.4272
▁klausimas	-11.4276
▁specifieke	-11.4278
▁infrastructure	-11.428
▁például	-11.4283
▁παραγωγή	-11.4285
▁Consider	-11.4287
▁genannt	-11.4289
▁защото	-11.4291
zīmē	-11.4291
▁κάποιο	-11.4295
▁Communauté	-11.4297
ñ	-11.4297
▁Flug	-11.4302
▁blok	-11.4303
▁uitdaging	-11.4303
▁essenziale	-11.4305
▁otázku	-11.4305
▁Gelegenheit	-11.4318
▁kwestii	-11.432
▁entonces	-11.432
▁Haupt	-11.432
▁człowieka	-11.4322
▁ekologi	-11.4323
▁využíva	-11.4324
▁aanvaard	-11.4324
▁internazionali	-11.433
važuj	-11.4332
▁drabba	-11.4333
▁davvero	-11.4334
▁capacità	-11.4336
▁Gefahr	-11.4341
▁σημαίνει	-11.4343
▁Unidas	-11.4344
perspektiv	-11.4349
▁Tyskland	-11.4355
▁réduire	-11.4361
▁forvente	-11.4363
▁έπρεπε	-11.4363
▁ambientale	-11.4374
▁labour	-11.4375
▁empresa	-11.4375
▁tillåt	-11.4375
▁начин	-11.438
▁spolupráce	-11.4382
ndanks	-11.4384
zekerheid	-11.4385
▁všetky	-11.4388
▁Berlin	-11.4395
▁Парламента	-11.4397
▁remarque	-11.4399
▁ljudi	-11.4399
▁Forderung	-11.44
▁Directive	-11.4401
▁vähenda	-11.4403
▁enough	-11.4403
▁správu	-11.4404
gegangen	-11.4407
▁ratifik	-11.4407
▁gehört	-11.4409
▁fraktsiooni	-11.4411
▁végrehajt	-11.4418
▁wijziging	-11.4422
▁είμαι	-11.4424
▁build	-11.4425
γράφ	-11.4426
▁betydelig	-11.4426
ϋ	-11.4428
Í	-11.443
▁conseguenze	-11.443
▁humanitaria	-11.443
▁compromesso	-11.4432
▁transparence	-11.4437
▁eksempel	-11.4439
▁innovativ	-11.4439
▁excelente	-11.4443
krát	-11.4445
▁servir	-11.4446
▁giusta	-11.4447
▁alcanzar	-11.4449
▁Wachstum	-11.4453
▁spravodaj	-11.4453
▁circa	-11.4454
▁dollar	-11.4455
▁attualmente	-11.4456
ější	-11.4457
▁κυβερν	-11.4457
▁künftig	-11.4458
▁predsednica	-11.4458
▁ζητήματα	-11.4458
▁journalist	-11.4458
▁μπορούσε	-11.446
▁praktisch	-11.4461
▁chtěl	-11.4468
introduction	-11.4472
▁ilegal	-11.4475
▁konkurenci	-11.4475
▁dyrektyw	-11.4487
▁žmonių	-11.4487
▁užtikrin	-11.449
▁Råd	-11.4494
maatschappij	-11.4498
situation	-11.4499
▁dalībvalstu	-11.45
▁θέλω	-11.4504
▁nemzeti	-11.4504
τηκε	-11.4506
▁inimeste	-11.4507
▁cilvēku	-11.451
▁řešení	-11.451
▁γι'	-11.4517
▁Solana	-11.4517
ekonomi	-11.4517
▁βοηθ	-11.4519
▁Cependant	-11.4525
▁trasparenza	-11.4525
▁média	-11.4525
▁förklara	-11.4527
▁incorpora	-11.4529
▁Agrar	-11.453
▁důvod	-11.4531
▁heißt	-11.4531
▁kõigi	-11.4531
▁Selv	-11.4532
▁constata	-11.4535
▁begrijp	-11.4536
▁πρωτ	-11.4539
▁svetov	-11.454
▁iscritto.	-11.4544
▁dovremmo	-11.4544
▁annual	-11.4546
▁finansiella	-11.4548
▁raccomanda	-11.455
fejlesztés	-11.455
▁transparencia	-11.4557
▁bezpieczeństwa	-11.4559
▁jeszcze	-11.4559
▁priekšsēdētāj	-11.4561
▁destaca	-11.4562
άντ	-11.4566
▁ochrony	-11.457
▁1992	-11.4572
▁olnud	-11.4572
▁една	-11.4575
▁konsolid	-11.4578
maßnahmen	-11.458
▁student	-11.4583
▁Desidero	-11.4587
▁επιτροπή	-11.4587
▁Auffassung	-11.4589
▁internationell	-11.459
▁privire	-11.4592
▁utmaning	-11.4592
▁adecuada	-11.4595
δήλω	-11.4597
▁lucr	-11.4597
▁πρόσβαση	-11.4599
▁krīze	-11.4599
▁patvirtin	-11.4601
▁sammenhæng	-11.4604
▁Bildung	-11.4604
▁arvates	-11.4606
▁Afrik	-11.4616
▁diminu	-11.4617
▁άρθρο	-11.4618
▁Európe	-11.4621
▁allerdings	-11.4625
▁skutečnost	-11.4627
▁interroga	-11.4628
täh	-11.4633
ļauj	-11.4636
▁obsah	-11.4639
▁hård	-11.4639
▁compromet	-11.4639
▁experience	-11.4646
▁encuentra	-11.4648
▁threat	-11.4651
ţ	-11.4652
▁taisykl	-11.4655
▁σχέδιο	-11.4659
▁collègue	-11.466
kaubandus	-11.4661
▁effort	-11.4664
▁ultra	-11.4669
▁χρηματοδότηση	-11.467
▁kolleeg	-11.4672
▁secret	-11.4673
▁contempo	-11.4685
▁contamina	-11.4687
▁ämne	-11.4689
▁kategori	-11.4691
▁mogoče	-11.4691
▁πρόσ	-11.4692
▁altresì	-11.4696
▁Richtung	-11.4696
▁carbon	-11.47
▁pregled	-11.4704
станов	-11.4704
▁έρευνα	-11.4706
▁communauté	-11.4709
▁spotřeb	-11.4711
▁λύση	-11.4711
▁karakter	-11.4711
]	-11.4713
▁consiguiente	-11.4713
▁iniziative	-11.4714
▁uwagę	-11.4717
▁reflect	-11.4719
▁reject	-11.4724
▁riferi	-11.4726
▁activities	-11.4726
▁capacité	-11.4726
▁udtalelse	-11.473
▁Dublin	-11.473
▁mõne	-11.4731
▁ravni	-11.4733
▁guerre	-11.4741
▁response	-11.4743
▁ισχυρ	-11.4745
▁maanden	-11.4754
▁recordar	-11.4763
▁kontinent	-11.4767
▁šalys	-11.4767
▁Tagesordnung	-11.4769
▁einzige	-11.4771
▁ridurre	-11.4773
▁preşedinte	-11.4773
▁όλων	-11.4773
▁Evropi	-11.478
▁fondamentaux	-11.478
▁weinig	-11.478
▁emberek	-11.4781
▁Erfolg	-11.4781
▁Zusammen	-11.4788
ични	-11.4788
▁zodpovedn	-11.4789
▁contradic	-11.4789
▁δικαίωμα	-11.4791
kreip	-11.4794
▁pasakyti	-11.4795
▁nell’	-11.4799
▁völlig	-11.48
ισμών	-11.4802
▁προσέγγιση	-11.4804
▁piemēram	-11.4806
▁Comunità	-11.481
▁rileva	-11.4812
▁betragtning	-11.4813
▁summit	-11.4813
δυναμ	-11.4815
▁βουλευτές	-11.4817
▁bästa	-11.4819
▁påverka	-11.4821
▁energetik	-11.4821
▁igualdad	-11.4822
võrd	-11.4824
▁posibil	-11.4835
virksomhed	-11.4836
▁Ко	-11.4837
▁repræsentant	-11.4839
▁Izrael	-11.4839
▁europene	-11.4839
▁camino	-11.4841
▁supplémentaire	-11.4845
l’onorevole	-11.4847
▁Mehrheit	-11.4852
общ	-11.4857
▁dessutom	-11.4858
▁scorso	-11.4863
▁herinner	-11.4863
▁disponible	-11.4865
▁intelligent	-11.4865
▁mercati	-11.4867
▁känner	-11.4873
▁túl	-11.4875
▁rozwoju	-11.4878
▁pasākumu	-11.4878
όμενη	-11.4892
apertura	-11.4893
▁nüüd	-11.4893
▁Hlasoval	-11.4893
▁pendant	-11.4894
▁αποτελούν	-11.4896
▁duurzame	-11.49
▁регион	-11.4904
▁actuel	-11.4905
▁myslím	-11.4907
▁Tunis	-11.4913
▁zpravodaj	-11.4913
▁ιδίως	-11.4918
évolution	-11.4918
▁federal	-11.4918
▁Evropě	-11.492
▁Dokument	-11.492
schätz	-11.492
▁myndigheterna	-11.4926
ù	-11.4926
▁publiek	-11.4931
▁dovrà	-11.4942
▁eljárás	-11.4951
▁práci	-11.4951
казва	-11.4953
▁κράτος	-11.4953
▁správy	-11.4955
▁frontières	-11.4957
▁βελτίωση	-11.4959
▁emisij	-11.4962
▁giovani	-11.4966
▁výrobk	-11.4969
ίνω	-11.4975
▁Januar	-11.4977
▁línea	-11.4979
▁visuomen	-11.4982
‘	-11.4986
sistencia	-11.4994
▁μέρος	-11.4995
▁spørge	-11.4995
▁ecolog	-11.4997
▁Съвета	-11.4997
▁equip	-11.5
▁våld	-11.5002
▁získa	-11.5004
▁båda	-11.5008
▁Kraft	-11.5008
▁little	-11.501
middag	-11.502
▁eindeutig	-11.5021
▁ligeledes	-11.5022
▁правата	-11.5022
▁Endelig	-11.5024
▁eigentlich	-11.5027
▁napríklad	-11.503
▁παρούσα	-11.503
▁žensk	-11.5032
▁znamená	-11.5035
▁conseguenza	-11.5039
▁atbilst	-11.504
▁vorliegen	-11.5044
▁működ	-11.5048
▁retfærdig	-11.5048
▁momenteel	-11.5049
▁gezamenlijk	-11.5053
▁edasi	-11.5056
képviselőcsoport	-11.5057
▁amenaza	-11.5066
▁writing.	-11.5068
▁érdek	-11.5069
▁beschouw	-11.5071
▁mientras	-11.5071
▁historia	-11.5071
▁δημο	-11.5071
Rechtsvorschrift	-11.5073
▁мерки	-11.5075
▁convince	-11.5076
▁izveido	-11.5077
▁ochrany	-11.5078
Solidar	-11.5082
▁défend	-11.5083
▁although	-11.5088
▁amount	-11.5088
▁nothing	-11.5089
▁nucléaire	-11.5091
▁družb	-11.5094
▁zahranič	-11.5095
▁segunda	-11.51
▁spodbuja	-11.5104
▁písemně.	-11.5106
▁muncă	-11.5106
▁искал	-11.5109
▁Quisiera	-11.5113
▁jautājumi	-11.5113
▁punct	-11.5116
▁szolgál	-11.512
spagnol	-11.5123
▁Portug	-11.5125
▁rakstiski.	-11.5127
▁disposizioni	-11.5127
▁bambini	-11.5129
rozījum	-11.5131
▁równ	-11.5132
▁critères	-11.5136
▁precum	-11.5141
▁Herausforderung	-11.5145
▁módosítás	-11.5147
▁kriminal	-11.5154
▁zvýšen	-11.5154
▁azzal	-11.5154
▁Debemos	-11.5156
▁nell'Unione	-11.5158
▁défense	-11.5165
▁dostęp	-11.5167
▁uitstekend	-11.5172
▁rovněž	-11.5174
▁pirminink	-11.5178
▁överenskommelse	-11.5181
▁cohésion	-11.5185
▁καμία	-11.5185
▁stärka	-11.5185
▁reducción	-11.5185
▁behandeling	-11.5185
wirtschaftlichen	-11.5186
▁udvalg	-11.5186
▁przewodniczący	-11.5189
▁podpira	-11.519
▁all'interno	-11.5192
▁hälso	-11.5192
▁izboljša	-11.5194
▁бюджет	-11.5194
ложи	-11.5195
▁ουσιαστικ	-11.5201
▁gelten	-11.5201
▁jurídico	-11.5205
▁bedrijf	-11.5205
▁Luxemburg	-11.5208
▁größte	-11.5208
▁aprobación	-11.5208
▁guvern	-11.5208
▁terrein	-11.5208
▁gelegenheid	-11.5215
▁elecciones	-11.5215
▁priekšlikumu	-11.5217
▁sociaal	-11.5217
▁megoldás	-11.5219
▁postęp	-11.5222
▁zároveň	-11.5224
oxid	-11.5224
▁együtt	-11.5226
▁strateegia	-11.5228
▁πρώτο	-11.5231
▁działań	-11.5231
▁måneder	-11.5233
▁objeto	-11.5233
▁réseau	-11.5235
▁sustainable	-11.5239
▁ανθρωπίνων	-11.5239
dług	-11.5239
▁galėtų	-11.5242
examen	-11.5242
▁keskkonna	-11.5244
▁μηχαν	-11.5244
▁uiteindelijk	-11.5246
▁liksom	-11.5246
▁pasākumi	-11.5254
▁δυνατόν	-11.5255
fähig	-11.526
▁πραγματικότητα	-11.526
pět	-11.526
▁flexible	-11.5262
▁Gewalt	-11.5262
▁detaljer	-11.5263
▁zaveden	-11.5263
▁aktiviteter	-11.5265
▁extérieur	-11.5271
▁début	-11.5272
jedná	-11.5273
▁Vertreter	-11.5274
▁ontwerp	-11.5276
▁sanctions	-11.528
▁ευθύνη	-11.5282
▁Prozess	-11.5285
▁Stabilität	-11.5287
▁sistēma	-11.529
▁vzťah	-11.529
▁approfondi	-11.529
▁poveča	-11.5296
▁noodzaak	-11.5296
▁τέτοιο	-11.5296
▁udelukke	-11.5299
▁sammanhang	-11.5299
▁forvaltning	-11.5299
▁foreign	-11.5299
▁használ	-11.5301
▁affronta	-11.5303
▁τελευταία	-11.5303
Y	-11.5303
▁doubt	-11.5309
▁réglementation	-11.531
▁olulise	-11.5313
▁perhaps	-11.5315
▁gadā	-11.5315
▁åtagande	-11.5317
▁sostenible	-11.5319
▁dēļ	-11.5319
▁ändå	-11.532
▁πολιτικών	-11.5322
▁inhoud	-11.5322
▁angemessen	-11.5328
▁voglio	-11.533
▁grâce	-11.5331
▁odvětví	-11.5333
itāti	-11.5334
▁risiko	-11.5334
▁rovno	-11.5343
▁vigueur	-11.5345
▁bezpečn	-11.5355
-Ver	-11.5356
▁težav	-11.5359
▁nyújt	-11.5361
▁impuesto	-11.5361
▁načrt	-11.5363
▁regij	-11.5365
▁δημοκρατία	-11.5368
▁fiducia	-11.5368
▁öppna	-11.5368
▁πολυ	-11.5372
▁udenrigs	-11.5375
▁nebude	-11.5379
značn	-11.5397
▁praksis	-11.5398
▁facile	-11.5402
▁Kompromiss	-11.5402
▁zmanjša	-11.5407
▁Espero	-11.5409
▁unterschiedlich	-11.5411
▁coesione	-11.5412
▁μέτρων	-11.5414
različ	-11.5415
▁réussi	-11.5419
▁overeenstemming	-11.5421
▁négoci	-11.5422
▁ledamot	-11.5423
▁pericolo	-11.5425
▁construi	-11.543
▁bekannt	-11.5432
▁enfrenta	-11.5432
▁coherent	-11.5439
▁offrir	-11.5446
▁vedrører	-11.5451
▁można	-11.5451
▁intézmény	-11.5453
profe	-11.5455
▁rápida	-11.5455
▁ursprung	-11.546
▁każd	-11.5464
▁trasporti	-11.5467
▁lykke	-11.5468
▁kohustus	-11.5469
▁προϋπολογισμού	-11.5474
▁määra	-11.5474
▁approccio	-11.5479
vurdering	-11.5479
▁logic	-11.5484
▁Sarkozy	-11.5486
differenz	-11.5491
▁υπηρεσίες	-11.5493
▁dažād	-11.5493
unternehmen	-11.5497
▁σημεριν	-11.55
▁Fälle	-11.5506
▁Dessutom	-11.5514
▁основа	-11.5514
▁Bulgarien	-11.5521
▁Protokoll	-11.5523
▁particolarmente	-11.5525
▁κανόνες	-11.5525
▁искам	-11.553
▁naszych	-11.553
▁Tādēļ	-11.5535
▁daarmee	-11.5536
▁Πρόεδρο	-11.5544
▁Infine,	-11.5546
▁reciproc	-11.5553
▁Financ	-11.5554
▁Republic	-11.5556
vermogen	-11.5556
▁lejlighed	-11.5558
▁richiede	-11.5563
▁previous	-11.5563
▁korral	-11.5569
▁libéral	-11.557
▁κανείς	-11.557
stąpi	-11.5573
▁accompli	-11.5577
▁Härra	-11.5579
sposob	-11.5581
▁finančne	-11.5586
▁condamn	-11.5587
quête	-11.5587
▁toliau	-11.5588
изира	-11.5595
▁exercice	-11.5603
▁γραπτώς.	-11.5603
„	-11.5605
▁bl.a.	-11.5607
▁obiectiv	-11.561
▁einzelnen	-11.5612
▁μαζί	-11.5614
▁létre	-11.5615
▁ECB	-11.5617
▁alapvető	-11.5619
▁διαχείριση	-11.5619
▁strony	-11.562
ește	-11.562
▁1993	-11.5622
П	-11.5622
▁occidental	-11.5624
▁kehtesta	-11.5631
▁technical	-11.5636
πειρ	-11.5647
▁αερο	-11.5647
▁täielik	-11.5648
▁įvair	-11.5648
▁aizsardzība	-11.565
▁ενδιαφέρ	-11.565
▁fremhæve	-11.5652
▁κοινωνία	-11.5655
▁προϋπολογισμό	-11.5662
▁swoje	-11.5672
▁respeta	-11.5673
▁resolucij	-11.5676
▁šiandien	-11.5678
-in-Office	-11.5681
▁suurenda	-11.5683
▁Konflikt	-11.5685
▁indeholder	-11.5686
▁usnesení	-11.5686
▁Solidarität	-11.5688
▁Bürgerinnen	-11.569
▁πρόοδο	-11.5697
▁publiczn	-11.5699
▁tiesības	-11.57
▁Kampf	-11.5702
spørgsmål	-11.5714
▁réalisé	-11.5714
▁sørge	-11.5718
bescherming	-11.5719
▁considération	-11.5724
▁cieľ	-11.5725
▁djur	-11.5728
▁обаче	-11.5733
▁tāpēc	-11.5738
▁σαφές	-11.5738
▁transparency	-11.5743
▁månader	-11.5743
▁recognise	-11.5745
▁slachtoffer	-11.5747
▁Transparenz	-11.5755
▁συμφέρον	-11.5755
▁előadó	-11.5755
▁morgon	-11.5757
▁związan	-11.5759
▁gebaseerd	-11.5759
▁Prä	-11.5761
▁środowisk	-11.5764
▁Vereinbarung	-11.5771
▁tecnología	-11.5771
▁forbedring	-11.5771
▁tæt	-11.5774
▁profesional	-11.5774
▁ważne	-11.5776
▁sociaux	-11.5776
▁probabil	-11.5778
▁διάταξη	-11.5781
▁větší	-11.5783
▁doeltreffend	-11.5783
▁Convenzione	-11.5783
▁τέλος	-11.5783
▁στοιχεία	-11.5788
▁goedgekeurd	-11.5793
▁vélemény	-11.5793
▁ringrazio	-11.5795
▁vorgesehen	-11.5795
▁Evrope	-11.5798
▁Michel	-11.5799
▁σαφή	-11.58
▁przedsiębiorstw	-11.5805
▁vervolg	-11.5805
▁Atlant	-11.5815
▁disposiciones	-11.5815
▁recuper	-11.5815
▁struktūr	-11.5817
▁Barnier	-11.5818
▁synspunkt	-11.582
▁krajín	-11.5822
▁Verfügung	-11.5824
▁směr	-11.5825
▁bleiben	-11.5829
▁fünf	-11.5829
▁hantera	-11.5831
häftig	-11.5833
▁ECU	-11.5839
▁köszön	-11.5846
▁związku	-11.5846
▁μπορούσα	-11.5848
wróc	-11.5852
▁figyelm	-11.5853
▁ebenso	-11.5854
▁volontà	-11.5856
▁voorbereid	-11.5856
▁kmetij	-11.5863
▁комисия	-11.5865
▁gleichzeitig	-11.5873
/97)	-11.5875
▁ultima	-11.5876
ktivität	-11.5879
▁piśmie	-11.588
▁περιοχές	-11.588
▁præcis	-11.588
▁Европейска	-11.5882
▁erwähnt	-11.5885
▁πλευρά	-11.5885
▁élections	-11.5887
▁ostatni	-11.5896
▁réellement	-11.5897
▁necesar	-11.5897
▁Όπως	-11.5899
▁vaccin	-11.5899
▁pozosta	-11.5904
▁uafhængig	-11.5906
▁tomorrow	-11.5909
▁podľa	-11.5912
▁wirksam	-11.5912
▁racism	-11.5912
▁victimes	-11.5914
affaire	-11.5916
▁szeretnék	-11.5921
▁maritime	-11.5921
▁tillämpning	-11.5923
▁efficiënt	-11.5926
▁negozia	-11.593
▁prostředí	-11.5933
▁Integration	-11.5938
▁côté	-11.5938
▁pašreiz	-11.5938
lliance	-11.5942
▁öelda	-11.5943
Á	-11.5948
▁когато	-11.595
ложен	-11.5952
▁olukord	-11.5953
▁dipende	-11.5954
▁néhány	-11.5955
▁επενδύ	-11.5958
▁bewust	-11.596
▁πιθαν	-11.5962
▁eesmärgi	-11.5965
▁affari	-11.5965
▁betroffen	-11.5972
▁vpliv	-11.5976
▁sostenibile	-11.598
▁εξαιρετικά	-11.5984
▁neutral	-11.5985
▁chiedo	-11.599
ично	-11.5992
▁Pokud	-11.5992
▁uttalande	-11.5999
▁διατηρ	-11.5999
▁proizvod	-11.6004
▁Eiropā	-11.6007
dzīvo	-11.6007
▁combina	-11.6008
sfähigkeit	-11.6009
▁veiller	-11.601
▁πρωτοβουλία	-11.6011
▁historisk	-11.6012
▁statistik	-11.6014
▁Európy	-11.6016
▁judicial	-11.6016
▁référence	-11.6026
▁jednání	-11.6027
▁positif	-11.6029
▁verandering	-11.6041
▁Birma	-11.6042
▁защита	-11.6053
▁могат	-11.6053
▁National	-11.6053
▁apsaugos	-11.6056
folk	-11.6059
ически	-11.606
laufen	-11.6062
▁articol	-11.6062
▁desværre	-11.6063
▁altså	-11.6064
▁verkiezingen	-11.6066
▁februar	-11.6066
▁network	-11.6071
ιστούν	-11.6072
býva	-11.6074
▁jóvenes	-11.608
▁сигурност	-11.6083
▁záujm	-11.6083
▁állásfoglalás	-11.6085
▁review	-11.6085
▁Eftersom	-11.6088
▁mezzi	-11.6088
▁Fischler	-11.6093
▁osób	-11.6093
▁gebrek	-11.6094
▁comisar	-11.6095
▁δραστηριότητ	-11.6098
▁Russland	-11.61
▁labiau	-11.6101
▁l'énergie	-11.6105
▁pokračova	-11.6108
▁στήριξη	-11.6108
▁част	-11.6108
▁faudra	-11.6116
▁работа	-11.6118
▁piccole	-11.612
ācijā	-11.6125
▁geschlossen	-11.6127
▁absoluut	-11.613
▁slobod	-11.6133
▁вече	-11.6138
▁kobiet	-11.6144
anticip	-11.6145
▁muutu	-11.6145
«	-11.6149
▁spolupráci	-11.615
protokoll	-11.6153
▁näiteks	-11.6155
▁gewährleisten	-11.6157
▁forhindre	-11.6157
▁съглас	-11.616
▁Vorschriften	-11.616
▁Lebensmittel	-11.6162
▁waardoor	-11.6162
▁Therefore	-11.6162
▁attitude	-11.6163
țional	-11.6165
▁requisito	-11.617
▁relatrice	-11.617
▁rõhuta	-11.6172
▁Szerződés	-11.6175
▁ontwikkelen	-11.6177
▁utmärkt	-11.6178
▁ψήφισμα	-11.618
▁traitement	-11.6195
▁pozornost	-11.6195
▁promouvoir	-11.62
▁zprávu	-11.62
▁inderdaad	-11.6205
▁mécanisme	-11.6205
▁przypadku	-11.6207
nneskerettigheds	-11.6217
▁materie	-11.6217
▁alkohol	-11.622
mmissionsledamot	-11.622
grupper	-11.6221
▁rappeler	-11.6222
▁používa	-11.6227
maatregelen	-11.6228
▁przedmiotow	-11.623
▁wspólne	-11.623
existence	-11.6231
▁aquellos	-11.6232
▁nachhaltige	-11.6232
▁raštu.	-11.6235
▁föredragande	-11.6236
▁държава	-11.6237
▁turpmāk	-11.6242
▁riconosce	-11.6245
δηλ	-11.6246
▁φυσικά	-11.6247
▁Rumun	-11.6255
▁komiteja	-11.626
technológi	-11.6262
▁ovviamente	-11.6262
▁dalībvalstis	-11.6265
▁συνθήκες	-11.6267
▁komplex	-11.6273
▁pleased	-11.6275
pomí	-11.6277
omkostninger	-11.6278
▁σημαντικά	-11.6278
▁vyriausyb	-11.628
▁založen	-11.6288
▁δυσ	-11.6291
▁важно	-11.6291
▁strikt	-11.6291
▁kohtu	-11.6291
▁συμμετοχή	-11.6293
▁armoniza	-11.6295
cicl	-11.6296
▁Familie	-11.6298
▁rigtigt	-11.63
▁κλίμα	-11.63
здрав	-11.6303
▁suspend	-11.6306
▁εκφράσ	-11.6308
▁împotriva	-11.631
▁führt	-11.631
▁handlingsplan	-11.6315
▁következő	-11.6321
▁l'année	-11.6331
▁pilnīg	-11.6331
▁lobby	-11.6334
▁vēlētos	-11.6336
▁sfrutt	-11.6336
▁podkreśl	-11.6341
▁September	-11.6343
▁J'espère	-11.6346
▁upprepa	-11.6347
▁cumplir	-11.6349
▁έλεγχο	-11.6353
fällig	-11.6355
▁eventual	-11.636
entreprise	-11.636
▁verzeker	-11.6361
slutningsforslag	-11.6364
▁vittime	-11.6366
▁Thank	-11.6366
▁Rád	-11.6369
▁ktorej	-11.6369
É	-11.6369
▁povedať	-11.6381
▁predvsem	-11.6392
▁βαθμό	-11.6392
▁Voorzitter	-11.6395
▁módon	-11.6399
▁Seetõttu	-11.6402
▁ekspert	-11.6403
▁ieguldīj	-11.6412
▁Τέλος	-11.6417
κινητ	-11.642
▁pārstāv	-11.642
▁hranic	-11.642
▁verbessern	-11.6422
▁евро	-11.6422
▁særdeles	-11.6425
▁tähelepanu	-11.6425
▁atveju	-11.6425
▁νέων	-11.6427
▁erkänna	-11.6432
▁détail	-11.6437
gjort	-11.644
▁piuttosto	-11.644
▁cohesión	-11.644
▁predsedajúca	-11.6445
▁κίνδυνο	-11.6445
▁Position	-11.6451
▁predseda	-11.6453
▁incontr	-11.6454
▁uiteraard	-11.6456
▁pertinent	-11.6457
kapacitet	-11.6458
▁incoraggia	-11.6461
▁μέλος	-11.6461
▁erhvervs	-11.6466
▁umfassende	-11.6466
▁υποστήριξη	-11.6468
▁godkänna	-11.6471
▁προσφέρ	-11.6471
▁μέσο	-11.6471
▁κάποια	-11.6476
▁stratégia	-11.6479
▁environnemental	-11.6482
lbstverständlich	-11.6489
▁milijon	-11.6489
▁Chciałbym	-11.6492
▁raportöör	-11.6497
▁Nederland	-11.6512
▁comporte	-11.6515
productiv	-11.6515
▁c'è	-11.6517
▁profil	-11.6522
▁paragrafo	-11.6523
vērš	-11.6523
▁търгов	-11.6528
▁beperkt	-11.6528
▁σκοπό	-11.6529
▁l'importance	-11.653
▁protéger	-11.653
▁περαιτέρω	-11.6533
▁gevoel	-11.6535
▁habría	-11.6536
▁Aceast	-11.6538
▁kahju	-11.6539
▁razones	-11.6541
▁egyértelmű	-11.6546
výhod	-11.655
▁obvious	-11.6551
▁предложение	-11.6561
▁settimana	-11.6564
▁costituisce	-11.6567
▁Menschenrechts	-11.657
▁superior	-11.6572
▁précédent	-11.6572
▁njegov	-11.6572
▁beslissing	-11.659
▁rafforzare	-11.659
▁purpose	-11.6593
▁évidemment	-11.6595
▁figura	-11.6603
▁βήμα	-11.6603
▁Acuerdo	-11.6606
▁monétaire	-11.6606
▁obstacle	-11.6608
▁twijfel	-11.6608
▁poverty	-11.6608
▁Anfrage	-11.6611
-Gruppen	-11.6613
▁Secondly,	-11.6613
▁několik	-11.6613
▁omstændigheder	-11.6613
▁Empfehlung	-11.6619
▁violencia	-11.6621
expérience	-11.6629
▁privilegi	-11.6629
▁behövs	-11.6629
▁grundlegende	-11.6629
▁tourism	-11.6634
▁toezicht	-11.6634
exploitation	-11.6634
▁ourselves	-11.6642
▁förhindra	-11.6645
▁cohesion	-11.6647
▁Rumänien	-11.665
▁potencial	-11.665
▁novembre	-11.6653
▁voluntad	-11.6653
▁méthode	-11.6663
▁familj	-11.6668
▁Frattini	-11.6676
ασμού	-11.668
▁EIB	-11.6684
▁ombudsman	-11.6687
▁uppfattning	-11.6689
▁exploit	-11.6689
▁väx	-11.669
▁angesichts	-11.6697
ons-nous	-11.6699
▁olukorra	-11.67
креп	-11.6701
▁voluntar	-11.6706
▁considère	-11.6708
▁Uważam	-11.671
▁satisfacción	-11.671
▁icke-	-11.6716
▁bastante	-11.6716
&	-11.6718
▁förvaltning	-11.6718
▁betragte	-11.6721
▁herrer!	-11.6726
▁reduction	-11.6726
raudzī	-11.6727
▁impossible	-11.6731
фективн	-11.6731
œ	-11.6734
▁medelstora	-11.6737
▁εξετάσ	-11.6737
▁Außerdem	-11.6739
▁åbne	-11.6745
▁jurídica	-11.6747
▁prekybos	-11.6747
▁difesa	-11.6747
dømme	-11.6753
▁konkurence	-11.6756
▁Norėčiau	-11.6774
С	-11.6775
▁Moldova	-11.6779
περιφερειακ	-11.6787
▁Gipfel	-11.6787
▁zunächst	-11.6787
▁hälsa	-11.6787
▁vždy	-11.679
▁aanbeveling	-11.6792
potenzial	-11.6795
▁παρατηρ	-11.6795
▁sabiedrība	-11.68
▁νέες	-11.68
▁ορισμένα	-11.6803
▁recommendation	-11.6805
▁transfrontalier	-11.6805
▁dépend	-11.681
▁γυναικών	-11.6811
▁θεωρώ	-11.6818
▁governance	-11.6821
▁betingelser	-11.6829
▁pauvreté	-11.684
▁apartado	-11.684
▁Πρόκειται	-11.6843
▁carried	-11.6846
▁sanktioner	-11.6853
▁territoire	-11.6856
▁zahlreiche	-11.6856
▁immediate	-11.6856
vabadus	-11.6857
▁Istituzioni	-11.6859
▁ONG	-11.6859
▁Zweitens	-11.6861
▁sammanhållning	-11.6861
gewicht	-11.6868
▁tribunal	-11.688
▁øvrigt	-11.688
▁consciente	-11.688
▁appear	-11.688
▁letzte	-11.6882
▁topmøde	-11.6883
▁wzrost	-11.6888
støtte	-11.689
έναντι	-11.6892
▁reunión	-11.6894
▁bekræfte	-11.6894
▁armoede	-11.6896
▁взе	-11.6904
företag	-11.6908
▁jeśli	-11.691
▁commencer	-11.6911
▁Hinsicht	-11.6913
национал	-11.6918
▁irányuló	-11.6918
▁præsident	-11.6918
bestemmelse	-11.6921
▁prueba	-11.6923
▁környezet	-11.6926
▁gesproken	-11.6928
▁"νωμέν	-11.6931
▁nadzieję	-11.6931
▁modèle	-11.6934
▁pobreza	-11.6934
▁povertà	-11.6937
▁gospodarske	-11.6937
▁bedeuten	-11.6937
▁sabemos	-11.6937
▁inštitúci	-11.6942
▁nevében	-11.6942
▁döntés	-11.6945
▁militær	-11.695
▁tähtis	-11.6953
▁труд	-11.6953
▁klausimą	-11.6953
freiheit	-11.6954
▁Ausschuß	-11.6955
▁daadwerkelijk	-11.6955
▁spécial	-11.6958
Ρ	-11.6961
▁έχω	-11.6961
▁fortsätter	-11.6963
▁kíván	-11.6966
▁αριθμό	-11.6966
▁resolutsiooni	-11.6969
▁manglende	-11.6969
▁Bemühungen	-11.6977
▁sammanträde	-11.6977
slēg	-11.6978
▁potrošn	-11.6982
ясно	-11.6983
▁bepalingen	-11.6985
▁predlaga	-11.6987
▁uwzględni	-11.6988
▁чрез	-11.699
▁θέλουμε	-11.6993
decydowa	-11.6994
▁χρειάζεται	-11.6996
▁vægt	-11.6996
▁licenc	-11.7003
▁overtuigd	-11.7004
▁Musimy	-11.7004
▁samenleving	-11.7004
▁võimalda	-11.7009
▁Conferencia	-11.7018
▁imagin	-11.7019
▁příležitost	-11.702
▁συγκεκριμένα	-11.702
▁обществ	-11.702
/2001)	-11.7023
▁betreffen	-11.7023
▁meddelelse	-11.7026
▁pokiaľ	-11.7028
▁skupno	-11.703
▁risolvere	-11.7037
▁structural	-11.7039
▁Εάν	-11.7039
▁Λισαβόνας	-11.7042
ugupeetud	-11.7045
▁democrática	-11.7045
▁споразумение	-11.7045
nternationaal	-11.7045
▁November	-11.7047
▁някои	-11.7047
▁réjouis	-11.705
▁muszą	-11.705
-betænkningen	-11.7053
▁förvänta	-11.7053
▁Bestimmungen	-11.7056
ländska	-11.7056
▁Program	-11.706
▁violenza	-11.7067
К	-11.707
tööstus	-11.7072
▁agriculture	-11.7072
▁impedir	-11.7074
▁reprezent	-11.7075
▁společné	-11.7075
▁πληθυσμ	-11.708
▁ό,τι	-11.708
▁absolument	-11.7083
▁kennis	-11.7085
▁rispondere	-11.7086
▁rechaza	-11.7086
▁pánové,	-11.7088
▁envisage	-11.7089
▁υπηρεσιών	-11.7091
▁budžeta	-11.7091
▁recommandation	-11.7094
▁fastställa	-11.7097
punerea	-11.7098
▁uppmärksamhet	-11.7099
▁kommunikation	-11.7102
▁najbolj	-11.7105
▁īpaš	-11.7107
▁Γι'	-11.711
▁wünsche	-11.7113
▁πλήρως	-11.7113
åtgärder	-11.7118
▁τούτου,	-11.7119
▁lépés	-11.7119
▁bekymre	-11.7121
▁historie	-11.7124
мин	-11.7126
▁beschermen	-11.7127
▁experiencia	-11.7132
▁označ	-11.7138
▁prostredníctvom	-11.714
▁pozitív	-11.714
▁nagyobb	-11.7151
▁heutige	-11.7154
▁décidé	-11.7154
▁Mercosur	-11.716
ασμό	-11.7161
▁változ	-11.7165
▁reprezintă	-11.7168
▁človekovih	-11.7168
▁behind	-11.7172
▁bzw.	-11.7174
▁tarbija	-11.7174
▁auguro	-11.7174
ντως	-11.7175
▁everything	-11.7176
▁Swoboda	-11.7185
▁charakter	-11.7196
▁poprzez	-11.7196
▁concrète	-11.7201
▁précisément	-11.7201
▁επομένως	-11.7204
▁syftar	-11.7207
▁moksl	-11.7209
▁unilateral	-11.7209
▁energética	-11.7212
▁democrático	-11.7215
▁iespēju	-11.7215
▁objektiv	-11.7215
▁vóór	-11.7218
▁Madrid	-11.722
▁nevyhnutn	-11.7226
▁pesticid	-11.7226
▁B5-0	-11.7232
▁globáln	-11.7242
▁směrnice	-11.7251
▁dosiahnuť	-11.7254
▁powiedzieć	-11.7259
▁помощ	-11.7259
▁fogyasztó	-11.7265
▁sodelovanje	-11.7265
▁tâche	-11.7265
▁método	-11.7265
myśl	-11.7266
▁(200	-11.7267
sprozess	-11.7276
▁British	-11.7276
▁poważn	-11.7279
▁verdadera	-11.7279
▁uppmuntra	-11.7282
▁znovu	-11.7287
Ś	-11.7293
▁Kinnock	-11.7293
▁próxima	-11.7293
▁billion	-11.7299
О	-11.7304
▁lehetővé	-11.7304
▁bērn	-11.7307
/98)	-11.7309
▁Evropy	-11.7315
▁highlight	-11.7318
▁läbirääkimis	-11.7318
▁období	-11.7318
▁Mugabe	-11.7321
▁freue	-11.7322
▁aspetta	-11.7324
▁weltweit	-11.7326
▁βιομηχανία	-11.7328
▁Aufmerksamkeit	-11.7329
▁clause	-11.7329
łaściw	-11.7329
conferentie	-11.7329
▁fishing	-11.7335
▁odpowiedzi	-11.7335
▁αντιμετωπίσ	-11.7337
▁zprávě	-11.734
▁imieniu	-11.7341
▁тях	-11.7343
▁skutečně	-11.7349
▁subraya	-11.7349
technologie	-11.7349
▁wszystkie	-11.7352
▁πρόσφατ	-11.7352
▁Slutligen	-11.736
▁d’autres	-11.7368
▁mértékben	-11.7368
▁zajistit	-11.7371
▁York	-11.7371
▁κανονισμού	-11.7374
▁vælge	-11.7378
▁vykonáva	-11.738
▁London	-11.7386
szolgáltatás	-11.7388
▁samhørighed	-11.7391
▁scientifique	-11.7391
terinstitutionel	-11.7391
▁συχνά	-11.7399
▁wymaga	-11.7401
▁tiltrædelse	-11.7405
▁partenaires	-11.7405
förändringar	-11.7407
▁verheug	-11.7408
▁Stockholm	-11.7411
▁opportunities	-11.7411
▁Όσον	-11.7411
utskottet	-11.7412
▁работни	-11.7414
▁résoudre	-11.7416
▁revisión	-11.7416
▁développer	-11.743
▁throughout	-11.7431
▁Commissari	-11.7433
▁joprojām	-11.7433
▁Europoje	-11.7433
▁fenomen	-11.7433
законодател	-11.7436
▁händelse	-11.7436
▁zamestnan	-11.7439
▁package	-11.7439
▁személy	-11.7442
▁връзка	-11.7445
▁ημερήσια	-11.7453
▁language	-11.7453
▁години	-11.7464
▁Occorre	-11.7464
▁provádě	-11.7467
▁tänker	-11.7467
▁régió	-11.747
▁țări	-11.7473
▁zprávy	-11.7482
▁nezávisl	-11.7484
▁σύμ	-11.749
▁täit	-11.7492
▁carácter	-11.7496
▁znaczenie	-11.7496
▁spoločnosti	-11.7499
▁wspiera	-11.7505
▁lediglich	-11.7519
▁środki	-11.7521
▁competenze	-11.7521
▁manipul	-11.7521
▁climático	-11.7524
▁víctimas	-11.7524
▁sexual	-11.7524
▁específica	-11.7533
▁fără	-11.7536
▁αφορούν	-11.7536
▁åtgärd	-11.7545
▁godkende	-11.7545
myndighed	-11.7548
▁Ρωσία	-11.755
▁reforzar	-11.7553
▁odpowiedni	-11.7556
▁εγκρίν	-11.7556
▁απολύτως	-11.7558
▁Asimismo	-11.7561
▁inimõiguste	-11.7561
▁oorlog	-11.7562
▁przyczyn	-11.7563
▁conférence	-11.7564
▁například	-11.7564
▁ελέγχου	-11.757
▁considérable	-11.7574
°	-11.7576
▁phase	-11.7582
▁ruimte	-11.7585
▁dotyczą	-11.7586
▁voedsel	-11.7587
▁Επιπλέον	-11.7593
▁εσωτερική	-11.7593
▁versterken	-11.7593
▁συνέπεια	-11.7596
▁Einrichtung	-11.7596
ευρωπαϊ	-11.7599
▁Völker	-11.7602
▁eesistuja	-11.7602
▁własn	-11.7604
▁esercita	-11.7605
▁dificultades	-11.7607
▁iedzīvotāju	-11.761
▁βρίσκεται	-11.761
▁l'objet	-11.7616
avantage	-11.7618
▁συνεπώς	-11.7619
▁φαίνεται	-11.7622
protsess	-11.7622
▁drošības	-11.7625
▁wpływ	-11.7627
¡	-11.763
▁ágazat	-11.763
▁invloed	-11.7633
▁powinniśmy	-11.7636
▁συνολικ	-11.7638
▁Ombudsman	-11.7639
▁undersøge	-11.7642
vhodn	-11.7646
wencj	-11.7648
▁ytterst	-11.7648
▁berücksichtigt	-11.7653
▁lahendus	-11.7657
▁Stellungnahme	-11.7659
▁obwohl	-11.7662
▁Desuden	-11.7662
▁umożliwi	-11.7668
▁persoane	-11.7668
▁(SL)	-11.7671
▁przewodnicząca	-11.7671
▁ανταγωνιστικ	-11.7671
▁Vertrauen	-11.7674
▁appoggia	-11.7674
▁independent	-11.7674
introduzione	-11.7677
▁gebeurt	-11.768
▁l'heure	-11.768
▁oberoende	-11.7685
▁αυστηρ	-11.7688
▁strinja	-11.7692
▁všeobecn	-11.7694
▁inmigración	-11.7697
▁θέσεις	-11.77
▁erheblich	-11.7711
prijzen	-11.7712
▁προϊόντων	-11.7714
▁písomne.	-11.772
▁límite	-11.772
▁επίτευξη	-11.7723
▁conocimiento	-11.7732
▁εκπαίδευση	-11.7732
▁ordentlig	-11.7732
▁χρηματοδοτ	-11.7738
▁dårlig	-11.7741
▁skillnad	-11.7749
▁εντός	-11.7752
▁helemaal	-11.7752
Strategi	-11.7753
▁fabrica	-11.7755
▁сектор	-11.7758
▁περιπτώσεις	-11.7767
▁různ	-11.7767
▁tirdzniecības	-11.777
▁αποτελέσματα	-11.777
▁compagnie	-11.777
▁efectiva	-11.7773
▁vergangenen	-11.7776
▁zoveel	-11.7776
▁zaměř	-11.7776
▁εκατομμύρια	-11.7779
mässig	-11.7779
▁probablement	-11.7779
▁държави-членки	-11.7782
▁persönlich	-11.7784
gląd	-11.7787
▁oportun	-11.7789
▁създава	-11.7793
▁Savienībā	-11.7796
▁udgifter	-11.7797
▁λάβει	-11.7802
▁atbalsta	-11.7802
▁κατεύθυνση	-11.7805
▁pleinement	-11.7805
▁vuole	-11.7805
▁Polonia	-11.7811
▁famille	-11.7817
kereskedelm	-11.782
▁Luxembourg	-11.782
▁creëren	-11.782
▁množstv	-11.7829
▁Fractie	-11.7829
/CE	-11.7829
▁raggiunto	-11.7834
▁προγράμματα	-11.7834
▁tegutse	-11.7834
▁coordon	-11.784
ez-vous	-11.7843
▁OMC	-11.7843
ll'articolo	-11.7849
▁allvarliga	-11.7849
▁tahaksin	-11.7858
▁κείμενο	-11.7858
▁Združen	-11.7861
▁article	-11.7864
▁frivillig	-11.7867
διαπραγματεύσεις	-11.7873
▁szczególnie	-11.7876
▁χρηματοπιστωτικ	-11.7876
▁piirkonna	-11.7879
▁konstatera	-11.7882
▁courage	-11.7886
▁nekateri	-11.7891
▁d'emploi	-11.7902
▁társadalmi	-11.7902
▁sexuell	-11.7902
▁medioambiental	-11.7905
▁bezüglich	-11.7905
▁dotyczących	-11.7905
▁chacun	-11.7905
▁speziell	-11.7906
▁Nigeria	-11.7911
▁διαφάνεια	-11.792
▁szemben	-11.792
▁britannique	-11.7923
▁prihodnost	-11.7929
▁įsipareigoj	-11.7929
▁ερωτ	-11.7929
▁Consiliului	-11.7932
▁hinweisen	-11.7932
▁lesquels	-11.7938
▁pvz.,	-11.7941
▁значение	-11.7944
▁Conferenza	-11.7944
▁yttrande	-11.7944
▁aérien	-11.7944
▁object	-11.7946
-t-il	-11.7947
▁powinna	-11.795
▁practical	-11.7959
▁gevraagd	-11.7965
▁2014	-11.7968
▁regelgeving	-11.7968
▁aujourd’hui	-11.7971
▁průmysl	-11.7971
byśmy	-11.7974
▁bekräfta	-11.7977
▁mancanza	-11.7977
▁across	-11.798
▁pronuncia	-11.7989
förhållanden	-11.7989
▁riktning	-11.7989
▁jogszabály	-11.7998
▁tõhusa	-11.7998
▁nopietn	-11.7998
ierobežo	-11.8001
▁wykorzysta	-11.8001
▁γυναίκες	-11.8004
▁difference	-11.8007
▁zadnj	-11.8009
▁bleibt	-11.8016
▁succès	-11.8016
▁réserve	-11.8016
▁Tampere	-11.8019
▁beszél	-11.8019
▁chciałbym	-11.8025
αυτό	-11.803
▁Prinzip	-11.8031
▁historic	-11.8032
▁μπορώ	-11.8036
▁Anstrengungen	-11.8037
▁προώθηση	-11.8037
▁συστήματος	-11.8037
▁Druck	-11.804
▁dėmesį	-11.8043
▁πόρων	-11.8046
▁spazio	-11.8049
inclusion	-11.8052
▁öppenhet	-11.8052
▁πόσο	-11.8052
▁резултат	-11.8055
▁übrigen	-11.8055
▁uitgebreid	-11.8058
ύθυν	-11.806
▁espacio	-11.8064
▁έγκριση	-11.8067
▁upprätta	-11.8068
▁indirect	-11.807
▁américain	-11.8076
▁l'agriculture	-11.8079
▁Erfahrung	-11.8091
ināšanu	-11.8093
▁υποστηρίξ	-11.8094
▁(DA)	-11.8094
▁cetăţeni	-11.8097
▁līmenī	-11.81
▁sprawozdaniu	-11.8103
▁persoonlijk	-11.8109
▁Przewodniczący	-11.8112
πληρώ	-11.8112
Ф	-11.8121
'attuazione	-11.8123
▁geleistet	-11.8124
▁odniesieniu	-11.8127
quote	-11.8131
▁nincs	-11.8133
▁presupuestaria	-11.8136
▁момент	-11.8136
▁равнище	-11.8136
▁inicjatyw	-11.8139
▁přesvědčen	-11.8142
▁iniciatív	-11.8143
▁konstatere	-11.8146
kończ	-11.8151
▁erfolgreich	-11.8152
▁nasprot	-11.8152
▁eelkõige	-11.8155
▁eenvoudig	-11.8158
▁circulation	-11.8161
▁Washington	-11.8167
▁scandal	-11.8173
▁initiatieven	-11.8176
läggning	-11.8176
▁προωθ	-11.8179
▁(BG)	-11.8179
▁kriisi	-11.8188
▁συνάδελφοι	-11.8191
rääki	-11.8192
åväl	-11.8193
▁ferroviari	-11.8194
▁όργανα	-11.8194
▁priložnost	-11.8197
▁Development	-11.8206
nuitvoerlegging	-11.821
▁Innovation	-11.8213
▁priveşte	-11.8216
bürger	-11.8219
▁nélkül	-11.8237
▁предвид	-11.8241
▁Kroatien	-11.8243
▁pakalpojum	-11.8243
▁szociális	-11.8246
▁padėkoti	-11.8246
▁poursuivre	-11.8252
▁renforcement	-11.8252
▁úsilí	-11.8252
▁connaissance	-11.8259
▁unabhängig	-11.8259
▁turpinā	-11.8263
▁gälla	-11.8264
▁rybolov	-11.8265
▁τρομοκρατ	-11.8265
▁konklusion	-11.8265
▁tampoco	-11.8265
▁åtminstone	-11.8268
δεικνύ	-11.8271
▁kultúr	-11.8271
▁εκτός	-11.8271
▁obrovsk	-11.8277
▁срещу	-11.8277
▁gefordert	-11.8277
▁waarborgen	-11.8277
▁především	-11.8283
▁vplyv	-11.8289
▁déclaré	-11.8289
▁решение	-11.8292
▁official	-11.8296
▁adequate	-11.8299
▁adéquat	-11.8299
▁lykønske	-11.8305
▁πλήρη	-11.8305
▁angesprochen	-11.8308
▁sumažin	-11.8317
▁catastrophe	-11.832
▁essentieel	-11.8326
▁χώρο	-11.8329
▁човека	-11.8336
▁piliečių	-11.8339
▁μόλις	-11.8342
▁investeringar	-11.8342
▁adecuado	-11.8345
▁überhaupt	-11.8345
▁ansträngningar	-11.8354
▁luftfart	-11.8354
▁World	-11.8357
▁besloten	-11.8357
▁ιδιαίτερ	-11.836
▁vienkārš	-11.8364
▁pogajanj	-11.8364
▁Öffentlichkeit	-11.8379
▁beschikbaar	-11.8382
▁povinnost	-11.8383
▁dall'onorevole	-11.8385
▁διεύρυνση	-11.8385
▁narkotika	-11.8388
▁terorist	-11.84
naudoja	-11.8403
▁βελτιώ	-11.8404
▁življenj	-11.841
▁nařízení	-11.8413
▁pomiędzy	-11.8413
pomembne	-11.8418
▁rekommendation	-11.842
▁presidency	-11.8426
▁French	-11.8429
▁vetenskap	-11.8429
▁usług	-11.8429
menetlus	-11.8434
▁compétitivité	-11.8441
▁Cyprus	-11.8445
▁tillgänglig	-11.8445
ouverture	-11.8445
▁Darüber	-11.8448
▁Deuxièmement	-11.8448
▁nogmaals	-11.8448
▁regionáln	-11.8449
▁zločin	-11.846
▁enfermedad	-11.8463
▁asigura	-11.8464
▁rūp	-11.8465
▁experiment	-11.8467
▁επισημάν	-11.847
▁ενημέρωση	-11.8473
▁historische	-11.8476
▁súčasnosti	-11.8485
▁convaincu	-11.8492
▁malheureusement	-11.8492
▁особено	-11.8492
▁espresso	-11.8492
wikkelingslanden	-11.8492
diskrim	-11.8492
▁vzpostavi	-11.8495
▁vis-à-vis	-11.8498
nedávn	-11.85
▁iværksætte	-11.8501
▁pacchetto	-11.8501
▁αποφάσεις	-11.8501
▁ländliche	-11.8502
▁servicio	-11.851
▁erklärt	-11.8511
▁purtroppo	-11.8511
▁saskaņā	-11.8511
▁σημεία	-11.8511
λαμβάνουν	-11.8514
▁předsednictví	-11.8514
▁důsledk	-11.8517
▁konkrēt	-11.8517
▁evropsko	-11.8523
▁garanderen	-11.8523
▁veszély	-11.8526
▁Schwierigkeiten	-11.8526
▁fisheries	-11.8533
▁República	-11.8539
▁συναδέλφου	-11.8548
▁javasol	-11.8548
présent	-11.8549
▁utsläpp	-11.8552
Afrique	-11.8557
▁bestræbelser	-11.8558
▁pågældende	-11.8558
▁repræsentere	-11.8558
▁telefon	-11.8558
▁chômage	-11.8564
▁дейност	-11.8564
▁victims	-11.8564
▁l'élargissement	-11.8567
▁rendkívül	-11.858
▁σειρά	-11.858
▁Bemerkung	-11.8583
▁Τουρκία	-11.8586
▁favoarea	-11.8593
▁bakgrund	-11.8593
▁δικαστ	-11.8596
▁συνεδρίαση	-11.8599
▁gyermek	-11.8599
▁nonostante	-11.8615
▁trūkum	-11.8615
βιομηχαν	-11.8616
hängig	-11.8619
▁jménem	-11.8621
▁Abschließend	-11.8621
▁osiągnię	-11.8621
▁Conference	-11.8625
▁sadarbība	-11.8625
▁competitività	-11.8641
držiava	-11.8644
▁δεύτερο	-11.8647
▁процес	-11.865
▁particulière	-11.8655
▁accoglie	-11.8657
▁συγκεκριμένο	-11.866
▁explota	-11.866
▁план	-11.8668
▁ανθρώπινα	-11.8669
▁Nästa	-11.867
▁förutsättning	-11.8673
▁discuti	-11.8674
▁l'État	-11.8676
▁longtemps	-11.8676
▁tikrųjų	-11.8676
▁δικαίου	-11.8679
▁caracter	-11.8679
▁potenciál	-11.8679
▁conjunta	-11.8679
▁component	-11.8695
▁domeniul	-11.8702
▁choix	-11.8708
▁pollution	-11.8708
▁schließlich	-11.8714
▁ovvero	-11.8714
▁Voraussetzung	-11.8721
▁αξιολόγηση	-11.8721
landbrugspolitik	-11.8723
▁naslednj	-11.873
▁Tätigkeit	-11.8734
q	-11.8735
▁kezdeményezés	-11.8737
▁prezydenc	-11.8737
▁uporablja	-11.874
▁ziņojumā	-11.874
▁minaccia	-11.8743
▁нашите	-11.8747
εγγυ	-11.875
▁положение	-11.8753
▁Trebuie	-11.8756
▁indvandring	-11.8759
▁immédiat	-11.8759
voorzitter	-11.8762
▁pierwsze	-11.8766
▁άνθρωποι	-11.8766
ληφθεί	-11.8769
▁zwłaszcza	-11.8769
▁προτεραιότητα	-11.8769
▁Vietnam	-11.8769
▁Sprache	-11.8774
▁līdzekļu	-11.8779
▁predovšetkým	-11.8779
▁produttori	-11.8779
▁dosažen	-11.8782
▁iedzīvotāji	-11.8785
▁Repubblica	-11.8792
▁polityczny	-11.8798
▁verschillen	-11.8799
▁souvislosti	-11.8802
▁система	-11.8815
▁pavyzd	-11.8818
▁einheitliche	-11.8818
Σ	-11.8818
Ā	-11.8821
▁retningslinjer	-11.8824
▁förebygga	-11.8828
точн	-11.8834
▁władz	-11.8837
▁competitividad	-11.8841
▁decât	-11.8844
▁διεθνή	-11.8847
▁właśnie	-11.885
▁elektronisk	-11.8852
▁Economic	-11.8854
▁valamennyi	-11.886
▁berücksichtigen	-11.887
▁Κοινότητα	-11.887
▁t.ex.	-11.887
approuve	-11.8872
▁kolēģ	-11.8873
▁määrus	-11.8873
▁σχέσεις	-11.8876
▁svarbiausi	-11.8877
▁apstiprinā	-11.8877
▁sõltu	-11.888
▁dziedzinie	-11.8883
▁mauvais	-11.8886
▁atbalstīt	-11.8893
▁erinnern	-11.8893
▁REACH	-11.8896
atverandering	-11.8899
▁hittills	-11.8903
Dienstleistungen	-11.8909
▁tekintetében	-11.8922
▁surveillance	-11.8929
▁Montenegro	-11.8932
▁główn	-11.8932
▁effizient	-11.8935
▁Helsinki	-11.8942
▁τουλάχιστον	-11.8942
▁tegelijkertijd	-11.8945
hænger	-11.8949
▁fejlődés	-11.8949
▁tuleviku	-11.8955
▁energetyczn	-11.8958
▁krijgt	-11.8958
▁convertir	-11.8959
▁directrices	-11.8962
▁Ratsvorsitz	-11.8965
▁znaczn	-11.8971
▁coinvolg	-11.8972
▁werkzaamheden	-11.8972
Mediterranean	-11.8978
▁zabezpečiť	-11.8978
působ	-11.899
▁Política	-11.8995
▁изисква	-11.8995
▁foranstaltning	-11.8997
▁κατηγορ	-11.9001
/1999	-11.9005
▁IND/DEM	-11.9005
▁gribētu	-11.9005
▁indépendant	-11.9005
▁används	-11.9005
zeichnung	-11.9008
▁paredzēt	-11.9015
▁основни	-11.9015
▁disoccupazione	-11.9018
▁живот	-11.9018
▁подкрепя	-11.9021
▁bepaald	-11.9024
▁applied	-11.9025
▁benadrukken	-11.9028
▁powinny	-11.9028
▁παρουσία	-11.9028
arbetstillfällen	-11.9035
▁Untersuchung	-11.9038
▁December	-11.9038
▁técnica	-11.9051
▁seisukoha	-11.9058
служ	-11.9058
▁społeczeństw	-11.9061
▁beschlossen	-11.9064
▁mezőgazdaság	-11.9071
▁contempla	-11.9071
▁Malmström	-11.9074
▁samozřejmě	-11.9074
▁congiunt	-11.9078
lovgivning	-11.9079
▁gemäß	-11.9081
▁neighbour	-11.9084
▁Milosevic	-11.9084
▁krajinách	-11.9084
ettevõtete	-11.9086
▁Konferenz	-11.9098
▁până	-11.9098
twicklungsländer	-11.91
▁друг	-11.9104
▁d'ailleurs	-11.9105
▁betrakta	-11.9105
▁αντιμετώπιση	-11.9111
ológica	-11.9115
▁γνωρίζουμε	-11.9125
▁aggiunt	-11.9125
▁сътрудничество	-11.9126
▁Brüssel	-11.9128
▁Seguridad	-11.9131
▁effettivamente	-11.9138
▁ukrepe	-11.9138
▁καλύτερη	-11.9151
▁poročilu	-11.9151
regolamentazione	-11.9155
▁reikalavim	-11.9159
▁¿Qué	-11.9165
▁demuestra	-11.9165
würdig	-11.9165
Х	-11.9168
▁vnitrostátní	-11.9172
▁Zunächst	-11.9175
accueil	-11.9184
▁ausreichend	-11.9185
▁budúcnosti	-11.9185
▁citoyen	-11.9191
▁iepriekš	-11.9195
▁βρίσκονται	-11.9195
▁Haltung	-11.9195
▁Cypern	-11.9199
▁almindelig	-11.9202
prinzip	-11.9203
▁Afganistan	-11.9205
κίνησ	-11.9205
▁fornuftig	-11.9222
▁gyakorlat	-11.9226
▁décembre	-11.9232
▁enskilda	-11.9236
ontwerpresolutie	-11.9243
▁lauksaimniecība	-11.9246
▁tasandil	-11.9246
▁Resulta	-11.9246
▁kõrge	-11.9249
▁προγράμματος	-11.9256
ouvrir	-11.9257
▁Kriterien	-11.926
byggnad	-11.926
▁polityczne	-11.9263
▁Gesetzgebung	-11.9266
▁français	-11.9277
▁arbetstagare	-11.928
▁принцип	-11.928
'Assemblea	-11.9283
▁Anerkennung	-11.9283
▁tugevda	-11.9287
▁onafhankelijk	-11.9293
▁palestini	-11.9294
▁Συνεπώς	-11.9294
▁diejenigen	-11.9294
ológico	-11.9297
▁coördinatie	-11.9297
▁imperialist	-11.9297
▁konsekvent	-11.9297
▁meghatároz	-11.9297
▁unemployment	-11.9297
▁agricultores	-11.93
▁tjenesteydelser	-11.93
▁dell'uomo	-11.9304
▁κανένα	-11.9307
▁резолюция	-11.9311
▁Saddam	-11.9321
entraîne	-11.9321
▁l’homme	-11.9331
választás	-11.9334
▁pequeño	-11.9335
▁giustifica	-11.9338
▁samozrejme	-11.9338
▁tilfreds	-11.9341
▁förbättring	-11.9341
▁sacrifi	-11.9345
▁reģionā	-11.9348
▁bizonyos	-11.9352
▁selvfølgelig	-11.9352
▁ερώτηση	-11.9352
▁συγκεκριμένη	-11.9352
▁osservazioni	-11.9355
▁gebeuren	-11.9362
▁Bolkestein	-11.9365
▁nemôže	-11.9365
▁coincid	-11.9365
▁megerősít	-11.9369
▁zarówno	-11.9372
▁kollektiv	-11.9376
▁είχαν	-11.9379
▁σχετικ	-11.9394
▁πλειοψηφία	-11.9407
▁betydande	-11.9414
▁prostřednictvím	-11.9414
▁felelősség	-11.9417
▁thème	-11.9417
influenza	-11.9421
▁Ukrajin	-11.9424
▁tráfico	-11.9424
▁făcut	-11.9427
▁erfarenhet	-11.9431
▁colaboración	-11.9431
fhængig	-11.9434
▁Frankrig	-11.9438
▁kodaniku	-11.9438
▁tähendab	-11.9438
▁δημόσια	-11.9445
▁καθήκον	-11.9445
▁väike	-11.9445
▁zobowiąz	-11.9452
▁dicembre	-11.9452
▁Kenntnis	-11.9455
▁lesquelles	-11.9462
▁nedrīkst	-11.9465
▁pozměňovací	-11.9469
▁ponovno	-11.9472
▁höchst	-11.9476
▁obligatorisk	-11.9479
▁ulovlig	-11.948
▁l'application	-11.9483
rettigheder	-11.9483
▁entwickeln	-11.949
▁considéré	-11.9497
▁Ηνωμέν	-11.9511
▁επιχειρήσεων	-11.9511
▁Ferrero-Waldner	-11.9514
▁Egyesül	-11.9518
Gemeinsamen	-11.9521
▁zumindest	-11.9521
▁Furthermore	-11.9528
▁sveikatos	-11.9528
▁podmínk	-11.9531
▁fácil	-11.9532
▁ulteriori	-11.9542
(COD))	-11.9545
▁atžvilgiu	-11.9545
▁cohesie	-11.9549
▁αλληλεγγύη	-11.9552
▁finančni	-11.9552
У	-11.9559
▁diciembre	-11.9559
▁ένταξη	-11.9563
▁législative	-11.9566
▁inbegrip	-11.9566
▁ragioni	-11.958
▁стратегия	-11.958
▁noteikumi	-11.9581
▁guidelines	-11.9584
▁είδους	-11.9584
▁položaj	-11.9584
▁l'adoption	-11.9587
▁növekedés	-11.9591
▁европейска	-11.9591
▁unacceptable	-11.9595
▁Трябва	-11.9595
▁expliqu	-11.9595
Geschäftsordnung	-11.9605
lamentsmedlemmer	-11.9605
▁délégation	-11.9605
▁ettevõt	-11.9611
konferenz	-11.9612
▁Corbett	-11.9612
▁μεγαλύτερο	-11.9612
▁d'État	-11.9616
[...]
