<s>	0
</s>	0
<unk>	0
<pad>	0
,	-3.21574
.	-3.72791
▁de	-4.03965
s	-4.67652
▁a	-4.82165
▁la	-4.85214
▁en	-4.94827
▁in	-5.05856
▁the	-5.2494
e	-5.25373
▁	-5.25949
▁i	-5.37864
▁que	-5.50557
a	-5.64453
▁die	-5.69588
▁to	-5.70387
▁der	-5.74432
▁van	-5.77456
i	-5.80271
▁di	-5.80606
▁un	-5.82274
▁-	-5.85373
▁of	-5.85637
▁et	-5.87508
▁at	-5.95086
en	-5.95702
▁le	-5.97146
t	-5.97251
▁att	-5.98614
▁is	-6.02718
▁for	-6.04162
▁den	-6.07907
▁som	-6.09947
▁het	-6.10717
▁and	-6.14171
▁er	-6.16083
▁e	-6.16155
▁se	-6.16337
▁det	-6.1646
▁om	-6.16549
n	-6.17203
▁og	-6.1765
▁y	-6.19667
▁des	-6.21542
▁el	-6.21545
▁och	-6.23229
▁und	-6.23938
▁del	-6.30611
o	-6.3546
▁che	-6.35623
▁les	-6.43615
▁à	-6.45835
▁v	-6.48131
▁los	-6.48598
▁να	-6.49933
▁på	-6.50367
▁και	-6.50785
▁af	-6.51268
u	-6.5135
▁il	-6.54598
▁na	-6.55314
▁een	-6.56221
▁med	-6.56598
▁har	-6.56889
r	-6.57149
▁dat	-6.58358
▁on	-6.58429
▁för	-6.58737
▁vi	-6.58909
▁je	-6.60628
▁o	-6.63027
▁that	-6.66105
▁te	-6.67946
▁una	-6.6806
:	-6.68549
▁I	-6.68691
▁ir	-6.70917
▁til	-6.73597
▁es	-6.74727
▁per	-6.75066
▁av	-6.7517
m	-6.75579
▁της	-6.78016
er	-6.79369
▁con	-6.8172
▁al	-6.83847
▁ne	-6.86096
▁är	-6.86813
▁την	-6.87455
▁be	-6.87588
▁we	-6.88776
▁op	-6.91589
▁las	-6.9335
▁zu	-6.94811
▁no	-6.96051
?	-6.97584
▁на	-6.9922
▁da	-7.01467
▁voor	-7.03093
▁du	-7.03596
-	-7.03997
d	-7.04096
▁si	-7.06789
▁το	-7.11404
▁z	-7.12086
▁ha	-7.12895
▁kan	-7.13489
▁till	-7.1764
▁για	-7.17979
▁s	-7.18059
▁par	-7.18693
▁za	-7.18816
y	-7.19434
▁è	-7.19458
▁w	-7.19959
▁De	-7.22016
▁Det	-7.2328
▁do	-7.23568
▁non	-7.23866
▁η	-7.23872
ς	-7.24958
▁qui	-7.25566
▁των	-7.2602
▁dans	-7.26236
▁von	-7.26769
▁para	-7.27263
▁nous	-7.27501
▁pour	-7.27596
▁della	-7.2769
es	-7.28263
▁του	-7.2857
▁by	-7.2885
▁für	-7.28938
▁su	-7.29086
▁az	-7.2951
▁met	-7.31082
▁ce	-7.31251
▁por	-7.31973
▁ikke	-7.32345
▁this	-7.33
▁ja	-7.33058
▁που	-7.35475
▁over	-7.36386
▁La	-7.36891
▁inte	-7.37819
▁EU	-7.37859
▁Europa	-7.38282
de	-7.38672
;	-7.38912
▁an	-7.39021
te	-7.40847
▁have	-7.411
▁pas	-7.42371
▁une	-7.42778
▁zijn	-7.43394
▁és	-7.43813
▁že	-7.44934
▁est	-7.45294
▁au	-7.4576
▁are	-7.47426
▁sa	-7.49839
▁niet	-7.50196
▁das	-7.50365
▁A	-7.51445
▁με	-7.51516
▁dass	-7.51697
▁wir	-7.52359
▁sur	-7.52711
re	-7.53086
▁nicht	-7.53138
▁aan	-7.53374
▁auf	-7.53695
▁lo	-7.54365
▁alle	-7.5506
▁In	-7.55149
▁not	-7.5605
▁"	-7.56128
▁ett	-7.56574
▁als	-7.57067
▁θα	-7.5756
▁ist	-7.58102
▁it	-7.5876
as	-7.58833
▁so	-7.58999
ne	-7.60217
▁vil	-7.60341
▁Vi	-7.60929
▁ότι	-7.61171
l	-7.61751
▁είναι	-7.61928
le	-7.62476
▁eine	-7.63089
▁и	-7.63346
▁да	-7.6382
▁în	-7.65817
▁im	-7.65905
▁ich	-7.66848
▁dem	-7.67145
▁nu	-7.67171
▁alla	-7.67317
▁with	-7.67396
▁men	-7.67893
▁European	-7.67985
▁mit	-7.69872
▁este	-7.70034
▁man	-7.70255
▁which	-7.7059
▁as	-7.70902
▁hogy	-7.71
▁ik	-7.72377
s.	-7.72651
▁από	-7.72693
▁En	-7.74003
▁τη	-7.75263
▁worden	-7.75936
▁dit	-7.76208
▁σε	-7.76279
é	-7.77159
▁Commission	-7.77249
▁dei	-7.77604
▁jeg	-7.78079
▁ka	-7.782
ch	-7.78425
▁за	-7.79667
et	-7.79952
▁ma	-7.81053
▁will	-7.81164
▁τα	-7.82517
▁The	-7.8256
ing	-7.82654
▁me	-7.82905
ta	-7.87191
▁ook	-7.87295
▁jag	-7.87859
ti	-7.88064
▁auch	-7.89104
▁τις	-7.8932
▁ki	-7.89455
)	-7.90424
▁k	-7.90536
▁Jag	-7.90668
na	-7.90823
▁Je	-7.9123
▁u	-7.91318
to	-7.91555
▁plus	-7.92266
▁ein	-7.93313
▁l'	-7.9356
▁στην	-7.93875
▁delle	-7.94317
▁Parlamento	-7.94382
▁(	-7.94651
▁Il	-7.94773
▁Herr	-7.94866
▁så	-7.95369
▁kad	-7.9582
▁Jeg	-7.96217
▁skal	-7.96335
▁was	-7.9704
▁We	-7.97504
no	-7.97563
▁sig	-7.97682
▁Parlement	-7.98514
os	-7.98749
▁has	-7.99058
▁Union	-7.99073
▁в	-7.99327
st	-7.99531
▁Ik	-7.99745
▁deze	-8.00503
▁–	-8.00746
▁más	-8.00777
▁Europese	-8.01182
▁Es	-8.023
▁sobre	-8.02806
▁δεν	-8.03352
▁kommer	-8.03957
em	-8.04124
▁heeft	-8.04422
▁hebben	-8.05202
▁sono	-8.05293
▁po	-8.05447
k	-8.06656
▁sich	-8.06788
ą	-8.06908
▁Die	-8.07986
▁Ich	-8.08465
á	-8.08806
▁Presidente,	-8.09119
▁moeten	-8.10246
▁să	-8.10485
ej	-8.10513
▁como	-8.11448
▁οι	-8.11525
▁all	-8.12308
▁ar	-8.12431
▁var	-8.12646
▁wij	-8.1321
▁Mr	-8.13839
▁Commissie	-8.13915
▁Het	-8.1454
se	-8.15359
▁også	-8.15448
ho	-8.15959
▁eller	-8.16271
ga	-8.16491
▁fra	-8.16547
▁detta	-8.16623
om	-8.16676
▁um	-8.17542
mi	-8.17595
▁questo	-8.18655
▁şi	-8.18896
▁pro	-8.1899
▁mi	-8.19087
▁also	-8.19495
▁Europäische	-8.20664
▁under	-8.21495
▁nel	-8.2159
▁tot	-8.21613
▁от	-8.21744
▁nie	-8.21748
▁cette	-8.21757
ă	-8.21992
▁più	-8.22117
▁Comisión	-8.22272
▁aux	-8.22346
▁Parlament	-8.22494
z	-8.22802
▁måste	-8.23197
▁τους	-8.23303
▁gli	-8.23385
"	-8.23653
ar	-8.23921
b	-8.24721
li	-8.24855
ed	-8.25263
▁Le	-8.2545
▁Kommission	-8.25498
ni	-8.25816
an	-8.25846
▁τον	-8.25934
▁über	-8.25977
▁maar	-8.26425
da	-8.2684
▁ge	-8.26972
▁wie	-8.27335
▁πρέπει	-8.27396
▁door	-8.27536
!	-8.27845
▁come	-8.28001
▁aby	-8.29137
▁werden	-8.2934
▁han	-8.30346
▁się	-8.30518
▁would	-8.30915
▁od	-8.31228
▁sont	-8.31691
ra	-8.32753
▁V	-8.32984
▁S	-8.32988
í	-8.33187
me	-8.33415
e,	-8.33704
▁d'un	-8.34264
us	-8.34698
▁entre	-8.34798
▁στο	-8.3526
▁sie	-8.35509
▁pre	-8.35551
▁се	-8.35607
▁son	-8.35856
ų	-8.36063
▁should	-8.36556
▁%	-8.36591
▁wordt	-8.37006
▁denne	-8.37512
▁anche	-8.37703
▁ni	-8.37942
▁że	-8.38207
▁europea	-8.3846
▁Den	-8.38521
▁daß	-8.38895
h	-8.39224
▁kunnen	-8.39715
ie	-8.40496
▁parte	-8.41315
▁from	-8.41324
▁esta	-8.41333
la	-8.4212
▁avec	-8.42424
▁dette	-8.42979
▁but	-8.43001
▁från	-8.43586
▁zur	-8.43663
▁our	-8.44033
▁Euroopa	-8.44519
▁must	-8.44672
▁sin	-8.45154
▁moet	-8.45602
▁bi	-8.45732
▁am	-8.45775
▁Commissione	-8.45867
▁ont	-8.46095
▁skulle	-8.46571
▁care	-8.46614
j	-8.47079
ou	-8.47903
▁Nous	-8.48271
▁Kommissionen	-8.48679
▁ved	-8.48686
▁е	-8.49021
v	-8.49858
▁bei	-8.49924
e.	-8.50263
▁bij	-8.50368
▁d'	-8.50369
▁vor	-8.50372
i,	-8.50437
en.	-8.50501
▁være	-8.50509
▁pa	-8.51436
▁mais	-8.51609
▁ad	-8.5162
▁kas	-8.51808
▁El	-8.51843
▁también	-8.51892
▁nos	-8.51953
▁Unión	-8.52328
▁Wir	-8.52977
▁dan	-8.53224
c	-8.53488
▁μια	-8.53496
▁ver	-8.53548
ja	-8.53589
▁vill	-8.53655
ul	-8.54401
▁been	-8.54459
▁mis	-8.54762
▁Monsieur	-8.55093
▁rapport	-8.55288
▁einer	-8.55486
▁être	-8.55649
▁ces	-8.55867
▁pentru	-8.5589
nt	-8.56318
▁Der	-8.56368
▁essere	-8.56792
▁importante	-8.58511
ν	-8.5858
▁Sie	-8.58657
▁diese	-8.58742
▁uit	-8.59117
▁pays	-8.59175
ma	-8.59244
α	-8.59301
▁can	-8.59338
▁sind	-8.60358
at	-8.60472
▁också	-8.60497
▁important	-8.606
ci	-8.6089
▁or	-8.61702
▁ο	-8.61793
▁αυτό	-8.61869
▁ser	-8.61926
▁Eiropas	-8.62125
▁hier	-8.62158
▁zal	-8.62692
▁nem	-8.62934
▁și	-8.63067
▁It	-8.63533
▁ta	-8.63551
▁été	-8.64045
▁ale	-8.64078
▁Europos	-8.64118
▁ei	-8.64154
▁européenne	-8.64249
▁haben	-8.65185
a,	-8.65192
▁cui	-8.65361
▁nog	-8.65375
▁Stati	-8.6545
ly	-8.6565
al	-8.65859
▁că	-8.65876
▁Unie	-8.65951
▁с	-8.66001
▁Estados	-8.66312
ά	-8.66565
▁more	-8.66755
▁President,	-8.67728
▁social	-8.67903
▁jest	-8.67921
▁wird	-8.68041
▁hat	-8.68271
is	-8.68345
▁Voorzitter,	-8.68467
▁fait	-8.68982
do	-8.69054
▁че	-8.6951
▁Member	-8.69617
▁uz	-8.69689
▁einen	-8.69795
▁wil	-8.70228
▁you	-8.70291
lo	-8.70499
ή	-8.71082
▁bien	-8.71168
▁mycket	-8.72221
▁pri	-8.72462
▁dieser	-8.72804
▁re	-8.72872
it	-8.72922
▁cu	-8.72963
▁question	-8.73038
▁vous	-8.73225
▁vores	-8.73674
t.	-8.7371
en,	-8.73769
▁ci	-8.73887
▁ko	-8.74087
▁comme	-8.74152
▁denna	-8.74219
▁To	-8.74263
▁va	-8.74421
▁bo	-8.74561
▁sia	-8.74566
▁ze	-8.74616
▁möchte	-8.7482
▁aus	-8.749
▁qu'il	-8.75318
▁dal	-8.75683
▁Por	-8.76025
ek	-8.76106
▁co	-8.76152
▁onze	-8.76309
▁efter	-8.76327
▁ons	-8.76362
▁andere	-8.7637
▁E	-8.76398
▁degli	-8.76437
▁mig	-8.7649
▁zou	-8.76682
▁naar	-8.76722
▁politique	-8.76775
ών	-8.76888
▁kell	-8.76973
i.	-8.77166
▁meget	-8.77255
▁tra	-8.77257
▁euro	-8.77406
'	-8.77485
▁uns	-8.77916
ā	-8.77942
▁tout	-8.78082
ce	-8.78187
▁noch	-8.78308
▁questa	-8.78353
▁UE	-8.7839
▁μας	-8.78599
▁No	-8.78724
▁its	-8.78911
▁like	-8.78928
▁į	-8.79473
и	-8.79515
ai	-8.7962
▁their	-8.79869
▁få	-8.80055
▁modo	-8.80085
▁sociale	-8.8042
▁Hr.	-8.80449
ό	-8.80661
f	-8.80773
▁geen	-8.81042
▁sus	-8.81523
▁mai	-8.81587
in	-8.81674
та	-8.8179
t,	-8.8184
va	-8.81931
▁sein	-8.81968
on	-8.81976
▁there	-8.82089
▁Si	-8.8209
▁hun	-8.82203
▁när	-8.8227
▁États	-8.82801
▁l'Union	-8.82826
je	-8.82986
▁zich	-8.83049
▁vara	-8.83059
▁informe	-8.83357
▁min	-8.83421
▁ένα	-8.83442
▁situation	-8.83574
▁Bericht	-8.83803
▁very	-8.83981
▁Président,	-8.84062
▁στη	-8.8407
a.	-8.84098
▁meer	-8.84132
▁ning	-8.842
▁nella	-8.84326
mu	-8.84422
▁ou	-8.846
▁Conseil	-8.84725
▁également	-8.85409
▁pe	-8.85456
▁politica	-8.86131
т	-8.86505
▁по	-8.86547
▁nach	-8.86611
▁disse	-8.86623
▁Das	-8.86857
be	-8.87161
▁не	-8.87259
▁hr.	-8.87309
ó	-8.87312
ο	-8.87346
▁verslag	-8.8788
▁need	-8.8797
ndo	-8.88002
▁relazione	-8.88099
ές	-8.88217
ει	-8.88228
▁mot	-8.88335
▁Se	-8.88383
▁ai	-8.88392
▁(DE)	-8.88444
▁one	-8.8853
▁This	-8.88619
▁us	-8.88997
▁andra	-8.89424
а	-8.8947
▁Señor	-8.89489
▁Signor	-8.89756
▁tale	-8.89873
▁dėl	-8.89886
▁diesem	-8.89943
▁jo	-8.89956
▁europeo	-8.90048
ú	-8.90149
mo	-8.90262
ot	-8.90482
▁ten	-8.90502
▁Europeiska	-8.90577
▁paesi	-8.90774
▁nur	-8.9081
▁kommissionen	-8.90939
▁P	-8.91172
▁these	-8.91315
id	-8.91593
▁aussi	-8.91605
ant	-8.91982
▁quanto	-8.9221
▁faire	-8.92221
▁os	-8.92295
▁my	-8.92419
ov	-8.92635
ment	-8.92661
▁1	-8.92976
▁see	-8.93426
▁Europea	-8.93655
▁yra	-8.93676
▁report	-8.93784
▁Raad	-8.93957
▁gäller	-8.94087
▁wat	-8.94143
▁στις	-8.94302
▁(EN)	-8.9446
▁Men	-8.94476
el	-8.94578
▁dessa	-8.94681
▁müssen	-8.94869
▁aber	-8.95068
▁ob	-8.951
den	-8.95118
▁plan	-8.9513
▁they	-8.95178
ih	-8.95326
η	-8.95349
▁her	-8.95392
▁ES	-8.95438
▁point	-8.95686
▁base	-8.95781
▁durch	-8.95918
▁Mijnheer	-8.95969
ten	-8.95983
▁Er	-8.9602
”	-8.96355
▁gerne	-8.96561
▁zum	-8.96674
▁sulla	-8.96792
▁Europe	-8.96928
▁Consejo	-8.97172
▁meg	-8.9729
▁pero	-8.97363
▁wenn	-8.97478
jo	-8.97774
ge	-8.97866
▁budget	-8.98228
▁política	-8.98292
nie	-8.98342
▁zo	-8.98424
▁Parliament	-8.98444
▁arī	-8.98486
▁sehr	-8.98536
▁Consiglio	-8.9886
▁din	-8.98878
▁debate	-8.98951
▁oder	-8.99005
▁países	-8.99085
▁notre	-8.99119
▁M.	-8.99203
nde	-8.99625
▁formand,	-8.99639
ę	-8.99744
▁who	-9.00161
▁dar	-9.00332
▁land	-9.00591
▁ud	-9.0067
▁mod	-9.00743
ia	-9.00786
▁tanto	-9.01036
▁rapporteur	-9.01102
▁hvor	-9.01151
▁hanno	-9.01159
▁werden.	-9.01204
▁tutti	-9.01395
▁Council	-9.01441
▁about	-9.01475
▁W	-9.01489
▁må	-9.01694
▁K	-9.01835
▁ben	-9.01844
u,	-9.01885
mos	-9.01996
▁sul	-9.02323
▁έχει	-9.02553
▁jak	-9.02553
▁solo	-9.02653
mente	-9.02714
▁mere	-9.02768
▁Mitgliedstaaten	-9.02855
▁20	-9.03171
▁other	-9.03464
▁l’	-9.03553
▁Wij	-9.0367
▁dag	-9.03748
▁år	-9.03918
▁For	-9.0402
▁oss	-9.04031
▁leur	-9.04059
▁οποία	-9.04109
ych	-9.04313
▁what	-9.04474
▁membres	-9.04547
▁Europees	-9.04862
▁doit	-9.04911
▁muy	-9.05038
▁avons	-9.05183
то	-9.05264
▁Les	-9.05264
▁här	-9.05272
▁iz	-9.05506
▁loro	-9.06248
▁he	-9.06336
▁upp	-9.06506
▁mer	-9.0658
▁tai	-9.06647
▁ve	-9.06841
▁iš	-9.06876
▁även	-9.0705
▁tre	-9.07095
▁tous	-9.07254
▁000	-9.07541
▁Επιτροπή	-9.07594
▁membri	-9.07703
те	-9.08101
▁lidstaten	-9.08107
▁todos	-9.08412
ver	-9.08535
▁punto	-9.08682
▁Ma	-9.08684
ých	-9.08916
▁O	-9.09219
né	-9.09254
▁Πρόεδρε,	-9.09262
▁Na	-9.09289
im	-9.09318
▁ktoré	-9.09332
▁už	-9.09347
▁très	-9.09361
▁miembros	-9.09537
▁States	-9.09834
are	-9.09957
▁κατά	-9.10036
ve	-9.10083
▁deres	-9.10093
ego	-9.10212
▁veel	-9.103
▁αυτή	-9.10347
▁10	-9.105
▁part	-9.10609
▁Z	-9.10662
▁2	-9.10793
▁new	-9.10843
▁lai	-9.10886
▁todo	-9.10921
▁caso	-9.10994
▁está	-9.11134
▁up	-9.11162
▁même	-9.11283
nak	-9.11341
▁inom	-9.11545
▁finns	-9.11639
g	-9.11684
▁nei	-9.11786
▁αλλά	-9.11881
ý	-9.11885
▁end	-9.11909
am	-9.12086
il	-9.12573
▁pat	-9.12718
▁skall	-9.12724
▁ako	-9.12951
ες	-9.13063
ι	-9.13196
▁dire	-9.13467
si	-9.13495
▁only	-9.13495
▁européen	-9.13543
▁kā	-9.13605
ok	-9.13633
▁fin	-9.13771
▁mēs	-9.14134
ka	-9.14151
▁tegen	-9.14235
p	-9.14369
▁ter	-9.14374
's	-9.14784
▁problema	-9.14842
gi	-9.15117
▁landen	-9.15311
▁internationale	-9.15523
▁just	-9.15575
ks	-9.15614
▁Dat	-9.15733
▁helt	-9.15942
▁egy	-9.15949
▁sistema	-9.16
▁willen	-9.16057
▁πολύ	-9.16209
▁får	-9.16648
ba	-9.16703
▁zullen	-9.1674
▁(FR)	-9.16797
▁utan	-9.16989
▁Presidente	-9.17162
▁bør	-9.17235
▁ya	-9.17318
ons	-9.17386
▁einem	-9.17444
nek	-9.17452
▁sme	-9.17798
ts	-9.18163
▁mijn	-9.18337
▁μου	-9.18434
ste	-9.18537
▁Po	-9.18548
▁eftersom	-9.18668
ων	-9.1894
▁över	-9.19165
▁Frau	-9.19241
ami	-9.19463
▁because	-9.19579
▁contra	-9.196
▁göra	-9.19981
▁if	-9.20245
▁transport	-9.20271
ž	-9.20303
▁Per	-9.20503
▁molto	-9.20582
▁people	-9.20636
▁problem	-9.20714
▁support	-9.2094
▁tak	-9.21028
▁T	-9.21032
▁señor	-9.2116
ation	-9.21278
▁bör	-9.21289
▁heer	-9.21291
▁Az	-9.21362
▁bara	-9.21442
ουν	-9.21445
ě	-9.21549
▁bet	-9.21554
▁out	-9.21565
▁ist,	-9.21639
▁fatto	-9.2168
▁devons	-9.21869
▁genom	-9.21913
▁C	-9.21964
▁time	-9.22105
▁nationale	-9.22256
▁kui	-9.22291
ní	-9.22537
▁stato	-9.22539
▁επίσης	-9.2275
▁dieses	-9.22756
▁dalla	-9.22978
▁europæiske	-9.2306
▁proti	-9.23063
ega	-9.23983
▁κ.	-9.2407
vi	-9.24089
▁werden,	-9.24095
▁zij	-9.24102
▁echter	-9.2432
▁gøre	-9.24386
▁now	-9.24555
▁Parlamentet	-9.24918
▁nieuwe	-9.25075
▁blev	-9.25145
▁lugar	-9.25179
▁droits	-9.25315
▁forma	-9.25501
▁heb	-9.25597
▁niveau	-9.25823
▁Rat	-9.26087
о	-9.26156
▁vid	-9.2616
ent	-9.26223
▁alleen	-9.26425
▁3	-9.26488
▁které	-9.26563
▁ho	-9.26601
▁grund	-9.26645
or	-9.26682
▁5	-9.26841
▁ed	-9.26848
▁zoals	-9.2709
▁debe	-9.27091
▁stor	-9.27098
▁στον	-9.27113
▁mellem	-9.27193
▁Európai	-9.27469
▁mums	-9.27705
▁public	-9.27786
▁bude	-9.27922
▁materia	-9.2807
▁aj	-9.28135
ik	-9.28164
▁such	-9.28261
▁σχετικά	-9.28339
▁fram	-9.28388
▁15	-9.28712
▁diritti	-9.28763
go	-9.28804
ουμε	-9.28868
u.	-9.29422
▁mening	-9.29509
▁Rådet	-9.29528
▁take	-9.2953
▁mellan	-9.29539
▁countries	-9.29749
▁want	-9.29998
ban	-9.30072
▁kun	-9.30144
▁uno	-9.3036
ć	-9.30439
▁ska	-9.30576
▁vote	-9.30599
▁muss	-9.31265
▁tas	-9.31287
▁anser	-9.31317
▁ως	-9.31416
▁όπως	-9.31418
▁tudi	-9.31509
▁perché	-9.31621
▁G	-9.31639
nia	-9.31794
uje	-9.31852
▁contre	-9.31933
▁ut	-9.32022
▁make	-9.32101
▁abbiamo	-9.32104
ku	-9.32427
▁Me	-9.32519
▁това	-9.32556
▁(PL)	-9.32581
▁dell'	-9.32596
▁had	-9.32596
/	-9.32767
▁tussen	-9.32843
▁directive	-9.3292
▁andre	-9.32932
▁kot	-9.33034
▁hvis	-9.33099
ť	-9.33179
▁För	-9.33378
▁deve	-9.33381
▁mehr	-9.33387
▁onder	-9.33713
▁'	-9.33799
▁sector	-9.33813
▁far	-9.34167
▁ville	-9.3426
▁Be	-9.34395
▁Non	-9.34404
▁talman!	-9.34514
▁puede	-9.34548
o,	-9.34569
▁Ne	-9.34599
ās	-9.34614
▁ca	-9.34657
▁Un	-9.34755
▁ή	-9.3478
▁jaar	-9.3482
▁protection	-9.34861
▁Η	-9.35139
▁car	-9.35356
▁give	-9.35787
▁momento	-9.35793
▁Europeo	-9.35904
▁ще	-9.35926
▁στα	-9.3604
".	-9.3629
▁between	-9.36308
der	-9.36345
ter	-9.3658
▁kann	-9.36716
▁acuerdo	-9.36721
▁selle	-9.36858
▁particular	-9.36899
▁into	-9.36957
▁voudrais	-9.36993
▁støtte	-9.37141
lor	-9.37142
▁those	-9.37187
▁cela	-9.37316
▁αφορά	-9.37327
ε	-9.37437
▁proposta	-9.37565
▁där	-9.37567
▁H	-9.37582
er,	-9.37622
ού	-9.37695
▁Komisija	-9.37891
▁L'	-9.37966
des	-9.38084
▁hecho	-9.38093
▁respect	-9.38106
▁ihre	-9.38176
▁unsere	-9.38935
▁possible	-9.38989
erne	-9.39152
ad	-9.39159
▁pod	-9.39268
▁Κύριε	-9.39373
▁bliver	-9.3949
▁Detta	-9.39579
▁wel	-9.3969
▁Dit	-9.3995
▁αν	-9.40003
▁parlament	-9.40431
▁Präsident,	-9.40543
▁Om	-9.40645
▁B	-9.40702
▁grande	-9.40952
▁propuesta	-9.40957
▁derechos	-9.41073
▁moment	-9.41318
▁nombre	-9.41702
ung	-9.41771
▁donc	-9.4186
▁έχουν	-9.41884
ze	-9.41891
▁peut	-9.41951
▁proposition	-9.4208
▁information	-9.42264
ca	-9.42338
▁Το	-9.42372
▁fælles	-9.42444
▁punkt	-9.42453
▁EU-	-9.4259
▁D	-9.42638
▁hacer	-9.42678
▁dla	-9.42725
▁work	-9.42832
▁most	-9.42843
▁nye	-9.4292
▁fråga	-9.42994
▁fi	-9.43021
▁Fru	-9.4314
▁jako	-9.43161
▁being	-9.43244
▁dont	-9.43247
▁any	-9.43287
▁kunna	-9.43579
▁when	-9.43775
▁national	-9.4378
▁therefore	-9.43864
▁går	-9.44007
▁tiene	-9.44092
▁än	-9.44222
ω	-9.44242
▁forslag	-9.4431
▁sta	-9.44361
ig	-9.44458
▁mes	-9.44485
▁Mi	-9.4471
▁Som	-9.4472
▁debat	-9.44867
▁policy	-9.44928
▁derfor	-9.44952
▁omdat	-9.44985
▁kunne	-9.45009
▁cas	-9.45029
▁därför	-9.45094
▁vilket	-9.45128
▁waar	-9.45218
▁Europa.	-9.45286
▁prima	-9.45321
▁Ce	-9.45461
▁vad	-9.45777
▁mange	-9.45996
ни	-9.45998
▁C'est	-9.45999
▁προς	-9.46108
▁zwischen	-9.46152
▁porque	-9.462
▁Als	-9.46325
▁sans	-9.46371
▁forbindelse	-9.46445
▁EU's	-9.46486
▁international	-9.46665
lt	-9.46711
▁diesen	-9.46735
▁soit	-9.46972
▁lavoro	-9.47153
▁believe	-9.47208
▁unter	-9.47222
▁които	-9.47324
▁made	-9.47371
▁gran	-9.47396
▁inden	-9.47447
ri	-9.47485
▁instrument	-9.47518
▁crisis	-9.47532
▁nad	-9.4756
▁30	-9.47607
▁ήθελα	-9.47609
▁economic	-9.47624
▁haar	-9.47699
▁hay	-9.47909
▁Europæiske	-9.47926
▁europäischen	-9.48014
▁gaat	-9.48137
▁place	-9.48193
▁ancora	-9.48243
▁system	-9.48248
ais	-9.48291
▁dell'Unione	-9.48403
▁encore	-9.4858
м	-9.48598
▁allt	-9.48738
▁fel	-9.48875
▁sem	-9.49002
▁tym	-9.49289
▁však	-9.49359
▁regering	-9.49378
▁εν	-9.49427
▁europeiska	-9.4946
▁procent	-9.49504
▁oblasti	-9.49518
▁commission	-9.49573
▁political	-9.49636
▁sviluppo	-9.4971
▁F	-9.49721
▁blevet	-9.49761
▁25	-9.49828
▁position	-9.4983
val	-9.4992
▁due	-9.49934
▁L	-9.50077
▁når	-9.50146
▁può	-9.50308
ny	-9.5031
▁sú	-9.50345
▁hemos	-9.50636
▁wird.	-9.50682
▁Entwicklung	-9.50725
▁form	-9.50751
▁eines	-9.50768
▁«	-9.50782
▁4	-9.50891
erna	-9.50902
▁lahko	-9.50958
▁selv	-9.50962
▁mij	-9.50997
▁ind	-9.51
co	-9.51165
▁were	-9.51232
▁anderen	-9.51376
za	-9.51423
▁reform	-9.51435
▁medlemsstaterna	-9.51481
▁deux	-9.51497
vo	-9.51794
▁embargo	-9.51827
▁mio	-9.51914
▁nya	-9.51916
▁mon	-9.51922
▁трябва	-9.52032
▁So	-9.52056
▁eerste	-9.52117
▁faut	-9.52122
▁artikel	-9.52128
▁maken	-9.52132
▁than	-9.52156
на	-9.52268
▁keine	-9.52295
▁ainsi	-9.52646
▁kaip	-9.52723
▁basis	-9.52745
ů	-9.52866
iem	-9.52887
▁tal	-9.52892
ym	-9.52897
▁fru	-9.52934
ите	-9.53158
▁Parlaments	-9.53187
▁tror	-9.5321
▁noi	-9.53408
▁rådet	-9.53468
▁energi	-9.53504
er.	-9.53682
▁Frage	-9.537
▁våra	-9.53964
tu	-9.54001
▁hele	-9.54134
▁global	-9.54248
▁c'est	-9.54275
▁šo	-9.54295
▁damit	-9.54337
▁sua	-9.54352
ers	-9.54399
ki	-9.54432
vad	-9.54455
▁vez	-9.54723
▁goed	-9.54773
▁bez	-9.54787
▁blive	-9.54824
▁via	-9.54914
▁Man	-9.55019
▁nav	-9.55087
ele	-9.55294
▁habe	-9.55309
▁program	-9.5541
ens	-9.55425
▁taip	-9.55429
▁développement	-9.55432
▁като	-9.55514
ate	-9.5557
▁parlamentet	-9.55642
▁gegen	-9.55648
▁commissione	-9.55679
▁hensyn	-9.55709
▁war	-9.55712
ého	-9.55714
▁voorstel	-9.55893
▁27	-9.55945
▁EU.	-9.55957
▁tema	-9.5606
▁even	-9.56088
▁vy	-9.56479
▁fact	-9.56481
▁sécurité	-9.56499
zione	-9.5653
ju	-9.56558
▁zeer	-9.56751
▁(PT)	-9.56763
▁ses	-9.56833
▁già	-9.56864
▁mich	-9.5691
w	-9.57008
▁κράτη	-9.5713
▁programma	-9.57226
▁står	-9.57277
▁έκθεση	-9.57374
▁oraz	-9.5744
és	-9.57505
▁са	-9.57582
я	-9.57715
▁decir	-9.5774
▁Al	-9.57777
▁Da	-9.57779
▁sätt	-9.57782
▁esto	-9.57916
án	-9.5801
▁some	-9.58038
▁say	-9.58178
▁programme	-9.58219
ud	-9.58244
▁ga	-9.58246
▁vår	-9.58319
▁12	-9.58387
▁staat	-9.58416
š	-9.58458
▁suis	-9.58482
▁Európsk	-9.58482
▁ist.	-9.58644
▁sino	-9.58657
▁oma	-9.58663
▁európai	-9.58683
ro	-9.58761
▁dos	-9.58809
▁hvad	-9.58951
▁belang	-9.59038
▁human	-9.59181
▁które	-9.59477
▁against	-9.59519
▁marché	-9.59598
).	-9.59641
▁way	-9.59737
▁many	-9.59817
▁general	-9.59896
▁EUR	-9.5998
▁tutto	-9.60062
▁concerne	-9.60224
▁(IT)	-9.60292
ów	-9.6032
▁matière	-9.60377
▁tem	-9.60406
▁altri	-9.60441
▁seda	-9.6052
▁mesures	-9.60654
▁M	-9.60817
▁jedoch	-9.60872
▁pense	-9.60917
▁situación	-9.60962
▁d’	-9.60982
▁haben,	-9.60991
▁Θα	-9.61126
ning	-9.61157
▁tik	-9.6126
▁Sr.	-9.61289
▁wird,	-9.61318
▁sondern	-9.61332
▁sige	-9.61366
▁medlemsstaterne	-9.61405
▁tu	-9.61428
▁medidas	-9.61433
▁questione	-9.61437
▁fare	-9.61458
▁nogle	-9.615
▁2009	-9.61508
▁estos	-9.6168
▁musí	-9.61758
▁n'est	-9.61792
▁desarrollo	-9.61858
▁situazione	-9.62087
▁mercato	-9.62187
▁būti	-9.62344
),	-9.62349
▁εκ	-9.6237
▁förslag	-9.62448
sse	-9.62505
▁politik	-9.62669
di	-9.62754
▁vai	-9.62758
▁dobbiamo	-9.62888
▁first	-9.62942
▁U	-9.63163
▁primer	-9.63177
▁50	-9.63273
▁Herrn	-9.63448
▁cuestión	-9.63597
▁første	-9.63599
▁sicurezza	-9.63644
▁travail	-9.63763
▁dann	-9.63809
o.	-9.63854
▁stellen	-9.63937
▁livello	-9.63945
▁roku	-9.63953
▁μόνο	-9.64253
н	-9.64254
▁Maßnahmen	-9.64341
▁Ευρωπαϊκή	-9.64417
▁h	-9.64453
▁första	-9.64464
▁jsou	-9.64475
▁contro	-9.64561
▁acest	-9.64594
▁On	-9.64605
▁seguridad	-9.64633
▁futuro	-9.64635
▁przez	-9.64661
▁trebuie	-9.64852
ligt	-9.64919
▁vom	-9.64988
▁cittadini	-9.6517
▁μπορεί	-9.65185
ei	-9.65289
▁μεταξύ	-9.65652
εί	-9.65756
▁sikre	-9.65823
▁nuestra	-9.65966
▁azt	-9.65986
▁state	-9.6599
▁steun	-9.66005
▁As	-9.66035
▁era	-9.66038
▁nostro	-9.6609
▁leurs	-9.6615
▁μία	-9.66173
▁mensen	-9.66193
▁åtgärder	-9.66307
▁hur	-9.66383
▁många	-9.66482
▁tā	-9.66505
▁groupe	-9.66584
▁heute	-9.66673
nes	-9.66729
▁sido	-9.66754
▁Sin	-9.66769
▁think	-9.66808
▁same	-9.66926
ado	-9.67017
▁οποίο	-9.67035
▁That	-9.67048
▁favore	-9.67056
ir	-9.67084
▁grote	-9.67163
▁settore	-9.67195
▁EU:s	-9.67284
▁Con	-9.67304
▁duidelijk	-9.67343
es,	-9.67347
▁afin	-9.67399
▁fordi	-9.67607
▁werk	-9.67919
▁nes	-9.67969
▁cuando	-9.67999
▁doivent	-9.68024
▁2000	-9.68138
▁proposal	-9.68186
▁aantal	-9.68204
▁vigtigt	-9.68216
ati	-9.68238
▁gebied	-9.68247
▁mercado	-9.6831
υ	-9.68401
▁sowie	-9.68437
▁gruppo	-9.68539
ben	-9.68568
▁Committee	-9.68669
ade	-9.68671
▁questi	-9.68739
▁así	-9.68852
▁cet	-9.68909
sta	-9.68934
▁fine	-9.6894
x	-9.68998
▁ontwikkeling	-9.69001
▁E'	-9.69019
▁mir	-9.69068
▁både	-9.69077
▁tego	-9.69234
▁order	-9.69271
bi	-9.69464
▁están	-9.69528
▁6	-9.69599
▁droit	-9.69601
▁säga	-9.69608
▁questions	-9.69663
▁ønsker	-9.69869
▁sommes	-9.69893
▁ciudadanos	-9.69923
▁rights	-9.69946
ke	-9.69946
ής	-9.69992
▁déjà	-9.70015
▁durante	-9.70019
▁elle	-9.70237
▁unionen	-9.70344
▁Evropské	-9.70346
▁ahora	-9.70423
▁cadre	-9.70647
ción	-9.70677
▁Европейския	-9.70687
▁manière	-9.70759
▁uden	-9.70806
▁tej	-9.70904
▁klart	-9.70976
▁Επιτροπής	-9.71048
▁vista	-9.71059
▁où	-9.7111
▁können	-9.71121
▁principio	-9.71167
▁särskilt	-9.7126
▁samt	-9.71319
▁Menschen	-9.71371
zi	-9.71404
▁πολιτική	-9.7153
ului	-9.71602
▁name	-9.71676
sch	-9.71688
▁ændringsforslag	-9.71818
▁2008	-9.71823
ación	-9.71896
▁President	-9.72183
▁R	-9.72185
▁respecto	-9.72236
ach	-9.72275
▁quindi	-9.72406
▁būtų	-9.72416
▁ciò	-9.72494
▁været	-9.72548
▁kar	-9.72618
▁Bizottság	-9.72712
▁ab	-9.72726
▁economische	-9.72812
▁suo	-9.72824
▁personas	-9.73001
est	-9.73012
▁ήταν	-9.73153
tud	-9.7323
▁Nu	-9.73283
▁bereits	-9.73485
ere	-9.73497
▁något	-9.7365
▁trabajo	-9.73665
▁Med	-9.73705
▁sera	-9.73732
▁conditions	-9.73743
▁citoyens	-9.73755
▁two	-9.73907
▁services	-9.73938
▁nostra	-9.74098
▁turi	-9.74121
▁politieke	-9.7419
▁ΕΕ	-9.74249
▁2010	-9.74349
▁viktigt	-9.74352
▁tant	-9.74362
▁sunt	-9.74444
ut	-9.74524
ko	-9.74533
▁są	-9.74623
▁σας	-9.74695
▁Madame	-9.74814
▁Dem	-9.74828
nih	-9.74842
▁bin	-9.74939
▁amely	-9.75006
▁ez	-9.75144
▁heel	-9.75213
▁senza	-9.75215
▁vilja	-9.75278
▁maatregelen	-9.75368
▁right	-9.75448
▁immer	-9.75484
▁control	-9.75597
▁Recht	-9.75619
▁gjort	-9.75629
▁ingen	-9.75632
▁ny	-9.75768
▁zeggen	-9.7579
▁noget	-9.75852
▁parti	-9.75984
ili	-9.75996
▁europea.	-9.76058
es.	-9.76062
▁pani	-9.76532
▁zijn.	-9.76579
▁cannot	-9.76594
▁legal	-9.76639
▁jau	-9.76802
▁tratta	-9.76834
▁beleid	-9.76895
▁twee	-9.76927
▁savo	-9.7705
▁μέλη	-9.77139
▁belangrijk	-9.77349
ando	-9.77493
▁tiempo	-9.77535
▁pred	-9.77542
▁stata	-9.776
▁Kommissionens	-9.7776
men	-9.7777
▁2007	-9.77879
ali	-9.77971
▁še	-9.78031
▁stöd	-9.78099
▁8	-9.78144
▁burgers	-9.78171
▁Los	-9.78344
▁Za	-9.78392
nud	-9.78517
ande	-9.78576
ur	-9.78596
▁débat	-9.78612
▁mayor	-9.78622
▁Parlamentu	-9.78702
▁sina	-9.78745
",	-9.78814
▁gang	-9.78817
▁ändringsförslag	-9.78825
▁politiques	-9.7889
pa	-9.78908
▁development	-9.7893
▁bli	-9.79038
▁tempo	-9.79222
▁otros	-9.79347
▁mismo	-9.79378
▁quale	-9.79404
▁desde	-9.79419
▁čo	-9.79464
▁tako	-9.79472
▁χώρες	-9.79484
▁ekonomiska	-9.7951
▁daar	-9.79512
▁mest	-9.79543
▁weil	-9.79602
he	-9.79646
gen	-9.79648
▁ello	-9.79728
▁does	-9.79798
▁gå	-9.79838
▁În	-9.79846
▁mål	-9.79874
lig	-9.79894
▁partner	-9.79909
▁future	-9.79939
▁sea	-9.79946
▁measures	-9.80031
▁gaan	-9.80236
▁allerede	-9.80354
my	-9.80354
del	-9.80383
▁real	-9.80423
▁meine	-9.80444
▁See	-9.80468
▁19	-9.8048
▁ali	-9.80502
▁medlemsstater	-9.80552
▁trata	-9.80644
▁Lo	-9.80647
▁last	-9.80732
▁pie	-9.80847
αν	-9.8088
▁vraag	-9.80906
▁2020	-9.80953
ak	-9.80964
▁klar	-9.80968
▁ole	-9.80982
enie	-9.81065
▁buvo	-9.8111
▁politisk	-9.81122
▁favor	-9.81207
▁Κοινοβούλιο	-9.8125
▁redan	-9.81294
▁Συμβούλιο	-9.81305
ούν	-9.81319
▁meie	-9.81355
▁économique	-9.81404
▁issue	-9.81579
▁Οι	-9.81853
▁darauf	-9.81853
ná	-9.81869
▁pán	-9.81877
▁vo	-9.8188
▁apie	-9.81882
▁USA	-9.82065
▁tam	-9.8208
▁particolare	-9.82081
▁labai	-9.82094
▁sind,	-9.82166
▁7	-9.82203
▁could	-9.82226
▁direttiva	-9.82236
▁Ver	-9.82242
▁d’un	-9.82273
▁good	-9.82274
▁18	-9.82316
▁said	-9.82316
▁Evropsk	-9.82349
mine	-9.82374
▁quali	-9.82589
▁до	-9.826
▁Αυτό	-9.82702
▁nuestro	-9.82756
▁Europa,	-9.82758
▁mevrouw	-9.82982
y,	-9.83011
▁Diese	-9.83017
▁proces	-9.83018
▁11	-9.83049
▁sagen	-9.83073
▁diritto	-9.83142
▁riguarda	-9.83144
▁clear	-9.8315
▁Daarom	-9.83281
▁fa	-9.83282
▁Vorschlag	-9.83283
vis	-9.83329
▁li	-9.8339
▁toe	-9.83442
▁endnu	-9.83442
▁ri	-9.83457
ен	-9.83556
▁positive	-9.83626
▁plaats	-9.83629
▁být	-9.83784
ait	-9.83808
▁così	-9.83927
▁arbejde	-9.83972
▁Arbeit	-9.84046
▁civil	-9.84182
▁sollte	-9.84185
iamo	-9.84263
▁anni	-9.84434
▁An	-9.84483
▁unserer	-9.84484
▁této	-9.8458
▁alt	-9.8462
▁Europas	-9.84638
▁olyan	-9.84789
▁set	-9.84795
ām	-9.84846
▁financial	-9.84896
▁debemos	-9.84948
▁dé	-9.85029
▁Ha	-9.85048
▁already	-9.85063
▁much	-9.8511
▁fundamental	-9.85295
▁ganz	-9.8531
ου	-9.85352
▁gibt	-9.85428
▁sådan	-9.85435
▁personnes	-9.85453
”.	-9.85453
▁wurde	-9.85455
▁certain	-9.85524
ją	-9.85738
▁final	-9.85739
▁recht	-9.85847
▁dafür	-9.85863
▁agli	-9.85878
▁mennesker	-9.85881
▁nelle	-9.85921
▁allen	-9.85961
▁dus	-9.86008
▁still	-9.86026
ska	-9.86054
▁rispetto	-9.86109
▁taken	-9.86139
ven	-9.86164
▁them	-9.86214
▁tener	-9.86217
▁sui	-9.86239
▁mine	-9.86297
▁økonomiske	-9.86345
▁problemen	-9.86427
▁where	-9.86431
▁Bürger	-9.86461
sten	-9.86509
▁frågor	-9.8661
▁40	-9.86669
▁damer	-9.86707
▁väga	-9.86712
bo	-9.86822
▁Ευρωπαϊκής	-9.86861
▁naj	-9.86904
▁país	-9.8692
▁sarà	-9.86928
▁tenemos	-9.86943
▁mogelijk	-9.8709
▁zorgen	-9.87114
nej	-9.87133
но	-9.87137
▁tejto	-9.87166
op	-9.87182
▁také	-9.87214
▁mūsu	-9.87227
▁long	-9.87228
▁use	-9.87262
▁vorrei	-9.8731
▁denn	-9.87443
azione	-9.87452
▁formand!	-9.87468
▁resolution	-9.87552
▁discussione	-9.87581
▁tid	-9.87603
▁face	-9.87905
▁betreft	-9.87967
▁mida	-9.88097
▁Re	-9.88153
▁estas	-9.88154
▁N	-9.88207
▁hij	-9.88241
▁ap	-9.88248
▁καθώς	-9.88284
sti	-9.88364
▁jetzt	-9.8855
▁lors	-9.88568
▁politiska	-9.88637
▁situatie	-9.88717
▁within	-9.88872
▁spørgsmål	-9.88933
▁hat,	-9.88935
▁några	-9.89039
▁smo	-9.89119
▁membre	-9.89122
▁På	-9.89193
▁sind.	-9.89209
ist	-9.89223
▁misure	-9.89274
▁un'	-9.89291
▁Δε	-9.89295
▁Euro	-9.89332
▁hope	-9.89452
▁mindre	-9.89483
▁sólo	-9.89563
▁tiek	-9.89581
▁nivel	-9.89701
▁zouden	-9.89715
»	-9.89771
▁procedure	-9.89814
▁tipo	-9.89878
▁eens	-9.89917
▁stand	-9.89947
▁well	-9.89954
▁toho	-9.90035
▁länder	-9.90076
▁alcuni	-9.90092
▁Lissabon	-9.9016
▁belangrijke	-9.90217
ných	-9.90367
▁samenwerking	-9.90417
ger	-9.90457
▁devono	-9.90559
▁vue	-9.90577
▁politiske	-9.90675
▁två	-9.90713
▁tento	-9.90726
▁musíme	-9.90728
▁εξ	-9.90729
▁d	-9.90776
▁dazu	-9.90784
▁dies	-9.90937
▁(ES)	-9.90947
▁how	-9.91001
ità	-9.91053
▁processo	-9.9107
▁existe	-9.91106
▁siano	-9.91193
▁fois	-9.91195
▁sulle	-9.912
▁bus	-9.91292
▁má	-9.91322
imo	-9.91329
▁jih	-9.91358
ige	-9.91431
▁Wenn	-9.91442
▁action	-9.91516
▁nodig	-9.91517
▁jsem	-9.91554
▁või	-9.91576
▁comune	-9.91582
iti	-9.91593
▁At	-9.91635
▁toute	-9.91663
▁πιο	-9.91683
enia	-9.91736
▁here	-9.91741
▁onorevoli	-9.91807
land	-9.91872
č	-9.91902
▁sollten	-9.91967
ende	-9.91999
▁view	-9.92031
das	-9.92159
▁common	-9.92184
tes	-9.92338
▁Kosovo	-9.9235
▁Dans	-9.92423
ým	-9.92483
▁Este	-9.92526
▁grad	-9.92574
▁αυτά	-9.92604
▁2006	-9.92605
▁kort	-9.92627
▁There	-9.92759
▁(RO)	-9.92941
▁(NL)	-9.92989
▁således	-9.9307
▁hace	-9.93081
▁both	-9.93124
▁agreement	-9.93133
▁fall	-9.93218
▁parce	-9.93255
▁direktiv	-9.93275
▁course	-9.93509
▁bych	-9.93557
▁bra	-9.9356
▁problème	-9.93689
ně	-9.93719
▁θέμα	-9.93735
▁ejemplo	-9.93741
▁ensure	-9.9376
▁gör	-9.93795
▁τομέα	-9.93795
▁nuestros	-9.9386
▁case	-9.93924
▁tali	-9.93989
▁problemi	-9.9399
▁his	-9.94014
▁put	-9.94048
mise	-9.94173
▁concernant	-9.94191
▁country	-9.94219
▁oggi	-9.94255
▁institutions	-9.94305
▁quando	-9.94374
▁Ο	-9.94383
▁rätt	-9.94416
▁Mrs	-9.94469
▁Derfor	-9.94499
ken	-9.94541
▁interne	-9.9459
s-	-9.94646
▁ihrer	-9.94668
▁rol	-9.94676
▁tega	-9.947
so	-9.94871
▁haben.	-9.94871
▁proceso	-9.94978
▁kommissionens	-9.95121
▁ELi	-9.95147
ada	-9.95201
ske	-9.95204
▁autres	-9.95236
▁mucho	-9.95238
▁toutes	-9.95251
▁doen	-9.95255
▁Grupo	-9.95259
▁können.	-9.95272
▁creo	-9.95301
▁gemensamma	-9.95313
▁hoy	-9.95314
▁vastu	-9.95315
▁financiële	-9.95465
▁fast	-9.95598
▁market	-9.95603
▁Zeit	-9.95606
▁apoyo	-9.95659
▁too	-9.95663
▁členských	-9.95692
▁sempre	-9.95708
▁olika	-9.95715
les	-9.95736
▁However,	-9.95737
▁hvilket	-9.95738
tas	-9.95739
▁d'autres	-9.95742
▁coopération	-9.95751
▁certains	-9.95757
▁Ja	-9.95771
▁ktorý	-9.95816
▁hoe	-9.95874
▁mūsų	-9.9591
ty	-9.96032
▁která	-9.9608
▁politika	-9.96123
▁betänkande	-9.96183
▁energie	-9.96207
▁όσον	-9.96261
▁stadig	-9.96311
▁100	-9.96323
▁l'Unione	-9.96426
▁στους	-9.96467
▁your	-9.9649
▁Deze	-9.9662
▁handel	-9.96636
▁vissa	-9.96651
▁pan	-9.96724
ato	-9.96797
▁andet	-9.9682
▁paese	-9.96837
▁efforts	-9.96839
▁secondo	-9.96859
▁Ein	-9.96949
▁nende	-9.96962
▁Par	-9.96983
po	-9.97004
▁possibile	-9.97016
▁Mme	-9.97026
▁l'UE	-9.97161
▁denen	-9.97198
▁17	-9.97208
▁signor	-9.97215
ούς	-9.97242
▁proprio	-9.97265
▁σημαντικό	-9.97271
▁Op	-9.97305
▁ora	-9.97311
▁kwestie	-9.97317
▁p	-9.97327
▁steeds	-9.97328
▁neuen	-9.97598
▁vet	-9.97741
▁accord	-9.97741
ē	-9.97748
▁eigen	-9.97757
▁frågan	-9.97784
▁communautaire	-9.97819
▁při	-9.97831
▁cuenta	-9.97862
▁ret	-9.97978
▁projekt	-9.97994
▁tijd	-9.9804
▁ger	-9.98073
▁kolleger	-9.98084
▁bilancio	-9.98102
ez	-9.98158
▁Ten	-9.98171
▁Kommissar	-9.98192
▁stati	-9.982
▁mina	-9.98226
que	-9.98326
▁go	-9.98352
▁moins	-9.98359
▁insbesondere	-9.9842
nos	-9.98478
▁również	-9.98499
nu	-9.98533
▁pret	-9.98638
ía	-9.98657
ering	-9.98688
▁situationen	-9.98834
▁δια	-9.98888
ky	-9.99014
ting	-9.99077
▁todas	-9.99117
▁compte	-9.99119
▁mener	-9.99151
▁ogni	-9.99181
▁own	-9.99207
▁cada	-9.99219
▁αυτές	-9.9922
▁Wie	-9.99242
▁frem	-9.99262
▁fost	-9.99291
▁able	-9.9931
▁če	-9.99314
ji	-9.99334
▁EÚ	-9.99337
▁nostri	-9.99345
▁waarin	-9.99376
▁πλαίσιο	-9.99393
▁geht	-9.99434
▁store	-9.99446
▁système	-9.99505
ire	-9.99565
▁betrekking	-9.9972
▁regional	-9.99726
▁presente	-9.99729
▁Комисията	-9.99734
▁markt	-9.99735
▁seulement	-9.99835
▁ļoti	-9.99836
▁estamos	-9.9984
ą,	-9.99853
ha	-9.99908
▁Community	-9.99959
▁9	-10.0002
▁probleem	-10.0007
▁siamo	-10.0007
▁number	-10.001
▁He	-10.0012
▁raison	-10.0016
▁tan	-10.0017
▁Panie	-10.0018
foranstaltninger	-10.0019
m,	-10.0024
▁Commissario	-10.0024
▁cooperación	-10.0036
▁jsme	-10.0042
ő	-10.0047
▁tun	-10.0054
▁vers	-10.0078
▁marco	-10.0079
▁vis	-10.0085
▁deras	-10.0086
het	-10.0086
ата	-10.0088
▁Komisijos	-10.0102
▁herr	-10.0104
as,	-10.0106
▁veľmi	-10.0109
▁particulier	-10.0111
▁Do	-10.0117
▁binnen	-10.012
ck	-10.012
▁problèmes	-10.0121
▁Präsident!	-10.0135
▁behöver	-10.0138
▁gør	-10.0139
ono	-10.0141
▁forskellige	-10.0148
tel	-10.015
▁Im	-10.0153
▁tage	-10.0157
▁jā	-10.0159
ės	-10.0161
▁Dette	-10.0168
du	-10.0184
iz	-10.0193
▁Unió	-10.02
▁nom	-10.0203
▁mal	-10.0212
▁samme	-10.0214
▁Rahmen	-10.0217
▁16	-10.0223
▁deben	-10.0225
▁Et	-10.0227
į	-10.0228
▁temps	-10.0234
mis	-10.0235
▁doch	-10.0235
▁européenne.	-10.0237
▁ώστε	-10.0239
▁předsedající,	-10.0241
▁programa	-10.0241
▁Een	-10.0248
▁komen	-10.0248
▁medio	-10.0255
▁uw	-10.0258
▁zonder	-10.0261
▁donne	-10.0267
▁utveckling	-10.0269
▁dialog	-10.0273
▁bodo	-10.0275
не	-10.0278
▁Ένωση	-10.029
▁kuri	-10.029
▁waren	-10.0291
▁dicho	-10.0293
▁Ez	-10.0294
▁moramo	-10.0297
▁cosa	-10.0297
▁Elnök	-10.0297
▁ayuda	-10.0297
▁Van	-10.0306
▁hand	-10.031
▁13	-10.0311
▁sedan	-10.0313
▁mettre	-10.0313
▁cooperation	-10.0322
ł	-10.0329
ţi	-10.033
▁Ihnen	-10.0333
▁cooperazione	-10.0335
▁Bereich	-10.0338
▁hela	-10.0346
▁Problem	-10.0347
▁l'Europe	-10.035
▁έχουμε	-10.0353
▁regard	-10.0355
▁volta	-10.0357
▁richtlijn	-10.0358
▁bis	-10.0364
io	-10.0371
▁mise	-10.0377
▁kom	-10.0377
▁især	-10.0382
▁problemas	-10.0383
▁why	-10.0391
▁quiero	-10.0405
▁ex	-10.0406
arna	-10.0412
▁energy	-10.0416
▁vooral	-10.0416
dos	-10.0429
▁alles	-10.043
▁pris	-10.0432
▁бъде	-10.0434
▁persone	-10.0443
▁måde	-10.0443
ée	-10.0451
▁Zusammenarbeit	-10.0451
▁sitt	-10.0454
▁goede	-10.0456
▁επί	-10.0457
cu	-10.0458
▁wichtig	-10.0462
▁lande	-10.0462
▁pirmininke	-10.0466
▁einige	-10.047
▁menos	-10.0473
▁godt	-10.0474
▁actual	-10.0486
▁Dies	-10.0486
ano	-10.049
sk	-10.0491
▁Είναι	-10.0504
▁EU,	-10.0509
▁mänskliga	-10.0512
ме	-10.0516
▁motivo	-10.0517
▁brug	-10.052
▁algunos	-10.0521
ím	-10.0523
▁Sicherheit	-10.0525
▁hat.	-10.053
▁γεγονός	-10.0546
▁mag	-10.0547
▁know	-10.0548
▁Hvis	-10.055
▁αποτελεί	-10.0556
un	-10.0558
▁pourquoi	-10.0561
▁λόγω	-10.0561
ούμε	-10.0561
▁ámbito	-10.0573
▁tienen	-10.0574
▁tekst	-10.0583
▁Jahr	-10.0589
▁quello	-10.0591
εται	-10.0594
▁centrale	-10.0601
et.	-10.0619
▁treba	-10.0619
▁14	-10.0625
▁små	-10.063
▁secteur	-10.0636
▁allem	-10.064
▁Komise	-10.0646
▁milieu	-10.0648
▁inzake	-10.0649
▁may	-10.065
able	-10.0651
▁Unterstützung	-10.0652
▁sammen	-10.0654
▁Unii	-10.0657
▁någon	-10.0657
▁betænkning	-10.0658
▁continue	-10.0658
▁který	-10.0662
▁qué	-10.0665
▁queste	-10.0666
▁protección	-10.0666
▁sprawie	-10.0674
▁means	-10.0677
▁all'	-10.0678
▁nogen	-10.0679
▁vandaag	-10.068
▁си	-10.0683
▁mijnheer	-10.069
▁sidste	-10.069
▁kader	-10.0696
area	-10.0701
▁example	-10.0702
▁garantire	-10.0704
sid	-10.0705
▁ani	-10.0713
rea	-10.0721
▁δύο	-10.0721
usi	-10.0727
sel	-10.073
um	-10.0747
▁luogo	-10.0749
▁necessario	-10.0751
▁tutte	-10.0762
▁Internet	-10.0767
▁nemlig	-10.0767
▁gan	-10.0772
amente	-10.0774
▁regionale	-10.0783
▁tweede	-10.0783
iu	-10.0783
▁l'a	-10.0792
gli	-10.08
▁causa	-10.0804
▁neue	-10.0811
▁résolution	-10.0818
▁tomto	-10.0818
▁let	-10.0819
▁Mais	-10.0822
▁laten	-10.0823
▁hans	-10.0829
zu	-10.0831
▁muß	-10.0834
▁nuevo	-10.0836
▁υπάρχει	-10.0838
ile	-10.0841
▁2002	-10.0846
▁without	-10.0847
▁επι	-10.0848
▁utskottet	-10.0854
emos	-10.0858
▁demande	-10.0862
▁då	-10.0865
od	-10.0871
▁2005	-10.0883
▁lieu	-10.0884
▁När	-10.0886
▁China	-10.089
▁ste	-10.0893
▁mint	-10.0895
▁geval	-10.09
▁Portugal	-10.0902
▁tikai	-10.0907
▁importance	-10.0912
▁όχι	-10.0912
▁Wat	-10.0918
▁werd	-10.0921
▁opinión	-10.0923
▁αυτήν	-10.0926
▁Regierung	-10.0926
▁Y	-10.0927
▁Ho	-10.0934
lu	-10.0939
▁process	-10.094
▁Commissioner	-10.0946
ev	-10.0953
▁wurden	-10.0958
▁Barroso	-10.0962
▁zaken	-10.0969
▁points	-10.0976
▁dock	-10.098
▁1.	-10.098
▁relations	-10.0986
▁processus	-10.0988
▁πρόταση	-10.099
▁domaine	-10.0991
y.	-10.0996
▁mejor	-10.0999
▁2004	-10.1
▁Pour	-10.1002
▁aceast	-10.1007
▁geven	-10.1009
sz	-10.101
▁Amsterdam	-10.1012
▁šajā	-10.1015
▁jej	-10.1019
▁verkligen	-10.1019
▁avoir	-10.102
▁soprattutto	-10.1029
▁συζήτηση	-10.1032
▁morgen	-10.1033
▁Rady	-10.1035
▁tom	-10.1041
cie	-10.1046
▁savoir	-10.1048
▁worden.	-10.1051
▁partie	-10.1054
▁ohne	-10.1056
▁denk	-10.1057
▁s'agit	-10.106
▁Richtlinie	-10.1064
▁amendement	-10.1065
ties	-10.1071
▁quadro	-10.1074
▁zwei	-10.1075
▁tredje	-10.1078
ab	-10.1082
át	-10.1088
▁however	-10.109
▁podemos	-10.1091
▁proposte	-10.1093
▁avant	-10.1094
▁production	-10.1095
▁toujours	-10.1096
▁към	-10.1096
▁ponente	-10.1104
▁through	-10.1107
▁Land	-10.1107
▁aujourd'hui	-10.1112
▁οποίες	-10.1112
▁toekomst	-10.1115
▁años	-10.1117
▁today	-10.1121
▁arra	-10.1121
▁dokument	-10.1124
▁vita	-10.1125
▁governo	-10.1126
▁rámci	-10.1132
▁kon	-10.1135
▁beslut	-10.1138
▁Stato	-10.1153
▁eso	-10.1154
▁Sono	-10.1159
▁europæisk	-10.1159
▁także	-10.1165
▁Schengen	-10.117
▁n'a	-10.1181
tro	-10.1183
▁hasta	-10.1187
▁απο	-10.1187
▁ord	-10.1189
▁Di	-10.1197
▁svar	-10.12
▁Presidenta	-10.1203
▁devrait	-10.1222
▁kes	-10.1228
▁toda	-10.1229
▁gentlemen,	-10.1234
▁special	-10.1235
▁programmes	-10.1236
heid	-10.1237
2	-10.1246
▁Namen	-10.1247
▁τρόπο	-10.1256
▁Länder	-10.1261
▁f.eks.	-10.1266
politik	-10.1271
ονται	-10.1273
▁gas	-10.1273
▁kai	-10.1278
▁(EL)	-10.1279
▁posible	-10.1279
▁Ευρώπη	-10.1284
▁m.	-10.1299
▁año	-10.1303
▁behov	-10.1306
▁inter	-10.1306
▁risoluzione	-10.1309
kel	-10.1312
▁seine	-10.1313
▁debería	-10.1317
▁Α	-10.1319
▁side	-10.1329
▁wy	-10.133
▁Cet	-10.1338
ăm	-10.1341
▁beaucoup	-10.1341
▁pueden	-10.135
▁forhold	-10.1352
▁privind	-10.1355
ώ	-10.1358
▁Mevrouw	-10.1367
amos	-10.1374
▁net	-10.1374
▁If	-10.1375
▁voorstellen	-10.1386
▁collega	-10.1387
rsi	-10.1389
▁talman,	-10.1398
▁много	-10.1398
gu	-10.1398
▁Därför	-10.1402
ui	-10.1404
▁citizens	-10.141
▁hoop	-10.1412
▁dog	-10.1415
▁antes	-10.1417
▁onorevole	-10.1417
▁samarbejde	-10.1417
▁Tai	-10.1418
й	-10.1418
▁jour	-10.1419
d.	-10.1424
per	-10.1424
▁namelijk	-10.1425
▁lang	-10.1427
▁Gospod	-10.1428
▁years	-10.1433
▁attiecībā	-10.1434
▁notamment	-10.1435
ους	-10.1435
ns	-10.1436
▁principe	-10.1436
ą.	-10.1438
▁Madam	-10.1438
takse	-10.1442
▁cours	-10.1443
▁información	-10.1444
▁Ziel	-10.1446
▁tar	-10.145
▁mille	-10.1451
▁gouvernement	-10.1452
▁objetivo	-10.1453
▁Jahren	-10.1457
▁ante	-10.1463
▁year	-10.1468
▁particularly	-10.1468
▁rok	-10.1472
▁mener,	-10.1473
ett	-10.1474
▁mensenrechten	-10.1477
▁inför	-10.1478
et,	-10.1479
▁laquelle	-10.1479
▁politiche	-10.1481
▁zelo	-10.1482
▁manera	-10.1484
▁Tratado	-10.1489
▁manier	-10.1493
▁f	-10.1493
▁solution	-10.1495
▁dialogue	-10.1495
ic	-10.1496
▁dovrebbe	-10.1498
▁energia	-10.1501
▁present	-10.151
▁À	-10.1529
▁mesure	-10.1529
▁möjligt	-10.1534
▁propuestas	-10.1552
▁betänkandet	-10.1554
ity	-10.1554
▁τόσο	-10.1557
▁otras	-10.1557
▁model	-10.1561
▁effet	-10.1565
rà	-10.1566
▁ezt	-10.1568
▁όμως	-10.1568
▁przy	-10.1571
▁god	-10.1575
parlamentet	-10.1578
▁stort	-10.1583
▁anden	-10.1589
▁prendre	-10.1589
▁Verdrag	-10.1592
▁before	-10.1594
▁président	-10.1599
▁europea,	-10.1606
▁mia	-10.1611
▁resolución	-10.1612
▁krav	-10.1612
▁normas	-10.1612
▁Cela	-10.1614
▁deel	-10.1615
▁relación	-10.1619
▁enige	-10.1619
▁necessary	-10.162
▁ceux	-10.1621
▁а	-10.1624
▁règlement	-10.1625
οί	-10.1625
▁document	-10.163
nych	-10.1633
▁vragen	-10.1633
▁middelen	-10.1637
▁ακόμη	-10.1638
▁wäre	-10.1642
▁otro	-10.1652
▁Ευρωπαϊκό	-10.1653
▁Union.	-10.1656
▁necesario	-10.1662
▁humanos	-10.1664
▁ré	-10.1676
▁Politik	-10.1676
▁great	-10.1686
ide	-10.1687
▁angår	-10.1692
▁soutien	-10.1693
▁τώρα	-10.1697
▁fortfarande	-10.1698
▁flere	-10.1698
▁attention	-10.1699
▁schon	-10.17
▁posizione	-10.17
▁sostegno	-10.1708
▁rôle	-10.1719
▁Aus	-10.1726
▁giver	-10.1736
▁total	-10.1737
▁weg	-10.1738
▁feit	-10.174
▁fremme	-10.1741
▁gebruik	-10.1745
▁verschillende	-10.1746
▁given	-10.1749
▁serie	-10.175
▁imidlertid	-10.1751
▁Estado	-10.1752
▁Meinung	-10.1754
▁ligger	-10.1754
▁Señora	-10.1754
▁gali	-10.1756
▁nii	-10.1761
▁Fall	-10.1761
▁rättigheter	-10.1762
▁derecho	-10.1762
▁aquí	-10.1766
▁stora	-10.1766
▁empresas	-10.1772
▁Ni	-10.178
▁rad	-10.1783
▁Mittel	-10.179
▁status	-10.1801
▁text	-10.1805
▁amendementen	-10.1807
ła	-10.1808
▁millones	-10.1819
▁60	-10.1822
е	-10.1827
▁framför	-10.1828
▁Nie	-10.1831
▁μιας	-10.1838
▁monde	-10.184
▁haya	-10.1844
▁security	-10.1854
mas	-10.1858
▁blot	-10.1859
▁hoppas	-10.186
▁faveur	-10.1861
▁stratégie	-10.1862
▁emendamenti	-10.1862
▁ktorá	-10.1866
▁nome	-10.187
▁muligt	-10.1878
▁kontrol	-10.1879
▁servizi	-10.1881
▁zien	-10.1882
’	-10.1893
▁Esto	-10.1897
▁pesca	-10.19
-Parlamentet	-10.1904
▁όλα	-10.1909
▁central	-10.1918
▁strategi	-10.1922
▁Deres	-10.1922
▁políticas	-10.1922
▁garantizar	-10.1922
▁servicios	-10.1925
▁globale	-10.1927
▁sujet	-10.1927
▁punt	-10.1933
▁Presidencia	-10.1933
▁vårt	-10.1933
▁което	-10.1934
ný	-10.1934
▁También	-10.1937
▁enmiendas	-10.1939
▁Pero	-10.1951
▁House	-10.1952
▁lui	-10.1956
▁kompromis	-10.1957
▁initiativ	-10.1959
ovat	-10.1965
▁σήμερα	-10.1966
▁usted	-10.1975
▁mu	-10.198
▁s'	-10.1984
▁Kollegen	-10.1986
▁compromis	-10.1986
с	-10.1988
▁hade	-10.1989
▁daarom	-10.199
▁Gemeinschaft	-10.199
▁üle	-10.1991
▁j'ai	-10.1992
▁при	-10.1999
▁ansvar	-10.2004
▁még	-10.2005
tion	-10.2006
▁Welt	-10.2009
▁gracias	-10.2013
▁Verenigd	-10.2014
▁strategie	-10.2015
▁idea	-10.202
▁direktivet	-10.2032
▁besoin	-10.204
▁nå	-10.2041
▁enkele	-10.2044
▁meiner	-10.2046
▁viel	-10.205
▁poco	-10.2051
▁wieder	-10.2053
▁molti	-10.2055
▁wereld	-10.2058
▁stesso	-10.2059
▁progress	-10.2063
ren	-10.2064
▁bedre	-10.2065
▁Ländern	-10.2067
▁since	-10.2069
▁vagy	-10.207
▁einmal	-10.207
▁ese	-10.2071
ните	-10.2076
▁commissaris	-10.2076
▁opinion	-10.2081
▁propositions	-10.2081
▁Vorrei	-10.2083
▁države	-10.2087
▁Vor	-10.209
▁soient	-10.2094
▁aller	-10.2096
▁lige	-10.2101
▁komme	-10.2104
▁Komisji	-10.2107
ς.	-10.2115
▁merito	-10.2116
▁igen	-10.212
▁nuo	-10.2122
lige	-10.2123
▁santé	-10.2123
ies	-10.2124
▁inoltre	-10.2125
▁rechten	-10.2126
▁ide	-10.2126
▁hos	-10.2127
▁wetgeving	-10.213
▁udvikling	-10.2132
▁traité	-10.2136
▁selbst	-10.2138
▁fase	-10.2141
▁groot	-10.2142
▁significa	-10.2148
▁nam	-10.2154
▁norme	-10.2161
▁otra	-10.2162
nte	-10.2172
▁ju	-10.2176
▁grandes	-10.2186
▁blir	-10.2188
▁21	-10.2192
▁politici	-10.2194
▁Signora	-10.2195
▁κατάσταση	-10.2197
▁tās	-10.2198
ol	-10.2199
▁chi	-10.2202
▁algo	-10.2207
ila	-10.2211
▁area	-10.2212
▁qu'elle	-10.2214
▁Thema	-10.2217
ene	-10.2218
▁mora	-10.2218
▁altre	-10.2228
▁Unternehmen	-10.2233
ят	-10.2236
▁votre	-10.2242
▁graag	-10.2244
as.	-10.2247
▁θέση	-10.2249
tal	-10.2252
▁primo	-10.2256
▁människor	-10.2258
▁personer	-10.2258
▁voorzitterschap	-10.227
▁ruolo	-10.2277
κ	-10.2278
▁pu	-10.2281
▁større	-10.2284
▁κάθε	-10.2285
▁colleghi,	-10.2291
uk	-10.2293
▁alebo	-10.2301
▁być	-10.2303
▁femmes	-10.2316
▁importancia	-10.2317
▁risk	-10.2322
rne	-10.2324
▁kungs,	-10.2328
kom	-10.2329
▁qu'	-10.233
▁media	-10.2331
▁muchos	-10.2337
▁viele	-10.2339
▁εδώ	-10.234
▁maggiore	-10.2344
▁aasta	-10.2345
▁zelf	-10.235
▁prie	-10.2351
▁”	-10.2362
▁amelyek	-10.2368
▁folk	-10.237
▁weten	-10.2375
by	-10.2382
▁señora	-10.2382
▁houden	-10.2382
▁unie	-10.2386
▁Ab	-10.2388
▁né	-10.2388
ott	-10.2389
▁naše	-10.239
▁arbete	-10.2393
ite	-10.24
▁help	-10.2401
▁heller	-10.2404
▁glede	-10.241
▁possibilità	-10.2417
▁nødvendigt	-10.242
▁world	-10.2422
▁obiettivi	-10.2423
unk	-10.2427
▁crisi	-10.243
▁ήδη	-10.2431
tos	-10.2433
ovať	-10.2433
▁United	-10.2439
man	-10.2441
1	-10.2444
▁data	-10.2447
▁nemen	-10.246
▁håber	-10.246
▁europäische	-10.2462
▁velmi	-10.2463
▁serait	-10.2466
för	-10.2473
▁absolut	-10.2477
▁favour	-10.2478
▁thank	-10.2479
▁fonds	-10.2481
▁byť	-10.2482
▁whether	-10.2484
▁mulighed	-10.2486
▁Las	-10.2487
▁držav	-10.2491
▁Evropske	-10.2495
▁Commission,	-10.2497
▁úr,	-10.2499
▁exempel	-10.2501
tă	-10.2502
▁návrh	-10.2516
▁този	-10.2521
▁nouvelle	-10.2524
▁členské	-10.2525
▁Ta	-10.253
▁europei	-10.2531
▁havde	-10.2532
▁huidige	-10.2536
▁wo	-10.2538
▁būtu	-10.2538
▁Mēs	-10.2539
▁regeringen	-10.2543
▁ladies	-10.2549
▁entreprises	-10.2555
▁való	-10.2557
▁agree	-10.2559
▁varit	-10.256
▁sagt	-10.2561
▁pot	-10.2565
A	-10.2566
ner	-10.2567
▁gustaría	-10.2569
▁pouvons	-10.2571
▁blijven	-10.2572
▁role	-10.2579
▁tuttavia	-10.258
▁c	-10.2581
▁result	-10.2582
▁large	-10.2582
▁bardzo	-10.2586
▁agenda	-10.2587
▁új	-10.259
▁accordo	-10.2593
rá	-10.2601
▁strategia	-10.2601
▁problems	-10.2602
▁vrouwen	-10.2604
▁possono	-10.2618
▁będzie	-10.2618
▁Señorías,	-10.2624
▁1999	-10.2624
▁autre	-10.2631
▁mogen	-10.2632
▁В	-10.2633
▁sektor	-10.2636
▁pouvoir	-10.2637
▁beslutning	-10.2643
ové	-10.2645
mer	-10.2648
▁wissen	-10.2648
▁dopo	-10.265
tele	-10.2652
▁further	-10.2655
▁predsednik,	-10.2656
▁l’Union	-10.2656
▁necessità	-10.2657
▁onderzoek	-10.2657
ét	-10.2662
▁amendements	-10.2666
▁possiamo	-10.2667
▁jeho	-10.267
ina	-10.267
▁innebär	-10.2677
▁aplicación	-10.2677
▁než	-10.2679
tar	-10.2679
▁Tas	-10.268
ados	-10.2686
▁wollen	-10.2687
▁reikia	-10.2688
▁darba	-10.2691
▁naturligvis	-10.2699
▁sau	-10.27
ité	-10.2701
▁politischen	-10.2701
▁qu’il	-10.2717
▁objectifs	-10.2727
▁samma	-10.273
▁region	-10.2731
▁grave	-10.2734
pi	-10.2737
▁práv	-10.2742
▁etwas	-10.2743
▁več	-10.2746
▁común	-10.275
▁Rada	-10.275
▁cuestiones	-10.2751
▁roll	-10.2752
▁trade	-10.2754
▁Entschließung	-10.2755
σ	-10.2756
οι	-10.276
▁Was	-10.2761
▁pertanto	-10.2764
▁която	-10.2765
▁grado	-10.2769
▁amendments	-10.2769
▁behalf	-10.2777
▁α	-10.2778
▁Bedeutung	-10.2779
▁commune	-10.2782
▁500	-10.2784
▁conto	-10.2784
▁orden	-10.2785
▁darüber	-10.2786
ées	-10.2789
▁aid	-10.2801
▁consider	-10.2803
▁προκειμένου	-10.2805
▁който	-10.2806
▁Lage	-10.2807
▁κρατών	-10.2816
ino	-10.2819
idad	-10.2822
▁ενός	-10.2823
▁Fraktion	-10.2824
▁informatie	-10.2825
▁(HU)	-10.2826
min	-10.2832
lich	-10.2832
ry	-10.284
▁Questo	-10.2841
liga	-10.2847
▁Frauen	-10.2851
▁Maar	-10.2851
▁UE.	-10.2854
▁kuid	-10.2855
▁nationella	-10.2856
▁ned	-10.2856
▁mitte	-10.2857
▁difficile	-10.2861
ida	-10.2863
▁Fragen	-10.2863
▁présent	-10.2863
▁condiciones	-10.2864
▁sub	-10.2866
eren	-10.2868
▁gennem	-10.2869
zioni	-10.287
▁område	-10.2875
▁Európa	-10.2882
▁l'on	-10.2885
▁(SV)	-10.2886
ről	-10.2887
▁välja	-10.2893
▁række	-10.2893
▁enorme	-10.2894
▁председател	-10.2895
▁dai	-10.2899
▁eu	-10.2905
▁bescherming	-10.2906
▁medzi	-10.2907
3	-10.2908
▁import	-10.2911
▁Parlamenta	-10.2913
▁Priekšsēdētāja	-10.2914
▁quella	-10.2915
▁nouveau	-10.2917
▁sch	-10.2917
▁recherche	-10.2918
▁1998	-10.292
▁día	-10.2921
▁volgen	-10.2923
ling	-10.2937
▁roz	-10.2943
▁meno	-10.2951
met	-10.2954
▁décision	-10.2959
▁hen	-10.296
▁Ook	-10.2966
▁vie	-10.2968
osti	-10.2969
▁24	-10.2974
▁peuvent	-10.2975
▁által	-10.2977
▁però	-10.2981
ata	-10.2982
sp	-10.2989
▁2009.	-10.299
▁debatten	-10.2991
▁proposals	-10.2993
▁lange	-10.2997
ost	-10.2998
▁mezi	-10.3009
▁next	-10.3013
▁nuovo	-10.302
▁minister	-10.3025
▁mundo	-10.3026
▁όταν	-10.3026
▁prin	-10.3026
▁primera	-10.3029
kt	-10.303
och	-10.3052
ος	-10.3052
▁nám	-10.3061
▁begroting	-10.3061
▁était	-10.3062
▁skapa	-10.3067
▁minden	-10.3069
▁dello	-10.3071
▁Creo	-10.3072
▁jų	-10.3074
▁komisjoni	-10.3076
▁peu	-10.3076
▁sest	-10.3079
▁Grund	-10.3079
▁hvordan	-10.308
▁imod	-10.3082
▁terms	-10.3085
▁mind	-10.3095
ster	-10.3099
▁Rates	-10.3099
▁διότι	-10.3102
▁natürlich	-10.3103
▁bon	-10.3122
▁negli	-10.3124
▁väl	-10.3126
▁issues	-10.3128
▁weer	-10.3129
▁grundläggande	-10.3135
▁contrôle	-10.3136
▁sport	-10.3137
▁Tuttavia	-10.3139
▁ihren	-10.3142
ber	-10.315
▁rules	-10.3159
▁health	-10.316
spolitik	-10.3161
ių	-10.3162
▁element	-10.3164
▁annak	-10.3168
φ	-10.3169
▁women	-10.317
▁objetivos	-10.3175
▁Ένωσης	-10.3175
▁demokrati	-10.3178
▁personal	-10.3178
nega	-10.3178
▁voorzitter	-10.3178
▁sociala	-10.3184
▁nagu	-10.3185
▁tijdens	-10.3199
▁Zukunft	-10.3199
▁tuleb	-10.3201
▁πολιτικής	-10.3204
▁συν	-10.3211
▁jejich	-10.3214
▁zvezi	-10.3215
▁veiligheid	-10.3219
▁één	-10.322
▁bijzonder	-10.3223
▁sarebbe	-10.3226
▁quisiera	-10.3226
▁nun	-10.323
▁κύριε	-10.323
▁level	-10.3234
▁ici	-10.3235
▁Au	-10.3239
af	-10.324
▁commissaire	-10.3244
▁Liidu	-10.3245
▁là	-10.3252
ът	-10.3265
▁ζήτημα	-10.3268
▁Pane	-10.3268
▁namens	-10.3269
▁specific	-10.3276
▁Members	-10.3278
▁Probleme	-10.3281
▁Mit	-10.3281
zen	-10.3282
▁condizioni	-10.3286
▁но	-10.3287
▁necesidad	-10.329
▁bättre	-10.3291
▁interesse	-10.3292
▁zwar	-10.3297
▁unionens	-10.33
▁premier	-10.3305
vol	-10.3307
▁handlar	-10.3307
▁zone	-10.3312
▁responsabilità	-10.3312
▁norėčiau	-10.3314
ania	-10.3317
▁grundlæggende	-10.3317
▁können,	-10.3317
▁verband	-10.3324
▁efficace	-10.3327
▁avere	-10.3328
ύ	-10.3338
▁raz	-10.3339
▁wirklich	-10.3348
▁CO2	-10.3349
▁second	-10.335
ale	-10.3355
▁Umwelt	-10.3356
▁daher	-10.3358
che	-10.3371
▁kurie	-10.3373
▁State	-10.3375
▁vedrørende	-10.3376
▁società	-10.3378
▁būs	-10.3379
▁done	-10.3381
ți	-10.3384
▁visa	-10.3387
▁всички	-10.3387
▁mujeres	-10.3387
▁már	-10.3395
▁lei	-10.34
▁Vážený	-10.3402
▁g	-10.3404
▁Una	-10.3408
▁Situation	-10.3413
▁Πρέπει	-10.3416
▁forskning	-10.3423
ának	-10.3426
▁Staaten	-10.343
▁force	-10.343
▁šis	-10.3432
▁práva	-10.3434
▁libre	-10.3435
▁responsabilidad	-10.3436
▁produits	-10.3438
au	-10.3438
▁siden	-10.3443
▁libertà	-10.3448
▁finde	-10.3452
mist	-10.3453
▁Treaty	-10.3454
▁Europe.	-10.3454
pe	-10.3459
▁better	-10.346
▁Sa	-10.346
▁iets	-10.3474
▁όσο	-10.3483
▁different	-10.3485
▁ricerca	-10.3492
▁skabe	-10.3498
▁rådets	-10.3498
ement	-10.3499
▁εάν	-10.3502
▁cause	-10.3502
▁Commissario,	-10.3502
com	-10.3503
▁papel	-10.3506
▁depuis	-10.3508
▁importantes	-10.3509
▁из	-10.351
▁Pa	-10.3524
▁mondiale	-10.3526
▁nuestras	-10.3528
▁tych	-10.3529
▁viene	-10.3529
▁again	-10.3533
▁ker	-10.3533
ine	-10.3536
▁millions	-10.3537
▁Aussprache	-10.3541
▁hi	-10.3542
▁Για	-10.3542
τα	-10.3544
▁económica	-10.3548
▁t	-10.3548
▁standard	-10.3549
▁regolamento	-10.3549
▁façon	-10.3551
▁prodotti	-10.3551
▁Sąjungos	-10.3553
▁questioni	-10.3568
ли	-10.3569
▁cento	-10.3572
▁ur	-10.3573
▁80	-10.3577
▁adopted	-10.3583
▁relatore	-10.3585
▁framework	-10.3592
▁president	-10.3592
tų	-10.3596
▁holdning	-10.3602
▁2003	-10.3602
▁bomo	-10.3603
▁parece	-10.3605
▁Come	-10.3605
ης	-10.3606
▁dalle	-10.361
▁nebo	-10.3611
▁crise	-10.3614
▁fie	-10.3616
▁esa	-10.3619
’s	-10.3622
▁jūs	-10.3623
▁borde	-10.3624
▁samarbete	-10.3625
▁ännu	-10.3627
▁crois	-10.3634
▁ανα	-10.3635
sen	-10.3635
▁tilbage	-10.364
▁Schutz	-10.3641
▁23	-10.3641
ról	-10.3645
▁bylo	-10.3649
▁czy	-10.3652
ría	-10.3652
vel	-10.3653
▁vilka	-10.3655
▁Teil	-10.3655
las	-10.3665
▁nécessaire	-10.3675
▁alors	-10.3675
▁areas	-10.3682
▁présidence	-10.3682
▁Europea.	-10.3682
▁kultur	-10.3683
iert	-10.3684
▁II	-10.3685
▁main	-10.3698
▁Parlamentets	-10.3699
▁anti	-10.3703
▁december	-10.3703
len	-10.371
▁best	-10.3712
▁controllo	-10.3717
▁change	-10.3718
▁start	-10.3724
res	-10.3729
▁würde	-10.3731
▁Rolle	-10.3737
▁But	-10.3737
▁possa	-10.3738
▁matter	-10.3739
▁αυτής	-10.374
▁μπορούμε	-10.3741
▁ιδιαίτερα	-10.3763
▁Ευρωπαϊκού	-10.3764
▁vse	-10.378
▁jelentés	-10.378
▁oli	-10.3783
▁soltanto	-10.3784
▁fondamentale	-10.3786
▁garantir	-10.3786
▁weiter	-10.3791
▁welcome	-10.3792
▁casi	-10.3796
▁Esta	-10.3799
ische	-10.3802
▁тази	-10.3805
▁takke	-10.3806
▁Iran	-10.3806
▁ανάπτυξη	-10.3806
л	-10.3811
▁1997	-10.3811
▁export	-10.3813
▁Met	-10.3817
▁What	-10.3818
▁īpaši	-10.382
▁μπορούν	-10.382
▁csak	-10.3833
▁αυτού	-10.3833
led	-10.3836
▁komt	-10.3837
▁Gobierno	-10.3839
▁NATO	-10.3839
▁problemer	-10.3843
▁decisione	-10.3849
th	-10.385
let	-10.3852
Berichterstatter	-10.3855
▁či	-10.3859
ions	-10.386
▁val	-10.3862
iť	-10.3863
▁Commission.	-10.3874
ál	-10.3875
▁praw	-10.3877
▁parties	-10.3877
▁service	-10.388
▁betænkningen	-10.3881
▁wish	-10.3885
▁première	-10.3886
▁?	-10.3887
▁prze	-10.3891
▁Prodi	-10.3892
▁ji	-10.3892
▁тези	-10.3893
▁lid	-10.3893
▁Ωστόσο	-10.3896
▁viktiga	-10.3901
▁cambio	-10.3907
omis	-10.391
▁generale	-10.3912
▁bijvoorbeeld	-10.3912
▁detto	-10.3914
▁m	-10.3915
▁presupuesto	-10.3918
▁especialmente	-10.3918
▁χώρα	-10.3918
▁Presidenza	-10.392
▁enligt	-10.3921
▁Pro	-10.3925
▁mano	-10.3926
cy	-10.3926
▁22	-10.3935
▁Commissioner,	-10.3935
▁million	-10.3937
▁regime	-10.3937
▁doel	-10.3941
▁wijze	-10.3943
▁derde	-10.3946
▁imprese	-10.3948
▁uso	-10.3949
▁αυτόν	-10.3951
▁ask	-10.3952
▁Zusammenhang	-10.3957
▁trebui	-10.3962
ret	-10.3967
lag	-10.3967
▁bank	-10.3967
▁decision	-10.3969
▁pretože	-10.3973
▁nostre	-10.3974
ī	-10.3975
▁population	-10.3976
▁προ	-10.3976
▁Como	-10.3977
▁mali	-10.3978
▁stödja	-10.3983
▁така	-10.3983
▁députés	-10.3997
▁verder	-10.3997
▁Zato	-10.4
▁λόγο	-10.4004
▁państw	-10.4008
▁antal	-10.4012
▁bepaalde	-10.4013
▁möglich	-10.4015
▁aandacht	-10.4017
▁Group	-10.4019
▁productos	-10.402
ování	-10.402
▁Deshalb	-10.4021
▁allo	-10.4021
▁ke	-10.4025
▁annat	-10.4029
ici	-10.4034
▁számára	-10.4037
▁mediante	-10.4039
▁glaube	-10.4041
▁campo	-10.4045
av	-10.4046
ive	-10.4053
▁gezegd	-10.4053
▁státy	-10.4056
▁group	-10.406
▁Dank	-10.4064
▁Israel	-10.4065
kal	-10.4065
ski	-10.4066
▁Co	-10.4069
▁altijd	-10.4069
▁ervan	-10.4072
▁relative	-10.4074
▁χωρίς	-10.4077
▁WTO	-10.4079
▁bija	-10.4081
▁after	-10.409
▁betyder	-10.4091
▁Commissaire,	-10.4092
ante	-10.4094
▁b	-10.4095
▁Présidente	-10.4095
▁zelfs	-10.4098
▁Dobbiamo	-10.4106
▁zowel	-10.411
▁bonne	-10.4111
▁needs	-10.4113
▁grand	-10.4114
▁toate	-10.4116
▁μέτρα	-10.4117
▁svoje	-10.4117
▁större	-10.4119
▁incluso	-10.4119
▁poder	-10.4119
▁contrario	-10.4119
▁има	-10.4126
▁vaid	-10.4127
▁concrete	-10.4129
▁accept	-10.413
▁dnes	-10.4131
▁quelle	-10.4134
▁legislación	-10.4136
▁standpunt	-10.4136
▁nosotros	-10.4137
▁approach	-10.4144
ler	-10.4147
▁bilo	-10.4153
ení	-10.4153
▁relazioni	-10.4158
▁Abstimmung	-10.4159
▁støtter	-10.416
▁enmienda	-10.416
ré	-10.4166
▁Comisario	-10.4171
▁diverse	-10.4172
ne.	-10.4176
▁diputados	-10.418
▁относно	-10.4182
▁leven	-10.4185
”,	-10.4186
▁voto	-10.4187
▁Komisja	-10.4195
ring	-10.4196
▁företag	-10.4197
ετε	-10.42
ischen	-10.4205
lse	-10.4209
▁valamint	-10.4211
▁както	-10.4214
▁actions	-10.4215
▁subject	-10.4216
▁zodat	-10.4216
niu	-10.4219
Änderungsanträge	-10.4219
▁μην	-10.4223
▁først	-10.4224
▁nonché	-10.4227
▁Savienības	-10.4232
▁règles	-10.4233
▁period	-10.4234
▁initiative	-10.4235
▁len	-10.4238
bar	-10.4238
▁forward	-10.424
▁gada	-10.4243
▁Nel	-10.4243
▁nämlich	-10.4243
▁fortsat	-10.4244
▁krijgen	-10.4245
iga	-10.425
▁bidrag	-10.4257
kon	-10.4262
▁atención	-10.4272
6	-10.4278
▁communication	-10.4281
▁Κοινοβουλίου	-10.4281
▁Te	-10.4285
▁mee	-10.4285
▁effektiv	-10.4304
▁turėtų	-10.4305
▁miljö	-10.4307
▁stemming	-10.4309
▁lucru	-10.4309
▁vēl	-10.4312
▁rettigheder	-10.4312
con	-10.432
▁също	-10.4321
▁risorse	-10.4325
▁régions	-10.4326
▁ervoor	-10.4328
▁tacka	-10.4336
▁cualquier	-10.4342
▁200	-10.4342
▁drie	-10.4343
ted	-10.4347
▁jednak	-10.4347
▁διαδικασία	-10.4348
▁verantwoord	-10.435
▁quelques	-10.4356
▁bland	-10.4357
▁projet	-10.4361
▁kann.	-10.4363
▁περισσότερο	-10.4365
▁realmente	-10.4366
▁européenne,	-10.4369
▁może	-10.4374
▁państwa	-10.4377
▁Wirtschaft	-10.4378
▁Artikel	-10.4379
▁open	-10.4386
▁faktisk	-10.4401
▁argument	-10.4404
▁qualité	-10.4407
▁letzten	-10.4411
▁tohto	-10.4428
▁Mesdames	-10.4429
▁virkelig	-10.443
▁Ar	-10.444
▁lutte	-10.4441
▁dibattito	-10.4441
▁l'homme	-10.4443
▁decisión	-10.4443
ont	-10.4445
▁rekening	-10.4447
▁regler	-10.4451
▁komma	-10.4451
ningen	-10.4452
ion	-10.4454
tre	-10.4473
▁nouveaux	-10.4474
▁Ci	-10.4477
ede	-10.4478
▁turime	-10.4479
ének	-10.448
▁vind	-10.4483
▁instellingen	-10.4486
▁periodo	-10.449
era	-10.4496
▁whole	-10.4497
▁did	-10.4499
▁cuanto	-10.4505
▁Ε	-10.4508
ag	-10.4509
5	-10.451
▁aspects	-10.4511
▁trop	-10.4511
▁towards	-10.4512
▁fondi	-10.4517
▁après	-10.4519
▁Κυρία	-10.452
▁working	-10.4522
M	-10.4524
▁parole	-10.4524
▁samen	-10.4527
▁pana	-10.453
▁økonomisk	-10.4532
▁έναν	-10.454
▁jog	-10.4542
▁gælder	-10.4545
▁mandat	-10.4546
▁celu	-10.4547
▁Europol	-10.4549
▁protože	-10.4558
▁nuovi	-10.4559
▁darbo	-10.4559
▁pēc	-10.4564
▁yo	-10.457
▁haber	-10.457
▁съюз	-10.4572
▁beter	-10.4572
▁qualità	-10.4576
▁werkgelegenheid	-10.4577
▁Su	-10.4579
▁seiner	-10.4579
▁three	-10.4581
particulièrement	-10.4582
▁major	-10.4587
▁type	-10.4588
▁år.	-10.4588
▁tri	-10.459
▁directiva	-10.4593
▁Pri	-10.4595
4	-10.4597
iska	-10.4602
uri	-10.4608
dy	-10.461
em,	-10.4612
jú	-10.4614
▁zona	-10.4617
▁förslaget	-10.4617
▁Punkt	-10.4621
isation	-10.4621
▁Ge	-10.4624
end	-10.463
▁slechts	-10.4631
▁sentido	-10.4632
▁protezione	-10.4632
▁Todėl	-10.4635
▁egen	-10.4635
mal	-10.4636
one	-10.4637
▁going	-10.464
ranno	-10.4643
meenschappelijk	-10.4644
▁tiež	-10.4647
▁sous	-10.4652
▁gång	-10.4656
▁lagstiftning	-10.4656
▁który	-10.4658
▁altro	-10.466
▁aiuti	-10.4666
à	-10.4667
tra	-10.4667
▁nej	-10.4678
cia	-10.4679
▁πρόκειται	-10.468
ám	-10.4681
le.	-10.4684
imi	-10.4684
▁peame	-10.4687
▁gazdasági	-10.4688
▁teraz	-10.469
▁internationella	-10.4694
▁votación	-10.4697
▁extra	-10.4698
▁européens	-10.4698
▁nuevos	-10.4699
vin	-10.4699
▁podporu	-10.4704
▁sted	-10.4705
▁nás	-10.4708
▁pues	-10.4709
▁leden	-10.4711
▁economica	-10.4713
▁Irak	-10.4715
▁local	-10.472
▁παρα	-10.4722
▁corso	-10.4726
▁bil	-10.4726
▁few	-10.4734
▁gevolgen	-10.474
▁impact	-10.4743
▁organ	-10.4748
▁obstante	-10.4749
▁législation	-10.4755
▁υπάρχουν	-10.4755
nou	-10.4758
▁vol	-10.4758
▁enkelt	-10.4759
▁fontos	-10.4762
▁l	-10.4764
▁sker	-10.4766
▁tres	-10.4766
ido	-10.4766
wa	-10.4769
ünk	-10.4777
▁samo	-10.4777
▁πολίτες	-10.4781
nost	-10.4783
▁something	-10.4787
▁Nord	-10.4788
▁aspekt	-10.4788
jas	-10.4789
▁weet	-10.4791
▁nuværende	-10.4799
▁Union,	-10.48
▁drei	-10.4801
▁politikai	-10.4802
▁indsats	-10.481
▁unseren	-10.4811
▁milioni	-10.4819
▁trois	-10.4823
ciones	-10.4823
▁stabil	-10.4825
▁integration	-10.4825
for	-10.4826
▁viktig	-10.4827
▁Ashton	-10.4828
▁zeker	-10.4829
▁voted	-10.483
oje	-10.483
▁lotta	-10.4832
▁2011	-10.4833
und	-10.4834
▁Para	-10.4847
▁stöder	-10.4847
▁große	-10.4848
θ	-10.4849
▁jos	-10.485
▁n'	-10.4854
▁szóló	-10.4854
▁l'onorevole	-10.4856
▁siis	-10.4861
▁kurios	-10.4862
▁Så	-10.4862
▁aún	-10.4864
▁Directiva	-10.4865
▁Hvad	-10.4872
▁négociations	-10.4872
▁davon	-10.4874
▁sociales	-10.4875
ec	-10.4877
▁autorità	-10.4886
▁περίπτωση	-10.4894
▁līdz	-10.4899
▁europeo.	-10.4902
▁ponieważ	-10.4905
▁peab	-10.4906
▁1996	-10.4907
▁recursos	-10.4907
los	-10.491
▁then	-10.4913
▁procedura	-10.4917
▁Under	-10.4919
▁Weise	-10.492
▁instituciones	-10.4922
▁Bank	-10.4927
▁před	-10.4928
▁jeden	-10.493
▁stále	-10.4932
▁minder	-10.4936
▁μέσω	-10.494
▁clairement	-10.4942
▁ak	-10.4948
αμε	-10.4954
▁κάτι	-10.4958
hoz	-10.4959
▁giorno	-10.4961
▁principle	-10.4961
▁cel	-10.4962
▁remercier	-10.4963
▁åt	-10.4964
▁relativa	-10.4969
▁pasado	-10.4969
elt	-10.497
▁υπέρ	-10.4971
▁Energie	-10.4975
▁context	-10.4979
os,	-10.4981
▁Ir	-10.4983
▁selon	-10.4986
▁será	-10.4988
▁Pre	-10.4988
▁referendum	-10.499
▁Denne	-10.4996
▁back	-10.4997
▁Komisia	-10.4998
▁preto	-10.4998
▁naturligtvis	-10.5
ech	-10.5002
▁procédure	-10.5006
▁πως	-10.5016
▁politiky	-10.5017
▁besteht	-10.5019
▁especial	-10.502
▁voté	-10.5022
▁minimum	-10.5023
nosti	-10.5027
▁teh	-10.503
▁ihr	-10.5031
▁civile	-10.5034
▁wanneer	-10.5038
▁Og	-10.5042
else	-10.505
▁може	-10.5053
fer	-10.5057
▁betreffende	-10.5058
▁ytterligare	-10.506
▁gegenüber	-10.5062
age	-10.5062
▁Am	-10.5063
▁fond	-10.5066
▁vigtige	-10.5067
▁J'ai	-10.5068
us,	-10.5071
▁current	-10.5073
▁compromiso	-10.5074
▁esempio	-10.5075
▁soll	-10.5076
▁parlamentu	-10.5076
8	-10.5084
▁resolutie	-10.5085
▁tiden	-10.5085
οντας	-10.5086
▁orde	-10.509
▁úgy	-10.5091
▁Fonds	-10.5094
▁nueva	-10.5098
▁œuvre	-10.5101
ării	-10.5104
▁investigación	-10.5106
▁tylko	-10.5111
▁Art	-10.5111
gún	-10.5114
▁Ko	-10.5114
sime	-10.5116
▁συμφωνία	-10.5116
ία	-10.5117
▁vinden	-10.512
▁spørgsmålet	-10.5123
▁comunitario	-10.5124
▁institutioner	-10.5127
ismo	-10.5129
▁pomoc	-10.5131
▁toto	-10.5131
▁competencia	-10.5132
tek	-10.5133
▁2001	-10.5133
▁comment	-10.5134
▁behovet	-10.5135
▁laatste	-10.5137
▁cual	-10.514
▁nõukogu	-10.5141
S	-10.5143
▁volledig	-10.5145
lik	-10.5146
▁sorte	-10.5147
▁cele	-10.5148
ams	-10.5154
▁nombreux	-10.5154
▁aspect	-10.516
▁posición	-10.5163
▁toch	-10.5164
▁nouvelles	-10.5171
ovi	-10.5172
▁foarte	-10.5182
▁varje	-10.5182
▁down	-10.5182
▁sotto	-10.5184
▁:	-10.5184
▁rum	-10.5185
▁Това	-10.5185
▁tras	-10.5191
▁medlemmer	-10.5193
▁pregunta	-10.5196
▁segundo	-10.5196
▁όπου	-10.5197
endo	-10.5198
▁natuurlijk	-10.5198
▁Unione	-10.5201
▁provide	-10.5203
▁daran	-10.5204
▁finder	-10.5207
▁Mums	-10.5214
▁guerra	-10.5217
▁mondo	-10.5218
▁signal	-10.5218
▁aumento	-10.5227
nim	-10.5227
».	-10.5238
▁siempre	-10.5238
▁Weg	-10.524
▁netop	-10.5241
ło	-10.525
▁sociali	-10.5251
le,	-10.5255
▁υπόψη	-10.526
▁Menschenrechte	-10.5265
▁get	-10.5267
▁těch	-10.5268
▁post	-10.5268
▁26	-10.5269
ός	-10.5277
▁transporte	-10.5283
▁terug	-10.5285
▁struktur	-10.5285
▁economie	-10.5288
▁desidero	-10.5289
▁aftale	-10.5291
▁regioni	-10.5294
▁account	-10.5296
▁opportunity	-10.5299
▁call	-10.53
▁Udvalget	-10.5303
▁Σ	-10.5303
▁Συμβουλίου	-10.531
▁abbia	-10.531
bre	-10.5312
▁violence	-10.5313
▁visto	-10.5313
▁2008.	-10.5313
▁reste	-10.5314
ng	-10.5316
▁senaste	-10.5318
tak	-10.532
▁Und	-10.532
▁legislation	-10.5321
ani	-10.5323
▁including	-10.5328
▁succes	-10.5331
▁internazionale	-10.5332
▁waarop	-10.5333
▁direct	-10.5336
▁Tomēr	-10.5342
ita	-10.5345
▁claro	-10.5346
▁zaradi	-10.5346
▁mois	-10.5347
▁full	-10.5347
ved	-10.5352
▁nuova	-10.5355
▁lucha	-10.5356
ceea	-10.5357
▁dank	-10.5366
▁fue	-10.5369
▁finansielle	-10.5374
▁szerint	-10.5374
▁europeos	-10.5376
▁programmi	-10.5377
▁prav	-10.5377
▁følge	-10.5379
cer	-10.5381
ική	-10.5383
nas	-10.5387
▁macht	-10.5391
▁credo	-10.5394
▁Sra.	-10.5397
▁discussion	-10.5399
▁commissaris,	-10.5401
▁chose	-10.5406
med	-10.5408
▁själva	-10.5409
▁narių	-10.5411
▁pār	-10.5411
▁stat	-10.5412
▁nécessité	-10.5413
▁Tanács	-10.5419
▁proposed	-10.5422
▁seront	-10.5423
▁Presidency	-10.5424
nk	-10.5426
▁Aber	-10.5431
▁parere	-10.5434
▁employment	-10.5435
00	-10.5437
▁staan	-10.5438
▁haft	-10.5439
▁respuesta	-10.544
в	-10.5442
▁šį	-10.5444
hez	-10.5445
▁vairāk	-10.5447
▁attività	-10.5449
▁fondo	-10.5451
bu	-10.5462
▁fri	-10.5466
▁tidigare	-10.5468
dès	-10.5469
▁poiché	-10.547
▁pourrait	-10.5472
▁umani	-10.5474
▁respekt	-10.5479
▁ни	-10.5481
▁cen	-10.5489
▁politico	-10.5489
ne,	-10.5491
▁calidad	-10.5492
▁gut	-10.5499
onderhandelingen	-10.5499
▁authorities	-10.55
▁emellertid	-10.5502
▁konflikt	-10.5504
▁miljoen	-10.5508
B	-10.5511
▁mitt	-10.5513
▁really	-10.5517
▁valstybių	-10.5518
nti	-10.5518
▁welke	-10.552
▁бъдат	-10.552
▁aunque	-10.552
▁μετά	-10.5522
▁или	-10.5525
▁shall	-10.5526
▁find	-10.5528
·	-10.5535
▁law	-10.5537
▁democratic	-10.5539
▁tiesību	-10.5542
▁invece	-10.5543
▁δικαιώματα	-10.5544
▁justice	-10.5545
▁algunas	-10.5545
▁valsts	-10.555
▁increase	-10.5556
▁afgørende	-10.5562
▁2010.	-10.5563
▁Rådets	-10.5566
▁Minister	-10.5566
▁verso	-10.5568
▁Ze	-10.5569
▁1,	-10.5569
▁capital	-10.557
▁crucial	-10.5571
▁s'est	-10.5573
▁sikkerhed	-10.5573
▁auto	-10.5574
▁hoffe	-10.5574
▁(SK)	-10.5575
▁miljø	-10.5577
▁progetto	-10.5582
▁tohoto	-10.5583
▁endast	-10.5584
gal	-10.5585
▁området	-10.5586
▁energía	-10.559
▁meil	-10.559
▁Rusland	-10.5592
ną	-10.5596
ít	-10.5599
▁αυτών	-10.5601
▁terme	-10.5605
▁dimension	-10.5609
▁Auf	-10.5609
▁skupiny	-10.561
▁negociaciones	-10.561
▁kleine	-10.5615
▁ami	-10.5616
▁marknaden	-10.5618
▁effective	-10.5619
▁Τα	-10.5624
ként	-10.5626
sin	-10.5627
▁tidligere	-10.5631
▁hem	-10.5635
K	-10.5636
▁internal	-10.5638
▁mayoría	-10.564
▁especially	-10.564
▁Pakistan	-10.5642
nem	-10.5643
anie	-10.5643
▁С	-10.5644
▁2,	-10.5645
▁procesu	-10.5646
▁konkret	-10.5646
▁nagyon	-10.565
▁prieš	-10.5654
▁juhataja,	-10.566
▁dienen	-10.5662
▁dato	-10.5664
▁duda	-10.5668
▁seit	-10.5669
ného	-10.5669
▁visse	-10.5674
ras	-10.5675
▁voir	-10.5677
▁risposta	-10.5679
▁used	-10.5681
ni,	-10.5682
▁landet	-10.5683
▁brengen	-10.5683
▁contribution	-10.5684
▁chaque	-10.5685
▁dentro	-10.5686
var	-10.5687
▁Pani	-10.5695
▁azonban	-10.5695
tor	-10.5696
stand	-10.5696
▁ktorí	-10.5696
ния	-10.5696
ance	-10.5703
ły	-10.5706
▁together	-10.5707
▁maintenant	-10.5708
▁medborgare	-10.5711
▁regulation	-10.5714
▁seguir	-10.5714
▁70	-10.5716
ah	-10.5717
▁Verbraucher	-10.5723
▁während	-10.5726
▁organisations	-10.5727
▁acord	-10.5733
ern	-10.5738
▁enig	-10.5738
▁dell’	-10.574
▁alcune	-10.5747
wi	-10.5749
▁само	-10.5755
ustatud	-10.5756
▁keď	-10.5758
na.	-10.5759
▁affrontare	-10.576
▁least	-10.5763
▁test	-10.5763
▁Tačiau	-10.5769
▁dient	-10.5769
▁during	-10.5769
▁grupp	-10.577
kor	-10.577
▁esam	-10.5774
▁darf	-10.5775
▁(CS)	-10.5776
▁sens	-10.5777
▁Jahre	-10.5779
▁εργασίας	-10.5779
▁principal	-10.5779
▁clearly	-10.5779
▁Europejskiej	-10.5781
▁debatt	-10.5781
▁oplossing	-10.5782
▁tilfælde	-10.5784
rci	-10.5788
▁Lösung	-10.5789
▁νέα	-10.5789
▁instruments	-10.5791
▁affinché	-10.5791
▁termine	-10.5791
▁plusieurs	-10.5793
ser	-10.5795
▁private	-10.5797
▁geld	-10.5797
ala	-10.5805
▁šiuo	-10.5805
▁bisogno	-10.5806
▁démocratie	-10.5806
▁politische	-10.5808
▁potrebbe	-10.5814
▁proto	-10.5828
▁barn	-10.5829
▁bol	-10.583
hed	-10.5831
▁Komisijas	-10.5832
▁every	-10.5834
▁ra	-10.5835
▁Ka	-10.5837
sko	-10.5838
elor	-10.5845
ico	-10.5846
▁kõik	-10.5847
▁Afrika	-10.5851
ż	-10.5856
▁Π	-10.5856
▁vám	-10.5856
▁Trattato	-10.5859
juk	-10.5859
▁offentlige	-10.5861
▁Evropa	-10.5862
▁Convention	-10.5863
ori	-10.5864
▁dabei	-10.5865
▁vida	-10.5867
▁gestion	-10.5868
▁fortsätta	-10.587
▁förbättra	-10.5871
▁culture	-10.5872
▁πρόβλημα	-10.5876
meenschappelijke	-10.5877
▁sí	-10.5877
▁société	-10.5881
▁több	-10.5881
▁stemme	-10.5884
▁fremskridt	-10.589
▁zaak	-10.5897
▁dare	-10.5898
▁byla	-10.59
▁reason	-10.5903
tie	-10.5905
▁Eine	-10.5905
▁kein	-10.5906
▁Änderungsantrag	-10.5908
▁estoy	-10.5912
kov	-10.592
▁fractie	-10.592
▁idee	-10.5922
elijkheid	-10.5926
▁Agenda	-10.5928
fi	-10.5933
▁glad	-10.5935
▁tro	-10.5937
▁begin	-10.5941
igt	-10.5943
▁visi	-10.5948
▁gemaakt	-10.595
nú	-10.595
▁już	-10.5951
▁Od	-10.5952
▁handels	-10.5953
▁exemple	-10.5959
▁Damen	-10.596
▁nas	-10.5962
7	-10.5963
▁podría	-10.5964
▁nuove	-10.5966
▁starp	-10.5966
▁kohta	-10.5973
нето	-10.5974
▁balance	-10.5975
▁slut	-10.5978
▁oleks	-10.5978
▁ЕС	-10.5981
▁hacia	-10.5984
▁responsibility	-10.5986
▁strategy	-10.5986
▁valstybės	-10.5992
isme	-10.5996
▁dess	-10.6
vid	-10.6001
▁volt	-10.6002
▁Nations	-10.6014
▁político	-10.6014
▁Wettbewerb	-10.6016
▁ske	-10.6022
▁sein.	-10.6023
▁Ansicht	-10.6025
ind	-10.6026
use	-10.6029
▁another	-10.603
▁nacional	-10.603
▁documento	-10.6042
sche	-10.6045
▁después	-10.6045
▁moi	-10.6045
▁effektivt	-10.6046
▁vital	-10.6046
▁vedere	-10.6048
▁forme	-10.6049
cz	-10.605
ото	-10.6056
▁Mal	-10.6059
▁Hier	-10.6062
▁research	-10.6063
δ	-10.6065
liśmy	-10.6068
▁aucun	-10.6068
▁Une	-10.6069
▁salud	-10.6069
▁tager	-10.607
▁90	-10.6071
▁mejorar	-10.6074
▁direkt	-10.6076
▁gre	-10.6077
▁autorités	-10.608
▁úr	-10.6082
▁concerned	-10.6083
▁sak	-10.6085
▁problemet	-10.6086
▁Nach	-10.6086
π	-10.6088
▁Bezug	-10.6088
▁Elle	-10.6088
▁reforma	-10.6095
к	-10.6097
▁positiva	-10.6099
▁soluzione	-10.61
▁selles	-10.6102
▁project	-10.6102
▁environmental	-10.6105
▁États-Unis	-10.6106
▁musi	-10.6107
▁Zu	-10.6107
▁anno	-10.6108
▁raport	-10.6111
ować	-10.6115
▁greater	-10.6116
line	-10.6117
▁waarmee	-10.6119
▁nazionali	-10.6123
▁pace	-10.6124
▁vier	-10.6131
▁minu	-10.6132
▁juridique	-10.6133
▁töö	-10.6136
▁internet	-10.6138
▁υπό	-10.6147
ndet	-10.6147
eg	-10.615
▁numero	-10.6154
▁Evropski	-10.6155
▁geben	-10.6155
ības	-10.6157
▁prix	-10.6158
▁acción	-10.6159
▁drejer	-10.616
▁spørgsmål,	-10.6161
▁ypač	-10.6162
▁navnlig	-10.6163
▁reden	-10.6172
▁Rechte	-10.6173
▁“	-10.6173
▁tagállamok	-10.6174
▁serious	-10.6174
▁Vorschläge	-10.6175
▁become	-10.6176
ll	-10.6178
▁Möglichkeit	-10.6179
▁teisės	-10.6182
▁håller	-10.6186
▁šī	-10.6187
▁gruppe	-10.6188
▁wurde,	-10.619
▁отношение	-10.6193
▁uitbreiding	-10.6193
imas	-10.6193
▁nacionales	-10.6195
▁sine	-10.6195
▁conflict	-10.6196
▁pêche	-10.6198
▁produkter	-10.6199
▁darin	-10.62
▁Umsetzung	-10.6201
▁nuclear	-10.6202
▁volgende	-10.6204
▁Region	-10.6208
▁Irland	-10.6208
▁też	-10.6208
nje	-10.6211
▁pře	-10.6213
▁crescita	-10.6216
▁avtal	-10.6219
▁negoziati	-10.6219
▁Efter	-10.6225
▁autoridades	-10.6226
▁31	-10.6233
▁safety	-10.6235
▁σχέση	-10.6235
▁sowohl	-10.6242
▁certaines	-10.6242
▁enda	-10.6243
▁surtout	-10.6246
▁unos	-10.6247
▁And	-10.6251
▁ram	-10.6252
erà	-10.6253
▁nationalen	-10.6254
inės	-10.6254
▁Entscheidung	-10.6254
▁europeo,	-10.6255
▁snel	-10.6256
▁rather	-10.6257
▁forte	-10.6259
▁oltre	-10.6261
leg	-10.6262
▁Pone	-10.6265
▁gedaan	-10.6268
▁Reform	-10.6277
ajiem	-10.6278
▁resultat	-10.628
▁pokud	-10.628
vé	-10.6281
▁συνεργασία	-10.6283
▁Präsidentin	-10.6287
▁jaren	-10.6288
ová	-10.6288
▁suoi	-10.6292
▁lavoratori	-10.6295
▁vertegenwoordig	-10.6295
▁visant	-10.6297
▁vonatkozó	-10.6299
▁Abbiamo	-10.6307
▁proyecto	-10.6307
▁cabo	-10.6313
fe	-10.6313
▁paz	-10.6316
▁trabajadores	-10.6317
ия	-10.6327
▁industrie	-10.6328
▁quite	-10.6334
▁industria	-10.6338
▁2.	-10.6339
▁informazioni	-10.6339
▁säkerhet	-10.6342
▁daudz	-10.6347
▁Demokratie	-10.6349
▁taget	-10.6351
▁euro.	-10.6351
▁strany	-10.6354
▁once	-10.6357
▁principi	-10.6357
▁kvinnor	-10.6358
▁Debatte	-10.6365
▁achter	-10.6366
iske	-10.637
inių	-10.6374
▁Kolleginnen	-10.6377
▁polityki	-10.6379
▁tydligt	-10.6383
te,	-10.6384
▁genomen	-10.6384
ier	-10.6387
▁small	-10.6387
▁liberté	-10.6388
▁concurrentie	-10.6389
▁Beispiel	-10.6389
atie	-10.639
▁È	-10.6391
uoti	-10.6393
▁1995	-10.6395
▁nödvändigt	-10.6395
▁vast	-10.64
pro	-10.6403
▁free	-10.6404
▁votato	-10.6407
▁taler	-10.6407
▁termini	-10.6407
▁Ces	-10.6409
▁viac	-10.6412
▁όλες	-10.6416
▁daug	-10.6418
▁již	-10.6426
▁quel	-10.6429
▁28	-10.643
▁ressources	-10.6431
▁opatření	-10.6433
▁Ciò	-10.6435
mar	-10.6436
▁juni	-10.6438
▁valg	-10.6439
▁saa	-10.644
▁artículo	-10.644
▁informations	-10.6441
chi	-10.6447
▁tačiau	-10.6447
▁brauchen	-10.6449
▁regels	-10.645
ert	-10.6453
▁besonders	-10.6453
či	-10.6453
▁nada	-10.6453
▁nuevas	-10.6454
▁Abgeordneten	-10.646
sed	-10.6467
▁yderligere	-10.6467
▁él	-10.647
▁αρχές	-10.6473
▁miljoner	-10.6476
▁Ebene	-10.6482
▁excellent	-10.6483
▁vēlos	-10.6486
▁effect	-10.6488
▁midler	-10.6493
▁εφαρμογή	-10.6494
▁findes	-10.6495
▁δικαιωμάτων	-10.6496
ούνται	-10.6497
▁l'Europa	-10.6498
ül	-10.6499
▁confronti	-10.6502
▁kommissær,	-10.6506
▁særlig	-10.6507
▁budeme	-10.651
▁normal	-10.6512
▁αγορά	-10.6513
▁úrovni	-10.6514
▁cum	-10.6516
▁crear	-10.6518
▁ihnen	-10.6519
▁%.	-10.6521
▁wirtschaftliche	-10.6523
om,	-10.653
▁access	-10.6533
▁dintre	-10.6536
▁betekent	-10.6537
▁én	-10.6538
▁intereses	-10.654
▁šios	-10.6542
ron	-10.6544
▁между	-10.6544
▁princip	-10.6547
adas	-10.6552
▁criteria	-10.6555
aus	-10.6557
▁lovgivning	-10.6557
▁kogu	-10.656
▁look	-10.6562
▁estar	-10.6569
▁protest	-10.657
▁decisiones	-10.6576
▁Σε	-10.6579
▁saranno	-10.6583
▁ordføreren	-10.6584
▁vendar	-10.6587
▁resources	-10.6589
▁settori	-10.6592
▁l'environnement	-10.6593
igen	-10.6594
▁liegt	-10.6599
▁J	-10.66
▁libertad	-10.6605
▁Europe,	-10.6608
▁sería	-10.6612
▁responsabilité	-10.6613
ρ	-10.6614
ette	-10.6615
▁г-н	-10.6617
▁μέσα	-10.6621
▁Russia	-10.6624
▁før	-10.6626
iai	-10.6632
▁rzecz	-10.6634
▁trhu	-10.6634
▁Messieurs,	-10.6634
vu	-10.6636
▁dori	-10.6636
ame	-10.664
▁réponse	-10.6641
▁ting	-10.6641
▁(LT)	-10.6641
▁kapcsolatos	-10.6645
▁doelstellingen	-10.6648
μ	-10.6648
red	-10.6649
▁always	-10.665
▁Ri	-10.665
▁muchas	-10.6651
▁individual	-10.6651
▁rolle	-10.6652
▁interno	-10.6652
▁France	-10.6661
▁terrorisme	-10.6661
▁saj	-10.6661
▁Jak	-10.6661
▁conséquent	-10.6663
▁voulons	-10.6663
▁emot	-10.6663
▁beginnen	-10.6666
▁Fondo	-10.6667
▁difficult	-10.6668
▁controle	-10.6671
▁donner	-10.6671
▁pubblica	-10.6671
▁making	-10.6672
nd	-10.6674
▁Europeană	-10.6674
eli	-10.6674
▁své	-10.6677
▁nell'	-10.6677
ni.	-10.6678
qui	-10.668
▁tanke	-10.6681
▁europeisk	-10.6681
▁daugiau	-10.6682
ва	-10.6684
▁recent	-10.6686
▁beskyttelse	-10.6688
▁riguardo	-10.6688
▁votado	-10.669
▁έκθεσης	-10.669
▁avis	-10.6691
▁internationalen	-10.6693
▁πιστεύω	-10.6694
ef	-10.6695
▁marked	-10.6698
▁bychom	-10.6699
▁indre	-10.6703
▁These	-10.6704
▁predsedajúci,	-10.6704
▁week	-10.6713
▁tiens	-10.6714
▁jums	-10.6714
▁biti	-10.6715
▁third	-10.6716
▁Commission's	-10.6718
▁επίπεδο	-10.672
▁pueda	-10.672
▁tur	-10.6724
▁They	-10.6733
▁todavía	-10.6735
▁positivo	-10.6736
bb	-10.6744
mat	-10.6744
▁asemenea,	-10.6745
▁economía	-10.6746
▁varētu	-10.6746
▁simple	-10.6747
▁falta	-10.6748
ás	-10.6749
▁sociedad	-10.6752
▁boli	-10.676
▁reeds	-10.676
▁essential	-10.6762
▁tie	-10.6769
▁poter	-10.6769
tori	-10.6773
▁...	-10.6773
gel	-10.6779
▁risultati	-10.678
▁legislative	-10.6782
jí	-10.6782
▁medida	-10.6782
▁która	-10.6784
▁sagde	-10.6784
▁vigtig	-10.6785
▁colleghi	-10.6786
▁dra	-10.6788
▁Comme	-10.6789
▁achieve	-10.6791
▁Pan	-10.6793
ä	-10.6794
▁senso	-10.6796
▁altid	-10.68
▁allow	-10.68
▁water	-10.6806
▁largo	-10.6811
▁cómo	-10.6811
▁måske	-10.6814
▁faktiskt	-10.6815
▁οικονομική	-10.6816
▁tutela	-10.6817
▁Ob	-10.6818
▁States.	-10.6819
▁vērā	-10.6821
им	-10.6821
ise	-10.6821
▁políticos	-10.6821
▁semble	-10.6824
ront	-10.6826
▁iniciativa	-10.683
▁certo	-10.683
▁propos	-10.6832
▁Zo	-10.6832
▁vele	-10.6833
▁seno	-10.6834
▁donné	-10.6835
▁fred	-10.6839
▁šīs	-10.6841
▁constitue	-10.6841
▁freedom	-10.6841
▁lande,	-10.6841
▁schriftelijk.	-10.6842
▁consiste	-10.6842
▁konkrete	-10.6842
▁fronte	-10.6843
▁problém	-10.6845
▁gemeinsamen	-10.6845
▁gestión	-10.6846
▁elkaar	-10.6847
▁samtidigt	-10.6857
▁concurrence	-10.6857
▁Tot	-10.6864
▁budou	-10.6864
▁bestaat	-10.6864
▁debates	-10.6867
V	-10.6869
▁kind	-10.6874
▁texte	-10.6876
▁pesar	-10.6878
▁strijd	-10.6881
▁besluit	-10.6882
▁skriftlig.	-10.6885
▁verden	-10.6886
▁testo	-10.6887
▁Tak	-10.6889
▁rette	-10.6889
▁économiques	-10.689
▁herrar!	-10.6893
▁länderna	-10.6893
ga.	-10.6894
▁Voor	-10.6896
ára	-10.6897
▁relation	-10.6898
▁Г-	-10.6899
▁Strategie	-10.6901
▁Reglamento	-10.6902
▁paní	-10.6903
ната	-10.6906
▁mare	-10.6906
▁positiv	-10.691
recht	-10.6911
▁Auch	-10.6912
▁poi	-10.6913
▁mult	-10.6915
▁štáty	-10.6919
▁croissance	-10.692
▁través	-10.692
▁aspetti	-10.692
▁dergelijke	-10.6921
▁gjorde	-10.6921
▁olema	-10.6922
▁kosten	-10.6922
gt	-10.6923
▁dürfen	-10.6924
▁επειδή	-10.6927
▁Balkan	-10.6928
▁estrategia	-10.693
ica	-10.6931
▁klare	-10.6931
▁overeenkomst	-10.6932
▁aldrig	-10.6933
▁interests	-10.6933
her	-10.6935
▁παρά	-10.6936
▁Li	-10.6937
▁χρόνια	-10.6937
▁πριν	-10.6937
▁Nem	-10.694
▁realidad	-10.6945
▁løsning	-10.6947
▁ekonomisk	-10.695
ează	-10.6951
▁resultado	-10.6951
▁προστασία	-10.6952
inblick	-10.6953
▁kommission	-10.6959
▁Unie.	-10.6959
▁rest	-10.696
▁unterstützen	-10.696
▁Στη	-10.696
▁avez	-10.6961
▁należy	-10.6961
▁acceso	-10.6965
▁government	-10.6966
▁Alle	-10.6967
▁Her	-10.6968
▁erop	-10.6972
▁föredraganden	-10.6974
eket	-10.6974
▁programas	-10.6974
▁procedimiento	-10.6977
τε	-10.6978
▁Millionen	-10.6979
▁travailleurs	-10.698
▁ανάγκη	-10.6981
▁things	-10.6982
▁súvislosti	-10.6983
ein	-10.6985
▁vedtaget	-10.6985
ingen	-10.6989
▁Ihre	-10.6989
▁γίνει	-10.6993
▁sûr	-10.6994
▁donde	-10.6994
▁oportunidad	-10.6994
▁regiones	-10.6996
▁democratie	-10.6999
▁Han	-10.7
▁metu	-10.7
▁kanske	-10.7
▁realtà	-10.7003
▁UE,	-10.7004
▁flera	-10.7007
▁cosas	-10.7011
▁implementation	-10.7014
▁hänsyn	-10.7016
▁money	-10.7018
▁based	-10.7021
▁dernier	-10.7021
ű	-10.7025
▁diversi	-10.7025
▁našich	-10.7028
enblik	-10.703
▁Verantwortung	-10.703
▁Cu	-10.703
▁davantage	-10.7037
▁hulp	-10.7037
▁Hilfe	-10.7038
▁cultural	-10.7042
▁προβλήματα	-10.7043
ják	-10.7046
aient	-10.7051
▁peaks	-10.7052
▁kraft	-10.7054
β	-10.7055
▁queremos	-10.7057
▁echt	-10.7062
▁vormen	-10.7063
▁parlamentets	-10.7065
▁propria	-10.7065
▁pénzügyi	-10.7065
з	-10.7073
▁aver	-10.7074
▁különösen	-10.7078
▁antwoord	-10.7078
λ	-10.708
ujú	-10.7081
gy	-10.7082
▁bio	-10.709
▁τι	-10.7092
▁fondos	-10.7094
▁creación	-10.7095
▁kuru	-10.7098
▁deutlich	-10.7099
▁mala	-10.7099
▁immers	-10.71
▁soutenir	-10.7102
▁ακόμα	-10.7102
▁érdekében	-10.7109
▁bila	-10.711
▁landbouw	-10.7111
▁col	-10.7114
▁propose	-10.7115
hr	-10.7117
ί	-10.7119
▁großen	-10.7125
nego	-10.7128
▁bort	-10.7131
▁använda	-10.7131
▁euros	-10.7134
▁Vendar	-10.7135
▁nature	-10.7138
▁Comisiei	-10.7139
ách	-10.714
▁sposób	-10.7141
▁grandi	-10.7143
▁alltid	-10.7144
▁boj	-10.7145
▁allemaal	-10.7145
▁främja	-10.7145
▁sozialen	-10.7153
▁máme	-10.7155
▁gezien	-10.716
sol	-10.7166
▁priorità	-10.7168
▁biztos	-10.7168
▁lorsque	-10.717
ran	-10.7172
▁vari	-10.7173
χ	-10.7173
▁Ende	-10.7173
▁Min	-10.7175
itet	-10.7179
▁2007.	-10.7179
we	-10.7181
▁Att	-10.7184
▁finans	-10.7185
iem,	-10.7191
▁various	-10.7194
▁occorre	-10.7194
▁fondamentali	-10.7194
▁pedig	-10.7199
▁közös	-10.72
▁vilken	-10.7201
▁taking	-10.7201
ла	-10.7204
▁compris	-10.7204
▁handelt	-10.7208
▁åter	-10.7209
▁poročilo	-10.7209
▁accordi	-10.7211
▁État	-10.7211
▁29	-10.7212
Zoals	-10.7212
▁asunto	-10.7214
▁lub	-10.7215
C	-10.7216
▁î	-10.7217
▁Europea,	-10.7224
▁beide	-10.7225
▁propone	-10.7226
▁belangrijkste	-10.7235
▁slot	-10.7239
▁jaoks	-10.7243
▁wszystkich	-10.7245
▁Además	-10.7248
▁solución	-10.7251
▁comercio	-10.7251
▁visar	-10.7256
▁evidente	-10.7259
▁týchto	-10.726
▁trans	-10.726
▁policies	-10.7262
▁Maastricht	-10.7265
▁Ak	-10.7266
▁piano	-10.7266
▁Musíme	-10.7274
▁lov	-10.7275
▁India	-10.7275
hi	-10.7276
▁Verordnung	-10.7278
▁My	-10.7279
bra	-10.7279
tur	-10.7281
oms	-10.7282
▁nødt	-10.7282
▁votazione	-10.7283
▁UN	-10.7284
▁cultura	-10.7284
▁udtryk	-10.7285
▁беше	-10.7291
▁solidaritet	-10.7291
▁regione	-10.7293
▁é	-10.7295
og	-10.7298
▁elles	-10.7303
▁création	-10.7303
▁pane	-10.7303
▁heren,	-10.7304
▁welche	-10.7304
▁deshalb	-10.7304
▁effetti	-10.7304
▁nødvendige	-10.7306
▁nämligen	-10.7307
▁glæder	-10.7308
▁oleme	-10.7309
▁35	-10.731
▁negotiations	-10.7311
μα	-10.7312
▁mentre	-10.7315
ex	-10.7318
▁θέματα	-10.732
▁uddannelse	-10.7321
▁concern	-10.7323
▁dernière	-10.7323
▁número	-10.7327
▁gebieden	-10.7327
▁systém	-10.7328
▁presidente	-10.7328
ка	-10.7328
▁Inoltre	-10.7331
▁además	-10.7333
▁puesto	-10.7336
▁lägga	-10.7337
▁procedures	-10.7339
F	-10.7339
▁Ministro	-10.734
ys	-10.7341
▁gesteld	-10.7341
х	-10.7344
▁utgör	-10.7345
▁période	-10.7347
▁waarbij	-10.735
H	-10.7352
▁ονόματος	-10.7354
▁food	-10.7356
▁μας.	-10.7356
os.	-10.7356
▁ενώ	-10.7357
▁dati	-10.7359
▁innerhalb	-10.736
▁evropské	-10.7362
▁outre	-10.7363
▁bevolking	-10.7364
▁trots	-10.7368
▁weiterhin	-10.7368
▁Comisia	-10.7369
fo	-10.7371
▁musimy	-10.7372
▁actuellement	-10.7372
▁palju	-10.7374
▁step	-10.7377
ux	-10.7379
▁stessa	-10.738
▁Comisario,	-10.7382
▁kuris	-10.7382
▁Parlamento,	-10.7383
▁hin	-10.7383
▁mivel	-10.7384
▁2020.	-10.7386
▁person	-10.7388
▁veliko	-10.7392
▁Staten	-10.7392
▁aspectos	-10.7392
▁Asuntos	-10.7394
▁zakresie	-10.7394
▁rád	-10.7395
▁borgere	-10.7398
▁není	-10.7402
ými	-10.7402
▁könnte	-10.7403
▁diensten	-10.7404
▁områden	-10.7407
▁formandskab	-10.7407
▁sit	-10.7409
▁internacional	-10.7412
▁dialogo	-10.7414
▁partners	-10.7417
▁kur	-10.7418
▁finanšu	-10.7423
▁System	-10.7424
▁tieto	-10.7424
▁betydning	-10.7428
▁Commissione,	-10.7433
τ	-10.744
▁korrekt	-10.7444
▁Präsident	-10.7449
▁sembra	-10.7454
▁čas	-10.7454
rse	-10.7455
▁gemeinsame	-10.7458
▁souligner	-10.746
▁hjälp	-10.7462
ēt	-10.7462
▁programu	-10.7465
ηθεί	-10.747
▁stiamo	-10.747
▁indem	-10.7471
▁gerade	-10.7476
▁deal	-10.7477
▁groei	-10.7478
▁betrokken	-10.7479
▁Ezért	-10.748
▁grundlag	-10.748
▁bolo	-10.7481
▁rada	-10.7482
▁solidarity	-10.7484
▁initiatives	-10.7486
▁apoyar	-10.749
▁unique	-10.7491
▁nagy	-10.7492
▁kritik	-10.7492
▁σημαντική	-10.7494
ap	-10.7494
▁lungo	-10.7498
▁όλους	-10.7504
▁participation	-10.7509
ικά	-10.7513
▁breve	-10.7514
U	-10.7516
▁nové	-10.7517
▁ti	-10.7518
cur	-10.7519
ać	-10.7519
nom	-10.7521
▁synes	-10.7522
▁návrhu	-10.7534
vor	-10.7535
mento	-10.7537
▁kus	-10.7544
▁juist	-10.7552
▁ersten	-10.7552
▁styrke	-10.7555
▁kampen	-10.7556
▁fakt	-10.7558
▁možné	-10.7558
▁kteří	-10.7559
ti,	-10.756
▁totale	-10.7563
▁öka	-10.7564
▁möjlighet	-10.7566
▁importanti	-10.7569
▁each	-10.7569
▁Questa	-10.757
▁(FI)	-10.7573
▁económico	-10.7575
▁Uniti	-10.7577
▁région	-10.7578
▁viser	-10.7578
▁red	-10.758
▁committee	-10.758
▁différents	-10.7582
rii	-10.7583
▁rättsliga	-10.7584
zza	-10.7584
▁fem	-10.7589
▁rent	-10.7589
▁teljes	-10.7589
form	-10.7589
är	-10.7591
▁gen	-10.7593
▁Če	-10.7595
▁paix	-10.7599
▁såsom	-10.7601
▁gestione	-10.7603
▁politikos	-10.7605
owi	-10.7605
▁interés	-10.7607
▁sz	-10.7608
ü	-10.7609
▁Um	-10.7609
▁βάση	-10.7613
▁Ausschuss	-10.7613
▁Ausschusses	-10.7613
▁ramen	-10.7614
▁Daher	-10.7622
stra	-10.7624
▁verzoek	-10.7624
▁komisjon	-10.7625
iendo	-10.7626
▁tel	-10.7627
ace	-10.7628
▁relevant	-10.7628
▁υπο	-10.7629
ria	-10.7631
▁creare	-10.7634
▁seguito	-10.7635
cht	-10.7635
▁säger	-10.7637
▁economico	-10.7638
▁mert	-10.7638
uose	-10.7641
р	-10.7641
▁najmä	-10.7641
▁nėra	-10.7643
▁concerns	-10.7643
▁industry	-10.7644
ymi	-10.7646
▁statut	-10.7648
▁agricole	-10.7649
▁dvs.	-10.7651
▁progrès	-10.7651
▁Parlement,	-10.7652
▁rozvoj	-10.7653
▁neid	-10.7653
▁getroffen	-10.7656
▁budú	-10.7657
ker	-10.7658
▁důležité	-10.7658
ха	-10.766
▁ευρωπαϊκή	-10.7664
ism	-10.7665
▁itself	-10.7666
▁teha	-10.7666
vers	-10.7667
dig	-10.7668
par	-10.7668
▁dôležité	-10.767
▁Gli	-10.767
▁while	-10.7671
▁Government	-10.7671
▁ένας	-10.7671
▁pur	-10.7672
▁millioner	-10.7672
▁ritengo	-10.7677
▁Polen	-10.7677
▁souvent	-10.7677
▁Verhandlungen	-10.7678
▁ils	-10.7679
▁Ziele	-10.7679
ov,	-10.7684
▁products	-10.7685
▁rättigheterna	-10.7686
▁resultaten	-10.7687
ś	-10.7687
▁punkter	-10.7689
cí	-10.769
▁vorm	-10.7693
▁müssen.	-10.7697
and	-10.7698
▁stellt	-10.7699
▁Afghanistan	-10.77
▁Vertrag	-10.7702
▁geachte	-10.7702
▁Európske	-10.7705
▁είμαστε	-10.7707
▁Låt	-10.7707
▁financement	-10.7708
▁Vad	-10.7708
▁między	-10.7709
▁funds	-10.771
▁former	-10.771
ére	-10.7712
▁anders	-10.7712
▁helyzet	-10.7715
▁hea	-10.7716
hu	-10.7717
▁miembro	-10.772
▁σύστημα	-10.772
▁bedrijven	-10.772
▁abychom	-10.7723
▁années	-10.7724
▁tillsammans	-10.7726
▁Abkommen	-10.7726
▁afgelopen	-10.7728
▁wijzen	-10.7729
▁high	-10.7729
▁membro	-10.7729
ské	-10.7732
▁μη	-10.7733
▁през	-10.7734
▁savu	-10.7741
▁competition	-10.7745
▁sicher	-10.7746
▁skridt	-10.775
▁sidan	-10.775
▁democracia	-10.7751
▁peace	-10.7754
ují	-10.7758
▁více	-10.7759
▁zdaj	-10.776
test	-10.7762
ente	-10.7764
▁power	-10.7766
▁cieľom	-10.7768
▁werknemers	-10.7769
▁Grundlage	-10.7769
▁längre	-10.777
▁concorrenza	-10.7772
gre	-10.7772
▁kommissær	-10.7773
▁túto	-10.7774
▁nich	-10.7776
▁Verfahren	-10.7776
▁denke	-10.7777
bare	-10.7782
▁progressi	-10.7783
zo	-10.7783
▁adoptar	-10.7787
▁pi	-10.7788
▁liikmesriikide	-10.7789
▁souhaite	-10.779
▁gesagt	-10.7792
▁dacă	-10.7792
▁permanente	-10.7793
▁članice	-10.7797
▁estrema	-10.7797
ρα	-10.7799
▁población	-10.78
▁esfuerzos	-10.7804
eur	-10.7807
▁involved	-10.7807
▁single	-10.7812
▁oog	-10.7813
▁země	-10.7813
owania	-10.7813
▁recente	-10.7814
na,	-10.7816
▁onderwerp	-10.7818
tte	-10.7818
▁coordination	-10.782
▁aceste	-10.7821
▁3.	-10.7822
▁χωρών	-10.7828
▁nuvarande	-10.783
▁einigen	-10.783
▁juba	-10.7831
▁patent	-10.7832
▁oro	-10.7833
▁μελών	-10.7834
▁rien	-10.7835
▁poner	-10.7836
▁commerce	-10.784
▁domaines	-10.7842
rod	-10.7842
▁zejména	-10.7848
▁waarvan	-10.7851
▁totalmente	-10.7853
▁minska	-10.7853
stan	-10.7856
▁siekiant	-10.7857
▁στιγμή	-10.7857
▁sp	-10.7859
▁celui	-10.7861
▁había	-10.7861
ub	-10.7863
že	-10.7864
O	-10.7867
▁dado	-10.7868
uit	-10.7869
▁qu'une	-10.7869
▁relaciones	-10.7872
▁по-	-10.7875
▁institution	-10.7878
okat	-10.7879
▁razón	-10.7879
9	-10.7879
▁2012	-10.7886
▁rappresenta	-10.7887
▁list	-10.7888
▁Cámara	-10.7891
▁πλέον	-10.7892
▁Markt	-10.7895
▁comunitaria	-10.7897
▁toepassing	-10.7899
▁faptul	-10.79
▁notwendig	-10.7901
▁Schulz	-10.7902
▁framsteg	-10.7904
ista	-10.7906
▁domanda	-10.7909
▁længere	-10.7911
▁illegal	-10.7913
▁visas	-10.7916
▁närvarande	-10.7918
▁rural	-10.7918
▁aucune	-10.792
▁termes	-10.792
▁leg	-10.7922
▁svoj	-10.7923
▁kollega	-10.7924
▁direkte	-10.7924
▁formand	-10.7924
▁krize	-10.7925
ti.	-10.7927
▁temat	-10.7928
▁dell’Unione	-10.7929
uma	-10.7931
ga,	-10.7934
▁alternative	-10.7937
▁finansiering	-10.7937
▁vero	-10.7938
▁empleo	-10.7939
▁trh	-10.794
▁valuta	-10.7942
▁leta	-10.7943
▁wichtige	-10.7944
▁medlemsstat	-10.7945
iv	-10.7945
▁Bei	-10.7946
▁permanent	-10.7949
▁át	-10.7951
▁vengono	-10.7952
▁données	-10.7959
▁forse	-10.7959
▁aspekter	-10.7961
▁beiden	-10.7964
▁vedno	-10.7965
▁działania	-10.7967
▁democrazia	-10.7974
▁langt	-10.7975
rait	-10.7976
▁gemacht	-10.7977
▁г.	-10.7979
▁crecimiento	-10.798
▁objectives	-10.7981
▁röstade	-10.7981
▁politiek	-10.7982
▁medel	-10.7983
▁temu	-10.7986
▁signora	-10.7987
▁προτάσεις	-10.7988
▁Fören	-10.7992
▁talar	-10.7993
ordförandeskapet	-10.7993
▁bedanken	-10.7994
▁noodzakelijk	-10.7999
▁continua	-10.8004
▁migliorare	-10.8005
▁dagli	-10.8005
▁eriti	-10.8005
▁avait	-10.8005
▁riforma	-10.8007
▁zlasti	-10.8007
▁deputati	-10.8011
tik	-10.8015
▁telle	-10.8016
▁consumatori	-10.8016
▁november	-10.8019
▁punti	-10.802
▁borgerne	-10.802
▁trouver	-10.8022
▁gebracht	-10.8022
▁300	-10.8023
▁samtidig	-10.8023
▁général	-10.8024
▁toutefois	-10.8029
▁poolt	-10.803
▁zato	-10.803
mus	-10.803
▁steht	-10.8032
▁d'accord	-10.8033
▁regions	-10.8035
▁systeem	-10.8036
▁growth	-10.8039
▁affaires	-10.804
▁Regionen	-10.804
nym	-10.804
▁attenzione	-10.804
▁General	-10.8042
▁All	-10.8042
▁having	-10.805
▁Parlamendi	-10.8051
▁stehen	-10.8054
▁είχε	-10.8055
▁terwijl	-10.8056
▁collègues	-10.8057
▁omkring	-10.8059
▁report.	-10.8059
▁todėl	-10.8061
▁mieux	-10.8063
▁άποψη	-10.8064
▁interest	-10.8065
▁Bruxelles	-10.8065
▁adgang	-10.8067
▁asupra	-10.8068
▁consumenten	-10.8068
▁πραγματικά	-10.8073
▁raporti	-10.8074
▁lika	-10.8076
▁Με	-10.8078
nen	-10.8079
▁n.	-10.8082
▁Gaza	-10.8083
▁tyto	-10.8092
ása	-10.8092
▁κατα	-10.8093
▁sent	-10.8093
şi	-10.8093
I	-10.8096
▁leiden	-10.8098
▁aura	-10.8101
▁renforcer	-10.8101
▁L’	-10.8101
ini	-10.8102
▁έτσι	-10.8104
▁Central	-10.811
▁inre	-10.8112
▁Erweiterung	-10.8114
▁attraverso	-10.8114
▁mo	-10.8116
▁infatti	-10.8117
▁gar	-10.8119
▁principes	-10.812
▁opnå	-10.812
▁administrative	-10.8123
tet	-10.8128
▁insieme	-10.8129
▁genau	-10.8132
lé	-10.8133
▁companies	-10.8135
ft	-10.8136
▁dohody	-10.8139
▁ningún	-10.8142
sektor	-10.8145
▁hinaus	-10.8147
▁Barroso,	-10.815
▁Lisbon	-10.815
ség	-10.8151
▁siendo	-10.8152
▁vaak	-10.8156
▁misma	-10.8156
▁lequel	-10.8157
▁fully	-10.8161
▁gilt	-10.8162
ijo	-10.8164
▁zde	-10.8164
▁solche	-10.8165
▁τους.	-10.8166
▁byl	-10.8168
▁liv	-10.8171
▁beste	-10.8172
▁voie	-10.8172
▁azioni	-10.8173
▁possibilité	-10.8175
ában	-10.8176
ând	-10.8176
▁üks	-10.8178
▁aktiv	-10.8182
▁efecto	-10.8184
▁svarīgi	-10.8185
▁produzione	-10.8188
▁commissie	-10.8189
▁créer	-10.8192
▁dringend	-10.8196
▁majority	-10.8197
ával	-10.8199
▁oluline	-10.8199
▁décisions	-10.8202
kar	-10.8202
▁konkurrence	-10.8203
▁fest	-10.8206
▁conjunto	-10.8208
lang	-10.8209
▁członkowskich	-10.821
▁texto	-10.8216
▁uppnå	-10.8219
▁prawa	-10.8222
▁membres.	-10.8223
▁región	-10.8224
▁werken	-10.8225
▁področju	-10.8226
▁Tribunal	-10.8226
▁vogliamo	-10.8226
▁objective	-10.8227
▁tutta	-10.8235
ση	-10.8235
▁których	-10.8235
▁res	-10.8238
▁oplysninger	-10.8239
ată	-10.824
▁demander	-10.825
▁Kyoto	-10.8251
▁ninguna	-10.8252
▁nok	-10.8255
▁forbedre	-10.8259
▁diálogo	-10.8259
▁sprake	-10.826
▁único	-10.8261
▁sysselsättning	-10.8261
dan	-10.8262
▁Ukraine	-10.8263
▁tax	-10.8264
▁medlem	-10.8267
ac	-10.8268
▁Institutionen	-10.827
▁adopt	-10.827
▁yet	-10.8275
▁bring	-10.8277
▁toegang	-10.8278
▁ούτε	-10.8284
▁doute	-10.8285
▁2013	-10.8288
▁tým	-10.8288
▁bestaan	-10.829
▁κοινή	-10.8291
▁Tatsache	-10.8295
eniu	-10.8298
▁øjeblikket	-10.8299
▁eest	-10.83
▁gemensam	-10.83
▁saistībā	-10.8301
▁väg	-10.8302
▁klima	-10.8305
▁quality	-10.8306
ilo	-10.8307
▁reformer	-10.831
▁meest	-10.831
▁amendment	-10.831
▁Président	-10.8311
▁Ευρώπης	-10.8311
▁μεγάλη	-10.8314
▁myndigheder	-10.8317
bil	-10.8318
▁Let	-10.832
▁dove	-10.832
vat	-10.8321
▁illegale	-10.8323
▁valstu	-10.8323
▁lograr	-10.8323
▁άλλη	-10.8326
▁objectif	-10.8328
▁importanza	-10.8328
▁genomföra	-10.8332
▁PPE	-10.8332
▁s-a	-10.8334
▁Vereinigte	-10.8334
eze	-10.8337
▁ringraziare	-10.8338
cen	-10.8339
▁Denna	-10.8347
me,	-10.8348
▁plazo	-10.8348
▁einfach	-10.8349
▁resulta	-10.835
▁Κ	-10.8351
▁vise	-10.8351
▁étant	-10.8352
▁Gemeenschap	-10.8353
▁st	-10.8355
▁práctica	-10.8355
▁beim	-10.8358
gar	-10.836
▁във	-10.836
▁maakt	-10.8361
▁Toutefois	-10.8361
▁πρόγραμμα	-10.8363
▁discussions	-10.8365
▁verordening	-10.8365
▁vrij	-10.8367
▁tomu,	-10.8368
▁Bevölkerung	-10.837
▁garantera	-10.837
▁tidspunkt	-10.8373
▁kde	-10.8376
▁spesso	-10.8378
▁quelli	-10.838
té	-10.8383
▁weitere	-10.8385
▁sostenere	-10.8385
▁lever	-10.8386
▁valor	-10.8389
▁proposito	-10.839
▁trattato	-10.839
▁Pe	-10.8391
ικό	-10.8392
▁majd	-10.8392
▁résultats	-10.8397
▁Κατά	-10.8398
▁stap	-10.84
▁Parlamento.	-10.8401
šanas	-10.8407
▁Parlement.	-10.8408
▁συμ	-10.8411
▁acuerdos	-10.8412
▁kræver	-10.8413
▁salute	-10.8419
▁potrebné	-10.842
▁steg	-10.842
▁lokale	-10.8421
▁juste	-10.8421
▁uniós	-10.8422
▁dámy	-10.8424
▁Auswirkungen	-10.8427
tam	-10.8428
▁Hay	-10.8428
▁Zij	-10.8429
▁contesto	-10.8432
▁supuesto	-10.8433
▁eelarve	-10.8435
▁d'être	-10.8436
▁mañana	-10.8439
▁mar	-10.844
▁pravic	-10.8442
▁modern	-10.8443
art	-10.8445
▁children	-10.8446
ať	-10.8447
▁år,	-10.8448
▁Frontex	-10.8448
▁sede	-10.8448
▁opfattelse	-10.8449
▁kann,	-10.8452
▁werde	-10.8456
▁d'abord	-10.8459
ži	-10.8459
▁tika	-10.846
▁ampliación	-10.8462
▁Of	-10.8462
▁δυνατότητα	-10.8462
▁following	-10.8464
▁άλλα	-10.8464
▁puedan	-10.8465
▁mandato	-10.8466
▁sé	-10.8468
▁Bo	-10.8469
▁zusammen	-10.8471
nunk	-10.8486
▁agricultural	-10.8486
▁standards	-10.8491
▁obiettivo	-10.8493
▁Roma	-10.8494
▁moyens	-10.8495
▁consensus	-10.8496
▁include	-10.8496
▁costi	-10.8496
ilor	-10.8497
▁dames	-10.8498
▁producción	-10.8498
▁normativa	-10.8498
θεί	-10.8499
miseks	-10.8499
▁medios	-10.85
▁inform	-10.85
▁create	-10.8501
▁uzskatu	-10.8501
▁majorité	-10.8502
▁vergadering	-10.8502
▁esempio,	-10.8504
▁democracy	-10.8505
▁concept	-10.8507
▁migliore	-10.8507
▁appropriate	-10.8509
▁chance	-10.8509
▁elnök	-10.8515
▁tala	-10.8516
▁virksomheder	-10.8517
▁peut-être	-10.8517
▁sei	-10.8518
▁celle	-10.8519
ových	-10.852
▁teisių	-10.8521
▁vooruitgang	-10.8526
mp	-10.8527
▁passo	-10.8527
ime	-10.853
▁membri.	-10.853
ák	-10.8532
ice	-10.8533
ük	-10.8535
▁gennemføre	-10.8536
▁éxito	-10.8536
▁solutions	-10.8536
▁vien	-10.8537
▁nombreuses	-10.8538
▁miembros.	-10.8541
▁πολλές	-10.8543
▁punten	-10.8543
▁krok	-10.8547
fin	-10.8548
heit	-10.8548
γ	-10.8548
▁misura	-10.855
▁conseguir	-10.8552
▁européen.	-10.8553
▁periode	-10.8553
▁forslaget	-10.8554
▁dem,	-10.8556
▁permettre	-10.8557
▁nécessaires	-10.8557
▁continuare	-10.856
car	-10.856
▁σημείο	-10.8562
▁προσ	-10.8562
▁cierto	-10.8563
▁datos	-10.8564
▁Taip	-10.8565
▁Comisaria	-10.8565
▁september	-10.857
▁samband	-10.857
stellen	-10.8571
por	-10.8574
▁States,	-10.8574
▁Republik	-10.8574
▁Uniunea	-10.8576
▁certainly	-10.8577
ním	-10.858
▁ajal	-10.8582
D	-10.8583
▁mohli	-10.8583
▁kvinder	-10.8584
ίας	-10.8584
▁land,	-10.8585
õ	-10.8585
▁Court	-10.8587
▁quant	-10.8588
▁opnieuw	-10.8593
▁limit	-10.8593
pen	-10.8596
van	-10.8599
▁hög	-10.8601
▁Interesse	-10.8606
▁urmare	-10.8606
▁videre	-10.8609
▁sean	-10.8612
R	-10.8617
ust	-10.8621
▁Tāpēc	-10.8622
ése	-10.8623
ob	-10.8624
▁grupper	-10.8626
▁snart	-10.8626
▁šio	-10.8632
▁resultados	-10.8633
▁abi	-10.8634
ets	-10.8635
▁Πιστεύω	-10.8637
▁aš	-10.8638
▁intervention	-10.8639
▁publique	-10.8643
▁Turkije	-10.8643
▁Finanz	-10.8647
▁3,	-10.8648
▁interessi	-10.8649
▁všetkých	-10.865
▁návrhy	-10.8651
▁diferentes	-10.8653
▁maniera	-10.8653
▁positivt	-10.8655
▁iedereen	-10.8657
▁Preto	-10.8657
hat	-10.8659
re,	-10.8659
▁decisioni	-10.8659
dien	-10.8661
▁osa	-10.8665
▁union	-10.8667
▁Daar	-10.8667
vá	-10.8668
държавите-членки	-10.8669
▁strumento	-10.8669
▁unser	-10.8672
▁posibilidad	-10.8676
ότητα	-10.8677
▁Ett	-10.8678
▁pomembno	-10.8678
▁gruppi	-10.868
▁välkomnar	-10.8681
▁priority	-10.8684
▁næste	-10.8689
▁ρόλο	-10.869
industrie	-10.8692
▁financiación	-10.8693
▁relativo	-10.8694
▁natural	-10.8698
▁refiere	-10.8699
ίες	-10.8704
▁hjælp	-10.8706
ře	-10.871
▁ország	-10.8711
▁dezelfde	-10.8711
▁kunde	-10.8715
isch	-10.8715
▁πολλά	-10.8716
▁μέχρι	-10.8721
liche	-10.8721
▁chiaro	-10.8722
▁choses	-10.8722
▁true	-10.8723
nci	-10.8723
▁offer	-10.8723
▁Ausdruck	-10.8724
▁simply	-10.8726
▁dialoog	-10.8727
▁aga	-10.8728
▁Zugang	-10.8729
▁αντι	-10.8729
▁Beschäftigung	-10.8731
-S	-10.8731
pre	-10.8732
ose	-10.8741
ας	-10.8741
▁extremely	-10.8742
▁deuxième	-10.8742
▁Europejska	-10.8744
▁accords	-10.8746
▁application	-10.8747
▁engagement	-10.8753
▁dag,	-10.8756
ija	-10.8759
▁δε	-10.8759
▁kirjalikult.	-10.8759
▁profit	-10.8766
▁skatte	-10.8766
▁decisions	-10.8767
▁ait	-10.8767
▁Spanien	-10.8768
▁kl.	-10.877
▁middel	-10.877
▁propri	-10.8772
▁aangezien	-10.8775
pri	-10.8776
▁essa	-10.8776
▁quelque	-10.8777
▁devraient	-10.8777
▁tuto	-10.8777
▁darum	-10.8778
▁riigi	-10.878
▁daarvan	-10.8783
▁européen,	-10.8784
us.	-10.8786
▁ACP	-10.8787
▁Comisión,	-10.8789
▁bene	-10.879
▁produkt	-10.8791
▁act	-10.8794
ság	-10.8796
▁ejercicio	-10.8801
▁γιατί	-10.8801
▁wurde.	-10.8803
▁seneste	-10.8808
▁ktorú	-10.8808
▁Informationen	-10.881
▁sue	-10.8815
stru	-10.8818
▁job	-10.8818
▁rör	-10.8819
▁atbalstu	-10.8821
▁alcun	-10.8822
▁commercio	-10.8824
▁année	-10.8826
▁τροπολογίες	-10.8828
▁creazione	-10.883
▁seule	-10.8832
▁ευρώ	-10.8833
▁kommende	-10.8833
▁termijn	-10.8834
dz	-10.8836
emu	-10.8837
▁Article	-10.8838
▁vrijheid	-10.884
▁sottolineare	-10.8842
▁presentato	-10.8842
▁ebenfalls	-10.8844
hand	-10.8849
▁réalité	-10.8849
▁annan	-10.8849
▁szeretném	-10.885
▁dotyczące	-10.8851
▁mellett	-10.8853
▁dice	-10.8856
ió	-10.8856
▁όλοι	-10.8857
▁normes	-10.8861
▁giustizia	-10.8865
▁führen	-10.8868
▁agreements	-10.8869
ovej	-10.8871
▁Mo	-10.8873
▁buiten	-10.8873
ért	-10.8874
▁sto	-10.8874
jem	-10.8878
ana	-10.8878
stu	-10.8879
▁aware	-10.888
▁krävs	-10.8881
▁often	-10.8885
▁Uniunii	-10.8888
▁Francia	-10.8888
rna	-10.8891
▁vielen	-10.8893
▁ultimi	-10.8894
▁fraude	-10.8895
sal	-10.8895
▁Programm	-10.8895
ssystem	-10.8896
▁sprawozdania	-10.8897
▁Mijn	-10.8897
▁kommt	-10.8898
▁ro	-10.89
qu	-10.89
▁Når	-10.8901
ří	-10.8901
▁staterna	-10.8904
▁mogelijkheid	-10.8905
▁workers	-10.8905
▁problémy	-10.8906
▁Αν	-10.8906
▁Sch	-10.8909
▁emberi	-10.891
▁maj	-10.891
▁gospod	-10.8919
▁acquis	-10.892
▁ešte	-10.8923
▁κυρίως	-10.8923
▁Av	-10.8924
▁dort	-10.8925
▁kapital	-10.8927
▁svarbu	-10.8929
vet	-10.893
▁следва	-10.893
ai,	-10.893
▁sort	-10.893
▁Kan	-10.8931
▁kinderen	-10.8934
▁въпрос	-10.8937
▁simplement	-10.8937
▁titre	-10.8938
dom	-10.894
▁közötti	-10.8942
έ	-10.8942
▁Enfin	-10.8944
system	-10.8944
▁kommissionär	-10.8946
▁zurück	-10.8949
▁vaja	-10.8952
isk	-10.8954
▁Form	-10.8955
▁acerca	-10.8959
▁PPE-DE	-10.896
▁jasno	-10.8961
▁weniger	-10.8963
▁børn	-10.8964
▁problem.	-10.8965
▁evitar	-10.8969
▁countries.	-10.897
▁E’	-10.8973
▁dell'onorevole	-10.8973
▁τομείς	-10.8973
▁kontroll	-10.8974
▁personale	-10.8974
▁parlamenti	-10.8975
▁geleden	-10.8976
▁bolj	-10.8979
▁време	-10.898
▁strumenti	-10.8982
▁groupes	-10.8984
▁principios	-10.8985
iteit	-10.8985
▁kräver	-10.8986
▁sådant	-10.8988
ht	-10.899
ιών	-10.899
▁område.	-10.899
▁establecer	-10.8991
▁jim	-10.8992
▁viena	-10.8993
▁juhataja!	-10.8997
▁G20	-10.8998
▁komen.	-10.8999
▁spor	-10.9002
▁réforme	-10.9003
▁σημασία	-10.9005
nja	-10.9007
▁fuldt	-10.9007
▁projets	-10.9008
▁Forschung	-10.9009
▁reducir	-10.9011
▁beispielsweise	-10.9016
▁ordförande	-10.9018
▁ασφάλεια	-10.9021
▁å	-10.903
▁šalių	-10.9031
▁analyse	-10.9031
amo	-10.9032
vez	-10.9032
▁hora	-10.9032
▁válság	-10.9037
▁grond	-10.9037
▁ofta	-10.9038
▁considerable	-10.9039
▁skydd	-10.904
▁organisation	-10.9042
▁posti	-10.9047
▁kuras	-10.9047
▁buena	-10.9048
▁tycker	-10.905
G	-10.9051
▁entendu	-10.9051
▁utvecklingen	-10.9051
▁αρχή	-10.9051
▁cadrul	-10.9052
▁jde	-10.9052
▁six	-10.9052
▁φορά	-10.9052
▁dinero	-10.9054
▁escala	-10.9054
▁fight	-10.9059
▁linea	-10.9062
▁lidt	-10.9066
▁popolazione	-10.9067
▁Förderung	-10.9067
▁tenido	-10.9068
ungen	-10.907
▁ψηφοφορία	-10.9078
▁przed	-10.9079
ευ	-10.908
▁οδηγία	-10.9081
▁commun	-10.9081
▁cost	-10.9082
▁fog	-10.9083
▁alltså	-10.9085
▁Ra	-10.9089
▁groups	-10.9094
▁tato	-10.9098
ito	-10.9099
▁behandling	-10.9106
▁besser	-10.9107
▁пре	-10.9108
▁visų	-10.9109
▁essentiel	-10.9111
▁partir	-10.9111
▁αποτέλεσμα	-10.9112
▁avuto	-10.9113
▁sag	-10.9113
▁vprašanje	-10.9113
▁fått	-10.9114
▁ορισμένες	-10.9115
ierung	-10.9117
ár	-10.9121
▁égard	-10.9122
▁fiscale	-10.9122
sto	-10.9127
▁unei	-10.913
ld	-10.9132
▁combat	-10.9135
▁høj	-10.9138
▁formål	-10.9142
▁forhandling	-10.9147
▁Meine	-10.9149
▁Και	-10.9149
▁keinen	-10.915
▁reduce	-10.915
▁sistemi	-10.9154
ość	-10.9154
overensstemmelse	-10.9161
▁Turquía	-10.9161
▁inspanningen	-10.9162
ru	-10.9164
▁legislazione	-10.9165
▁stability	-10.9167
▁vert	-10.9168
▁møde	-10.9169
ona	-10.9169
▁l’a	-10.9171
▁mens	-10.9172
▁eget	-10.9177
▁dovrebbero	-10.9179
▁ellen	-10.9179
▁gevolg	-10.9181
▁qualche	-10.9181
▁ledamöter	-10.9181
▁ban	-10.9181
pp	-10.9182
▁consommateurs	-10.9182
▁responsable	-10.9182
▁motor	-10.9184
▁пред	-10.9185
▁vækst	-10.9186
▁enkel	-10.9186
▁bedeutet	-10.9186
▁poate	-10.9187
▁Turquie	-10.9188
▁comunicación	-10.919
dele	-10.9193
rig	-10.9194
nce	-10.9196
P	-10.9197
jen	-10.9198
▁πω	-10.9199
▁actually	-10.92
▁ilyen	-10.9204
▁Text	-10.9205
▁pra	-10.9206
▁troppo	-10.9207
▁qu'un	-10.9207
▁άλλες	-10.9208
▁Unite	-10.9209
▁gode	-10.921
▁parlementaire	-10.9211
▁San	-10.9211
▁opatrenia	-10.9212
▁Dlatego	-10.9212
▁Credo	-10.9213
ario	-10.9213
▁ние	-10.9218
▁algemeen	-10.9219
▁compromise	-10.922
itu	-10.9221
▁faktum	-10.9222
▁developing	-10.9222
▁utbildning	-10.9223
▁vision	-10.9224
▁Türkei	-10.9229
handel	-10.9229
▁might	-10.923
▁laikā	-10.9231
▁seotud	-10.9232
▁devrions	-10.9236
▁society	-10.9236
ń	-10.9237
▁mantener	-10.9238
▁müssen,	-10.9239
▁rösta	-10.9242
▁givet	-10.9243
▁angenommen	-10.9245
▁ευκαιρία	-10.9252
▁ochranu	-10.9252
▁раз	-10.9254
▁tomar	-10.9254
▁két	-10.9254
▁под	-10.9255
ným	-10.9258
▁pública	-10.9258
▁Gebiet	-10.926
▁Mes	-10.926
▁valutazione	-10.9261
▁conclusions	-10.9261
▁vist	-10.9261
▁ίδια	-10.9261
▁1994	-10.9263
▁Unionen	-10.9263
▁negative	-10.9264
▁play	-10.9266
tól	-10.9268
▁gav	-10.9269
ans	-10.9273
▁passé	-10.9274
▁Behörden	-10.9276
▁coloro	-10.928
▁necesitamos	-10.9281
▁Αυτή	-10.9282
▁Ahora	-10.9282
▁enlargement	-10.9286
eni	-10.9288
poliitika	-10.929
▁improve	-10.9293
aux	-10.9294
▁sehen	-10.9295
▁Nos	-10.9303
▁världen	-10.9303
▁fort	-10.9304
▁betænkning,	-10.9306
▁Antwort	-10.9306
▁possano	-10.9306
▁viss	-10.9312
▁paso	-10.9312
▁ondernemingen	-10.9314
▁resto	-10.9317
▁Ritengo	-10.9317
▁avanti	-10.9318
▁szükség	-10.9318
▁successo	-10.9318
▁esos	-10.9318
▁trasporto	-10.9319
▁penge	-10.932
▁verschiedenen	-10.9321
san	-10.9324
▁arba	-10.9324
▁akik	-10.9324
tan	-10.9326
▁Russie	-10.9328
▁gospe	-10.9329
▁Unidos	-10.9329
▁hatte	-10.9331
▁environment	-10.9332
▁lista	-10.9332
ību	-10.9333
▁maggioranza	-10.9334
▁democratische	-10.9339
▁befolkningen	-10.9341
▁manau	-10.9346
eerd	-10.9347
▁term	-10.9351
▁fattigdom	-10.9353
▁promuovere	-10.9354
▁You	-10.9354
ese	-10.9355
▁últimos	-10.9357
▁gehouden	-10.9357
▁Programme	-10.9358
▁Industrie	-10.9359
▁członkowskie	-10.936
▁Schaffung	-10.9361
uši	-10.9364
▁progetti	-10.9365
▁dag.	-10.9365
▁nr.	-10.9367
▁třeba	-10.9367
▁ofte	-10.9369
▁pres	-10.9373
▁New	-10.9373
▁skydda	-10.9373
▁mít	-10.9375
ovali	-10.9375
▁management	-10.9375
▁dessen	-10.9376
▁lepingu	-10.9381
▁bijdrage	-10.9382
▁Proto	-10.9384
▁akkor	-10.9384
rie	-10.9384
▁π	-10.9387
▁meglio	-10.9389
▁δηλαδή	-10.9391
▁jie	-10.9392
▁nekā	-10.9393
▁eigenen	-10.9393
▁със	-10.9393
▁humanitaire	-10.9393
▁volte	-10.9394
▁dall'	-10.9395
▁stop	-10.9396
▁Gerb.	-10.9397
▁võimalik	-10.94
▁politike	-10.9401
ené	-10.9401
▁belangen	-10.9401
▁nationaux	-10.9402
remo	-10.9404
▁κάνει	-10.941
▁field	-10.9412
▁exemple,	-10.9419
▁lijkt	-10.9421
▁responsables	-10.9422
▁pracy	-10.9423
fa	-10.9424
▁soziale	-10.9426
▁Disse	-10.9429
▁rendszer	-10.9433
▁galima	-10.9433
over	-10.9435
▁presentar	-10.9437
▁astfel	-10.9438
▁difícil	-10.9438
▁δι	-10.9441
▁delegation	-10.9443
▁mentioned	-10.9447
▁soort	-10.9447
▁richiesta	-10.9447
▁regio	-10.9448
▁Επίτροπε,	-10.9451
▁Ryssland	-10.9451
aire	-10.9453
▁forum	-10.9454
▁understand	-10.9458
▁financière	-10.9458
▁producten	-10.9459
▁message	-10.946
▁available	-10.9462
▁državah	-10.9466
▁vej	-10.9468
▁hebben.	-10.9468
▁kontakt	-10.9472
▁moral	-10.9473
▁vale	-10.9476
▁meeting	-10.9479
▁Beziehungen	-10.948
▁když	-10.9481
▁erreicht	-10.9483
ă.	-10.9485
▁marchés	-10.9487
íme	-10.949
▁promote	-10.949
ήσει	-10.9494
▁kterou	-10.9494
▁pak	-10.9495
▁sådana	-10.9496
▁πολιτών	-10.9496
▁seinen	-10.95
▁futuro.	-10.95
▁ALDE	-10.9501
▁technische	-10.9501
▁stedet	-10.9503
▁ans	-10.9504
▁principales	-10.9504
ats	-10.9505
▁comunicazione	-10.9506
▁vel	-10.9506
lle	-10.9508
ajām	-10.951
▁consumidores	-10.9512
jos	-10.9512
▁genere	-10.9514
▁svolto	-10.9515
▁beskytte	-10.9516
▁ordet	-10.9516
▁Turchia	-10.9517
▁puhul	-10.9519
▁dabar	-10.952
▁Kinder	-10.9522
▁råd	-10.9523
▁nytt	-10.9525
▁prendere	-10.9525
▁pomoci	-10.9527
▁stabilità	-10.9527
ations	-10.9528
▁akkoord	-10.953
▁terecht	-10.953
▁suite	-10.9532
▁debba	-10.9532
▁gericht	-10.9532
pl	-10.9537
▁Parliament,	-10.9538
▁synnerhet	-10.9538
▁bardziej	-10.954
▁riferimento	-10.954
▁approche	-10.9542
▁ambiente	-10.9543
sam	-10.9543
▁indeed	-10.9544
▁démocratique	-10.9544
▁territorio	-10.9545
▁fundamentales	-10.9545
▁gegevens	-10.9554
▁público	-10.9559
▁Anwendung	-10.9559
▁hadden	-10.9561
▁Haushalts	-10.9562
▁demasiado	-10.9562
▁vrede	-10.9563
▁Dessa	-10.9569
▁adhesión	-10.9575
▁alto	-10.9576
ums	-10.9577
▁hjælpe	-10.9577
▁rohkem	-10.9577
▁respecta	-10.958
pon	-10.958
▁climate	-10.9581
▁članic	-10.9582
▁demás	-10.9585
▁Barcelona	-10.9586
▁Pertanto	-10.9587
▁akt	-10.9589
▁gegeven	-10.9592
▁Erachtens	-10.9593
ujeme	-10.9596
▁valori	-10.9596
▁Европа	-10.9598
▁Kosten	-10.9599
▁blijft	-10.9599
▁último,	-10.9604
▁ši	-10.9605
▁vielleicht	-10.9608
▁statele	-10.9609
▁session	-10.961
▁členským	-10.961
▁oktober	-10.9612
▁contexto	-10.9612
▁anledning	-10.9613
▁πολιτικές	-10.9616
▁grupo	-10.9616
▁stellen.	-10.9619
▁praegu	-10.9622
▁comisión	-10.9623
▁denken	-10.9624
▁przewodniczący!	-10.9624
▁plat	-10.9625
▁economy	-10.9625
▁equilibrio	-10.9626
▁intérieur	-10.9627
▁още	-10.9629
aci	-10.9631
▁produce	-10.9631
▁intresse	-10.9631
▁casos	-10.9631
▁bevis	-10.9634
umu	-10.9635
▁ľudí	-10.9635
▁rischio	-10.9636
▁l'in	-10.9638
▁aim	-10.9638
▁парламент	-10.964
▁arutelu	-10.9641
▁pisni	-10.9642
▁finanční	-10.9643
▁μέλλον	-10.9643
▁ragione	-10.9644
▁ordförande!	-10.9645
▁Va	-10.9646
▁intérêts	-10.9646
▁Belarus	-10.9648
▁Turkey	-10.9649
ja,	-10.9651
▁liste	-10.9651
uta	-10.9652
▁befolkning	-10.9654
▁risque	-10.9655
▁mission	-10.9655
▁lagt	-10.9655
ami,	-10.9657
▁ensemble	-10.9657
rán	-10.9658
▁discrimination	-10.9659
eid	-10.9659
tter	-10.9661
▁stemmen	-10.9662
▁écrit.	-10.9662
▁currently	-10.9662
▁κυρίες	-10.9665
▁ekonomikos	-10.9668
raz	-10.967
▁istituzioni	-10.9671
▁partes	-10.9671
▁själv	-10.9672
▁Kui	-10.9672
▁l'ensemble	-10.9673
▁européennes	-10.9675
▁misschien	-10.9677
▁Tā	-10.9677
▁St	-10.9678
▁militaire	-10.9678
▁etc.	-10.9679
▁ailleurs	-10.9684
▁επιχειρήσεις	-10.9684
▁¿	-10.9687
▁сме	-10.9692
▁Irlanda	-10.9692
▁herunder	-10.9693
▁International	-10.9694
▁states	-10.9694
▁dispositions	-10.9697
ům	-10.9697
▁ligt	-10.9699
▁dunque	-10.9699
▁ganske	-10.9699
▁byly	-10.9701
▁στόχο	-10.9702
▁Ti	-10.9705
▁Mar	-10.9706
▁Comisión.	-10.9711
▁megfelelő	-10.9713
▁Ω	-10.9715
▁Consiglio,	-10.9716
ké	-10.9716
▁aanzien	-10.9716
▁led	-10.972
▁contexte	-10.9723
▁σύμφωνα	-10.9723
▁woorden	-10.9724
▁minst	-10.9727
▁europee	-10.9728
▁nyní	-10.973
▁Även	-10.9731
▁írásban.	-10.9733
▁terrorismo	-10.9736
▁forces	-10.9737
▁idet	-10.9738
▁collègues,	-10.9739
▁politiku	-10.9739
▁έργο	-10.974
▁geweest	-10.9743
–	-10.9744
parlamentets	-10.9744
▁concerning	-10.9745
▁woord	-10.9747
▁Lad	-10.9748
▁obliki.	-10.9748
▁öffentlichen	-10.9749
▁education	-10.9749
▁kõige	-10.975
▁före	-10.975
▁stabilité	-10.9751
iva	-10.9753
▁Italien	-10.9754
▁razvoj	-10.9755
▁período	-10.9756
▁liberal	-10.9756
▁stemte	-10.9757
▁konsekvenser	-10.976
▁κύριοι,	-10.9761
iet	-10.9761
▁betrekkingen	-10.9761
▁Beitrag	-10.9762
▁stå	-10.9762
▁panu	-10.9765
▁l'accord	-10.9766
▁frente	-10.9767
▁jen	-10.9768
owe	-10.9768
▁tjänster	-10.9768
▁seoses	-10.9772
▁narės	-10.9772
▁Geld	-10.9772
▁motiv	-10.9774
▁stället	-10.9774
▁κρίση	-10.9776
liste	-10.9776
▁vu	-10.9776
▁erforderlich	-10.9776
▁medborgarna	-10.9777
▁sade	-10.9778
▁nekaj	-10.9781
▁prípade	-10.9782
▁parler	-10.9786
cs	-10.9787
▁maken.	-10.9789
▁principale	-10.979
▁hurtigt	-10.979
▁entro	-10.9791
▁ellos	-10.9791
▁consenso	-10.9792
▁raggiungere	-10.9793
▁będą	-10.9793
▁Parlamentul	-10.9793
▁jis	-10.9795
▁pone	-10.9796
▁Martin	-10.9797
▁report,	-10.9797
▁Finally	-10.9802
amento	-10.9803
▁един	-10.9803
▁collega's	-10.9803
▁tvivl	-10.9804
▁tr	-10.9805
▁nell'ambito	-10.9807
▁implica	-10.9813
▁OLAF	-10.9816
▁enfoque	-10.9818
▁Rusia	-10.9818
д	-10.982
▁results	-10.9821
tag	-10.9822
▁bezpečnosti	-10.9824
▁danes	-10.9825
▁Corte	-10.9825
▁actividades	-10.9827
▁unge	-10.9827
▁previsto	-10.9827
σα	-10.9829
aciones	-10.9831
▁ministre	-10.9831
▁Galileo	-10.9831
▁cependant	-10.9835
▁vraiment	-10.9836
▁Standpunkt	-10.9836
▁között	-10.9838
▁Transport	-10.9838
ри	-10.9851
▁euro,	-10.9851
én	-10.9852
хме	-10.9853
▁pubblico	-10.9863
▁l'avenir	-10.9863
▁samfund	-10.9866
▁bekämpa	-10.9868
▁Parlamente	-10.9874
▁geheel	-10.9875
▁ainult	-10.9882
ék	-10.9883
▁helpen	-10.9884
▁skäl	-10.9885
▁Ve	-10.9885
▁riikide	-10.9885
▁font	-10.9886
▁Assemblée	-10.9887
▁äußerst	-10.989
▁gute	-10.9893
▁feel	-10.9894
▁unui	-10.9895
▁παρ	-10.9899
▁held	-10.99
▁aufgrund	-10.9901
▁Schritt	-10.9902
▁enfants	-10.9903
▁unterstützt	-10.9906
▁Anche	-10.9907
▁themselves	-10.9908
...	-10.9908
▁garanti	-10.9908
▁maggior	-10.9912
▁επ	-10.9914
▁största	-10.9914
lichen	-10.9915
▁Bulgaria	-10.9916
▁75	-10.9916
▁key	-10.9917
▁Notwendigkeit	-10.9921
▁initiatief	-10.9922
▁obywateli	-10.9923
▁egne	-10.9925
nik	-10.9929
▁bor	-10.993
▁liberalisering	-10.9933
▁bidra	-10.9933
▁którzy	-10.9935
▁systému	-10.9938
▁γνώμη	-10.9939
▁eneste	-10.9939
▁clair	-10.994
▁sigue	-10.9944
▁innovation	-10.9945
▁Naciones	-10.9945
▁propre	-10.9947
▁προσοχή	-10.9949
▁ståndpunkt	-10.995
▁zonas	-10.995
ii	-10.9952
▁Haus	-10.9953
▁lösning	-10.9954
▁Parlamentas	-10.9955
▁ago	-10.9958
▁months	-10.9958
▁politikas	-10.9959
▁puedo	-10.9961
▁ekonomi	-10.9967
ta.	-10.9968
▁съм	-10.9969
▁kompromiss	-10.9969
eho	-10.9971
▁Kultur	-10.9971
▁hätte	-10.9972
▁Constitution	-10.9972
▁sogar	-10.9973
▁kaasa	-10.9973
▁deren	-10.9974
▁nor	-10.9974
▁což	-10.9974
▁geloof	-10.9975
▁convient	-10.9977
▁strategii	-10.9979
▁evitare	-10.9979
▁quand	-10.998
▁changement	-10.9981
▁vervoer	-10.9986
▁henhold	-10.9987
▁paar	-10.9988
▁(A	-10.9988
▁geweld	-10.9988
▁partijen	-10.9989
ated	-10.9989
▁δημιουργία	-10.9989
ních	-10.999
▁sforzi	-10.999
▁puntos	-10.9991
▁õigus	-10.9992
▁jamais	-10.9992
▁onderwijs	-10.9994
▁delar	-10.9995
▁formation	-11.0002
▁situation.	-11.0002
▁Ομάδας	-11.0004
▁s'il	-11.0005
▁s’	-11.0009
▁existen	-11.001
▁keer	-11.0011
▁ευρωπαϊκό	-11.0011
▁meerderheid	-11.0012
▁tendrá	-11.0014
▁permite	-11.0016
▁διάρκεια	-11.0024
▁utile	-11.0025
▁reca	-11.0026
▁erhalten	-11.0027
▁środków	-11.003
▁raisons	-11.003
▁parter	-11.0031
▁Strasbourg	-11.0033
▁igual	-11.0035
▁prístup	-11.0037
▁ακριβώς	-11.0038
▁Tibet	-11.0039
▁sett	-11.0042
▁respeto	-11.0042
▁подкрепа	-11.0043
▁Δ	-11.0043
▁adottare	-11.0043
▁prevent	-11.0044
▁zin	-11.0045
▁2006.	-11.0045
▁Bekämpfung	-11.0048
▁Bovendien	-11.0048
▁ustedes	-11.0049
▁Bedingungen	-11.0051
▁μεγαλύτερη	-11.0051
▁jó	-11.0054
▁qualsiasi	-11.0054
▁Cour	-11.0054
▁responsible	-11.0056
sku	-11.006
▁Dan	-11.0062
▁pagal	-11.0063
▁palabras	-11.0063
W	-11.0063
▁ottenere	-11.0066
▁sistemas	-11.0066
isering	-11.0066
ama	-11.0074
▁algemene	-11.0076
▁Interessen	-11.0078
▁estado	-11.0078
▁kommissæren	-11.008
gang	-11.008
▁Gospa	-11.008
▁difficoltà	-11.008
ени	-11.008
owych	-11.008
▁krise	-11.0082
▁policy.	-11.0084
▁λοιπόν	-11.0084
▁success	-11.0084
▁offentliga	-11.0085
▁risultato	-11.0087
acji	-11.0088
▁sagt,	-11.0088
▁trovare	-11.009
▁πρώτη	-11.0091
și	-11.0093
▁fair	-11.0095
▁práce	-11.0096
▁d'a	-11.0096
▁nächsten	-11.0097
▁n'y	-11.01
▁past	-11.0101
▁pärast	-11.0102
▁lassen	-11.0103
▁C’est	-11.0106
▁политика	-11.0106
▁Leben	-11.0108
ding	-11.011
▁lehet	-11.0113
▁bereid	-11.0114
▁Dialog	-11.0117
▁niños	-11.0121
▁lesz	-11.0121
▁passer	-11.0123
▁först	-11.0126
▁Myslím	-11.0126
-Parlamentets	-11.0127
▁mesi	-11.0128
▁weit	-11.013
pu	-11.0131
▁industri	-11.0132
▁jautājums	-11.0132
▁Haushalt	-11.0133
▁Vous	-11.0135
▁meet	-11.0135
ov.	-11.0136
▁nemzetközi	-11.014
▁у	-11.0141
▁άλλων	-11.0142
ön	-11.0144
▁μας,	-11.0144
▁Quiero	-11.0144
ší	-11.0145
▁acciones	-11.0145
▁Ju	-11.0149
▁egyik	-11.0152
▁opmærksom	-11.0152
ug	-11.0154
▁žmogaus	-11.0156
▁върху	-11.0158
ajā	-11.0159
▁economisch	-11.016
▁members	-11.016
▁kwaliteit	-11.016
▁waarom	-11.0161
▁alternativ	-11.0162
mit	-11.0164
ieren	-11.0164
▁propia	-11.0165
▁krisen	-11.0165
▁graves	-11.0166
▁nepa	-11.0166
▁commercial	-11.0166
ši	-11.0168
▁vigtigste	-11.0172
▁proyectos	-11.018
▁Grecia	-11.018
▁moderne	-11.018
▁amikor	-11.0181
oli	-11.0181
▁ktorých	-11.0182
▁Indien	-11.0184
▁без	-11.0184
ves	-11.0186
▁ką	-11.0186
▁d.	-11.0188
▁rynku	-11.0188
▁kurių	-11.0189
▁signifie	-11.0192
▁mať	-11.0195
▁Japan	-11.0195
▁Asamblea	-11.0196
▁presentata	-11.02
▁stabilitet	-11.0204
ius	-11.0204
▁Tyrkiet	-11.0205
ningar	-11.0207
▁vás	-11.0207
▁juli	-11.021
▁význam	-11.0211
▁needed	-11.0213
▁lot	-11.0214
▁presentado	-11.0215
nza	-11.0217
ání	-11.0218
▁activités	-11.0218
-e	-11.0221
▁právo	-11.0221
ικές	-11.0223
▁šių	-11.0225
▁un’	-11.0227
ība	-11.0228
▁podle	-11.023
▁kellene	-11.023
szt	-11.0231
umo	-11.0232
ces	-11.0232
alt	-11.0233
▁eksport	-11.0234
▁line	-11.0234
▁bestemmelser	-11.0235
▁afgevaardigden	-11.0236
st.	-11.0237
▁doet	-11.0238
fall	-11.0238
▁κάνουμε	-11.0239
▁deberían	-11.024
▁consumers	-11.0241
▁esprimere	-11.0242
▁thing	-11.0242
ισ	-11.025
net	-11.0251
▁Brok	-11.0252
▁tomu	-11.0253
▁volonté	-11.0253
▁aide	-11.0254
▁între	-11.0254
▁deseo	-11.0257
nünk	-11.0257
▁weiß	-11.0261
▁encontrar	-11.0263
▁elemento	-11.0263
▁Landwirtschaft	-11.0266
▁metų	-11.0267
lar	-11.027
▁infrastruktur	-11.027
▁direction	-11.027
▁siin	-11.0272
▁ander	-11.0274
▁Aan	-11.0275
▁april	-11.0277
▁promotion	-11.0278
▁systems	-11.0278
▁comunque	-11.029
▁others	-11.0292
▁remercie	-11.0293
▁deoarece	-11.0294
▁egna	-11.0294
▁wszystkim	-11.0296
▁områder	-11.0296
▁pension	-11.0296
▁venga	-11.0297
▁molte	-11.0301
om.	-11.0301
▁1990	-11.0302
▁riduzione	-11.0302
▁content	-11.0302
▁extrêmement	-11.0304
▁fuera	-11.0304
▁impegno	-11.031
osť	-11.0311
▁rozhodnutí	-11.0313
▁plutôt	-11.0316
▁ještě	-11.0317
▁bola	-11.0318
▁Commissione.	-11.0319
▁n'ont	-11.0319
▁considera	-11.0319
zij	-11.032
E	-11.032
šu	-11.0322
▁répondre	-11.0323
▁след	-11.0326
vano	-11.0326
▁ekonomikas	-11.0327
▁l'article	-11.0331
▁Tarybos	-11.0331
▁considerazione	-11.0332
▁rendre	-11.0333
▁fiscal	-11.0334
▁budgétaire	-11.0336
▁meses	-11.0336
▁aspetto	-11.0337
▁Finanzierung	-11.0337
▁те	-11.0339
▁vertrouwen	-11.034
▁avgörande	-11.0341
▁riesgo	-11.0343
zia	-11.0344
▁systemet	-11.0348
▁llegar	-11.035
▁hanem	-11.0352
▁autoriteiten	-11.0352
▁võib	-11.0356
▁solidarietà	-11.0357
▁productie	-11.036
▁Fortschritte	-11.0361
▁zemí	-11.0361
▁Rights	-11.0361
▁Gesundheit	-11.0362
▁τότε	-11.0363
▁seconda	-11.0366
▁vý	-11.0366
▁tillbaka	-11.0368
▁Reihe	-11.0368
είται	-11.0368
▁føre	-11.037
▁espero	-11.037
▁vlak	-11.0371
▁Verfassung	-11.0372
▁financiera	-11.0372
▁gente	-11.0373
▁chiaramente	-11.0375
▁hablar	-11.0375
▁doing	-11.0375
▁Comité	-11.0378
dor	-11.0378
▁Alla	-11.0379
▁resultatet	-11.0385
▁országok	-11.0387
▁appelle	-11.0388
▁joint	-11.0392
▁všech	-11.0392
▁helst	-11.0398
▁assolutamente	-11.0399
pos	-11.04
ло	-11.04
ari	-11.0402
em.	-11.0402
rebbe	-11.0402
▁ευχαριστήσω	-11.0403
▁iki	-11.0404
ικής	-11.0405
▁klausimas	-11.0407
▁például	-11.0413
▁constituye	-11.0413
▁com	-11.0414
▁sam	-11.0416
▁solamente	-11.0418
ικών	-11.0419
▁bajo	-11.0421
▁защото	-11.0423
▁Handel	-11.0425
ā,	-11.0426
▁Consejo,	-11.0426
dre	-11.0427
▁Communauté	-11.0427
beleid	-11.043
▁aastal	-11.0431
▁panie	-11.0434
▁assistance	-11.0434
▁With	-11.0434
aal	-11.0435
▁essenziale	-11.0436
▁otázku	-11.0436
▁Rechts	-11.0436
▁organisationer	-11.0436
▁product	-11.044
▁implement	-11.0441
▁specifieke	-11.0442
▁queda	-11.0447
▁Gelegenheit	-11.0448
▁machen	-11.0449
▁entonces	-11.045
▁kwestii	-11.045
▁jābūt	-11.0454
▁všechny	-11.0457
▁Verbesserung	-11.0458
nis	-11.0459
▁může	-11.046
▁einde	-11.046
▁davvero	-11.0465
20	-11.0468
▁capacità	-11.0471
▁arbeta	-11.0472
▁σημαίνει	-11.0473
▁Unidas	-11.0474
ból	-11.0475
▁vidare	-11.0476
▁hervorming	-11.0476
da.	-11.0476
▁meinen	-11.0476
▁formal	-11.0481
eń	-11.0483
▁pré	-11.0484
▁Tyskland	-11.0485
▁4,	-11.0487
▁réduire	-11.0492
▁muligheder	-11.0492
▁leder	-11.0494
▁έπρεπε	-11.0494
▁criteri	-11.0496
▁ezért	-11.0499
▁Krise	-11.0499
▁rend	-11.0499
▁matters	-11.05
ţia	-11.05
owanie	-11.0501
▁Mon	-11.0501
▁mention	-11.0501
▁voeren	-11.0501
rat	-11.0504
▁wiele	-11.0504
▁cases	-11.0505
▁lack	-11.0505
▁Vis	-11.0506
▁grupos	-11.0509
▁rapidement	-11.0509
▁samuti	-11.0511
▁multe	-11.0513
▁dernières	-11.0513
▁gestellt	-11.0513
▁spolupráce	-11.0514
▁Initiative	-11.0514
ges	-11.0515
▁priemonių	-11.0517
▁l’Europe	-11.0519
▁všetky	-11.052
▁kammaren	-11.052
▁proprie	-11.0521
▁Du	-11.0521
▁criminal	-11.0522
▁betydelse	-11.0526
mon	-11.0528
▁fler	-11.0529
▁ljudi	-11.0529
▁Wort	-11.053
▁Парламента	-11.0531
▁Directive	-11.0531
▁enough	-11.0533
▁EP	-11.0534
▁nemen.	-11.0535
chen	-11.0536
▁správa	-11.0537
▁sprechen	-11.0537
▁gehört	-11.0538
▁Comunidad	-11.0538
▁despre	-11.054
▁správu	-11.054
▁către	-11.0541
nak,	-11.0544
nsichtlich	-11.0545
plan	-11.0546
▁vin	-11.0546
▁kérdés	-11.0547
▁consecuencias	-11.0548
▁transparent	-11.0548
▁ambientale	-11.0549
ep	-11.055
▁až	-11.0553
▁είμαι	-11.0554
▁sama	-11.0555
▁nez	-11.0556
▁Dle	-11.0556
10	-11.056
▁conseguenze	-11.0561
▁escrito.	-11.0561
▁voorkomen	-11.0561
▁compromesso	-11.0563
▁»	-11.0564
▁significant	-11.0567
▁transparence	-11.0567
ins	-11.0568
▁puisse	-11.0569
▁dagsordenen	-11.0569
▁bieden	-11.0572
▁enkelte	-11.0572
▁neu	-11.0574
▁active	-11.0576
▁hon	-11.0576
▁congratulate	-11.0578
▁europeas	-11.058
▁pose	-11.0582
▁Aufgabe	-11.0583
▁lu	-11.0583
ør	-11.0584
▁circa	-11.0584
▁excelente	-11.0585
▁gennemførelsen	-11.0586
get	-11.0587
▁predsednica	-11.0588
▁ζητήματα	-11.0588
í,	-11.0589
▁μπορούσε	-11.059
▁attualmente	-11.059
▁αύξηση	-11.0591
▁urgent	-11.0593
▁principles	-11.0595
▁kwesties	-11.0595
te.	-11.0598
aj	-11.06
▁ber	-11.06
▁Kas	-11.0601
neskerettigheder	-11.0602
▁4.	-11.0604
▁alcanzar	-11.0608
▁hjälpa	-11.061
▁øge	-11.0611
▁financiering	-11.0612
▁Africa	-11.0612
▁reglamento	-11.0613
abb	-11.0615
είς	-11.0616
▁demokratisk	-11.0616
▁crime	-11.0616
▁l'aide	-11.0617
▁žmonių	-11.0617
▁l'emploi	-11.062
▁Unia	-11.0624
▁būt	-11.0625
▁sommet	-11.0625
eret	-11.0627
▁blij	-11.0629
▁dalībvalstu	-11.063
rar	-11.0631
▁posso	-11.0631
▁tillgång	-11.0632
▁θέλω	-11.0634
▁conséquences	-11.0634
▁reasons	-11.0635
▁déclaration	-11.0637
▁nemzeti	-11.0637
▁cilvēku	-11.0638
▁Malta	-11.0638
cre	-11.064
▁udgør	-11.0641
▁Šis	-11.0642
▁řešení	-11.0642
▁governi	-11.0644
▁manque	-11.0645
▁snabbt	-11.0645
▁membres,	-11.0647
▁Solana	-11.0647
▁γι'	-11.0647
▁fatta	-11.0647
▁note	-11.0648
▁prezent	-11.0649
▁claramente	-11.065
▁framtiden	-11.0651
▁autor	-11.0653
▁activiteiten	-11.0653
▁Cependant	-11.0655
▁trasparenza	-11.0655
▁costs	-11.0655
σε	-11.0657
re.	-11.0661
▁heißt	-11.0662
▁though	-11.0662
▁Kon	-11.0662
mie	-11.0663
rg	-11.0663
▁áll	-11.0663
▁ihrem	-11.0668
»,	-11.0668
▁llevar	-11.0669
▁Tento	-11.0671
anti	-11.0671
▁0,	-11.0674
▁dovremmo	-11.0674
▁Europejskiego	-11.0677
▁star	-11.068
▁jego	-11.0681
▁sok	-11.0681
▁giuridica	-11.0682
▁άλλο	-11.0682
▁finansiella	-11.0685
▁transparencia	-11.0687
▁zá	-11.0688
▁bezpieczeństwa	-11.0689
▁viņu	-11.0691
▁jeszcze	-11.0695
▁Kommissarin	-11.0696
arse	-11.0696
▁voorgesteld	-11.0696
▁n’est	-11.0698
cent	-11.0698
▁ochrony	-11.07
ique	-11.07
▁iscritto.	-11.0701
▁olnud	-11.0702
▁1992	-11.0702
▁úlohu	-11.0704
▁právní	-11.0704
▁една	-11.0704
▁bare	-11.0705
▁contributo	-11.0706
▁top	-11.0707
▁problem,	-11.0712
▁Desidero	-11.0717
▁echte	-11.0719
▁Auffassung	-11.0719
▁ru	-11.0721
▁voorbeeld	-11.0722
▁move	-11.0722
▁privire	-11.0722
▁among	-11.0723
jai	-11.0723
▁preuve	-11.0724
▁απόφαση	-11.0726
▁anvendelse	-11.0727
▁visiškai	-11.0728
▁membri,	-11.0729
▁visu	-11.0729
▁achieved	-11.0731
▁unii	-11.0732
▁няма	-11.0732
▁morajo	-11.0733
▁Fischerei	-11.0734
▁Bildung	-11.0735
▁arvates	-11.0736
▁Parliament's	-11.0741
ľ	-11.0743
▁grens	-11.0746
▁mõju	-11.0748
dra	-11.0751
▁κυβέρνηση	-11.0753
▁měli	-11.0755
▁allerdings	-11.0755
slag	-11.0756
▁persona	-11.0757
▁skupine	-11.076
▁investimenti	-11.0762
▁kurį	-11.0764
▁další	-11.0766
▁ayudar	-11.0768
▁darbu	-11.0769
rer	-11.0769
▁beheer	-11.0772
▁draft	-11.0772
▁eficaz	-11.0775
▁deberíamos	-11.0776
▁mindst	-11.0776
▁Tout	-11.0778
▁legislativo	-11.078
▁võtta	-11.078
pt	-11.0782
▁betere	-11.0783
▁tels	-11.0783
▁11.	-11.0783
bor	-11.0785
▁consecuencia	-11.0785
▁Nr.	-11.0786
▁Evropsko	-11.0789
▁strong	-11.0789
▁σχέδιο	-11.079
▁introduce	-11.079
▁există	-11.0794
▁otázky	-11.0794
▁preciso	-11.0795
itatea	-11.0795
▁benefit	-11.0797
▁nationales	-11.08
▁χρήση	-11.0801
▁aceptar	-11.0803
▁c’est	-11.0804
▁Komisie	-11.0805
▁Or	-11.0805
▁Jo	-11.0806
ang	-11.081
▁l’UE	-11.0811
▁labour	-11.0812
▁regioner	-11.0815
▁Yo	-11.0816
▁longer	-11.0817
▁stater	-11.0818
▁parlamenta	-11.082
▁mogoče	-11.0822
zar	-11.0822
▁différentes	-11.0825
▁altresì	-11.0826
▁Richtung	-11.0826
▁Social	-11.0827
▁būtina	-11.0832
▁elke	-11.0832
▁kundze,	-11.0832
▁možnosti	-11.0833
▁grootste	-11.0833
▁concreto	-11.0835
▁protect	-11.0835
▁niets	-11.0835
▁Kina	-11.0837
▁referencia	-11.0841
▁stanno	-11.0842
ira	-11.0843
▁iniziative	-11.0843
▁consiguiente	-11.0843
▁ihn	-11.0843
▁life	-11.0844
▁τροπολογία	-11.0844
▁2000.	-11.0845
▁dobro	-11.0846
ær	-11.0846
▁dejar	-11.0847
▁uwagę	-11.0848
▁sellest	-11.085
ον	-11.0851
▁quasi	-11.0851
urs	-11.0856
▁labor	-11.0856
▁activities	-11.0856
ure	-11.0856
▁Prav	-11.0856
▁Präsidentschaft	-11.0859
▁cât	-11.0865
▁kam	-11.0865
▁perspective	-11.0865
▁regards	-11.0867
▁Komisijai	-11.0868
▁sytuacji	-11.0869
▁során	-11.087
▁halte	-11.0871
▁guerre	-11.0871
inter	-11.0874
ти	-11.0875
stat	-11.0877
ima	-11.0881
▁commitment	-11.0886
inio	-11.0886
▁μεγάλο	-11.0889
▁enhver	-11.0889
▁pena	-11.0891
▁maanden	-11.0894
▁spreken	-11.0895
▁Jahres	-11.0896
▁Gesellschaft	-11.0897
▁tatsächlich	-11.0897
▁stem	-11.0897
▁hard	-11.0897
▁Tagesordnung	-11.0899
▁factor	-11.09
▁wichtigen	-11.0901
▁try	-11.0901
▁miljard	-11.0902
▁devant	-11.0903
▁όλων	-11.0904
▁тъ	-11.0904
▁chers	-11.0905
ques	-11.0905
▁Och	-11.0905
ros	-11.0906
▁amelyet	-11.0906
å	-11.0907
▁weinig	-11.0908
ct	-11.0909
▁response	-11.091
▁fondamentaux	-11.091
▁stress	-11.0913
▁Affairs	-11.0914
▁faktor	-11.0914
▁vseh	-11.0915
cul	-11.0915
▁allmänna	-11.0916
▁peux	-11.0916
▁externe	-11.0917
▁Στο	-11.0918
▁dossier	-11.0919
▁tengo	-11.0921
▁δικαίωμα	-11.0921
▁přístup	-11.0924
▁други	-11.0924
▁moyen	-11.0925
▁pasakyti	-11.0925
▁olla	-11.0925
▁young	-11.0928
▁fire	-11.0929
▁völlig	-11.093
▁business	-11.093
▁tarp	-11.0932
▁forordning	-11.0932
▁durable	-11.0934
▁internacionales	-11.0934
▁finanziaria	-11.0934
▁C5-0	-11.0935
▁piemēram	-11.0936
▁Komisije	-11.0938
▁utveckla	-11.0938
▁Priekšsēdētājas	-11.0939
▁pay	-11.0939
▁Comunità	-11.0941
sbe	-11.0942
▁tirgus	-11.0943
▁betragtning	-11.0943
markt	-11.0944
▁saber	-11.0945
▁βουλευτές	-11.0947
akt	-11.0948
▁projektu	-11.0948
▁meilleure	-11.0948
▁collègue	-11.095
▁speciale	-11.0951
▁igualdad	-11.0952
▁ridurre	-11.0953
ém	-11.0957
▁eigenlijk	-11.0958
▁bästa	-11.0958
▁απ	-11.096
▁zetten	-11.0961
▁projects	-11.0962
▁effort	-11.0966
sso	-11.0967
ización	-11.0967
▁r	-11.0968
▁største	-11.0969
▁camino	-11.0971
▁lidstaat	-11.0971
▁voorwaarden	-11.0971
▁държави	-11.0972
▁porte	-11.0972
▁stimul	-11.0973
▁comuni	-11.0973
▁ασφάλειας	-11.0974
▁javaslat	-11.0975
▁integración	-11.0976
▁olen	-11.0976
zy	-11.0978
ví	-11.0981
▁Mehrheit	-11.0982
▁gebruikt	-11.0985
▁voi	-11.0988
▁dessutom	-11.0989
▁scorso	-11.0993
▁opportunità	-11.0993
▁strani	-11.0994
▁mercati	-11.0997
ųjų	-11.0997
υς	-11.1
▁meines	-11.1001
yb	-11.1002
▁känner	-11.1002
▁komende	-11.1002
▁kurā	-11.1003
▁uur	-11.1005
fen	-11.1005
▁Til	-11.1005
▁interior	-11.1006
▁funding	-11.1007
▁necesita	-11.1008
▁rozwoju	-11.1008
br	-11.1008
▁Für	-11.1009
▁αγοράς	-11.1009
▁Sąjunga	-11.101
▁participación	-11.1011
aria	-11.1012
▁tagad	-11.1015
kus	-11.1015
▁reformas	-11.1017
▁tiem	-11.1017
▁him	-11.1018
▁solidarité	-11.102
▁qu'en	-11.1021
▁Hlasoval	-11.1024
▁nüüd	-11.1024
▁pendant	-11.1024
▁geldt	-11.1024
▁opgave	-11.1025
▁αποτελούν	-11.1026
jon	-11.1027
▁forza	-11.103
▁cał	-11.103
▁duurzame	-11.103
duc	-11.1032
▁jeunes	-11.1032
▁fiske	-11.1034
ében	-11.1035
▁Instrument	-11.1036
▁rast	-11.1041
▁Council,	-11.1044
▁viktigaste	-11.1046
▁Plan	-11.1046
▁Zimbabwe	-11.1048
▁visserij	-11.1048
▁ιδίως	-11.1048
▁szabad	-11.1048
▁myslím	-11.1049
▁aplicar	-11.1049
▁detta.	-11.1049
▁Evropě	-11.105
▁Cuba	-11.1053
▁potential	-11.1053
▁prevede	-11.1054
▁mul	-11.1054
▁Prin	-11.1054
ości	-11.1054
ks.	-11.1057
ā.	-11.1057
ness	-11.1061
▁stark	-11.1061
▁veiksmų	-11.1062
▁systèmes	-11.1063
▁acceptere	-11.1066
▁myndigheterna	-11.1067
▁ανάπτυξης	-11.1068
▁hoog	-11.1072
▁dovrà	-11.1072
▁ίδιο	-11.1073
▁Über	-11.1074
▁gegeben	-11.1074
▁représente	-11.1074
▁ch	-11.1075
▁повече	-11.1075
▁gouvernements	-11.1076
▁esencial	-11.1077
pla	-11.1077
▁Bien	-11.1077
lsen	-11.1077
▁ühe	-11.1078
щи	-11.1079
▁práci	-11.1081
▁adopté	-11.1081
▁mate	-11.1082
▁countries,	-11.1082
▁κράτος	-11.1083
ích	-11.1087
г	-11.1087
▁flertal	-11.1088
▁gennemførelse	-11.1088
izzazione	-11.1088
▁správy	-11.1089
▁2000,	-11.109
▁vold	-11.1091
lá	-11.1092
▁intervención	-11.1092
▁prise	-11.1092
sim	-11.1093
▁opfordrer	-11.1096
▁giovani	-11.1096
▁nieuw	-11.1097
▁emne	-11.1102
▁eisen	-11.1102
▁modifica	-11.1104
▁super	-11.1105
▁izmantot	-11.1108
▁Unter	-11.1109
st,	-11.1112
▁technologie	-11.1114
▁frontières	-11.1114
▁sil	-11.1115
▁situation,	-11.1117
▁bereit	-11.1117
▁Medio	-11.1117
▁servir	-11.1119
▁savons	-11.1119
▁aanpak	-11.112
▁begrüße	-11.112
▁comunità	-11.1121
▁staten	-11.1122
ane	-11.1122
kol	-11.1124
▁μέρος	-11.1125
▁conclusion	-11.1126
▁45	-11.1126
▁Съвета	-11.1127
▁unije	-11.1128
σι	-11.1129
▁pl	-11.1129
▁belasting	-11.113
nings	-11.113
▁Manau	-11.113
▁fremmest	-11.1135
▁Erfolg	-11.1139
▁båda	-11.1139
▁verksamhet	-11.1139
▁Estoy	-11.114
▁sommige	-11.114
▁little	-11.1141
▁Συνθήκη	-11.115
år	-11.115
▁ligeledes	-11.1152
▁правата	-11.1153
iau	-11.1153
▁grazie	-11.1154
▁Endelig	-11.1155
ssa	-11.1156
▁eigentlich	-11.1156
▁elő	-11.1156
▁šią	-11.1158
▁fino	-11.1159
ami.	-11.116
▁napríklad	-11.1161
▁gevallen	-11.1166
▁Kontrolle	-11.1166
▁znamená	-11.1169
▁conseguenza	-11.117
▁mnoho	-11.1171
▁jeder	-11.1172
▁fiskeri	-11.1176
▁momenteel	-11.1179
inti	-11.118
▁asszony,	-11.118
▁ihm	-11.1184
vej	-11.1184
svorschriften	-11.1186
▁musia	-11.1187
erende	-11.1187
fic	-11.119
▁esas	-11.1191
▁volinik	-11.1191
ör	-11.1191
▁trods	-11.1194
▁daarbij	-11.1194
▁erste	-11.1197
vate	-11.1198
▁conformidad	-11.1199
▁‘	-11.1199
▁nodrošināt	-11.12
▁mientras	-11.1201
▁occasione	-11.1201
▁valstīm	-11.1203
▁elk	-11.1203
▁correct	-11.1204
▁bestaande	-11.1205
mą	-11.1205
▁acht	-11.1206
▁economici	-11.1207
▁ochrany	-11.1208
▁grænse	-11.1209
▁dichiarazione	-11.121
▁Israël	-11.121
▁udviklingen	-11.1212
▁kvalitet	-11.1216
▁although	-11.1219
▁writing.	-11.122
▁nothing	-11.1221
▁доклада	-11.1225
▁them.	-11.1226
▁môže	-11.1227
▁tiks	-11.1228
▁pr	-11.1229
▁material	-11.123
▁segunda	-11.123
▁historia	-11.1231
▁sistem	-11.1232
▁hoofd	-11.1233
▁muncă	-11.1237
▁písemně.	-11.1237
ij	-11.1237
▁miembros,	-11.1238
▁ΕΕ.	-11.1238
ви	-11.1238
▁résultat	-11.1239
sprocedure	-11.1239
▁putea	-11.124
rlo	-11.1241
lla	-11.1243
▁Quisiera	-11.1243
▁otázka	-11.1243
▁voter	-11.1245
▁féliciter	-11.1247
sector	-11.1249
rò	-11.1252
▁esame	-11.1253
▁все	-11.1254
▁regio's	-11.1256
▁disposizioni	-11.1257
▁multi	-11.1257
▁rakstiski.	-11.1257
θούν	-11.1257
▁governments	-11.1258
▁ændringer	-11.1258
▁tagasi	-11.1259
▁Iraq	-11.1259
▁bambini	-11.1259
▁leda	-11.1263
▁Ergebnis	-11.1266
bile	-11.1266
▁beslutninger	-11.1267
▁capacidad	-11.1268
▁personen	-11.1271
▁precum	-11.1271
▁bad	-11.1271
ios	-11.1271
▁Herausforderung	-11.1275
▁način	-11.1277
▁azzal	-11.1282
▁critères	-11.1282
▁medlemsstater.	-11.1283
▁asilo	-11.1284
▁unico	-11.1284
▁sætte	-11.1285
▁Debemos	-11.1286
umi	-11.1288
▁nell'Unione	-11.1288
▁οδηγίας	-11.1288
ff	-11.1289
aan	-11.129
rk	-11.1292
▁pole	-11.1294
▁opera	-11.1295
▁défense	-11.1295
▁scopo	-11.1296
▁assurer	-11.1296
▁Serbia	-11.1298
▁pratique	-11.1299
zon	-11.1301
▁interna	-11.1301
▁Ένωσης.	-11.1302
wirtschaftlichen	-11.1302
▁CE	-11.1302
▁börja	-11.1302
▁möjligheter	-11.1303
ţii	-11.1304
▁rovněž	-11.1304
ed.	-11.1305
▁им	-11.1305
▁dva	-11.1308
▁beskæftigelse	-11.1311
▁överenskommelse	-11.1314
▁cohésion	-11.1315
▁καμία	-11.1315
▁Bereichen	-11.1315
▁reducción	-11.1315
tis	-11.1316
▁mean	-11.1316
▁Diskussion	-11.1317
▁behandeling	-11.1318
▁locales	-11.1318
▁lado	-11.1321
▁nästa	-11.1325
▁all'interno	-11.1326
▁schaffen	-11.1328
▁täna	-11.1328
jam	-11.1329
▁retning	-11.133
▁poseł	-11.1332
▁Hemos	-11.1333
ко	-11.1334
▁μείωση	-11.1334
▁esmu	-11.1334
▁sais	-11.1335
ήσουμε	-11.1336
▁única	-11.1341
▁SIS	-11.1343
▁elecciones	-11.1345
▁gelegenheid	-11.1345
▁burde	-11.1346
▁aprobación	-11.1346
▁ba	-11.1347
▁możemy	-11.1348
▁kapcsolatban	-11.1349
▁personne	-11.1352
kat	-11.1352
▁frihed	-11.1353
▁zároveň	-11.1354
mel	-11.1355
▁страна	-11.1357
▁confiance	-11.1359
▁ris	-11.1361
▁działań	-11.1361
▁hebt	-11.1361
▁gaz	-11.1362
▁šie	-11.1362
▁revision	-11.1363
▁ramach	-11.1364
▁posto	-11.1364
ат	-11.1365
▁diskussion	-11.1366
▁finanziario	-11.1367
▁fået	-11.1367
▁tenga	-11.137
▁Fa	-11.137
▁ανθρωπίνων	-11.137
▁sustainable	-11.137
▁objeto	-11.137
▁guarantee	-11.1372
▁κυρία	-11.1372
▁holde	-11.1373
▁Turkiet	-11.1374
▁lade	-11.1374
▁legge	-11.1374
▁galėtų	-11.1375
▁pravice	-11.1375
▁måneder	-11.1376
▁liksom	-11.1377
▁mí	-11.1377
▁uitvoering	-11.1378
▁2009,	-11.1379
▁propio	-11.1379
▁följd	-11.138
▁morali	-11.138
▁nových	-11.1383
tic	-11.1383
▁tad	-11.1384
▁udvikle	-11.1385
▁(E	-11.1386
▁Amendment	-11.1386
▁δυνατόν	-11.1387
▁besluiten	-11.1388
▁jobs	-11.1388
▁πραγματικότητα	-11.139
▁undgå	-11.1392
ēm	-11.1396
▁vrai	-11.1397
▁würden	-11.14
▁début	-11.1403
▁provided	-11.1403
▁ty	-11.1405
▁structure	-11.1412
spe	-11.1413
▁sollen	-11.1415
ß	-11.1416
▁Patten	-11.1416
▁waarover	-11.1416
▁off	-11.1417
▁ако	-11.1418
yti	-11.1418
▁lead	-11.1419
▁περιοχή	-11.1423
▁richting	-11.1423
▁blijkt	-11.1425
▁noodzaak	-11.1427
▁rendere	-11.1428
▁foreign	-11.1429
▁finanziari	-11.143
▁contraire	-11.1431
avimo	-11.1432
▁eerst	-11.1432
▁hvert	-11.1434
▁τελευταία	-11.1434
▁présente	-11.1434
▁στρατηγική	-11.1435
▁documents	-11.1437
▁sanctions	-11.1438
▁viens	-11.1439
jük	-11.144
▁régime	-11.1441
▁doen.	-11.1442
▁vigore	-11.1442
▁kdy	-11.1443
▁perhaps	-11.1445
▁gadā	-11.1445
▁energii	-11.1445
▁encourage	-11.1446
▁erreichen	-11.1447
▁intervento	-11.1449
▁dēļ	-11.145
▁sostenible	-11.145
▁ändå	-11.145
▁mettere	-11.145
bud	-11.145
▁πολιτικών	-11.1452
▁medlemsstater,	-11.1453
▁kako	-11.1453
▁gemeinsam	-11.1456
werk	-11.1459
▁grâce	-11.1461
▁konkurrens	-11.1462
▁aktiviteter	-11.1463
▁odvětví	-11.1463
▁bistand	-11.1463
▁consumer	-11.1466
▁voldoende	-11.1467
til	-11.1469
▁οικονομικής	-11.1473
▁formazione	-11.1473
▁vigueur	-11.1475
sproces	-11.1475
▁richtig	-11.1476
▁intende	-11.1477
▁libera	-11.1483
▁Pod	-11.1483
ки	-11.1484
erade	-11.1486
▁forhandlinger	-11.1491
skih	-11.1494
▁alte	-11.1495
▁fiducia	-11.1498
▁ku	-11.15
ra,	-11.15
▁kommen	-11.15
▁αυτό,	-11.1501
▁colegas	-11.1501
▁consumo	-11.1503
▁leggen	-11.1506
L	-11.1507
▁esiste	-11.1507
▁add	-11.1509
▁pouze	-11.151
σαν	-11.1516
▁respond	-11.1516
▁rozpočtu	-11.1519
▁programmet	-11.1519
▁(C	-11.1519
▁taux	-11.1519
▁industrial	-11.152
▁geworden	-11.152
▁remain	-11.152
▁doar	-11.1521
▁Από	-11.1523
▁dell'UE	-11.1523
▁poslanci	-11.1523
▁fortsætte	-11.1526
organ	-11.1527
▁occasion	-11.153
▁chiedere	-11.153
▁megállapodás	-11.1532
το	-11.1532
lan	-11.1533
▁mars	-11.1536
▁zei	-11.1538
▁sterk	-11.1538
▁põllumajandus	-11.1539
▁Espero	-11.1539
mmer	-11.154
▁coesione	-11.1542
▁unterschiedlich	-11.1542
▁hetgeen	-11.1542
▁predlog	-11.1546
▁μέτρων	-11.1546
▁debido	-11.1549
▁decide	-11.155
▁400	-11.1551
▁overeenstemming	-11.1551
▁asuntos	-11.1551
▁dem.	-11.1555
▁handle	-11.1555
▁waarde	-11.1556
▁ieder	-11.1556
sak	-11.1557
▁mark	-11.1557
▁criterios	-11.1558
▁proc.	-11.1559
ple	-11.156
▁reports	-11.1563
▁possible.	-11.1564
▁ezek	-11.1564
▁carica	-11.157
▁finden	-11.1571
▁unionen.	-11.1577
▁Europene	-11.1578
▁kol	-11.1578
▁precisamente	-11.158
iera	-11.158
▁można	-11.1581
▁možnost	-11.1582
▁vedrører	-11.1582
▁nichts	-11.1583
▁januari	-11.1586
că	-11.1587
▁sor	-11.1589
▁réduction	-11.1589
▁actualmente	-11.1592
▁close	-11.1593
▁Σώμα	-11.1595
▁trasporti	-11.1597
▁fornire	-11.1598
vě	-11.1599
▁acum	-11.16
▁addition	-11.1603
▁véritable	-11.1604
▁Selv	-11.1606
▁mají	-11.1608
▁προϋπολογισμού	-11.1608
▁approccio	-11.1612
▁peavad	-11.1615
.000	-11.1615
▁Arbeitnehmer	-11.1616
▁Sarkozy	-11.1616
▁taak	-11.1616
▁telles	-11.1616
eit	-11.1617
▁mają	-11.1618
▁day	-11.1621
▁erst	-11.1622
▁trouve	-11.1623
▁υπηρεσίες	-11.1623
▁tak,	-11.1627
▁Mitglieder	-11.1628
▁discussie	-11.1629
▁syfte	-11.1629
▁bestemt	-11.1631
▁pare	-11.1632
▁geführt	-11.1633
▁seul	-11.1637
▁politikker	-11.1638
▁Dessutom	-11.1644
▁travers	-11.1646
▁ordförande,	-11.1647
zie	-11.165
▁би	-11.1651
▁Tenemos	-11.1652
▁stärka	-11.1653
▁europäischer	-11.1653
▁κανόνες	-11.1656
▁particolarmente	-11.1656
▁permitir	-11.1656
▁majú	-11.1657
νο	-11.1658
▁sellele	-11.1659
▁aurait	-11.166
től	-11.166
▁buon	-11.1663
▁demain	-11.1663
▁answer	-11.1664
▁naszych	-11.1664
▁Tādēļ	-11.1665
▁daarmee	-11.1665
▁vore	-11.1666
▁arbets	-11.1666
▁orgány	-11.1666
▁afstemning	-11.1668
▁convention	-11.1668
képviselőcsoport	-11.1672
▁processen	-11.1674
▁начин	-11.1675
ému	-11.1675
ijos	-11.1677
pan	-11.1678
▁περι	-11.1678
▁territoriale	-11.168
▁Tale	-11.168
▁život	-11.1681
▁elezioni	-11.1682
ė,	-11.1682
lage	-11.1684
▁valores	-11.1687
▁énergétique	-11.1687
▁principali	-11.1687
▁ενίσχυση	-11.1687
▁definition	-11.1687
▁oral	-11.169
▁fosse	-11.1691
▁kartu	-11.1694
▁imenu	-11.1697
▁interpret	-11.1699
▁κανείς	-11.17
organisation	-11.1705
▁pána	-11.1705
▁dom	-11.1706
▁terror	-11.171
▁Härra	-11.1711
▁Val	-11.1711
ère	-11.1713
pra	-11.1714
▁Erklärung	-11.1715
▁nazionale	-11.1715
▁sprawozdanie	-11.1717
▁loc	-11.1717
▁eind	-11.1719
cas	-11.172
ното	-11.1724
▁lor	-11.1725
llen	-11.1725
▁toliau	-11.1727
▁brengen.	-11.1728
▁express	-11.173
▁apply	-11.1731
▁mercados	-11.1732
rze	-11.1733
zer	-11.1733
▁ettepaneku	-11.1734
▁legitim	-11.1734
▁compito	-11.1734
▁refer	-11.1735
▁speak	-11.1736
▁exercice	-11.1737
▁Infine,	-11.1737
▁bl.a.	-11.1738
▁juridisk	-11.1739
ables	-11.174
▁above	-11.174
▁γραπτώς.	-11.1742
▁uppgifter	-11.1743
▁μαζί	-11.1745
▁Ca	-11.1745
▁militar	-11.1746
imą	-11.1747
Α	-11.1747
▁einzelnen	-11.1748
▁alapvető	-11.175
▁1993	-11.1752
▁strony	-11.1754
▁words	-11.1754
ging	-11.1758
▁formación	-11.1759
▁område,	-11.176
▁valt	-11.1762
▁panākt	-11.1763
▁sex	-11.1763
▁regarding	-11.1764
tivo	-11.1766
▁sporazum	-11.1767
▁tiers	-11.1767
▁positieve	-11.1768
▁agreed	-11.1768
▁technical	-11.1768
▁συνεργασίας	-11.177
▁sociální	-11.1771
▁fraktsiooni	-11.1771
▁únie	-11.1772
jev	-11.1775
▁item	-11.1775
▁erg	-11.1779
▁wegen	-11.178
“	-11.1781
īt	-11.1783
▁zda	-11.1785
30	-11.1786
dem	-11.1787
▁Sud	-11.179
▁herrer	-11.1792
▁2011.	-11.1792
▁meinem	-11.1793
▁történő	-11.1795
▁měla	-11.1795
▁police	-11.1795
▁construction	-11.1797
▁organizaciones	-11.1797
▁technologies	-11.18
▁kuidas	-11.18
▁Till	-11.18
▁rapporteurs	-11.18
ų,	-11.1802
▁spo	-11.1803
mi,	-11.1805
▁geeft	-11.1807
▁šiandien	-11.1809
-in-Office	-11.1811
▁užtikrinti	-11.1812
▁tedy	-11.1814
▁druk	-11.1815
▁usnesení	-11.1816
kaz	-11.1816
▁qu'à	-11.1817
▁genoeg	-11.1817
▁press	-11.1818
▁indeholder	-11.1818
▁relevante	-11.1819
▁Bürgerinnen	-11.1821
▁radio	-11.1821
iche	-11.1821
▁sobie	-11.1821
▁continent	-11.1822
mes	-11.1823
▁únia	-11.1824
▁5.	-11.1824
mor	-11.1824
▁innych	-11.1825
▁Gewalt	-11.1825
▁energijos	-11.1826
▁motion	-11.1827
▁task	-11.1828
▁tiesības	-11.1831
▁hoge	-11.1831
▁Chine	-11.1831
▁Kampf	-11.1832
▁ham	-11.1833
tico	-11.1834
▁Europy	-11.1835
▁Úgy	-11.1837
▁37	-11.1839
▁tillväxt	-11.1843
▁о	-11.1845
▁Siamo	-11.1846
▁sørge	-11.1847
▁kant	-11.1848
▁Toto	-11.1848
▁wohl	-11.1848
dag	-11.1849
▁ekonomin	-11.185
▁pari	-11.185
▁non-	-11.1852
lin	-11.1853
▁οποίοι	-11.1854
rätt	-11.1854
▁Parliament.	-11.1861
▁integr	-11.1862
▁обаче	-11.1863
ηθούν	-11.1863
▁bas	-11.1864
▁când	-11.1864
ettighederne	-11.1865
▁attuale	-11.1866
▁indføre	-11.1866
▁tāpēc	-11.1868
▁σαφές	-11.1868
▁hålla	-11.187
eurs	-11.1871
▁monopol	-11.1872
▁transparency	-11.1873
▁ras	-11.1874
▁prossimo	-11.1875
▁cambiamento	-11.1875
▁tog	-11.1876
▁slags	-11.1876
▁valeurs	-11.1878
▁rapports	-11.1878
ст	-11.1879
▁interesser	-11.1881
▁Transparenz	-11.1885
▁tagada	-11.1885
▁laat	-11.1885
oval	-11.1886
▁veces	-11.1887
▁gebaseerd	-11.189
▁„	-11.1891
kas	-11.1891
part	-11.1892
▁skupina	-11.1895
▁affermato	-11.1897
▁Änderung	-11.1899
▁suhtes	-11.1899
▁страни	-11.1901
▁parlamentari	-11.1901
▁Car	-11.1903
▁По	-11.1906
▁sull'	-11.1907
él	-11.1909
▁ważne	-11.1909
▁pengar	-11.191
▁eksempel	-11.1911
▁améliorer	-11.1912
encia	-11.1913
▁Convenzione	-11.1914
▁τέλος	-11.1914
▁větší	-11.1914
▁train	-11.1915
czy	-11.1915
▁strada	-11.1915
▁Svet	-11.1915
▁stelt	-11.1917
▁partenariat	-11.1918
▁adoption	-11.1918
▁bereiken	-11.1918
▁στοιχεία	-11.1918
▁fe	-11.1922
▁realizar	-11.1923
▁fordel	-11.1923
▁road	-11.1925
▁Berichts	-11.1926
▁ringrazio	-11.1926
▁nivå	-11.1926
▁pratica	-11.1928
▁štátov	-11.193
T	-11.1932
▁przedsiębiorstw	-11.1935
▁νομοθεσία	-11.1937
▁saab	-11.1938
▁representa	-11.1939
▁certainement	-11.194
▁Výboru	-11.194
▁niso	-11.1941
▁acestui	-11.1942
▁redenen	-11.1943
▁disposiciones	-11.1945
▁Barnier	-11.1947
▁alcuna	-11.1948
▁krajín	-11.1952
▁vigor	-11.1952
▁marzo	-11.1952
▁træffe	-11.1954
▁Verfügung	-11.1955
▁postup	-11.1956
▁Regierungen	-11.1961
▁precis	-11.1961
▁centre	-11.1962
▁koostöö	-11.1963
▁soon	-11.1964
▁За	-11.1966
owej	-11.1968
▁crea	-11.1969
▁Har	-11.1969
ledning	-11.197
▁solidaridad	-11.1972
▁urgente	-11.1972
če	-11.1973
▁ECU	-11.1974
▁případě	-11.1977
▁związku	-11.1978
▁schriftlich.	-11.1979
▁importante.	-11.1981
▁volontà	-11.1986
▁ebenso	-11.1987
▁økonomi	-11.1988
▁pos	-11.1989
▁enlighet	-11.199
▁comité	-11.1991
▁týkající	-11.1991
▁administration	-11.1993
▁procédures	-11.1996
ů,	-11.1997
▁stage	-11.1997
▁several	-11.1998
▁roce	-11.1998
▁handler	-11.1999
▁států	-11.2
▁Beitritt	-11.2002
wo	-11.2002
▁gleichzeitig	-11.2003
up	-11.2006
ję	-11.2007
▁περιοχές	-11.201
▁expresar	-11.2011
▁införa	-11.2012
▁terzo	-11.2012
▁Des	-11.2013
▁share	-11.2014
oma	-11.2014
col	-11.2014
▁mil	-11.2016
▁élections	-11.2017
▁deficit	-11.2018
▁nove	-11.202
▁preguntas	-11.2023
kken	-11.2025
▁περίοδο	-11.2027
▁iar	-11.2027
▁réellement	-11.2028
▁buen	-11.203
▁Όπως	-11.203
▁Bürgern	-11.203
▁przykład	-11.2031
▁fald	-11.2031
▁fronteras	-11.2032
▁životní	-11.2032
▁fundamentele	-11.2035
▁it.	-11.2035
▁Doha	-11.2036
▁j'	-11.2036
▁χρόνο	-11.2036
heden	-11.2038
▁tomorrow	-11.2039
▁Gruppen	-11.2041
▁ét	-11.2041
▁podľa	-11.2042
▁Bij	-11.2043
▁never	-11.2044
▁passende	-11.2044
τη	-11.2044
▁προσπάθειες	-11.2044
▁piac	-11.2046
følge	-11.2046
▁financier	-11.2051
bel	-11.2051
▁dr	-11.2051
▁szeretnék	-11.2052
▁proteger	-11.2052
▁Не	-11.2056
▁5,	-11.2057
▁bijdragen	-11.2058
▁kontinent	-11.2059
í.	-11.206
ants	-11.206
▁debate.	-11.2061
▁upon	-11.2061
▁she	-11.2064
▁bestämmelser	-11.2064
▁avseende	-11.2064
▁žemės	-11.2066
и,	-11.2067
▁Integration	-11.2069
▁Padomes	-11.207
J	-11.2071
▁pieņemt	-11.2072
▁Nice	-11.2073
▁parlamentare	-11.2076
▁niemand	-11.2076
▁elementi	-11.2076
▁Tra	-11.2076
▁financières	-11.2077
▁innan	-11.2077
▁dermed	-11.2078
▁enfin	-11.2078
▁victimes	-11.208
▁когато	-11.2081
▁Liit	-11.2081
▁kurz	-11.2082
▁conven	-11.2083
▁demokratiske	-11.2085
▁prises	-11.2085
▁néhány	-11.2085
gno	-11.2087
▁eerder	-11.2088
▁mogelijkheden	-11.2088
dro	-11.2088
rzy	-11.209
▁propres	-11.209
▁uniquement	-11.209
▁aspecto	-11.2091
▁presentare	-11.2092
▁omstandigheden	-11.2095
▁integratie	-11.2096
▁uppmanar	-11.2096
▁gezondheid	-11.2096
▁produit	-11.2098
▁exterior	-11.2098
▁mejora	-11.2099
▁limite	-11.2099
▁året	-11.21
▁Qualität	-11.21
▁saker	-11.2101
ovanie	-11.2103
(	-11.2103
▁degenen	-11.2105
▁Our	-11.2107
▁saját	-11.2108
▁d'action	-11.2108
▁mogą	-11.211
▁sostenibile	-11.211
▁sundhed	-11.2112
▁affari	-11.2113
rons	-11.2115
▁εξαιρετικά	-11.2115
▁ambito	-11.2115
▁týka	-11.2115
ink	-11.2116
▁lieto	-11.2117
▁poliitika	-11.2117
▁maritime	-11.2117
ských	-11.2118
▁ευρωπαϊκής	-11.2119
▁vegne	-11.2119
▁läbi	-11.2122
▁Pokud	-11.2122
.)	-11.2127
▁2005.	-11.2127
▁recordar	-11.2127
▁educación	-11.2127
▁mundial	-11.2129
mi.	-11.2131
▁inziens	-11.2131
▁handling	-11.2132
▁plenamente	-11.2132
▁amit	-11.2133
▁års	-11.2136
kra	-11.2137
▁organizzazioni	-11.2137
▁procedimientos	-11.2137
ėme	-11.214
sicherheit	-11.2141
▁målet	-11.2142
▁Tack	-11.2146
▁gestimmt	-11.2149
▁cre	-11.2154
▁provisions	-11.2154
▁PSE	-11.2155
▁ricordare	-11.2156
▁irányelv	-11.2156
▁investment	-11.2157
▁référence	-11.2157
▁korte	-11.2157
elijke	-11.2157
▁analiz	-11.2159
▁clara	-11.216
▁neutral	-11.2161
▁declaración	-11.2164
is,	-11.2164
▁Nazioni	-11.2165
▁lång	-11.2166
▁basa	-11.2167
▁Möglichkeiten	-11.2167
stav	-11.2168
aires	-11.2168
▁Европейска	-11.2168
▁richten	-11.2169
▁villkor	-11.217
▁selge	-11.217
▁unies	-11.2175
▁revisione	-11.2175
ero	-11.2177
kla	-11.2178
▁demandé	-11.2182
▁член	-11.2182
▁iespējams	-11.2184
▁могат	-11.2184
▁világ	-11.2185
▁apsaugos	-11.2186
▁καταπολέμηση	-11.2186
▁Fund	-11.2187
▁grupas	-11.2188
▁realizado	-11.219
urile	-11.2191
mě	-11.2192
▁veiller	-11.2193
▁makes	-11.2193
▁desværre	-11.2193
dur	-11.2198
▁venir	-11.22
eme	-11.2201
▁verkiezingen	-11.2201
▁indispensable	-11.2201
▁altså	-11.2202
▁løse	-11.2202
▁later	-11.2203
▁abordar	-11.2206
▁ernstige	-11.2209
▁jóvenes	-11.2211
▁2004.	-11.2211
▁hvilke	-11.2212
▁acceptable	-11.2214
▁karakter	-11.2214
▁european	-11.2217
▁Ki	-11.2218
▁Eftersom	-11.2218
▁(P	-11.2219
▁mezzi	-11.2219
▁stille	-11.222
▁chodzi	-11.2222
▁relatives	-11.2223
▁osób	-11.2223
▁Fischler	-11.2223
▁nord	-11.2225
dzie	-11.2229
▁Haiti	-11.223
▁burger	-11.2232
▁Russland	-11.2232
▁jelent	-11.2234
▁Jest	-11.2234
▁l'énergie	-11.2236
▁Egy	-11.2238
▁votar	-11.2238
▁regole	-11.2238
ώντας	-11.224
▁rule	-11.224
▁kommande	-11.2241
▁pol	-11.2242
▁duidelijke	-11.2245
æ	-11.2246
▁2008,	-11.2246
▁US	-11.225
▁piccole	-11.225
▁Izrael	-11.2252
▁siger	-11.2253
▁framtida	-11.2254
▁cruciale	-11.2254
▁názoru	-11.2254
▁all’	-11.2255
▁PAC	-11.2256
▁instrumenten	-11.2256
tus	-11.2256
▁pomeni	-11.2258
▁obligations	-11.2258
lem	-11.2258
▁stra	-11.226
▁absoluut	-11.226
rio	-11.2262
▁rinkos	-11.2265
hy	-11.2265
▁εμείς	-11.2265
▁plán	-11.2266
▁opposition	-11.2269
▁bidrage	-11.227
sion	-11.227
▁Einführung	-11.227
▁bilaterale	-11.2271
▁katastrof	-11.2272
▁instrumentos	-11.2272
▁permis	-11.2272
▁táto	-11.2272
▁evaluación	-11.2274
▁nors	-11.2275
▁gdy	-11.2275
▁Over	-11.2275
▁parlare	-11.2276
▁similar	-11.2278
▁cílem	-11.2279
▁spolupráci	-11.2281
▁digital	-11.2283
▁näiteks	-11.2285
▁derzeit	-11.2286
▁Kar	-11.2288
ια	-11.2289
▁Προεδρία	-11.229
▁Vorschriften	-11.229
▁favorable	-11.2292
▁Therefore	-11.2293
▁waardoor	-11.2293
▁serio	-11.2294
▁One	-11.2296
▁attitude	-11.2298
▁relatrice	-11.23
owego	-11.2301
īs	-11.2301
▁Szerződés	-11.2306
▁spørgsmål.	-11.2309
▁ψήφισμα	-11.231
▁150	-11.2312
▁metod	-11.2315
▁længe	-11.2317
▁konkurrenskraft	-11.2318
sky	-11.2318
ojo	-11.232
▁gesamten	-11.2322
▁considero	-11.2323
gere	-11.2325
▁traitement	-11.2327
▁tillräckligt	-11.233
▁promouvoir	-11.233
▁l'amendement	-11.2331
▁domani	-11.2332
▁inderdaad	-11.2335
▁zprávu	-11.2335
▁krajów	-11.2336
▁przypadku	-11.2338
▁contiene	-11.2338
▁vindt	-11.2343
▁nehmen	-11.2346
▁stillet	-11.2348
▁última	-11.2348
verantwoordelijk	-11.235
▁însă	-11.2354
▁risico	-11.2354
▁παράδειγμα	-11.2354
▁ámbitos	-11.2355
▁rappeler	-11.2355
▁mogelijke	-11.2356
▁paragraphe	-11.2358
▁luce	-11.2359
▁personnel	-11.236
dal	-11.2362
▁completamente	-11.2364
▁raštu.	-11.2365
mand	-11.2366
▁arbejder	-11.2367
cé	-11.2369
▁Binnenmarkt	-11.2372
▁aquellos	-11.2372
eert	-11.2374
baar	-11.2377
▁φυσικά	-11.2378
▁Aš	-11.238
▁veut	-11.2381
▁ansvaret	-11.2382
▁fondu	-11.2383
▁eux	-11.2385
kou	-11.2387
▁egyes	-11.2389
▁l’Unione	-11.2389
▁ovviamente	-11.2393
▁katere	-11.2394
▁suficiente	-11.2396
▁συνθήκες	-11.2398
▁animal	-11.2399
son	-11.24
nimi	-11.24
▁pubblici	-11.24
▁gemenskapens	-11.24
▁Dublin	-11.2404
▁verbetering	-11.2404
▁moeilijk	-11.2405
ώς	-11.2406
▁nevar	-11.2406
▁dalībvalstis	-11.2407
▁σημαντικά	-11.2408
▁Voorzitter	-11.2408
▁pleased	-11.2408
▁Santer	-11.2409
▁machen,	-11.2411
čen	-11.2412
▁Sudan	-11.2414
▁gehen	-11.2415
▁λύση	-11.2416
▁l'industrie	-11.2416
▁parola	-11.2417
▁32	-11.2418
▁nooit	-11.2421
▁základe	-11.2421
▁krajiny	-11.2422
▁ønske	-11.2422
▁brez	-11.2423
▁prezzi	-11.2424
▁kormány	-11.2425
▁assicurare	-11.2425
▁emendamento	-11.2425
▁aktuelle	-11.2426
▁rapport.	-11.2428
▁parlamendi	-11.2429
▁poz	-11.243
▁régimen	-11.2431
▁juridische	-11.2432
▁potere	-11.2433
▁deja	-11.2434
▁sources	-11.2434
▁grunden	-11.2435
erstatterin	-11.2436
▁udvalg	-11.2436
ш	-11.2437
▁jordbruks	-11.2437
▁contact	-11.2439
▁ebben	-11.2439
▁elleni	-11.2439
▁verkeer	-11.2439
▁első	-11.244
ating	-11.2441
▁împotriva	-11.2442
▁biztosít	-11.2443
elijk	-11.2444
mad	-11.2446
▁eesmärk	-11.2447
chod	-11.2448
▁rigtigt	-11.2448
ă,	-11.2448
▁Romania	-11.2451
▁führt	-11.2452
▁következő	-11.2452
▁fuldstændig	-11.2452
▁ενέργειας	-11.2452
▁values	-11.2453
▁immigration	-11.2453
▁atât	-11.2458
klad	-11.2458
▁financieros	-11.2459
▁tercer	-11.246
▁l'année	-11.2461
▁steunen	-11.2462
▁tagit	-11.2463
cal	-11.2463
▁Carta	-11.2464
▁edasi	-11.2465
▁vēlētos	-11.2466
▁Hamas	-11.2466
vit	-11.2467
▁discuss	-11.2468
▁tenir	-11.2469
▁medie	-11.2469
▁Personen	-11.2469
▁sådanne	-11.2469
▁Ali	-11.2469
▁arrest	-11.2472
▁September	-11.2474
▁términos	-11.2476
▁J'espère	-11.2476
▁fremtiden	-11.2478
▁Seite	-11.248
▁Bush	-11.2481
▁bili	-11.2483
weg	-11.2485
ales	-11.2486
▁origin	-11.2486
▁short	-11.2487
▁draw	-11.2487
▁Italia	-11.2488
cio	-11.2488
▁Ad	-11.2489
ket	-11.249
▁nævnt	-11.2491
▁cose	-11.2492
har	-11.2493
▁ren	-11.2494
▁vittime	-11.2497
▁Thank	-11.2497
▁Rád	-11.2497
▁ktorej	-11.2499
▁így	-11.2499
▁unija	-11.2501
▁afecta	-11.2503
▁cumplir	-11.2509
▁etwa	-11.2509
▁povedať	-11.2512
▁2010,	-11.2515
▁Eurostat	-11.2516
▁Š	-11.2516
▁actie	-11.2519
▁κ	-11.2519
rz	-11.252
▁predvsem	-11.2522
▁teie	-11.2522
▁syn	-11.2522
▁alguna	-11.2523
oni	-11.2525
▁βαθμό	-11.2525
▁аз	-11.2525
▁vidta	-11.2528
▁estabilidad	-11.2529
▁módon	-11.253
▁Seetõttu	-11.2532
▁influence	-11.2537
dis	-11.2538
▁ECB	-11.254
▁οποίος	-11.2541
▁obecnie	-11.2543
έρ	-11.2545
▁Τέλος	-11.2547
▁pueblo	-11.255
▁Finland	-11.255
vy	-11.2551
▁summit	-11.2553
θηκε	-11.2553
▁tähelepanu	-11.2555
▁atveju	-11.2555
▁l'économie	-11.2555
▁leider	-11.2556
εις	-11.2556
▁främst	-11.2556
iem.	-11.2556
▁utilizar	-11.2557
▁νέων	-11.2558
pin	-11.2558
▁demand	-11.2558
▁Sur	-11.2559
▁request	-11.256
wie	-11.256
tare	-11.256
▁precios	-11.2563
dere	-11.2564
maks	-11.2564
hal	-11.2565
▁pirma	-11.2566
▁ideas	-11.2568
▁cohesión	-11.2571
▁piuttosto	-11.2571
▁resultaat	-11.2572
▁visiem	-11.2573
▁necessaria	-11.2573
▁existing	-11.2574
ai.	-11.2575
▁predsedajúca	-11.2576
▁föredragande	-11.2578
▁nödvändiga	-11.2579
dtil	-11.258
▁centro	-11.2581
▁rätta	-11.2582
▁pays.	-11.2582
este	-11.2583
▁predseda	-11.2583
▁colleagues	-11.2584
▁uiteraard	-11.2586
▁costes	-11.2588
▁avrebbe	-11.2589
▁arbetar	-11.259
▁μέλος	-11.2591
ines	-11.2592
▁gravi	-11.2593
▁partecipazione	-11.2596
▁accession	-11.2598
pie	-11.2598
▁Europejski	-11.2599
▁tenu	-11.26
▁zones	-11.2601
▁resurser	-11.2602
▁internazionali	-11.2602
krat	-11.2604
▁malo	-11.2604
▁voll	-11.2604
▁seems	-11.2606
▁resolver	-11.2606
▁κάποια	-11.2606
▁seis	-11.2607
▁którym	-11.261
▁commerciali	-11.2617
▁nr	-11.2618
▁Chciałbym	-11.2622
▁voting	-11.2623
▁Union's	-11.2624
bin	-11.2626
▁plans	-11.2627
▁monitoring	-11.2629
▁vide	-11.2629
▁condition	-11.2629
▁terrorist	-11.263
▁36	-11.263
▁felicitar	-11.263
▁betrifft,	-11.2631
bescherming	-11.2632
ovala	-11.2633
▁Themen	-11.2633
▁head	-11.2634
▁autant	-11.2634
▁Monti	-11.2634
▁future.	-11.2635
▁visat	-11.2636
▁sätt.	-11.2639
▁Derecho	-11.264
▁цел	-11.2641
▁grupy	-11.2641
▁fördraget	-11.2641
▁prime	-11.2642
▁48	-11.2642
▁Berlin	-11.2644
▁olie	-11.2644
▁c'è	-11.2648
▁Parlamentet,	-11.2648
schen	-11.265
▁colega	-11.265
▁vorgelegt	-11.2653
▁nota	-11.2654
▁förordning	-11.2655
▁paragrafo	-11.2655
▁harmonisering	-11.2659
▁toekomstige	-11.266
▁l'importance	-11.2661
▁protéger	-11.2661
all	-11.2662
▁περαιτέρω	-11.2663
▁mass	-11.2665
▁П	-11.2665
▁disposizione	-11.2666
▁habría	-11.2666
▁Solidarität	-11.2668
▁dl	-11.2668
ete	-11.2669
▁cinq	-11.2669
▁nutzen	-11.2669
▁collega's,	-11.2669
▁προστασίας	-11.267
▁offentlig	-11.267
▁razones	-11.2671
▁bur	-11.2671
▁respecter	-11.2671
▁försöka	-11.2672
▁långt	-11.2673
▁trabajar	-11.2674
▁είτε	-11.2676
▁foreslår	-11.2677
▁basic	-11.2678
▁alimentare	-11.2682
▁Parti	-11.2682
▁organi	-11.2684
▁sectores	-11.2687
▁προσπάθεια	-11.2689
▁klimatu	-11.2692
▁informes	-11.2694
▁settimana	-11.2694
▁fund	-11.2697
▁costituisce	-11.2697
▁anta	-11.2698
▁gens	-11.27
fra	-11.27
port	-11.27
▁necesaria	-11.2702
ατε	-11.2702
▁reference	-11.2702
▁bedste	-11.2702
▁instrumento	-11.2703
▁procede	-11.2704
▁komisarz	-11.2704
▁appena	-11.2705
▁Var	-11.2707
▁wielu	-11.2707
▁βοήθεια	-11.2708
▁öelda	-11.2709
din	-11.2709
▁tillid	-11.2709
▁2007,	-11.271
▁aspecten	-11.2714
▁%,	-11.2715
▁bal	-11.2716
ich	-11.2718
gna	-11.2719
▁wurden.	-11.2719
▁szükséges	-11.2721
▁movement	-11.2721
▁absurd	-11.2721
▁rafforzare	-11.2722
▁bekæmpe	-11.2722
▁financiers	-11.2724
▁évidemment	-11.2725
▁conclu	-11.2726
▁éléments	-11.2729
▁dne	-11.273
▁21.	-11.2731
▁απλώς	-11.2731
▁lösa	-11.2734
▁finanziamento	-11.2735
▁Acuerdo	-11.2736
▁monétaire	-11.2736
▁parvenir	-11.2738
▁poverty	-11.2738
▁finanziarie	-11.2738
▁sure	-11.274
N	-11.2743
ήσεις	-11.2743
▁Secondly,	-11.2744
▁bitte	-11.2745
▁bag	-11.2746
▁fallet	-11.2746
ével	-11.2748
▁správe	-11.2749
▁blivit	-11.2749
▁arengu	-11.275
▁violencia	-11.2752
▁Así	-11.2752
▁omstændigheder	-11.2753
▁animales	-11.2754
▁reducere	-11.2756
dami	-11.2757
▁behövs	-11.2759
ore	-11.2761
▁original	-11.2761
▁kodanike	-11.2765
▁regul	-11.2768
▁priorité	-11.2768
▁bereikt	-11.2769
▁ourselves	-11.2772
▁parlement	-11.2773
▁avem	-11.2774
▁egész	-11.2775
▁half	-11.2775
▁förhindra	-11.2775
▁bestehen	-11.2775
▁creation	-11.2777
▁cohesion	-11.2778
▁changes	-11.2779
▁Rumänien	-11.278
▁verkar	-11.278
▁2007-2013	-11.2782
▁voluntad	-11.2783
▁novembre	-11.2783
▁åren	-11.2783
▁fejl	-11.2784
▁gange	-11.2784
▁dagen	-11.2786
misel	-11.2786
▁nevoie	-11.2786
▁Entscheidungen	-11.2787
▁enighed	-11.2789
▁rep	-11.279
▁Wirtschafts	-11.2791
erne,	-11.2792
▁rând	-11.2792
▁elections	-11.2792
▁gelijk	-11.2793
gan	-11.2793
▁confianza	-11.2796
▁omfattende	-11.2797
gri	-11.2799
tri	-11.2801
▁προσέγγιση	-11.2803
▁człowieka	-11.2804
▁bekend	-11.2805
▁itt	-11.2805
itate	-11.2806
▁Frattini	-11.2806
▁Ansatz	-11.2807
▁naši	-11.2807
▁buona	-11.2807
▁Angelegenheit	-11.2808
▁βελτίωση	-11.2809
▁training	-11.2809
▁149	-11.2809
nă	-11.2811
▁ges	-11.2811
▁bestrijding	-11.2812
▁EIB	-11.2814
▁focus	-11.2816
▁commerciale	-11.2817
▁l'un	-11.2818
▁demokratiska	-11.2819
▁optreden	-11.282
▁anvendes	-11.282
liku	-11.2822
▁clima	-11.2823
▁samman	-11.2824
nju	-11.2826
▁potencial	-11.2826
▁symbol	-11.2827
▁angesichts	-11.2827
▁jež	-11.2828
▁Verheugen	-11.283
▁współpracy	-11.2832
▁experience	-11.2832
▁told	-11.2832
▁traktaten	-11.2834
▁počas	-11.2835
▁sida	-11.2836
▁aceasta	-11.2837
▁enorm	-11.2837
▁collaborazione	-11.2838
▁mamy	-11.284
▁Uważam	-11.2841
▁satisfacción	-11.2842
▁directives	-11.2843
▁appel	-11.2844
▁terceros	-11.2845
▁bastante	-11.2847
▁petites	-11.2847
▁gøres	-11.2847
▁niż	-11.2848
▁comporta	-11.2848
▁imp	-11.2851
▁πώς	-11.2851
▁temi	-11.2851
ра	-11.2852
▁Ya	-11.2855
▁reduction	-11.2857
▁după	-11.2857
▁herrer!	-11.2859
▁hatten	-11.286
šana	-11.2861
▁impossible	-11.2862
▁næsten	-11.2863
▁turismo	-11.2864
▁której	-11.2865
▁Ομάδα	-11.2865
▁medelstora	-11.2867
▁Außerdem	-11.287
▁strateegia	-11.287
▁présenter	-11.2871
▁until	-11.2873
▁ezen	-11.2873
▁necessarie	-11.2877
▁difesa	-11.2877
▁prekybos	-11.2878
▁Ako	-11.2878
▁amplia	-11.288
▁volk	-11.2882
▁morgon	-11.2883
▁ministro	-11.2886
▁serve	-11.2889
▁lavoro.	-11.2889
▁bekannt	-11.289
set	-11.289
▁proposto	-11.2895
▁informe.	-11.2896
▁Gruppe	-11.2897
am,	-11.2898
▁años,	-11.2899
▁wenig	-11.2899
▁exige	-11.2902
▁Norėčiau	-11.2904
ма	-11.2905
▁διαδικασίας	-11.2905
▁gibt,	-11.2906
▁vorige	-11.2908
▁proberen	-11.2909
▁Bi	-11.291
ė	-11.2911
cel	-11.2911
▁puestos	-11.2913
ton	-11.2914
lise	-11.2915
nými	-11.2916
▁verklaring	-11.2917
▁zunächst	-11.2917
▁σημασίας	-11.292
▁fordern	-11.292
▁show	-11.2921
▁vanuit	-11.2922
▁vždy	-11.2924
▁genomförandet	-11.2924
sätt	-11.2925
▁prac	-11.2926
ér	-11.2928
tru	-11.2929
▁νέες	-11.293
ч	-11.2932
▁Moldova	-11.2932
▁ορισμένα	-11.2933
tive	-11.2933
▁betænkning.	-11.2934
▁særlige	-11.2936
▁transfrontalier	-11.2936
▁everyone	-11.2936
▁huvud	-11.2941
▁γυναικών	-11.2941
▁meeste	-11.2941
▁Vy	-11.2942
▁werkelijk	-11.2943
▁aftaler	-11.2944
▁arbeiten	-11.2945
isten	-11.2945
uti	-11.2947
▁houdt	-11.2948
▁José	-11.2948
▁Ergebnisse	-11.2949
at,	-11.2949
▁tevens	-11.295
▁част	-11.295
▁Information	-11.295
▁előtt	-11.295
▁governance	-11.2952
▁вече	-11.2953
▁Råd	-11.2953
bit	-11.2954
eks	-11.2955
▁bro	-11.2956
▁solidariteit	-11.2956
▁stemt	-11.2957
▁varie	-11.2957
▁Libro	-11.2957
ambi	-11.2958
ncia	-11.2958
▁votat	-11.2958
▁cred	-11.2959
▁Taryba	-11.2961
put	-11.2963
▁palabra	-11.2963
▁Michel	-11.2968
▁valore	-11.297
▁value	-11.297
▁pauvreté	-11.297
▁öppna	-11.2972
oc	-11.2972
▁apartado	-11.2973
▁Πρόκειται	-11.2973
νομ	-11.2975
▁carried	-11.2976
▁genera	-11.2976
sfähigkeit	-11.2977
▁finalmente	-11.2977
ón	-11.2977
▁mindig	-11.298
▁;	-11.2981
▁develop	-11.2981
▁úr!	-11.2983
▁four	-11.2984
▁На	-11.2985
▁FN	-11.2985
▁jelenlegi	-11.2986
▁jasne	-11.2988
▁Istituzioni	-11.2989
ib	-11.2989
▁ONG	-11.2989
▁stessi	-11.2989
▁fonda	-11.299
▁expect	-11.2991
▁sammanhållning	-11.2992
▁actuar	-11.2992
▁мерки	-11.2993
▁ministri	-11.2993
if	-11.2996
▁αυτούς	-11.2999
▁strutturali	-11.2999
▁mira	-11.2999
▁Zweitens	-11.3003
▁deciso	-11.3005
its	-11.3006
une	-11.3007
▁kuna	-11.3009
▁fællesskabs	-11.3009
▁Party	-11.301
▁øvrigt	-11.301
▁preşedinte	-11.3011
▁Wahl	-11.3012
▁semana	-11.3013
▁pont	-11.3014
hin	-11.3015
▁projecten	-11.3016
ότητας	-11.3017
▁lag	-11.3019
▁jobb	-11.3019
▁föreslår	-11.3019
▁innehåller	-11.3021
▁passe	-11.3021
▁reunión	-11.3024
▁Hinsicht	-11.3025
▁ayudas	-11.3027
ute	-11.3028
▁animali	-11.3028
▁förra	-11.3028
▁vienas	-11.303
elle	-11.3032
▁Sitzung	-11.3035
▁consequences	-11.3035
▁sanktioner	-11.3036
▁dell'Europa	-11.3036
▁ennek	-11.3036
▁juiste	-11.3038
▁támogatás	-11.3038
cher	-11.3039
▁jeśli	-11.304
okra	-11.304
▁bekæmpelse	-11.3044
▁veci	-11.3045
▁περιβάλλον	-11.3046
▁asyl	-11.3047
plo	-11.3047
▁θεωρώ	-11.3048
▁irányuló	-11.3048
▁bisher	-11.3049
▁Terrorismus	-11.3049
▁dois	-11.305
▁mantenere	-11.305
▁offre	-11.3051
▁politické	-11.3051
▁Derechos	-11.3051
less	-11.3053
▁priorités	-11.3054
ings	-11.3056
enta	-11.3057
enti	-11.3058
▁gesproken	-11.3059
▁Ben	-11.3059
▁Herren!	-11.306
▁kære	-11.3061
▁nadzieję	-11.3061
▁pobreza	-11.3064
ast	-11.3065
▁religion	-11.3067
▁povertà	-11.3067
▁omfattande	-11.3067
▁sabemos	-11.3068
▁ravni	-11.3068
▁charge	-11.3071
▁statement	-11.3072
▁länge	-11.3073
▁Human	-11.3074
vas	-11.3074
▁Daten	-11.3076
▁tähtis	-11.3083
▁klausimą	-11.3083
▁accepter	-11.3084
▁Ausschuß	-11.3086
▁Ro	-11.3086
▁wobei	-11.3086
lbstverständlich	-11.3086
▁έχω	-11.3091
▁loin	-11.3091
▁fortsätter	-11.3094
▁coûts	-11.3096
▁grup	-11.3096
idas	-11.3098
▁εγώ	-11.3099
▁manglende	-11.31
▁typ	-11.31
▁intressen	-11.3101
▁regulations	-11.3101
▁apporter	-11.3102
▁qu'on	-11.3103
vien	-11.3103
▁contempo	-11.3105
osa	-11.3105
▁baseret	-11.3107
▁Bemühungen	-11.3107
▁establish	-11.3109
▁allora	-11.311
abile	-11.3111
▁military	-11.3111
▁hel	-11.3113
▁kriterier	-11.3117
pad	-11.3119
▁ændring	-11.3119
▁чрез	-11.3121
▁bepalingen	-11.3121
▁θέλουμε	-11.3124
tunk	-11.3125
schaft	-11.3126
▁χρειάζεται	-11.3126
▁farmers	-11.3126
▁land.	-11.3128
▁často	-11.3128
▁mimo	-11.313
ifica	-11.3131
▁jogok	-11.3132
▁Europeo,	-11.3132
▁overtuigd	-11.3134
▁samenleving	-11.3134
▁Musimy	-11.3134
ić	-11.3136
▁Tat	-11.3138
▁følger	-11.3138
▁resolutsiooni	-11.3139
▁33	-11.314
▁uiteindelijk	-11.314
▁gebrek	-11.3141
▁vare	-11.3142
у	-11.3142
▁hver	-11.3144
▁consultation	-11.3146
▁Tu	-11.3147
▁Conferencia	-11.3148
▁relating	-11.3148
tà	-11.315
▁συγκεκριμένα	-11.3151
▁machen.	-11.3152
▁zie	-11.3152
▁2006,	-11.3155
▁tabled	-11.3156
▁pokiaľ	-11.3159
▁sociaux	-11.3161
▁gospodje,	-11.3162
▁conclude	-11.3163
▁forhandlingerne	-11.3164
eremo	-11.3167
▁regular	-11.3169
▁Εάν	-11.317
▁Menschenrechts	-11.3171
jan	-11.3172
▁kraju	-11.3176
▁Noi	-11.3177
▁November	-11.3178
▁някои	-11.3178
▁tuleks	-11.3178
▁miatt	-11.3179
▁saying	-11.3179
▁problēmas	-11.318
▁muszą	-11.3181
▁Parlamentului	-11.3182
▁vægt	-11.3182
nel	-11.3183
▁structural	-11.3183
-betænkningen	-11.3183
▁transports	-11.3184
▁μετα	-11.3185
ského	-11.3185
▁licht	-11.3186
▁διάταξη	-11.3187
▁bar	-11.3187
▁Gefahr	-11.3187
▁modelo	-11.319
▁mé	-11.3191
▁increasing	-11.3192
▁último	-11.3192
▁sense	-11.3192
problem	-11.3192
▁Bestimmungen	-11.3193
▁nyligen	-11.3194
▁obchod	-11.3195
▁ми	-11.3196
▁réunion	-11.3196
▁violenza	-11.3197
▁έως	-11.3197
ude	-11.3197
▁namely	-11.3199
▁ministers	-11.3202
▁Európe	-11.3204
▁traktat	-11.3206
ades	-11.3206
rin	-11.3207
▁agriculture	-11.3207
▁преди	-11.3208
▁gospoda	-11.3209
▁continuer	-11.3209
▁ό,τι	-11.3211
▁aumentar	-11.3212
▁chceme	-11.3213
▁asked	-11.3213
▁absolument	-11.3213
▁κοινωνική	-11.3217
elser	-11.3219
▁kamp	-11.3219
▁vidt	-11.3219
▁pánové,	-11.3219
▁υπηρεσιών	-11.3221
▁Af	-11.3222
▁δράσης	-11.3222
▁quiere	-11.3223
▁terrorism	-11.3223
▁Green	-11.3224
▁Folgen	-11.3224
▁emissioni	-11.3224
▁στόχους	-11.3224
▁vrije	-11.3226
▁budžeta	-11.3226
▁europene	-11.323
rede	-11.323
40	-11.3231
▁Ši	-11.3231
ô	-11.3231
▁gruppen	-11.3232
▁noastre	-11.3232
▁presenta	-11.3233
▁agricultura	-11.3233
▁flexible	-11.3235
▁ideal	-11.3235
▁keep	-11.3237
▁risolvere	-11.3237
▁studi	-11.3238
▁naturalmente	-11.324
▁amenaza	-11.3241
▁desto	-11.3242
▁πλήρως	-11.3243
▁Austria	-11.3244
▁arról	-11.3244
▁Ent	-11.3246
▁behandelt	-11.3246
děl	-11.3248
▁rispondere	-11.3249
▁doelstelling	-11.3251
lad	-11.3255
▁langer	-11.3256
▁13.	-11.3257
▁critica	-11.3257
▁gab	-11.3257
▁34	-11.3259
ieron	-11.3261
▁equal	-11.3262
▁jedno	-11.3262
▁rapide	-11.3263
▁times	-11.3264
▁tell	-11.3266
kan	-11.3266
▁nepo	-11.3267
▁sektorer	-11.3268
▁timp	-11.3269
▁prostredníctvom	-11.3271
▁И	-11.3272
partner	-11.3274
▁jei	-11.3274
pas	-11.3281
▁följa	-11.3282
▁nagyobb	-11.3282
▁findet	-11.3282
▁Republic	-11.3282
▁review	-11.3283
▁højere	-11.3284
kraft	-11.3284
▁décidé	-11.3285
▁början	-11.3286
▁Präsidentin!	-11.3287
▁tuo	-11.3289
▁requirements	-11.3291
▁ilegal	-11.3291
eb	-11.3291
▁könnten	-11.3291
▁Mercosur	-11.3292
▁ressourcer	-11.3292
▁härra	-11.3293
▁d'avoir	-11.3293
prav	-11.3293
▁d'euros	-11.3296
▁človekovih	-11.3298
▁reprezintă	-11.3299
minister	-11.33
▁perspektiv	-11.33
ėjo	-11.3301
▁bzw.	-11.3304
▁auguro	-11.3304
▁Freiheit	-11.3304
▁Hur	-11.3304
▁considerare	-11.3305
▁sk	-11.3306
kli	-11.3306
▁everything	-11.3307
▁bruge	-11.3308
▁európskych	-11.3308
▁dovuto	-11.3309
▁asegurar	-11.3309
▁mort	-11.331
▁vprašanja	-11.3311
▁toetreding	-11.3312
▁travailler	-11.3315
▁sud	-11.3316
zem	-11.3316
▁omröstningen	-11.332
▁ли	-11.3321
▁Swoboda	-11.3321
▁version	-11.3321
rog	-11.3322
▁iniciativas	-11.3324
▁monetaria	-11.3324
▁poprzez	-11.3326
▁live	-11.3327
▁ampak	-11.3327
▁fünf	-11.3329
▁question.	-11.3331
▁précisément	-11.3332
▁Mai	-11.3332
▁Ved	-11.3334
▁επομένως	-11.3334
▁dobre	-11.3335
▁gondolom	-11.3337
▁åsikt	-11.3338
▁zpráva	-11.3338
▁schnell	-11.3338
▁syftar	-11.3339
spo	-11.3341
▁energética	-11.3342
▁iespēju	-11.3345
▁τούτου,	-11.3346
▁motivi	-11.3347
▁increased	-11.3347
▁vóór	-11.3348
▁blandt	-11.3348
▁Ú	-11.3349
▁jednání	-11.335
▁Madrid	-11.3351
s:	-11.3351
▁σ	-11.3352
▁arbejdet	-11.3352
▁rezultat	-11.3353
▁étaient	-11.3354
▁señalar	-11.3354
▁preocupación	-11.3354
▁ställa	-11.3357
▁cent	-11.3358
▁indica	-11.3359
▁sociaal	-11.3361
▁sammenhæng	-11.3361
▁B5-0	-11.3362
ra.	-11.3362
bili	-11.3364
▁tages	-11.3367
▁regel	-11.337
zna	-11.3371
▁fullständigt	-11.3373
▁qu'elles	-11.3373
▁varnost	-11.3375
▁γίνεται	-11.3376
▁vastgesteld	-11.3377
▁emp	-11.3378
▁europejskich	-11.3379
▁importants	-11.338
▁Verts/ALE	-11.3381
▁brott	-11.3383
▁dosiahnuť	-11.3384
▁favorevole	-11.3387
▁collaboration	-11.3387
▁erkennen	-11.3388
ży	-11.3389
▁powiedzieć	-11.339
ly,	-11.339
▁směrnice	-11.3391
matu	-11.3391
▁Minu	-11.3391
▁arbejds	-11.3392
▁seinem	-11.3394
▁sodelovanje	-11.3395
▁Nationen	-11.34
▁grotere	-11.3401
▁verdens	-11.3402
▁ramme	-11.3403
▁särskilda	-11.3405
▁British	-11.3406
▁external	-11.3406
atori	-11.3407
▁påpeka	-11.3412
erne.	-11.3413
▁aplicare	-11.3413
▁δράση	-11.3414
▁mencionado	-11.3415
▁link	-11.3415
▁znovu	-11.3417
▁gadījumā	-11.3418
ēja	-11.3421
▁vijf	-11.3421
▁Protokoll	-11.3422
▁κι	-11.3423
▁Kinnock	-11.3423
▁solchen	-11.3426
▁strategic	-11.3427
▁rom	-11.3427
15	-11.3428
▁üles	-11.3428
▁pequeñas	-11.3429
▁billion	-11.3429
▁varios	-11.343
▁Σα	-11.3431
▁lehetővé	-11.3434
▁presented	-11.3434
sur	-11.3436
▁gelijke	-11.3437
▁överens	-11.3437
▁hospodářské	-11.3441
▁dépenses	-11.3442
▁standarder	-11.3442
▁6,	-11.3444
▁alltför	-11.3445
ujejo	-11.3445
āk	-11.3445
▁totalement	-11.3446
ismus	-11.3447
▁acestei	-11.3448
▁období	-11.3448
▁prioridad	-11.3448
▁sector.	-11.3451
▁biedt	-11.3451
▁Mugabe	-11.3451
kommen	-11.3451
▁drugs	-11.3452
▁taču	-11.3452
uw	-11.3452
▁Acest	-11.3454
▁doubt	-11.3456
▁pressure	-11.3457
▁Aufmerksamkeit	-11.3459
▁conclusione	-11.3459
▁Lissaboni	-11.346
▁beitragen	-11.346
▁date	-11.346
ίου	-11.346
▁ossia	-11.3461
ů.	-11.3462
▁teda	-11.3463
▁When	-11.3463
▁udarbejde	-11.3464
▁veikt	-11.3467
▁fishing	-11.3467
sektoren	-11.3469
▁peuple	-11.3469
▁leve	-11.3469
vä	-11.347
tura	-11.347
▁imieniu	-11.3471
▁zprávě	-11.3471
▁suur	-11.3472
▁Angelegenheiten	-11.3474
▁linje	-11.3475
▁extrem	-11.3475
▁8.	-11.3477
▁effektive	-11.3478
▁skutečně	-11.3479
▁fick	-11.348
ιο	-11.3481
▁Währung	-11.3482
▁wszystkie	-11.3482
▁jusqu'à	-11.3482
ζ	-11.3483
▁Door	-11.3485
▁podniky	-11.3486
ują	-11.3488
▁inget	-11.3489
▁Slutligen	-11.349
▁65	-11.349
▁sociale.	-11.349
▁hoved	-11.3491
▁potrà	-11.3492
▁dalībvalstīm	-11.3493
ché	-11.3494
за	-11.3494
pol	-11.3495
▁gleich	-11.3496
mmissionsledamot	-11.3496
oti	-11.3496
▁cerca	-11.3497
▁hommes	-11.3499
▁mértékben	-11.3499
▁quienes	-11.35
▁zajistit	-11.3501
▁assessment	-11.3503
▁générale	-11.3504
▁prova	-11.3506
▁parmi	-11.3506
▁7.	-11.3506
▁baggrund	-11.3507
▁lecture	-11.3507
▁svolgere	-11.351
▁Oriente	-11.351
▁Συνθήκης	-11.3513
▁d’autres	-11.3514
▁London	-11.3516
vých	-11.3516
▁gemenskaps	-11.3517
▁reale	-11.3521
▁iga	-11.3525
▁koos	-11.3526
▁Canada	-11.3527
▁jogi	-11.3529
▁majandus	-11.3529
▁bewust	-11.353
▁hinder	-11.353
▁παρούσα	-11.3531
▁særligt	-11.3531
▁можем	-11.3531
▁συχνά	-11.3533
▁gratulera	-11.3536
fel	-11.3536
με	-11.3539
santrag	-11.354
▁Stockholm	-11.3541
▁opportunities	-11.3541
▁Όσον	-11.3541
▁neemt	-11.3542
▁vengano	-11.3543
▁kuriuos	-11.3543
az	-11.3545
hl	-11.3545
▁osob	-11.3546
▁revisión	-11.3547
▁jakie	-11.3548
dat	-11.3548
▁Punkte	-11.3548
vod	-11.3549
▁prioridades	-11.3549
▁résoudre	-11.3551
▁sorgen	-11.3551
▁Zeitpunkt	-11.3553
▁dumping	-11.3554
▁celles	-11.3554
▁emissions	-11.3557
▁promover	-11.356
▁throughout	-11.3561
ille	-11.3562
▁required	-11.3562
▁chcel	-11.3562
▁Europoje	-11.3564
▁joprojām	-11.3564
▁områder,	-11.3564
▁daarvoor	-11.3564
▁vlády	-11.3565
▁partenaires	-11.3566
▁iespējas	-11.3566
▁conforme	-11.3567
nad	-11.3567
▁adapt	-11.3567
▁försöker	-11.3569
▁package	-11.3569
▁direktiivi	-11.357
▁permet	-11.3571
▁Kollegen!	-11.3572
▁getan	-11.3572
ova	-11.3572
▁nyt	-11.3573
▁développer	-11.3574
▁връзка	-11.3575
▁ú	-11.3576
▁katerih	-11.3576
dé	-11.3578
roz	-11.3578
▁2004,	-11.3581
▁præsident	-11.3582
▁6.	-11.3583
▁thus	-11.3584
▁ημερήσια	-11.3584
▁sellega	-11.3584
▁forpligtelser	-11.3585
▁Bulgarien	-11.3587
▁încă	-11.3589
▁almeno	-11.359
▁transparantie	-11.359
▁popolo	-11.3591
▁eindeutig	-11.3593
▁n’a	-11.3593
▁Reino	-11.3593
▁hand,	-11.3594
▁Handels	-11.3595
▁Occorre	-11.3595
▁години	-11.3595
▁Evropi	-11.3595
▁carne	-11.3595
▁passato	-11.3596
▁minimal	-11.3597
▁betänkande.	-11.3598
▁tänker	-11.3598
γκ	-11.3598
▁prese	-11.3599
▁Sveta	-11.36
▁priorities	-11.3601
▁våld	-11.3601
ális	-11.3602
▁tilfældet	-11.3605
▁volledige	-11.3606
det	-11.3606
▁forvaltning	-11.3609
▁indien	-11.361
▁ε	-11.3611
▁importe	-11.3613
▁zprávy	-11.3614
id,	-11.3615
fond	-11.3617
lat	-11.3617
▁endelig	-11.3617
▁Β	-11.3617
▁Cina	-11.3618
▁sola	-11.3619
▁Europie	-11.362
▁nők	-11.3621
▁l'utilisation	-11.3621
fri	-11.3623
▁coordinamento	-11.3623
▁β	-11.3624
▁precedente	-11.3624
▁развитие	-11.3625
▁бих	-11.3626
▁carácter	-11.3626
▁znaczenie	-11.3626
ását	-11.3627
▁spoločnosti	-11.3629
▁utanför	-11.3629
ď	-11.363
▁porre	-11.363
по	-11.3632
▁Dėl	-11.3632
ary	-11.3632
rad	-11.3633
▁responder	-11.3634
▁quatre	-11.3638
nden	-11.3639
▁kartą	-11.3639
▁substances	-11.364
▁spôsob	-11.3641
▁invest	-11.3644
▁años.	-11.3645
▁garantie	-11.3645
▁lediglich	-11.3649
▁jautājumu	-11.3649
▁l'euro	-11.3649
iste	-11.365
▁kurią	-11.365
▁terreno	-11.3651
▁competenze	-11.3652
▁środki	-11.3652
▁bestimmte	-11.3652
▁servizio	-11.3652
▁pla	-11.3652
▁III	-11.3652
▁proposé	-11.3652
tav	-11.3653
▁nulla	-11.3653
▁gett	-11.3653
▁climático	-11.3654
auf	-11.3655
ем	-11.3655
dar	-11.3656
αλ	-11.3656
▁Projekt	-11.3658
▁sexual	-11.3659
▁zweite	-11.3659
▁sagte	-11.3661
▁großer	-11.3666
▁αφορούν	-11.3666
▁fără	-11.3666
▁Dinge	-11.3667
▁stabiliteit	-11.3667
▁facile	-11.3668
▁víctimas	-11.3671
antes	-11.3674
imos	-11.3674
▁coup	-11.3677
lande	-11.3677
▁d’a	-11.368
▁kura	-11.3682
▁reforzar	-11.3683
▁zeigt	-11.3684
▁politiken	-11.3684
▁visum	-11.3684
▁mismos	-11.3685
▁kennen	-11.3687
▁πρόσβαση	-11.3687
▁době	-11.3688
▁potrebbero	-11.3688
▁klimat	-11.3688
▁απολύτως	-11.3689
▁jūsų	-11.369
sh	-11.3691
▁Asimismo	-11.3692
▁inimõiguste	-11.3692
▁tradition	-11.3692
scri	-11.3692
▁essi	-11.3694
▁například	-11.3695
▁conférence	-11.3695
itev	-11.3696
▁difficultés	-11.3697
hen	-11.3697
▁sensible	-11.37
▁economiche	-11.3701
▁Εν	-11.3701
▁Tag	-11.3703
▁lidských	-11.3703
▁pomocy	-11.3708
▁prochaine	-11.371
▁Kompromiss	-11.371
▁(S	-11.3711
▁finants	-11.3712
▁dve	-11.3713
▁aanwezig	-11.3714
▁called	-11.3715
ful	-11.3716
ps	-11.3717
▁phase	-11.3717
▁either	-11.3718
▁mari	-11.3718
▁budgetary	-11.3719
▁insist	-11.372
▁gevaar	-11.372
▁applicazione	-11.3723
▁Επιπλέον	-11.3723
▁εσωτερική	-11.3723
abel	-11.3725
skap	-11.3725
σή	-11.3726
▁συνέπεια	-11.3726
▁avtalet	-11.3729
▁maximum	-11.3729
▁samhället	-11.3731
▁fatti	-11.3734
▁hervormingen	-11.3734
▁tard	-11.3734
▁Georgia	-11.3736
▁valeur	-11.3737
▁hvorfor	-11.3738
inis	-11.3738
ijn	-11.3739
▁dificultades	-11.374
▁βρίσκεται	-11.3741
▁orientale	-11.3742
▁iedzīvotāju	-11.3743
▁teile	-11.3743
cích	-11.3743
▁gal	-11.3744
▁l'objet	-11.3746
▁ψηφίσματος	-11.3746
▁accesso	-11.3748
ήσουν	-11.3749
▁συνεπώς	-11.3749
▁Evropský	-11.3751
▁nebude	-11.3751
▁secteurs	-11.3752
▁impuls	-11.3752
▁Ukraina	-11.3754
▁φαίνεται	-11.3754
▁vorgeschlagen	-11.3754
▁vient	-11.3756
▁42	-11.3756
▁državami	-11.3757
komen	-11.3759
▁réformes	-11.3761
ura	-11.3761
▁ima	-11.3762
▁lenne	-11.3763
▁občanov	-11.3763
▁pracovní	-11.3765
organisationen	-11.3765
▁råder	-11.3766
▁powinniśmy	-11.3766
▁2013.	-11.3767
▁zmian	-11.3768
▁stanowi	-11.3768
tiva	-11.3768
▁contribuire	-11.3769
▁invloed	-11.3769
▁evropski	-11.3771
▁Doch	-11.3772
▁odgovor	-11.3772
▁sprog	-11.3772
▁found	-11.3772
▁unor	-11.3773
▁finnas	-11.3775
▁lidí	-11.3775
▁preso	-11.3777
▁činnosti	-11.3777
▁nunca	-11.3778
▁drošības	-11.3778
stup	-11.3779
▁sou	-11.3779
▁communautaires	-11.378
▁rokov	-11.378
ň	-11.378
▁discutere	-11.3781
▁πάντα	-11.3781
produkter	-11.3782
▁berücksichtigt	-11.3784
ian	-11.3785
▁interessant	-11.3786
▁tien	-11.3787
▁Desuden	-11.3792
▁obwohl	-11.3793
produktion	-11.3793
▁ven	-11.3793
bas	-11.3795
▁Arbeitsplätze	-11.3795
▁krig	-11.3796
▁overveje	-11.3797
▁agire	-11.3797
▁comes	-11.3797
▁Blair	-11.3798
▁opgenomen	-11.3799
▁samhørighed	-11.3801
▁(SL)	-11.3801
▁polgárok	-11.3802
arbeit	-11.3804
▁Vertrauen	-11.3804
▁independent	-11.3804
▁év	-11.3804
▁muu	-11.3805
▁chiede	-11.3805
▁sinds	-11.3806
ből	-11.3807
ernes	-11.3807
kre	-11.3808
▁Neu	-11.3808
▁l'heure	-11.3811
▁natura	-11.3811
▁livsmedels	-11.3811
idos	-11.3812
▁terzi	-11.3812
▁quoi	-11.3813
▁sociale,	-11.3813
▁vormt	-11.3814
▁п	-11.3815
▁fly	-11.3815
▁kaitse	-11.3816
▁jouer	-11.3817
▁oberoende	-11.3817
▁Rom	-11.3818
ţie	-11.3821
▁présenté	-11.3822
▁sesión	-11.3826
▁Prozess	-11.3826
▁inmigración	-11.3827
zó	-11.3828
▁tenere	-11.3829
▁prek	-11.383
▁code	-11.383
▁defensa	-11.383
▁Selle	-11.383
▁Erstens	-11.3831
▁αυτό.	-11.3831
▁kap	-11.3831
▁temas	-11.3832
▁θέσεις	-11.3833
▁efectos	-11.3836
▁Γ	-11.3839
▁organisaties	-11.3841
▁wichtiger	-11.3841
▁varför	-11.3842
▁προϊόντων	-11.3845
▁leveren	-11.3845
mist.	-11.3847
▁meisten	-11.3848
▁skladu	-11.3848
ām,	-11.3849
▁ändra	-11.385
▁insatser	-11.3851
▁písomne.	-11.3851
▁защо	-11.3851
▁därmed	-11.3853
▁semaine	-11.3853
▁old	-11.3853
▁επίτευξη	-11.3853
▁considération	-11.3854
sis	-11.3854
ūs	-11.3854
▁pienamente	-11.3854
ták	-11.3855
▁dagens	-11.3855
tega	-11.3856
▁povedal	-11.3856
▁community	-11.3857
▁Regional	-11.3858
▁Európsky	-11.3859
ator	-11.386
bereich	-11.3861
sverfahren	-11.3862
▁απασχόλησης	-11.3862
▁treffen	-11.3863
ssen	-11.3864
▁días	-11.3865
▁armoede	-11.3865
isti	-11.3866
▁kennis	-11.3868
▁policy,	-11.3869
▁най-	-11.3869
▁φ	-11.3869
▁interessante	-11.3871
ität	-11.3874
▁millega	-11.3875
▁situace	-11.3877
▁evropských	-11.3878
▁λόγος	-11.3882
▁Desde	-11.3883
ξ	-11.3883
▁pourra	-11.3883
▁εντός	-11.3883
▁helemaal	-11.3883
▁ευθύνη	-11.3885
▁Nicht	-11.3885
▁mededeling	-11.3886
▁Ud	-11.3886
ša	-11.3887
▁υπ	-11.3889
▁Hoe	-11.3889
▁šim	-11.389
▁transfer	-11.3891
▁practice	-11.3891
▁negativa	-11.3892
▁naprej	-11.3894
▁καλή	-11.3894
ative	-11.3895
▁stre	-11.3895
▁περιπτώσεις	-11.3899
▁marca	-11.3899
▁Präsidenten	-11.39
▁αποτελέσματα	-11.39
▁Landes	-11.3901
▁Trans	-11.3902
▁času	-11.3903
ses	-11.3905
kul	-11.3906
▁εκατομμύρια	-11.3909
▁vergangenen	-11.391
▁pratiques	-11.3911
▁държави-членки	-11.3912
▁rá	-11.3914
▁around	-11.3915
▁Samuti	-11.3915
▁καλά	-11.3916
▁számos	-11.3917
▁tirdzniecības	-11.3917
▁spel	-11.3918
▁mein	-11.3918
šanu	-11.392
▁tiltrædelse	-11.3921
▁Luxemburg	-11.3923
▁betona	-11.3923
▁spremembe	-11.3923
▁tratar	-11.3923
▁hantera	-11.3924
ult	-11.3925
▁Kraft	-11.3925
▁Mitteilung	-11.3927
▁12.	-11.393
▁Ils	-11.3931
▁opmerkingen	-11.3933
▁ľudských	-11.3933
▁gehad	-11.3933
ții	-11.3934
▁emberek	-11.3935
▁pleinement	-11.3936
▁λάβει	-11.3937
▁enam	-11.3937
▁situaci	-11.3939
▁Polonia	-11.3941
▁erneut	-11.3942
▁komisár	-11.3943
▁aider	-11.3943
▁vuole	-11.3944
▁mene	-11.3944
▁sista	-11.3944
▁contenido	-11.3944
▁språk	-11.3944
ome	-11.3945
▁scambio	-11.3945
▁betrifft	-11.3945
▁prioritet	-11.3946
▁fungerend	-11.3947
▁planer	-11.3949
ę,	-11.3949
▁Luxembourg	-11.395
▁creëren	-11.395
▁przedmiotow	-11.395
▁10.	-11.3951
▁permettant	-11.3951
tore	-11.3951
▁együtt	-11.3953
▁svårt	-11.3955
ous	-11.3957
▁félicite	-11.3958
▁junto	-11.3958
▁Lebensmittel	-11.3959
▁Γι'	-11.3959
ntes	-11.396
▁Fractie	-11.3962
ρο	-11.3962
▁Mu	-11.3962
▁grenzen	-11.3963
▁goda	-11.3963
▁completa	-11.3964
κο	-11.3964
▁raggiunto	-11.3965
▁προγράμματα	-11.3965
▁Asia	-11.3966
▁menudo	-11.3968
▁séance	-11.3968
▁begge	-11.3968
ności	-11.3969
▁avsluta	-11.3969
ierten	-11.3973
▁enbart	-11.3974
▁m'	-11.3975
gra	-11.3975
▁war,	-11.3976
▁landets	-11.3977
▁anslutning	-11.3977
▁punct	-11.3979
tim	-11.398
▁tę	-11.3981
▁OMC	-11.3983
é.	-11.3983
▁Vertrags	-11.3984
▁aplica	-11.3986
▁vos	-11.3986
▁opfordre	-11.3986
jām	-11.3986
▁κείμενο	-11.3988
▁tahaksin	-11.3988
▁constructive	-11.3989
▁adottato	-11.3989
▁vilje	-11.3991
▁tud	-11.3991
▁esté	-11.3991
▁film	-11.3995
▁parallel	-11.3995
ující	-11.3996
▁άρθρο	-11.3997
▁inimeste	-11.3997
▁undvika	-11.3997
cho	-11.4
▁firma	-11.4003
▁publics	-11.4004
διαπραγματεύσεις	-11.4005
▁Haupt	-11.4005
▁nadal	-11.4006
▁szczególnie	-11.4006
nica	-11.4007
bal	-11.4007
▁opportuno	-11.401
▁constituent	-11.4011
▁mindste	-11.4011
▁Uhr	-11.4011
▁praksis	-11.4011
▁zatem	-11.4012
▁ecu	-11.4013
▁trova	-11.4015
▁decided	-11.4015
▁Annahme	-11.4015
▁toezicht	-11.4015
▁ίσως	-11.4018
▁halten	-11.4019
▁mērķis	-11.4021
τρ	-11.4022
▁alkohol	-11.4022
ше	-11.4026
▁95	-11.4031
▁ændre	-11.4032
▁társadalmi	-11.4033
▁Lisabonas	-11.4033
tica	-11.4034
tá	-11.4035
▁chacun	-11.4036
▁bezüglich	-11.4036
▁expressed	-11.4036
▁metoder	-11.4037
▁dotyczących	-11.4037
▁riforme	-11.4039
▁politik,	-11.404
ø	-11.404
▁partage	-11.4042
▁Nigeria	-11.4043
▁nucleare	-11.4043
▁było	-11.4044
rel	-11.4044
▁allvarliga	-11.4044
▁económicos	-11.4045
▁produktion	-11.4047
▁Mitglied	-11.4048
▁kohta.	-11.4048
▁côté	-11.4048
▁teiste	-11.4048
▁Mitgliedstaat	-11.4049
▁vamos	-11.4049
▁address	-11.405
▁möte	-11.4051
▁Kaip	-11.4051
plat	-11.4053
▁capacité	-11.4054
▁jasné	-11.4054
▁reti	-11.4055
▁więcej	-11.4055
▁bred	-11.4057
▁commencer	-11.4058
▁priekšlikumu	-11.4058
▁perspectives	-11.4059
▁Ireland	-11.4059
▁ponai,	-11.406
elige	-11.406
▁jelentős	-11.4061
▁using	-11.4062
▁Consiliului	-11.4063
liv	-11.4064
▁Damit	-11.4064
▁nævne	-11.4064
▁hinweisen	-11.4066
ek,	-11.4066
▁consument	-11.4067
▁Ru	-11.4067
▁einzige	-11.4068
▁behoefte	-11.4068
▁lesquels	-11.4068
▁normen	-11.4068
▁anvende	-11.4069
▁haciendo	-11.407
▁βήμα	-11.407
▁pvz.,	-11.4071
▁putem	-11.4071
▁Organisation	-11.4074
▁tydeligt	-11.4074
▁Conferenza	-11.4074
▁Staat	-11.4075
▁grands	-11.4076
▁desarrollar	-11.4079
▁powinna	-11.408
öl	-11.4081
ήθηκε	-11.4083
▁eksisterende	-11.4084
ium	-11.4084
▁osas	-11.4087
▁keskkonna	-11.4088
sledamoten	-11.4091
▁gaan.	-11.4092
ia,	-11.4092
▁risiko	-11.4093
▁förhandlingarna	-11.4094
▁klimato	-11.4096
āt	-11.4096
▁gevraagd	-11.41
▁investeringen	-11.4101
▁aujourd’hui	-11.4101
▁attīstības	-11.4102
▁hör	-11.4102
▁šodien	-11.4103
▁waarden	-11.4104
▁tajā	-11.4104
▁volver	-11.4104
import	-11.4105
▁viņi	-11.4106
▁hlasování	-11.4106
▁mancanza	-11.4107
ερ	-11.4108
▁climatique	-11.4108
procedure	-11.4108
▁across	-11.411
▁Gründen	-11.411
▁βάσει	-11.411
ίων	-11.4114
ised	-11.4114
▁azon	-11.4115
▁contribuer	-11.4115
lov	-11.4115
▁leben	-11.4115
▁Eso	-11.4115
▁front	-11.4116
▁Lisabonos	-11.4117
▁aktu	-11.4117
▁pamat	-11.4118
δε	-11.4118
▁riktning	-11.4119
▁jūsu	-11.412
uda	-11.412
▁čemer	-11.4121
▁norm	-11.4121
▁λόγους	-11.4121
tta	-11.4121
▁nap	-11.4123
bau	-11.4124
wal	-11.4125
▁kern	-11.4127
▁dubbio	-11.4127
ders	-11.4131
▁hodnot	-11.4131
▁Armut	-11.4131
▁γυναίκες	-11.4134
gro	-11.4134
▁additional	-11.4135
▁vahel	-11.4135
▁openbare	-11.4135
▁politiskt	-11.4135
▁evropske	-11.4135
▁Notre	-11.4136
▁continente	-11.4138
▁tredjelande	-11.4139
▁teema	-11.4141
vil	-11.4142
▁tagállam	-11.4143
▁menim,	-11.4145
▁bleibt	-11.4146
▁succès	-11.4146
▁spolu	-11.4146
▁gennemført	-11.4146
ká	-11.4146
▁Unido	-11.4147
▁märk	-11.4147
▁Tampere	-11.4149
▁vergeten	-11.4149
stre	-11.4152
▁sikkerheds	-11.4152
▁necessari	-11.4152
▁diskutera	-11.4153
11	-11.4154
▁chciałbym	-11.4155
▁concludere	-11.4156
▁μπορώ	-11.4158
▁territorial	-11.4159
▁erster	-11.4161
▁Kā	-11.4162
▁unas	-11.4163
▁understrege,	-11.4164
cos	-11.4164
ване	-11.4164
υρ	-11.4165
▁próximo	-11.4166
▁55	-11.4166
-A	-11.4167
▁συστήματος	-11.4167
25	-11.4167
▁avea	-11.4168
▁agrícola	-11.4168
▁Anstrengungen	-11.4169
▁sale	-11.417
selt	-11.417
▁helfen	-11.417
▁tím,	-11.4171
▁eveneens	-11.4173
▁liikmesriigid	-11.4174
tum	-11.4174
▁dėmesį	-11.4175
▁obe	-11.4175
▁πόρων	-11.4176
▁five	-11.4176
▁inspir	-11.4177
▁Que	-11.4178
▁криза	-11.4178
▁massima	-11.4178
▁spazio	-11.4181
▁öppenhet	-11.4184
▁peine	-11.4184
▁negativ	-11.4184
▁solid	-11.4185
▁promet	-11.4186
▁cambios	-11.4187
▁nevis	-11.4188
▁jomā	-11.4189
umą	-11.4189
▁abban	-11.419
act	-11.4192
▁arbetet	-11.4194
▁espacio	-11.4194
▁votare	-11.4197
▁pomoč	-11.4198
▁minde	-11.4198
▁enable	-11.4199
▁anterior	-11.4199
▁stärker	-11.4199
▁markets	-11.4206
▁reached	-11.4206
▁futura	-11.4207
▁miei	-11.4208
▁waste	-11.4208
▁l'agriculture	-11.421
▁projekter	-11.4211
▁acestea,	-11.4212
▁sklad	-11.4212
hör	-11.4212
iser	-11.4213
▁páni,	-11.4213
▁negali	-11.4216
inį	-11.422
▁vertreten	-11.422
enda	-11.4221
eva	-11.4222
▁económicas	-11.4222
▁talking	-11.4223
sprocessen	-11.4223
▁necesidades	-11.4225
▁(DA)	-11.4225
▁ordfører	-11.4225
▁landbrugs	-11.4226
tat	-11.4227
▁hr	-11.423
▁ofrecer	-11.4231
▁zagotoviti	-11.4233
▁sprawozdaniu	-11.4233
σης	-11.4233
▁bygger	-11.4235
▁Now	-11.4235
▁bessere	-11.4236
▁prepared	-11.4237
▁enthalten	-11.4238
▁temps,	-11.4242
gg	-11.4244
▁tydlig	-11.4244
▁previous	-11.4244
▁porta	-11.4245
▁azok	-11.4248
▁maggiori	-11.425
▁normale	-11.4254
▁geleistet	-11.4255
▁coordinación	-11.4255
▁svarbus	-11.4255
čí	-11.4257
▁raised	-11.4257
▁odniesieniu	-11.4258
▁propuesto	-11.4258
▁bevoegdheden	-11.4259
ologi	-11.426
▁bilanci	-11.4261
▁omfatter	-11.4261
▁oorlog	-11.4262
▁financiero	-11.4262
▁dicha	-11.4262
▁hållbar	-11.4263
▁Chcel	-11.4263
▁dopravy	-11.4267
▁možno	-11.4267
▁oggetto	-11.4268
▁Aspekte	-11.4269
▁initiativer	-11.427
▁Dieses	-11.4273
post	-11.4273
ard	-11.4274
menti	-11.428
▁její	-11.4281
▁resolutionen	-11.4282
▁eelkõige	-11.4285
▁alvorlige	-11.4287
▁danger	-11.4287
bol	-11.4288
▁pasiekti	-11.4289
▁Island	-11.429
▁lecz	-11.4291
▁bu	-11.4291
▁circulation	-11.4291
tem	-11.4292
▁visus	-11.4293
▁kitų	-11.4293
áról	-11.4294
▁amount	-11.4295
▁principper	-11.4296
▁Washington	-11.4297
▁mikro	-11.4298
▁tarde	-11.4298
▁luego	-11.4299
▁важно	-11.43
▁bevorderen	-11.43
▁chiesto	-11.43
▁európskej	-11.4301
istas	-11.4302
jate	-11.4303
▁tempi	-11.4304
▁fini	-11.4305
▁communauté	-11.4306
▁Zum	-11.4308
▁(BG)	-11.4309
▁locale	-11.431
▁pure	-11.4312
▁initiatieven	-11.4312
▁compétences	-11.4312
-li	-11.4313
▁dyr	-11.4313
▁intention	-11.4313
▁együttműködés	-11.4313
▁chtěl	-11.4313
▁jurídico	-11.4314
▁πλευρά	-11.4316
▁hold	-11.4318
▁fik	-11.4319
▁Investitionen	-11.432
▁marcha	-11.432
▁behandlingen	-11.432
▁συνάδελφοι	-11.4322
▁EL	-11.4322
▁každý	-11.4324
▁όργανα	-11.4325
ają	-11.4326
▁armi	-11.4326
▁Inter	-11.4328
▁20%	-11.433
ók	-11.4331
▁rate	-11.4331
jąc	-11.4334
ateurs	-11.4334
▁kracht	-11.4336
▁genommen	-11.4336
▁Development	-11.4337
▁bæredygtig	-11.4338
▁Kot	-11.434
nuitvoerlegging	-11.434
▁pristop	-11.4342
▁ekonomiskt	-11.4342
▁Is	-11.4343
▁internationell	-11.4345
bes	-11.4346
▁priveşte	-11.4346
▁partnership	-11.4346
eerde	-11.4348
▁giusto	-11.4349
ėti	-11.4349
▁benefici	-11.4351
▁záležitosti	-11.4352
▁implemented	-11.4352
▁nadzor	-11.4354
▁μέσο	-11.4354
▁αυτός	-11.4354
▁lider	-11.4355
▁universal	-11.4357
▁inrätta	-11.4357
ācijas	-11.4359
▁Sache	-11.436
▁norma	-11.4361
▁dirección	-11.4361
szer	-11.4365
▁quota	-11.4367
▁contribute	-11.4367
▁προβλέπει	-11.4368
owy	-11.4368
tuk	-11.4369
eranno	-11.4369
▁предвид	-11.437
▁waarvoor	-11.4371
▁Regno	-11.4373
▁Kroatien	-11.4374
mata	-11.4374
▁takich	-11.4376
▁szociális	-11.4377
▁padėkoti	-11.4377
▁rådighed	-11.4377
▁volna	-11.4377
▁regret	-11.4379
▁Ponia	-11.4379
▁9.	-11.438
▁devoir	-11.438
▁poursuivre	-11.4383
▁úsilí	-11.4383
▁renforcement	-11.4383
▁Volgen	-11.4385
▁fer	-11.4387
pal	-11.4387
▁43	-11.4387
▁senare	-11.4388
▁túl	-11.439
▁samarbetet	-11.439
▁szó	-11.4391
rum	-11.4393
osi	-11.4395
▁tampoco	-11.4395
▁tab	-11.4396
▁multilateral	-11.4396
▁åtminstone	-11.4398
▁доклад	-11.44
l.	-11.44
▁εκτός	-11.4401
▁regionen	-11.4401
ping	-11.4405
▁τέτοιο	-11.4407
▁срещу	-11.4407
▁gefordert	-11.4408
▁пазар	-11.4409
▁Reding	-11.4409
▁judicial	-11.441
▁Lisbonne	-11.441
▁¡	-11.4411
▁streven	-11.4411
▁udvidelse	-11.4412
▁především	-11.4413
▁uitvoer	-11.4414
▁συμφωνίας	-11.4415
▁relazione.	-11.4415
▁laiko	-11.4415
▁vannak	-11.4417
▁solide	-11.4417
▁déclaré	-11.442
▁хора	-11.4421
▁air	-11.4422
▁2005,	-11.4423
tume	-11.4423
▁dėlto	-11.4429
▁regelgeving	-11.4429
▁concentra	-11.4429
▁home	-11.4431
▁erano	-11.4431
▁definizione	-11.4432
▁politice	-11.4432
▁cuatro	-11.4435
care	-11.4435
▁investeringer	-11.4436
▁sket	-11.4436
▁jste	-11.4436
▁controles	-11.4436
▁Vid	-11.4437
ór	-11.4437
▁d'accordo	-11.4437
▁angesprochen	-11.4438
▁ingediend	-11.4439
▁market.	-11.444
▁ūkio	-11.4441
▁danke	-11.4443
▁hayan	-11.4443
▁turn	-11.4443
▁reality	-11.4443
▁hot	-11.4444
▁spelen	-11.4445
▁reading	-11.4445
▁ezzel	-11.4445
▁incluir	-11.4445
▁prijs	-11.4446
▁pourraient	-11.4447
▁actuel	-11.4449
▁neboť	-11.445
▁r.	-11.445
▁oportunidades	-11.445
▁Šiuo	-11.4451
▁Frieden	-11.4452
▁vod	-11.4452
▁migliori	-11.4452
▁Mann	-11.4453
▁talk	-11.4455
▁Lu	-11.4456
▁Steuer	-11.4456
▁allein	-11.4457
▁essentieel	-11.4457
▁considère	-11.4458
▁predsednik	-11.4459
▁acc	-11.4462
▁itu	-11.4462
▁bijna	-11.4463
▁hälsa	-11.4465
osios	-11.4466
▁човека	-11.4466
▁semplicemente	-11.4467
▁piliečių	-11.4469
▁biudžeto	-11.4469
▁alimentos	-11.4469
syn	-11.447
στ	-11.4471
nak.	-11.4471
▁propios	-11.4472
▁μόλις	-11.4472
▁Elles	-11.4473
▁bom	-11.4473
▁kdo	-11.4475
▁puissent	-11.4475
▁überhaupt	-11.4475
▁skaber	-11.4477
▁Pas	-11.4478
wij	-11.4478
▁begrüßen	-11.4479
▁-y	-11.4479
▁χώρας	-11.4479
▁helaas	-11.448
▁gives	-11.4483
▁weiteren	-11.4484
▁financiar	-11.4484
▁frontiere	-11.4486
▁Hij	-11.4486
▁nič	-11.4486
▁l'occasion	-11.4487
▁besloten	-11.4488
▁World	-11.4488
▁nawet	-11.4488
hav	-11.4489
▁Zahl	-11.449
nější	-11.449
▁principalmente	-11.4491
▁danken	-11.4492
▁pression	-11.4492
▁Grenzen	-11.4492
▁udvidelsen	-11.4494
▁handeln	-11.4495
▁challenges	-11.4496
▁tragen	-11.4498
▁verslagen	-11.4498
lus	-11.4498
▁forhindre	-11.4499
▁court	-11.45
keit	-11.4504
▁programma's	-11.4506
▁reach	-11.4507
ów,	-11.4508
▁Öffentlichkeit	-11.4509
▁York	-11.451
▁областта	-11.451
rs	-11.4515
▁mondial	-11.4515
▁2015	-11.4515
▁dall'onorevole	-11.4516
▁ella	-11.4517
▁partij	-11.4518
▁balsoju	-11.452
▁light	-11.452
▁permettra	-11.452
▁σκοπό	-11.4521
▁valdkonnas	-11.4521
▁obchodu	-11.4521
▁Budget	-11.4522
▁об	-11.4523
▁presse	-11.4524
▁gelten	-11.4525
▁kohta,	-11.4526
rmi	-11.4527
št	-11.4528
▁cinco	-11.4528
▁delen	-11.4528
▁Ευρώπη.	-11.4528
▁table	-11.4529
▁bensì	-11.4531
▁kust	-11.4531
▁bevare	-11.4531
▁spraw	-11.4531
▁högre	-11.4532
▁bekymring	-11.4534
▁agera	-11.4534
▁cer	-11.4534
▁economică	-11.4536
▁dobré	-11.4538
▁série	-11.4541
▁priimti	-11.4542
▁honom	-11.4542
srecht	-11.4543
▁pomiędzy	-11.4544
▁όλο	-11.4544
▁nařízení	-11.4545
eringen	-11.4546
▁kerül	-11.4549
▁ją	-11.455
▁О	-11.455
▁Serbien	-11.455
▁unterstützen.	-11.4551
▁værdier	-11.4555
▁Lisbona	-11.4555
▁levels	-11.4555
uf	-11.4556
▁BSE	-11.4556
▁Vertice	-11.4556
▁presidency	-11.4556
▁Barrot	-11.4556
star	-11.4557
▁French	-11.4559
▁kredit	-11.456
▁uppgift	-11.456
▁sal	-11.4561
ort	-11.4561
▁hätten	-11.4564
▁medioambiental	-11.4564
▁Verpflichtungen	-11.4564
▁ligesom	-11.4566
▁undersøgelse	-11.4566
▁capitale	-11.4567
▁κοινού	-11.4567
▁kokku	-11.4569
▁chiedo	-11.4572
▁compétitivité	-11.4572
▁risques	-11.4572
▁preoccupazione	-11.4573
▁ministres	-11.4573
▁East	-11.4574
▁ponios	-11.4576
▁nogmaals	-11.4578
▁Darüber	-11.4578
▁Deuxièmement	-11.4578
▁nim	-11.4579
▁dimostra	-11.4579
▁Cyprus	-11.4579
▁ahol	-11.458
▁Forene	-11.458
▁mobil	-11.4582
stelling	-11.4584
▁miglioramento	-11.4584
▁volle	-11.4587
▁structures	-11.4587
▁Sozial	-11.4588
avo	-11.4588
▁Unionens	-11.4588
▁intézkedések	-11.4588
▁vasta	-11.4589
▁undantag	-11.4589
▁recently	-11.4589
anstaltninger,	-11.4591
erede	-11.4592
▁dû	-11.4593
▁prostředí	-11.4593
▁attiecas	-11.4594
▁nozīmē	-11.4596
▁seguro	-11.4597
όρ	-11.4599
ėje	-11.46
▁valstīs	-11.4601
▁powers	-11.4603
mb	-11.4603
▁Juni	-11.4603
▁fellow	-11.4603
ams,	-11.4606
▁locali	-11.4606
ök	-11.4607
▁geschaffen	-11.4607
▁aprobar	-11.4609
▁Druck	-11.4613
ral	-11.4613
▁Savienība	-11.4614
▁παράδειγμα,	-11.4614
īgi	-11.4615
▁súčasnosti	-11.4616
▁éviter	-11.4616
▁majoritet	-11.4617
▁justicia	-11.4618
punkt	-11.4619
▁põhi	-11.4619
▁fonction	-11.462
▁praktijk	-11.4621
▁espresso	-11.4622
▁malheureusement	-11.4622
▁1999.	-11.4622
plic	-11.4622
▁особено	-11.4624
▁comprendre	-11.4625
ρι	-11.4625
▁slag	-11.4625
ální	-11.4626
▁nástroj	-11.4627
▁Samtidigt	-11.4628
▁emisiones	-11.4628
▁quattro	-11.4628
▁vis-à-vis	-11.4628
▁supported	-11.4629
▁positions	-11.463
ři	-11.463
▁Λ	-11.4631
▁pacchetto	-11.4631
▁αποφάσεις	-11.4631
▁energetica	-11.4632
▁besoins	-11.4634
▁38	-11.4634
▁mensaje	-11.4635
▁beginsel	-11.4635
gó	-11.4636
▁lavorare	-11.4636
ían	-11.4637
zel	-11.4638
▁forsøge	-11.4639
▁ομάδα	-11.4639
▁visita	-11.464
▁trg	-11.4641
▁unseres	-11.4641
▁purtroppo	-11.4641
▁σημεία	-11.4641
▁origine	-11.4641
▁celé	-11.4642
▁exigences	-11.4643
iger	-11.4643
▁ledamot	-11.4643
▁saskaņā	-11.4643
vert	-11.4644
▁ensuite	-11.4644
▁zasad	-11.4644
▁plantea	-11.4645
olu	-11.4645
▁předsednictví	-11.4645
▁Wy	-11.4646
▁potuto	-11.4648
▁bilateral	-11.4648
▁return	-11.4648
pris	-11.4648
▁kommit	-11.4649
▁uue	-11.4649
▁Britse	-11.465
▁folgt	-11.465
▁administrativa	-11.4652
▁cél	-11.4653
▁raha	-11.4655
▁included	-11.4656
▁klimata	-11.4656
▁outside	-11.4656
▁beroep	-11.4657
regul	-11.4657
rai	-11.4658
▁banen	-11.4659
▁Schwierigkeiten	-11.4659
▁alimentaire	-11.4661
+	-11.4662
▁beneficios	-11.4663
▁fisheries	-11.4663
like	-11.4664
▁problema.	-11.4665
ované	-11.4666
▁1999,	-11.4667
da,	-11.4669
▁República	-11.4669
▁Änderungen	-11.4669
▁Iz	-11.4671
▁prioriteit	-11.4671
▁způsob	-11.4671
rov	-11.4672
▁exist	-11.4673
▁stats	-11.4674
▁podamos	-11.4674
▁frakcijos	-11.4676
stvo	-11.4677
-T	-11.4677
▁költségvetés	-11.4678
▁iniziativa	-11.4679
▁seduta	-11.4679
▁skaidri	-11.468
да	-11.4681
eti	-11.4681
▁distribution	-11.4683
▁hvilken	-11.4683
▁réglementation	-11.4684
bl	-11.4684
▁nodrošinātu	-11.4686
▁Unie,	-11.4686
▁pågældende	-11.4688
▁gestemd	-11.4689
▁απάντηση	-11.469
▁financieras	-11.4692
▁aangenomen	-11.4693
▁impegni	-11.4693
▁monitor	-11.4694
▁Hu	-11.4694
▁rischi	-11.4694
▁chômage	-11.4695
▁actuelle	-11.4695
▁adopter	-11.4695
▁l'élargissement	-11.4698
▁pirms	-11.4702
▁kulturelle	-11.4703
rob	-11.4703
▁Sektor	-11.4705
▁Arbeits	-11.4709
▁vatten	-11.471
▁σειρά	-11.471
▁established	-11.4711
▁cultuur	-11.4716
▁quickly	-11.4717
▁uniforme	-11.4717
▁coming	-11.472
▁schwer	-11.4721
/2001)	-11.4721
▁ergreifen	-11.4722
▁verbeteren	-11.4723
▁favoarea	-11.4723
▁bakgrund	-11.4723
▁stemmer	-11.4723
▁body	-11.4724
▁victims	-11.4725
▁adott	-11.4725
▁gennemføres	-11.4726
▁comercial	-11.4726
▁overigens	-11.4727
▁relativi	-11.4728
▁South	-11.473
▁öffentliche	-11.4732
ble	-11.4732
▁révision	-11.4733
▁livet	-11.4733
ър	-11.4738
šanās	-11.4739
▁grupa	-11.4741
▁urge	-11.4742
▁genre	-11.4744
▁nonostante	-11.4745
rak	-11.4746
▁spécifiques	-11.4746
▁absolutely	-11.4747
som	-11.4748
▁mangler	-11.4749
▁miljön	-11.4749
▁Abschließend	-11.4752
▁jménem	-11.4752
▁Woche	-11.4753
▁beneficio	-11.4753
azioni	-11.4753
▁origen	-11.4753
▁περί	-11.4754
▁Conference	-11.4755
▁εργασία	-11.4755
öd	-11.4756
öv	-11.4756
nat	-11.4758
▁uiterst	-11.4758
▁Partido	-11.476
▁USA,	-11.4761
sniveau	-11.4761
imento	-11.4761
ř	-11.4762
pel	-11.4762
▁czas	-11.4763
▁pokrok	-11.4763
▁Oggi	-11.4764
rnos	-11.4764
▁sfide	-11.4765
▁Irán	-11.4767
▁took	-11.4767
▁posibil	-11.4767
▁12.00	-11.4768
▁kryzysu	-11.4771
▁competitività	-11.4771
▁galimybę	-11.4772
▁tím	-11.4772
▁υποστήριξη	-11.4772
kur	-11.4775
tve	-11.4776
▁By	-11.4776
▁l'UE.	-11.4776
▁Gemeinschafts	-11.4779
▁Opfer	-11.478
▁leid	-11.4781
▁Kosovo,	-11.4781
▁Verkehrs	-11.4782
▁nylig	-11.4783
eh	-11.4784
▁clar	-11.4784
▁responsabili	-11.4785
▁réjouis	-11.4785
▁priemones	-11.4787
▁bovendien	-11.4787
▁dimostrato	-11.4788
▁kris	-11.4788
king	-11.4789
▁years.	-11.479
▁vă	-11.479
▁forbrugerne	-11.4791
▁afstemningen	-11.4791
▁Bureau	-11.4793
▁campagne	-11.4793
▁lett	-11.4793
▁herziening	-11.4794
▁ertoe	-11.4797
▁lettura	-11.4797
▁Congo	-11.4799
▁ανθρώπινα	-11.48
▁åbne	-11.48
▁Nästa	-11.4801
▁prakt	-11.4802
οποι	-11.4803
▁lectura	-11.4803
▁longtemps	-11.4806
▁tikrųjų	-11.4806
▁l'État	-11.4807
▁udfordringer	-11.4807
▁kobiet	-11.4808
▁l'objectif	-11.4809
▁δικαίου	-11.4809
▁potenciál	-11.4809
▁iba	-11.481
▁funktion	-11.481
▁küsimus	-11.481
▁servicio	-11.4811
▁acties	-11.4812
▁tack	-11.4812
▁ellas	-11.4815
▁Г-ж	-11.4815
50	-11.4817
▁okviru	-11.4817
▁utarbeta	-11.4817
▁brutal	-11.4818
▁πρώτο	-11.4819
▁Ba	-11.4819
▁tengan	-11.4819
▁tilslutte	-11.4822
tin	-11.4824
▁Chi	-11.4825
▁Antrag	-11.4826
▁verifica	-11.4829
▁exchange	-11.483
▁left	-11.4831
▁necesarias	-11.4832
▁mus	-11.4833
ására	-11.4833
▁Eiropā	-11.4835
▁constitution	-11.4835
▁Unito	-11.4837
▁price	-11.4837
▁choix	-11.4838
▁pollution	-11.4839
▁May	-11.484
▁съ	-11.484
πτ	-11.484
▁postoj	-11.484
▁fastställa	-11.4841
▁Can	-11.4844
▁ovvero	-11.4845
▁schließlich	-11.4845
▁advies	-11.4845
▁voorgestelde	-11.4845
▁effektivitet	-11.4846
▁gebruiken	-11.4847
▁J'	-11.4847
▁accettare	-11.4848
▁princippet	-11.4848
▁precisa	-11.4852
▁relativas	-11.4855
▁fat	-11.4858
▁domeniul	-11.4858
iej	-11.4861
▁ziņojumu	-11.4862
▁fører	-11.4863
▁věci	-11.4865
ött	-11.4865
▁represent	-11.4865
▁inhoud	-11.4867
▁bezpečnost	-11.4867
▁possibilités	-11.4868
▁ühise	-11.4868
▁spese	-11.487
▁gazdaság	-11.487
ετ	-11.487
▁ziņojumā	-11.4871
▁Inte	-11.4871
▁Verwaltung	-11.4872
▁sì	-11.4872
▁familie	-11.4873
▁leto	-11.4873
▁lobby	-11.4874
int	-11.4875
▁minaccia	-11.4875
▁нашите	-11.4877
▁budgeten	-11.4877
▁Lisboa	-11.4878
▁Τ	-11.4879
▁про	-11.4882
σχ	-11.4883
▁meddelelse	-11.4883
▁Trebuie	-11.4887
▁īstenot	-11.489
enden	-11.489
▁Balkans	-11.4891
▁isegi	-11.4891
▁bakom	-11.4892
▁prioriteiten	-11.4892
▁vanwege	-11.4892
▁source	-11.4893
jā	-11.4894
▁άνθρωποι	-11.4896
dama	-11.4897
kos	-11.4897
▁danken.	-11.4899
▁zwłaszcza	-11.4899
▁Vietnam	-11.49
▁măsuri	-11.49
▁precies	-11.49
▁considerar	-11.4904
▁contenu	-11.4905
▁centrum	-11.4907
▁predovšetkým	-11.4909
▁produttori	-11.4909
▁habrá	-11.4909
▁trend	-11.4911
▁Ke	-11.4913
▁njegov	-11.4913
▁προϋπολογισμό	-11.4918
cov	-11.4918
▁skutočne	-11.4921
▁Repubblica	-11.4922
▁tegenover	-11.4924
▁pieno	-11.4924
▁ordning	-11.4924
▁bod	-11.4925
▁kijken	-11.4927
▁Regeln	-11.4927
gas	-11.4927
tada	-11.4928
▁πράγματι	-11.4929
▁poslední	-11.4929
▁przyjęciem	-11.493
▁gekomen	-11.493
ş	-11.4931
▁attuali	-11.4932
▁votes	-11.4932
▁gemenskapen	-11.4933
▁souvislosti	-11.4934
▁uge	-11.4935
ssi	-11.4937
o-	-11.4938
▁travaux	-11.4938
▁rappresentanti	-11.4939
▁Spero	-11.4939
pat	-11.494
▁offen	-11.4941
▁vice	-11.4942
▁tillämpa	-11.4944
▁dialogu	-11.4945
▁miliardi	-11.4945
▁Mange	-11.4945
▁constater	-11.4945
▁strengthen	-11.4947
▁perspectiva	-11.4947
▁kasutada	-11.4948
▁προϊόντα	-11.4948
▁výbor	-11.4953
via	-11.4953
▁candidats	-11.4953
▁veramente	-11.4954
▁orient	-11.4954
▁podczas	-11.4955
kl	-11.4955
▁Liberal	-11.4956
▁spille	-11.4956
▁modello	-11.4958
▁sniegt	-11.4959
▁infine	-11.4959
▁magt	-11.496
▁låta	-11.4962
▁resultater	-11.4963
nal	-11.4963
▁fo	-11.4964
bouw	-11.4964
▁miest	-11.4965
▁abbiano	-11.4967
▁finale	-11.4969
▁fremtidige	-11.4969
▁hitta	-11.4971
▁competitividad	-11.4971
▁zapewnić	-11.4971
▁äga	-11.4972
ujemy	-11.4974
▁cioè	-11.4974
▁decât	-11.4974
▁overeenkomsten	-11.4974
πε	-11.4974
▁Fi	-11.4976
▁acceptera	-11.4976
▁migration	-11.4979
pres	-11.4979
ord	-11.4981
▁właśnie	-11.4981
▁contribuir	-11.4981
ks,	-11.4981
▁liegen	-11.4981
▁Genom	-11.4981
▁jordbruk	-11.4981
▁budget.	-11.4982
▁Economic	-11.4984
pet	-11.4984
▁Position	-11.4986
▁podporo	-11.4986
▁nasze	-11.4989
▁djur	-11.4989
▁Not	-11.4989
▁Tato	-11.499
▁valamennyi	-11.499
▁modèle	-11.4991
▁želim	-11.4992
▁pus	-11.4993
▁οικονομία	-11.4993
▁imtis	-11.4993
▁össze	-11.4993
▁250	-11.4994
ват	-11.4995
▁Kosovo.	-11.4996
▁berücksichtigen	-11.5
▁t.ex.	-11.5
▁lidstaten.	-11.5003
▁gebeurt	-11.5003
▁parla	-11.5004
▁près	-11.5006
▁σχέσεις	-11.5007
▁Wachstum	-11.5007
▁základě	-11.5008
els	-11.501
▁stabilire	-11.5011
-L	-11.5011
▁vente	-11.5012
▁skr	-11.5012
▁Just	-11.5012
▁portare	-11.5012
▁vaše	-11.5014
▁dziedzinie	-11.5014
▁miljøet	-11.5015
▁asszony	-11.5015
▁dāmas	-11.5017
▁fecha	-11.5017
▁presenti	-11.5021
▁esfuerzo	-11.5023
▁erinnern	-11.5023
▁säkerhets	-11.5023
▁betonen	-11.5024
▁užtikrinti,	-11.5024
▁kungs!	-11.5025
▁fonctionnement	-11.5027
▁institutionelle	-11.5028
▁REACH	-11.5028
▁εισηγητή	-11.5029
▁derniers	-11.5031
▁hittills	-11.5033
▁takie	-11.5034
▁proportion	-11.5035
▁sappiamo	-11.5036
▁1989	-11.5036
lä	-11.5037
▁spela	-11.5037
▁muss.	-11.5038
ικού	-11.5039
han	-11.5039
▁skade	-11.5042
▁sikker	-11.5043
Dienstleistungen	-11.5043
▁ton	-11.5044
▁indvandring	-11.5046
▁αλλαγή	-11.5046
iems	-11.5048
▁prend	-11.5048
▁erzielt	-11.505
▁durchgeführt	-11.505
▁Rehn	-11.505
át,	-11.505
▁vissza	-11.5053
▁comunidad	-11.5053
▁gerecht	-11.5053
▁siiski	-11.5055
▁medlemmerne	-11.5056
▁consulta	-11.5056
▁d'entre	-11.5056
▁sum	-11.5058
▁valstis	-11.5058
kä	-11.5058
▁surveillance	-11.5059
▁drog	-11.506
▁frihet	-11.506
▁potravin	-11.5062
▁treatment	-11.5063
▁aveva	-11.5063
▁Montenegro	-11.5064
▁labiau	-11.5064
▁Laten	-11.5066
▁przyszłości	-11.5066
▁dôvodu	-11.5067
▁stimme	-11.5069
skab	-11.507
▁milliards	-11.507
▁balans	-11.5071
▁2003,	-11.5071
▁Helsinki	-11.5072
▁τουλάχιστον	-11.5073
▁Šajā	-11.5073
ajo	-11.5073
ového	-11.5073
▁nello	-11.5074
▁gemäß	-11.5074
▁twijfel	-11.5076
▁tegelijkertijd	-11.5076
skega	-11.5076
▁bent	-11.5076
eux	-11.5076
▁beroende	-11.508
zet	-11.5081
▁natur	-11.5081
▁επιτροπή	-11.5083
▁sõna	-11.5084
▁ever	-11.5085
▁assez	-11.5086
▁voorzien	-11.5086
▁Ex	-11.5086
je,	-11.5087
-P	-11.5087
▁invoering	-11.5088
▁cambiamenti	-11.5089
▁Menim,	-11.5089
▁Vertreter	-11.5091
▁directrices	-11.5092
▁Európy	-11.5095
ски	-11.5095
▁annual	-11.5095
stig	-11.5096
▁krijgt	-11.5096
▁vlád	-11.5097
τελ	-11.5098
▁sentiment	-11.5098
[...]
