<s>	0
</s>	0
<unk>	0
<pad>	0
s	-3.59001
,	-3.6545
▁	-3.91407
.	-4.01303
e	-4.33719
▁de	-4.38456
t	-4.43621
i	-4.73057
a	-4.8231
n	-4.82778
▁a	-4.94452
en	-4.95332
r	-4.96362
▁la	-5.21939
▁in	-5.26875
▁en	-5.3116
er	-5.31835
u	-5.32419
o	-5.32692
d	-5.35737
m	-5.5527
▁the	-5.69989
▁i	-5.69999
l	-5.71312
▁que	-5.92762
▁to	-5.92889
▁di	-5.94652
re	-6.01232
z	-6.04052
y	-6.04571
k	-6.06745
▁un	-6.07198
j	-6.08941
▁le	-6.09559
te	-6.09672
es	-6.09848
▁be	-6.11643
▁se	-6.11919
▁e	-6.13513
▁for	-6.14265
▁die	-6.14514
de	-6.16011
▁der	-6.20028
c	-6.20528
▁van	-6.22546
ne	-6.23059
▁s	-6.23375
▁of	-6.23878
to	-6.24231
v	-6.28806
▁at	-6.2966
le	-6.31358
▁et	-6.33185
▁-	-6.33495
▁att	-6.35087
▁er	-6.35514
ti	-6.35966
ar	-6.36744
st	-6.3833
▁v	-6.40165
et	-6.41147
li	-6.42027
la	-6.42059
▁re	-6.42319
▁o	-6.42468
-	-6.43704
al	-6.43801
na	-6.43924
▁con	-6.44467
da	-6.46811
g	-6.46927
▁ne	-6.48104
▁vi	-6.48169
▁is	-6.50915
▁na	-6.51375
▁som	-6.51606
▁den	-6.52077
▁om	-6.52881
ch	-6.53307
ra	-6.54078
▁el	-6.54353
an	-6.54535
▁po	-6.55048
▁and	-6.55648
ta	-6.55911
▁het	-6.57708
h	-6.58418
▁og	-6.58598
▁te	-6.59829
▁do	-6.60242
p	-6.62611
ci	-6.63028
▁y	-6.63055
ge	-6.6388
os	-6.64264
lo	-6.65458
ing	-6.65792
ni	-6.66037
▁och	-6.67196
in	-6.6745
b	-6.67936
▁för	-6.68411
ed	-6.68844
▁und	-6.68865
▁z	-6.70035
▁det	-6.70274
▁des	-6.7135
me	-6.73033
▁del	-6.73101
no	-6.73716
▁af	-6.73831
as	-6.7731
▁je	-6.7863
▁che	-6.79672
é	-6.80394
▁no	-6.80711
ce	-6.80833
▁es	-6.81218
▁ge	-6.82052
f	-6.82589
▁pro	-6.82948
▁med	-6.83656
▁I	-6.83704
ς	-6.84674
ja	-6.84816
▁al	-6.85001
▁op	-6.85176
▁ver	-6.87008
▁av	-6.88642
el	-6.89986
▁per	-6.90272
is	-6.91376
▁på	-6.91503
▁za	-6.91774
▁su	-6.93137
▁k	-6.93232
▁à	-6.93729
▁on	-6.93817
▁les	-6.94169
it	-6.94181
ma	-6.94793
vi	-6.95113
▁il	-6.95493
ve	-6.95934
se	-6.96761
▁και	-6.96997
ten	-6.97348
▁los	-6.97371
▁να	-6.97616
ly	-6.97741
▁sa	-6.97942
mi	-6.98565
▁dat	-6.9902
▁si	-7.00192
▁een	-7.00218
▁A	-7.00923
em	-7.00947
▁har	-7.00981
ā	-7.00989
ri	-7.01339
▁da	-7.01756
di	-7.02597
be	-7.03418
si	-7.03736
ro	-7.05074
▁we	-7.05396
ga	-7.06335
▁pre	-7.06916
ur	-7.07273
w	-7.07486
:	-7.08354
der	-7.08677
je	-7.0963
▁w	-7.09961
▁ha	-7.10915
▁til	-7.11049
ž	-7.12216
š	-7.12514
▁an	-7.12805
mo	-7.13122
or	-7.13158
▁ir	-7.1338
▁una	-7.13606
▁pa	-7.13625
▁that	-7.13849
do	-7.14016
▁du	-7.15589
ter	-7.16655
gen	-7.17078
ver	-7.18015
den	-7.18333
▁par	-7.19659
í	-7.19774
va	-7.1984
at	-7.20077
om	-7.20739
ie	-7.20753
ä	-7.21473
▁voor	-7.21964
s.	-7.24674
á	-7.24927
ment	-7.25236
▁της	-7.25775
ν	-7.27804
▁на	-7.28059
▁zu	-7.28894
▁S	-7.30252
ho	-7.30367
gi	-7.30805
▁ma	-7.3106
us	-7.31304
ka	-7.32496
▁so	-7.32513
▁De	-7.32954
ą	-7.33096
ul	-7.33155
▁är	-7.33168
▁l'	-7.3385
en.	-7.3408
ek	-7.34846
▁την	-7.3522
tu	-7.3539
id	-7.35582
ó	-7.35603
ung	-7.35765
)	-7.367
▁pri	-7.3732
ko	-7.38381
?	-7.38982
▁me	-7.3996
vo	-7.40708
▁u	-7.40929
▁ka	-7.42472
▁pas	-7.42591
tion	-7.42888
▁by	-7.43719
č	-7.43881
e,	-7.43926
▁ri	-7.44981
go	-7.45158
▁till	-7.45547
ck	-7.46098
ze	-7.46549
ven	-7.46701
ik	-7.47316
▁F	-7.47687
▁La	-7.47821
ste	-7.4803
▁lo	-7.48035
▁over	-7.48215
ca	-7.49458
ation	-7.49514
ă	-7.49575
on	-7.50133
▁E	-7.51241
en,	-7.51797
▁kan	-7.52041
nie	-7.52414
▁ja	-7.52762
ent	-7.52946
za	-7.53132
▁ce	-7.532
are	-7.53368
▁las	-7.53639
il	-7.55076
ad	-7.55769
▁το	-7.56422
sta	-7.5706
σ	-7.5741
▁por	-7.5784
▁d	-7.58036
▁Europa	-7.58126
ig	-7.58361
ov	-7.59498
▁qui	-7.59507
gu	-7.59835
▁para	-7.60475
ba	-7.60965
▁(	-7.61493
▁In	-7.61809
▁az	-7.61852
κ	-7.62422
▁pour	-7.62634
▁V	-7.62799
po	-7.62808
zi	-7.6287
▁m	-7.62968
▁για	-7.63281
▁non	-7.65059
jo	-7.65147
▁ho	-7.65398
ά	-7.66277
▁est	-7.66367
▁Det	-7.66747
▁met	-7.67379
▁è	-7.6809
▁η	-7.68107
▁"	-7.68179
ant	-7.68425
▁G	-7.6856
ku	-7.68573
▁co	-7.68901
im	-7.69291
ό	-7.69302
ir	-7.69895
▁man	-7.69957
ní	-7.7005
ί	-7.70089
ή	-7.70593
▁au	-7.70606
▁alle	-7.71984
▁von	-7.72001
pa	-7.7225
▁mi	-7.72447
▁aan	-7.72767
ει	-7.72819
am	-7.72893
▁inte	-7.73352
▁EU	-7.73399
▁men	-7.73692
▁των	-7.73896
▁dans	-7.74212
ē	-7.74417
▁bi	-7.74545
▁nu	-7.74793
▁nous	-7.75093
bo	-7.7513
mu	-7.75229
▁του	-7.7549
ning	-7.7592
▁ob	-7.76007
ud	-7.76121
▁della	-7.76242
▁für	-7.76389
▁Vi	-7.764
▁ra	-7.76632
so	-7.77071
ere	-7.7714
▁že	-7.77501
α	-7.77704
▁im	-7.78288
▁p	-7.78352
ę	-7.78524
▁με	-7.78699
▁ar	-7.79073
▁ikke	-7.79333
χ	-7.79518
nt	-7.79534
tre	-7.79884
▁h	-7.8006
ο	-7.80745
▁this	-7.80746
▁zijn	-7.81984
ción	-7.8205
tro	-7.82345
;	-7.82396
▁mo	-7.82575
he	-7.82817
φ	-7.82937
та	-7.83277
▁που	-7.83415
que	-7.83637
ak	-7.83748
un	-7.83963
ia	-7.84391
▁auf	-7.84752
▁K	-7.85244
▁not	-7.8531
▁P	-7.85384
co	-7.8547
um	-7.85854
▁ve	-7.86118
né	-7.8613
ken	-7.86196
sch	-7.86833
υ	-7.87061
▁f	-7.87183
▁în	-7.87523
▁pe	-7.87675
▁are	-7.87681
▁ki	-7.87937
и	-7.88166
ju	-7.88199
▁have	-7.88592
▁En	-7.88818
▁t	-7.88907
▁c	-7.89721
tra	-7.89753
▁ta	-7.89788
ő	-7.89856
▁tra	-7.90032
▁и	-7.90061
▁és	-7.90088
ke	-7.90673
▁sur	-7.90695
▁bo	-7.90724
▁ein	-7.90827
▁M	-7.91059
λ	-7.91243
ų	-7.91289
ny	-7.91291
▁une	-7.9138
du	-7.92062
▁B	-7.92193
▁T	-7.92511
ut	-7.92718
ol	-7.92758
ac	-7.92868
▁ist	-7.92921
ö	-7.92976
ok	-7.93139
ι	-7.93375
pi	-7.93466
nd	-7.93596
ha	-7.93792
▁W	-7.93972
kt	-7.94262
θ	-7.94313
▁niet	-7.94414
men	-7.94669
ī	-7.94893
ben	-7.95
▁O	-7.95611
γ	-7.95899
▁vil	-7.96026
wa	-7.96186
▁dem	-7.96588
lu	-7.96809
zione	-7.96841
▁wir	-7.97025
ú	-7.97207
▁eine	-7.97383
▁ko	-7.97612
▁за	-7.98224
▁nicht	-7.9823
nde	-7.98236
és	-7.98465
η	-7.9854
lig	-7.98604
e.	-7.99064
cu	-7.99744
bi	-7.99844
т	-8.00131
ė	-8.00329
▁mit	-8.00964
▁dass	-8.01088
ki	-8.01349
н	-8.01924
ende	-8.02007
▁Commission	-8.02014
ů	-8.02061
▁das	-8.02343
ρ	-8.02371
0	-8.0243
ska	-8.02495
ks	-8.02596
ger	-8.02628
▁Be	-8.02641
▁b	-8.02781
▁θα	-8.02949
å	-8.03119
õ	-8.0366
▁ci	-8.03823
sti	-8.04047
▁all	-8.04133
fer	-8.04707
▁min	-8.04742
▁да	-8.0495
▁vo	-8.04988
▁li	-8.05016
ske	-8.05231
▁sig	-8.05388
A	-8.05439
ej	-8.05524
mp	-8.05612
τ	-8.05616
t.	-8.05657
▁The	-8.0568
able	-8.05739
wi	-8.05785
ε	-8.06273
pp	-8.064
μ	-8.06517
'	-8.06672
t,	-8.07059
val	-8.07137
ff	-8.07204
ado	-8.07324
π	-8.07579
lle	-8.07625
▁as	-8.07855
ist	-8.0799
▁fa	-8.08061
▁ett	-8.0833
с	-8.08392
ord	-8.08413
ω	-8.08671
▁Po	-8.08727
▁ότι	-8.08915
▁We	-8.09052
ru	-8.09541
▁είναι	-8.09672
έ	-8.09773
i,	-8.09914
▁pod	-8.09943
▁European	-8.10162
ύ	-8.10308
▁var	-8.10451
▁als	-8.10548
▁Union	-8.11461
▁it	-8.11529
ot	-8.11539
est	-8.11635
▁Je	-8.12106
er,	-8.12166
▁kon	-8.12324
▁από	-8.12434
land	-8.12513
ate	-8.12809
▁dé	-8.12971
cz	-8.13428
vis	-8.13534
▁Parlament	-8.13547
▁with	-8.13656
▁worden	-8.14529
▁alla	-8.15051
▁π	-8.15122
▁od	-8.15227
▁vy	-8.15242
▁Da	-8.15471
ande	-8.15512
▁Le	-8.15798
E	-8.1611
ü	-8.16329
▁D	-8.1635
ż	-8.16359
!	-8.1646
▁ich	-8.16721
▁ré	-8.16844
▁este	-8.16911
▁hogy	-8.17152
▁ex	-8.17226
▁g	-8.17646
я	-8.17997
▁C	-8.1817
▁fi	-8.18321
▁which	-8.18333
tal	-8.18438
▁vor	-8.18533
au	-8.18575
▁ju	-8.18747
elle	-8.18853
▁σε	-8.1892
▁Ma	-8.19205
del	-8.19452
hr	-8.19593
▁Herr	-8.19835
о	-8.19851
ou	-8.19961
▁d'	-8.20005
▁nie	-8.20438
era	-8.20739
▁τη	-8.20921
erne	-8.21182
x	-8.21228
▁в	-8.21229
м	-8.21333
▁Re	-8.21762
len	-8.21945
▁ik	-8.22038
▁ni	-8.22121
▁jeg	-8.22385
▁Es	-8.2249
▁Ver	-8.22508
▁H	-8.22541
I	-8.22678
▁uit	-8.22953
▁с	-8.23006
we	-8.23121
amente	-8.23157
ali	-8.2331
sto	-8.23438
ement	-8.23456
▁τα	-8.2363
per	-8.23646
ng	-8.23952
mente	-8.23973
ato	-8.24083
▁α	-8.24478
ра	-8.2458
ty	-8.24654
▁problem	-8.25704
for	-8.25973
▁will	-8.26107
ни	-8.2623
ber	-8.2639
ige	-8.26441
▁fra	-8.26459
zu	-8.26717
▁ca	-8.27222
iz	-8.27436
té	-8.2748
▁Z	-8.27516
▁så	-8.27662
▁Un	-8.27677
τα	-8.27778
a,	-8.27798
▁ad	-8.27872
ación	-8.28082
▁under	-8.28209
pri	-8.29149
sk	-8.29347
▁iz	-8.29724
nu	-8.30037
5	-8.30056
ων	-8.30151
gy	-8.30182
▁Parlamento	-8.30276
S	-8.3032
ώ	-8.30365
▁vis	-8.30465
β	-8.30473
cht	-8.30547
▁cu	-8.30856
ire	-8.3091
▁ind	-8.31215
но	-8.31287
εί	-8.3185
är	-8.31884
ale	-8.32067
ite	-8.32107
▁her	-8.32555
▁ga	-8.3256
1	-8.32645
tte	-8.32657
к	-8.32819
▁An	-8.32862
▁va	-8.33114
ών	-8.33166
▁επι	-8.33259
▁kad	-8.33379
ně	-8.33647
rá	-8.33713
▁Parlement	-8.3389
▁ú	-8.34071
▁ud	-8.3408
▁dit	-8.34495
▁ook	-8.35014
vé	-8.3504
ami	-8.35131
▁ten	-8.35422
pe	-8.35426
▁ap	-8.35843
▁jag	-8.35891
ft	-8.36022
то	-8.3655
cia	-8.36584
erna	-8.36761
æ	-8.36785
▁ut	-8.36836
van	-8.36901
ów	-8.36975
▁τις	-8.37061
▁auch	-8.37094
tori	-8.37264
io	-8.37343
sz	-8.37522
▁mis	-8.37758
ry	-8.37857
par	-8.37926
те	-8.38025
▁Se	-8.38068
od	-8.3815
▁um	-8.38373
ele	-8.38428
▁Jag	-8.38475
▁Die	-8.38546
▁europea	-8.38706
▁kom	-8.3872
на	-8.38896
ji	-8.3913
▁sich	-8.39202
"	-8.39455
lich	-8.39542
dy	-8.39563
ner	-8.39659
ši	-8.39674
ία	-8.39743
▁Pa	-8.39754
▁social	-8.39757
ab	-8.39869
▁Il	-8.40052
▁plus	-8.40063
▁tr	-8.4009
ll	-8.40115
▁U	-8.40215
ži	-8.40246
azione	-8.40344
op	-8.40775
es,	-8.40779
▁To	-8.4079
а	-8.41475
▁στην	-8.41642
▁l’	-8.41822
▁us	-8.4187
C	-8.4198
pen	-8.42143
▁was	-8.42144
ás	-8.42247
ting	-8.42585
nes	-8.42633
ál	-8.4276
het	-8.42813
ва	-8.42963
▁sp	-8.43033
▁Jeg	-8.4321
P	-8.43317
▁ter	-8.43379
▁über	-8.43499
ł	-8.43586
fa	-8.43587
▁skal	-8.43666
vol	-8.43723
▁sch	-8.43813
iem	-8.43994
▁Na	-8.44058
ου	-8.44269
ø	-8.4456
▁delle	-8.44561
▁fin	-8.44672
▁от	-8.44713
▁bu	-8.44828
ě	-8.44833
ť	-8.45297
tar	-8.45328
▁más	-8.45372
▁Al	-8.45424
▁š	-8.45435
▁mu	-8.45458
ban	-8.45676
▁esta	-8.45742
▁sta	-8.46113
δ	-8.46467
▁uz	-8.46598
▁Mr	-8.4663
gli	-8.46673
▁по	-8.46738
▁has	-8.46983
iti	-8.47172
▁προ	-8.47206
▁euro	-8.47349
▁hebben	-8.47572
pro	-8.47573
▁pi	-8.47617
ssen	-8.47721
▁Ik	-8.47756
gt	-8.47788
ente	-8.4781
ky	-8.48538
▁–	-8.4859
min	-8.48654
/	-8.48881
▁l'a	-8.48896
ισ	-8.48968
è	-8.48981
▁Europese	-8.49004
či	-8.49059
ties	-8.49129
ido	-8.49152
▁ser	-8.49576
uje	-8.49625
▁kommer	-8.49684
▁inter	-8.49802
▁sobre	-8.49988
eg	-8.5044
▁să	-8.5052
sp	-8.5058
▁ch	-8.50709
ine	-8.509
▁or	-8.50977
▁hat	-8.51061
▁deze	-8.51071
▁δεν	-8.51118
tie	-8.51145
wo	-8.51202
iv	-8.51371
ľ	-8.51483
bb	-8.51632
9	-8.51797
cie	-8.52097
▁heeft	-8.52166
ici	-8.52249
mb	-8.52311
ons	-8.52545
▁Ne	-8.52574
fic	-8.52818
ance	-8.52871
fi	-8.52964
▁οι	-8.52969
use	-8.5319
▁pu	-8.53283
leg	-8.53323
▁lu	-8.53341
▁vol	-8.53622
▁sono	-8.53714
ide	-8.53748
▁val	-8.53771
ring	-8.53834
▁am	-8.53872
imo	-8.53897
▁han	-8.53949
ld	-8.53982
’	-8.54105
end	-8.54168
idad	-8.54632
kon	-8.54908
▁N	-8.55237
▁No	-8.55251
che	-8.55453
ler	-8.55551
zo	-8.55713
▁ab	-8.55878
man	-8.55938
ada	-8.55967
▁wird	-8.55981
μα	-8.5622
г	-8.56362
ati	-8.56372
▁Presidente,	-8.5638
▁wij	-8.56432
▁wie	-8.56652
ár	-8.56687
▁Con	-8.5673
▁δια	-8.56776
▁Ich	-8.56866
igen	-8.57046
▁ba	-8.57109
ran	-8.57164
O	-8.57174
▁Comisión	-8.57418
▁detta	-8.57483
у	-8.57542
er.	-8.57544
▁sind	-8.57551
pu	-8.57739
▁dei	-8.57874
át	-8.579
ct	-8.58004
ciones	-8.5803
stan	-8.58182
▁moeten	-8.58325
nk	-8.58411
sten	-8.58415
▁Commissie	-8.58597
ité	-8.58619
ligt	-8.58729
red	-8.58802
nak	-8.58905
a.	-8.59101
zen	-8.59122
ering	-8.59205
ли	-8.59223
stat	-8.59285
▁ved	-8.59319
ai	-8.59334
ag	-8.59656
л	-8.59773
▁como	-8.59851
by	-8.60016
6	-8.60054
port	-8.60072
N	-8.60295
ec	-8.60426
▁nem	-8.60452
▁3	-8.60473
▁imp	-8.6063
mos	-8.60687
▁waar	-8.60751
ме	-8.60835
lige	-8.61063
und	-8.61212
▁com	-8.61429
bre	-8.61499
▁Ko	-8.61555
▁ze	-8.61604
ski	-8.61735
pre	-8.61856
з	-8.61963
cio	-8.61983
▁meg	-8.62109
vá	-8.62258
▁nel	-8.62313
▁į	-8.62466
iamo	-8.62491
vor	-8.62793
▁haben	-8.62798
▁Het	-8.62942
lé	-8.63191
bu	-8.63193
▁også	-8.63199
▁Den	-8.63498
con	-8.63508
för	-8.63565
▁zo	-8.6362
án	-8.63628
▁sin	-8.63708
▁Me	-8.63906
▁τους	-8.63962
▁jo	-8.64016
▁Ta	-8.64231
bar	-8.64273
i.	-8.64396
▁eller	-8.64418
ach	-8.64565
ες	-8.64826
▁εν	-8.64963
▁wy	-8.65192
▁also	-8.65349
▁dar	-8.65381
▁tak	-8.65403
tor	-8.65763
▁sz	-8.65788
▁şi	-8.65798
ità	-8.65913
nej	-8.65934
▁sou	-8.65936
▁trans	-8.65952
ade	-8.65965
mer	-8.66135
▁sie	-8.6622
var	-8.66333
▁ke	-8.66579
▁politik	-8.66614
ţi	-8.66646
7	-8.66672
ės	-8.66726
▁questo	-8.66882
▁ont	-8.6705
▁européenne	-8.67058
▁aux	-8.6712
▁upp	-8.67271
▁dell'	-8.6729
th	-8.67372
ult	-8.67542
▁tu	-8.67595
▁question	-8.67707
τη	-8.67948
▁come	-8.68082
е	-8.6812
▁се	-8.68278
ül	-8.68351
▁Europäische	-8.68394
2	-8.68429
3	-8.68446
ý	-8.68463
led	-8.68509
eren	-8.68535
ć	-8.68579
nych	-8.68611
▁Ge	-8.68761
qui	-8.68762
ές	-8.68891
ische	-8.68896
ling	-8.69012
gang	-8.69053
▁bij	-8.69112
4	-8.69151
tud	-8.69484
р	-8.69512
▁cette	-8.69573
▁car	-8.69656
▁door	-8.69748
my	-8.69836
▁più	-8.6986
▁%	-8.69863
sse	-8.69911
▁cre	-8.69921
▁Ha	-8.70077
▁mod	-8.70227
▁ro	-8.70411
▁Kommissionen	-8.7048
▁present	-8.70635
sion	-8.70776
dan	-8.70924
▁måste	-8.70988
▁Er	-8.71026
▁pie	-8.71102
ved	-8.71225
▁τον	-8.71407
▁tre	-8.71408
▁pos	-8.71546
▁stat	-8.71659
▁ο	-8.71909
ô	-8.7204
▁συν	-8.72063
▁sein	-8.72075
▁parte	-8.72168
▁være	-8.72307
8	-8.72368
▁gli	-8.72485
▁maar	-8.72576
ß	-8.72577
nia	-8.72621
τε	-8.72745
ina	-8.72856
ουν	-8.72953
ill	-8.72954
▁Kommission	-8.73034
▁tal	-8.73297
▁år	-8.73329
ity	-8.73502
▁he	-8.73722
▁aby	-8.73752
▁tot	-8.73841
icht	-8.73979
lik	-8.74197
M	-8.74453
qu	-8.74464
▁fo	-8.74554
▁El	-8.74833
ст	-8.75018
▁πρέπει	-8.75138
▁l	-8.75172
R	-8.7524
ding	-8.75241
ör	-8.75306
▁Ka	-8.7537
”	-8.75482
's	-8.75525
ht	-8.7555
stru	-8.75565
▁st	-8.75585
▁region	-8.7571
▁rapport	-8.75732
ime	-8.75849
ingen	-8.75849
rie	-8.75856
cy	-8.7598
av	-8.76021
▁pl	-8.76169
▁entre	-8.76203
T	-8.76369
nosti	-8.76465
▁bet	-8.76501
▁plan	-8.76593
hl	-8.76775
es.	-8.76811
τά	-8.76989
D	-8.77213
θε	-8.77419
▁Mi	-8.77541
▁1	-8.77556
mis	-8.77561
igt	-8.77624
▁werden	-8.77678
▁dan	-8.77835
▁αυτό	-8.78005
nce	-8.78189
vu	-8.78315
prav	-8.78316
▁się	-8.7847
ante	-8.78562
āk	-8.7859
itet	-8.78653
▁would	-8.78659
ér	-8.7892
▁stor	-8.78971
▁tout	-8.79059
▁parti	-8.79067
ust	-8.791
pon	-8.79136
les	-8.79178
heid	-8.79284
▁Commissione	-8.79314
sel	-8.79532
lag	-8.79553
▁strategi	-8.79625
▁kuri	-8.79753
že	-8.79799
kom	-8.79922
▁important	-8.79966
des	-8.79966
▁sont	-8.80021
▁bei	-8.80029
o,	-8.80116
tel	-8.80183
ση	-8.8025
▁е	-8.80252
ata	-8.80268
ū	-8.80325
▁sus	-8.80617
▁For	-8.80643
▁στο	-8.80663
▁Co	-8.80883
▁you	-8.80927
▁real	-8.81121
ρα	-8.81239
į	-8.8125
▁situation	-8.81257
▁inform	-8.81313
▁ste	-8.81384
αν	-8.81653
ion	-8.81842
▁d'un	-8.81863
ais	-8.81898
▁hier	-8.82259
▁wordt	-8.82383
ού	-8.82479
▁Europe	-8.82772
▁dal	-8.82836
д	-8.83232
в	-8.83323
▁że	-8.83331
00	-8.83393
▁é	-8.83406
ein	-8.83433
▁onder	-8.83473
▁aus	-8.8355
ре	-8.83574
▁μια	-8.83665
▁comme	-8.83668
änd	-8.83777
form	-8.83795
ée	-8.84073
▁should	-8.843
ség	-8.84593
▁dag	-8.84623
ex	-8.84697
zioni	-8.84704
λη	-8.8482
ida	-8.84833
▁κ	-8.84874
tas	-8.84897
▁UE	-8.8497
pie	-8.84975
▁egy	-8.84995
ná	-8.85015
▁So	-8.85057
▁son	-8.85071
ве	-8.85122
else	-8.85266
liga	-8.85294
▁importante	-8.85437
og	-8.8544
ите	-8.85529
▁anche	-8.85564
ουμε	-8.85784
ś	-8.85793
▁Sch	-8.85824
▁europeo	-8.85884
▁vid	-8.85942
ξ	-8.86007
▁kr	-8.86116
sam	-8.86148
▁gi	-8.86161
ima	-8.8621
ře	-8.86322
ка	-8.86563
ez	-8.86672
met	-8.86694
▁daß	-8.86742
▁απο	-8.86833
▁denne	-8.8688
▁ανα	-8.86913
▁pat	-8.87051
▁Der	-8.8711
▁över	-8.87204
ít	-8.87216
ano	-8.87298
hu	-8.87505
dig	-8.87571
▁kunnen	-8.87694
▁Per	-8.87797
tta	-8.87804
cer	-8.87821
▁politique	-8.87858
gre	-8.87881
dz	-8.87949
tant	-8.87974
ungen	-8.87977
▁Euroopa	-8.8803
lla	-8.88212
▁iš	-8.88285
ndo	-8.88569
▁Ε	-8.88604
encia	-8.88631
lt	-8.88813
ando	-8.8901
▁from	-8.89101
nost	-8.89255
ego	-8.89307
▁nog	-8.89631
zien	-8.89639
▁person	-8.89695
fe	-8.89755
ico	-8.89773
fen	-8.8989
▁spe	-8.89927
u,	-8.89927
▁care	-8.90002
▁invest	-8.90012
▁contra	-8.90038
rij	-8.90093
and	-8.90139
ces	-8.90279
▁avec	-8.90318
bli	-8.90354
▁fond	-8.90478
▁från	-8.90696
ction	-8.90747
▁produc	-8.90948
στ	-8.90957
▁mon	-8.91032
unk	-8.91055
stand	-8.91172
kre	-8.91244
▁pra	-8.91288
▁Pro	-8.9154
▁can	-8.91817
ných	-8.91932
get	-8.91941
ją	-8.91957
▁Ein	-8.91972
ри	-8.92074
▁pré	-8.921
tes	-8.92128
▁mar	-8.92185
▁fe	-8.92209
ορ	-8.92263
ň	-8.92423
▁vý	-8.92508
ova	-8.92577
ší	-8.92601
sión	-8.9261
nek	-8.92658
▁priorit	-8.92708
▁må	-8.92715
▁must	-8.92824
ica	-8.92877
bil	-8.92924
▁but	-8.92945
spe	-8.93044
▁εκ	-8.93173
▁our	-8.93333
än	-8.93372
▁moet	-8.93442
▁parlament	-8.93673
ίας	-8.93921
▁br	-8.94221
če	-8.9425
▁zur	-8.94274
▁skulle	-8.94321
tin	-8.94328
▁Ce	-8.94497
▁dette	-8.94613
ți	-8.94664
▁Unión	-8.94766
▁4	-8.94866
vin	-8.9493
▁fu	-8.94963
▁EU-	-8.95003
ile	-8.95118
▁Mo	-8.95177
▁d'a	-8.95207
το	-8.95228
▁ε	-8.95232
ική	-8.95283
▁mer	-8.95299
front	-8.95337
gar	-8.95459
▁Si	-8.95479
▁ένα	-8.95514
▁debat	-8.95534
▁pred	-8.9554
ard	-8.9559
▁Wir	-8.95606
ers	-8.95619
▁Do	-8.95798
nden	-8.95811
ic	-8.95871
▁sk	-8.9589
▁2	-8.9593
ον	-8.96109
▁Nous	-8.96132
▁roz	-8.96164
▁interes	-8.96232
▁prze	-8.96333
▁Unie	-8.96497
y,	-8.96534
dre	-8.9654
▁budget	-8.9665
dere	-8.96658
por	-8.96708
▁exist	-8.96784
▁mais	-8.96869
ła	-8.96972
▁J	-8.97031
ια	-8.97149
vě	-8.97228
ių	-8.97382
richt	-8.97396
▁gr	-8.97517
wer	-8.97678
mit	-8.97735
▁global	-8.98254
▁δ	-8.98273
gra	-8.98521
ania	-8.98906
ito	-8.98946
lar	-8.98997
▁ris	-8.99053
itu	-8.99053
▁kas	-8.99317
▁αν	-8.9941
tions	-8.99421
her	-8.99476
▁Member	-8.99494
▁también	-8.99636
▁l'Union	-8.99748
uk	-8.9978
▁Sa	-8.9981
не	-8.99894
▁R	-8.99966
▁princip	-9.00046
ug	-9.00072
ischen	-9.00094
▁pays	-9.00161
▁vill	-9.00353
ame	-9.00411
▁mot	-9.00418
▁Aus	-9.00482
ím	-9.00572
pos	-9.00634
▁kommissionen	-9.00846
▁tik	-9.00887
▁just	-9.00967
ко	-9.0104
ām	-9.01043
ви	-9.01089
▁că	-9.01175
tur	-9.01204
▁ti	-9.01284
sko	-9.01363
vel	-9.01429
age	-9.01498
▁εξ	-9.0155
duc	-9.01599
▁mig	-9.01639
fin	-9.01641
tag	-9.017
sid	-9.01723
▁ces	-9.01974
nih	-9.02005
▁ale	-9.02199
▁propos	-9.02199
▁sociale	-9.02386
iert	-9.02531
ker	-9.02679
▁diese	-9.02745
ých	-9.0282
▁proces	-9.02827
▁Monsieur	-9.02835
▁efter	-9.029
▁Sie	-9.02928
ζ	-9.02967
G	-9.03004
år	-9.03095
▁gen	-9.03197
mento	-9.0328
▁Σ	-9.03286
▁Li	-9.03336
▁daar	-9.03344
▁fel	-9.03346
kl	-9.03348
▁ná	-9.03352
▁être	-9.03387
ili	-9.0342
▁nos	-9.03442
▁svar	-9.03478
ron	-9.03611
▁os	-9.03615
▁pentru	-9.03639
sak	-9.03648
▁tar	-9.03723
uti	-9.03747
tten	-9.03885
▁einer	-9.03987
▁μας	-9.04031
▁få	-9.04117
ani	-9.04168
▁tro	-9.04304
ти	-9.04394
▁essere	-9.04539
▁européen	-9.04554
κα	-9.04592
λα	-9.04621
▁Ch	-9.04717
▁reform	-9.04821
vä	-9.04927
▁σ	-9.04944
▁give	-9.05136
▁ru	-9.05277
▁не	-9.05343
▁partner	-9.05357
▁ihre	-9.05394
▁Señor	-9.05495
▁ei	-9.05515
lá	-9.05638
▁Ho	-9.05665
pt	-9.05755
▁spo	-9.05764
▁point	-9.05829
▁sam	-9.05933
ich	-9.06073
ria	-9.06075
uto	-9.0621
ita	-9.06219
ēt	-9.06489
де	-9.0652
▁contribu	-9.06589
λε	-9.0667
▁inclu	-9.06695
▁fait	-9.06703
▁land	-9.06725
F	-9.0683
▁Qu	-9.0696
▁ou	-9.06973
ique	-9.07042
▁20	-9.07179
▁Europea	-9.0724
▁more	-9.0754
▁report	-9.07545
▁economic	-9.07792
hed	-9.07927
▁It	-9.07965
ive	-9.07981
▁war	-9.08036
▁god	-9.08099
εται	-9.0815
▁också	-9.0824
▁Por	-9.08275
ob	-9.08366
let	-9.08489
▁nuo	-9.08511
pl	-9.08546
ла	-9.08582
▁need	-9.08595
▁bien	-9.0864
▁kur	-9.08658
up	-9.08749
lä	-9.08788
ré	-9.08843
mand	-9.08874
▁informe	-9.08927
ét	-9.08989
ah	-9.09045
ett	-9.09045
▁adopt	-9.09121
cur	-9.09175
▁wil	-9.09236
cul	-9.09263
▁kell	-9.09268
ott	-9.09302
▁kun	-9.0945
φορ	-9.09581
▁andere	-9.09605
V	-9.09642
recht	-9.09692
▁Parliament	-9.09692
βα	-9.09739
enia	-9.0988
▁și	-9.09889
gri	-9.0996
▁Sta	-9.09961
▁5	-9.09989
nje	-9.10009
▁zal	-9.10038
hi	-9.10088
▁Eiropas	-9.10095
én	-9.10114
▁problema	-9.10173
▁lä	-9.10289
tă	-9.10296
▁integr	-9.10322
kommen	-9.10395
σι	-9.10441
aux	-9.10483
▁Euro	-9.10543
▁transport	-9.10545
ле	-9.1055
▁leur	-9.10619
▁raz	-9.10799
sso	-9.10918
▁när	-9.10938
▁grund	-9.10964
▁term	-9.10981
▁Stati	-9.10995
ş	-9.11161
τι	-9.11198
sione	-9.11385
▁vien	-9.11433
ure	-9.11498
mise	-9.11561
vid	-9.11572
▁jest	-9.11601
▁че	-9.11638
ká	-9.11642
ør	-9.11757
ap	-9.11778
▁up	-9.11787
▁práv	-9.11851
▁été	-9.11866
▁Europos	-9.11867
▁verk	-9.11909
ön	-9.12004
stra	-9.12027
ību	-9.12155
amos	-9.12164
ctiv	-9.12249
▁nach	-9.12428
hold	-9.12511
▁unsere	-9.12512
nom	-9.12596
▁positiv	-9.12665
ambi	-9.1267
mas	-9.12762
br	-9.12925
ega	-9.13005
▁przy	-9.13032
▁έ	-9.13035
▁cui	-9.13096
lijk	-9.13244
czy	-9.13258
tri	-9.13301
ības	-9.13364
aus	-9.13496
tto	-9.13502
B	-9.13516
tive	-9.13571
▁dire	-9.13688
▁ska	-9.13701
ute	-9.13724
▁συμ	-9.13785
rea	-9.13856
▁Signor	-9.13863
ologi	-9.13868
▁been	-9.13998
▁even	-9.14008
▁poz	-9.14166
▁ai	-9.14255
▁jā	-9.14268
pra	-9.14466
▁Estados	-9.14478
▁ret	-9.14516
ен	-9.14543
ło	-9.14647
▁Ra	-9.14684
iť	-9.1476
▁instrument	-9.14902
ika	-9.14978
kke	-9.15028
ast	-9.15066
▁Lo	-9.15067
atie	-9.15076
ής	-9.15117
▁far	-9.15205
▁Ro	-9.15323
rà	-9.15339
ih	-9.1543
ευ	-9.15551
▁President,	-9.15615
â	-9.15672
iska	-9.15684
ń	-9.15702
▁stra	-9.15712
▁jak	-9.15818
akt	-9.15836
ρο	-9.1585
▁program	-9.15919
ņ	-9.16011
tage	-9.16069
▁Voorzitter,	-9.161
▁Ab	-9.1611
lse	-9.16127
▁zá	-9.16153
▁müssen	-9.16327
▁certain	-9.16351
enie	-9.16365
tat	-9.16464
▁möchte	-9.16511
miento	-9.1662
schi	-9.16836
ολ	-9.1691
▁selle	-9.16963
ise	-9.17014
▁dra	-9.17044
king	-9.17119
▁ben	-9.17213
fre	-9.17213
▁ny	-9.17289
▁Ca	-9.17291
▁system	-9.17327
▁L'	-9.17542
▁act	-9.17554
ées	-9.17829
▁ty	-9.18001
▁acc	-9.18121
son	-9.18294
▁finans	-9.18376
▁7	-9.18404
▁política	-9.18453
▁form	-9.18545
έρ	-9.18565
kov	-9.1876
ningen	-9.18777
iteit	-9.18819
mon	-9.18983
alt	-9.18985
▁Par	-9.19117
ible	-9.19121
L	-9.19374
ble	-9.19378
tek	-9.19432
tura	-9.19433
▁sú	-9.19466
▁19	-9.19508
▁go	-9.19518
fri	-9.19629
kri	-9.19676
stre	-9.19711
niu	-9.19716
й	-9.19721
ъ	-9.19727
▁område	-9.19783
lí	-9.19857
ení	-9.19925
▁mycket	-9.19965
nic	-9.19971
▁Bericht	-9.20023
▁industri	-9.2009
▁hun	-9.20152
▁Α	-9.2019
▁vous	-9.20372
▁β	-9.20385
ро	-9.20578
raz	-9.20644
bra	-9.20692
▁noch	-9.20799
ef	-9.20803
com	-9.20824
art	-9.20828
▁wat	-9.20961
eerd	-9.21038
▁durch	-9.21053
▁who	-9.21163
οι	-9.21194
▁Π	-9.21224
ifi	-9.2123
▁Ja	-9.21253
▁tur	-9.21333
▁dieser	-9.21455
eld	-9.21537
▁hvor	-9.21569
▁acest	-9.21601
▁regering	-9.21652
ję	-9.21677
▁pot	-9.21699
▁verslag	-9.21701
▁einen	-9.21725
▁respect	-9.21923
olu	-9.21926
σε	-9.22004
▁vores	-9.22026
▁relazione	-9.22038
▁base	-9.22155
▁Mar	-9.22223
▁my	-9.22296
att	-9.2236
πο	-9.22385
▁Com	-9.22445
ställ	-9.22446
ám	-9.22475
tet	-9.22729
ssa	-9.22752
ului	-9.22752
tí	-9.22801
nego	-9.22831
▁all'	-9.22834
▁like	-9.22989
%	-9.23009
ama	-9.23019
▁vara	-9.2305
▁στη	-9.23082
▁qu'il	-9.23092
K	-9.23137
▁pār	-9.23175
▁περι	-9.23227
ма	-9.23283
ær	-9.23362
cija	-9.23446
▁States	-9.23459
vet	-9.23564
▁debate	-9.23585
hen	-9.23602
▁Vor	-9.23643
▁control	-9.23683
▁tale	-9.23721
▁vel	-9.23808
▁10	-9.2392
▁sub	-9.2392
▁denna	-9.23987
ους	-9.24144
▁Kon	-9.24285
▁onze	-9.24338
▁s'	-9.24394
ρι	-9.24404
cen	-9.24463
▁St	-9.24482
▁tā	-9.24557
ations	-9.24574
▁ole	-9.24595
rze	-9.24713
slag	-9.24714
▁zich	-9.24748
ци	-9.2481
rü	-9.24885
▁sia	-9.24888
▁forma	-9.24999
bal	-9.25133
ív	-9.25171
▁accord	-9.25207
б	-9.25222
dra	-9.25354
kor	-9.25373
ч	-9.25407
▁meget	-9.25436
▁zou	-9.25438
▁Pre	-9.25617
▁už	-9.25624
во	-9.25636
nge	-9.25838
et.	-9.25878
chen	-9.25929
▁garanti	-9.25969
▁lie	-9.2597
▁energi	-9.25981
▁ning	-9.26045
ým	-9.26081
▁fl	-9.26084
ría	-9.26092
▁из	-9.26151
▁Conseil	-9.26179
elt	-9.26225
▁degli	-9.26499
ság	-9.26499
▁leg	-9.26516
▁nad	-9.26526
▁Consejo	-9.26573
τρ	-9.26626
▁recht	-9.26719
stå	-9.26757
▁mil	-9.26812
▁rapporteur	-9.26833
ίες	-9.26835
bie	-9.26838
▁membres	-9.2684
▁toe	-9.26879
nos	-9.26932
▁cer	-9.26964
▁naar	-9.26973
log	-9.27024
ný	-9.27034
ür	-9.27041
▁Council	-9.27115
▁Ar	-9.27142
πα	-9.27177
▁questa	-9.27462
ικά	-9.27472
▁Consiglio	-9.27546
zna	-9.27556
ša	-9.27556
▁hi	-9.27652
εύ	-9.27662
▁tie	-9.27709
▁L	-9.27743
▁ez	-9.27847
▁παρ	-9.27876
▁lang	-9.27923
▁work	-9.27938
et,	-9.28035
▁Di	-9.28101
ighed	-9.28113
▁Hr.	-9.28144
īt	-9.28206
/20	-9.28316
▁his	-9.28339
lement	-9.28345
jų	-9.28516
ori	-9.28553
war	-9.28659
▁vote	-9.28675
▁membri	-9.28807
▁Za	-9.28828
ικό	-9.28938
fra	-9.28971
mine	-9.2905
▁modo	-9.29056
dien	-9.2908
▁Parlamentet	-9.2909
θεί	-9.29098
tà	-9.29114
ró	-9.29129
▁Ru	-9.29139
▁out	-9.29169
▁tai	-9.29184
ell	-9.29193
ace	-9.29206
▁Evropsk	-9.29231
▁κατά	-9.29235
▁their	-9.29261
▁Bu	-9.29306
▁meer	-9.29365
▁programme	-9.29372
▁Man	-9.29373
tele	-9.29403
αρ	-9.29441
ub	-9.29594
handel	-9.29634
skab	-9.29648
▁Men	-9.29667
szt	-9.29673
▁Raad	-9.29703
nik	-9.29744
dos	-9.29764
ās	-9.29782
med	-9.29807
▁pla	-9.29807
oč	-9.29937
ving	-9.29969
▁sector	-9.30056
▁dėl	-9.3006
▁oss	-9.30079
ía	-9.30119
tivo	-9.30127
▁part	-9.3017
ieren	-9.30412
▁cent	-9.30537
▁mind	-9.30658
▁μ	-9.30667
▁při	-9.30781
▁États	-9.30831
▁Su	-9.30841
ungs	-9.30895
isk	-9.30912
ifica	-9.30955
κο	-9.31041
▁werk	-9.31041
▁miembros	-9.31097
tif	-9.31173
σης	-9.3125
håll	-9.31394
▁din	-9.31519
mě	-9.3155
▁señor	-9.31553
tų	-9.31625
gg	-9.3163
ligen	-9.31757
ario	-9.31833
part	-9.31965
▁politic	-9.32081
bud	-9.32142
▁Président,	-9.32164
▁ö	-9.32181
kla	-9.3219
▁fram	-9.322
ния	-9.32263
práv	-9.32288
teil	-9.32289
liche	-9.3235
almente	-9.32407
▁public	-9.32408
one	-9.32414
αγ	-9.32439
▁nella	-9.32621
▁mai	-9.32701
trag	-9.32716
U	-9.32836
▁fråga	-9.32836
tem	-9.33002
▁également	-9.33153
▁αυτή	-9.33294
šana	-9.33319
mme	-9.33335
▁wel	-9.33346
▁genom	-9.33347
τερ	-9.33431
▁nä	-9.33506
να	-9.33529
σεις	-9.33568
▁pan	-9.33568
nud	-9.33604
arna	-9.33626
▁politica	-9.33699
▁there	-9.33774
▁naj	-9.33972
vision	-9.34006
▁its	-9.34013
ούμε	-9.34019
▁απ	-9.34073
usi	-9.34099
ς.	-9.34126
gal	-9.34133
mat	-9.3419
rán	-9.34198
azioni	-9.34256
▁compl	-9.34468
▁können	-9.34569
▁very	-9.34583
vy	-9.34606
anza	-9.34668
mission	-9.34752
▁civil	-9.34758
ιο	-9.34766
▁hin	-9.34771
▁cost	-9.34776
că	-9.34818
мо	-9.34829
politik	-9.34916
gna	-9.34922
äng	-9.35
▁other	-9.35003
▁disse	-9.3501
▁hr.	-9.35042
ffen	-9.35117
▁6	-9.35137
gro	-9.35144
▁bez	-9.35173
▁rätt	-9.35258
▁darb	-9.35296
▁bör	-9.35318
▁här	-9.35355
dom	-9.3536
ρε	-9.35424
▁esto	-9.35525
▁relativ	-9.356
ρω	-9.35602
▁goed	-9.35676
cí	-9.3568
nar	-9.35737
▁при	-9.35805
menti	-9.36034
ните	-9.36047
▁ji	-9.36109
▁projekt	-9.3612
iva	-9.36141
oli	-9.3616
▁(DE)	-9.36187
col	-9.36224
ř	-9.36277
▁geen	-9.36286
▁This	-9.3641
rov	-9.36462
▁о	-9.36527
▁ur	-9.36549
ted	-9.36663
zie	-9.3678
▁κατα	-9.36847
λι	-9.37032
▁Sp	-9.37079
▁9	-9.37083
iske	-9.37264
▁För	-9.37314
σα	-9.37341
fo	-9.37569
lichen	-9.37582
▁12	-9.37655
sche	-9.37675
▁meine	-9.37686
▁φ	-9.37816
eux	-9.37839
▁rad	-9.37861
σεων	-9.37877
nou	-9.37887
ini	-9.37974
▁Ti	-9.37988
▁organ	-9.37991
fond	-9.37997
kra	-9.38031
öl	-9.3806
umu	-9.3807
▁diesem	-9.38111
vad	-9.38142
pé	-9.38186
▁Jahr	-9.38205
▁tid	-9.38269
pla	-9.38298
ture	-9.3833
▁Europeiska	-9.38334
▁human	-9.38364
▁Ju	-9.38374
▁pen	-9.38377
▁Frau	-9.38433
nim	-9.38438
▁quali	-9.38495
▁unter	-9.38511
▁andra	-9.38518
ως	-9.38519
▁paesi	-9.38552
ví	-9.38563
ж	-9.38578
▁ES	-9.38597
▁kā	-9.3865
sser	-9.38684
mpli	-9.3869
ntes	-9.3874
▁handel	-9.38777
▁Bo	-9.38783
vat	-9.3881
rait	-9.3896
▁aussi	-9.38986
ilor	-9.39023
▁про	-9.3904
vie	-9.39093
▁υπο	-9.39166
▁institution	-9.39248
mar	-9.39259
▁decision	-9.39265
▁nur	-9.39284
▁Rat	-9.39298
ūr	-9.39322
ούν	-9.39446
pet	-9.39472
ért	-9.39547
ρί	-9.39603
▁faire	-9.39633
▁punkt	-9.39838
х	-9.39871
▁regional	-9.39942
▁belangrijk	-9.3995
▁Au	-9.39978
▁quanto	-9.40088
θέ	-9.40106
▁ak	-9.40188
▁dom	-9.40201
plan	-9.4023
▁kann	-9.40395
vent	-9.40556
▁stabil	-9.40711
▁frem	-9.40781
▁d’	-9.40867
▁držav	-9.40909
▁zum	-9.4093
nem	-9.40958
▁países	-9.41054
ди	-9.41265
gh	-9.41348
firm	-9.41374
п	-9.41378
ster	-9.41405
nova	-9.41483
ous	-9.41499
▁end	-9.41539
▁stöd	-9.41545
▁mere	-9.41585
bor	-9.41647
τό	-9.41717
▁má	-9.41764
▁gäller	-9.4183
▁kraj	-9.41956
nio	-9.41977
▁primer	-9.42019
▁στις	-9.42045
▁Te	-9.42092
nym	-9.42158
▁(EN)	-9.422
imas	-9.42296
imą	-9.42322
▁internationale	-9.42377
amento	-9.42413
aal	-9.42459
uni	-9.42464
plo	-9.42487
üh	-9.42597
▁solidar	-9.42635
▁lidstaten	-9.42648
▁15	-9.427
▁general	-9.42757
dem	-9.42776
eva	-9.42923
▁teis	-9.42949
ijn	-9.42956
trä	-9.42996
▁these	-9.43028
▁Y	-9.43091
car	-9.43104
▁lid	-9.43218
▁punto	-9.43297
▁wo	-9.43371
heit	-9.43406
ρά	-9.43425
iga	-9.4347
nza	-9.4349
▁yra	-9.43519
▁sto	-9.43536
▁Das	-9.43541
▁nationale	-9.43648
gé	-9.4365
▁Mijnheer	-9.4371
▁bør	-9.4372
▁time	-9.43773
▁one	-9.4382
vez	-9.43921
δο	-9.43976
▁consider	-9.43977
tica	-9.4409
▁wenn	-9.441
▁προσ	-9.441
▁dessa	-9.44107
vien	-9.44131
wij	-9.44191
▁tegen	-9.44191
īv	-9.44207
heden	-9.44207
area	-9.44249
▁cel	-9.44311
▁gerne	-9.44396
à	-9.4441
pres	-9.44436
sku	-9.44452
▁politisk	-9.44485
▁до	-9.44493
ym	-9.44596
νο	-9.4461
ados	-9.44717
▁støtte	-9.44782
νομ	-9.44792
▁ons	-9.44813
▁sulla	-9.44851
lor	-9.44915
cco	-9.44954
szer	-9.44978
▁puede	-9.45058
▁съ	-9.45066
ικών	-9.45096
▁countries	-9.45108
▁caso	-9.45311
▁materia	-9.45317
zia	-9.45348
stup	-9.45355
ние	-9.45395
▁divers	-9.4544
vers	-9.45547
stri	-9.45745
▁cri	-9.45839
όν	-9.45898
άρ	-9.45904
gel	-9.45931
▁sistema	-9.46
▁Med	-9.46045
yb	-9.46079
cept	-9.46151
▁Επιτροπή	-9.4621
scri	-9.46225
ind	-9.46285
▁bil	-9.4629
▁allt	-9.46305
lande	-9.46338
▁aber	-9.4635
▁οποία	-9.46412
▁arī	-9.46446
▁Komisija	-9.46448
▁sem	-9.46455
▁hand	-9.46469
ful	-9.46476
kel	-9.46482
aire	-9.46566
▁spre	-9.46612
af	-9.46613
še	-9.46623
▁about	-9.46673
▁mes	-9.46725
▁formand,	-9.46726
▁chi	-9.46747
ono	-9.46888
ος	-9.46911
rod	-9.46918
σχ	-9.46931
bru	-9.47039
▁sehr	-9.47085
τή	-9.47203
▁what	-9.47212
με	-9.47229
▁Az	-9.47242
▁rela	-9.47242
▁gener	-9.47375
ρώ	-9.47462
hör	-9.47489
tim	-9.47513
line	-9.47544
▁Wij	-9.47668
▁werden.	-9.47789
▁8	-9.47795
zon	-9.47987
▁Rådet	-9.48025
ych	-9.48116
iste	-9.48148
▁support	-9.48195
▁kar	-9.48213
▁fri	-9.4834
▁notre	-9.48538
▁κοιν	-9.48612
▁tanto	-9.48627
▁hay	-9.4865
▁ku	-9.48681
όρ	-9.48722
▁limit	-9.48802
jí	-9.49006
gne	-9.4908
▁tutti	-9.49142
nnen	-9.49157
ident	-9.49184
▁hanno	-9.4919
vär	-9.49269
áva	-9.49328
▁spørgsmål	-9.4936
▁refer	-9.49503
σω	-9.49533
▁või	-9.49619
▁tiene	-9.49656
▁hen	-9.49669
▁propuesta	-9.49871
ονται	-9.49901
▁constitu	-9.49998
▁they	-9.50004
▁text	-9.5007
▁nei	-9.50135
dzi	-9.50148
▁ktoré	-9.50262
gan	-9.50265
▁έχει	-9.50286
▁oder	-9.50329
▁пред	-9.50343
ordning	-9.50387
ακ	-9.50424
▁pří	-9.50443
▁prí	-9.50454
πε	-9.505
▁tas	-9.50504
▁pero	-9.50535
▁Mitgliedstaaten	-9.50569
▁autor	-9.50577
▁information	-9.50589
▁situ	-9.50773
▁sol	-9.50861
▁gew	-9.50961
▁fast	-9.50984
▁mal	-9.50986
ț	-9.51005
ktor	-9.51041
▁sul	-9.51056
sætte	-9.51072
elijk	-9.51153
nega	-9.51168
iek	-9.51199
▁sektor	-9.5131
▁Zu	-9.51326
τική	-9.51331
ök	-9.51386
▁même	-9.51419
▁än	-9.5142
▁bas	-9.5144
▁opera	-9.51506
▁progres	-9.51641
cord	-9.51654
▁sme	-9.51672
▁lai	-9.51678
▁bude	-9.51693
▁veel	-9.51739
▁né	-9.51805
zy	-9.51825
mai	-9.51874
▁now	-9.51916
ijos	-9.51967
▁solo	-9.52027
ünk	-9.52101
cent	-9.5212
▁även	-9.52148
чи	-9.52323
го	-9.52372
▁proposition	-9.5238
▁mål	-9.52406
ného	-9.5254
mark	-9.52599
▁betänkande	-9.52605
owa	-9.52652
imi	-9.52665
ont	-9.52753
▁see	-9.52767
ales	-9.52799
ű	-9.52817
▁2009	-9.52842
fü	-9.52899
áz	-9.5292
lem	-9.52926
▁Ni	-9.52937
dob	-9.52959
▁grande	-9.52999
▁επ	-9.53032
jem	-9.53037
▁central	-9.53043
▁Europees	-9.53062
▁avons	-9.53142
▁pil	-9.53382
gång	-9.53393
ρη	-9.53473
▁muy	-9.53491
wie	-9.53516
ří	-9.53609
ικής	-9.5361
▁interven	-9.53651
▁landen	-9.5366
▁Komisi	-9.5367
kend	-9.53672
▁demokrati	-9.53705
isation	-9.53784
dus	-9.53792
▁jau	-9.53966
▁Les	-9.53969
▁aj	-9.54111
pad	-9.54124
vil	-9.54133
▁αλλά	-9.54192
▁ide	-9.54196
▁betænkning	-9.54237
▁M.	-9.54277
jam	-9.5441
ování	-9.54411
tig	-9.54432
▁gran	-9.54436
▁national	-9.54441
λο	-9.5446
▁state	-9.54481
▁año	-9.54486
schaft	-9.54514
ië	-9.54558
λή	-9.54573
▁doit	-9.54585
▁utan	-9.54665
▁unionen	-9.54682
▁loro	-9.54686
▁spol	-9.54797
▁Pri	-9.54852
▁sens	-9.54883
▁fact	-9.5493
own	-9.54991
išk	-9.54996
▁people	-9.55218
ual	-9.55263
▁000	-9.55276
▁had	-9.55322
▁rend	-9.55432
over	-9.55611
ετ	-9.55668
▁str	-9.55738
ψη	-9.55882
▁(A	-9.55899
▁auto	-9.5605
ερ	-9.56134
▁vari	-9.56144
▁On	-9.5615
ppen	-9.56151
ight	-9.56167
▁tem	-9.56391
zza	-9.5641
▁Af	-9.56456
dad	-9.56458
▁Ba	-9.56522
αι	-9.56543
spolitik	-9.56546
▁amendement	-9.56551
Τ	-9.56697
chten	-9.56707
▁bli	-9.56801
▁ban	-9.56813
▁Πρόεδρε,	-9.56819
▁Recht	-9.56849
λά	-9.56913
▁ekonomi	-9.56928
▁fru	-9.57037
▁crea	-9.57081
▁ευ	-9.57089
▁très	-9.57106
organisation	-9.57191
▁11	-9.57199
▁där	-9.57307
▁tous	-9.57327
ēm	-9.57384
isten	-9.57414
ovat	-9.57494
ovať	-9.5757
▁total	-9.57602
▁está	-9.57651
halt	-9.57693
▁post	-9.57752
ności	-9.57835
isse	-9.57848
▁directive	-9.5793
▁commun	-9.58004
ș	-9.5803
tiva	-9.58078
čas	-9.58129
▁prac	-9.58162
isti	-9.58192
▁Tur	-9.58217
inter	-9.58222
ék	-9.58247
H	-9.58257
▁él	-9.58294
▁todos	-9.58337
ningar	-9.58363
▁mellem	-9.58369
▁take	-9.5844
ncia	-9.5847
ικ	-9.58519
▁new	-9.58547
ère	-9.58602
aria	-9.58619
▁forslag	-9.58806
êt	-9.5884
▁niveau	-9.58863
▁turi	-9.58881
ικές	-9.58883
ë	-9.59043
ella	-9.59048
▁Bi	-9.59051
▁aspect	-9.59117
▁vår	-9.59124
▁krit	-9.59124
dzie	-9.59156
drag	-9.59224
aciones	-9.59325
cra	-9.59347
elser	-9.5937
▁wichtig	-9.59375
▁vz	-9.59375
▁väl	-9.59387
▁vai	-9.59411
▁heb	-9.59424
νη	-9.59435
▁finns	-9.59447
▁Dat	-9.59448
▁todo	-9.59457
put	-9.59499
ināt	-9.59596
▁Europeo	-9.59609
ίου	-9.59678
че	-9.59684
▁γ	-9.59708
▁favor	-9.59732
▁klar	-9.59806
norm	-9.59827
ké	-9.5984
▁rådet	-9.59917
▁l'in	-9.59931
ndet	-9.59957
gle	-9.60011
bro	-9.60016
▁fatto	-9.60025
▁year	-9.6003
▁Tra	-9.60095
▁Nu	-9.60138
▁svoj	-9.60154
▁mijn	-9.60157
isch	-9.60253
»	-9.60534
▁göra	-9.60534
stā	-9.60668
▁gøre	-9.6074
prend	-9.60747
inti	-9.60752
▁defini	-9.60772
ait	-9.60816
lus	-9.60901
tic	-9.60929
ļ	-9.60996
uma	-9.60996
oval	-9.61015
▁travail	-9.61119
έν	-9.61127
▁nav	-9.61221
▁clar	-9.6126
▁rol	-9.61275
ηση	-9.61277
▁hel	-9.61296
kraft	-9.61311
▁Som	-9.61324
table	-9.61355
▁skall	-9.61394
uta	-9.61402
ktion	-9.61497
▁As	-9.61532
▁keine	-9.61607
▁14	-9.6161
kal	-9.61642
▁у	-9.61678
αλ	-9.6173
ομ	-9.61762
прав	-9.61803
▁Fra	-9.61841
ωρ	-9.61876
▁prav	-9.61877
▁mēs	-9.61887
uß	-9.61903
▁discussion	-9.61956
stav	-9.61967
ismo	-9.61987
▁ange	-9.62007
па	-9.62024
▁policy	-9.62078
jú	-9.62134
▁cas	-9.62188
system	-9.62214
▁He	-9.6223
▁förslag	-9.6239
▁only	-9.62424
ať	-9.62542
▁politi	-9.62554
▁πολύ	-9.62556
▁eigen	-9.62557
acij	-9.62612
▁direktiv	-9.62723
halten	-9.62725
▁pris	-9.62801
▁want	-9.62817
▁tema	-9.62948
rö	-9.63049
ého	-9.63266
▁Κ	-9.63277
▁helt	-9.63378
▁grup	-9.63411
▁qua	-9.63457
venir	-9.63463
σμ	-9.63486
▁Frage	-9.63489
▁раз	-9.63703
▁fælles	-9.6382
▁kor	-9.63831
▁acuerdo	-9.63842
би	-9.6389
μη	-9.63919
ním	-9.63954
▁result	-9.63959
▁moment	-9.6401
▁inom	-9.64066
voir	-9.64104
voor	-9.64171
▁muss	-9.64214
▁mehr	-9.64261
ple	-9.64386
liku	-9.64459
▁zullen	-9.64536
▁(FR)	-9.64541
ικού	-9.64541
▁selv	-9.64554
▁kui	-9.64717
▁2000	-9.64729
staat	-9.64753
vention	-9.64779
▁issue	-9.64838
▁deres	-9.64857
rica	-9.64881
ò	-9.64885
да	-9.64958
▁hu	-9.65059
▁2008	-9.65167
ιν	-9.65167
▁μου	-9.65211
▁στα	-9.65351
øj	-9.65366
▁make	-9.65367
▁grupp	-9.6551
▁ist,	-9.6552
szy	-9.6557
▁får	-9.65609
programm	-9.65774
dring	-9.65775
anti	-9.65876
kning	-9.65994
▁παρα	-9.65996
dur	-9.66008
ným	-9.66012
▁а	-9.66023
▁willen	-9.6603
tó	-9.6614
tare	-9.66148
по	-9.66208
ging	-9.66288
▁οποίο	-9.66365
▁direct	-9.66402
▁eftersom	-9.66414
ány	-9.66447
▁sku	-9.66507
▁nuestro	-9.66582
▁būti	-9.66603
veik	-9.66665
houden	-9.66666
uit	-9.66669
▁sätt	-9.66707
▁mening	-9.66797
▁pán	-9.6682
▁30	-9.66894
aires	-9.6693
▁są	-9.66969
▁ansvar	-9.66996
▁President	-9.67012
endo	-9.67025
til	-9.6704
▁kol	-9.67065
plic	-9.67075
nú	-9.6716
▁einem	-9.67171
▁proposal	-9.672
▁un'	-9.67268
▁sådan	-9.67279
▁possible	-9.67297
▁because	-9.67323
ujem	-9.67337
▁vast	-9.67385
▁qu'	-9.67387
ūt	-9.67391
▁ry	-9.6748
rob	-9.675
▁Presidente	-9.67635
▁Š	-9.67646
ég	-9.67701
▁heer	-9.67757
▁Mu	-9.67803
έχ	-9.67845
bri	-9.67887
ωση	-9.67909
él	-9.67945
mist	-9.67966
ιών	-9.67969
cji	-9.67993
▁ako	-9.68041
ώς	-9.68044
okra	-9.68044
▁eks	-9.6812
▁nombre	-9.68121
sky	-9.68134
▁gy	-9.68143
▁financ	-9.68163
▁Mon	-9.68172
δε	-9.6823
▁werden,	-9.68257
▁év	-9.68326
▁molto	-9.6833
tain	-9.68401
▁са	-9.6855
▁liberal	-9.68638
īgi	-9.68684
▁lugar	-9.68762
iser	-9.68772
▁direkt	-9.68989
ност	-9.68999
▁cap	-9.69084
gla	-9.69133
▁finde	-9.69142
▁zij	-9.69305
område	-9.69307
ské	-9.69355
▁které	-9.69356
ritt	-9.69397
čia	-9.69428
▁teh	-9.69534
klar	-9.6959
▁devons	-9.69627
▁lande	-9.69636
qué	-9.697
▁effet	-9.69752
▁final	-9.69823
▁elle	-9.69868
iche	-9.69876
udi	-9.69893
▁ram	-9.699
▁vēl	-9.69902
▁ven	-9.6992
▁пре	-9.69945
▁problème	-9.7007
▁lavoro	-9.70103
tern	-9.70129
▁document	-9.70136
▁parlamentet	-9.70301
▁2010	-9.70335
▁2020	-9.7034
bin	-9.7043
mini	-9.70452
▁επίσης	-9.70499
▁europæiske	-9.7059
cre	-9.70607
▁bara	-9.70632
▁Min	-9.70657
væ	-9.70679
fel	-9.70691
▁habe	-9.70715
▁hacer	-9.70755
▁effektiv	-9.70882
weg	-9.70912
▁έκθεση	-9.70928
▁place	-9.71018
tique	-9.71072
▁import	-9.71112
svar	-9.71279
▁dalla	-9.713
stellen	-9.71352
tico	-9.71373
emos	-9.71384
ча	-9.71477
ły	-9.71576
▁actual	-9.71673
▁dispos	-9.71825
▁mogelijk	-9.71835
ary	-9.71838
▁international	-9.7184
▁д	-9.7189
zor	-9.7192
▁če	-9.71954
▁tratta	-9.72015
▁echter	-9.72016
▁still	-9.72039
ści	-9.72089
isme	-9.72156
ργ	-9.72343
▁stato	-9.72382
verk	-9.72388
▁wurde	-9.72406
tik	-9.72435
sty	-9.72472
▁financier	-9.7254
▁déc	-9.72564
klad	-9.72567
punkt	-9.72593
▁if	-9.7266
▁rest	-9.72671
▁nieuwe	-9.72733
▁blev	-9.72756
▁Problem	-9.72768
rätt	-9.7278
▁mé	-9.72849
▁prima	-9.72947
▁significa	-9.72964
▁long	-9.72974
▁stre	-9.73044
▁neue	-9.73105
▁nuestra	-9.73162
tamente	-9.73259
▁vad	-9.73317
gå	-9.73405
▁δε	-9.73501
πρό	-9.73697
▁deux	-9.73715
▁Arbeit	-9.73732
▁crisis	-9.73759
▁jaar	-9.73812
▁présent	-9.73851
ierung	-9.73857
▁compromis	-9.73916
ük	-9.74079
▁proti	-9.74149
▁element	-9.74223
▁25	-9.74227
▁droits	-9.74301
isering	-9.74334
ло	-9.74335
ront	-9.74351
▁terrorism	-9.74362
▁succes	-9.74392
▁vaja	-9.74405
▁elő	-9.74417
lsen	-9.74429
▁úr	-9.74509
▁dieses	-9.74511
▁produkt	-9.74599
lang	-9.74631
▁Ga	-9.74649
▁mejor	-9.74812
▁před	-9.74833
▁such	-9.74836
▁zoals	-9.74848
μέ	-9.74907
ppel	-9.74992
▁στον	-9.74995
ać	-9.75054
▁particular	-9.75197
▁Sin	-9.75197
▁interne	-9.75266
euro	-9.75306
за	-9.75359
▁mellan	-9.75365
▁All	-9.75377
▁problém	-9.75383
▁šo	-9.75399
▁concerne	-9.75421
ży	-9.75432
▁Európai	-9.75442
dži	-9.75455
nă	-9.75469
▁mums	-9.75498
▁comuni	-9.75511
mmer	-9.75588
bla	-9.75611
eurs	-9.75718
zin	-9.75719
▁tage	-9.75722
ят	-9.75725
ellen	-9.75741
▁momento	-9.7576
imento	-9.75777
▁raport	-9.75784
▁ya	-9.75868
▁potreb	-9.75993
▁viel	-9.76015
▁σχετικά	-9.76082
▁państw	-9.76111
▁compr	-9.76118
▁κ.	-9.76172
kken	-9.76185
bij	-9.76309
rop	-9.76416
▁most	-9.76439
▁Or	-9.76459
ions	-9.76468
▁diritti	-9.76509
gesteld	-9.76527
си	-9.76626
ната	-9.76627
▁2007	-9.76657
▁belang	-9.76675
klaus	-9.76697
▁formul	-9.76722
▁mag	-9.76749
▁gra	-9.76891
▁any	-9.76941
▁protection	-9.76948
▁Land	-9.77019
ф	-9.77124
pä	-9.77187
▁dla	-9.77191
ranno	-9.77192
eret	-9.77196
▁mayor	-9.77216
lja	-9.77219
fect	-9.77229
hal	-9.77257
ständig	-9.77314
sum	-9.77411
га	-9.77439
▁cal	-9.77514
▁futuro	-9.7756
▁fr	-9.77637
ák	-9.77657
tab	-9.77808
μο	-9.77871
ibili	-9.77872
▁contre	-9.78004
▁forbindelse	-9.78099
▁'	-9.78192
ģi	-9.78227
▁Om	-9.78296
▁návrh	-9.7843
▁realiz	-9.78435
▁organiz	-9.7844
ред	-9.7846
▁tussen	-9.78462
▁alleen	-9.78502
▁Ci	-9.78644
ché	-9.78695
▁dialog	-9.78722
ατ	-9.7873
skap	-9.78815
änk	-9.78878
сти	-9.78887
▁programma	-9.78912
▁Ο	-9.78998
▁grad	-9.79032
▁visa	-9.79033
▁concern	-9.79136
▁όπως	-9.79162
▁anser	-9.79255
".	-9.79348
rup	-9.79406
▁bio	-9.79418
▁steun	-9.79445
▁perché	-9.79452
▁amely	-9.7958
▁tudi	-9.79644
aient	-9.79731
▁institu	-9.79752
▁nacional	-9.79784
▁hecho	-9.79837
pol	-9.79857
▁abbiamo	-9.79875
▁това	-9.79938
▁name	-9.79955
▁period	-9.79962
▁καθ	-9.80067
▁tõ	-9.80087
▁maken	-9.8014
▁Ez	-9.80171
šanu	-9.80233
▁medlemsstater	-9.80315
▁(PL)	-9.80325
▁Non	-9.80344
▁które	-9.80348
ére	-9.80466
vate	-9.8048
λογ	-9.80525
jär	-9.80558
möglich	-9.80667
▁kunna	-9.80679
▁töö	-9.80708
▁¿	-9.80739
▁trata	-9.80748
tru	-9.80851
▁position	-9.80986
▁Lissabon	-9.81041
▁hvis	-9.81096
νε	-9.8112
▁beslut	-9.81151
▁n'	-9.81194
pan	-9.81216
▁concret	-9.81242
▁Το	-9.81358
▁stabilit	-9.81366
οποι	-9.81398
▁Μ	-9.81438
schap	-9.81447
θούν	-9.81474
tsiooni	-9.815
tér	-9.81502
πτ	-9.81588
rum	-9.81594
▁lors	-9.81661
▁konkur	-9.81739
▁13	-9.81804
▁major	-9.81813
▁stát	-9.81852
▁reco	-9.81919
▁maggior	-9.81926
▁cours	-9.81939
▁ως	-9.81967
llen	-9.8198
▁main	-9.8199
ība	-9.82049
mēr	-9.8206
ové	-9.82077
▁full	-9.82128
jící	-9.82132
hy	-9.82163
▁talman!	-9.82256
segu	-9.82291
ną	-9.82376
stelling	-9.82405
adas	-9.82472
▁politika	-9.82495
▁Bürger	-9.82673
αμε	-9.82755
nehmen	-9.82783
▁regel	-9.82788
ισμό	-9.8284
λέ	-9.82921
καν	-9.82927
▁folk	-9.82959
▁praw	-9.83077
▁Gre	-9.8317
▁syn	-9.83182
▁mange	-9.83187
jā	-9.83218
▁tv	-9.83222
▁resultat	-9.83296
▁καλ	-9.83308
▁arbejde	-9.83398
ήσει	-9.83409
▁fall	-9.83418
υν	-9.83432
▁oblasti	-9.8346
stop	-9.83476
ical	-9.83564
▁conclu	-9.83602
handling	-9.837
▁plaats	-9.83756
iendo	-9.8382
grund	-9.83826
▁δι	-9.83832
▁autre	-9.83877
ας	-9.83891
▁bar	-9.83923
νει	-9.83944
▁between	-9.84052
ish	-9.8409
▁bereit	-9.84124
▁much	-9.8424
▁standard	-9.84248
▁Η	-9.84291
tuur	-9.8432
elijke	-9.84324
▁marché	-9.84361
aug	-9.84446
ino	-9.84462
ībā	-9.84464
ism	-9.8448
SE	-9.84597
▁emp	-9.8466
▁ΕΕ	-9.84672
ink	-9.84716
▁voudrais	-9.84736
rzy	-9.84748
▁fundamental	-9.84844
▁anti	-9.84852
prob	-9.84884
avad	-9.84915
▁those	-9.84932
▁ще	-9.84936
τος	-9.85023
lise	-9.85044
▁αφορά	-9.85071
▁liv	-9.85269
▁obliga	-9.85301
zel	-9.85315
ция	-9.85323
▁ví	-9.8535
▁considera	-9.85368
01	-9.85378
ujú	-9.85406
werk	-9.85413
ру	-9.85439
▁change	-9.85444
▁Ευρώπη	-9.85457
υρ	-9.8554
▁garant	-9.85594
▁proposta	-9.85649
dě	-9.8571
▁resolution	-9.8577
▁jako	-9.85785
▁ville	-9.85786
▁peut	-9.8582
ości	-9.85874
▁commission	-9.85909
▁market	-9.8594
zó	-9.8595
zás	-9.85977
▁necessari	-9.85994
▁andre	-9.86025
▁kunne	-9.86037
▁pak	-9.86047
▁grote	-9.86069
▁EUR	-9.86197
▁l'é	-9.86268
▁vez	-9.86286
ość	-9.86365
nut	-9.86366
ative	-9.86399
ът	-9.86399
▁dokument	-9.86528
▁ή	-9.8653
се	-9.86579
▁Du	-9.8658
▁principal	-9.86586
▁gebied	-9.86612
ctor	-9.86632
erade	-9.86669
osti	-9.86702
▁million	-9.86714
EC	-9.86755
cé	-9.86803
ther	-9.86804
ля	-9.86816
▁Reg	-9.86817
▁say	-9.86824
▁duidelijk	-9.86889
▁Κύριε	-9.87117
▁ér	-9.87339
τί	-9.8738
▁super	-9.87438
ď	-9.87459
▁corr	-9.87478
▁contro	-9.87497
▁drug	-9.87691
ña	-9.87714
▁développement	-9.87726
▁économique	-9.87815
▁bliver	-9.87824
▁αρχ	-9.87832
kaz	-9.8785
▁té	-9.87874
▁punt	-9.87885
juk	-9.88006
▁action	-9.88116
▁Ten	-9.88129
▁cela	-9.88154
▁mobil	-9.88205
▁competi	-9.88219
▁štát	-9.88241
▁kontrol	-9.88339
▁Länder	-9.88352
▁udvikling	-9.8836
itate	-9.88362
middel	-9.8839
bare	-9.8847
▁legal	-9.88517
▁Detta	-9.88571
esse	-9.88709
▁før	-9.88744
▁Präsident,	-9.88773
▁bre	-9.88773
eket	-9.8881
▁kot	-9.88823
▁mí	-9.88845
▁col	-9.88954
▁herr	-9.88972
industri	-9.88982
▁vastu	-9.89027
▁gan	-9.89071
сто	-9.89101
▁üle	-9.89101
▁utveckling	-9.89152
▁immer	-9.892
▁mucho	-9.89212
▁sviluppo	-9.89261
ματ	-9.89359
▁model	-9.89392
▁clear	-9.89399
▁slut	-9.89412
ότητα	-9.89417
▁Fru	-9.89479
▁nye	-9.89482
▁έχουν	-9.89628
▁donc	-9.89648
▁Über	-9.89657
üg	-9.89674
▁derechos	-9.89712
εργ	-9.89791
▁hele	-9.89803
rebbe	-9.89825
▁dell'Unione	-9.89853
▁arbejds	-9.89877
▁reg	-9.89882
▁tun	-9.89895
▁bra	-9.89899
pak	-9.89911
ги	-9.89971
▁when	-9.90092
▁θέμα	-9.90096
▁Jo	-9.90151
ière	-9.90261
umo	-9.90275
▁Dit	-9.90292
▁stellen	-9.90298
▁mille	-9.90351
▁mij	-9.90408
▁går	-9.90437
▁legislat	-9.90566
▁chiar	-9.90605
μά	-9.90614
gni	-9.90627
▁rättigheter	-9.90669
čių	-9.90669
▁brug	-9.9069
ολογ	-9.90754
▁procent	-9.90759
hoz	-9.90814
▁groupe	-9.90906
▁offentlig	-9.90908
πι	-9.90918
▁way	-9.90928
kol	-9.9097
stehen	-9.90979
dział	-9.90979
▁bank	-9.91112
▁appro	-9.91133
▁trabajo	-9.91148
▁Pe	-9.91289
▁ello	-9.91314
selt	-9.91323
δυ	-9.91422
▁individu	-9.91454
dag	-9.91474
▁tym	-9.91483
▁therefore	-9.91609
▁staat	-9.91638
ки	-9.91717
▁samt	-9.91733
anno	-9.91743
οί	-9.91931
▁débat	-9.92005
υς	-9.92016
▁procedure	-9.92035
τικά	-9.92052
▁Entwicklung	-9.92071
▁natur	-9.92094
▁jedno	-9.92109
γε	-9.9217
▁suo	-9.92179
▁2006	-9.922
▁dont	-9.92282
▁principio	-9.92289
▁Menschen	-9.92329
▁Rom	-9.9245
omis	-9.92498
▁ker	-9.92574
▁aange	-9.92579
komen	-9.92612
▁jog	-9.92669
gehen	-9.9267
▁omdat	-9.92761
▁decir	-9.92774
ед	-9.92844
είς	-9.92852
▁därför	-9.92859
▁vilket	-9.92869
▁Fond	-9.9291
rse	-9.92934
remo	-9.93
▁prakt	-9.93039
▁μετα	-9.9308
ání	-9.93185
owych	-9.93199
cional	-9.93272
οχή	-9.93375
ære	-9.93439
▁C'est	-9.93454
ηγ	-9.93475
▁political	-9.93487
▁Bizottság	-9.93547
▁cittadini	-9.93556
▁«	-9.93566
▁regard	-9.93567
drž	-9.93633
▁than	-9.93681
▁derfor	-9.93716
lös	-9.93742
▁αντι	-9.93784
▁mener	-9.93818
ping	-9.93865
▁zwischen	-9.93896
▁modern	-9.93958
▁accept	-9.94006
▁rights	-9.94037
▁kultur	-9.94059
▁taga	-9.94062
▁gal	-9.94133
hol	-9.94157
▁προς	-9.94291
▁EU's	-9.94294
arbeit	-9.94321
▁porque	-9.94336
▁διε	-9.94399
dí	-9.94447
▁absolut	-9.9448
elor	-9.94638
▁Commissario	-9.94652
▁USA	-9.94677
▁sans	-9.94687
stva	-9.94687
▁dank	-9.94699
termin	-9.94703
vant	-9.94723
ούς	-9.94751
δα	-9.94779
φων	-9.94781
hand	-9.94785
lás	-9.94816
flu	-9.94874
▁ministr	-9.94897
▁believe	-9.94953
szcz	-9.95009
▁Ri	-9.95014
▁Op	-9.95015
weise	-9.95033
▁specific	-9.95042
▁които	-9.95068
migr	-9.95169
burg	-9.95309
leid	-9.95311
▁ήθελα	-9.95352
ød	-9.95388
▁stand	-9.95402
▁relation	-9.95509
▁gegen	-9.95529
▁Pra	-9.95558
ξη	-9.95562
▁Europæiske	-9.95659
pression	-9.9569
▁mercado	-9.95729
▁ελ	-9.95759
▁υπ	-9.95792
▁compa	-9.95806
ης	-9.95868
ш	-9.95876
rog	-9.95896
▁ancora	-9.95942
▁aspekt	-9.95947
chod	-9.95987
▁vrij	-9.96076
▁soit	-9.96114
ról	-9.96185
▁ontwikkeling	-9.96193
▁europäischen	-9.96203
▁трябва	-9.96215
▁zwei	-9.96229
kä	-9.96293
▁encore	-9.963
▁gaat	-9.96305
▁ét	-9.96358
▁vigtig	-9.96362
▁sikre	-9.96382
έλ	-9.96389
ελ	-9.9639
▁18	-9.96489
▁being	-9.96495
▁ktorý	-9.9651
▁diesen	-9.96583
Europa	-9.96621
▁Zeit	-9.9666
aggi	-9.96726
æl	-9.96832
▁arbets	-9.96859
ξε	-9.96908
пе	-9.96953
dica	-9.96974
ffer	-9.9698
▁sistem	-9.9698
▁doel	-9.9698
▁precis	-9.96981
▁åtgärder	-9.97073
▁région	-9.97074
▁však	-9.97105
▁μόνο	-9.97121
keit	-9.97231
ñ	-9.97267
▁weiter	-9.97268
άζ	-9.97291
okat	-9.97336
ajā	-9.97343
ψ	-9.97362
owania	-9.97409
▁nej	-9.97452
▁europeiska	-9.97459
gelijk	-9.97473
▁voi	-9.97481
▁privat	-9.97526
▁rok	-9.97584
▁Kri	-9.97611
▁Tai	-9.97655
▁še	-9.97676
▁blevet	-9.97684
▁norme	-9.97685
Č	-9.97812
izzazione	-9.97957
mål	-9.97992
ем	-9.98003
▁Grund	-9.98023
▁può	-9.9808
▁energie	-9.98137
geben	-9.9814
▁nødvendig	-9.98171
▁miglior	-9.98271
▁pense	-9.98286
▁haar	-9.98323
▁når	-9.98392
osť	-9.98418
▁mio	-9.9842
▁skupin	-9.98431
▁Parlamentu	-9.98431
▁ayuda	-9.9844
▁made	-9.98483
▁hemos	-9.98486
▁kind	-9.98492
▁gebruik	-9.98625
▁п	-9.98666
ţ	-9.98678
É	-9.9871
▁lahko	-9.98711
▁dann	-9.98763
▁uden	-9.98831
▁faut	-9.98884
▁demande	-9.98932
▁know	-9.99008
▁fondamental	-9.99036
▁об	-9.99047
▁Ber	-9.99054
igkeit	-9.99148
▁Wie	-9.9922
▁áll	-9.99271
łu	-9.99302
▁behov	-9.99331
▁medlemsstaterna	-9.99345
fä	-9.99404
▁aktiv	-9.99415
▁pal	-9.99543
▁embargo	-9.99548
ated	-9.99565
▁Ob	-9.9957
hö	-9.99601
bjectif	-9.99609
▁permit	-9.9962
▁komen	-9.99636
media	-9.99644
▁spi	-9.99651
▁kompromis	-9.99665
▁eerste	-9.99688
▁hensyn	-9.9969
ając	-9.99729
▁gesch	-9.99765
▁50	-9.99802
tijd	-9.99856
▁artikel	-9.99859
lægge	-9.99861
▁aasta	-9.99874
▁voorstel	-9.99928
ři	-9.99946
▁Cu	-9.99987
▁mora	-10.0007
▁čas	-10.0012
demokrat	-10.0021
▁gennem	-10.0023
ска	-10.0025
▁l’a	-10.0027
træ	-10.0028
▁tempo	-10.003
tada	-10.0034
märk	-10.0034
▁basis	-10.0038
▁ainsi	-10.0041
polit	-10.0043
▁favore	-10.0046
▁kaip	-10.0048
zij	-10.0054
▁desarrollo	-10.006
▁gibt	-10.0061
onder	-10.007
inių	-10.0074
ство	-10.0085
▁put	-10.0088
▁suur	-10.009
▁first	-10.0091
äll	-10.0093
oči	-10.0108
▁continue	-10.0113
▁anderen	-10.0115
▁objetivo	-10.012
▁beleid	-10.0125
ních	-10.0127
οπ	-10.0133
äär	-10.0137
▁Nie	-10.0137
▁samma	-10.0157
▁struktur	-10.0158
▁nya	-10.0168
▁musí	-10.0174
▁Bar	-10.0175
▁agreement	-10.018
▁Κα	-10.0195
▁respekt	-10.0198
▁27	-10.02
▁future	-10.0201
▁c'est	-10.0202
▁mondial	-10.0203
▁Ku	-10.0207
▁altri	-10.0213
ματος	-10.0213
itev	-10.0214
ænd	-10.0215
▁matière	-10.0215
▁blive	-10.0215
▁debería	-10.0224
▁great	-10.0226
▁confi	-10.023
▁köz	-10.023
tisk	-10.0232
gleich	-10.0232
▁åter	-10.0234
▁damit	-10.0237
▁cuestión	-10.024
▁donne	-10.0241
▁konkret	-10.0251
ić	-10.0254
αστ	-10.0254
▁minor	-10.0259
▁våra	-10.0261
▁hvilke	-10.0271
σή	-10.0272
▁tutto	-10.0277
▁Δε	-10.0278
κρι	-10.0282
▁bring	-10.0282
▁komme	-10.0283
ális	-10.0283
fér	-10.0287
▁Am	-10.029
στη	-10.0296
▁zeer	-10.0297
(	-10.0298
▁special	-10.0301
▁Diese	-10.0305
▁mir	-10.0323
ität	-10.0325
▁като	-10.0326
▁tror	-10.0331
▁probleem	-10.0332
darb	-10.0336
зи	-10.0338
▁európai	-10.0341
▁taip	-10.0344
cep	-10.0347
▁fakt	-10.0349
▁μέλη	-10.035
▁Ziel	-10.035
▁soll	-10.0352
teurs	-10.0355
▁complet	-10.0355
öv	-10.0356
lijke	-10.0364
▁savo	-10.037
▁bych	-10.0371
ļa	-10.0371
▁Επιτροπής	-10.0376
▁roku	-10.0378
▁think	-10.038
▁sag	-10.038
▁face	-10.0381
mag	-10.0386
▁παρά	-10.0386
hav	-10.0387
▁Mit	-10.0387
▁nell'	-10.0388
äg	-10.0395
▁orient	-10.0396
▁κράτη	-10.0401
▁were	-10.0407
▁επί	-10.0409
20	-10.0412
baar	-10.0413
penden	-10.0424
▁sécurité	-10.0424
▁nuevo	-10.0425
eringen	-10.0427
▁services	-10.0428
▁ski	-10.0428
▁Commissioner	-10.0437
sikkerhed	-10.0437
▁n'a	-10.0437
▁Auf	-10.0438
▁commissione	-10.0444
▁(PT)	-10.045
▁Her	-10.0454
▁akt	-10.0456
▁musi	-10.0458
ίων	-10.0461
abili	-10.0464
▁già	-10.0464
enden	-10.0464
▁17	-10.047
▁zelf	-10.048
▁fund	-10.0482
▁elektr	-10.0493
▁sicurezza	-10.0494
ister	-10.0497
ρό	-10.0497
▁inför	-10.0498
▁står	-10.0508
▁Κοινοβούλιο	-10.051
▁Kosovo	-10.0514
ισμού	-10.0519
takse	-10.0526
kou	-10.0532
▁politische	-10.0534
▁В	-10.0536
▁przez	-10.0544
▁speci	-10.0557
spekt	-10.0566
εία	-10.0566
▁κατ	-10.057
▁Kommissar	-10.0577
τικές	-10.0578
▁personal	-10.0578
▁oraz	-10.0579
же	-10.0591
▁kommissær	-10.0592
▁development	-10.0597
▁coordin	-10.0602
▁ciudadanos	-10.0603
ować	-10.0604
acji	-10.0609
▁2004	-10.061
▁pře	-10.0611
fall	-10.0613
iai	-10.0616
▁conclusion	-10.0618
▁mich	-10.0621
mmen	-10.0622
▁ausge	-10.0624
děl	-10.0625
▁initiative	-10.0627
▁raison	-10.0637
▁right	-10.0637
▁gå	-10.0646
▁clima	-10.0648
ал	-10.0652
čno	-10.0655
owy	-10.0659
▁Bal	-10.0662
▁regul	-10.0664
▁questione	-10.0674
møde	-10.0674
▁mass	-10.0675
▁hvad	-10.0678
▁χρ	-10.0684
īga	-10.0694
▁many	-10.0701
▁stati	-10.0706
pass	-10.0715
ήσεις	-10.0722
▁domaine	-10.0728
▁μία	-10.073
▁tam	-10.0731
beleid	-10.0732
▁roll	-10.0733
▁against	-10.0735
union	-10.0736
yw	-10.0737
registr	-10.0737
▁høj	-10.074
▁plat	-10.0743
ând	-10.0746
πό	-10.075
ιδ	-10.0763
σφαλ	-10.0765
▁Γ	-10.0768
ήσουμε	-10.077
▁See	-10.0773
▁commissaris	-10.0787
ország	-10.0789
▁cré	-10.0793
▁(IT)	-10.0804
▁sino	-10.0815
stig	-10.0818
▁Ki	-10.0818
▁enmienda	-10.0831
▁riguarda	-10.0844
▁valor	-10.0848
▁ora	-10.0855
▁mensen	-10.0857
▁hur	-10.0857
σία	-10.0859
▁aug	-10.0861
▁Β	-10.0862
▁jedoch	-10.0862
genomen	-10.0863
▁well	-10.0867
▁signor	-10.0872
▁situación	-10.0875
▁beslutning	-10.0877
auf	-10.0879
▁respecto	-10.088
▁medidas	-10.0883
opportun	-10.0885
▁Θα	-10.0887
▁gaan	-10.089
▁μπορεί	-10.0897
skydd	-10.09
▁president	-10.09
щи	-10.0907
▁си	-10.0908
▁sondern	-10.0908
ăm	-10.0914
druk	-10.0915
▁n'est	-10.0917
mittel	-10.0917
▁sagt	-10.0918
▁ganz	-10.0919
ща	-10.0922
▁Sr.	-10.0922
▁Lu	-10.0931
zett	-10.0932
им	-10.0933
▁gjort	-10.0936
▁mismo	-10.0938
▁første	-10.0939
▁16	-10.0941
▁tekst	-10.0946
▁medlemsstaterne	-10.0948
▁sett	-10.095
▁technologi	-10.095
▁mesures	-10.0953
ç	-10.0961
▁frågor	-10.0961
▁Bereich	-10.0965
ēju	-10.0972
ások	-10.0978
▁råd	-10.0985
▁pomoc	-10.0985
▁situazione	-10.0987
▁vse	-10.0992
▁nogle	-10.0992
opera	-10.0992
▁mercato	-10.0993
▁einige	-10.1006
▁cosa	-10.1013
maks	-10.1014
ijas	-10.1018
▁two	-10.1019
▁2005	-10.1019
OM	-10.1019
▁l'UE	-10.1021
τικό	-10.1021
▁vista	-10.1027
▁под	-10.1044
▁avant	-10.1044
hang	-10.1047
lighet	-10.1055
säkerhet	-10.1055
▁große	-10.1057
▁dobbiamo	-10.1063
posizione	-10.1066
▁d'é	-10.1066
▁citoyens	-10.1073
pul	-10.1075
remos	-10.1077
▁fest	-10.1086
▁tiempo	-10.1088
zeit	-10.1089
position	-10.1098
sektor	-10.11
▁ordförande	-10.1103
υμ	-10.1111
▁sido	-10.1117
zenia	-10.1119
cja	-10.1121
bild	-10.1124
▁comune	-10.1125
πιστ	-10.1133
▁kriz	-10.1138
▁kontroll	-10.1151
ző	-10.1152
lju	-10.1154
▁context	-10.1154
▁rapid	-10.1158
▁Evropské	-10.1162
▁Hu	-10.1163
▁tri	-10.1164
▁livello	-10.1169
arse	-10.117
▁würde	-10.1177
▁pani	-10.1178
apport	-10.1178
▁natural	-10.1185
▁nivel	-10.1188
▁nodig	-10.1193
▁διά	-10.1198
▁tredje	-10.1198
οδο	-10.12
▁Maßnahmen	-10.1206
▁local	-10.1208
▁Ευρωπαϊκή	-10.1212
μερ	-10.1217
▁jsou	-10.1222
▁recon	-10.1227
ának	-10.1228
▁seguridad	-10.1238
▁anni	-10.124
▁În	-10.1249
sprechen	-10.1251
▁recent	-10.1255
▁õigus	-10.1267
initiativ	-10.1267
▁który	-10.127
▁That	-10.1273
γκ	-10.1282
▁programa	-10.1288
▁trebuie	-10.1295
Union	-10.1296
parlamentet	-10.1298
borg	-10.13
▁markt	-10.1302
plat	-10.1303
▁fare	-10.1305
stvo	-10.1309
gift	-10.1313
▁Esto	-10.1315
▁grand	-10.1319
ised	-10.1326
▁territori	-10.1328
▁kvalit	-10.1329
▁criteri	-10.1334
▁pur	-10.1335
▁μεταξύ	-10.134
▁Ex	-10.1345
▁gemeinsam	-10.1347
▁particolare	-10.135
strategi	-10.1357
-Parlamentet	-10.1362
▁hope	-10.1363
ativ	-10.1365
▁good	-10.1369
▁vind	-10.1371
▁första	-10.1373
▁implement	-10.1373
▁40	-10.1378
▁Franc	-10.1381
▁administr	-10.1385
▁nostro	-10.1399
▁destin	-10.1401
θηκε	-10.141
▁tako	-10.1416
▁intens	-10.1421
▁många	-10.1421
▁več	-10.1423
▁paese	-10.1425
accord	-10.1429
▁praneš	-10.1434
▁opinion	-10.1436
ķ	-10.1437
▁medio	-10.1437
öd	-10.1444
▁sunt	-10.1447
▁heute	-10.1447
▁burgers	-10.1465
▁С	-10.1467
▁Stra	-10.1469
▁sollte	-10.1469
▁applica	-10.1472
▁communautaire	-10.1474
▁Barroso	-10.148
känn	-10.148
▁σας	-10.148
▁effect	-10.1482
▁están	-10.1486
▁nation	-10.1488
▁settore	-10.1494
▁Ö	-10.1496
▁EU:s	-10.1504
▁marked	-10.1507
δικ	-10.151
inės	-10.1515
τες	-10.1516
▁kop	-10.1524
cour	-10.1528
▁Region	-10.1537
près	-10.1539
▁droit	-10.154
▁fue	-10.1541
▁χώρες	-10.1542
hør	-10.1548
▁same	-10.1549
racht	-10.1549
▁agricol	-10.155
ových	-10.1551
▁sollten	-10.1554
▁betrekking	-10.1556
▁tijd	-10.1571
▁solution	-10.1572
▁základ	-10.1575
▁länder	-10.1575
▁doivent	-10.1577
жда	-10.1581
▁discrimin	-10.1581
▁cuando	-10.1582
igung	-10.1583
▁EÚ	-10.1583
ства	-10.1585
▁indica	-10.1586
▁multi	-10.1588
▁alternativ	-10.1593
▁kwestie	-10.1594
åg	-10.1599
▁quindi	-10.16
▁nouvelle	-10.1601
ър	-10.1607
▁volgen	-10.1609
▁risk	-10.1615
▁bendr	-10.162
▁delega	-10.1623
▁aantal	-10.1628
▁sowie	-10.163
λυ	-10.163
tuse	-10.1639
▁Committee	-10.1641
ējā	-10.1642
▁möjlig	-10.1642
▁gali	-10.165
▁effort	-10.1654
▁fog	-10.1654
lyg	-10.1657
vál	-10.1671
▁både	-10.1682
merk	-10.1686
labor	-10.1693
▁d’a	-10.1693
ről	-10.1712
▁E'	-10.1717
anje	-10.1725
▁mulighed	-10.1726
▁själv	-10.173
kkel	-10.173
▁order	-10.1736
▁säga	-10.1736
hospodár	-10.1738
▁así	-10.174
▁zeggen	-10.1741
▁modifica	-10.1742
οδ	-10.1743
ydelse	-10.1744
02	-10.1746
▁pirminink	-10.1755
▁gruppo	-10.1759
▁manier	-10.1762
▁sommes	-10.1767
▁kort	-10.1768
▁durante	-10.177
▁vraag	-10.1772
▁ambiti	-10.1773
▁déjà	-10.1776
▁vue	-10.1777
▁negativ	-10.1779
▁vigtigt	-10.1779
ąc	-10.1781
kker	-10.1785
▁ønsker	-10.1785
▁komisjon	-10.1786
▁Inter	-10.1801
▁ahora	-10.1818
▁Αυτό	-10.1822
▁There	-10.1824
▁subsidi	-10.1824
▁second	-10.1825
жа	-10.1831
lighed	-10.1838
ιλ	-10.1839
▁aktu	-10.1839
▁Европейския	-10.184
▁help	-10.1842
▁cadre	-10.1849
ében	-10.1851
▁democrat	-10.1853
▁vom	-10.1853
▁по-	-10.1853
anse	-10.1854
▁clair	-10.1855
▁manière	-10.1855
κά	-10.1856
▁questi	-10.186
ách	-10.1873
▁Οι	-10.1874
▁système	-10.1879
▁satisf	-10.1882
▁stemme	-10.1884
▁Ένωση	-10.1886
▁où	-10.1889
▁särskilt	-10.19
praw	-10.1903
čné	-10.1914
▁tego	-10.1915
▁πολιτική	-10.1918
ï	-10.1921
▁mandat	-10.1933
ndus	-10.1937
▁conform	-10.1939
ūk	-10.1943
▁werd	-10.1943
▁ændringsforslag	-10.1955
ighet	-10.1962
μάτων	-10.1974
▁rappresenta	-10.1974
▁τομέα	-10.1977
▁país	-10.199
▁sagen	-10.2008
τελ	-10.2012
▁būtų	-10.2015
fald	-10.202
ļu	-10.2024
τηση	-10.2027
▁posible	-10.2028
▁ciò	-10.203
▁stran	-10.2035
▁procedur	-10.2041
ová	-10.205
grænse	-10.2054
▁21	-10.2058
▁citizens	-10.2068
▁economische	-10.2078
▁līdz	-10.2079
▁való	-10.2083
▁Lisbon	-10.2084
jums	-10.2084
▁ήταν	-10.209
satz	-10.209
δημ	-10.209
foranstaltninger	-10.2095
▁personas	-10.2095
ξι	-10.2096
▁brit	-10.2096
ξει	-10.2097
▁sent	-10.2098
▁afin	-10.2102
▁klart	-10.2106
▁quo	-10.2107
▁Regierung	-10.2113
ljen	-10.2114
▁where	-10.2119
miseks	-10.2122
▁mindre	-10.2123
▁1999	-10.2123
alité	-10.2124
▁conditions	-10.2126
▁aplica	-10.213
▁colleghi	-10.213
▁något	-10.2139
gā	-10.2145
syn	-10.2153
τικών	-10.2158
▁hace	-10.2161
▁gospoda	-10.2166
zelf	-10.2167
▁politieke	-10.2173
▁fremme	-10.2174
erede	-10.2174
▁Vorschlag	-10.2181
▁country	-10.2181
vest	-10.2182
ване	-10.2183
▁unie	-10.2184
▁Pi	-10.2184
ccup	-10.2195
føre	-10.2196
▁metod	-10.2198
▁samen	-10.2198
▁pirm	-10.2199
став	-10.2209
issement	-10.2215
▁compte	-10.2223
▁soutien	-10.2223
▁case	-10.2226
nahme	-10.223
▁mida	-10.223
govor	-10.2232
▁nostra	-10.2233
αλλ	-10.2233
▁šio	-10.2234
sätt	-10.2235
Ι	-10.2238
nosť	-10.2241
▁alcun	-10.2244
gger	-10.2246
ában	-10.2249
▁level	-10.2253
ėti	-10.2254
▁tener	-10.2255
▁viktigt	-10.2259
ζητ	-10.2261
▁lokal	-10.2262
▁občan	-10.2276
βάλ	-10.2276
zę	-10.2285
▁puis	-10.2286
τικής	-10.2296
overeenkomst	-10.2299
σαν	-10.2302
ιά	-10.2307
▁Madame	-10.231
Ε	-10.2313
▁bidrag	-10.2314
μένη	-10.2316
▁dell’	-10.232
▁adott	-10.2321
▁idea	-10.2325
▁dohod	-10.2329
▁då	-10.2329
ziel	-10.233
▁especial	-10.233
▁πραγματ	-10.2332
▁membre	-10.2336
▁konflikt	-10.2338
ización	-10.2342
▁heel	-10.2342
▁senza	-10.2348
▁maatregelen	-10.2348
indre	-10.2355
▁décision	-10.2357
▁Wat	-10.2372
▁faktisk	-10.2383
lepš	-10.2385
idu	-10.2387
▁view	-10.2393
▁vilja	-10.2395
τυχ	-10.2399
▁gouvernement	-10.2412
▁sted	-10.2416
▁empresa	-10.2422
▁passa	-10.2424
▁cannot	-10.2434
▁forhandling	-10.2443
▁grave	-10.2445
▁arbete	-10.2449
▁naše	-10.2449
føl	-10.2452
▁twee	-10.2458
▁dovrebbe	-10.2461
kārt	-10.2468
▁regula	-10.2472
▁souhait	-10.2476
▁Chi	-10.2477
evole	-10.2486
▁åt	-10.2486
scheid	-10.2486
▁gör	-10.2489
publik	-10.2495
▁noget	-10.2496
▁čo	-10.2496
▁II	-10.2499
▁numero	-10.25
▁valuta	-10.2506
▁tipo	-10.2506
▁prv	-10.2508
▁Ši	-10.2513
løs	-10.2513
▁nécessaire	-10.2515
ograf	-10.252
▁kolleger	-10.2521
▁extra	-10.2531
ključ	-10.2531
zés	-10.2533
▁access	-10.2534
▁finanziari	-10.2546
▁Ένωσης	-10.2558
sehen	-10.2562
▁gut	-10.2567
▁Mittel	-10.2569
▁Wirtschaft	-10.2573
ба	-10.258
▁λόγο	-10.2584
ще	-10.2586
▁high	-10.2586
▁nå	-10.2588
▁Δι	-10.2589
▁(E	-10.259
schrift	-10.2592
▁Tu	-10.2593
▁wereld	-10.2598
▁Bri	-10.2601
▁binnen	-10.2602
▁τρόπο	-10.2605
gebracht	-10.2606
jumu	-10.261
▁minister	-10.2615
lü	-10.2618
δρ	-10.2629
οντας	-10.2631
Europe	-10.2634
▁compete	-10.2637
misel	-10.2654
▁ändringsförslag	-10.2655
▁tá	-10.266
ер	-10.2662
▁ámbito	-10.2664
▁environment	-10.2678
▁blij	-10.2679
ха	-10.268
▁hea	-10.2686
▁članic	-10.2688
▁discuss	-10.2699
▁benefici	-10.2705
πάν	-10.2712
spir	-10.2713
▁jour	-10.2716
gräns	-10.2717
▁geval	-10.272
spect	-10.2724
▁liber	-10.273
wel	-10.2732
δια	-10.2733
genommen	-10.2742
▁quale	-10.2743
▁continu	-10.2749
ģ	-10.2749
▁Comisario	-10.2754
▁every	-10.2757
▁measures	-10.2759
▁ekonomiska	-10.2763
▁någon	-10.2769
бо	-10.2781
▁extrem	-10.2781
kép	-10.2782
üü	-10.2791
▁regler	-10.2791
▁serie	-10.2794
ibile	-10.2798
нето	-10.2798
▁temps	-10.2802
▁Gra	-10.2804
οποίηση	-10.2805
▁allerede	-10.2811
uvre	-10.2813
▁î	-10.2813
▁П	-10.2813
▁Sicherheit	-10.2815
▁Deze	-10.2816
▁celu	-10.2816
ální	-10.2819
▁vagy	-10.2823
▁σημαντικό	-10.2824
organ	-10.2826
ských	-10.2839
▁sammen	-10.285
▁2003	-10.2851
▁systém	-10.2857
▁tir	-10.2857
αρμ	-10.2858
▁бъде	-10.2858
▁hög	-10.2859
▁d'in	-10.286
▁weil	-10.286
▁democratic	-10.2873
▁2002	-10.2874
ното	-10.2877
▁evalu	-10.2879
▁construc	-10.288
▁sitt	-10.2881
vērt	-10.2884
▁trop	-10.2886
▁Israel	-10.2886
ítás	-10.2896
▁simple	-10.2896
dores	-10.2897
ήματα	-10.2899
▁Συμβούλιο	-10.2905
▁culture	-10.291
▁buvo	-10.2923
▁také	-10.2924
sorg	-10.2925
▁zdrav	-10.2929
▁situatie	-10.293
▁συγ	-10.2931
εν	-10.2932
droš	-10.2939
▁engage	-10.2942
▁argument	-10.2946
woord	-10.2958
▁darauf	-10.2962
führen	-10.2964
▁d’un	-10.2975
ţii	-10.2988
▁měl	-10.2989
▁labai	-10.299
▁redan	-10.299
▁introduc	-10.2991
▁milieu	-10.2993
μένου	-10.2995
▁grond	-10.2996
▁could	-10.2997
▁direttiva	-10.2998
-B	-10.2999
▁jūs	-10.3
čí	-10.3002
▁amendment	-10.3003
▁Nach	-10.3004
ţă	-10.3004
вър	-10.3004
grad	-10.3006
▁chce	-10.301
О	-10.3015
▁Schengen	-10.3015
▁Finanz	-10.3016
▁année	-10.3019
mény	-10.302
▁Európske	-10.3022
▁secteur	-10.3023
▁følge	-10.3028
nnan	-10.3029
που	-10.3031
Ü	-10.3032
▁cuenta	-10.3035
▁meie	-10.3038
▁start	-10.3041
▁verw	-10.3044
▁klimat	-10.3044
▁China	-10.3048
▁compi	-10.3048
▁100	-10.306
▁inicia	-10.3069
▁který	-10.3071
▁mevrouw	-10.3073
rząd	-10.3073
▁Lib	-10.3076
▁usted	-10.3077
meenschappelijk	-10.3084
fug	-10.3084
præ	-10.3089
▁diritto	-10.3089
ków	-10.3092
zional	-10.3092
imų	-10.3098
▁Daarom	-10.3101
▁támogat	-10.3104
▁today	-10.3104
▁aceast	-10.311
▁fly	-10.311
▁wieder	-10.3113
πολιτ	-10.3122
▁lég	-10.3122
▁endnu	-10.3127
▁väga	-10.3129
▁οικονομ	-10.3135
▁κάν	-10.314
▁toekomst	-10.315
▁být	-10.3153
▁gevolg	-10.3157
▁Th	-10.3162
▁concentr	-10.3162
▁wurden	-10.3166
▁feit	-10.3166
ίζω	-10.3167
▁così	-10.3167
▁abord	-10.3168
arbejde	-10.3177
▁said	-10.3178
utskottet	-10.3179
▁hela	-10.3182
▁sort	-10.3186
▁uw	-10.3187
▁företag	-10.3206
▁europäische	-10.3209
▁Portugal	-10.3211
▁koordin	-10.3213
▁Afrik	-10.3215
dienst	-10.3218
hled	-10.3227
▁Európsk	-10.3233
ņa	-10.3237
▁samarbejde	-10.324
owanie	-10.3241
W	-10.3241
▁olyan	-10.3254
mæssig	-10.3255
▁motivo	-10.3258
▁financial	-10.3264
▁šī	-10.3265
▁této	-10.3267
▁debemos	-10.3268
▁combat	-10.3268
▁univers	-10.3268
råd	-10.3272
λλο	-10.3278
▁Van	-10.328
▁animal	-10.328
▁already	-10.3281
▁efficace	-10.3281
ц	-10.3281
▁hij	-10.3282
θη	-10.3285
▁kérdés	-10.3287
αρκ	-10.3287
▁large	-10.3288
ότητας	-10.3292
лу	-10.3292
ének	-10.3292
▁fred	-10.3297
μένο	-10.3298
▁collègue	-10.3299
ième	-10.3302
▁personnes	-10.3304
4-0	-10.3305
99	-10.3315
ship	-10.3317
▁öka	-10.3318
▁matter	-10.3318
UE	-10.3318
länderna	-10.3322
ηθεί	-10.3324
prowadz	-10.3329
abile	-10.333
▁begroting	-10.333
lovgivning	-10.3332
reiz	-10.3333
▁determina	-10.3338
▁nueva	-10.3341
αντ	-10.3345
▁europei	-10.3347
▁nende	-10.3351
▁through	-10.3351
▁Unió	-10.3356
▁motiv	-10.3356
▁krav	-10.3356
▁dafür	-10.3361
▁tiek	-10.3365
▁mest	-10.337
▁rä	-10.3372
▁participa	-10.3376
▁amplia	-10.3376
▁project	-10.3378
ски	-10.3378
▁rispetto	-10.3383
▁energia	-10.3386
▁reag	-10.3397
κλ	-10.3398
▁miljö	-10.3399
▁umani	-10.3404
▁interesse	-10.3407
▁l'Europe	-10.3411
▁groot	-10.3414
alist	-10.3415
▁pesca	-10.3416
▁gestion	-10.3417
▁Rahmen	-10.3419
▁circu	-10.3423
▁Esta	-10.3425
▁capital	-10.3441
▁možn	-10.3442
▁l'A	-10.3443
▁Lisabon	-10.3446
▁ejemplo	-10.3449
▁continua	-10.345
stånd	-10.3454
▁økonomiske	-10.3456
X	-10.3459
▁Ευρωπαϊκής	-10.3465
ώσει	-10.3465
▁Politik	-10.3468
vesti	-10.3468
▁ELi	-10.3469
öö	-10.3473
▁tenemos	-10.3473
▁provide	-10.3479
▁candidat	-10.348
▁zorgen	-10.3481
▁tejto	-10.3489
▁Grupo	-10.3491
▁daug	-10.3494
▁sarà	-10.3495
▁mūsu	-10.3496
▁damer	-10.3499
▁Irland	-10.3499
▁fiscal	-10.3502
τιμ	-10.3504
▁vorrei	-10.3507
δι	-10.3511
▁pension	-10.3514
▁rozvoj	-10.3514
▁formand!	-10.352
▁två	-10.3522
▁borde	-10.3523
σημ	-10.3524
aggio	-10.3528
ční	-10.3528
σουν	-10.353
ват	-10.3535
▁måde	-10.3543
98	-10.3559
marknad	-10.3562
▁Pour	-10.3568
▁betreft	-10.3571
▁passe	-10.3578
küsimus	-10.358
▁ponente	-10.3582
▁possibile	-10.3583
ható	-10.3584
▁normal	-10.3587
ź	-10.3588
▁rösta	-10.3589
▁energetic	-10.359
▁nelle	-10.36
imus	-10.36
▁moral	-10.3602
▁conflict	-10.3603
▁καθώς	-10.3604
▁buiten	-10.3605
στε	-10.3606
setzen	-10.3612
▁medlem	-10.3618
▁State	-10.3622
▁jetzt	-10.3629
▁geld	-10.3633
▁collega	-10.3638
▁accepter	-10.3648
▁causa	-10.3648
▁geht	-10.365
▁proceso	-10.3653
▁mennesker	-10.3653
▁skapa	-10.3654
▁politiska	-10.3668
fund	-10.367
▁organiza	-10.3671
▁2001	-10.3673
▁befolkning	-10.3673
▁εγκ	-10.3673
▁några	-10.368
τω	-10.3687
regel	-10.3695
▁dicho	-10.3703
▁bilancio	-10.3708
▁misure	-10.3712
ují	-10.3713
liste	-10.3713
▁since	-10.3715
▁framtid	-10.3721
▁Président	-10.3722
▁utili	-10.373
▁sólo	-10.3731
▁På	-10.3734
ribu	-10.3734
▁medzi	-10.3736
▁Gemeinschaft	-10.3737
šanā	-10.3738
▁stadig	-10.3739
áció	-10.3749
▁group	-10.3751
▁Og	-10.3757
▁difficult	-10.3757
▁representa	-10.376
spē	-10.376
▁zouden	-10.3767
▁within	-10.3769
▁Savienība	-10.3772
▁world	-10.3773
▁spraw	-10.3774
ieve	-10.3778
▁quelque	-10.3781
Έ	-10.3781
▁monde	-10.3788
▁padė	-10.3791
▁job	-10.3814
▁samenwerking	-10.3815
▁plena	-10.3816
▁richtlijn	-10.3829
▁particulier	-10.3831
▁devono	-10.3833
nivå	-10.3836
σουμε	-10.385
▁musíme	-10.3856
τον	-10.386
sign	-10.3865
▁(ES)	-10.3869
▁alcuni	-10.3876
▁viktiga	-10.3877
▁processo	-10.3878
ES	-10.3883
των	-10.3884
iausia	-10.3884
▁δημιουργ	-10.3885
ίζει	-10.3885
▁predsednik	-10.389
▁esam	-10.3891
работ	-10.39
▁има	-10.3916
▁dazu	-10.3917
▁pregunta	-10.3917
▁call	-10.3919
▁människor	-10.3921
▁jsem	-10.3929
▁Wenn	-10.3931
missie	-10.3932
ovanie	-10.3936
▁jelentés	-10.3937
▁πιο	-10.3949
доб	-10.3951
▁jih	-10.3951
▁fois	-10.3953
▁onorevoli	-10.3955
▁ľud	-10.3961
▁onderzoek	-10.3961
▁koleg	-10.3961
▁siano	-10.3962
▁servizi	-10.3969
retning	-10.3972
▁Internet	-10.3974
haft	-10.3975
examin	-10.3977
▁export	-10.3979
krise	-10.3979
komst	-10.3979
▁analys	-10.3982
▁Priekšsēdētāja	-10.3984
līdz	-10.3993
▁common	-10.4
▁podporu	-10.4
migrant	-10.4004
▁how	-10.4006
▁Mitglied	-10.4008
▁agree	-10.4011
ativa	-10.4013
ше	-10.402
▁sulle	-10.4024
▁Kollegen	-10.4026
▁liel	-10.4028
▁πρόταση	-10.4029
ματα	-10.4032
▁αυτά	-10.4035
▁aftale	-10.4036
uoti	-10.4039
▁2011	-10.4056
▁facilit	-10.4056
▁möjlighet	-10.4057
Ä	-10.4059
ņu	-10.4061
követ	-10.4061
▁Υπ	-10.4064
▁poslan	-10.4065
▁n’	-10.4066
▁(RO)	-10.4068
Ν	-10.407
ņem	-10.4071
▁(NL)	-10.4073
länder	-10.4074
▁συζήτηση	-10.4075
▁Αν	-10.4076
▁Präsident	-10.4081
кра	-10.4081
▁således	-10.4081
▁sujet	-10.4082
-20	-10.4084
værdi	-10.4092
tjänst	-10.4096
▁compar	-10.4097
▁sama	-10.4097
▁militar	-10.4099
▁illegal	-10.4109
▁both	-10.4117
▁Sam	-10.4121
iūl	-10.4122
europæisk	-10.4125
▁wijze	-10.4125
▁possa	-10.4127
▁chose	-10.4133
rang	-10.4142
▁muligt	-10.4152
▁cooperation	-10.4153
▁Komise	-10.4153
▁ensure	-10.4157
▁qu'elle	-10.416
amerika	-10.4162
▁sprawie	-10.4168
blo	-10.4169
druž	-10.417
▁sociáln	-10.417
▁mention	-10.4173
▁involve	-10.4176
ické	-10.4177
▁insist	-10.4182
▁terrorist	-10.4184
flexi	-10.4195
σκε	-10.4196
▁dall'	-10.4198
▁život	-10.4199
behandling	-10.42
▁Richtlinie	-10.42
▁list	-10.4201
▁concernant	-10.4202
▁profit	-10.4208
▁quando	-10.4209
▁forhold	-10.4209
bescherming	-10.4213
▁effective	-10.4215
▁nuclear	-10.4225
▁l’Union	-10.4228
▁internacional	-10.4229
▁Derfor	-10.4236
▁inizi	-10.4238
▁særlig	-10.4245
▁ποι	-10.4249
άμε	-10.425
▁cause	-10.4251
▁político	-10.4252
γραφ	-10.4255
▁thank	-10.4266
▁projet	-10.4266
▁antal	-10.4273
mélior	-10.4274
▁efekt	-10.4277
zott	-10.4277
▁veiligheid	-10.4278
ται	-10.4282
cessi	-10.4285
ovanje	-10.4289
μεν	-10.429
▁commercial	-10.4293
▁miljø	-10.4299
▁αγορά	-10.4302
▁gemensamma	-10.4311
▁besoin	-10.4316
▁financiële	-10.4321
▁nödvändig	-10.4323
▁värld	-10.4324
médi	-10.4325
▁forskning	-10.433
▁d'autres	-10.4332
▁όμως	-10.4335
▁olika	-10.4337
▁However,	-10.4339
▁apoyo	-10.434
▁členských	-10.4343
▁coopération	-10.4349
▁väg	-10.435
▁sempre	-10.4351
τερα	-10.4351
guard	-10.4352
▁último	-10.4359
▁tydlig	-10.4361
▁mūsų	-10.4364
▁priemon	-10.4369
ový	-10.4369
graph	-10.4376
hjælp	-10.438
▁která	-10.4383
▁kuid	-10.4383
harmoni	-10.4384
▁gospod	-10.4387
▁Community	-10.4387
pă	-10.4388
▁structure	-10.4391
lagstiftning	-10.4394
ccident	-10.4399
▁pateik	-10.4401
sluit	-10.4405
▁όσον	-10.4405
▁fost	-10.4413
φερ	-10.4414
▁comment	-10.4417
fang	-10.4418
▁στους	-10.4423
▁pravic	-10.4429
ско	-10.4431
▁amelyek	-10.4439
▁bodo	-10.4455
▁press	-10.4456
▁σήμερα	-10.4459
▁vedtage	-10.4461
▁volta	-10.4462
ίσει	-10.4465
reserv	-10.4469
ovania	-10.4469
gående	-10.4472
▁remercie	-10.4478
▁kohta	-10.4479
▁esempio	-10.4483
▁proprio	-10.4494
Т	-10.4495
▁majandus	-10.4495
▁cambia	-10.4497
▁vissa	-10.4498
ването	-10.45
gestellt	-10.4501
ît	-10.4505
▁steeds	-10.4509
▁CO2	-10.4511
▁60	-10.4512
▁secondo	-10.4513
▁reduce	-10.452
isierung	-10.452
▁donné	-10.4531
cilvēk	-10.4534
▁humanos	-10.454
AC	-10.4546
▁Demokrat	-10.4546
▁franc	-10.4547
ευση	-10.4549
▁odpo	-10.455
▁viola	-10.4555
▁Welt	-10.4558
▁kõik	-10.4558
ště	-10.4563
▁στόχο	-10.4566
▁moyen	-10.457
atlan	-10.4571
▁exemple	-10.4576
▁origin	-10.4578
▁týka	-10.4581
▁által	-10.4584
▁consent	-10.4591
▁Rady	-10.4595
▁muß	-10.4595
що	-10.4601
ėjo	-10.4605
▁europejski	-10.4611
И	-10.4613
▁todas	-10.4613
▁moins	-10.4615
▁insbesondere	-10.4616
▁genomföra	-10.4619
▁example	-10.4621
voorzitter	-10.4622
▁również	-10.4624
▁szükség	-10.4627
03	-10.4627
▁ανάπτυξη	-10.4634
бе	-10.4639
īgu	-10.4646
ява	-10.4647
▁résolution	-10.4649
▁correct	-10.4649
ismus	-10.4653
▁necesario	-10.4654
μι	-10.4661
▁země	-10.4668
prä	-10.4674
▁administrativ	-10.4675
ják	-10.4679
▁consulta	-10.4685
▁fremtid	-10.4686
υγ	-10.4687
▁reason	-10.4691
телно	-10.4691
▁skabe	-10.4693
▁αυτές	-10.4696
▁produit	-10.4701
▁gæld	-10.4703
▁välja	-10.4704
▁observa	-10.4708
▁contrôle	-10.4711
▁πλαίσιο	-10.4714
▁employ	-10.4717
▁gør	-10.4717
▁aujourd'hui	-10.4719
▁libre	-10.472
▁utiliza	-10.473
▁WTO	-10.4731
ítés	-10.4733
▁nostri	-10.4746
▁Комисията	-10.4748
▁Programm	-10.4751
ický	-10.4752
▁seulement	-10.4758
▁ļoti	-10.4758
▁zone	-10.4758
▁comprend	-10.4775
▁võt	-10.4777
elijkheid	-10.4778
говор	-10.4779
▁estamos	-10.4783
▁number	-10.4784
▁waarin	-10.4793
▁σύν	-10.4794
▁aucun	-10.4798
▁extern	-10.4799
▁Energie	-10.4799
ácie	-10.48
▁wäre	-10.48
▁Panie	-10.4806
▁cooperación	-10.481
▁starp	-10.4813
▁necesita	-10.4813
▁több	-10.4815
▁jsme	-10.4815
▁Fall	-10.482
▁små	-10.4824
τών	-10.4828
▁día	-10.4833
icamente	-10.4837
▁enkelt	-10.4841
▁Social	-10.4844
▁samme	-10.4845
▁fem	-10.4849
▁ανά	-10.4856
▁moneta	-10.4856
▁Komisijos	-10.4859
▁marco	-10.4863
▁Punkt	-10.4868
▁predstav	-10.4869
▁exempel	-10.4875
▁sull'	-10.4876
hinder	-10.4879
▁veľmi	-10.4882
glob	-10.4886
▁będzie	-10.4886
wirtschaft	-10.4888
▁vprašanj	-10.4894
▁dotyczą	-10.4896
▁Präsident!	-10.4911
▁rész	-10.4912
▁behöver	-10.4913
▁forskellige	-10.4918
▁framför	-10.4926
ур	-10.4929
▁elabor	-10.4933
▁daudz	-10.4941
▁current	-10.4947
ării	-10.4962
▁besluit	-10.4964
▁ekonomisk	-10.4965
poliitika	-10.4969
▁parlamentari	-10.4974
hľad	-10.498
▁económica	-10.4988
▁Nord	-10.4995
▁demokratisk	-10.4997
▁předsedající,	-10.5005
▁diskrimin	-10.5007
▁kül	-10.501
▁ώστε	-10.5014
mysl	-10.5017
▁Umwelt	-10.5018
slutning	-10.5019
съ	-10.5021
éré	-10.5033
▁actie	-10.5036
▁fontos	-10.5039
▁κατάσταση	-10.504
wand	-10.5042
▁distin	-10.5049
▁osob	-10.5051
▁zonder	-10.5054
▁traité	-10.5064
▁αποτελεί	-10.5069
▁Elnök	-10.5071
▁въпрос	-10.5075
50	-10.5081
▁moramo	-10.5081
▁ceux	-10.5083
▁23	-10.5093
▁Slov	-10.5097
▁particip	-10.5101
γνωρ	-10.5101
▁Ihnen	-10.5107
▁może	-10.5108
▁cooperazione	-10.511
▁exclu	-10.5111
owej	-10.5114
▁dimension	-10.5116
▁internationell	-10.5118
▁allmän	-10.5118
▁jelent	-10.512
▁règlement	-10.5122
▁soziale	-10.5122
μον	-10.5123
▁manifest	-10.5128
▁έχουμε	-10.5128
▁obchod	-10.513
▁jó	-10.5137
▁rink	-10.5138
▁Liidu	-10.5139
▁dôležit	-10.514
▁Iran	-10.5145
▁diskut	-10.5152
▁l'ex	-10.5154
▁mettre	-10.5158
▁Κοινοβουλίου	-10.5166
▁necesidad	-10.5174
▁könnte	-10.518
▁why	-10.5182
beskyttelse	-10.5182
▁quiero	-10.5184
▁différent	-10.5186
▁ordfører	-10.5191
▁pamat	-10.5191
▁energy	-10.5192
▁mult	-10.5196
umiem	-10.5198
▁især	-10.5208
▁съюз	-10.5212
▁président	-10.5217
▁Zusammenarbeit	-10.5225
tamise	-10.5233
▁tax	-10.524
šči	-10.5241
▁αυτού	-10.5244
▁Teil	-10.5251
▁require	-10.5251
ėms	-10.5251
▁achieve	-10.5252
▁Minister	-10.5252
ification	-10.5261
▁samtidig	-10.5266
▁λόγω	-10.5275
▁Είναι	-10.5278
▁mänskliga	-10.5284
▁algunos	-10.5288
▁nõu	-10.5289
▁Tratado	-10.5299
▁population	-10.53
▁idé	-10.5304
konferenc	-10.5314
▁kleine	-10.5319
▁γεγονός	-10.532
▁īpaš	-10.5325
▁quant	-10.5325
διο	-10.533
▁pourquoi	-10.5335
▁între	-10.5336
▁lõ	-10.5339
▁type	-10.5341
▁urgent	-10.5345
ból	-10.5353
▁Hvis	-10.5356
▁quello	-10.5361
▁mohl	-10.5366
▁Verdrag	-10.5367
erfolg	-10.5381
▁ohne	-10.5382
▁agent	-10.5389
▁iespēja	-10.5393
ετε	-10.5405
▁stark	-10.5405
▁principle	-10.5409
tāju	-10.5409
▁Meinung	-10.5414
▁pueda	-10.5417
▁inzake	-10.5424
▁treba	-10.5425
▁rozhod	-10.5425
▁Unterstützung	-10.5426
▁means	-10.5427
processen	-10.5429
lust	-10.543
зна	-10.5439
▁Unii	-10.544
▁protección	-10.5441
minister	-10.5442
▁wollen	-10.5443
▁represent	-10.5451
βουλ	-10.5454
▁vandaag	-10.5455
▁Ausschuss	-10.5456
▁sidste	-10.5456
▁tradition	-10.5458
▁mundo	-10.5459
▁samarbete	-10.5463
▁veiksm	-10.5464
▁mijnheer	-10.5464
stellung	-10.5469
owego	-10.547
▁komisar	-10.5471
▁Europejskiej	-10.5487
▁House	-10.5487
▁j'ai	-10.549
▁δύο	-10.5495
▁celle	-10.5496
γεν	-10.5501
kład	-10.551
▁pouvoir	-10.5512
τές	-10.5514
▁entend	-10.5514
▁holdning	-10.5516
▁assist	-10.5518
führung	-10.5523
▁luogo	-10.5524
čný	-10.5524
▁unterstütze	-10.553
▁innebär	-10.5536
▁Fraktion	-10.5546
möte	-10.5546
▁tutte	-10.5555
▁föredragande	-10.5555
▁wenig	-10.5559
▁monitor	-10.5559
▁след	-10.5559
▁nemlig	-10.5564
▁tweede	-10.5571
αγωγ	-10.5572
τέλ	-10.5577
▁critic	-10.5579
▁διαδικασία	-10.558
sättning	-10.5582
▁takke	-10.5583
▁εμπ	-10.5586
▁sotto	-10.5587
▁inoltre	-10.5587
cchi	-10.5588
▁gezegd	-10.5588
▁ми	-10.5589
Λ	-10.5594
▁tomto	-10.5597
▁председател	-10.5597
▁transparent	-10.5597
▁υπάρχει	-10.5613
▁Ukrain	-10.5613
▁cambio	-10.5619
▁savoir	-10.562
▁without	-10.5621
stäm	-10.5624
ując	-10.5625
▁j'	-10.5637
▁resultado	-10.5638
▁bland	-10.5638
▁budou	-10.564
είται	-10.5644
▁ασ	-10.5651
istic	-10.5652
▁virkelig	-10.5653
▁(P	-10.5654
▁institutioner	-10.5655
▁declara	-10.5663
▁landbouw	-10.5668
▁tikai	-10.5675
▁кон	-10.5677
▁När	-10.5678
▁όχι	-10.5686
schaffen	-10.5688
▁importance	-10.5691
▁klima	-10.5696
▁ignor	-10.5697
▁opinión	-10.5697
▁hoop	-10.5703
▁υπό	-10.5706
▁χώρα	-10.5708
▁1998	-10.5709
▁permanent	-10.5709
τρα	-10.5711
▁24	-10.5715
▁prevent	-10.5715
līg	-10.5716
ъл	-10.5717
▁Gospod	-10.5719
▁wissen	-10.5719
▁αυτήν	-10.572
▁много	-10.572
ţa	-10.5726
▁seguir	-10.5737
▁lång	-10.5739
▁procédure	-10.5744
▁Haushalts	-10.5754
▁machen	-10.5757
▁processus	-10.576
άσει	-10.5776
▁close	-10.5779
▁Amsterdam	-10.5786
▁šajā	-10.5794
▁nosotros	-10.5802
▁soprattutto	-10.5803
▁morgen	-10.5807
▁minut	-10.5815
▁80	-10.5822
▁ernst	-10.5833
▁s'agit	-10.5834
▁stratégie	-10.5835
▁landbrug	-10.5845
▁quadro	-10.5848
▁général	-10.5849
▁exige	-10.5851
▁however	-10.5864
▁budú	-10.5867
▁stanov	-10.587
▁toujours	-10.587
▁към	-10.587
▁podemos	-10.5873
▁increase	-10.5885
σωπ	-10.5886
▁status	-10.5886
▁még	-10.5887
▁οποίες	-10.5887
εθνικ	-10.5887
▁Situation	-10.5891
▁apoya	-10.5894
▁premier	-10.5894
produktion	-10.5894
koha	-10.5898
Ú	-10.5898
▁governo	-10.5899
▁proyecto	-10.59
▁rámci	-10.5906
▁production	-10.5907
▁polityk	-10.5907
▁Information	-10.5909
▁solche	-10.5937
driv	-10.5937
▁także	-10.5939
▁Προ	-10.5943
▁objective	-10.5946
▁vragen	-10.5954
istische	-10.5954
▁Russia	-10.5955
▁molti	-10.5957
▁valg	-10.5957
▁común	-10.5963
stellt	-10.5966
▁asunto	-10.5969
▁hjälp	-10.597
έμ	-10.5971
▁mondo	-10.5972
ϊ	-10.5974
periode	-10.5976
▁rural	-10.5984
▁gentlemen,	-10.5991
▁bijzonder	-10.5991
▁Ihre	-10.5991
▁devrait	-10.5996
▁podnik	-10.5998
▁internazionale	-10.6011
▁profession	-10.6021
▁demonstr	-10.6022
▁katastrof	-10.6027
▁blijven	-10.6032
▁follow	-10.6036
▁f.eks.	-10.604
ljiv	-10.6043
bilidad	-10.6052
▁(EL)	-10.6053
▁nauj	-10.6054
▁όσο	-10.6054
▁Namen	-10.6056
▁konsument	-10.6057
▁αντί	-10.6063
ează	-10.6071
μένων	-10.6079
▁crise	-10.6082
▁risoluzione	-10.6083
▁kasuta	-10.6087
▁difficile	-10.6089
▁brengen	-10.6092
γραμμ	-10.6094
skrift	-10.6099
▁Irak	-10.6103
▁jordbruk	-10.6103
▁comunitario	-10.6103
▁fortsat	-10.6105
▁agenda	-10.6107
▁trouve	-10.6108
▁užtikrin	-10.6112
▁beaucoup	-10.6116
▁mesure	-10.6116
▁stimul	-10.6119
▁talman,	-10.6126
▁større	-10.6129
▁privind	-10.6129
▁develop	-10.6131
▁περί	-10.6131
▁Madam	-10.6133
▁allow	-10.6138
▁Mevrouw	-10.6142
▁θέση	-10.6146
geführt	-10.6151
▁Commissaire	-10.6156
▁entreprises	-10.6161
ούνται	-10.6172
urile	-10.6172
▁druh	-10.6173
▁Därför	-10.6177
národn	-10.6177
▁voorstellen	-10.6178
▁podría	-10.618
Berichterstatter	-10.6181
▁Unternehmen	-10.6182
▁sarebbe	-10.6187
▁onorevole	-10.6191
▁impact	-10.6196
▁namelijk	-10.6201
пи	-10.6207
▁crucial	-10.6207
▁attiecībā	-10.6208
▁krijgen	-10.6209
▁notamment	-10.621
ì	-10.6211
▁parece	-10.6214
ført	-10.6216
gruppen	-10.6219
▁22	-10.6222
▁identifi	-10.6227
▁occasion	-10.6227
▁Belg	-10.623
▁dialogue	-10.623
timmung	-10.6234
▁Haus	-10.6234
▁información	-10.6234
▁cél	-10.6239
▁different	-10.624
effekt	-10.6241
▁össze	-10.6244
struktur	-10.625
▁solicit	-10.6251
▁mensenrechten	-10.6251
▁laquelle	-10.6254
▁particularly	-10.6261
▁може	-10.6262
▁begin	-10.6262
▁implica	-10.6265
▁cultural	-10.6271
▁politiche	-10.6276
À	-10.6276
tjeneste	-10.6279
▁alguna	-10.628
avimo	-10.6289
istisk	-10.629
▁tilbage	-10.632
▁között	-10.632
▁thing	-10.6321
▁τόσο	-10.6325
løb	-10.6326
▁diskusi	-10.633
▁opnå	-10.6332
▁udtryk	-10.6335
▁lutte	-10.6341
▁derecho	-10.6346
āciju	-10.6346
▁aumenta	-10.6346
▁Estado	-10.6348
▁volledig	-10.6349
stabil	-10.6354
▁normas	-10.6358
▁première	-10.6361
▁försök	-10.6363
▁prendre	-10.6364
vang	-10.6367
▁before	-10.6372
▁distribu	-10.6373
▁qu'un	-10.6377
προ	-10.638
▁terug	-10.6381
до	-10.6381
▁igual	-10.6383
▁resolución	-10.6386
А	-10.639
▁breve	-10.6393
▁middelen	-10.6393
▁necessary	-10.6395
▁relación	-10.6407
iškai	-10.6409
▁essentiel	-10.6412
▁ακόμη	-10.6413
▁collabor	-10.6414
▁Group	-10.6417
▁favour	-10.6417
▁economie	-10.6419
institution	-10.6422
▁health	-10.6425
júci	-10.6425
▁qu’	-10.6425
▁Ευρωπαϊκό	-10.6426
▁signal	-10.6428
▁espera	-10.6431
“	-10.6432
τροπ	-10.6445
▁wirklich	-10.645
▁regio	-10.6454
▁členské	-10.6456
▁Συμβουλίου	-10.6458
▁vairāk	-10.6458
▁L’	-10.6461
▁συσ	-10.6462
▁scop	-10.6465
▁angår	-10.6466
gesetz	-10.6466
Z	-10.647
▁τώρα	-10.6471
▁fortfarande	-10.6472
▁flere	-10.6473
truk	-10.6473
▁εξα	-10.648
▁flexibil	-10.648
▁izmanto	-10.6481
▁sostegno	-10.6482
▁gegeven	-10.6485
▁būs	-10.649
▁wetgeving	-10.6492
▁rôle	-10.6494
▁protokol	-10.6495
▁συνεργασία	-10.6497
▁foreslå	-10.6511
ши	-10.6513
▁verschillende	-10.6516
ggio	-10.6518
▁imidlertid	-10.6525
▁relevant	-10.6529
▁ligger	-10.6534
εδρ	-10.6536
▁aquí	-10.6541
τήρι	-10.6544
Δ	-10.6553
▁styrke	-10.6561
▁συμφωνία	-10.6564
▁Möglichkeit	-10.6574
▁Gobierno	-10.6582
▁wish	-10.6582
▁доклад	-10.6591
▁millones	-10.6593
▁PPE-DE	-10.6595
▁rzecz	-10.6595
▁bonne	-10.6602
χειρ	-10.6606
▁regime	-10.6607
ίσουμε	-10.6609
▁lucru	-10.6611
Χ	-10.6614
▁fonction	-10.6621
▁Efter	-10.6622
▁selbst	-10.6628
▁security	-10.6629
▁hoppas	-10.6633
▁dernière	-10.6635
▁blot	-10.6636
▁faveur	-10.6636
▁emendamenti	-10.6637
▁ktorá	-10.6641
▁regulation	-10.6643
▁üks	-10.6643
▁peaks	-10.6644
▁integration	-10.6644
bouw	-10.6647
alität	-10.6647
▁standpunt	-10.6652
setzung	-10.6653
▁tovább	-10.6654
▁intresse	-10.666
▁szám	-10.6662
sætning	-10.6672
▁όλα	-10.668
▁garantizar	-10.6681
▁soovi	-10.6693
▁establish	-10.67
▁Vorrei	-10.6701
▁munka	-10.6702
▁Presidencia	-10.6707
▁което	-10.6708
щ	-10.6711
▁También	-10.6712
▁między	-10.6712
▁government	-10.6725
▁Handel	-10.6731
▁glaube	-10.6747
▁enkele	-10.6748
▁crois	-10.6754
▁consiste	-10.6757
▁lleva	-10.6759
▁preocupa	-10.6771
▁въз	-10.6772
▁βασ	-10.6781
▁gracias	-10.6787
▁Verenigd	-10.6788
▁tilfælde	-10.6789
▁Vertrag	-10.679
▁virksomheder	-10.6791
▁1997	-10.6796
▁Abgeordnete	-10.6798
▁medlemmer	-10.6802
▁drept	-10.6807
▁criminal	-10.6808
ευρωπαϊ	-10.6815
Б	-10.6821
▁põhi	-10.6822
▁commissaire	-10.6829
ånd	-10.6831
ήσουν	-10.6837
▁Entscheidung	-10.6839
▁preced	-10.6839
▁stesso	-10.6843
▁bilateral	-10.6844
▁einmal	-10.6846
▁abbia	-10.6848
▁polic	-10.6852
▁számára	-10.686
łow	-10.686
▁soient	-10.6867
▁wirtschaftliche	-10.6868
fog	-10.687
Ž	-10.687
▁Entschließung	-10.6873
▁εμ	-10.6873
▁potrebbe	-10.6874
▁Komisji	-10.6881
▁studi	-10.6884
▁Treaty	-10.689
▁merito	-10.6891
▁santé	-10.6898
▁nazionali	-10.6904
▁πολιτικής	-10.691
tagelse	-10.6913
ê	-10.6915
▁bezpečnost	-10.6917
Institut	-10.6919
▁competencia	-10.6921
▁UN	-10.6926
▁vlád	-10.6931
▁Európa	-10.6937
▁further	-10.6938
▁afferma	-10.6949
яване	-10.6959
▁Interesse	-10.6961
▁Svet	-10.6965
likult	-10.698
▁skatte	-10.6983
▁ос	-10.6985
▁improve	-10.6988
▁2013	-10.6999
▁voorzitterschap	-10.7016
avlja	-10.7016
▁kungs,	-10.7018
▁dimostra	-10.702
▁Για	-10.702
▁graag	-10.7024
▁elnök	-10.7024
▁pouvons	-10.703
▁reikal	-10.7032
▁Präsidentin	-10.7045
▁zásad	-10.7049
▁ruolo	-10.7052
▁κάθε	-10.7059
▁dichiara	-10.7067
▁procedimiento	-10.707
▁femmes	-10.7073
▁οικονομική	-10.7074
importanza	-10.709
▁importancia	-10.7091
▁εισ	-10.7096
▁500	-10.7106
▁hoffe	-10.7106
▁εδώ	-10.7114
▁Natur	-10.7122
▁świ	-10.7141
▁Central	-10.7143
læg	-10.7143
▁responsable	-10.7144
ajiem	-10.7146
schließen	-10.7147
förfarande	-10.7153
βι	-10.7159
▁všech	-10.716
Е	-10.7164
▁felicit	-10.7166
popul	-10.7173
▁lucha	-10.7178
▁rör	-10.718
▁krok	-10.7183
лю	-10.7185
▁glede	-10.7187
▁heller	-10.7187
▁palju	-10.719
▁possibilità	-10.7192
▁obiettivi	-10.7197
▁ήδη	-10.7205
▁women	-10.7207
▁United	-10.7209
▁tagállamok	-10.7211
▁biztosít	-10.7212
▁natürlich	-10.7212
▁skutočn	-10.722
▁význam	-10.7228
▁håber	-10.723
▁again	-10.7232
clusi	-10.7234
▁predlog	-10.7237
▁empleo	-10.7242
▁legitim	-10.7246
θέτ	-10.7249
▁προστασία	-10.725
▁là	-10.7251
▁whether	-10.7259
▁būtu	-10.7262
tatás	-10.7276
▁evitar	-10.7282
Д	-10.7283
▁ЕС	-10.7285
▁cíl	-10.7291
▁този	-10.7295
▁account	-10.7296
udvalget	-10.7298
▁omfatte	-10.7301
▁havde	-10.7308
▁huidige	-10.731
ský	-10.7312
▁Señorías,	-10.7313
πορ	-10.7313
kapit	-10.7314
▁Mēs	-10.7315
▁Wort	-10.7315
▁achter	-10.7317
bygge	-10.7318
▁ladies	-10.732
ίσω	-10.7329
výš	-10.7329
▁religio	-10.7329
▁šiuo	-10.7342
▁gustaría	-10.7343
attività	-10.7344
myndighet	-10.7352
▁tuttavia	-10.7355
▁række	-10.7356
▁informatie	-10.7359
▁bardzo	-10.736
▁uitvoer	-10.7361
▁procede	-10.7369
īgā	-10.737
▁vrouwen	-10.7371
▁plantea	-10.7372
▁l'homme	-10.7376
ακολουθ	-10.7378
▁región	-10.7383
▁traktat	-10.7389
αιρ	-10.7391
▁possono	-10.7391
▁iniciativa	-10.7395
▁welcome	-10.7397
procedure	-10.7398
▁sottolinea	-10.7398
▁welche	-10.74
▁zasad	-10.7402
▁orgán	-10.7405
▁institucij	-10.7411
▁Με	-10.7414
▁valstī	-10.7428
▁necessità	-10.7431
kalb	-10.7434
▁possiamo	-10.7442
▁hurtig	-10.7446
▁aplicación	-10.7455
▁reikia	-10.7462
▁juridique	-10.7467
▁naturligvis	-10.7473
▁drei	-10.7474
▁ευρωπαϊκή	-10.7487
▁etwas	-10.7492
▁qu’il	-10.7498
▁συνεχ	-10.7505
ként	-10.7507
produkt	-10.7511
▁bestaan	-10.7514
θηκαν	-10.7515
▁snel	-10.7523
▁cuestiones	-10.7526
▁understrege	-10.7526
▁Europejski	-10.7528
▁εκεί	-10.753
▁konkurrens	-10.7533
▁pertanto	-10.7538
▁която	-10.7539
▁zapewni	-10.7547
▁behalf	-10.7552
▁Bedeutung	-10.7554
▁résultat	-10.7559
▁darüber	-10.756
folge	-10.7566
▁Г-	-10.757
▁puesto	-10.7577
▁προκειμένου	-10.758
▁който	-10.7581
▁κρατών	-10.7582
▁Rusland	-10.7585
▁communication	-10.7589
▁fejl	-10.7593
▁ενός	-10.7594
▁imprese	-10.7595
▁между	-10.7595
▁(HU)	-10.76
▁Balkan	-10.7604
▁Schutz	-10.7608
▁oplossing	-10.7613
αίρ	-10.7614
▁Questo	-10.7616
systeem	-10.7619
▁presupuesto	-10.7621
▁nationella	-10.7622
▁Georg	-10.7624
▁fundament	-10.7627
national	-10.7627
▁løsning	-10.7631
▁tanke	-10.7633
▁condiciones	-10.7639
▁asszony	-10.764
rozum	-10.7645
▁finansiering	-10.7647
ието	-10.765
▁επαν	-10.7655
▁περισσότερο	-10.7656
▁също	-10.7658
▁(SV)	-10.766
▁diplomat	-10.7662
▁approva	-10.7663
▁kræve	-10.7668
▁každ	-10.7671
▁zeker	-10.7676
▁directiva	-10.7676
▁keď	-10.7681
στοιχ	-10.7682
▁forsøg	-10.7686
▁Abstimmung	-10.7688
▁nouveau	-10.7689
▁recherche	-10.7692
▁arbeta	-10.7693
▁obecn	-10.7703
▁samfund	-10.7705
Α	-10.7707
▁επίπεδο	-10.7707
▁længe	-10.7716
▁serious	-10.7716
▁μέσω	-10.7718
liggende	-10.772
▁fractie	-10.772
bestemmelse	-10.7728
▁société	-10.7732
korzyst	-10.7736
▁κύριο	-10.7739
▁peuvent	-10.7749
▁Lösung	-10.7754
▁Hier	-10.7762
▁kvinnor	-10.7763
▁öffentlich	-10.7764
ability	-10.7768
▁δράσ	-10.7768
▁ricerca	-10.7773
▁decide	-10.7775
▁congratula	-10.7779
▁besteht	-10.778
▁práctica	-10.778
▁εφαρμογή	-10.7782
▁diskussion	-10.7787
▁next	-10.779
▁ασφάλεια	-10.7792
▁όταν	-10.7793
▁Debatte	-10.7806
jących	-10.7807
ował	-10.7813
▁consumatori	-10.7819
mluv	-10.7825
gezet	-10.7837
▁était	-10.7838
▁Creo	-10.7845
▁notwendig	-10.7846
▁show	-10.7846
išč	-10.7851
▁resurs	-10.7851
▁καταστ	-10.7854
▁elimina	-10.7861
▁betydning	-10.7862
▁hvordan	-10.7862
▁riigi	-10.7866
▁verzoek	-10.7867
▁διότι	-10.7876
▁drog	-10.7878
ceea	-10.7879
▁oportunidad	-10.7885
▁közös	-10.7889
▁campo	-10.7892
▁acepta	-10.7893
▁d'accord	-10.7899
liśmy	-10.79
▁rules	-10.7902
▁consommateur	-10.7902
▁grundläggande	-10.7909
ψει	-10.7913
▁Tuttavia	-10.7913
▁stanowi	-10.7914
gelegd	-10.7917
▁colega	-10.7919
hält	-10.792
▁permette	-10.7921
kennen	-10.7923
▁preoccupa	-10.7925
▁Volk	-10.7935
▁1996	-10.7937
fördraget	-10.7948
▁tijdens	-10.7966
▁nytt	-10.7967
▁pracovní	-10.7971
▁gennemføre	-10.7973
▁Zukunft	-10.7973
döm	-10.7974
▁tuleb	-10.7976
▁26	-10.7984
▁μην	-10.7985
▁jejich	-10.7989
▁zvezi	-10.799
▁účinn	-10.7996
▁quisiera	-10.8001
▁één	-10.8004
▁κύριε	-10.8004
▁ühe	-10.8009
▁namens	-10.8012
▁défini	-10.8013
responsabil	-10.8019
лага	-10.8026
ίζεται	-10.8036
▁chiede	-10.8036
▁valstybės	-10.8038
▁formandskab	-10.8039
▁ζήτημα	-10.8043
stilling	-10.8043
problem	-10.8047
▁express	-10.8056
▁obywatel	-10.8057
▁kvinder	-10.806
▁condizioni	-10.806
▁bättre	-10.8065
▁opmærksom	-10.8074
▁miljard	-10.8076
▁finanzia	-10.8077
▁handlar	-10.8078
▁člen	-10.8082
▁responsabilità	-10.8086
▁norėčiau	-10.8088
▁grundlæggende	-10.8091
▁verband	-10.8095
▁ευχαριστ	-10.81
▁europeisk	-10.8102
τυπ	-10.8103
▁dernier	-10.8104
▁positie	-10.8106
økonomi	-10.8115
pokoj	-10.8123
▁señal	-10.8127
▁така	-10.8132
▁económico	-10.8138
▁liberté	-10.8139
▁vedrørende	-10.8149
▁società	-10.8153
▁mujeres	-10.816
▁maxim	-10.8161
▁всички	-10.8162
▁Bank	-10.8168
▁rozpočt	-10.8169
▁možnost	-10.817
▁potřeb	-10.8176
▁Vážený	-10.8177
ntemente	-10.8178
θεση	-10.8181
▁συζητ	-10.8183
▁styr	-10.8187
▁Πρέπει	-10.819
▁responsabilité	-10.8194
économie	-10.8198
▁aandacht	-10.8198
▁Verbraucher	-10.8203
▁responsabilidad	-10.8206
▁arriv	-10.8207
▁parole	-10.8208
▁28	-10.8213
regul	-10.8214
▁libertà	-10.8224
τεχν	-10.8227
▁pêche	-10.8229
▁mantener	-10.8231
▁betreffende	-10.8238
▁stemming	-10.8238
▁liikmesriikide	-10.8245
▁gratul	-10.8255
▁Tanács	-10.8264
ход	-10.8264
▁sentido	-10.8271
runā	-10.8272
▁slov	-10.8276
▁εάν	-10.8276
▁przewodniczący	-10.8279
▁depuis	-10.8284
▁οδηγία	-10.8289
▁approach	-10.8291
▁meilleur	-10.8297
▁απαιτ	-10.8303
▁rezultat	-10.8304
▁Aussprache	-10.8314
▁balance	-10.8318
▁regolamento	-10.8324
▁façon	-10.8326
▁prodotti	-10.8326
▁Sąjungos	-10.8328
▁réforme	-10.8329
▁conflit	-10.8338
▁service	-10.8343
при	-10.8349
▁J'ai	-10.8356
▁relatore	-10.8359
▁afecta	-10.8364
lichkeit	-10.8365
▁framework	-10.8366
▁εργασίας	-10.8367
▁marknaden	-10.837
▁цел	-10.8379
▁zagotovi	-10.8384
▁legislation	-10.8392
▁næste	-10.84
▁skyld	-10.8406
▁natuurlijk	-10.8408
▁ännu	-10.8411
▁riikide	-10.8416
▁partecip	-10.8417
▁agricultura	-10.8423
ustatud	-10.8429
▁comunitaria	-10.8431
▁Gebiet	-10.8433
stipr	-10.8447
▁drøfte	-10.8447
М	-10.8449
▁efecto	-10.8456
▁présidence	-10.8456
▁zurück	-10.8462
▁alors	-10.8468
▁bijdrage	-10.8476
▁december	-10.8478
▁régime	-10.8479
▁skaidr	-10.8481
Θ	-10.8482
▁Wettbewerb	-10.8485
▁konkurrence	-10.8497
▁omfatta	-10.8501
▁consecuencia	-10.8508
όμαστε	-10.8508
▁μπορούμε	-10.8516
▁galimyb	-10.8516
βάν	-10.852
Q	-10.8521
▁financière	-10.8526
▁indføre	-10.8526
▁jomā	-10.8526
▁gedaan	-10.8531
▁associa	-10.8535
▁Ευρωπαϊκού	-10.8538
▁ιδιαίτερα	-10.8538
цен	-10.8539
fyl	-10.8545
ευθύν	-10.8546
▁subject	-10.8548
ίζουμε	-10.8551
▁propone	-10.8553
▁soltanto	-10.8558
▁προσπάθει	-10.8559
пъл	-10.8566
gebied	-10.8566
▁тази	-10.858
▁förbättra	-10.8586
▁ειδικ	-10.8586
▁uppnå	-10.8591
▁What	-10.8593
▁μπορούν	-10.8594
▁indsats	-10.8595
ιακή	-10.8595
værk	-10.8598
▁législation	-10.8601
▁szavaz	-10.8605
▁μελών	-10.8607
▁International	-10.8608
▁NATO	-10.8611
▁gemaakt	-10.8613
▁σημασία	-10.8615
▁esfuerzo	-10.8618
σκοπ	-10.8622
emendamento	-10.8624
▁ratifica	-10.8629
όμενο	-10.8629
▁άλλο	-10.863
▁respuesta	-10.8644
▁kommissionär	-10.8648
▁terület	-10.865
▁petit	-10.8652
▁trebui	-10.8663
▁System	-10.8665
▁contenu	-10.8666
▁pensa	-10.8667
▁тези	-10.8667
▁consumer	-10.8668
▁Ωστόσο	-10.867
▁teknisk	-10.8679
konvention	-10.8685
▁bijvoorbeeld	-10.8687
▁Presidenza	-10.8694
▁razvoj	-10.8694
▁especialmente	-10.8696
▁respond	-10.8704
▁jednak	-10.8704
▁noodzakelijk	-10.8705
Ø	-10.8706
▁2012	-10.8708
▁trabaja	-10.8719
▁gennemførelse	-10.8719
▁interpret	-10.8729
▁sprememb	-10.8729
▁Zusammenhang	-10.8731
▁continent	-10.8735
▁opfordre	-10.8737
▁använda	-10.8741
▁resolutie	-10.8747
▁pretože	-10.8747
▁νέα	-10.8768
▁történ	-10.8771
▁productos	-10.8773
▁miljoen	-10.8776
▁gesagt	-10.8781
▁Vorschläge	-10.8787
▁zusammen	-10.8788
▁Deshalb	-10.8795
î	-10.8799
▁mediante	-10.8813
▁possibilité	-10.8814
▁annat	-10.8815
▁främja	-10.8827
▁kapital	-10.8827
κρατ	-10.8827
▁hozzá	-10.8828
abezpeč	-10.8832
▁conserva	-10.8834
▁vanskelig	-10.8834
▁justice	-10.8835
▁uttryck	-10.8835
Π	-10.8836
▁exprim	-10.8841
Ό	-10.8846
information	-10.885
▁χωρίς	-10.8852
▁betyder	-10.8863
▁padar	-10.8868
▁evidente	-10.8872
▁täna	-10.8873
▁Ashton	-10.8877
▁Dobbiamo	-10.888
▁zowel	-10.8887
▁contrario	-10.8888
ppliqu	-10.889
▁μέτρα	-10.8891
▁större	-10.8892
▁konkrét	-10.8898
▁legislación	-10.891
▁Pakistan	-10.8911
▁Messieurs	-10.8925
evanje	-10.8926
satser	-10.893
▁Voor	-10.8932
nvironnement	-10.8932
▁diputados	-10.8934
▁relazioni	-10.8939
▁jät	-10.894
▁Ergebnis	-10.8943
▁prezident	-10.8948
▁относно	-10.8956
▁ledamöter	-10.8958
▁teljes	-10.8963
▁finanční	-10.8966
▁gemensam	-10.8967
φασ	-10.8967
▁collega's	-10.8968
▁Komisja	-10.897
izzare	-10.898
▁javaslat	-10.8981
▁familia	-10.8983
ша	-10.8985
▁ringrazia	-10.8985
▁valamint	-10.8985
▁както	-10.8989
▁uppgift	-10.8989
Änderungsanträge	-10.8991
▁règles	-10.8991
▁zodat	-10.8992
▁prochain	-10.9001
▁αποτελεσματικ	-10.9003
▁forward	-10.9006
▁bolj	-10.9006
▁nämlich	-10.9018
▁úrovni	-10.9024
▁Menschenrechte	-10.9038
▁По	-10.904
▁bekæmpe	-10.9041
tegevus	-10.9044
▁energía	-10.9044
▁compens	-10.9047
▁ettepaneku	-10.9051
▁betrokken	-10.9051
▁atención	-10.9051
▁susitar	-10.9061
▁lösning	-10.9067
▁reconoc	-10.9068
J	-10.9072
enblik	-10.9074
kommun	-10.9075
▁adapt	-10.9076
organisatie	-10.9077
▁turėtų	-10.9079
▁consumidor	-10.9087
ására	-10.9097
▁risorse	-10.9099
eerimis	-10.9104
▁medborgare	-10.9108
▁libertad	-10.9111
program	-10.9115
▁cualquier	-10.9116
▁pratique	-10.9117
▁sûr	-10.9118
▁forbruger	-10.9125
infl	-10.913
▁fatti	-10.9137
▁vonatkozó	-10.914
▁rád	-10.9144
▁Artikel	-10.915
▁helyzet	-10.9155
▁pieņem	-10.9159
▁encourage	-10.9167
τροφ	-10.9172
▁Ομάδα	-10.9175
Р	-10.918
▁diskutera	-10.9193
▁nõukogu	-10.9195
▁Mesdames	-10.9203
▁tohto	-10.9207
▁dibattito	-10.9216
▁názor	-10.9216
▁rekening	-10.9219
▁decisión	-10.9219
▁økonomisk	-10.9221
▁ambiente	-10.9228
▁opatření	-10.9231
▁publique	-10.9231
▁consolida	-10.9234
▁minimum	-10.9238
▁borgere	-10.9239
▁kundze	-10.9241
beginsel	-10.9242
▁χρησιμοποι	-10.9245
▁instellingen	-10.9246
▁viktig	-10.9247
ll’Unione	-10.9248
▁nouveaux	-10.9251
▁palabra	-10.9251
prāt	-10.9252
▁øge	-10.9262
▁Liberal	-10.9271
▁cuanto	-10.928
▁towards	-10.9283
particulièrement	-10.9286
▁funktion	-10.9291
▁deputati	-10.9291
▁vlastn	-10.9292
▁Κυρία	-10.9294
▁fiskeri	-10.9295
▁Ministro	-10.9298
▁evropské	-10.93
▁országok	-10.9302
gørelse	-10.9303
▁gazdasági	-10.9319
▁Europol	-10.9325
▁įgyvendin	-10.9328
▁protože	-10.9332
▁zemí	-10.9334
▁pēc	-10.9338
▁undersøge	-10.9346
gevoerd	-10.9349
-même	-10.9351
▁werkgelegenheid	-10.9352
Solidar	-10.9353
▁Съ	-10.9354
▁qualità	-10.9355
šķir	-10.9355
▁three	-10.9355
▁πράγμα	-10.9359
▁posibilidad	-10.937
ijoje	-10.9373
▁zdroj	-10.9374
▁réponse	-10.9375
▁forpligte	-10.9377
εμπορ	-10.9378
μένα	-10.9379
princip	-10.9387
τρέψ	-10.9391
rouw	-10.9401
▁comercial	-10.9401
▁Sozial	-10.9403
approche	-10.9407
▁organism	-10.9409
▁Todėl	-10.9409
▁σχέση	-10.9418
▁zadev	-10.9424
▁ζω	-10.9429
▁Beispiel	-10.9433
instrument	-10.9433
▁harmonise	-10.9433
▁utilizz	-10.9434
▁Ansicht	-10.9439
▁Gleich	-10.9442
▁tutela	-10.9444
▁Европа	-10.9444
▁πρόκειται	-10.9455
▁υπέρ	-10.946
odloč	-10.9461
ιστεί	-10.9462
▁votación	-10.9472
▁ικαν	-10.9476
▁Amerika	-10.9479
▁pubblica	-10.949
▁gegenüber	-10.9497
▁priekš	-10.9498
▁corso	-10.9501
▁Palestin	-10.9501
▁potrzeb	-10.9518
▁encontr	-10.9519
▁obstante	-10.9524
▁υπάρχουν	-10.9529
λόγ	-10.9532
▁sterk	-10.9537
▁szerint	-10.9537
▁appr	-10.9545
▁occupa	-10.9546
▁economía	-10.9552
▁sytuacj	-10.9552
▁Συν	-10.9554
▁πολίτες	-10.9555
▁something	-10.9561
▁onderwerp	-10.9562
▁otsus	-10.9568
▁nuværende	-10.9573
λλαγή	-10.9574
▁vigor	-10.9582
▁borgerne	-10.9584
▁milioni	-10.959
▁immigrati	-10.9591
▁anvende	-10.9595
▁semble	-10.9602
φέρει	-10.9604
fähig	-10.9617
▁négociations	-10.9621
▁1995	-10.9626
▁szóló	-10.9627
▁l'onorevole	-10.9631
▁Directiva	-10.9639
акт	-10.9648
▁davon	-10.9649
▁sociedad	-10.9656
ităţi	-10.9661
▁recursos	-10.9669
▁περίπτωση	-10.9669
▁ændring	-10.9669
▁negoci	-10.9673
▁érdekében	-10.9674
▁expert	-10.9675
▁ponieważ	-10.968
▁remain	-10.9691
▁szabály	-10.9693
▁stále	-10.9693
▁državljan	-10.9696
▁sufficient	-10.9706
biztonság	-10.9708
▁forbedre	-10.9709
▁antwoord	-10.9711
▁ühis	-10.9711
▁ALDE	-10.9716
▁guarantee	-10.9716
▁Strategie	-10.9716
▁l'imp	-10.9717
Á	-10.9726
▁най-	-10.973
▁κάτι	-10.9732
▁giorno	-10.9734
gazdaság	-10.9735
▁praegu	-10.9737
schutz	-10.9737
▁sundhed	-10.9739
ālā	-10.9741
▁become	-10.9745
▁contact	-10.9748
▁expresa	-10.9749
▁referendum	-10.9761
▁monopol	-10.9767
▁série	-10.9767
▁alvorlig	-10.9769
▁nástroj	-10.9772
▁répond	-10.9773
▁naturligtvis	-10.9774
▁celebra	-10.9777
onderhandelingen	-10.9779
▁recib	-10.9781
▁quest'	-10.9785
▁hervorming	-10.9786
▁ricorda	-10.9801
▁small	-10.9801
kræ	-10.9803
▁wanneer	-10.9813
▁discute	-10.9813
▁tekint	-10.9813
▁χρόνια	-10.9815
▁verantwoord	-10.9817
▁gospodarcz	-10.9827
▁ytterligare	-10.9833
▁Gesundheit	-10.9837
gún	-10.9838
▁betrifft	-10.9843
▁följa	-10.9845
▁hätte	-10.985
▁freedom	-10.9854
ομαι	-10.9859
К	-10.9862
▁utveckla	-10.9867
▁úloh	-10.9868
▁œuvre	-10.9869
▁ισχύ	-10.9873
▁deutlich	-10.9879
▁investigación	-10.988
▁tylko	-10.9885
▁resources	-10.9891
▁riguardo	-10.9895
▁δικαιωμάτων	-10.99
▁hlav	-10.99
▁без	-10.9901
▁correspond	-10.9901
▁laatste	-10.9912
granicz	-10.9918
handlung	-10.9918
▁hulp	-10.9918
▁nombreux	-10.9928
▁posición	-10.9936
▁begrüße	-10.9939
▁możliw	-10.9949
▁világ	-10.995
▁foarte	-10.9956
▁Това	-10.996
▁funciona	-10.996
▁īsteno	-10.9962
▁Produkt	-10.9968
▁artículo	-10.9969
▁snabb	-10.997
▁segundo	-10.9971
▁όπου	-10.9972
▁excellent	-10.9984
▁arbeids	-10.9987
▁moeilijk	-10.9988
▁richtig	-10.999
▁Mums	-10.999
▁guerra	-10.9991
▁groei	-10.9993
▁netop	-10.9999
▁utgör	-11.0004
▁siempre	-11.0013
▁exact	-11.0015
▁razón	-11.0021
sistenza	-11.0031
▁възможно	-11.0032
▁υπόψη	-11.0036
▁těch	-11.0042
mærke	-11.0047
▁conseguir	-11.0048
strādā	-11.0058
mettere	-11.006
▁νέο	-11.0061
μένες	-11.0063
▁desidero	-11.0063
niveau	-11.0065
▁miliard	-11.0069
▁opportunity	-11.0073
▁General	-11.0074
▁szabad	-11.0075
▁Udvalget	-11.0076
▁Unidos	-11.0077
▁regret	-11.0085
▁violence	-11.0086
иране	-11.0087
▁senaste	-11.0087
▁Evropa	-11.0096
▁Συνθήκη	-11.0104
▁verschiedene	-11.0108
Н	-11.0109
▁môže	-11.0111
▁definitiv	-11.0113
▁poolt	-11.0114
setzt	-11.0116
▁zaradi	-11.012
▁concurrentie	-11.0127
▁finansielle	-11.0143
▁във	-11.0144
Φ	-11.0146
▁κρίση	-11.0148
▁uppmana	-11.0148
▁Partner	-11.015
▁Wahl	-11.0158
ект	-11.0161
▁portug	-11.0174
▁perspective	-11.0177
▁υπερ	-11.0179
▁third	-11.0182
▁Kontroll	-11.0184
▁narių	-11.0186
▁nécessité	-11.0187
▁ποσ	-11.0193
▁Presidency	-11.0199
▁addition	-11.0205
▁German	-11.0209
▁kateri	-11.0213
▁jäm	-11.0216
▁pública	-11.0227
▁beskæftigelse	-11.0241
▁europee	-11.0241
▁tidigare	-11.0243
▁Gesetz	-11.0243
▁poiché	-11.0244
roepen	-11.0246
▁käsitle	-11.0249
nsichtlich	-11.0255
færd	-11.0259
producent	-11.026
▁saavuta	-11.0265
▁estrategia	-11.0266
▁hoofd	-11.0267
bestämmelser	-11.0268
▁committee	-11.0272
▁authorities	-11.0274
▁emellertid	-11.0277
▁research	-11.0284
▁gezondheid	-11.0285
▁público	-11.0287
▁valstybių	-11.0293
▁aunque	-11.0293
▁policies	-11.0294
▁бъдат	-11.0294
▁säker	-11.0298
▁shall	-11.03
hilfe	-11.0301
▁Gruppe	-11.0303
▁Padome	-11.0303
·	-11.031
▁anvendelse	-11.031
▁tiesību	-11.0316
▁δικαιώματα	-11.0318
▁invece	-11.0321
economia	-11.0322
amendement	-11.0326
μορφ	-11.033
▁Ebene	-11.0331
▁intézkedés	-11.0332
▁afgørende	-11.0336
▁podporo	-11.0344
▁félicite	-11.0346
▁(SK)	-11.0349
▁poročilo	-11.0351
▁halv	-11.0353
▁progetto	-11.0357
tätig	-11.0359
ίζουν	-11.0368
▁αυτών	-11.0376
▁polgár	-11.038
▁negociaciones	-11.0385
▁essential	-11.0386
▁internal	-11.0386
▁fourni	-11.039
▁tidligere	-11.0405
▁juhataja,	-11.0406
▁ανάγκη	-11.0409
fråga	-11.041
▁οργαν	-11.0411
region	-11.0412
▁hodnot	-11.0417
▁erforderlich	-11.0418
▁asyl	-11.0421
▁nagyon	-11.0423
▁analiz	-11.0426
νόμ	-11.0431
▁członkowskich	-11.0438
▁žiad	-11.0442
▁strong	-11.0444
▁nodrošināt	-11.0451
▁risposta	-11.0454
▁démocratique	-11.0455
▁chaque	-11.0459
▁mechanism	-11.0463
▁azonban	-11.0469
▁ktorí	-11.0471
▁familie	-11.048
▁together	-11.0481
▁maintenant	-11.0482
▁Italia	-11.0489
▁Assemblée	-11.049
▁vertegenwoordig	-11.0495
▁während	-11.05
▁accetta	-11.0506
chádza	-11.0515
▁dynami	-11.0519
▁αυτο	-11.0522
▁Verfahren	-11.0522
▁oltre	-11.0523
▁един	-11.0523
▁európske	-11.053
▁svobod	-11.0533
▁acquis	-11.0535
▁Parlamendi	-11.0536
▁necesaria	-11.0543
▁Tačiau	-11.0543
▁ρόλο	-11.0543
▁terror	-11.0544
iscono	-11.0545
rādī	-11.0546
▁σοβαρ	-11.0549
▁(CS)	-11.0551
greifen	-11.0553
▁intérieur	-11.0556
▁nächste	-11.0559
▁multilateral	-11.0564
▁affinché	-11.0565
▁plusieurs	-11.0568
vaardig	-11.057
▁ændre	-11.0576
▁bisogno	-11.0581
▁démocratie	-11.0581
Κ	-11.0589
▁menciona	-11.0589
▁cilj	-11.0602
▁intérêt	-11.0603
▁PPE	-11.0604
▁Bruxelles	-11.0607
▁industry	-11.0608
regler	-11.0613
▁võimalik	-11.0627
▁został	-11.0627
beheer	-11.0631
▁Trattato	-11.0633
▁voldoen	-11.0642
▁fortsätta	-11.0645
▁πρόβλημα	-11.065
▁riusci	-11.0651
▁propio	-11.0655
▁fremskridt	-11.0664
▁válasz	-11.0668
▁sociāl	-11.0669
▁negotiations	-11.0674
▁infrastruktur	-11.0676
▁Änderungsantrag	-11.0683
▁Derecho	-11.0686
▁член	-11.0687
▁určit	-11.069
sproces	-11.0692
▁Fortschritt	-11.0693
▁Beschäftigung	-11.0696
▁Agenda	-11.0699
israel	-11.0711
▁ενέργεια	-11.0712
▁svilupp	-11.0716
▁glad	-11.0718
▁kollega	-11.0723
▁Kinder	-11.073
▁business	-11.0742
▁valeur	-11.0753
waardig	-11.0754
▁medlemsstat	-11.0756
▁responsibility	-11.0761
▁écrit	-11.0761
▁strategy	-11.0761
▁itself	-11.0766
▁verplicht	-11.0771
▁lägga	-11.0772
▁comporta	-11.078
▁llama	-11.078
▁strijd	-11.0781
▁expect	-11.0783
▁evropski	-11.0785
▁parlementaire	-11.0786
▁mērķi	-11.0801
▁another	-11.0805
▁społeczn	-11.0811
▁Reglamento	-11.0813
▁aspetti	-11.0814
▁después	-11.0819
▁gestemd	-11.0821
▁riesgo	-11.0823
▁megállapodás	-11.0833
▁Verordnung	-11.0845
▁autorités	-11.0845
▁noteikt	-11.0853
▁assicura	-11.0858
▁Bezug	-11.0862
▁elfogad	-11.0871
▁Initiative	-11.0874
▁soluzione	-11.0874
▁États-Unis	-11.0881
applicazione	-11.0882
▁sporazum	-11.089
▁dalībvalstī	-11.0893
▁waarmee	-11.0895
▁obnov	-11.0898
▁võimalus	-11.0901
▁ragione	-11.0904
▁funziona	-11.0913
ordförandeskapet	-11.0919
▁dolgo	-11.0929
▁anledning	-11.0933
▁drejer	-11.0933
▁ypač	-11.0936
▁navnlig	-11.0937
▁Durch	-11.0949
▁afstemning	-11.095
▁εργασ	-11.0958
▁einfach	-11.0961
▁ønske	-11.0965
▁equal	-11.0966
▁uitbreiding	-11.0967
▁отношение	-11.0967
▁geloof	-11.0967
▁Umsetzung	-11.0975
▁bestimmte	-11.0977
▁Angelegenheit	-11.0978
κοινοτικ	-11.0981
▁μέλλον	-11.0982
▁Instrument	-11.0985
▁crescita	-11.099
ugoslav	-11.0998
▁autoridades	-11.0998
▁Hilfe	-11.1007
▁conséquence	-11.1009
▁λειτουργ	-11.1009
▁safety	-11.1009
▁daugiau	-11.1011
disciplin	-11.1012
▁sowohl	-11.1016
οθετ	-11.102
▁surtout	-11.102
projekt	-11.1021
▁représente	-11.1021
frågor	-11.1027
America	-11.1028
▁Änderung	-11.1034
▁může	-11.1038
▁coût	-11.1045
▁změn	-11.1052
▁pokud	-11.1057
▁Abbiamo	-11.1081
▁korrekt	-11.1084
ίζονται	-11.1084
▁trabajadores	-11.1091
▁Kyoto	-11.1092
▁innehåll	-11.1099
▁Aufgabe	-11.1102
▁Acest	-11.1103
▁juridisk	-11.1113
È	-11.1116
▁democracia	-11.1117
▁suteik	-11.1121
ότητες	-11.1126
▁bevoegd	-11.1131
▁dringend	-11.1134
▁déclaration	-11.1135
kriterier	-11.1143
▁Cámara	-11.1145
▁Kolleginnen	-11.1152
▁medborgarna	-11.1152
▁Democra	-11.1155
▁belasting	-11.116
▁Forschung	-11.1161
▁bloc	-11.1166
▁valstyb	-11.1172
▁votato	-11.1172
sioon	-11.1174
▁ressources	-11.1178
▁όλες	-11.119
▁democrazia	-11.1196
▁szerep	-11.12
appropri	-11.1202
▁bedanken	-11.1203
▁ståndpunkt	-11.1204
▁udvikle	-11.1208
▁sotsiaal	-11.1218
▁tačiau	-11.1221
▁ίδιο	-11.1222
κληρ	-11.1223
▁brauchen	-11.1224
▁behandle	-11.1227
▁besonders	-11.1228
▁yderligere	-11.1242
▁miljoner	-11.1246
předsed	-11.1248
▁though	-11.1254
▁gondol	-11.1257
▁partenariat	-11.1258
▁παράδειγμα	-11.1262
▁izvaja	-11.127
villkor	-11.1279
▁restrict	-11.128
ρυθμ	-11.1295
▁στιγμή	-11.13
▁jautājumu	-11.1304
▁betekent	-11.1312
▁bevolking	-11.1324
▁narės	-11.1324
▁technische	-11.1328
▁januar	-11.133
▁træffe	-11.1335
▁prioridad	-11.1341
▁financiar	-11.1343
▁budgétaire	-11.1345
financ	-11.1361
▁vorgeschlagen	-11.1362
▁dialoog	-11.1362
▁vendar	-11.1362
▁desarrolla	-11.1363
▁benefit	-11.1366
▁l'environnement	-11.1368
▁estructura	-11.1375
▁occorre	-11.1375
språk	-11.1378
grenzen	-11.138
göra	-11.1387
▁ritengo	-11.1389
▁г-н	-11.1392
▁fattigdom	-11.1393
▁μέσα	-11.1396
▁kontakt	-11.1398
▁sysselsättning	-11.1399
▁správn	-11.1399
▁За	-11.1403
verfahren	-11.1404
▁afgevaardigde	-11.1406
▁navrh	-11.1406
▁Folge	-11.1408
▁faptul	-11.1411
▁(LT)	-11.1416
▁kapcsolatos	-11.1418
▁gemenskapen	-11.142
▁emerge	-11.142
▁omröstning	-11.1424
▁always	-11.1424
▁stærk	-11.1427
▁source	-11.1433
kontroll	-11.1435
▁conséquent	-11.1437
▁beginnen	-11.1443
gesloten	-11.1445
▁italien	-11.1448
▁provoca	-11.1448
▁podstaw	-11.1458
▁политика	-11.146
▁asemenea,	-11.1464
▁votado	-11.1465
▁struttura	-11.1465
▁πιστεύω	-11.1468
▁democracy	-11.1475
▁predsedajúci,	-11.1478
▁На	-11.148
▁βάση	-11.1484
fhængig	-11.1488
träffa	-11.149
znám	-11.1491
▁koncentr	-11.1493
▁Grundlage	-11.1494
▁society	-11.1505
▁föreslå	-11.1505
▁todavía	-11.151
▁varētu	-11.152
▁falta	-11.1522
▁tillämpa	-11.1528
▁myndigheder	-11.1531
▁identit	-11.1533
▁utbildning	-11.1537
▁suficiente	-11.1538
▁resolve	-11.1545
▁wesentlich	-11.1545
▁risultati	-11.1552
▁commitment	-11.1558
▁która	-11.1558
▁cultura	-11.156
▁framsteg	-11.156
ložil	-11.157
▁function	-11.1571
▁voulons	-11.1582
▁cómo	-11.1586
▁vērā	-11.1594
▁schriftelijk.	-11.1596
equilibrio	-11.16
▁automobil	-11.16
σταση	-11.1606
▁tendrá	-11.1619
▁gestión	-11.162
▁elkaar	-11.1623
▁mundial	-11.1626
▁concurrence	-11.1632
▁soddisfa	-11.1649
▁ψηφίσ	-11.1651
▁herrar!	-11.1667
▁dergelijke	-11.1679
▁egész	-11.1685
▁élément	-11.1685
▁nævnt	-11.1687
▁θεσμ	-11.169
▁mechanizm	-11.1691
▁croissance	-11.1694
▁gjorde	-11.1696
▁collect	-11.1696
▁dürfen	-11.1699
▁Verantwortung	-11.17
▁οδηγ	-11.17
▁επειδή	-11.1701
▁aldrig	-11.1707
▁πριν	-11.1712
inblick	-11.1712
bereich	-11.1714
▁gesamte	-11.1731
▁należy	-11.1735
observ	-11.1736
virkning	-11.1737
▁acceso	-11.1737
▁megfelelő	-11.1738
▁άποψη	-11.1741
▁toepassing	-11.1742
itāte	-11.1743
▁Millionen	-11.1751
▁travailleurs	-11.1754
▁súvislosti	-11.1757
▁služb	-11.1763
▁militaire	-11.1766
креп	-11.1766
▁γίνει	-11.1767
▁mõju	-11.1769
zeichnet	-11.1772
▁vārd	-11.1772
▁kokku	-11.1772
▁współprac	-11.1773
▁njihov	-11.1775
adhésion	-11.1776
▁geweest	-11.1776
▁zahtev	-11.1784
▁Tribunal	-11.1785
▁assume	-11.1788
▁hänsyn	-11.1791
▁État	-11.1795
▁μεγάλη	-11.1795
▁našich	-11.18
▁необходим	-11.1801
▁Global	-11.1804
▁Verts/ALE	-11.1807
ināšana	-11.1808
▁Výbor	-11.1811
▁προβλήματα	-11.1817
▁kompetenc	-11.1819
▁verordening	-11.1836
avtalet	-11.1837
▁pénzügyi	-11.1839
▁különösen	-11.1848
▁lehetőség	-11.1853
▁ďalš	-11.1859
▁konstruktiv	-11.1872
▁ακόμα	-11.1876
▁soutenir	-11.1876
▁economy	-11.1879
mekanism	-11.1881
▁Comisiei	-11.1903
▁време	-11.1903
integr	-11.1907
▁nazionale	-11.1908
▁Vendar	-11.1909
▁sposób	-11.1915
▁symbol	-11.1915
▁asocia	-11.1924
βιομηχαν	-11.1924
▁stimme	-11.1935
▁humain	-11.1936
crédit	-11.1937
Ο	-11.1939
schluss	-11.1943
▁vergadering	-11.1951
▁protocol	-11.1952
utilisation	-11.1955
▁véritable	-11.1958
▁νομοθεσία	-11.1958
▁biztos	-11.1965
▁Budget	-11.1973
▁égard	-11.1973
▁établi	-11.1983
Zoals	-11.1986
▁στρατηγική	-11.1997
▁difícil	-11.1997
▁Fischerei	-11.2015
▁wszystkich	-11.202
▁Además	-11.2023
▁solución	-11.2026
▁comercio	-11.2026
▁vækst	-11.2029
▁κόσμο	-11.2032
▁týchto	-11.2033
▁kandidat	-11.2038
▁Maastricht	-11.2039
▁Musíme	-11.2039
▁riforma	-11.204
▁gadījum	-11.2041
▁kammare	-11.2041
▁nødt	-11.2041
▁Antwort	-11.2054
▁votazione	-11.2058
groep	-11.2059
▁беше	-11.2065
teknologi	-11.207
▁ψηφοφορία	-11.2074
▁deshalb	-11.2077
▁menneske	-11.208
▁nämligen	-11.2082
▁uddannelse	-11.2089
▁consumenten	-11.2095
▁rozwiąz	-11.2098
ţional	-11.2099
▁koostöö	-11.21
mmissionsledamot	-11.2101
▁número	-11.2101
▁Projekt	-11.2101
▁Inoltre	-11.2106
▁además	-11.2107
▁temelj	-11.2111
ични	-11.2116
▁ocupa	-11.2116
▁période	-11.2121
pełni	-11.2121
▁ονόματος	-11.2129
▁concilia	-11.2131
▁innerhalb	-11.2133
▁weiterhin	-11.2142
▁Comisia	-11.2144
▁short	-11.2145
▁Asuntos	-11.2153
▁pagrindin	-11.2164
▁Tatsache	-11.2167
▁zakresie	-11.2168
ocrati	-11.2175
▁kryzys	-11.2176
▁képviselő	-11.2176
▁Erklärung	-11.2179
▁huvud	-11.2179
▁Steuer	-11.2182
–	-11.2184
▁eesmärk	-11.2187
▁finanšu	-11.2197
finanz	-11.2198
▁d'abord	-11.2201
direktiv	-11.221
▁samhälle	-11.2219
▁alkalmaz	-11.2219
▁address	-11.222
▁esencial	-11.2223
▁Text	-11.2232
▁πρωτ	-11.224
▁væsentlig	-11.2246
▁rendelkez	-11.2249
▁miembro	-11.2255
▁σημαντική	-11.2268
▁όλους	-11.2279
▁χρόνο	-11.229
▁udvidelse	-11.2291
▁πολιτών	-11.2293
▁GUE/NGL	-11.2299
▁traffic	-11.23
transport	-11.23
▁učinkovit	-11.232
▁livsmedel	-11.2333
▁kteří	-11.2333
▁propag	-11.2335
▁sanitari	-11.2336
▁refiere	-11.2346
▁(FI)	-11.2347
▁przedstawi	-11.2352
▁låt	-11.2354
▁gestimmt	-11.2369
▁påpeka	-11.2374
▁vahend	-11.2377
▁suggest	-11.2381
▁tillräcklig	-11.2383
Г	-11.239
▁erreichen	-11.239
Y	-11.24
▁pomembno	-11.2401
▁strengthen	-11.2401
▁seguito	-11.2406
ψήφι	-11.2408
▁βοήθεια	-11.2408
▁procedūr	-11.2409
▁verwacht	-11.2411
▁säger	-11.2412
▁najmä	-11.2416
▁nėra	-11.2417
▁pomoč	-11.2422
▁progrès	-11.2425
▁ziņojumu	-11.2425
▁getroffen	-11.2428
▁důležité	-11.2433
▁väčš	-11.2433
mäßig	-11.2433
▁colleague	-11.2434
sätzlich	-11.2436
▁Επίτροπε	-11.2439
▁Government	-11.2445
▁while	-11.2446
▁κοινωνική	-11.2446
▁Verhandlungen	-11.245
ϋ	-11.2452
▁geachte	-11.2454
niecība	-11.2464
▁digital	-11.2478
▁cât	-11.2479
▁είμαστε	-11.2481
▁Låt	-11.2482
▁Italien	-11.2485
▁abychom	-11.2488
стъп	-11.249
▁σύστημα	-11.2494
stituir	-11.2499
▁risinā	-11.25
▁afgelopen	-11.25
▁tillsammans	-11.25
▁membro	-11.2504
▁κυβέρνηση	-11.2513
▁válság	-11.2518
▁Gemeenschap	-11.2522
▁skridt	-11.2524
▁klausimu	-11.2529
▁practice	-11.2536
▁werknemers	-11.2537
▁beskytte	-11.2543
▁längre	-11.2545
▁concorrenza	-11.2546
▁túto	-11.2548
▁pueblo	-11.2559
▁števil	-11.2562
▁ultimi	-11.2567
▁rispetta	-11.2573
▁población	-11.2575
▁children	-11.2599
▁χωρών	-11.2602
▁nuvarande	-11.2603
q	-11.261
▁evropske	-11.2615
▁lycka	-11.2621
▁zejména	-11.2623
▁siekiant	-11.2627
▁európsky	-11.2632
▁Diskussion	-11.2635
▁había	-11.2636
▁práce	-11.2643
▁απασχόληση	-11.2656
▁komisař	-11.2663
▁πλέον	-11.2666
▁πληροφορ	-11.2667
komunik	-11.2671
▁Schulz	-11.2674
▁närvarande	-11.2692
▁rakenda	-11.2692
▁overveje	-11.2696
▁Strasbourg	-11.2698
▁jelenleg	-11.2708
▁област	-11.2708
▁spécifique	-11.2711
▁avsluta	-11.2711
▁egentlig	-11.2722
vizsgál	-11.2724
▁vengono	-11.2724
▁arutelu	-11.2729
▁gemacht	-11.2749
▁crecimiento	-11.2754
verantwoordelijk	-11.2755
форм	-11.2761
▁Affairs	-11.2761
▁προτάσεις	-11.2763
κεντρ	-11.2766
ю	-11.277
▁ανησυχ	-11.2771
▁пазар	-11.2772
▁okvir	-11.2776
▁przyszł	-11.2777
▁milliard	-11.278
▁Amendment	-11.2782
▁reglamento	-11.2784
ONU	-11.2784
▁november	-11.2793
▁tydelig	-11.2797
▁činnost	-11.2799
▁Verbesserung	-11.28
▁toutefois	-11.2803
▁growth	-11.2813
▁Belarus	-11.2816
▁Iraq	-11.2823
▁είχε	-11.2828
▁ACP	-11.2829
▁απόφαση	-11.2831
▁terwijl	-11.2831
▁todėl	-11.2832
▁vállal	-11.2842
▁asupra	-11.2843
▁syfte	-11.2843
όμενη	-11.2843
▁Constitution	-11.2846
▁renforcer	-11.2846
▁Struktur	-11.2857
▁kormány	-11.2857
▁message	-11.2859
▁peligro	-11.2865
▁koniec	-11.2871
▁έτσι	-11.2878
▁będą	-11.2883
▁Erweiterung	-11.2888
▁attraverso	-11.2888
▁eelarve	-11.2891
asutus	-11.2891
▁Dialog	-11.2891
▁insieme	-11.29
▁skäl	-11.29
▁följd	-11.2903
▁obszar	-11.2904
▁държави	-11.2906
▁odpowiedzi	-11.291
▁Rück	-11.2913
▁ningún	-11.2916
▁parliament	-11.2919
▁χρήση	-11.2931
▁evropský	-11.2936
▁unterstützt	-11.2941
▁ίδια	-11.2941
▁więc	-11.2946
ица	-11.295
▁förhandlingar	-11.2959
▁produzione	-11.2959
▁akkoord	-11.2967
▁Не	-11.2971
▁oluline	-11.2974
▁conjunto	-11.2982
▁oplysninger	-11.2985
▁sprake	-11.2988
▁έργο	-11.2989
▁Binnenmarkt	-11.2994
▁področju	-11.3
▁vogliamo	-11.3
▁záležitost	-11.3017
▁komisár	-11.302
▁diálogo	-11.3032
tænke	-11.3033
▁περιβάλλον	-11.3035
▁único	-11.3036
▁potential	-11.3042
betaling	-11.3049
▁bereiken	-11.3049
όδου	-11.3049
▁Organisation	-11.3054
▁challenge	-11.3054
▁geworden	-11.3054
▁enfants	-11.3055
▁susijusi	-11.3057
▁peuple	-11.3064
▁Taryba	-11.3067
▁парламент	-11.3072
▁saistībā	-11.3075
▁semplice	-11.3077
▁särskild	-11.308
▁education	-11.3094
▁άλλη	-11.31
▁opmerking	-11.3101
▁Vereinigte	-11.3109
▁kõige	-11.311
▁tvivl	-11.3111
▁tillfälle	-11.3115
▁anterior	-11.3126
▁Kultur	-11.3127
▁Toutefois	-11.3136
▁πρόγραμμα	-11.3137
▁Bevölkerung	-11.3144
▁aplink	-11.3144
ώντας	-11.3147
▁tidspunkt	-11.3147
▁tilstrækkelig	-11.3149
▁dossier	-11.3154
▁tillväxt	-11.3156
▁utnyttja	-11.3159
▁sostenere	-11.3159
▁strict	-11.316
û	-11.3178
▁parlamendi	-11.3179
▁miejsc	-11.3188
▁европейски	-11.3193
▁voorbeeld	-11.3196
▁uniós	-11.3197
▁dámy	-11.3198
▁Auswirkungen	-11.32
▁Beitritt	-11.3201
▁behandla	-11.3202
▁członkowskie	-11.3203
▁lämplig	-11.3204
▁supuesto	-11.3206
▁d'être	-11.321
▁προτείν	-11.3212
▁genoeg	-11.3213
▁mañana	-11.3213
▁jövő	-11.3215
▁Frontex	-11.322
▁Anwendung	-11.322
▁opfattelse	-11.3223
▁fungera	-11.3228
▁δυνατότητα	-11.3235
▁ievēro	-11.3237
▁άλλα	-11.3239
▁l'emploi	-11.324
▁credibil	-11.3248
▁1990	-11.3257
▁Frieden	-11.3259
▁подкрепа	-11.3263
▁consensus	-11.3269
▁begynde	-11.327
▁uzskatu	-11.3271
▁receive	-11.3272
▁normativa	-11.3273
ложен	-11.3278
▁foglalkoz	-11.3278
▁otázka	-11.328
▁increasing	-11.3281
▁appropriate	-11.3283
▁problēma	-11.3286
▁Sąjunga	-11.329
▁peut-être	-11.3292
▁Standpunkt	-11.3293
▁vooruitgang	-11.33
▁éxito	-11.331
▁πολλές	-11.3317
▁γνώμη	-11.3319
▁Tyrkiet	-11.3322
▁permettre	-11.3331
▁eredmény	-11.3331
▁σημείο	-11.3336
▁põhjus	-11.3338
▁Comisaria	-11.3339
▁bereikt	-11.3341
▁september	-11.3345
▁samband	-11.3345
▁Uniunea	-11.3346
▁opnieuw	-11.3367
▁otázky	-11.3367
οτήτων	-11.3371
▁posledn	-11.3372
ll'Europa	-11.3372
▁Σώμα	-11.3374
▁într-	-11.3377
▁urmare	-11.3378
▁τροπολογία	-11.3379
▁1994	-11.3381
▁διαφορετικ	-11.3381
▁Tāpēc	-11.3396
▁próximo	-11.3408
▁Πιστεύω	-11.3412
▁Turkije	-11.3415
▁jusqu'	-11.3417
informazione	-11.3418
kapcsol	-11.342
▁uzņēmum	-11.3424
▁všetkých	-11.3424
▁Organiz	-11.343
▁sensibil	-11.3437
държавите-членки	-11.3443
trafik	-11.3449
wierdz	-11.3457
▁μεγάλο	-11.3464
▁financiación	-11.3467
δήποτε	-11.3469
▁πολλά	-11.349
▁финансов	-11.3492
▁μέχρι	-11.3495
▁względ	-11.3518
▁militär	-11.3518
▁Europejska	-11.3518
▁kirjalikult.	-11.3534
▁μεγαλύτερη	-11.3541
▁Spanien	-11.3542
▁Προεδρία	-11.3544
▁евро	-11.3546
Európá	-11.3549
▁devraient	-11.3551
▁schnell	-11.3567
▁ejercicio	-11.3576
▁ενίσχυση	-11.3576
▁volinik	-11.3578
▁dôvod	-11.3591
▁atbalstu	-11.3595
▁biudžet	-11.3595
▁τροπολογίες	-11.3602
▁Lisboa	-11.3609
▁Article	-11.3611
▁ebenfalls	-11.3618
▁mellett	-11.362
▁szeretném	-11.3623
▁проблем	-11.3627
▁όλοι	-11.363
▁giustizia	-11.3639
stytucj	-11.3643
▁хора	-11.365
▁krävs	-11.3655
βολή	-11.3657
▁αύξηση	-11.3659
▁behoefte	-11.3659
▁Uniunii	-11.3662
▁udgør	-11.3662
▁Turkey	-11.3662
▁kapcsolatban	-11.3669
▁sprawozdania	-11.3671
▁κυρίως	-11.3698
ități	-11.3701
▁παγκόσμι	-11.3707
schuldig	-11.371
▁dell'onorevole	-11.3748
▁τομείς	-11.3748
▁Verpflichtung	-11.3751
▁ütle	-11.3755
▁technique	-11.376
▁μπορέσ	-11.376
▁kräver	-11.376
▁εισηγητή	-11.3765
▁utarbeta	-11.3767
▁åsikt	-11.3767
▁juhataja!	-11.3771
▁governi	-11.3771
▁exterior	-11.3773
▁tagállam	-11.3776
▁initiatief	-11.3782
▁reducir	-11.3785
▁beispielsweise	-11.3791
▁šalių	-11.3805
▁cadrul	-11.3813
bestrijding	-11.3823
▁substance	-11.3828
▁включ	-11.3837
▁afslutte	-11.3837
▁atsižvelg	-11.3837
▁popolazione	-11.3841
▁Förderung	-11.3841
▁πρώτη	-11.3843
ότερη	-11.3847
▁finanzielle	-11.3861
▁Ratspräsident	-11.3866
▁folyamat	-11.3866
▁Arbeitnehmer	-11.3868
▁største	-11.3872
▁αποτέλεσμα	-11.3886
▁ορισμένες	-11.389
▁compétence	-11.3893
▁srityje	-11.3893
▁smernic	-11.3905
▁bénéfici	-11.3932
▁inspanningen	-11.3932
overensstemmelse	-11.3935
▁Turquía	-11.3935
▁Samtidig	-11.3937
▁jednotliv	-11.3937
▁anerkende	-11.3937
▁legislazione	-11.3939
▁liikmesriigi	-11.3941
телни	-11.3943
▁Zimbabwe	-11.3952
▁qualche	-11.3955
▁bedeutet	-11.3961
▁comunicación	-11.3964
▁bæredygtig	-11.3983
▁άλλες	-11.3983
omstandigheden	-11.3985
▁Dlatego	-11.3986
▁opatrenia	-11.3986
▁Επίτροπο	-11.3986
▁algemeen	-11.3994
▁främst	-11.3997
▁gemenskaps	-11.4001
▁Türkei	-11.4003
▁Gesellschaft	-11.4005
▁balsoju	-11.4014
▁tulemus	-11.4018
▁proračun	-11.4027
▁ευκαιρία	-11.4027
▁opfylde	-11.4027
▁együttműködés	-11.4032
▁scientific	-11.4041
▁συμπερι	-11.4043
pflicht	-11.4045
▁Behörden	-11.4047
▁schwierig	-11.4053
▁Αυτή	-11.4056
▁enlargement	-11.406
stitución	-11.406
ettighederne	-11.4073
▁ondernemingen	-11.4075
▁valitsus	-11.4075
▁papild	-11.4075
▁орган	-11.4078
▁ustanov	-11.4079
▁absurd	-11.408
▁nævne	-11.4086
▁Ritengo	-11.4091
Pirminink	-11.4093
▁trasporto	-11.4093
глед	-11.4095
▁Russie	-11.4103
▁σταθερ	-11.4103
▁juridisch	-11.4104
sicherheit	-11.4104
▁promuovere	-11.4108
▁perspectiva	-11.4115
▁potentiel	-11.4116
▁υγεία	-11.4123
▁Barcelona	-11.413
ressourcer	-11.4132
▁Schaffung	-11.4136
▁asegurar	-11.4138
▁management	-11.414
▁třeba	-11.4141
▁udnytte	-11.4143
Ω	-11.4151
▁δηλαδή	-11.4166
▁gegenwärtig	-11.4167
▁humanitaire	-11.4167
▁Gerb.	-11.4171
▁alimentaire	-11.4188
▁μείωση	-11.4188
▁společnost	-11.419
▁κυρία	-11.4197
▁agrícola	-11.4201
▁Comunidad	-11.4201
▁C5-0	-11.4209
▁utrikes	-11.4209
▁última	-11.4218
▁социал	-11.422
▁richiesta	-11.4222
▁Ryssland	-11.4225
▁Ка	-11.4228
▁available	-11.4237
▁sprijin	-11.4241
▁frakcij	-11.4244
▁Beziehungen	-11.425
▁author	-11.4252
▁término	-11.4254
▁énergétique	-11.4261
▁Gründe	-11.4262
▁devrions	-11.4262
occupation	-11.4264
▁členským	-11.4267
▁comunicazione	-11.428
▁proporciona	-11.4282
▁officiel	-11.4282
▁besondere	-11.4291
▁Turchia	-11.4291
▁folytat	-11.4309
▁synnerhet	-11.4312
évaluation	-11.4312
▁bardziej	-11.4314
▁költségvetés	-11.4325
▁Verheugen	-11.4327
▁страна	-11.4329
▁eficaz	-11.4331
▁demasiado	-11.4337
▁capacidad	-11.434
▁tatsächlich	-11.4346
▁adhesión	-11.4346
▁pokrok	-11.435
▁rohkem	-11.4352
-Fractie	-11.4365
▁tinkam	-11.4366
▁Erachtens	-11.4367
▁ingediend	-11.4367
▁budżet	-11.4375
▁oktober	-11.4386
▁πολιτικές	-11.439
▁hääleta	-11.4399
▁komisār	-11.4401
▁ensemble	-11.4417
tarptautin	-11.443
▁използва	-11.444
▁κυρίες	-11.444
▁граждани	-11.4442
▁istituzioni	-11.4445
▁l'ensemble	-11.4447
▁πράξ	-11.4455
▁udfordring	-11.4457
▁Turkiet	-11.4457
▁επιχειρήσεις	-11.4459
▁pogodb	-11.4463
▁giuridica	-11.447
ausschuss	-11.4472
▁προβλέπ	-11.4476
▁Freiheit	-11.448
▁ενισχύ	-11.4484
▁obliki.	-11.4491
▁Eiropa	-11.4496
▁σύμφωνα	-11.4497
▁ωστόσο	-11.4503
▁írásban.	-11.4507
▁efficient	-11.4515
държ	-11.4516
▁põllumajandus	-11.4517
bezpiecz	-11.4517
▁c’est	-11.4528
▁período	-11.453
▁pärast	-11.4532
▁représentant	-11.4534
▁bemærkning	-11.4536
▁kodanike	-11.4547
▁verbetering	-11.4547
▁Komisjon	-11.4551
▁sprawozdanie	-11.4553
▁verbeteren	-11.4553
▁zagotavlja	-11.4555
▁stärker	-11.4575
▁nell'ambito	-11.458
▁emphasis	-11.4586
λαμβάνει	-11.4588
▁OLAF	-11.459
▁Galileo	-11.4604
▁evenwicht	-11.4604
Å	-11.4606
▁cependant	-11.461
▁tárgyal	-11.4612
▁konstitution	-11.4615
-Fraktion	-11.4625
▁pubblico	-11.4637
▁utvidgning	-11.4643
▁bekämpa	-11.4643
▁гарантира	-11.4649
gesellschaft	-11.4655
▁Arbeitsplätze	-11.4662
▁äußerst	-11.4664
▁piemēro	-11.4672
piirkond	-11.4674
▁themselves	-11.4682
intégration	-11.4685
technologie	-11.4686
▁disponibili	-11.4688
▁mõist	-11.4688
▁Bulgaria	-11.469
kvalifik	-11.4692
▁Notwendigkeit	-11.4696
▁beroep	-11.4697
konferens	-11.4698
▁którzy	-11.471
▁Regelung	-11.4716
▁hatékony	-11.4717
▁intégr	-11.4721
▁pubblici	-11.4725
▁няма	-11.4731
kļū	-11.4747
▁étrangère	-11.4753
▁praktijk	-11.4755
▁страни	-11.4761
▁повече	-11.4763
▁toetreding	-11.4773
▁ευρωπαϊκό	-11.4783
▁meerderheid	-11.4787
+	-11.4795
[	-11.4796
▁διάρκεια	-11.4798
▁fødevare	-11.48
▁środków	-11.4804
▁siguiente	-11.4806
▁exception	-11.4806
▁förbindelser	-11.4808
▁ακριβώς	-11.4812
δημοκρατικ	-11.4816
▁Bekämpfung	-11.4822
▁Bovendien	-11.4822
▁Bedingungen	-11.4822
▁qualsiasi	-11.4828
▁responsible	-11.483
▁αντιμετωπίζ	-11.483
▁vraagstuk	-11.4834
▁indispensable	-11.4836
kostnader	-11.4846
▁economisch	-11.4849
▁υποστηρίζ	-11.485
▁algemene	-11.485
▁difficoltà	-11.4854
▁upošteva	-11.4856
▁λοιπόν	-11.4858
Ρ	-11.4868
▁Priorität	-11.4868
▁C’est	-11.4872
erklæring	-11.4878
▁niños	-11.4882
▁réduction	-11.4884
▁signifie	-11.4886
▁attīstība	-11.4888
&#x02BC;	-11.4894
▁Brussel	-11.4894
▁Myslím	-11.49
▁jautājums	-11.4906
neskerettigheder	-11.4913
▁nemzetközi	-11.4914
campagne	-11.4916
▁άλλων	-11.4916
▁gobierno	-11.4918
▁криза	-11.492
▁irányelv	-11.4922
▁kwaliteit	-11.493
▁žmogaus	-11.493
▁върху	-11.4932
▁fuldstændig	-11.4942
▁bevorderen	-11.4955
▁nustatyt	-11.4955
▁humanitär	-11.4959
▁Asamblea	-11.4971
▁maailma	-11.4983
▁Verwaltung	-11.4989
ifrån	-11.4991
▁genoemd	-11.4997
▁esprimere	-11.5001
▁2007-2013	-11.5009
▁развитие	-11.5015
▁volonté	-11.5028
▁Vážen	-11.503
▁obravnava	-11.5032
▁καταπολέμηση	-11.504
▁mezinárodní	-11.505
▁handicap	-11.5062
▁comunque	-11.5064
▁uważa	-11.5064
▁größere	-11.507
▁wszystkim	-11.507
▁alimentari	-11.507
▁extrêmement	-11.5078
▁aanwezig	-11.508
▁rozhodnutí	-11.5085
▁ομάδα	-11.5089
▁plutôt	-11.5091
▁dezvoltare	-11.5093
▁bekymring	-11.5097
▁Tarybos	-11.5105
▁l'article	-11.5105
važuj	-11.5106
▁vertrouwen	-11.5107
▁demokrāti	-11.5113
▁Sitzung	-11.5113
▁avgörande	-11.5115
▁măsuri	-11.5126
▁Währung	-11.5132
▁solidarietà	-11.5132
efficacité	-11.5134
▁hospodářské	-11.5138
▁környezet	-11.5162
▁assolutamente	-11.5173
▁2015	-11.5175
▁specifieke	-11.5183
▁infrastructure	-11.5185
▁például	-11.5187
▁παραγωγή	-11.5189
▁защото	-11.5195
zīmē	-11.5196
▁κάποιο	-11.52
▁Communauté	-11.5202
▁essenziale	-11.521
▁otázku	-11.521
▁Gelegenheit	-11.5222
▁kwestii	-11.5224
▁człowieka	-11.5227
▁využíva	-11.5229
▁internazionali	-11.5235
▁davvero	-11.5239
▁capacità	-11.5241
▁Gefahr	-11.5245
▁σημαίνει	-11.5247
perspektiv	-11.5253
▁Tyskland	-11.526
γράφ	-11.5261
▁έπρεπε	-11.5268
▁ambientale	-11.5278
▁spolupráce	-11.5287
▁všetky	-11.5293
▁Парламента	-11.5301
zekerheid	-11.5302
▁Directive	-11.5306
▁vähenda	-11.5308
▁végrehajt	-11.5322
▁wijziging	-11.5327
▁είμαι	-11.5329
▁betydelig	-11.5331
Í	-11.5335
▁conseguenze	-11.5335
▁compromesso	-11.5337
▁transparence	-11.5341
▁eksempel	-11.5343
▁innovativ	-11.5344
▁excelente	-11.5347
▁alcanzar	-11.5354
▁Wachstum	-11.5358
▁spravodaj	-11.5358
▁künftig	-11.5362
▁predsednica	-11.5362
▁κυβερν	-11.5362
▁journalist	-11.5362
▁μπορούσε	-11.5364
▁chtěl	-11.5373
▁dyrektyw	-11.5392
▁žmonių	-11.5392
maatschappij	-11.5402
▁dalībvalstu	-11.5404
▁θέλω	-11.5409
▁řešení	-11.5415
▁γι'	-11.5421
▁βοηθ	-11.5423
▁Cependant	-11.543
▁trasparenza	-11.543
▁incorpora	-11.5434
▁důvod	-11.5436
▁heißt	-11.5436
▁kõigi	-11.5436
▁begrijp	-11.544
▁iscritto.	-11.5449
introduction	-11.5454
fejlesztés	-11.5455
▁raccomanda	-11.5455
▁transparencia	-11.5461
▁bezpieczeństwa	-11.5464
▁priekšsēdētāj	-11.5466
▁1992	-11.5476
▁konsolid	-11.5483
maßnahmen	-11.5485
▁Desidero	-11.5491
▁επιτροπή	-11.5491
▁Auffassung	-11.5493
▁adecuada	-11.55
δήλω	-11.5502
▁πρόσβαση	-11.5504
▁patvirtin	-11.5506
▁sammenhæng	-11.5508
▁Bildung	-11.5508
▁άρθρο	-11.5523
▁Európe	-11.5525
▁skutečnost	-11.5532
▁considérable	-11.5536
▁experience	-11.5551
▁encuentra	-11.5553
▁threat	-11.5555
▁taisykl	-11.556
▁σχέδιο	-11.5564
kaubandus	-11.5566
▁medioambiental	-11.5572
▁χρηματοδότηση	-11.5575
общ	-11.5576
▁kategori	-11.5595
▁altresì	-11.56
▁Richtung	-11.56
станов	-11.5609
▁έρευνα	-11.5611
▁communauté	-11.5613
▁spotřeb	-11.5615
▁λύση	-11.5615
]	-11.5618
▁consiguiente	-11.5618
▁uwagę	-11.5622
▁reflect	-11.5624
▁activities	-11.563
▁capacité	-11.563
▁ισχυρ	-11.565
▁Tagesordnung	-11.5674
▁preşedinte	-11.5678
▁όλων	-11.5678
▁Erfolg	-11.5681
▁Evropi	-11.5685
▁fondamentaux	-11.5685
▁Zusammen	-11.5692
▁zodpovedn	-11.5693
▁δικαίωμα	-11.5695
▁προσέγγιση	-11.5708
▁piemēram	-11.5711
▁Comunità	-11.5715
▁betragtning	-11.5717
δυναμ	-11.5719
▁βουλευτές	-11.5722
▁energetik	-11.5726
virksomhed	-11.574
▁Izrael	-11.5743
▁repræsentant	-11.5743
▁supplémentaire	-11.575
l’onorevole	-11.5752
▁Mehrheit	-11.5756
▁scorso	-11.5767
▁disponible	-11.577
▁intelligent	-11.577
▁rozwoju	-11.5783
▁Hlasoval	-11.5798
▁αποτελούν	-11.58
▁duurzame	-11.5805
▁регион	-11.5809
▁zpravodaj	-11.5818
▁ιδίως	-11.5822
schätz	-11.5823
évolution	-11.5823
▁Evropě	-11.5824
ù	-11.5829
▁eljárás	-11.5855
▁κράτος	-11.5857
казва	-11.586
▁frontières	-11.5862
▁βελτίωση	-11.5864
▁emisij	-11.5868
▁visuomen	-11.5886
‘	-11.5891
▁μέρος	-11.59
▁Съвета	-11.5902
▁eindeutig	-11.5926
▁ligeledes	-11.5926
▁правата	-11.5926
▁napríklad	-11.5935
▁παρούσα	-11.5935
▁znamená	-11.594
▁conseguenza	-11.5944
▁vorliegen	-11.5948
▁működ	-11.5953
▁retfærdig	-11.5954
▁gezamenlijk	-11.5957
képviselőcsoport	-11.5962
▁writing.	-11.5973
▁beschouw	-11.5975
Rechtsvorschrift	-11.5977
▁мерки	-11.598
▁δώσ	-11.5988
▁although	-11.5993
▁nucléaire	-11.5995
▁zahranič	-11.6
▁spodbuja	-11.6009
▁písemně.	-11.6011
▁искал	-11.6015
▁Quisiera	-11.6018
▁jautājumi	-11.6018
▁szolgál	-11.6026
spagnol	-11.6027
▁rakstiski.	-11.6031
rozījum	-11.6036
▁critères	-11.604
▁Herausforderung	-11.6049
▁módosítás	-11.6051
▁kriminal	-11.6058
▁dostęp	-11.6072
▁rovněž	-11.6078
▁överenskommelse	-11.6085
▁cohésion	-11.609
▁καμία	-11.609
▁hälso	-11.6097
▁бюджет	-11.6099
▁izboljša	-11.6099
ложи	-11.6099
▁ουσιαστικ	-11.6106
▁bedrijf	-11.611
▁jurídico	-11.611
▁Luxemburg	-11.6112
▁größte	-11.6112
▁gelegenheid	-11.6119
▁priekšlikumu	-11.6121
▁megoldás	-11.6124
▁zároveň	-11.6128
▁együtt	-11.6131
▁strateegia	-11.6133
▁πρώτο	-11.6135
▁ανθρωπίνων	-11.6144
▁galėtų	-11.6146
▁keskkonna	-11.6149
▁μηχαν	-11.6149
▁uiteindelijk	-11.6151
▁pasākumi	-11.6159
▁δυνατόν	-11.616
▁πραγματικότητα	-11.6165
▁extérieur	-11.6176
▁Stabilität	-11.6192
▁vzťah	-11.6194
▁sistēma	-11.6194
▁noodzaak	-11.6201
▁τέτοιο	-11.6201
▁udelukke	-11.6203
▁forvaltning	-11.6203
▁használ	-11.6206
▁τελευταία	-11.6208
▁réglementation	-11.6215
▁odvětví	-11.6238
▁nyújt	-11.6265
▁impuesto	-11.6265
▁bezpečn	-11.6271
П	-11.6494
„	-11.651
«	-11.7021
&	-11.7623
œ	-11.7639
С	-11.7647
Ś	-11.8197
°	-11.848
¡	-11.8535
Ф	-11.9026
Σ	-11.9689
Ā	-11.9726
Х	-12.0073
У	-12.0464
Μ	-12.0634
Ī	-12.0933
Л	-12.1492
Į	-12.1843
ĺ	-12.2074
Ζ	-12.2375
Ř	-12.2426
Υ	-12.3339
Ψ	-12.3657
Ч	-12.3686
Ķ	-12.3739
ŕ	-12.405
­	-12.4553
ã	-12.5212
Γ	-12.5642
Ή	-12.569
Æ	-12.613
З	-12.6186
Ц	-12.6242
Ш	-12.6494
Β	-12.7013
ΐ	-12.7531
Ά	-12.7624
Ί	-12.7674
Η	-12.8468
Ş	-12.9844
Ż	-12.9889
В	-12.9928
Ţ	-12.9961
Î	-13.1343
—	-13.1652
Ő	-13.2045
Ю	-13.2501
Ł	-13.2942
Ļ	-13.3114
Ύ	-13.3728
Õ	-13.3807
Я	-13.4297
Ū	-13.4946
Ö	-13.5144
=	-13.5202
Ξ	-13.531
ь	-13.5915
Ľ	-13.5964
Ó	-13.6064
Ж	-13.6265
Ș	-13.6897
Ώ	-13.7247
•	-13.7303
Ē	-13.8128
́	-13.8546
ğ	-13.9746
Ģ	-14.0164
Й	-14.0418
¿	-14.0668
Š	-14.1452
_	-14.2005
Ť	-14.577
Ț	-14.5858
Ç	-14.5992
І	-14.7757
@	-14.7919
−	-14.8029
£	-14.9447
#	-14.9639
Ê	-14.9835
∙	-15.1327
>	-15.2042
$	-15.2292
Đ	-15.404
\	-15.4661
‚	-15.4662
‟	-15.4988
*	-15.5793
―	-15.641
⁄	-15.68
ǎ	-15.68
§	-15.6933
ı	-15.9699
ΰ	-16.0433
€	-16.0821
<	-16.1225
}	-16.1864
Â	-16.1864
{	-16.2086
×	-16.4068
ˮ	-16.6899
ǐ	-16.7269
±	-16.7269
ō	-16.847
Ò	-16.8905
̧	-16.8905
Ô	-16.936
đ	-16.936
Ï	-16.9836
Ź	-16.9836
Ű	-17.0862
ŏ	-17.1418
Ì	-17.4012
Œ	-17.4781
˗	-17.4781
̄	-17.4781
Ć	-17.6524
Ð	-17.7524
̨	-17.8635
`	-17.8635
ǔ	-17.8635
ŵ	-17.9885
̈	-17.9885
Ë	-17.9885
̊	-17.9885
Ė	-17.9885
þ	-18.1313
İ	-18.1313
ŗ	-18.1313
Ḩ	-18.1313
≤	-18.1313
Ý	-18.298
і	-18.298
′	-18.298
ĉ	-18.498
Ù	-18.498
ы	-18.498
ѝ	-18.498
©	-18.748
ˇ	-18.748
Ъ	-18.748
ð	-19.0813
¢	-19.0813
Ĺ	-19.0813
ˑ	-19.0813
љ	-19.0813
÷	-19.0813
ἐ	-19.0813
Ņ	-19.5811
Ď	-19.5812
ʻ	-19.5813
^	-19.5813
Ă	-19.5813
Є	-19.5813
Ň	-19.5813
Ϊ	-19.5813
Щ	-19.5813
